{
  "version": "1.0",
  "truncation": null,
  "padding": null,
  "added_tokens": [
    {
      "id": 0,
      "content": "<|endoftext|>",
      "single_word": false,
      "lstrip": false,
      "rstrip": false,
      "normalized": false,
      "special": true
    },
    {
      "id": 1,
      "content": "<|im_end|>",
      "single_word": false,
      "lstrip": false,
      "rstrip": false,
      "normalized": false,
      "special": true
    },
    {
      "id": 2,
      "content": "<|im_system|>",
      "single_word": false,
      "lstrip": false,
      "rstrip": false,
      "normalized": false,
      "special": true
    },
    {
      "id": 3,
      "content": "<|im_user|>",
      "single_word": false,
      "lstrip": false,
      "rstrip": false,
      "normalized": false,
      "special": true
    },
    {
      "id": 4,
      "content": "<|im_assistant|>",
      "single_word": false,
      "lstrip": false,
      "rstrip": false,
      "normalized": false,
      "special": true
    }
  ],
  "normalizer": null,
  "pre_tokenizer": {
    "type": "Sequence",
    "pretokenizers": [
      {
        "type": "Punctuation",
        "behavior": "Isolated"
      },
      {
        "type": "ByteLevel",
        "add_prefix_space": false,
        "trim_offsets": true,
        "use_regex": true
      }
    ]
  },
  "post_processor": {
    "type": "ByteLevel",
    "add_prefix_space": true,
    "trim_offsets": false,
    "use_regex": true
  },
  "decoder": {
    "type": "ByteLevel",
    "add_prefix_space": true,
    "trim_offsets": true,
    "use_regex": true
  },
  "model": {
    "type": "BPE",
    "dropout": null,
    "unk_token": null,
    "continuing_subword_prefix": null,
    "end_of_word_suffix": null,
    "fuse_unk": false,
    "byte_fallback": false,
    "ignore_merges": false,
    "vocab": {
      "<|endoftext|>": 0,
      "<|im_end|>": 1,
      "<|im_system|>": 2,
      "<|im_user|>": 3,
      "<|im_assistant|>": 4,
      "!": 5,
      "\"": 6,
      "#": 7,
      "$": 8,
      "%": 9,
      "&": 10,
      "'": 11,
      "(": 12,
      ")": 13,
      "*": 14,
      "+": 15,
      ",": 16,
      "-": 17,
      ".": 18,
      "/": 19,
      "0": 20,
      "1": 21,
      "2": 22,
      "3": 23,
      "4": 24,
      "5": 25,
      "6": 26,
      "7": 27,
      "8": 28,
      "9": 29,
      ":": 30,
      ";": 31,
      "<": 32,
      "=": 33,
      ">": 34,
      "?": 35,
      "@": 36,
      "A": 37,
      "B": 38,
      "C": 39,
      "D": 40,
      "E": 41,
      "F": 42,
      "G": 43,
      "H": 44,
      "I": 45,
      "J": 46,
      "K": 47,
      "L": 48,
      "M": 49,
      "N": 50,
      "O": 51,
      "P": 52,
      "Q": 53,
      "R": 54,
      "S": 55,
      "T": 56,
      "U": 57,
      "V": 58,
      "W": 59,
      "X": 60,
      "Y": 61,
      "Z": 62,
      "[": 63,
      "\\": 64,
      "]": 65,
      "^": 66,
      "_": 67,
      "`": 68,
      "a": 69,
      "b": 70,
      "c": 71,
      "d": 72,
      "e": 73,
      "f": 74,
      "g": 75,
      "h": 76,
      "i": 77,
      "j": 78,
      "k": 79,
      "l": 80,
      "m": 81,
      "n": 82,
      "o": 83,
      "p": 84,
      "q": 85,
      "r": 86,
      "s": 87,
      "t": 88,
      "u": 89,
      "v": 90,
      "w": 91,
      "x": 92,
      "y": 93,
      "z": 94,
      "{": 95,
      "|": 96,
      "}": 97,
      "~": 98,
      "¡": 99,
      "¢": 100,
      "£": 101,
      "¤": 102,
      "¥": 103,
      "¦": 104,
      "§": 105,
      "¨": 106,
      "©": 107,
      "ª": 108,
      "«": 109,
      "¬": 110,
      "®": 111,
      "¯": 112,
      "°": 113,
      "±": 114,
      "²": 115,
      "³": 116,
      "´": 117,
      "µ": 118,
      "¶": 119,
      "·": 120,
      "¸": 121,
      "¹": 122,
      "º": 123,
      "»": 124,
      "¼": 125,
      "½": 126,
      "¾": 127,
      "¿": 128,
      "À": 129,
      "Á": 130,
      "Â": 131,
      "Ã": 132,
      "Ä": 133,
      "Å": 134,
      "Æ": 135,
      "Ç": 136,
      "È": 137,
      "É": 138,
      "Ê": 139,
      "Ë": 140,
      "Ì": 141,
      "Í": 142,
      "Î": 143,
      "Ï": 144,
      "Ð": 145,
      "Ñ": 146,
      "Ò": 147,
      "Ó": 148,
      "Ô": 149,
      "Õ": 150,
      "Ö": 151,
      "×": 152,
      "Ø": 153,
      "Ù": 154,
      "Ú": 155,
      "Û": 156,
      "Ü": 157,
      "Ý": 158,
      "Þ": 159,
      "ß": 160,
      "à": 161,
      "á": 162,
      "â": 163,
      "ã": 164,
      "ä": 165,
      "å": 166,
      "æ": 167,
      "ç": 168,
      "è": 169,
      "é": 170,
      "ê": 171,
      "ë": 172,
      "ì": 173,
      "í": 174,
      "î": 175,
      "ï": 176,
      "ð": 177,
      "ñ": 178,
      "ò": 179,
      "ó": 180,
      "ô": 181,
      "õ": 182,
      "ö": 183,
      "÷": 184,
      "ø": 185,
      "ù": 186,
      "ú": 187,
      "û": 188,
      "ü": 189,
      "ý": 190,
      "þ": 191,
      "ÿ": 192,
      "Ā": 193,
      "ā": 194,
      "Ă": 195,
      "ă": 196,
      "Ą": 197,
      "ą": 198,
      "Ć": 199,
      "ć": 200,
      "Ĉ": 201,
      "ĉ": 202,
      "Ċ": 203,
      "ċ": 204,
      "Č": 205,
      "č": 206,
      "Ď": 207,
      "ď": 208,
      "Đ": 209,
      "đ": 210,
      "Ē": 211,
      "ē": 212,
      "Ĕ": 213,
      "ĕ": 214,
      "Ė": 215,
      "ė": 216,
      "Ę": 217,
      "ę": 218,
      "Ě": 219,
      "ě": 220,
      "Ĝ": 221,
      "ĝ": 222,
      "Ğ": 223,
      "ğ": 224,
      "Ġ": 225,
      "ġ": 226,
      "Ģ": 227,
      "ģ": 228,
      "Ĥ": 229,
      "ĥ": 230,
      "Ħ": 231,
      "ħ": 232,
      "Ĩ": 233,
      "ĩ": 234,
      "Ī": 235,
      "ī": 236,
      "Ĭ": 237,
      "ĭ": 238,
      "Į": 239,
      "į": 240,
      "İ": 241,
      "ı": 242,
      "Ĳ": 243,
      "ĳ": 244,
      "Ĵ": 245,
      "ĵ": 246,
      "Ķ": 247,
      "ķ": 248,
      "ĸ": 249,
      "Ĺ": 250,
      "ĺ": 251,
      "Ļ": 252,
      "ļ": 253,
      "Ľ": 254,
      "ľ": 255,
      "Ŀ": 256,
      "ŀ": 257,
      "Ł": 258,
      "ł": 259,
      "Ń": 260,
      "ï¼": 261,
      "ä¸": 262,
      "ï¼Į": 263,
      "ãĢ": 264,
      "äº": 265,
      "çļ": 266,
      "çļĦ": 267,
      "å®": 268,
      "ãĢĤ": 269,
      "åħ": 270,
      "åĲ": 271,
      "ä¹": 272,
      "ä»": 273,
      "å¹": 274,
      "æľ": 275,
      "å¤": 276,
      "åı": 277,
      "çĶ": 278,
      "æĹ": 279,
      "å¹´": 280,
      "æĪ": 281,
      "åľ": 282,
      "æŃ": 283,
      "åĽ": 284,
      "å°": 285,
      "åĪ": 286,
      "åĨ": 287,
      "è¿": 288,
      "ç»": 289,
      "æĿ": 290,
      "å®¶": 291,
      "æ°": 292,
      "æĺ": 293,
      "ä½": 294,
      "åį": 295,
      "ä¸º": 296,
      "ï¼Ī": 297,
      "ï¼ī": 298,
      "åĬ": 299,
      "âĢ": 300,
      "æĶ": 301,
      "ä¿": 302,
      "ãĢģ": 303,
      "åŁ": 304,
      "å·": 305,
      "ä¸Ģ": 306,
      "ä¹ĭ": 307,
      "æĸ": 308,
      "éķ": 309,
      "èĩ": 310,
      "åº": 311,
      "åľ¨": 312,
      "çĶ°": 313,
      "å±": 314,
      "åŁİ": 315,
      "åĲİ": 316,
      "å¤§": 317,
      "æ°ı": 318,
      "éķ¿": 319,
      "ç§": 320,
      "ä¼": 321,
      "å¾": 322,
      "ä¿¡": 323,
      "æĪĺ": 324,
      "å¯": 325,
      "åĩ": 326,
      "åŃ": 327,
      "åĨĽ": 328,
      "åĽ½": 329,
      "éĩ": 330,
      "æĺ¯": 331,
      "æī": 332,
      "å¼": 333,
      "éĥ": 334,
      "æĹ¶": 335,
      "è¯": 336,
      "äºĨ": 337,
      "è®": 338,
      "ä¸İ": 339,
      "çĽ": 340,
      "èĢ": 341,
      "åİ": 342,
      "æĹ¥": 343,
      "ä¸Ń": 344,
      "äºİ": 345,
      "èµ": 346,
      "éĢ": 347,
      "è´": 348,
      "ä¸Ĭ": 349,
      "äºº": 350,
      "å·Ŀ": 351,
      "å±±": 352,
      "æľĪ": 353,
      "æ²": 354,
      "ä¹ī": 355,
      "15": 356,
      "å½": 357,
      "ä¸ī": 358,
      "èĥ": 359,
      "ä¸į": 360,
      "å°Ĩ": 361,
      "éĺ": 362,
      "åŃĲ": 363,
      "ä»¥": 364,
      "å¿": 365,
      "ç§Ģ": 366,
      "åĮ": 367,
      "åĩº": 368,
      "æľī": 369,
      "å¥": 370,
      "è¢": 371,
      "æŃ£": 372,
      "âĢľ": 373,
      "âĢĿ": 374,
      "æŃ¦": 375,
      "åħĥ": 376,
      "ä¸ĭ": 377,
      "æĶ¿": 378,
      "åĲį": 379,
      "ä»£": 380,
      "éĻ": 381,
      "å¤©": 382,
      "æĬ": 383,
      "éģ": 384,
      "çŃ": 385,
      "éĹ": 386,
      "åī": 387,
      "æĪĲ": 388,
      "æľ¬": 389,
      "è§": 390,
      "æµ": 391,
      "å²": 392,
      "åľ°": 393,
      "èĢĮ": 394,
      "æķ": 395,
      "æŃ¤": 396,
      "åħ¶": 397,
      "é¢": 398,
      "æ´": 399,
      "åĪ©": 400,
      "è¢«": 401,
      "åĴ": 402,
      "å¸": 403,
      "è¡": 404,
      "æĻ": 405,
      "èĩ£": 406,
      "åĴĮ": 407,
      "çİ": 408,
      "éļ": 409,
      "çº": 410,
      "è¾": 411,
      "æ³": 412,
      "åįģ": 413,
      "çŁ": 414,
      "åīį": 415,
      "åĲī": 416,
      "ä¸»": 417,
      "è¶": 418,
      "æĸ¹": 419,
      "ç«": 420,
      "æ±": 421,
      "é¢Ĩ": 422,
      "åĨħ": 423,
      "è°": 424,
      "ä¾": 425,
      "åĲĮ": 426,
      "èĹ": 427,
      "å¯¹": 428,
      "å®Ī": 429,
      "ä»ĸ": 430,
      "èĩª": 431,
      "å¹¶": 432,
      "æ¯": 433,
      "æ¬": 434,
      "æĮ": 435,
      "åĳ": 436,
      "éĩį": 437,
      "åİŁ": 438,
      "åĽł": 439,
      "è¿Ļ": 440,
      "å°ı": 441,
      "æĿ¥": 442,
      "åĪ°": 443,
      "åº·": 444,
      "ç¦": 445,
      "åħµ": 446,
      "æĶ»": 447,
      "åĮĹ": 448,
      "äº²": 449,
      "çŃī": 450,
      "æĭ": 451,
      "åĬĽ": 452,
      "å¯º": 453,
      "ãģ": 454,
      "æİ": 455,
      "çĶŁ": 456,
      "äºĮ": 457,
      "é«": 458,
      "æ¬¡": 459,
      "é«ĺ": 460,
      "å®Ĺ": 461,
      "æ¸": 462,
      "çĪ": 463,
      "ä¿¡éķ¿": 464,
      "è¡Į": 465,
      "éĥ¨": 466,
      "ä½ľ": 467,
      "ä¹Ł": 468,
      "éĿ": 469,
      "éĩİ": 470,
      "ç»ĩ": 471,
      "å½ĵ": 472,
      "åħ¥": 473,
      "çķ": 474,
      "èĥľ": 475,
      "æĢ": 476,
      "ä½Ĩ": 477,
      "æĸĩ": 478,
      "åħ³": 479,
      "ç»ĩçĶ°": 480,
      "çĿ": 481,
      "æīĢ": 482,
      "çĦ": 483,
      "å¿ł": 484,
      "æł": 485,
      "ä¹ħ": 486,
      "è¿Ľ": 487,
      "è¦": 488,
      "åıĳ": 489,
      "ä»»": 490,
      "å¹³": 491,
      "æĿ¡": 492,
      "å¦": 493,
      "å°±": 494,
      "è¦ģ": 495,
      "ç«ĭ": 496,
      "ä¸ľ": 497,
      "åĲĳ": 498,
      "çŁ³": 499,
      "å®ļ": 500,
      "çĦ¶": 501,
      "æı": 502,
      "å¾·": 503,
      "èĩ³": 504,
      "æŀ": 505,
      "æľĿ": 506,
      "å²Ľ": 507,
      "ç§ĢåĲī": 508,
      "ç»§": 509,
      "å§": 510,
      "çĶ±": 511,
      "åĬ¿": 512,
      "å®ī": 513,
      "å¾Ĺ": 514,
      "äºĭ": 515,
      "æŃ¦çĶ°": 516,
      "çĽ´": 517,
      "ç¥": 518,
      "å¤ļ": 519,
      "è½": 520,
      "æ°¸": 521,
      "ä¼Ĭ": 522,
      "æĹ¶ä»£": 523,
      "ç¬": 524,
      "æĺİ": 525,
      "æĥ": 526,
      "çī": 527,
      "éĥ½": 528,
      "ï¼ļ": 529,
      "é©": 530,
      "æĦ": 531,
      "è¯´": 532,
      "ä¸°": 533,
      "æŃ»": 534,
      "æĻ¯": 535,
      "æ²³": 536,
      "æĿ¾": 537,
      "èĻ": 538,
      "ç§°": 539,
      "èĥ½": 540,
      "ä½į": 541,
      "æĽ": 542,
      "å®ŀ": 543,
      "çĪ¶": 544,
      "éģĵ": 545,
      "åĿ": 546,
      "ãĢĭ": 547,
      "ãĢĬ": 548,
      "æ±Ł": 549,
      "æį": 550,
      "ä»İ": 551,
      "äºĶ": 552,
      "ç¾": 553,
      "åĩ»": 554,
      "æ²»": 555,
      "å»": 556,
      "åºľ": 557,
      "éĹ´": 558,
      "åĽĽ": 559,
      "åı¯": 560,
      "å®¶åº·": 561,
      "åĬł": 562,
      "äºķ": 563,
      "å£": 564,
      "æ´¥": 565,
      "åıĬ": 566,
      "èĹ¤": 567,
      "çľ": 568,
      "èī": 569,
      "è®°": 570,
      "è¶³": 571,
      "èµĸ": 572,
      "æĿī": 573,
      "å®¶èĩ£": 574,
      "è§ģ": 575,
      "å¾·å·Ŀ": 576,
      "æľĢ": 577,
      "ä½Ĳ": 578,
      "ä¸ĸ": 579,
      "éĹ¨": 580,
      "è¿ĩ": 581,
      "ç»ı": 582,
      "åĪĨ": 583,
      "èģ": 584,
      "å¤©æŃ£": 585,
      "å¼Ģ": 586,
      "çĻ": 587,
      "è¿ĳ": 588,
      "ä»Ĭ": 589,
      "ä¸ĬæĿī": 590,
      "éĺµ": 591,
      "èº": 592,
      "ï¼Ľ": 593,
      "¥¿": 594,
      "çĽ¸": 595,
      "è¥¿": 596,
      "éĽ": 597,
      "ä¼Ĺ": 598,
      "èµ·": 599,
      "æľŁ": 600,
      "ä¹ĭæĪĺ": 601,
      "æ¯Ľ": 602,
      "èº«": 603,
      "éĢļ": 604,
      "éĿ¢": 605,
      "æĿĳ": 606,
      "ä¸ª": 607,
      "å¤ĸ": 608,
      "åħī": 609,
      "åİ»": 610,
      "äº¬": 611,
      "å¹ķ": 612,
      "è¶Ĭ": 613,
      "æĹł": 614,
      "æ¯ĽåĪ©": 615,
      "ä¸¤": 616,
      "åĲĪ": 617,
      "æ¸ħ": 618,
      "16": 619,
      "åĬ¨": 620,
      "è·": 621,
      "è±": 622,
      "æĬ¤": 623,
      "åĪĻ": 624,
      "éĥ¡": 625,
      "æ³ķ": 626,
      "æį®": 627,
      "åĳ½": 628,
      "å·²": 629,
      "éļı": 630,
      "ç¦Ħ": 631,
      "æĪ·": 632,
      "åľŁ": 633,
      "çģ": 634,
      "æŁ": 635,
      "åħŃ": 636,
      "åĮĹæĿ¡": 637,
      "æī¿": 638,
      "å¦Ĥ": 639,
      "èĢħ": 640,
      "ä½¿": 641,
      "æĮģ": 642,
      "åıĪ": 643,
      "é¦": 644,
      "ç¬¬": 645,
      "äº¦": 646,
      "ä¼ļ": 647,
      "æľ¨": 648,
      "åħ«": 649,
      "åį«": 650,
      "è¶³åĪ©": 651,
      "åħ¬": 652,
      "æĪĲä¸º": 653,
      "æ¡": 654,
      "æĹı": 655,
      "åºĨ": 656,
      "å°¾": 657,
      "æĿĥ": 658,
      "åĽŀ": 659,
      "çĿĢ": 660,
      "å¹ķåºľ": 661,
      "ç®": 662,
      "èĲ": 663,
      "æĪĺåĽ½": 664,
      "éĥİ": 665,
      "ä¹Ŀ": 666,
      "é©¬": 667,
      "å¼Ł": 668,
      "00": 669,
      "ä½ľä¸º": 670,
      "æģ": 671,
      "è¾¾": 672,
      "ä»ĵ": 673,
      "éļĨ": 674,
      "ä¹±": 675,
      "åĢ": 676,
      "å¥½": 677,
      "å£«": 678,
      "ç¤": 679,
      "çĶ¨": 680,
      "ä¸ĩ": 681,
      "ç³": 682,
      "æĹ¥æľ¬": 683,
      "éª": 684,
      "åįĥ": 685,
      "çİ°": 686,
      "ä¼ł": 687,
      "åºĶ": 688,
      "åıĹ": 689,
      "å®¶çļĦ": 690,
      "æĸ°": 691,
      "ç»Ł": 692,
      "å±ħ": 693,
      "èĬ": 694,
      "ç½": 695,
      "é¾": 696,
      "èİ": 697,
      "æ»": 698,
      "éĤ": 699,
      "ç³»": 700,
      "å¾¡": 701,
      "é¡": 702,
      "æ´¾": 703,
      "åł": 704,
      "è´¥": 705,
      "å¤§åĲį": 706,
      "åıį": 707,
      "æĿĢ": 708,
      "èĮ": 709,
      "åıĸ": 710,
      "æīĭ": 711,
      "ä»¤": 712,
      "çĽĽ": 713,
      "æ®": 714,
      "å¿ĥ": 715,
      "ä¸°èĩ£": 716,
      "ç»ĵ": 717,
      "å¤ĩ": 718,
      "æĶ¯": 719,
      "èĭ": 720,
      "åħĪ": 721,
      "èĪ": 722,
      "ä¹¦": 723,
      "ä¸ĥ": 724,
      "äº¤": 725,
      "å¾Ģ": 726,
      "çİĩ": 727,
      "éĺŁ": 728,
      "åĨį": 729,
      "åįĹ": 730,
      "åĪ¶": 731,
      "è¿ĺ": 732,
      "è´º": 733,
      "çĶº": 734,
      "æĻ´": 735,
      "åıĭ": 736,
      "åį³": 737,
      "âĢĶ": 738,
      "å´": 739,
      "å¥³": 740,
      "å¸Ĥ": 741,
      "å±±åŁİ": 742,
      "ä¾¿": 743,
      "ç¥ŀ": 744,
      "åħ´": 745,
      "æº": 746,
      "éĢĢ": 747,
      "å¢": 748,
      "æ°´": 749,
      "ç»§æī¿": 750,
      "å°ĨåĨĽ": 751,
      "å¤Ħ": 752,
      "åħ¨": 753,
      "çŁ¥": 754,
      "ç»Ī": 755,
      "åıĤ": 756,
      "å»º": 757,
      "çľŁ": 758,
      "çĲ": 759,
      "ç¨": 760,
      "14": 761,
      "æ¶": 762,
      "èİ·": 763,
      "ä¿Ŀ": 764,
      "åĬŁ": 765,
      "æĦı": 766,
      "çº²": 767,
      "å®ĪæĬ¤": 768,
      "å·ŀ": 769,
      "158": 770,
      "æĽ¾": 771,
      "æĪĳ": 772,
      "æµģ": 773,
      "ç»ĩçĶ°ä¿¡éķ¿": 774,
      "å¥ī": 775,
      "æµĵ": 776,
      "çĿ£": 777,
      "ç»Ĩ": 778,
      "ç»Ļ": 779,
      "æľª": 780,
      "æ²¡": 781,
      "ç¾½": 782,
      "157": 783,
      "æķĮ": 784,
      "çł": 785,
      "å¾ģ": 786,
      "æ·": 787,
      "çĤ": 788,
      "æ°ıçļĦ": 789,
      "åİĨ": 790,
      "æİ¥": 791,
      "å®¤": 792,
      "æĹ©": 793,
      "åģ": 794,
      "å®«": 795,
      "ãĤ": 796,
      "åº¦": 797,
      "åį´": 798,
      "è®¤": 799,
      "çļĩ": 800,
      "æĶ¹": 801,
      "äº¬éĥ½": 802,
      "å§ĭ": 803,
      "èį": 804,
      "çĶ²": 805,
      "çĭ": 806,
      "æ°¸ç¦Ħ": 807,
      "å¤ª": 808,
      "å¹¿": 809,
      "èĹ©": 810,
      "éĩĮ": 811,
      "èĻİ": 812,
      "æµ·": 813,
      "ä»¬": 814,
      "åĸ": 815,
      "çŃĳ": 816,
      "åı²": 817,
      "å·¦": 818,
      "éĻ¢": 819,
      "ç»Ń": 820,
      "åĿĤ": 821,
      "åĪĿ": 822,
      "éĵ": 823,
      "æĭħ": 824,
      "å®ĺ": 825,
      "æķĻ": 826,
      "å¤©æĸĩ": 827,
      "åĦ": 828,
      "ç»Ĩå·Ŀ": 829,
      "å¸¸": 830,
      "åĵ": 831,
      "è´ŀ": 832,
      "æ¦": 833,
      "æŃ¦å°Ĩ": 834,
      "æ³¢": 835,
      "æı´": 836,
      "ä¸¸": 837,
      "çī©": 838,
      "156": 839,
      "å·±": 840,
      "è¶³åĪ©ä¹ī": 841,
      "åĬ¿åĬĽ": 842,
      "æĴ": 843,
      "æĮĩ": 844,
      "ä»Ĭå·Ŀ": 845,
      "å«": 846,
      "å®¶çĿ£": 847,
      "éĶ": 848,
      "çİĦ": 849,
      "è°·": 850,
      "èī¯": 851,
      "å¼ł": 852,
      "æīĵ": 853,
      "è¾ī": 854,
      "èĤ": 855,
      "è¿ľ": 856,
      "ç¾İ": 857,
      "å²Ľæ´¥": 858,
      "èĻ½": 859,
      "åĬ©": 860,
      "åıª": 861,
      "10": 862,
      "æĪĺåĽ½æĹ¶ä»£": 863,
      "å¾·å·Ŀå®¶åº·": 864,
      "åľº": 865,
      "åĨĪ": 866,
      "è®©": 867,
      "çĲĨ": 868,
      "é¢Ĩåľ°": 869,
      "åĦ¿": 870,
      "æĪĸ": 871,
      "ç¼": 872,
      "åºĨéķ¿": 873,
      "è¿ŀ": 874,
      "æ±ŁæĪ·": 875,
      "çĻ¾": 876,
      "æºĲ": 877,
      "åĽ´": 878,
      "æ»¡": 879,
      "äºī": 880,
      "èģĮ": 881,
      "æ¦Ĥ": 882,
      "è¯¸": 883,
      "é¦ĸ": 884,
      "äº¡": 885,
      "åı£": 886,
      "ç§į": 887,
      "å´İ": 888,
      "åħ»": 889,
      "æĪ¿": 890,
      "èģĶ": 891,
      "çĬ": 892,
      "åıĺ": 893,
      "æ±Ĥ": 894,
      "æ¨": 895,
      "æĢ»": 896,
      "åı³": 897,
      "åı¤": 898,
      "åŁİä¸»": 899,
      "åĨ³": 900,
      "é£": 901,
      "è·¯": 902,
      "12": 903,
      "åĭ": 904,
      "æĳ": 905,
      "èĩªå·±": 906,
      "å±ŀ": 907,
      "åħĦ": 908,
      "çĦ¶èĢĮ": 909,
      "çĮ": 910,
      "çķĻ": 911,
      "éģĤ": 912,
      "å²ģ": 913,
      "å±ĭ": 914,
      "æĺĮ": 915,
      "å¹¸": 916,
      "è½¬": 917,
      "è¯·": 918,
      "éħ": 919,
      "æķ°": 920,
      "èĢģ": 921,
      "å½ĵæĹ¶": 922,
      "å¤±": 923,
      "è±«": 924,
      "å¤´": 925,
      "èĲ½": 926,
      "ä»ħ": 927,
      "æŁ´": 928,
      "åĮĹæĿ¡æ°ı": 929,
      "éĢĥ": 930,
      "æĶ¶": 931,
      "åį«éĹ¨": 932,
      "å¼º": 933,
      "é»": 934,
      "è®¨": 935,
      "çª": 936,
      "è½½": 937,
      "Ġæ¦Ĥ": 938,
      "åĮĸ": 939,
      "éĻ·": 940,
      "æł·": 941,
      "èĹı": 942,
      "éģŃ": 943,
      "åĮħ": 944,
      "11": 945,
      "å¼ĺ": 946,
      "æ£": 947,
      "Ġæ¦Ĥè¦ģ": 948,
      "ä»į": 949,
      "å¼Ģå§ĭ": 950,
      "ç¡": 951,
      "æĭħä»»": 952,
      "ä¿¡çİĦ": 953,
      "åĲĦ": 954,
      "ç®¡": 955,
      "è¨": 956,
      "ä¸īå¥½": 957,
      "ä¸¾": 958,
      "åİ¿": 959,
      "å°ģ": 960,
      "åŁº": 961,
      "è¡¨": 962,
      "è¨Ģ": 963,
      "å°¼": 964,
      "åħ³ä¸ľ": 965,
      "å½¢": 966,
      "ä¼Ĳ": 967,
      "éĻį": 968,
      "çĪ¶äº²": 969,
      "å½Ĵ": 970,
      "é¾Ļ": 971,
      "13": 972,
      "äºĮåįģ": 973,
      "å¤§åĨħ": 974,
      "åħ¼": 975,
      "å¤§åıĭ": 976,
      "ç©": 977,
      "æĬķ": 978,
      "éĺ²": 979,
      "åĽ½çļĦ": 980,
      "éĤ£": 981,
      "è§Ĩ": 982,
      "åŃĺ": 983,
      "èµĲ": 984,
      "æıĲ": 985,
      "çķ¥": 986,
      "åĮº": 987,
      "å®ĩ": 988,
      "èĬ±": 989,
      "å½¹": 990,
      "åĲĮå¹´": 991,
      "éĢł": 992,
      "æł¹": 993,
      "æĺ¥": 994,
      "åı¦": 995,
      "çİĭ": 996,
      "åİ»ä¸ĸ": 997,
      "è®®": 998,
      "åħĥå¹´": 999,
      "è¾¹": 1000,
      "è£": 1001,
      "èĳ": 1002,
      "159": 1003,
      "æĺ¾": 1004,
      "è®¤ä¸º": 1005,
      "åĽ¾": 1006,
      "æĶ¾": 1007,
      "å¤©çļĩ": 1008,
      "æľį": 1009,
      "ä¹ĭåĲİ": 1010,
      "éĩĳ": 1011,
      "çĹ": 1012,
      "è°¦": 1013,
      "ä»ķ": 1014,
      "èĩ´": 1015,
      "æĥħ": 1016,
      "æµħ": 1017,
      "æĽ´": 1018,
      "æĸĭ": 1019,
      "ä½ĵ": 1020,
      "éķĩ": 1021,
      "ä¹ĭåŃĲ": 1022,
      "å¤į": 1023,
      "å°ĳ": 1024,
      "å¸¦": 1025,
      "æĬĹ": 1026,
      "å«¡": 1027,
      "ç¦ı": 1028,
      "è°¦ä¿¡": 1029,
      "åĥ": 1030,
      "èĭ¥": 1031,
      "åĪ«": 1032,
      "çģŃ": 1033,
      "å¼ı": 1034,
      "æ®¿": 1035,
      "å¯Į": 1036,
      "ç±": 1037,
      "æĿ¾å¹³": 1038,
      "åĽłä¸º": 1039,
      "çĤ¹": 1040,
      "çĻ½": 1041,
      "æļ": 1042,
      "çĥ": 1043,
      "ä½Ļ": 1044,
      "åĽłæŃ¤": 1045,
      "æĪĺæŃ»": 1046,
      "ç«¹": 1047,
      "å¸ĥ": 1048,
      "çĶ·": 1049,
      "æ¯į": 1050,
      "åĲİæĿ¥": 1051,
      "å½ĵä¸»": 1052,
      "åı·": 1053,
      "ãĥ": 1054,
      "å¤º": 1055,
      "åºĦ": 1056,
      "Â·": 1057,
      "æľº": 1058,
      "çªģ": 1059,
      "è§Ĵ": 1060,
      "è¿ĽæĶ»": 1061,
      "æ±ł": 1062,
      "ç¿": 1063,
      "éľ": 1064,
      "éĻĨ": 1065,
      "äº«": 1066,
      "ç¦»": 1067,
      "æ²¡æľī": 1068,
      "æ¿": 1069,
      "ç¤¾": 1070,
      "å°¼åŃĲ": 1071,
      "155": 1072,
      "å¨": 1073,
      "éĽĨ": 1074,
      "ä¸Ķ": 1075,
      "æĹ§": 1076,
      "è¯Ń": 1077,
      "è´Ł": 1078,
      "è¯¥": 1079,
      "æĸŃ": 1080,
      "æĻº": 1081,
      "åĲĪæĪĺ": 1082,
      "è§£": 1083,
      "çº¦": 1084,
      "ä»½": 1085,
      "æĦ¿": 1086,
      "æĤ": 1087,
      "éº": 1088,
      "æīį": 1089,
      "ä¹¡": 1090,
      "çĽ®": 1091,
      "è¢Ń": 1092,
      "éĺ¿": 1093,
      "æĸ¹éĿ¢": 1094,
      "åħ³ç³»": 1095,
      "çģ«": 1096,
      "å²©": 1097,
      "æĺŃ": 1098,
      "ç²": 1099,
      "æŀģ": 1100,
      "å±ķ": 1101,
      "å§ĵ": 1102,
      "ä¼Ĭè¾¾": 1103,
      "æŀľ": 1104,
      "æŃ¤æĹ¶": 1105,
      "æĬĬ": 1106,
      "ãĢį": 1107,
      "ãĢĮ": 1108,
      "åŃĻ": 1109,
      "é»ĳ": 1110,
      "è´£": 1111,
      "ä¾µ": 1112,
      "çĽŁ": 1113,
      "æŃ¦å£«": 1114,
      "åŁİçļĦ": 1115,
      "è°ĭ": 1116,
      "éĻ¤": 1117,
      "çļĦæŃ¦å°Ĩ": 1118,
      "åŃĿ": 1119,
      "åĲĮæĹ¶": 1120,
      "è®°è½½": 1121,
      "èµĦ": 1122,
      "æ´»": 1123,
      "åħ±": 1124,
      "ç¡®": 1125,
      "éĿŀ": 1126,
      "åĳ¨": 1127,
      "äºĳ": 1128,
      "æĥ³": 1129,
      "ä¸°èĩ£ç§ĢåĲī": 1130,
      "ä¸¹": 1131,
      "éķ°": 1132,
      "æ¯Ķ": 1133,
      "äºĽ": 1134,
      "åıĽ": 1135,
      "åŃĹ": 1136,
      "ä¸īæ²³": 1137,
      "æ°ĳ": 1138,
      "åĪ°äºĨ": 1139,
      "æĢ§": 1140,
      "åĬ¡": 1141,
      "é¹": 1142,
      "æķħ": 1143,
      "åĨĽçļĦ": 1144,
      "æ·±": 1145,
      "19": 1146,
      "æľĿä»ĵ": 1147,
      "éªı": 1148,
      "åĸľ": 1149,
      "è¿½": 1150,
      "çķł": 1151,
      "ä¹ĭä¹±": 1152,
      "äºİæĺ¯": 1153,
      "ä¸īå¹´": 1154,
      "èĦ": 1155,
      "çĬ¶": 1156,
      "çĹħ": 1157,
      "è®¾": 1158,
      "çºª": 1159,
      "ä¸Ģä¸ª": 1160,
      "ä¸Ģæı": 1161,
      "å°½": 1162,
      "ä¸ĢæıĨ": 1163,
      "è®¸": 1164,
      "äºĮå¹´": 1165,
      "ä»¶": 1166,
      "æĸĻ": 1167,
      "é¾Ł": 1168,
      "çľĭ": 1169,
      "18": 1170,
      "é¥": 1171,
      "éļ¾": 1172,
      "çĸ": 1173,
      "å°ļ": 1174,
      "ç¾İæµĵ": 1175,
      "å¥¥": 1176,
      "ç»Ŀ": 1177,
      "å¢ŀ": 1178,
      "ä¸ĢåĲĮ": 1179,
      "ä½Ĩæĺ¯": 1180,
      "æĸĲ": 1181,
      "åħĥå°±": 1182,
      "éĢĲ": 1183,
      "èµ¤": 1184,
      "çł´": 1185,
      "å®¤çĶº": 1186,
      "æĸĹ": 1187,
      "èīº": 1188,
      "è¿Ľåħ¥": 1189,
      "æİ¨": 1190,
      "éĩįèĩ£": 1191,
      "éķ°ä»ĵ": 1192,
      "ä½ı": 1193,
      "æ³½": 1194,
      "éĴ": 1195,
      "è¿ĳæ±Ł": 1196,
      "å¸Ī": 1197,
      "åŃ¦": 1198,
      "ä»¥åıĬ": 1199,
      "å¾Ī": 1200,
      "å®Į": 1201,
      "æĺĵ": 1202,
      "154": 1203,
      "æľĢç»Ī": 1204,
      "ä¸ĩçŁ³": 1205,
      "å°¾å¼ł": 1206,
      "ä¿®": 1207,
      "å°ıçĶ°": 1208,
      "é²": 1209,
      "çĶ²æĸĲ": 1210,
      "åŀ": 1211,
      "åįĬ": 1212,
      "åīįå¾Ģ": 1213,
      "èī²": 1214,
      "è®¡": 1215,
      "ç¾½æŁ´": 1216,
      "å²Ĳ": 1217,
      "å¤§åĿĤ": 1218,
      "åķ": 1219,
      "ä¾į": 1220,
      "ç¤º": 1221,
      "ä¿¡æµĵ": 1222,
      "èĮĤ": 1223,
      "ä¼ĬåĬ¿": 1224,
      "å¿Ĺ": 1225,
      "æµ¦": 1226,
      "èº«ä»½": 1227,
      "å¯¼": 1228,
      "ç§ĭ": 1229,
      "å¼ķ": 1230,
      "å®½": 1231,
      "ä¾Ŀ": 1232,
      "éĻĦ": 1233,
      "éĻħ": 1234,
      "æŃ¤åĲİ": 1235,
      "æ¢": 1236,
      "å°±æĺ¯": 1237,
      "åĽ½äºº": 1238,
      "çĶ±äºİ": 1239,
      "æĴ¤": 1240,
      "éģĹ": 1241,
      "æĶ»åĩ»": 1242,
      "çŃīäºº": 1243,
      "å®īåľŁ": 1244,
      "æ´Ľ": 1245,
      "å¦»": 1246,
      "è´¤": 1247,
      "åĪĢ": 1248,
      "é¡»": 1249,
      "åĩºåħµ": 1250,
      "æĬµ": 1251,
      "éĹ®": 1252,
      "ä¸įè¿ĩ": 1253,
      "å»¶": 1254,
      "ç¹": 1255,
      "ç¹ģ": 1256,
      "æĭ¥": 1257,
      "é¸": 1258,
      "åĲĽ": 1259,
      "åĪĩ": 1260,
      "é£İ": 1261,
      "ä¸ļ": 1262,
      "æ£®": 1263,
      "ç»ĩçĶ°ä¿¡": 1264,
      "ç½®": 1265,
      "è¿Ļä¸Ģ": 1266,
      "åĽ¢": 1267,
      "åħīç§Ģ": 1268,
      "èĪ¹": 1269,
      "ä¼ı": 1270,
      "ç´": 1271,
      "æĹĹ": 1272,
      "éļıåĲİ": 1273,
      "éģ£": 1274,
      "è¶ĬåĲİ": 1275,
      "éĽĦ": 1276,
      "åħ·": 1277,
      "è¿Ķ": 1278,
      "æµħäºķ": 1279,
      "ä¸ŃçļĦ": 1280,
      "è¿Ľè¡Į": 1281,
      "åħ³åİŁ": 1282,
      "åĳĺ": 1283,
      "é¦Ĩ": 1284,
      "ä¹ĭä¸Ģ": 1285,
      "æĹ¶æľŁ": 1286,
      "æĸ¹çļĦ": 1287,
      "å¤«": 1288,
      "æ¡¥": 1289,
      "ä¹Ŀå·ŀ": 1290,
      "ä»ĸä»¬": 1291,
      "ä¸ºäºĨ": 1292,
      "20": 1293,
      "ç¥ĸ": 1294,
      "æľĽ": 1295,
      "éªĳ": 1296,
      "åłĤ": 1297,
      "åħ»åŃĲ": 1298,
      "éĹ»": 1299,
      "ï¼Ł": 1300,
      "éķ¿å°¾": 1301,
      "å®ª": 1302,
      "ä»ĭ": 1303,
      "æĸĭèĹ¤": 1304,
      "æ¸¡": 1305,
      "è¿İ": 1306,
      "è¿Ĳ": 1307,
      "éĢģ": 1308,
      "çĽĬ": 1309,
      "åħµåį«": 1310,
      "å±Ģ": 1311,
      "åĳĬ": 1312,
      "ä¾§": 1313,
      "èĥĮ": 1314,
      "èĮ¶": 1315,
      "çŃĸ": 1316,
      "éħį": 1317,
      "è±ª": 1318,
      "æŃ¦çĶ°ä¿¡çİĦ": 1319,
      "æĬ¥": 1320,
      "æ±ŁæĪ·æĹ¶ä»£": 1321,
      "éĵģ": 1322,
      "è½»": 1323,
      "ç«ĭèĬ±": 1324,
      "éļĲ": 1325,
      "åĩĨ": 1326,
      "æĦŁ": 1327,
      "èµ°": 1328,
      "èĤ¥": 1329,
      "ä»ĸçļĦ": 1330,
      "çľŁçĶ°": 1331,
      "é²ľ": 1332,
      "åľ°åĮº": 1333,
      "è´¨": 1334,
      "åĨ²": 1335,
      "ä»ģ": 1336,
      "å·¦åį«éĹ¨": 1337,
      "åıĮ": 1338,
      "éĩı": 1339,
      "åĩºçĶŁ": 1340,
      "ĠçĶŁ": 1341,
      "æĶ¯æĮģ": 1342,
      "éī": 1343,
      "ç§°ä¸º": 1344,
      "éī´": 1345,
      "åįł": 1346,
      "çķłå±±": 1347,
      "æ¶Ī": 1348,
      "17": 1349,
      "æ¡ĥ": 1350,
      "çº³": 1351,
      "çħ": 1352,
      "çļĦä¸Ģ": 1353,
      "æŀª": 1354,
      "ç»Łæ²»": 1355,
      "èı": 1356,
      "æ³ī": 1357,
      "å¤ľ": 1358,
      "çļĦå¤§": 1359,
      "è¯¦": 1360,
      "æĶ¿æĿĥ": 1361,
      "å½ķ": 1362,
      "èħ": 1363,
      "æĸ¯": 1364,
      "æ¨¡": 1365,
      "è§Ĥ": 1366,
      "å¥īè¡Į": 1367,
      "ä¸īæĪĲ": 1368,
      "è¿«": 1369,
      "æľ«": 1370,
      "é¡º": 1371,
      "è´Łè´£": 1372,
      "åĪĹ": 1373,
      "è¶Ĭåīį": 1374,
      "å·²ç»ı": 1375,
      "åĦ¿åŃĲ": 1376,
      "ä¸ĢæĹı": 1377,
      "åĵį": 1378,
      "è°±": 1379,
      "ç¿Į": 1380,
      "æŃ¤å¤ĸ": 1381,
      "æľĢåĲİ": 1382,
      "å®£": 1383,
      "å½±": 1384,
      "çº¿": 1385,
      "æĹ¥è¯Ń": 1386,
      "æķ´": 1387,
      "æľĿé²ľ": 1388,
      "å¾ħ": 1389,
      "çĪ¶åŃĲ": 1390,
      "äººçī©": 1391,
      "ç§»": 1392,
      "çĻ»": 1393,
      "å·¥": 1394,
      "ãĥ»": 1395,
      "è¿ĻäºĽ": 1396,
      "åı¯èĥ½": 1397,
      "åĮħåĽ´": 1398,
      "çİĩé¢Ĩ": 1399,
      "æľĪåįģ": 1400,
      "å©": 1401,
      "å³": 1402,
      "ä¹Ī": 1403,
      "ä¸ĭçļĦ": 1404,
      "éķ¿æĶ¿": 1405,
      "çī¹": 1406,
      "æŃ¥": 1407,
      "æĺİæĻº": 1408,
      "éĢļè¿ĩ": 1409,
      "ç±³": 1410,
      "åĽĽå¹´": 1411,
      "ä¸¥": 1412,
      "éĩįè¦ģ": 1413,
      "åħ¬æĸ¹": 1414,
      "è¾ħ": 1415,
      "æ¾": 1416,
      "åłĢ": 1417,
      "åĭĩ": 1418,
      "çĶ°åŁİ": 1419,
      "ä¹Ĳ": 1420,
      "åıĳçĶŁ": 1421,
      "æŃ»åĲİ": 1422,
      "åĩł": 1423,
      "ä¸Ĭæ´Ľ": 1424,
      "å«¡åŃĲ": 1425,
      "ä¸Ĭéĩİ": 1426,
      "å¹¡": 1427,
      "æ¯ĽåĪ©æ°ı": 1428,
      "åİĭ": 1429,
      "æŀĹ": 1430,
      "å¤§å°Ĩ": 1431,
      "èĥľèµĸ": 1432,
      "åĨĽäºĭ": 1433,
      "åĢĴ": 1434,
      "å¿ħ": 1435,
      "ä¹ĭæĪĺä¸Ń": 1436,
      "åĳ½ä»¤": 1437,
      "000": 1438,
      "æĳĦ": 1439,
      "éªıæ²³": 1440,
      "åķĨ": 1441,
      "ä¹ĭéĹ´": 1442,
      "å°ıçĶ°åİŁ": 1443,
      "é©»": 1444,
      "ä½ķ": 1445,
      "èĲ¥": 1446,
      "çļĨ": 1447,
      "æŃ¢": 1448,
      "ãģ®": 1449,
      "è¿Ļä¸ª": 1450,
      "æĶ¿å®Ĺ": 1451,
      "åı³åį«éĹ¨": 1452,
      "ä¹ĥ": 1453,
      "åıĤä¸İ": 1454,
      "ä¸ĬæĿīè°¦ä¿¡": 1455,
      "éĶĭ": 1456,
      "è§Ħ": 1457,
      "è°ĥ": 1458,
      "æľ¯": 1459,
      "å®³": 1460,
      "å¨ģ": 1461,
      "åĶ": 1462,
      "çĪ±": 1463,
      "å°Ĭ": 1464,
      "è¾īåħĥ": 1465,
      "çº§": 1466,
      "è®¨ä¼Ĳ": 1467,
      "æ°Ķ": 1468,
      "å¾ģä¼Ĳ": 1469,
      "çĭ¬": 1470,
      "åı¶": 1471,
      "ä¿Ĭ": 1472,
      "æ¡ĥå±±": 1473,
      "æ¼": 1474,
      "é¢Ĩä¸»": 1475,
      "å¹¼": 1476,
      "çĨ": 1477,
      "ç®¡é¢Ĩ": 1478,
      "çĪĨ": 1479,
      "åģļ": 1480,
      "åħµåĬĽ": 1481,
      "æĹ©å·Ŀ": 1482,
      "ä»¥åĲİ": 1483,
      "åįģä¸Ģ": 1484,
      "153": 1485,
      "çħ§": 1486,
      "æ¶¯": 1487,
      "åħŃè§Ĵ": 1488,
      "çº·": 1489,
      "éĽª": 1490,
      "æ¡ĥå±±æĹ¶ä»£": 1491,
      "æİ§": 1492,
      "æĮ¥": 1493,
      "æŀĦ": 1494,
      "åĨ³å®ļ": 1495,
      "èĳĹ": 1496,
      "çĶļ": 1497,
      "æĸĩä¹¦": 1498,
      "ä¹ĺ": 1499,
      "æ¾Ħ": 1500,
      "å®īåľŁæ¡ĥå±±æĹ¶ä»£": 1501,
      "åīįçĶ°": 1502,
      "çĪĨåıĳ": 1503,
      "äºĶå¹´": 1504,
      "èĥ¤": 1505,
      "å¢ĥ": 1506,
      "æĦ¿å¯º": 1507,
      "é¢ĺ": 1508,
      "åº§": 1509,
      "æī©": 1510,
      "å°ıæĹ©å·Ŀ": 1511,
      "æĬķéĻį": 1512,
      "åĪĴ": 1513,
      "æ°¸æŃ£": 1514,
      "å»·": 1515,
      "åĩºçİ°": 1516,
      "åħį": 1517,
      "æľĪäºĮåįģ": 1518,
      "åĽº": 1519,
      "åıĤåĬł": 1520,
      "éĨ": 1521,
      "æŃ¦çĶ°æ°ı": 1522,
      "è¿¹": 1523,
      "åħ¶ä¸Ń": 1524,
      "åĢĻ": 1525,
      "èĮĥ": 1526,
      "åħĥé¾Ł": 1527,
      "ä½Ĳç«¹": 1528,
      "è®º": 1529,
      "æİĮ": 1530,
      "è¿°": 1531,
      "æĶ¿æ²»": 1532,
      "æĻ¯èĥľ": 1533,
      "èĻ½çĦ¶": 1534,
      "åĺ": 1535,
      "é»ĳçĶ°": 1536,
      "åİĨåı²": 1537,
      "åĿļ": 1538,
      "ä»»åĳ½": 1539,
      "å®īèīº": 1540,
      "åħĦå¼Ł": 1541,
      "æľ¬æĦ¿å¯º": 1542,
      "äº§": 1543,
      "å¤©ä¸ĭ": 1544,
      "éĥ¨åĪĨ": 1545,
      "ç¤¼": 1546,
      "ä¹īåħĥ": 1547,
      "æĸĩç¦Ħ": 1548,
      "æģ¯": 1549,
      "ç»Ħ": 1550,
      "åĨµ": 1551,
      "æł¼": 1552,
      "èĩªå·±çļĦ": 1553,
      "æħ": 1554,
      "ç¬ł": 1555,
      "æ¿Ģ": 1556,
      "ĠçĶŁæ¶¯": 1557,
      "åı¸": 1558,
      "è¥¿åĨĽ": 1559,
      "éĥ¨éĺŁ": 1560,
      "æīĢä»¥": 1561,
      "çĭŃ": 1562,
      "æ¸Ĳ": 1563,
      "å¼ĥ": 1564,
      "160": 1565,
      "åı°": 1566,
      "æĪĳéĥ¨": 1567,
      "ä¼¤": 1568,
      "åı¦ä¸Ģ": 1569,
      "èĴ": 1570,
      "å®Ŀ": 1571,
      "å¤©æŃ£åįģ": 1572,
      "é¸Ł": 1573,
      "çĤ®": 1574,
      "ä¹ĭå¥³": 1575,
      "æľĿå»·": 1576,
      "å§¬": 1577,
      "å®ĹæĪĳéĥ¨": 1578,
      "ç£": 1579,
      "ç¾½æŁ´ç§ĢåĲī": 1580,
      "åĸĦ": 1581,
      "è®¿": 1582,
      "è·Ł": 1583,
      "è¯´æ³ķ": 1584,
      "çļĦæĪĺ": 1585,
      "å¯¹ç«ĭ": 1586,
      "ä¹Łæĺ¯": 1587,
      "èİ·å¾Ĺ": 1588,
      "åľ°æĸ¹": 1589,
      "ä¸ŃåĽ½": 1590,
      "åı²æĸĻ": 1591,
      "æ¨ª": 1592,
      "çģŃäº¡": 1593,
      "æĸ½": 1594,
      "åįı": 1595,
      "äººçļĦ": 1596,
      "è¯ģ": 1597,
      "åĨĻ": 1598,
      "å®¶æĹı": 1599,
      "æĢģ": 1600,
      "è¯Ŀ": 1601,
      "éĢĶ": 1602,
      "æ³°": 1603,
      "å®¤çĶºå¹ķåºľ": 1604,
      "éĢŁ": 1605,
      "æĺ¯æĪĺåĽ½æĹ¶ä»£": 1606,
      "ä½ľæĪĺ": 1607,
      "æļĹ": 1608,
      "ä½Ľ": 1609,
      "ä¾ĭ": 1610,
      "åĥ§": 1611,
      "æ²¼": 1612,
      "çĮ®": 1613,
      "å¯Ĩ": 1614,
      "ä»ķäºİ": 1615,
      "æĶ»æīĵ": 1616,
      "å¼Ĥ": 1617,
      "æĸ©": 1618,
      "éĺª": 1619,
      "åħ¶åŃĲ": 1620,
      "äº¤æĪĺ": 1621,
      "æī§": 1622,
      "éķ¿å®ĹæĪĳéĥ¨": 1623,
      "åľ°ä½į": 1624,
      "èµı": 1625,
      "äº«å¹´": 1626,
      "ç»§ç»Ń": 1627,
      "ç¬¬ä¸Ģ": 1628,
      "éĢĿ": 1629,
      "åĬĿ": 1630,
      "å±±åĲį": 1631,
      "è§Ĩä¸º": 1632,
      "åĹ": 1633,
      "åĽŃ": 1634,
      "æ¿ĳ": 1635,
      "å¼¥": 1636,
      "ä»Ĭå·Ŀæ°ı": 1637,
      "åĪĽ": 1638,
      "ä¸įè¯¦": 1639,
      "åĢŁ": 1640,
      "åı¬": 1641,
      "çļĦæĺ¯": 1642,
      "æľŁéĹ´": 1643,
      "å®¶èĢģ": 1644,
      "æķĳ": 1645,
      "å®ħ": 1646,
      "æĪĲåĬŁ": 1647,
      "å±ħåŁİ": 1648,
      "åĥı": 1649,
      "ç®Ĺ": 1650,
      "éķ¿åŃĲ": 1651,
      "äºĭä»¶": 1652,
      "å²³": 1653,
      "è§ī": 1654,
      "æĹłæ³ķ": 1655,
      "åĩºèº«": 1656,
      "éħĴ": 1657,
      "åĨįæ¬¡": 1658,
      "ä¸ĢåĲĳ": 1659,
      "æĢ¥": 1660,
      "åı¯ä»¥": 1661,
      "èĪ¬": 1662,
      "æŁ´çĶ°": 1663,
      "ä»ĺ": 1664,
      "åĲįä¸º": 1665,
      "åıĳåĬ¨": 1666,
      "å±±åĨħ": 1667,
      "ç¨ĭ": 1668,
      "çŁ³çĶ°": 1669,
      "åįĴ": 1670,
      "ä¹ĭåıĺ": 1671,
      "æ¬¡åŃĲ": 1672,
      "æ´¾éģ£": 1673,
      "åĬłè´º": 1674,
      "æĪĺåĲİ": 1675,
      "è°Ī": 1676,
      "å¤§åĴĮ": 1677,
      "æĲ": 1678,
      "åĲīå·Ŀ": 1679,
      "æŃ¦çĶ°åĨĽ": 1680,
      "æĶ»éĻ·": 1681,
      "å¼Łå¼Ł": 1682,
      "èª": 1683,
      "åĪ»": 1684,
      "å½±åĵį": 1685,
      "å°ĨåĨĽè¶³åĪ©ä¹ī": 1686,
      "ç§Ģå¿ł": 1687,
      "æĿ¥çļĦ": 1688,
      "æĴŃ": 1689,
      "ä¸´": 1690,
      "æŃ¦çĶ°å®¶": 1691,
      "æĪĲäºĨ": 1692,
      "ä¹İ": 1693,
      "æŃĮ": 1694,
      "æ»¨": 1695,
      "è¿ĶåĽŀ": 1696,
      "çķª": 1697,
      "å¡": 1698,
      "åįģäºĮ": 1699,
      "éĻ¶": 1700,
      "ç»´": 1701,
      "æĴ¤éĢĢ": 1702,
      "å£°": 1703,
      "ä¼¼": 1704,
      "æ®µ": 1705,
      "æĳ©": 1706,
      "å¹³å®ļ": 1707,
      "åį°": 1708,
      "åĹ£": 1709,
      "ç¦ģ": 1710,
      "éĿł": 1711,
      "å¾Ĵ": 1712,
      "åĲĮçĽŁ": 1713,
      "èĥľå®¶": 1714,
      "ä½įäºİ": 1715,
      "ä»£å½ĵä¸»": 1716,
      "åħĥäº²": 1717,
      "ä¸»åĲĽ": 1718,
      "éĩĩ": 1719,
      "æ²³åĨħ": 1720,
      "ç»Łä¸Ģ": 1721,
      "ä¸»è¦ģ": 1722,
      "èĥ½å¯º": 1723,
      "æ¸¸": 1724,
      "åĲ¬": 1725,
      "è¯·æ±Ĥ": 1726,
      "ç£¨": 1727,
      "åĸľå¤ļ": 1728,
      "å¤§çļĦ": 1729,
      "å¹´éĹ´": 1730,
      "å¤§éĺª": 1731,
      "åĲİçļĦ": 1732,
      "éĢłå¯º": 1733,
      "ä¸ĢçĽ´": 1734,
      "ä¸įä¹ħ": 1735,
      "çĮĽ": 1736,
      "é¾ĻéĢłå¯º": 1737,
      "æŃ¦çĶ°ä¿¡": 1738,
      "æĿĳä¸Ĭ": 1739,
      "è´µ": 1740,
      "æĺİæĻºåħīç§Ģ": 1741,
      "çĸĳ": 1742,
      "åĬłåħ¥": 1743,
      "1582": 1744,
      "ç»ĩçĶ°åĨĽ": 1745,
      "ä½ł": 1746,
      "å°Ĩåħ¶": 1747,
      "å¯¹æĬĹ": 1748,
      "åĨľ": 1749,
      "æľ¬èĥ½å¯º": 1750,
      "éº¾": 1751,
      "ä¾Ľ": 1752,
      "æµİ": 1753,
      "æ¬²": 1754,
      "ç»ĵæŀľ": 1755,
      "éŁ": 1756,
      "ç¿Įå¹´": 1757,
      "æĳĦæ´¥": 1758,
      "è¿Ļæł·": 1759,
      "è¿ľæ±Ł": 1760,
      "åıĮæĸ¹": 1761,
      "æŁ³": 1762,
      "éļĲå±ħ": 1763,
      "è·ĥ": 1764,
      "éĵģçĤ®": 1765,
      "èħ¹": 1766,
      "ï¼ģ": 1767,
      "æľĢä¸Ĭ": 1768,
      "æ¯ĽåĪ©åħĥå°±": 1769,
      "æŃ¦èĹı": 1770,
      "å¦¹": 1771,
      "ä¸ľåĨĽ": 1772,
      "è±ªæĹı": 1773,
      "ç¬łåİŁ": 1774,
      "è¿ģ": 1775,
      "é¥Ń": 1776,
      "æĸ¯æ³¢": 1777,
      "èĴ²": 1778,
      "åħŃå¹´": 1779,
      "æĭ¬": 1780,
      "ç¬¬äºĮ": 1781,
      "éķ¿åºĨ": 1782,
      "çķ¿": 1783,
      "æĿĤ": 1784,
      "åħ±åĲĮ": 1785,
      "éĺ³": 1786,
      "åħ³åİŁä¹ĭæĪĺ": 1787,
      "æı´åĨĽ": 1788,
      "åģľ": 1789,
      "å®ĩåĸľå¤ļ": 1790,
      "é¹¿": 1791,
      "èĹ©ä¸»": 1792,
      "ä¸ĬçļĦ": 1793,
      "æĹ¥æľ¬æĪĺåĽ½æĹ¶ä»£": 1794,
      "åħ³äºİ": 1795,
      "å¥Ī": 1796,
      "åĨĽéĺŁ": 1797,
      "éģĩ": 1798,
      "åįĹéĥ¨": 1799,
      "åıĹåĪ°": 1800,
      "å¤§åĨĽ": 1801,
      "ç»ĩçĶ°å®¶": 1802,
      "åĩ»è´¥": 1803,
      "ä¸ĬæĿīå®¶": 1804,
      "è¦ģæ±Ĥ": 1805,
      "çļĦå®¶èĩ£": 1806,
      "å®¿": 1807,
      "çľ¼": 1808,
      "ç¥ŀç¤¾": 1809,
      "æĹ¶éĹ´": 1810,
      "åĺī": 1811,
      "å®ĩéĥ½": 1812,
      "æİĪ": 1813,
      "å¥ĭ": 1814,
      "æİ§åĪ¶": 1815,
      "ä½¿çĶ¨": 1816,
      "å¾ĹåĪ°": 1817,
      "å¥³åĦ¿": 1818,
      "è¯¹": 1819,
      "æĥŁ": 1820,
      "å®ĩéĥ½å®«": 1821,
      "å¿«": 1822,
      "èįĴ": 1823,
      "åĪ¤": 1824,
      "ç©¶": 1825,
      "æ¼Ķ": 1826,
      "æŃ£å¼ı": 1827,
      "å®¹": 1828,
      "ä¹ĭéĺµ": 1829,
      "çī§": 1830,
      "æľ¬å¤ļ": 1831,
      "ä¸īäºº": 1832,
      "èį£": 1833,
      "ç¥Ĳ": 1834,
      "æĿŁ": 1835,
      "åĩºéĺµ": 1836,
      "ç»§æī¿å®¶çĿ£": 1837,
      "åĩĨå¤ĩ": 1838,
      "åĮħæĭ¬": 1839,
      "åŃĺåľ¨": 1840,
      "åĵģ": 1841,
      "å²¸": 1842,
      "åħĪéĶĭ": 1843,
      "æĪĺåĽ½å¤§åĲį": 1844,
      "åĪĿæľŁ": 1845,
      "åĻ": 1846,
      "è¶ģ": 1847,
      "æ±łçĶ°": 1848,
      "ç§Ģæ¬¡": 1849,
      "ä¼¯": 1850,
      "æĻ¯èĻİ": 1851,
      "è¯Ħ": 1852,
      "152": 1853,
      "åĨħçļĦ": 1854,
      "è¿ĺæĺ¯": 1855,
      "èµŀ": 1856,
      "å®ĪæĬ¤ä»£": 1857,
      "å¯¼èĩ´": 1858,
      "æ°ıå®¶èĩ£": 1859,
      "è±¡": 1860,
      "ä¹ĭéĻħ": 1861,
      "æĻ´ä¿¡": 1862,
      "æĵ": 1863,
      "ä¼ĳ": 1864,
      "èĭ±": 1865,
      "è´¯": 1866,
      "æĸĩåĮĸ": 1867,
      "åįİ": 1868,
      "æĢĴ": 1869,
      "é¦Ļ": 1870,
      "åħ¶ä»ĸ": 1871,
      "è¢«ç§°ä¸º": 1872,
      "å°Ħ": 1873,
      "å°ıç¬łåİŁ": 1874,
      "ç²¾": 1875,
      "èµ¤æĿ¾": 1876,
      "æ¥": 1877,
      "å±Ĥ": 1878,
      "æĭĴ": 1879,
      "éļĨæĻ¯": 1880,
      "ç¨»": 1881,
      "ä½¿èĢħ": 1882,
      "çĥĪ": 1883,
      "èµ´": 1884,
      "åħ«å¹´": 1885,
      "å®ŀéĻħ": 1886,
      "åı¤æ²³": 1887,
      "æķĪ": 1888,
      "æĹ¶åĢĻ": 1889,
      "ä¼ĺ": 1890,
      "åľ¨æŃ¤": 1891,
      "äº²èĩª": 1892,
      "æ¯ģ": 1893,
      "ä¸īéĥİ": 1894,
      "å¤§åĨħä¹ī": 1895,
      "æĴŃç£¨": 1896,
      "äººè´¨": 1897,
      "ä¸ĥå¹´": 1898,
      "æĪĺæĸĹ": 1899,
      "æĻļ": 1900,
      "çĶ°æ°ı": 1901,
      "çº¯": 1902,
      "æĮĩæĮ¥": 1903,
      "æ³·": 1904,
      "äºĨä¸Ģ": 1905,
      "å±ķå¼Ģ": 1906,
      "ç¢": 1907,
      "èģĶåĲĪ": 1908,
      "ç¼ĸ": 1909,
      "éģŃåĪ°": 1910,
      "èģĶåĨĽ": 1911,
      "ç§¯": 1912,
      "æ··": 1913,
      "æł¹æį®": 1914,
      "è¯¹è®¿": 1915,
      "éĢļç§°": 1916,
      "èĬĤ": 1917,
      "èįī": 1918,
      "è¡ĮåĬ¨": 1919,
      "åħļ": 1920,
      "åĬłèĹ¤": 1921,
      "å®½æ°¸": 1922,
      "çĶ±æŃ¤": 1923,
      "1600": 1924,
      "åŃ£": 1925,
      "èĲ¨": 1926,
      "è±Ĩ": 1927,
      "å¦ĤæŃ¤": 1928,
      "çŁ³çĶ°ä¸īæĪĲ": 1929,
      "è´¸": 1930,
      "å¼¹": 1931,
      "å«ģ": 1932,
      "ä¹īæĺŃ": 1933,
      "æ¤": 1934,
      "èĬ¦": 1935,
      "ä¿¡éķ¿çļĦ": 1936,
      "çĽĳ": 1937,
      "ç²®": 1938,
      "æºĥ": 1939,
      "æĪĺåĬŁ": 1940,
      "åºķ": 1941,
      "å¹²": 1942,
      "åħĦéķ¿": 1943,
      "æľīä¸Ģ": 1944,
      "ä¹ħç§Ģ": 1945,
      "è®°å½ķ": 1946,
      "æ°´åĨĽ": 1947,
      "éĢī": 1948,
      "çķĮ": 1949,
      "å¼ĵ": 1950,
      "ï¼į": 1951,
      "å¦Ļ": 1952,
      "ä¸Ģåº¦": 1953,
      "éĢ¼": 1954,
      "æ´»è·ĥ": 1955,
      "æį®çĤ¹": 1956,
      "æĭľ": 1957,
      "å¾¡æīĢ": 1958,
      "åĨ¬": 1959,
      "æģ¶": 1960,
      "è¾ĥ": 1961,
      "ä½Ĳä¹ħ": 1962,
      "ä¹Ŀå¹´": 1963,
      "ãģ«": 1964,
      "éĻĦè¿ĳ": 1965,
      "éĺ¶": 1966,
      "åįķ": 1967,
      "æŃ£å®¤": 1968,
      "å¿į": 1969,
      "éĻ·åħ¥": 1970,
      "ç½Ĺ": 1971,
      "çīĩ": 1972,
      "æ²¿": 1973,
      "é¢Ĩæľī": 1974,
      "éĺ¿æ³¢": 1975,
      "èĦ±": 1976,
      "è½®": 1977,
      "è£ħ": 1978,
      "æĪĺäºī": 1979,
      "çİĩåĨĽ": 1980,
      "çĨĬ": 1981,
      "è°ĵ": 1982,
      "åĪ©å®¶": 1983,
      "ä¸Ģèµ·": 1984,
      "è®³": 1985,
      "æłĩ": 1986,
      "åĿĩ": 1987,
      "ä¹īå¼ĺ": 1988,
      "è¡°": 1989,
      "å¾·å·Ŀå®¶": 1990,
      "æĪĺåľº": 1991,
      "æĻ´åħĥ": 1992,
      "åĩºäºĳ": 1993,
      "çł¦": 1994,
      "ç¦ıå²Ľ": 1995,
      "åĻ¨": 1996,
      "æ´²": 1997,
      "è´¸æĺĵ": 1998,
      "å¥Ķ": 1999,
      "å±ŀäºİ": 2000,
      "å¥ĩ": 2001,
      "ä¸ĬæĿīæ°ı": 2002,
      "éľĢ": 2003,
      "éĩĮè§ģ": 2004,
      "çŃĶ": 2005,
      "åįĩ": 2006,
      "èĢĥ": 2007,
      "ä¸įæĺ¯": 2008,
      "è¶Ĭä¸Ń": 2009,
      "åİŁæľ¬": 2010,
      "å¼±": 2011,
      "åºŁ": 2012,
      "ä¸įå¾Ĺ": 2013,
      "éĺ»": 2014,
      "æĶ¯éħį": 2015,
      "ç§Ģèµĸ": 2016,
      "ä»Ĭå·Ŀä¹īåħĥ": 2017,
      "åŁŁ": 2018,
      "æĿ¾æ°¸": 2019,
      "23": 2020,
      "ç¨Ļ": 2021,
      "åŀ£": 2022,
      "ä»·": 2023,
      "éĺģ": 2024,
      "æĿĥåĬĽ": 2025,
      "ç±»": 2026,
      "è¡Ģ": 2027,
      "æĬµæĬĹ": 2028,
      "ä¹ĭå½¹": 2029,
      "è´¢": 2030,
      "æ£Ģ": 2031,
      "åĩ»éĢĢ": 2032,
      "æ¹": 2033,
      "åį·": 2034,
      "è¯ķ": 2035,
      "åŁİä¹ĭæĪĺ": 2036,
      "äºĶéĥİ": 2037,
      "æĭ¥æľī": 2038,
      "åº¶": 2039,
      "å¨¶": 2040,
      "é£ŀ": 2041,
      "ç»ĵåŁİ": 2042,
      "åĲĦåľ°": 2043,
      "è¯ļ": 2044,
      "åıĶ": 2045,
      "ä¹ĭä¸ĭ": 2046,
      "é¦ĸçº§": 2047,
      "ä¹ĭå¼Ł": 2048,
      "æĸĩæĺİ": 2049,
      "å»ºç«ĭ": 2050,
      "æĶ¯æı´": 2051,
      "çĶ»": 2052,
      "æµª": 2053,
      "åıĤæĪĺ": 2054,
      "è¿Ļç§į": 2055,
      "éº¾ä¸ĭ": 2056,
      "è£Ĥ": 2057,
      "25": 2058,
      "ä¸ĭä»¤": 2059,
      "çİī": 2060,
      "å¢ĵ": 2061,
      "èµĸæľĿ": 2062,
      "çļĦäºº": 2063,
      "å¯Ħ": 2064,
      "åį¿": 2065,
      "åĤ": 2066,
      "æĺİæ²»": 2067,
      "éĢĲæ¸Ĳ": 2068,
      "æŃ¦çĶ°èĥľèµĸ": 2069,
      "æķĮåĨĽ": 2070,
      "çŃĳåīį": 2071,
      "èĢĮæĺ¯": 2072,
      "æ¬¡éĥİ": 2073,
      "éĹ®é¢ĺ": 2074,
      "ä½Ĳä½Ĳ": 2075,
      "èµĲè±«": 2076,
      "åħ¶åĲİ": 2077,
      "æ³¨": 2078,
      "ä¸¹æ³¢": 2079,
      "å®Įåħ¨": 2080,
      "æľ¬éĺµ": 2081,
      "21": 2082,
      "æīĩ": 2083,
      "åĩºä»ķ": 2084,
      "æĢĢ": 2085,
      "æį®è¯´": 2086,
      "ç«Ł": 2087,
      "ç¨³": 2088,
      "ç»į": 2089,
      "æİ¥åıĹ": 2090,
      "ç§ĢåĲīçļĦ": 2091,
      "ä¹Łæľī": 2092,
      "è¢«è§Ĩä¸º": 2093,
      "åľŁä½Ĳ": 2094,
      "åģı": 2095,
      "ä»ª": 2096,
      "æķ£": 2097,
      "åı¯è§ģ": 2098,
      "æıĲåĩº": 2099,
      "æĥħåĨµ": 2100,
      "ä¼ıè§ģ": 2101,
      "å¤±åİ»": 2102,
      "ç©º": 2103,
      "ä¸ĢåĲĳä¸ĢæıĨ": 2104,
      "å¾Ĺä»¥": 2105,
      "éĴ±": 2106,
      "èµ¶": 2107,
      "çĥ§": 2108,
      "èľ": 2109,
      "å§»": 2110,
      "éģĵéĽª": 2111,
      "æį¢": 2112,
      "çĶļèĩ³": 2113,
      "éĻ·èĲ½": 2114,
      "éĿĴ": 2115,
      "èĩ³æ±ŁæĪ·æĹ¶ä»£": 2116,
      "é¬": 2117,
      "è¿ĽåĨĽ": 2118,
      "22": 2119,
      "å½ĵåľ°": 2120,
      "çĽ´æİ¥": 2121,
      "åı¦ä¸Ģæĸ¹éĿ¢": 2122,
      "å¹´çļĦ": 2123,
      "éĤ¸": 2124,
      "æİĴ": 2125,
      "ãģĹ": 2126,
      "ç½²": 2127,
      "ä¸°åĲİ": 2128,
      "åįĥä»£": 2129,
      "æľ¬èĥ½å¯ºä¹ĭåıĺ": 2130,
      "å®¶ä¸Ń": 2131,
      "æĢĿ": 2132,
      "èĹ¤åİŁ": 2133,
      "ç»Īäºİ": 2134,
      "æµĭ": 2135,
      "éŁ³": 2136,
      "æĹ¢": 2137,
      "ä¹ĭåīį": 2138,
      "åįĥçŁ³": 2139,
      "ç½ª": 2140,
      "åŁİæ±ł": 2141,
      "150": 2142,
      "æ¯įäº²": 2143,
      "æı¡": 2144,
      "ä»Ļ": 2145,
      "æĶ¿çļĦ": 2146,
      "å¯¿": 2147,
      "éĩİæ°ı": 2148,
      "æĭĽ": 2149,
      "æĶ»çķ¥": 2150,
      "å°ıå±±": 2151,
      "éļıçĿĢ": 2152,
      "æŃ¦å®¶": 2153,
      "ä¹ĭä½į": 2154,
      "ç«ĭä¸ĭ": 2155,
      "å¿µ": 2156,
      "æī©å¼ł": 2157,
      "é«ĺåĽ½": 2158,
      "ä¸įæ»¡": 2159,
      "åĽĽéĥİ": 2160,
      "è¡¨ç¤º": 2161,
      "å°Ĭæ°ı": 2162,
      "åºĶä»ģ": 2163,
      "å·¦åı³": 2164,
      "çªģçĦ¶": 2165,
      "åħģ": 2166,
      "é¼": 2167,
      "æĹĹæľ¬": 2168,
      "æĿĲ": 2169,
      "åĨįåº¦": 2170,
      "çŁ¢": 2171,
      "æĭ¥ç«ĭ": 2172,
      "éĻĲ": 2173,
      "ç¯": 2174,
      "åŁİä¸ĭ": 2175,
      "çŁ³å·Ŀ": 2176,
      "é¬¼": 2177,
      "æł¸": 2178,
      "éºŁ": 2179,
      "ç¬Ķ": 2180,
      "ä¸¹ç¾½": 2181,
      "æĺ¯åľ¨": 2182,
      "å¤ªçĶ°": 2183,
      "çı": 2184,
      "æĬĺ": 2185,
      "åħĥåĴĮ": 2186,
      "èĴ²çĶŁ": 2187,
      "èĬ¦åĲį": 2188,
      "å®ĹèĮĤ": 2189,
      "åį±": 2190,
      "åĩºå®¶": 2191,
      "ä¹īåħī": 2192,
      "éĵ¶": 2193,
      "é¢ĨåĽ½": 2194,
      "åĨħéĥ¨": 2195,
      "éĺ´": 2196,
      "çĽĲ": 2197,
      "æĭĴç»Ŀ": 2198,
      "24": 2199,
      "æģ©": 2200,
      "åĪļ": 2201,
      "çĽ¸æ¨¡": 2202,
      "å¹¶ä¸Ķ": 2203,
      "æ®ĭ": 2204,
      "å¸Į": 2205,
      "åĪĩèħ¹": 2206,
      "ç§ģ": 2207,
      "éģĵä¸ī": 2208,
      "æŃ¤äºĭ": 2209,
      "åıĸå¾Ĺ": 2210,
      "æİ¢": 2211,
      "è¿½åĩ»": 2212,
      "å´©": 2213,
      "æĭī": 2214,
      "ä½Ĩåľ¨": 2215,
      "åħ¶çĪ¶": 2216,
      "ç¦ħ": 2217,
      "æ¸ħæŃ£": 2218,
      "ä»»åĳ½ä¸º": 2219,
      "åĨħèĹ¤": 2220,
      "å©ļ": 2221,
      "è¶³åĪ©ä¹īæĺŃ": 2222,
      "ä¸īæĹ¥": 2223,
      "ãģ¨": 2224,
      "å¤ºåıĸ": 2225,
      "æŁ´çĶ°èĥľå®¶": 2226,
      "æĥł": 2227,
      "çŃĴ": 2228,
      "æĽ¿": 2229,
      "ä¹īä¹ħ": 2230,
      "æ¶Īæģ¯": 2231,
      "ç¼ĺ": 2232,
      "çłĶ": 2233,
      "èİ·èµĲ": 2234,
      "åĨĪå´İ": 2235,
      "è®¸å¤ļ": 2236,
      "åı«": 2237,
      "è§Ħæ¨¡": 2238,
      "å¸ĥéĺµ": 2239,
      "éĢĥå¾Ģ": 2240,
      "è¾ŀ": 2241,
      "ä¾įå¥ī": 2242,
      "å¹¶éĿŀ": 2243,
      "å°ī": 2244,
      "å®¤çĶºæĹ¶ä»£": 2245,
      "åħħ": 2246,
      "æ´»åĬ¨": 2247,
      "èĭ¦": 2248,
      "æļĤ": 2249,
      "èĽ": 2250,
      "ä¼Ĭä¸ľ": 2251,
      "åĲ¦": 2252,
      "è¯Ĩ": 2253,
      "èģļ": 2254,
      "å®īåľŁæ¡ĥå±±æĹ¶ä»£çļĦæŃ¦å°Ĩ": 2255,
      "æģĴ": 2256,
      "æĿĢå®³": 2257,
      "èĥľåĪ©": 2258,
      "ä¸īåįģ": 2259,
      "æ³·å·Ŀ": 2260,
      "åı¦å¤ĸ": 2261,
      "è®¡åĪĴ": 2262,
      "ç»ıè¿ĩ": 2263,
      "æĿ¿": 2264,
      "28": 2265,
      "æ¯ĽåĪ©å®¶": 2266,
      "åħ¥ä¾µ": 2267,
      "å¤©æĸĩåįģ": 2268,
      "äº¦æľī": 2269,
      "åıĽä¹±": 2270,
      "ç«Ļ": 2271,
      "æ¯ĽåĪ©è¾īåħĥ": 2272,
      "æľªèĥ½": 2273,
      "åĳ¼": 2274,
      "åĳ¨è¾¹": 2275,
      "èĤ¥åĲİ": 2276,
      "å°§": 2277,
      "ä¸ĬæĿīæĻ¯èĥľ": 2278,
      "éĢ¸": 2279,
      "æ¯ĽåĪ©åĨĽ": 2280,
      "åľŁå²Ĳ": 2281,
      "1590": 2282,
      "æĶ¿åħĥ": 2283,
      "åĲīçĶ°": 2284,
      "ç¦»å¼Ģ": 2285,
      "æ¯ı": 2286,
      "ä¼Ĭè±Ĩ": 2287,
      "ä¹ĭåĲį": 2288,
      "ç§ĳ": 2289,
      "çĵ": 2290,
      "ä¸ĢéĹ¨": 2291,
      "ä¹ĭåĳ½": 2292,
      "åĲĮæł·": 2293,
      "ä¸Ģå¸¦": 2294,
      "ä¸įæĺİ": 2295,
      "ä¸ĭéĩİ": 2296,
      "éĤ»": 2297,
      "èĨ": 2298,
      "ç¥ĸçĪ¶": 2299,
      "åĽ½ä¼Ĺ": 2300,
      "è¢«è¿«": 2301,
      "æĹ¥åĲĳ": 2302,
      "ä¸Ńå²Ľ": 2303,
      "å¼ĺæ²»": 2304,
      "èĤ¥åīį": 2305,
      "æ½": 2306,
      "ä¾µæĶ»": 2307,
      "åīĳ": 2308,
      "ä¸ĸçºª": 2309,
      "å©¿": 2310,
      "ç®Ń": 2311,
      "ç»ĺ": 2312,
      "åıĳå±ķ": 2313,
      "åĽĽåĽ½": 2314,
      "å¯¹äºİ": 2315,
      "çŁ¥è¡Į": 2316,
      "çĹħéĢĿ": 2317,
      "ä¸ĢæĹ¥": 2318,
      "ä¸ĵ": 2319,
      "ãģŁ": 2320,
      "ãģĦ": 2321,
      "å®ĹéºŁ": 2322,
      "æ¡¶": 2323,
      "åıĳèµ·": 2324,
      "åĿĬ": 2325,
      "ä¸ĢçĽĬ": 2326,
      "äºķä¼Ĭ": 2327,
      "éģ¿": 2328,
      "æĮģç»Ń": 2329,
      "æł¸å¿ĥ": 2330,
      "åħĭ": 2331,
      "æľĢåĪĿ": 2332,
      "æĶ¹åĲį": 2333,
      "æĪĺä¸Ń": 2334,
      "æ±¤": 2335,
      "æĮī": 2336,
      "åħ«æľĪ": 2337,
      "å¸ĮæľĽ": 2338,
      "ä»Ģ": 2339,
      "è¿Ļæĺ¯": 2340,
      "å®ŀåĬĽ": 2341,
      "çļĦåĲį": 2342,
      "æºĲæ°ı": 2343,
      "ç´§": 2344,
      "æ´¾åĩº": 2345,
      "èĥģ": 2346,
      "ç¬¬ä¸ī": 2347,
      "åıªæĺ¯": 2348,
      "ä¸¾åħµ": 2349,
      "è¿ĺæľī": 2350,
      "å¤§åĨħæ°ı": 2351,
      "å¹¶åľ¨": 2352,
      "å¸¸éĻĨ": 2353,
      "æĮĩåĩº": 2354,
      "åŃĲåŃĻ": 2355,
      "åħĥæĺ¥": 2356,
      "åĩłä¹İ": 2357,
      "æĹĭ": 2358,
      "ä¼Ĭè´º": 2359,
      "éĥ½æĺ¯": 2360,
      "äº¬æŀģ": 2361,
      "æľīåĬĽ": 2362,
      "åĽ°": 2363,
      "å¯Ł": 2364,
      "ä»Ģä¹Ī": 2365,
      "ä¸ĢèĪ¬": 2366,
      "ä¼Ĭè¾¾æĶ¿å®Ĺ": 2367,
      "äºĶæľĪ": 2368,
      "Ġäººçī©": 2369,
      "ä»ĸåľ¨": 2370,
      "ä¼ļæ´¥": 2371,
      "ä½įä¸ĭ": 2372,
      "ä¸ĢæĿ¡": 2373,
      "ä¸Ģè¯´": 2374,
      "è¡¥": 2375,
      "çļĦä¸ī": 2376,
      "åħ«å¹¡": 2377,
      "åįıåĬ©": 2378,
      "çļĦå°ı": 2379,
      "éĻ¤äºĨ": 2380,
      "äºĶæĹ¥": 2381,
      "å¤ĸäº¤": 2382,
      "æĪĺè´¥": 2383,
      "åĩºä»»": 2384,
      "ä¿ĥ": 2385,
      "æµģæĶ¾": 2386,
      "æĪĺå½¹": 2387,
      "å¤§æ°¸": 2388,
      "ä¸įåĲĮ": 2389,
      "ä¸īæľĪ": 2390,
      "åĮĹæĿ¡æ°ıåº·": 2391,
      "çłĶç©¶": 2392,
      "ä¸»åĬĽ": 2393,
      "ä¸ĬæĿīå®ª": 2394,
      "è°ĭåıį": 2395,
      "ä¸īäººä¼Ĺ": 2396,
      "æĺİåºĶ": 2397,
      "ç»ıæµİ": 2398,
      "æĺĮå¹¸": 2399,
      "åħ³çĻ½": 2400,
      "æĿĳéĩį": 2401,
      "è¯¸å°Ĩ": 2402,
      "çļĦé¢Ĩåľ°": 2403,
      "æĬµè¾¾": 2404,
      "åĪĳ": 2405,
      "äºĶåįģ": 2406,
      "å®ĮæĪĲ": 2407,
      "éķ¿ç§Ģ": 2408,
      "è¢«è®¤ä¸º": 2409,
      "ç»§æī¿äºº": 2410,
      "é£Ł": 2411,
      "åħĥæľį": 2412,
      "åĲįçļĦ": 2413,
      "149": 2414,
      "ç«ĭåį³": 2415,
      "ä½Ĳä¹ħéĹ´": 2416,
      "ç»ĵæĿŁ": 2417,
      "å¤ªéĥİ": 2418,
      "æĻ®": 2419,
      "åħ¸": 2420,
      "åĩı": 2421,
      "èĲ¨æĳ©": 2422,
      "1570": 2423,
      "ä¹ħä¿Ŀ": 2424,
      "åįĥäºº": 2425,
      "ä¸ĢæŃ¥": 2426,
      "æīĺ": 2427,
      "å®Īå¤ĩ": 2428,
      "åħŃæľĪ": 2429,
      "ä¼łè¯´": 2430,
      "å®ĺä½į": 2431,
      "ç¾¤": 2432,
      "åĳ¨éĺ²": 2433,
      "å¤ĩåīį": 2434,
      "åħ¨éĥ¨": 2435,
      "ä¹ĿæľĪ": 2436,
      "æŃ»åİ»": 2437,
      "èĳ¬": 2438,
      "åºµ": 2439,
      "éĢĶä¸Ń": 2440,
      "åĪĥ": 2441,
      "å°Ĩé¢Ĩ": 2442,
      "åıªæľī": 2443,
      "å£«åħµ": 2444,
      "ä¸¾è¡Į": 2445,
      "çĭŃéĹ´": 2446,
      "åİŁåĽł": 2447,
      "åħ³ä¸ľç®¡é¢Ĩ": 2448,
      "å¹¶äºİ": 2449,
      "å¹´ä¸įè¯¦": 2450,
      "ä¸įåı¯": 2451,
      "çŁ³è§ģ": 2452,
      "ä¸įä»ħ": 2453,
      "é©±": 2454,
      "å«¡çĶ·": 2455,
      "å¤ºåĽŀ": 2456,
      "éĿŀå¸¸": 2457,
      "åľ¨äº¬éĥ½": 2458,
      "åī²": 2459,
      "ç»§ä»»": 2460,
      "å¤ĩä¸Ń": 2461,
      "èĩªå°½": 2462,
      "éĺľ": 2463,
      "é¢ģ": 2464,
      "å¸Ń": 2465,
      "è¢Ńåĩ»": 2466,
      "åĪº": 2467,
      "æīĩè°·": 2468,
      "åŁİåĨħ": 2469,
      "éķ¿æľŁ": 2470,
      "å¾ĹçŁ¥": 2471,
      "å²ģçļĦ": 2472,
      "éľ¸": 2473,
      "å±¡": 2474,
      "çºªä¼Ĭ": 2475,
      "åıĶçĪ¶": 2476,
      "å½¦": 2477,
      "èĩªæĿĢ": 2478,
      "åī§": 2479,
      "å±±åı£": 2480,
      "ãĢİ": 2481,
      "åłº": 2482,
      "ä¸ĥæľĪ": 2483,
      "ä¸įèĥ½": 2484,
      "ç¬¼": 2485,
      "ä¹ĭä¸Ń": 2486,
      "åºĵ": 2487,
      "æ°ıä¸İ": 2488,
      "å¹¶æľª": 2489,
      "ãĢı": 2490,
      "æ°ıçŃī": 2491,
      "é¡¾": 2492,
      "åįģåĪĨ": 2493,
      "éķĩåİĭ": 2494,
      "ç»³": 2495,
      "å®ĪçļĦ": 2496,
      "ç¡Ģ": 2497,
      "åİļ": 2498,
      "åĮĹæľĿ": 2499,
      "ãģ¯": 2500,
      "å¤±è´¥": 2501,
      "çİ°åľ¨": 2502,
      "26": 2503,
      "å²Ĳéĺľ": 2504,
      "éļĨä¿¡": 2505,
      "æİ¨æµĭ": 2506,
      "åĲİä¸ĸ": 2507,
      "âĢ¦": 2508,
      "çĬ¬": 2509,
      "åĬłä¸Ĭ": 2510,
      "ä¼Ĭè±«": 2511,
      "è¿ħ": 2512,
      "å¹ķåºľçļĦ": 2513,
      "éĻĨå¥¥": 2514,
      "éĨį": 2515,
      "ä¸Ģæł·": 2516,
      "ä»²": 2517,
      "ä¹īæĻ¯": 2518,
      "è¡£": 2519,
      "1573": 2520,
      "åıĳçİ°": 2521,
      "ä¸Ńå¿ĥ": 2522,
      "æ¶ī": 2523,
      "çŃĴäºķ": 2524,
      "åīįæĿ¥": 2525,
      "çĽ¸å½ĵ": 2526,
      "éĨĲ": 2527,
      "éĨįéĨĲ": 2528,
      "åĩºå¾ģ": 2529,
      "éĿĻ": 2530,
      "æİĮæı¡": 2531,
      "èľĤ": 2532,
      "èµł": 2533,
      "ç§Ģéķ¿": 2534,
      "å°ıæĹ©å·ĿéļĨæĻ¯": 2535,
      "åĿĲ": 2536,
      "æ¡¶çĭŃéĹ´": 2537,
      "åĲİåĮĹæĿ¡æ°ı": 2538,
      "è°±ä»£": 2539,
      "åĪ©çĶ¨": 2540,
      "å¤§åĿĤåŁİ": 2541,
      "è´¡": 2542,
      "è¸": 2543,
      "åĽĽæľĪ": 2544,
      "ç»ıåİĨ": 2545,
      "æģĲ": 2546,
      "å¤·": 2547,
      "æĥĬ": 2548,
      "å²Ľæ´¥å®¶": 2549,
      "èªī": 2550,
      "äº²çİĭ": 2551,
      "åŁºç¡Ģ": 2552,
      "å¤§èĩ£": 2553,
      "èĥ½çĻ»": 2554,
      "è¯ķåĽ¾": 2555,
      "åħ¶å®ŀ": 2556,
      "æĥ¨": 2557,
      "çĽ´æĶ¿": 2558,
      "ä¸°åīį": 2559,
      "å¥¥å·ŀ": 2560,
      "å¾·å·ĿåĨĽ": 2561,
      "çĽ¸èī¯": 2562,
      "æĽ²": 2563,
      "çķĻä¸ĭ": 2564,
      "éķ¿ä¹ħ": 2565,
      "ä¸ĥæĹ¥": 2566,
      "è¾ħä½Ĳ": 2567,
      "é¡»è´º": 2568,
      "æľ¬äºº": 2569,
      "ç«¯": 2570,
      "åıįå¯¹": 2571,
      "æĶ¿çŃĸ": 2572,
      "ä½Ļäºº": 2573,
      "é«ĺæ¡¥": 2574,
      "è¯ī": 2575,
      "åĩºåıĳ": 2576,
      "ä¸ĭæĢ»": 2577,
      "ä¹ł": 2578,
      "å¹¶ä¸į": 2579,
      "æļ´": 2580,
      "äºĮæĿ¡": 2581,
      "éĩįæĸ°": 2582,
      "åĮĹæĿ¡å®¶": 2583,
      "çĭ¬ç«ĭ": 2584,
      "å·¨": 2585,
      "å°¤": 2586,
      "åłµ": 2587,
      "äº®": 2588,
      "å½¢æĪĲ": 2589,
      "ä¸Ģæĸ¹": 2590,
      "åĭĺ": 2591,
      "ä¸ĬæĿīåĨĽ": 2592,
      "æķĳæı´": 2593,
      "å¥ĭæĪĺ": 2594,
      "åĩŃ": 2595,
      "è¯¯": 2596,
      "æĶ¹æĺĵ": 2597,
      "åĨ¢": 2598,
      "æĿ¡ä»¶": 2599,
      "å°¾å¼łåĽ½": 2600,
      "æĿ¾æ°¸ä¹ħç§Ģ": 2601,
      "èĩªç§°": 2602,
      "çļĦéķ¿": 2603,
      "åįļ": 2604,
      "27": 2605,
      "åĽłèĢĮ": 2606,
      "æĭĶ": 2607,
      "äºĴ": 2608,
      "åĶ¯": 2609,
      "ãģ¦": 2610,
      "æĶ»åħ¥": 2611,
      "åºŃ": 2612,
      "ç»ĻäºĨ": 2613,
      "éªıåºľ": 2614,
      "åľ£": 2615,
      "åħ«æĹ¥": 2616,
      "å±±åİ¿": 2617,
      "å¦Ĥæŀľ": 2618,
      "ä½İ": 2619,
      "è¶³è½»": 2620,
      "èªĵ": 2621,
      "å¤ı": 2622,
      "è£Ķ": 2623,
      "æįŁ": 2624,
      "ä¹¦ä¿¡": 2625,
      "çĿ¦": 2626,
      "ãĤĭ": 2627,
      "éĻ©": 2628,
      "åĢ¼": 2629,
      "1578": 2630,
      "åĩºç¾½": 2631,
      "1585": 2632,
      "é¹¤": 2633,
      "åĴĮæ³ī": 2634,
      "åīįåĲİ": 2635,
      "å¼ĢåŁİ": 2636,
      "çķĻå®Ī": 2637,
      "å¤©çİĭ": 2638,
      "è¢«ä»»åĳ½ä¸º": 2639,
      "çĽ¾": 2640,
      "åĽ½åĨħ": 2641,
      "åĩºäºĨ": 2642,
      "èĪį": 2643,
      "èĪŀ": 2644,
      "èıĬ": 2645,
      "åĩºèĩª": 2646,
      "éĥ¡çļĦ": 2647,
      "ä»ĩ": 2648,
      "30": 2649,
      "å¸®": 2650,
      "å·®": 2651,
      "èĩ³å®īåľŁæ¡ĥå±±æĹ¶ä»£çļĦæŃ¦å°Ĩ": 2652,
      "åŀĭ": 2653,
      "æŁĲ": 2654,
      "å¤Ł": 2655,
      "è¯ł": 2656,
      "åıĻ": 2657,
      "éħĴäºķ": 2658,
      "éĺ²å¾¡": 2659,
      "1575": 2660,
      "åıĬåħ¶": 2661,
      "åįĹæľĿ": 2662,
      "åı¤æ²³åħ¬æĸ¹": 2663,
      "åĩĢ": 2664,
      "éĺµèĲ¥": 2665,
      "è¾¾æĪĲ": 2666,
      "åľĨ": 2667,
      "è¿ħéĢŁ": 2668,
      "åĪ¶åº¦": 2669,
      "éľ²": 2670,
      "åįģä¸Ģå¹´": 2671,
      "ä½¿å¾Ĺ": 2672,
      "å²Ľæ´¥æ°ı": 2673,
      "ãģĭ": 2674,
      "è®¨åıĸ": 2675,
      "1584": 2676,
      "ç¨»åı¶": 2677,
      "åģıè®³": 2678,
      "ä¸¤ä¸ª": 2679,
      "ä¹ĿæĹ¥": 2680,
      "å±±ä¸Ń": 2681,
      "æľ¨ä¸ĭ": 2682,
      "éĶħ": 2683,
      "èĻĳ": 2684,
      "æįķ": 2685,
      "äºĮäºº": 2686,
      "çŁ³å±±": 2687,
      "å®¶åº·çļĦ": 2688,
      "æ¡Ĥ": 2689,
      "åŁİåŁİä¸»": 2690,
      "ç¼º": 2691,
      "29": 2692,
      "åĬŀ": 2693,
      "å½»": 2694,
      "åĲİæĿ¥çļĦ": 2695,
      "å®ļä¸º": 2696,
      "ä¿Ĺ": 2697,
      "ä¸°èĩ£æĶ¿æĿĥ": 2698,
      "å»ºçŃĳ": 2699,
      "åĽĽæĹ¥": 2700,
      "è¯±": 2701,
      "äºīå¤º": 2702,
      "æīĢåľ¨": 2703,
      "éĽ¨": 2704,
      "æŃ£åĪĻ": 2705,
      "è¿Ļæ¬¡": 2706,
      "ãĤĴ": 2707,
      "èŃ": 2708,
      "çģµ": 2709,
      "å®Ĺå®¶": 2710,
      "åħĪåĲİ": 2711,
      "çīĽ": 2712,
      "å¤ĩåĲİ": 2713,
      "è½¬å°ģ": 2714,
      "çºµ": 2715,
      "ç®Ģ": 2716,
      "çļĦåĲİ": 2717,
      "åĲĮæĹı": 2718,
      "å°ıéĩİ": 2719,
      "éĿ¢å¯¹": 2720,
      "ç½ĳ": 2721,
      "åĽ½å®ĪæĬ¤": 2722,
      "å°±åľ¨": 2723,
      "æłĭ": 2724,
      "å¤§å¤«": 2725,
      "æµħéĩİ": 2726,
      "æģ¢": 2727,
      "æ¢ħ": 2728,
      "èĢĮä¸Ķ": 2729,
      "æĹ©äºĳ": 2730,
      "å¾·å·Ŀç§Ģå¿ł": 2731,
      "éĶĻ": 2732,
      "æľºä¼ļ": 2733,
      "èŃ¦": 2734,
      "è¡¨çİ°": 2735,
      "æģ¢å¤į": 2736,
      "åįģæľĪ": 2737,
      "åĪĨåĪ«": 2738,
      "ç»ľ": 2739,
      "å®¶èĩ£åĽ¢": 2740,
      "æĻ´è´¤": 2741,
      "ä¸īå¥½éķ¿åºĨ": 2742,
      "ä»£è¡¨": 2743,
      "äºĮæĹ¥": 2744,
      "1568": 2745,
      "ç»ĩçĶ°ä¿¡éķ¿çļĦ": 2746,
      "é¢Ħ": 2747,
      "èĩªèº«": 2748,
      "å¤ļæ¬¡": 2749,
      "çīµ": 2750,
      "åĮĹçķł": 2751,
      "åĶĲ": 2752,
      "åĲİæľŁ": 2753,
      "é«ĺèĻİ": 2754,
      "èµ·æĿ¥": 2755,
      "ä¸¤å®¶": 2756,
      "å°¾åŁİ": 2757,
      "1569": 2758,
      "å½ĵæĹ¶çļĦ": 2759,
      "åĨ²çªģ": 2760,
      "èĭ¥çĭŃ": 2761,
      "ä¿¡å¿ł": 2762,
      "ä»¥æĿ¥": 2763,
      "åľ°çļĦ": 2764,
      "åĨħä¹±": 2765,
      "å¦»åŃĲ": 2766,
      "ä»Ĭå·Ŀå®¶": 2767,
      "æķ·": 2768,
      "æŃ£æĺ¯": 2769,
      "ãģª": 2770,
      "å¼ķåıĳ": 2771,
      "è¯Ħä»·": 2772,
      "çļĦå¤§åĲį": 2773,
      "åĬ³": 2774,
      "ä¹ĭä¸¸": 2775,
      "åĽŀåĪ°": 2776,
      "ä¸įæĸŃ": 2777,
      "ä»£å®ĺ": 2778,
      "åįĪ": 2779,
      "ä»¥ä¸ĭ": 2780,
      "æīĢæľī": 2781,
      "åĪĿä»£": 2782,
      "åħŃæĹ¥": 2783,
      "1560": 2784,
      "å³Ļ": 2785,
      "å®ļçļĦ": 2786,
      "æŃ£æĪĲ": 2787,
      "ç«¥": 2788,
      "å¯¹æŃ¤": 2789,
      "ç©¿": 2790,
      "çŁŃ": 2791,
      "ç»©": 2792,
      "èıħ": 2793,
      "è·Łéļı": 2794,
      "çķ¿åĨħ": 2795,
      "æĺ¯ä¸Ģ": 2796,
      "ä¿¡èĻİ": 2797,
      "çĽ¸ç»§": 2798,
      "ä¹ĭéĹ´çļĦ": 2799,
      "çĽ¸ä¼ł": 2800,
      "æķĮäºº": 2801,
      "æĮĤ": 2802,
      "ï¼ı": 2803,
      "ä¹ĭäºĭ": 2804,
      "ç¥Ń": 2805,
      "çŃĳåĲİ": 2806,
      "å³°": 2807,
      "åºĶä»ģä¹ĭä¹±": 2808,
      "æ··ä¹±": 2809,
      "çĦļ": 2810,
      "ä½ĵåĪ¶": 2811,
      "å±ĭåŁİ": 2812,
      "èįĴæľ¨": 2813,
      "æ¸©": 2814,
      "æ°ıä¹¡": 2815,
      "ç»ĩçĶ°æ°ı": 2816,
      "èĸ": 2817,
      "æĢ»å¤§å°Ĩ": 2818,
      "èĳĽ": 2819,
      "ç´ł": 2820,
      "éľĩ": 2821,
      "å¯¹å³Ļ": 2822,
      "åĬĽéĩı": 2823,
      "çĳ": 2824,
      "å±±å´İ": 2825,
      "ä¸īæµ¦": 2826,
      "å®īåłµ": 2827,
      "ä¾¿æĺ¯": 2828,
      "é»Ħ": 2829,
      "æłĹ": 2830,
      "æĥ£": 2831,
      "ä¿¡åº·": 2832,
      "æĪĳä»¬": 2833,
      "æĶ¾å¼ĥ": 2834,
      "æŃ£æľĪ": 2835,
      "æľ¨æĽ¾": 2836,
      "åħ¬å®¶": 2837,
      "èİ²": 2838,
      "åĲİéĨįéĨĲ": 2839,
      "148": 2840,
      "æµħäºķéķ¿æĶ¿": 2841,
      "æķ¢": 2842,
      "æ¸ħæ´²": 2843,
      "ä¹Łä¸į": 2844,
      "ç©´": 2845,
      "æĺ¯æĪĺåĽ½æĹ¶ä»£çļĦæŃ¦å°Ĩ": 2846,
      "163": 2847,
      "åīįçĶ°åĪ©å®¶": 2848,
      "éĺµäº¡": 2849,
      "éķ¿éĩİ": 2850,
      "æļĹæĿĢ": 2851,
      "æ¸¯": 2852,
      "ä¹ĭåľ°": 2853,
      "æĪĲæĶ¿": 2854,
      "æĸ¹åĲĳ": 2855,
      "æŁ¥": 2856,
      "åĴĮçĿ¦": 2857,
      "åŃ¤": 2858,
      "å®ģ": 2859,
      "äºĭåĬ¡": 2860,
      "ä¸ŃæĿĳ": 2861,
      "éķ¿éĹ¨": 2862,
      "äºĭå®ŀ": 2863,
      "ç»ķ": 2864,
      "æ³·å·Ŀä¸ĢçĽĬ": 2865,
      "è´±": 2866,
      "åĲīç»§": 2867,
      "çĶ°æĿĳ": 2868,
      "å¤®": 2869,
      "å¹¼åĲį": 2870,
      "å·Ŀä¸Ńå²Ľ": 2871,
      "çĥŃ": 2872,
      "å¤ªéĺģ": 2873,
      "èµ·åħµ": 2874,
      "çº¹": 2875,
      "è¾ĸ": 2876,
      "ä»İäºĶ": 2877,
      "æĿ¾åŁİ": 2878,
      "å¸¦çĿĢ": 2879,
      "200": 2880,
      "åįĥåı¶": 2881,
      "ãĢĢ": 2882,
      "è¶ħ": 2883,
      "èį¯": 2884,
      "å¤įåħ´": 2885,
      "ä¹Łåľ¨": 2886,
      "æĿĢæŃ»": 2887,
      "ç»ĵçĽŁ": 2888,
      "147": 2889,
      "å¤§åıĭæ°ı": 2890,
      "è®®åĴĮ": 2891,
      "å¿łèĥľ": 2892,
      "çĻ¾å§ĵ": 2893,
      "éĤĢ": 2894,
      "æĹ¥è®°": 2895,
      "å§Ĭ": 2896,
      "æ·¡": 2897,
      "æīĢè°ĵ": 2898,
      "æłĳ": 2899,
      "è¿ĳæ±ŁåĽ½": 2900,
      "çº·çº·": 2901,
      "æĪĺäºĭ": 2902,
      "èĥĮåıĽ": 2903,
      "åĲ§": 2904,
      "å¤¹": 2905,
      "æ²¡æĶ¶": 2906,
      "åĳ¢": 2907,
      "å®īä¸ľ": 2908,
      "æĹ¶çļĦ": 2909,
      "æ¤į": 2910,
      "æĶ¿éķ¿": 2911,
      "æĺ¯æĹ¥æľ¬æĪĺåĽ½æĹ¶ä»£": 2912,
      "çĽ¸åħ³": 2913,
      "å°ıçī§": 2914,
      "åĮĹéĥ¨": 2915,
      "èĩªåĪĥ": 2916,
      "ç®¡çĲĨ": 2917,
      "åľ°åĮºçļĦ": 2918,
      "ä»£å°ĨåĨĽè¶³åĪ©ä¹ī": 2919,
      "äºĶçĻ¾": 2920,
      "æĭ©": 2921,
      "éĢĥäº¡": 2922,
      "åŁİä»£": 2923,
      "ä¿¡éĽĦ": 2924,
      "åħĥéķ¿": 2925,
      "æľ¬ä¸¸": 2926,
      "æİĪè±«": 2927,
      "ç¾İæµĵåĽ½": 2928,
      "ä¾µåħ¥": 2929,
      "å¯»": 2930,
      "èĬ³": 2931,
      "äº«ç¦Ħ": 2932,
      "åĲĪæĪĺä¸Ń": 2933,
      "è¿Ľä¸ĢæŃ¥": 2934,
      "æĹ¥æľ¬çļĦ": 2935,
      "è¿ľå±±": 2936,
      "è¯ŀ": 2937,
      "æĸŃç»Ŀ": 2938,
      "ä¼Ĺå¤ļ": 2939,
      "çŁ¥éģĵ": 2940,
      "åĩ»çł´": 2941,
      "å¤§åıĭå®¶": 2942,
      "æŃ¤æ¬¡": 2943,
      "äºĮæľĪ": 2944,
      "å·¦è¿ĳ": 2945,
      "åħ¼ç»Ń": 2946,
      "æ¬¡çĶ·": 2947,
      "ä¿¡éķ¿åħ¬": 2948,
      "éĩĬ": 2949,
      "è£ģ": 2950,
      "ä¸ĬæĢ»": 2951,
      "åīįæľŁ": 2952,
      "å¯ºéĻ¢": 2953,
      "åľŁåľ°": 2954,
      "åı¥": 2955,
      "ä¸Ģä¸ĩ": 2956,
      "æĿĤè´º": 2957,
      "æľ±": 2958,
      "æµ¦ä¸Ĭ": 2959,
      "åģĩ": 2960,
      "æ°ıåº·": 2961,
      "å¿łæ¬¡": 2962,
      "ä¸įå¾Ĺä¸į": 2963,
      "åĿĢ": 2964,
      "èĹ¤åłĤ": 2965,
      "æĤ¬": 2966,
      "åĨĽåĬ¿": 2967,
      "åĽ½å¯º": 2968,
      "ä¸Ńå¤®": 2969,
      "ç§Ģå®¶": 2970,
      "éļıåį³": 2971,
      "ç¾İä½ľ": 2972,
      "è®²": 2973,
      "å»¶ç»Ń": 2974,
      "ç¯ł": 2975,
      "åĴĮè§£": 2976,
      "åıªèĥ½": 2977,
      "éĴĪ": 2978,
      "åĢŃ": 2979,
      "ä¸¥å²Ľ": 2980,
      "ä¸¤åĨĽ": 2981,
      "å°¼åŃĲæ°ı": 2982,
      "åħ¶å¼Ł": 2983,
      "åĴĮçĶ°": 2984,
      "éŀ": 2985,
      "æ¡Ī": 2986,
      "è¡Įéķ¿": 2987,
      "æľ¬åºĦ": 2988,
      "åºĦåĽŃ": 2989,
      "æĻļå¹´": 2990,
      "ç§Ģç§ĭ": 2991,
      "å¥¹": 2992,
      "åİ»ä¸ĸåĲİ": 2993,
      "æľ¬åŁİ": 2994,
      "å¤§è´¥": 2995,
      "æİī": 2996,
      "ç§ĭæľĪ": 2997,
      "æī¹": 2998,
      "1561": 2999,
      "å¿Ļ": 3000,
      "å¤©å®Ī": 3001,
      "çīĪ": 3002,
      "ç³»åĽ¾": 3003,
      "é½": 3004,
      "çļĦæŃ¦å£«": 3005,
      "æĢķ": 3006,
      "æĶ»åĬ¿": 3007,
      "çĭ©": 3008,
      "èĨ³": 3009,
      "ä¸¤äºº": 3010,
      "å®¢": 3011,
      "çĶ³": 3012,
      "åįģå¹´": 3013,
      "ãģĨ": 3014,
      "146": 3015,
      "æ¯«": 3016,
      "ä¼´": 3017,
      "æ´¥åŁİ": 3018,
      "çģĮ": 3019,
      "å¤§åıĭåĨĽ": 3020,
      "çļĦå¥³åĦ¿": 3021,
      "å°ıçĶ°åİŁå¾ģä¼Ĳ": 3022,
      "ä¸»å¼ł": 3023,
      "å¾Īå¿«": 3024,
      "æģ¨": 3025,
      "ç¨İ": 3026,
      "ä¾§è¿ĳ": 3027,
      "ä¹ĭçĪ¶": 3028,
      "æŃ¤æĪĺ": 3029,
      "æ¨±": 3030,
      "åįłé¢Ĩ": 3031,
      "çŃĳåŁİ": 3032,
      "æĪ·æ¬¡": 3033,
      "ä¸īæ²³åĽ½": 3034,
      "èĢĮè¢«": 3035,
      "æĺ¥æĹ¥": 3036,
      "æ°ıçº²": 3037,
      "å°±ä»»": 3038,
      "æ£Ģåľ°": 3039,
      "ä¸¹ç¾½éķ¿ç§Ģ": 3040,
      "æ±ŁæĪ·å¹ķåºľ": 3041,
      "æĹģ": 3042,
      "æķı": 3043,
      "åħĥåº·": 3044,
      "æĬĢ": 3045,
      "ç¡®ç«ĭ": 3046,
      "ä»įçĦ¶": 3047,
      "çĶĺ": 3048,
      "åĨĽè®°": 3049,
      "æĹ¨": 3050,
      "åŁĭ": 3051,
      "åŁİä¸Ń": 3052,
      "ä»ĸä¸İ": 3053,
      "æµªäºº": 3054,
      "åĽłå¹¡": 3055,
      "åĪĻæĺ¯": 3056,
      "ä¼ĺåĬ¿": 3057,
      "ä¸Ģèī²": 3058,
      "æĸ¯æ³¢ä¹ī": 3059,
      "ä¸ĬçĶ°": 3060,
      "åħĥé¾Łåħĥå¹´": 3061,
      "æ¡ĳ": 3062,
      "ä¼łæķĻ": 3063,
      "æ©": 3064,
      "é±": 3065,
      "é«ĺéĩİ": 3066,
      "ãĤĬ": 3067,
      "è¯į": 3068,
      "è¿Ł": 3069,
      "ä¿£": 3070,
      "åľ¨å¤©æŃ£": 3071,
      "çķ¥åİĨ": 3072,
      "éļ¾ä»¥": 3073,
      "åĩºçĶŁäºİ": 3074,
      "éĢĨ": 3075,
      "å¤§åĨħä¹īéļĨ": 3076,
      "ä¸§": 3077,
      "èµ¦": 3078,
      "è¡Įä¸º": 3079,
      "æĹ§é¢Ĩ": 3080,
      "é±¼": 3081,
      "åĬ¨åĳĺ": 3082,
      "åİŁä¹ĭæĪĺ": 3083,
      "æ¸ħæ°´": 3084,
      "é©±éĢĲ": 3085,
      "çĳŀ": 3086,
      "éªļ": 3087,
      "å·Ŀä¹ĭæĪĺ": 3088,
      "é©¹": 3089,
      "å¾ĭ": 3090,
      "èĩªçĦ¶": 3091,
      "ç§¯æŀģ": 3092,
      "åĬłèĹ¤æ¸ħæŃ£": 3093,
      "1587": 3094,
      "å¯ºç¤¾": 3095,
      "ãģĮ": 3096,
      "æ¶ĪçģŃ": 3097,
      "åįģäºĮæľĪ": 3098,
      "å¤§éĩİ": 3099,
      "æķĮå¯¹": 3100,
      "å®īèīºåĽ½": 3101,
      "å¾·å·Ŀå®¶åº·çļĦ": 3102,
      "èĩ¼": 3103,
      "éķ¿ä¹ħæīĭ": 3104,
      "å°»": 3105,
      "å°½ç®¡": 3106,
      "å®ħéĤ¸": 3107,
      "èº«ä¸º": 3108,
      "æĪĺåĽ½æĹ¶æľŁ": 3109,
      "å¤ĦçĲĨ": 3110,
      "è¿Ļåľº": 3111,
      "çŁĽ": 3112,
      "éĤ¦": 3113,
      "åī©": 3114,
      "çīĻ": 3115,
      "ç»´æĮģ": 3116,
      "å¤§éĩı": 3117,
      "æī¬": 3118,
      "å²Ľæ´¥åĨĽ": 3119,
      "çļĦæĹ¶åĢĻ": 3120,
      "å±ħä½ı": 3121,
      "åºı": 3122,
      "å¹¿å¿ł": 3123,
      "è¾°": 3124,
      "åīįçļĦ": 3125,
      "éĵĥ": 3126,
      "ç»ıä¹ħ": 3127,
      "ç¼Ķ": 3128,
      "1592": 3129,
      "ä¹īç»§": 3130,
      "é¢ĩ": 3131,
      "é¢ĨåĨħ": 3132,
      "ä½Ĩé©¬": 3133,
      "åī¯": 3134,
      "å°ıè¥¿": 3135,
      "ç»§æī¿äºĨ": 3136,
      "å®ĪæĬ¤å¤§åĲį": 3137,
      "éļ¶": 3138,
      "åĮĹéĻĨ": 3139,
      "äºķä¸Ĭ": 3140,
      "æıĲä¾Ľ": 3141,
      "ä¹ĭæĹ¶": 3142,
      "å§Ĳ": 3143,
      "åħ¬åį¿": 3144,
      "åĲ«": 3145,
      "1583": 3146,
      "å¡Ķ": 3147,
      "çĶ¥": 3148,
      "å¤Ħäºİ": 3149,
      "1580": 3150,
      "åįłæį®": 3151,
      "æĮĳ": 3152,
      "è´¹": 3153,
      "ä¹Łè¢«": 3154,
      "åħ¥éģĵ": 3155,
      "1586": 3156,
      "å®ŀéĻħä¸Ĭ": 3157,
      "ä¹Ŀéĥİ": 3158,
      "æ°´éĩİ": 3159,
      "éĶ®": 3160,
      "ä½Ĳç«¹ä¹ī": 3161,
      "ä¿ĿæĮģ": 3162,
      "çĽ´èĩ³": 3163,
      "ä¾§å®¤": 3164,
      "èĻļ": 3165,
      "1581": 3166,
      "åĨ³æĪĺ": 3167,
      "åı¯æĺ¯": 3168,
      "æ³ķåı·": 3169,
      "çļĦåĦ¿åŃĲ": 3170,
      "èĩ£æľį": 3171,
      "ç»ĩçĶ°ä¿¡ç§Ģ": 3172,
      "çĶŁäºİ": 3173,
      "æĵħ": 3174,
      "ä¸īæľ¨": 3175,
      "æĶ¿åĬ¡": 3176,
      "æĶ»ä¸ĭ": 3177,
      "å°ĳè¾ħ": 3178,
      "å¹³å®ī": 3179,
      "âĢĺ": 3180,
      "âĢĻ": 3181,
      "æĶ¹åĲįä¸º": 3182,
      "å¤§åıĭä¹ī": 3183,
      "æŃ¦çĶ°ä¿¡èĻİ": 3184,
      "æī¾": 3185,
      "åĨľæ°ĳ": 3186,
      "ä¸Ģäºº": 3187,
      "çĶ°éķ¿": 3188,
      "éŃ": 3189,
      "åħ³éĶ®": 3190,
      "å¤§ä¹ħä¿Ŀ": 3191,
      "åĴĮæŃĮ": 3192,
      "åĮĹæĿ¡æ°ıæĶ¿": 3193,
      "æķ´ä¸ª": 3194,
      "ä¿ĿæĬ¤": 3195,
      "åĵ¥": 3196,
      "æĬķéĿł": 3197,
      "åīĬ": 3198,
      "çĽ´æ±Ł": 3199,
      "åįģä¸ĢæľĪ": 3200,
      "éļħ": 3201,
      "æĿ¥è¯´": 3202,
      "èµ·äºĨ": 3203,
      "æĿ¾å¹³å®¶": 3204,
      "è¿Ŀ": 3205,
      "éĤ£ä¹Ī": 3206,
      "ä¸Ģæ¬¡": 3207,
      "éķľ": 3208,
      "ä¿¡ç¹ģ": 3209,
      "æ´ŀ": 3210,
      "å½»åºķ": 3211,
      "è°¢": 3212,
      "é¼ĵ": 3213,
      "æµ·éģĵ": 3214,
      "ä¹īé¾Ļ": 3215,
      "å½ĵçĦ¶": 3216,
      "å®¶è°±": 3217,
      "éķ¿ç¯ł": 3218,
      "åŃĿé«ĺ": 3219,
      "ä»¥æŃ¤": 3220,
      "å°ıçĶ°åİŁåŁİ": 3221,
      "è¿Ļæł·çļĦ": 3222,
      "ä¹īéļĨ": 3223,
      "æľīé©¬": 3224,
      "åıĳåĩº": 3225,
      "äºİå¤©æŃ£": 3226,
      "èĦī": 3227,
      "Ġçķ¥åİĨ": 3228,
      "éļĶ": 3229,
      "å¼¹æŃ£": 3230,
      "ç¬¬åĽĽ": 3231,
      "åĲİèĹ¤": 3232,
      "è¿ĻæĹ¶": 3233,
      "ç¿¼": 3234,
      "æ¬¡å¹´": 3235,
      "å£ģ": 3236,
      "èĤ²": 3237,
      "æķ¬": 3238,
      "å¥īåħ¬": 3239,
      "ç¬ĳ": 3240,
      "èĥĮæĻ¯": 3241,
      "å¤©ç¥ŀ": 3242,
      "åķĨäºº": 3243,
      "ä»İäºĶä½įä¸ĭ": 3244,
      "æĪĲæ°ı": 3245,
      "åĪ°è¾¾": 3246,
      "åıįåĩ»": 3247,
      "çī©è¯Ń": 3248,
      "æĽ¾ç»ı": 3249,
      "1615": 3250,
      "çĽŁåıĭ": 3251,
      "èĥľåħĥ": 3252,
      "æĪĲä¸ºäºĨ": 3253,
      "æ§": 3254,
      "å¥ı": 3255,
      "è¾īå®Ĺ": 3256,
      "ä¿¡åŃĿ": 3257,
      "çĦ¶åĲİ": 3258,
      "æ¿ĢæĪĺ": 3259,
      "æĹ¥éĩİ": 3260,
      "èĥ½åĬĽ": 3261,
      "ç»įè¿Ĳ": 3262,
      "æŃ¦çĶ°æĻ´ä¿¡": 3263,
      "1614": 3264,
      "çİ°äºĨ": 3265,
      "éĶħå²Ľ": 3266,
      "ä¿¡éķ¿åħ¬è®°": 3267,
      "èĢĨ": 3268,
      "åĲīèī¯": 3269,
      "æĻ´ä¹ħ": 3270,
      "éº»": 3271,
      "äº§çĶŁ": 3272,
      "ãĤĤ": 3273,
      "éĽĨç»ĵ": 3274,
      "ĠçĶŁå¹³": 3275,
      "åĲįåı¤": 3276,
      "èĢĮè¨Ģ": 3277,
      "çİ¯": 3278,
      "ä»ĸæĺ¯": 3279,
      "çĽĺ": 3280,
      "å§Ķ": 3281,
      "çĶ²æĸĲåĽ½": 3282,
      "æĬ¼": 3283,
      "åĪĨè£Ĥ": 3284,
      "1579": 3285,
      "åĲīå·Ŀåħĥæĺ¥": 3286,
      "å®¶äºº": 3287,
      "å±¥": 3288,
      "è¯Ľ": 3289,
      "ä¿¡æµĵåĽ½": 3290,
      "æ¹ĸ": 3291,
      "ä½ĨåĽł": 3292,
      "çŀ": 3293,
      "æĪĪ": 3294,
      "æ²³è¶Ĭ": 3295,
      "ä¼¯èĢĨ": 3296,
      "çĽ´åĪ°": 3297,
      "åıªå¾Ĺ": 3298,
      "©åĽº": 3299,
      "æĶ»åŁİ": 3300,
      "å·©åĽº": 3301,
      "æī«": 3302,
      "éĢīæĭ©": 3303,
      "èĩ³æ±ŁæĪ·æĹ¶ä»£åĪĿæľŁ": 3304,
      "è¿Ļä½į": 3305,
      "è´±å²³": 3306,
      "ä¸ºæĻ¯": 3307,
      "èĩ³ä»Ĭ": 3308,
      "ä¸ºé¦ĸ": 3309,
      "åĬ¿åĬĽçļĦ": 3310,
      "èĥ½å¤Ł": 3311,
      "ä¿¸": 3312,
      "ä¿®çŃĳ": 3313,
      "åĲİéĨįéĨĲå¤©çļĩ": 3314,
      "æ°ıåľ¨": 3315,
      "åºĶæ°¸": 3316,
      "æ°ıç¬¬": 3317,
      "50": 3318,
      "æĪĲç«ĭ": 3319,
      "ä¸°èĩ£å®¶": 3320,
      "ä¸ºåħ»åŃĲ": 3321,
      "å±±çļĦ": 3322,
      "ä¸īåįĥ": 3323,
      "å»ī": 3324,
      "ä¼ĹçļĦ": 3325,
      "æĸ©æĿĢ": 3326,
      "èµŀå²Ĳ": 3327,
      "æĪĲçļĦ": 3328,
      "åĬłå¢ŀ": 3329,
      "æľĿä»ĵä¹īæĻ¯": 3330,
      "å®ĥ": 3331,
      "èĢ³": 3332,
      "è¡Ĺ": 3333,
      "æ¾Ħåħĥ": 3334,
      "çĽ¸é©¬": 3335,
      "å¦Ĥä½ķ": 3336,
      "çľĭåĪ°": 3337,
      "å¤§è°·": 3338,
      "å¥ĩè¢Ń": 3339,
      "ä¸īçĻ¾": 3340,
      "æİ¥çĿĢ": 3341,
      "å¿ħé¡»": 3342,
      "éĻ¶æĻ´è´¤": 3343,
      "æĭ¿": 3344,
      "æĸ°çĶ°": 3345,
      "1574": 3346,
      "å±ĢåĬ¿": 3347,
      "æ±ī": 3348,
      "ç»ĩçĶ°ä¿¡éĽĦ": 3349,
      "çº³è¨Ģ": 3350,
      "åħ¶ä¸º": 3351,
      "çĽ®æłĩ": 3352,
      "å®ŀæĿĥ": 3353,
      "ä¸įè¶³": 3354,
      "æ²Ł": 3355,
      "åĪ«æīĢ": 3356,
      "æ¢ģ": 3357,
      "æ£®éķ¿": 3358,
      "çļĦæ¬¡åŃĲ": 3359,
      "æŃ£åľ¨": 3360,
      "å¤§å´İ": 3361,
      "é¦ĸåħĪ": 3362,
      "è§Ĵèī²": 3363,
      "æŃ¤åīį": 3364,
      "æĹ¥åĲİ": 3365,
      "ç¡®è®¤": 3366,
      "ãĤĮ": 3367,
      "1563": 3368,
      "1567": 3369,
      "ä¹īæ¸ħ": 3370,
      "ç¦ıå¯º": 3371,
      "å¹³æ°ı": 3372,
      "ä»¥ä¸º": 3373,
      "è½¦": 3374,
      "è¿ĩç¨ĭ": 3375,
      "åºĩ": 3376,
      "åĪĨä¸º": 3377,
      "1571": 3378,
      "éķ¿å®ĹæĪĳéĥ¨åħĥäº²": 3379,
      "æĺŁ": 3380,
      "çĵ¦": 3381,
      "ä¹īåħ´": 3382,
      "çķłå±±ä¹ī": 3383,
      "æĲº": 3384,
      "æĪĲåĳĺ": 3385,
      "å¹¶æ²¡æľī": 3386,
      "ç¬¼åŁİ": 3387,
      "åįģéĥİ": 3388,
      "åĲĦèĩª": 3389,
      "çļĦäºĭ": 3390,
      "èĹ¤åŃĿ": 3391,
      "é©»å®Ī": 3392,
      "ãĤī": 3393,
      "ç½¢": 3394,
      "1577": 3395,
      "ç¦ıå²ĽæŃ£åĪĻ": 3396,
      "çĽ´å®¶": 3397,
      "1572": 3398,
      "è°·åŁİ": 3399,
      "é¹°": 3400,
      "ç¬¬äºĮæ¬¡": 3401,
      "å®°": 3402,
      "è´¼": 3403,
      "ä¹īè¾ī": 3404,
      "éļĨåħĥ": 3405,
      "å°ĨåĨĽçļĦ": 3406,
      "æ²Ļ": 3407,
      "æ¸ħåº·": 3408,
      "é¡¶": 3409,
      "é½Ĳ": 3410,
      "å½ĵå¹´": 3411,
      "å®ŀæĸ½": 3412,
      "å¥³å©¿": 3413,
      "ç¬¬ä¸Ģæ¬¡": 3414,
      "è´°": 3415,
      "ä¹īè´¤": 3416,
      "çĶŁæ´»": 3417,
      "äº¬éĥ½çļĦ": 3418,
      "é¡¿": 3419,
      "é¥°": 3420,
      "éķ¿å²Ľ": 3421,
      "ç»Ĩå·ĿæĻ´åħĥ": 3422,
      "âĶ": 3423,
      "åĲ¾": 3424,
      "åĨ·": 3425,
      "ç§ĺ": 3426,
      "è¡¡": 3427,
      "éĥ¨å°Ĩ": 3428,
      "ä¿¡çĽĽ": 3429,
      "æĺ¯æĹ¥æľ¬": 3430,
      "åĲįåŃĹ": 3431,
      "åıĪç§°": 3432,
      "ä¼łç»Ł": 3433,
      "åĳ³": 3434,
      "å®´": 3435,
      "èĮĥåĽ´": 3436,
      "å·ĿåŁİ": 3437,
      "èĩªæŃ¤": 3438,
      "åĲįä¹ī": 3439,
      "å¸Ĳ": 3440,
      "ç¥ŀä¿Ŀ": 3441,
      "ä¸īæĸ¹": 3442,
      "åºĶè¯¥": 3443,
      "å¤§åıĭå®ĹéºŁ": 3444,
      "çī¹åĪ«": 3445,
      "æĺİæľĿ": 3446,
      "æ·Ģ": 3447,
      "å®Īå°Ĩ": 3448,
      "éģĵçģĮ": 3449,
      "çŁĽçĽ¾": 3450,
      "ç¤¾ä¼ļ": 3451,
      "ä¸ºçĶ±": 3452,
      "æł¹æľ¬": 3453,
      "è¯»": 3454,
      "éĽħ": 3455,
      "1576": 3456,
      "ç«ĭåĬŁ": 3457,
      "ç§»å°ģ": 3458,
      "å¹´ä»ħ": 3459,
      "ç§ĢæĶ¿": 3460,
      "å½¢å¼ı": 3461,
      "è¿«ä½¿": 3462,
      "å¹´åĲİ": 3463,
      "æĮ¯": 3464,
      "çĪµ": 3465,
      "æī©å¤§": 3466,
      "ä¹īæĶ¿": 3467,
      "èĢĮåľ¨": 3468,
      "è°Ĵ": 3469,
      "æī¿è®¤": 3470,
      "èĩ³æŃ¤": 3471,
      "æŃ¦çĶ°å®¶çļĦ": 3472,
      "å¾·å·Ŀæ°ı": 3473,
      "æĿĥå¨ģ": 3474,
      "åįĹåĮĹæľĿ": 3475,
      "éĹ°": 3476,
      "ä¸¹åĲİ": 3477,
      "ä¿¡çĽ´": 3478,
      "åĽ½å®¶": 3479,
      "è¡ĮæĶ¿": 3480,
      "ä¸ºä¸»": 3481,
      "æį®ç§°": 3482,
      "åħ¨åĨĽ": 3483,
      "æĦŁåĪ°": 3484,
      "è¯ŀçĶŁ": 3485,
      "å¢Ļ": 3486,
      "å¨ģèĥģ": 3487,
      "è®Ń": 3488,
      "å·¥ä½ľ": 3489,
      "ä¼ıè§ģåŁİ": 3490,
      "æ°ıçļĦå®¶èĩ£": 3491,
      "ç¿»": 3492,
      "éĥ¨ä¸ĭ": 3493,
      "ä¸ĸä»£": 3494,
      "åĬŁç»©": 3495,
      "éĤ£é¡»": 3496,
      "å°¤åħ¶": 3497,
      "åįģäºĶ": 3498,
      "æ°ıå½ĵä¸»": 3499,
      "å´Ľ": 3500,
      "ä½ĵç³»": 3501,
      "çľŁçĶ°æĺĮå¹¸": 3502,
      "ä¸īæĿ¡": 3503,
      "æĿ¥äºĨ": 3504,
      "å¤ªå¹³": 3505,
      "çļĦåħ»åŃĲ": 3506,
      "æĹ§èĩ£": 3507,
      "åŁºæľ¬": 3508,
      "çĪ±çŁ¥": 3509,
      "å¹´è½»": 3510,
      "éĩĩåıĸ": 3511,
      "çŁ©": 3512,
      "åĨħå®¹": 3513,
      "133": 3514,
      "èľĤé¡»è´º": 3515,
      "å¹½": 3516,
      "éĿ©": 3517,
      "è§¦": 3518,
      "çķĻåľ¨": 3519,
      "ä¼ª": 3520,
      "åŁºçĿ£": 3521,
      "è®¯": 3522,
      "è°ĥåģľ": 3523,
      "å§ĭç»Ī": 3524,
      "æĸĭèĹ¤éģĵä¸ī": 3525,
      "æĳĩ": 3526,
      "ä¾ĭå¦Ĥ": 3527,
      "çİĭä¸¸": 3528,
      "æ¿ĢçĥĪ": 3529,
      "çļĦæ¶Īæģ¯": 3530,
      "æľĪå±±": 3531,
      "æĺŃåĴĮ": 3532,
      "æĤ£": 3533,
      "éľĢè¦ģ": 3534,
      "æĪĴ": 3535,
      "æĦ¤": 3536,
      "1555": 3537,
      "åĬ£": 3538,
      "è½¬èĢĮ": 3539,
      "ç±į": 3540,
      "æīįèĥ½": 3541,
      "åĿı": 3542,
      "åīįçĶ°åĪ©": 3543,
      "å®ĪåĨĽ": 3544,
      "1564": 3545,
      "æµģä¼ł": 3546,
      "ç»Ĩå·ĿæĶ¿åħĥ": 3547,
      "å¸Ŀ": 3548,
      "ä¾¯": 3549,
      "å¿łæĶ¿": 3550,
      "è¯º": 3551,
      "æĶ¾éĢĲ": 3552,
      "é©¬åľº": 3553,
      "åĢ¾": 3554,
      "çļĦè¯Ŀ": 3555,
      "åĪ©ä¼ĳ": 3556,
      "æĪ´": 3557,
      "æĻĭ": 3558,
      "æ¢¨": 3559,
      "åıįèĢĮ": 3560,
      "1562": 3561,
      "å®¶çĿ£ä¹ĭä½į": 3562,
      "çĶ²å·ŀ": 3563,
      "å´Ľèµ·": 3564,
      "éĩİåŁİ": 3565,
      "å²Ľæ´¥ä¹īå¼ĺ": 3566,
      "äºĪ": 3567,
      "æĬ¥åĳĬ": 3568,
      "æĢİ": 3569,
      "åº¶æµģ": 3570,
      "åľ°å¤´": 3571,
      "è¦Ĩ": 3572,
      "çļĦé«ĺ": 3573,
      "çļĦåħ³ç³»": 3574,
      "æĹ¦": 3575,
      "ä¸ĢåĽ½": 3576,
      "å¤©æĸĩäºĮåįģ": 3577,
      "å¥Īèī¯": 3578,
      "åĳĪ": 3579,
      "æĢģåº¦": 3580,
      "ä¼ģ": 3581,
      "åĽ½äººä¼Ĺ": 3582,
      "å·¦åį«éĹ¨å°ī": 3583,
      "è·ĳ": 3584,
      "æľĪå±±å¯Į": 3585,
      "ä¸Ģä»£": 3586,
      "ä»£å°ĨåĨĽ": 3587,
      "çŁ³é«ĺ": 3588,
      "å¾®": 3589,
      "ä¿¸ç¦Ħ": 3590,
      "ä»°": 3591,
      "è¥¿åĽ½": 3592,
      "åıįåıĽ": 3593,
      "å®¶åľ¨": 3594,
      "æŃ¤ä¸¾": 3595,
      "ç»Ħç»ĩ": 3596,
      "ä¿¡ä»»": 3597,
      "åįģä¸ī": 3598,
      "ä¸īå¥½ä¸īäººä¼Ĺ": 3599,
      "ä½Ļéªĳ": 3600,
      "éģį": 3601,
      "å½±åĵįåĬĽ": 3602,
      "åĴĮè®®": 3603,
      "åįģæ²³": 3604,
      "çĽ´ä¹ī": 3605,
      "æĪĺçķ¥": 3606,
      "æĢ¨": 3607,
      "è¿ĳåį«": 3608,
      "èıĬæ±ł": 3609,
      "ä¸Ģå¹´": 3610,
      "éļľ": 3611,
      "åı¦æľī": 3612,
      "¡æĹĭ": 3613,
      "ç«ĭèĬ±å®ĹèĮĤ": 3614,
      "æĸ¡æĹĭ": 3615,
      "ç«ĭåĪ»": 3616,
      "çĪ¶äº²æĺ¯": 3617,
      "çĽ®çļĦ": 3618,
      "åĮĹæĿ¡åĨĽ": 3619,
      "çĹĽ": 3620,
      "æĺł": 3621,
      "ä»¥ä¸Ĭ": 3622,
      "çļĦåĬ¿åĬĽ": 3623,
      "åħµåºĵ": 3624,
      "èº«è¾¹": 3625,
      "å¦Ĥä»Ĭ": 3626,
      "åĢĴæĪĪ": 3627,
      "æĤ²": 3628,
      "é¸Łå±ħ": 3629,
      "çĶ°ä¿¡": 3630,
      "ä¼ļåĲĪ": 3631,
      "1565": 3632,
      "é¢ĳ": 3633,
      "å¹¶ä¸İ": 3634,
      "ä¸ľè¥¿": 3635,
      "å£®": 3636,
      "ä¹ĭäºº": 3637,
      "æĸ¹å¼ı": 3638,
      "æ¬¢": 3639,
      "ä½ľåĵģ": 3640,
      "è§ĤçĤ¹": 3641,
      "èĦ±ç¦»": 3642,
      "å±±çĶ°": 3643,
      "å³ł": 3644,
      "ï½": 3645,
      "æĹ¬": 3646,
      "æ²ī": 3647,
      "ç»§ä½į": 3648,
      "æĹ¶ä»£çļĦ": 3649,
      "è·Ŀ": 3650,
      "æ³ķåĲį": 3651,
      "å½ĴéĻĦ": 3652,
      "ä¸ĭäºĨ": 3653,
      "æ¢¦": 3654,
      "è¿İå¨¶": 3655,
      "éĹ¨å¾Ĵ": 3656,
      "éĿ¢çļĦ": 3657,
      "éĵĥæľ¨": 3658,
      "åįģäºĮå¹´": 3659,
      "å¾ģå¤·": 3660,
      "æīĵç®Ĺ": 3661,
      "çļĦèº«ä»½": 3662,
      "è°ģ": 3663,
      "ãģķ": 3664,
      "æıı": 3665,
      "ç¨Ļå®Ĺ": 3666,
      "éļıåĨĽ": 3667,
      "500": 3668,
      "è´¥éĢĢ": 3669,
      "å¼ºåĮĸ": 3670,
      "çļĦéĩįè¦ģ": 3671,
      "ä¸ĭæĿ¥": 3672,
      "å®ĹæķĻ": 3673,
      "å°ĳè´°": 3674,
      "ä»ĭåħ¥": 3675,
      "å¤§åĨħä¹īåħ´": 3676,
      "ä¹Łå°±æĺ¯": 3677,
      "ç¼Ķç»ĵ": 3678,
      "ä¹ĭå¤ĸ": 3679,
      "å²Ľæ´¥ä¹īä¹ħ": 3680,
      "å¤«äºº": 3681,
      "æľ«æľŁ": 3682,
      "å°º": 3683,
      "åħ°": 3684,
      "ä¸İçĪ¶äº²": 3685,
      "æĶ¿æīĢ": 3686,
      "çŃīåľ°": 3687,
      "é¡¹": 3688,
      "çļĦæĥħåĨµ": 3689,
      "æīĭä¸Ń": 3690,
      "åºĩæĬ¤": 3691,
      "ä½ĳ": 3692,
      "æĺ¯åĲ¦": 3693,
      "æīĢé¢Ĩ": 3694,
      "èĭĹ": 3695,
      "ä¸ĥéĥİ": 3696,
      "å»ºæŃ¦": 3697,
      "ç»ĩçĶ°ä¿¡å¿ł": 3698,
      "çİĩé¢ĨçļĦ": 3699,
      "åħģè®¸": 3700,
      "éĺµä¸Ń": 3701,
      "ä¹¦çĬ¶": 3702,
      "çİĩåħµ": 3703,
      "å»ºéĢł": 3704,
      "èģĮåĬ¡": 3705,
      "çĬ¯": 3706,
      "çŃ±": 3707,
      "æĥ§": 3708,
      "èĦļ": 3709,
      "çĨŁ": 3710,
      "ãģ¾": 3711,
      "èı©": 3712,
      "æŃ¦èĹıåĽ½": 3713,
      "åł¡": 3714,
      "äº¤æ¶ī": 3715,
      "æ±ŁæĪ·åŁİ": 3716,
      "èģĶæīĭ": 3717,
      "å¯ºåŁİ": 3718,
      "1598": 3719,
      "åı¹": 3720,
      "å¹´å¹¼": 3721,
      "å¯Ĵ": 3722,
      "å¿łåħ´": 3723,
      "ç¥¥": 3724,
      "ä»İæŃ¤": 3725,
      "éķ°ä»ĵå¹ķåºľ": 3726,
      "ä¿¡ç§Ģ": 3727,
      "å°ıè·¯": 3728,
      "èį¡": 3729,
      "æĤī": 3730,
      "åīįçº¿": 3731,
      "åħ¨åĽ½": 3732,
      "éĥŃ": 3733,
      "è¯¸å¤§åĲį": 3734,
      "éķ¿å°¾æĻ¯èĻİ": 3735,
      "ä»ªå¼ı": 3736,
      "åĬłå¼º": 3737,
      "åį³ä¾¿": 3738,
      "åħĥå¿ł": 3739,
      "å¹´ä»£": 3740,
      "å¿Į": 3741,
      "çĻ½æ²³": 3742,
      "éĹ»åĲį": 3743,
      "ä»»ä½ķ": 3744,
      "æĺ¾ç¤º": 3745,
      "å°ıè¥¿è¡Įéķ¿": 3746,
      "æ°ıä¸ĢæĹı": 3747,
      "æľīäºº": 3748,
      "çľŁçĶ°å¹¸": 3749,
      "éĩįå»º": 3750,
      "éļıä¹ĭ": 3751,
      "çº³åħ¥": 3752,
      "åľ¨æ°¸ç¦Ħ": 3753,
      "ä¸įä¼ļ": 3754,
      "å¹¶å°Ĩ": 3755,
      "æ®Ĭ": 3756,
      "çĬ¶æĢģ": 3757,
      "è´¥åĮĹ": 3758,
      "å¯ĩ": 3759,
      "å¿§": 3760,
      "åĽ´æĶ»": 3761,
      "å®īåľŁåŁİ": 3762,
      "ä¸ĬéĩİåĽ½": 3763,
      "é«ĺéĩİå±±": 3764,
      "ä¹īè´ŀ": 3765,
      "çĶŁæ¯į": 3766,
      "æī¶": 3767,
      "åĮ¹": 3768,
      "æĴĳ": 3769,
      "å®ļäºĨ": 3770,
      "è¶³åĪ©å°Ĭæ°ı": 3771,
      "çīµåĪ¶": 3772,
      "åĽ½åı¸": 3773,
      "å¤§å°ĨåĨĽ": 3774,
      "å¤§è§Ħæ¨¡": 3775,
      "å¹¶æĹł": 3776,
      "æĦıåĽ¾": 3777,
      "å°Ķ": 3778,
      "å¾ĹåĪ°äºĨ": 3779,
      "æĶ¹ä¸º": 3780,
      "å®ĺèģĮ": 3781,
      "çªģè¢Ń": 3782,
      "ç´«": 3783,
      "ä»¥åīį": 3784,
      "æľ¬å®¶": 3785,
      "ä¸»å®¶": 3786,
      "åĪĨå®¶": 3787,
      "æ¥ł": 3788,
      "å¤§ä½Ľ": 3789,
      "åĲ¹": 3790,
      "æĶ¿åıĺ": 3791,
      "éª¨": 3792,
      "ç»Ĩå·Ŀé«ĺåĽ½": 3793,
      "çŁ³å±±æľ¬æĦ¿å¯º": 3794,
      "æ¸Ĭ": 3795,
      "æĮģæ°ı": 3796,
      "æĺ¯æĪĺåĽ½æĹ¶ä»£èĩ³å®īåľŁæ¡ĥå±±æĹ¶ä»£çļĦæŃ¦å°Ĩ": 3797,
      "å¤§å¤ļ": 3798,
      "å¤§äºķ": 3799,
      "é¢Ŀ": 3800,
      "è¾ĵ": 3801,
      "æī°": 3802,
      "ç«ł": 3803,
      "çĬ¹": 3804,
      "çİ°åŃĺ": 3805,
      "åĲĥ": 3806,
      "åĬ¨åĲĳ": 3807,
      "æĺĮæĻ¯": 3808,
      "æ¸¡è¾¹": 3809,
      "ç©´å±±": 3810,
      "å°¹": 3811,
      "å¯ºçļĦ": 3812,
      "æľĢä¸Ĭä¹īåħī": 3813,
      "æ½ľ": 3814,
      "èĥľä¹ħ": 3815,
      "è¯´æĺ¯": 3816,
      "éĴŁ": 3817,
      "æ³¢å¤ļ": 3818,
      "æķ¦": 3819,
      "è°ı": 3820,
      "ç»ĩçĶ°å®¶çļĦ": 3821,
      "é£ŀé©": 3822,
      "æĿİ": 3823,
      "ä¸ºä¸Ńå¿ĥ": 3824,
      "æ²³åİŁ": 3825,
      "ä¸Ī": 3826,
      "çļĦå«¡åŃĲ": 3827,
      "åħĨ": 3828,
      "ç®ķ": 3829,
      "å»ºè®®": 3830,
      "æºĲèµĸæľĿ": 3831,
      "å¤©æŃ£åįģå¹´": 3832,
      "å¤¹åĩ»": 3833,
      "æĭ¢": 3834,
      "å´ĩ": 3835,
      "é¡ºåºĨ": 3836,
      "çģŃäº¡åĲİ": 3837,
      "ä¸°èĩ£ç§Ģèµĸ": 3838,
      "èįĴæľ¨æĿĳéĩį": 3839,
      "æĺĶ": 3840,
      "éĻįä¼ı": 3841,
      "ä¿¡çº²": 3842,
      "åĢį": 3843,
      "åľ¨ä¸İ": 3844,
      "å£«æ°Ķ": 3845,
      "éªĳåħµ": 3846,
      "æŃ¦èĢħ": 3847,
      "ãģį": 3848,
      "åıįæĬĹ": 3849,
      "æ¸¸ä½Ĳ": 3850,
      "ç»Ĩå·Ŀæ°ı": 3851,
      "æļĤæĹ¶": 3852,
      "ä¼Ĺäºº": 3853,
      "å®½æĶ¿": 3854,
      "ä¸ºæŃ¤": 3855,
      "éĥ¡å±±åŁİ": 3856,
      "èĮ¶éģĵ": 3857,
      "é£ŀé©Ĵ": 3858,
      "å£¬": 3859,
      "å¤ªåĪĢ": 3860,
      "çĹħæŃ»": 3861,
      "æł¹æį®åľ°": 3862,
      "å¸®åĬ©": 3863,
      "åħ¶ä½Ļ": 3864,
      "èĩ³äºİ": 3865,
      "æ²¡èĲ½": 3866,
      "åįĬå²Ľ": 3867,
      "æİ¢é¢ĺ": 3868,
      "æĺ¯å®īåľŁæ¡ĥå±±æĹ¶ä»£": 3869,
      "ãģ§": 3870,
      "ç¦ģæŃ¢": 3871,
      "èĪŁ": 3872,
      "åĢĴåĲĳ": 3873,
      "èµ¦åħį": 3874,
      "ä¹ı": 3875,
      "æ´¾çļĦ": 3876,
      "çĽĸ": 3877,
      "ä¸įåĨį": 3878,
      "ä½Ĳç«¹æ°ı": 3879,
      "æ©¹": 3880,
      "æ°ıæĶ¿": 3881,
      "æľīçļĦ": 3882,
      "è¢«å®ĺ": 3883,
      "å¹³åİŁ": 3884,
      "ç½ļ": 3885,
      "å¤ıä¹ĭéĺµ": 3886,
      "åįģåħŃ": 3887,
      "ä½įç½®": 3888,
      "åºľä¸Ń": 3889,
      "ç«ĭä¸ĭæĪĺåĬŁ": 3890,
      "æ´Ĺ": 3891,
      "ä¸»å¯¼": 3892,
      "æĥľ": 3893,
      "åį±æľº": 3894,
      "æĪĺçļĦ": 3895,
      "æľ¬éĺŁ": 3896,
      "ä¼ļè®®": 3897,
      "åįĴå¹´ä¸įè¯¦": 3898,
      "åĩºåĩ»": 3899,
      "æ¯ķ": 3900,
      "å½¢åĬ¿": 3901,
      "éĩĩçĶ¨": 3902,
      "æĿ¥åĪ°": 3903,
      "æĳĨ": 3904,
      "åĲİåĮĹæĿ¡": 3905,
      "ä¸īä½į": 3906,
      "æ¸¡æµ·": 3907,
      "éķ¿çĶ·": 3908,
      "æĬļ": 3909,
      "å¹¶ä»¥": 3910,
      "æ´»è·ĥäºİ": 3911,
      "éķ°ä»ĵæĹ¶ä»£": 3912,
      "ä½ľçĶ¨": 3913,
      "ä¸ĩäºº": 3914,
      "å²Ľæ´¥å¿ł": 3915,
      "æĿ¾å¹³å¿ł": 3916,
      "å¤§èĢģ": 3917,
      "çľŁæŃ£": 3918,
      "çªģåĩ»": 3919,
      "åĲįåı¤å±ĭ": 3920,
      "ä¸İåħ¶": 3921,
      "æį®å®Ī": 3922,
      "åħ«éĥİ": 3923,
      "è§ģäºİ": 3924,
      "éĵł": 3925,
      "æĶ¾çģ«": 3926,
      "ä»¿": 3927,
      "é¾Ħ": 3928,
      "çĶ°ä¸Ń": 3929,
      "äº¦è¢«": 3930,
      "èĭı": 3931,
      "èĩ³æ±ŁæĪ·æĹ¶ä»£åĪĿæľŁçļĦæŃ¦å°Ĩ": 3932,
      "åĩºåŁİ": 3933,
      "å®īæİĴ": 3934,
      "æĸ°çļĦ": 3935,
      "åħ³ä¸ľçļĦ": 3936,
      "è´µæĹı": 3937,
      "åĮ»": 3938,
      "åİŁåŁİ": 3939,
      "æı´åĬ©": 3940,
      "èģĶç»ľ": 3941,
      "å±ĭæķ·": 3942,
      "æħ¢": 3943,
      "èĶ": 3944,
      "æĪĺæľ¯": 3945,
      "éĺ³åĨĽ": 3946,
      "æ°ıåĴĮ": 3947,
      "éģĵè·¯": 3948,
      "äº¤éĢļ": 3949,
      "ä¸īåĽ½": 3950,
      "ä¸įå°ĳ": 3951,
      "å½Ĵå±ŀ": 3952,
      "å±ı": 3953,
      "æĿ¥èĩª": 3954,
      "å¥īåĳ½": 3955,
      "éªıæ²³åĽ½": 3956,
      "äºİæŃ¤": 3957,
      "è¾Ī": 3958,
      "åıĳæĮ¥": 3959,
      "æĹłè®º": 3960,
      "åł¤": 3961,
      "æķķ": 3962,
      "çº¸": 3963,
      "ä¹īä¿¡": 3964,
      "è¢ĸ": 3965,
      "å´©æºĥ": 3966,
      "ä¸īåŃĲ": 3967,
      "å®ł": 3968,
      "ç¥Ī": 3969,
      "145": 3970,
      "éĶĲ": 3971,
      "å¿Ĺè´º": 3972,
      "åĵįåºĶ": 3973,
      "æľĪå±±å¯ĮçĶ°åŁİ": 3974,
      "å®¶ä¸İ": 3975,
      "ä¸ºåħ¶": 3976,
      "æŃ¦åĭĩ": 3977,
      "é¢ĨåľŁ": 3978,
      "ãģı": 3979,
      "æĬ±": 3980,
      "åĴĮè°Ī": 3981,
      "æİª": 3982,
      "çĶŁå¹´ä¸įè¯¦": 3983,
      "å¦Ĥæ°´": 3984,
      "é¸Łåıĸ": 3985,
      "å«ģç»Ļ": 3986,
      "è¢«è®¤ä¸ºæĺ¯": 3987,
      "ä¸ĬäºĨ": 3988,
      "åıĳå¸ĥ": 3989,
      "ä¸ľåĮĹ": 3990,
      "å±¥åİĨ": 3991,
      "è¢«æĿĢ": 3992,
      "é¦ĸæ¬¡": 3993,
      "ç«¹ä¸Ń": 3994,
      "åłĢè¶Ĭ": 3995,
      "æľ±åį°": 3996,
      "éªļåĬ¨": 3997,
      "è¿İåĩ»": 3998,
      "åĪĹä¸º": 3999,
      "èīĺ": 4000,
      "åİ»äºĨ": 4001,
      "åķĬ": 4002,
      "å¤ľè¢Ń": 4003,
      "éģŃéģĩ": 4004,
      "èŀ": 4005,
      "åº·æĶ¿": 4006,
      "äºķåŁİ": 4007,
      "çļĦæĪĺæĸĹ": 4008,
      "é©°": 4009,
      "æĸĭèĹ¤åĪ©": 4010,
      "ä¸įåĪ©": 4011,
      "æ»ĭ": 4012,
      "1566": 4013,
      "è¶ģæľº": 4014,
      "çĶŁå¹³": 4015,
      "ä¸ºä¿¡": 4016,
      "ä¸Ńå·Ŀ": 4017,
      "å®¶èĩ£çļĦ": 4018,
      "çĲĨçĶ±": 4019,
      "èĢĥèĻĳ": 4020,
      "èĢħçļĦ": 4021,
      "èĸĦ": 4022,
      "ä¹ĭè¯´": 4023,
      "å±±æľ¬": 4024,
      "åį³ä½¿": 4025,
      "æ°ıå®¶": 4026,
      "å¤©æŃ£åħĥå¹´": 4027,
      "èĹ©å£«": 4028,
      "åħ·ä½ĵ": 4029,
      "çļĦå¼Łå¼Ł": 4030,
      "å²Ń": 4031,
      "æįŁå¤±": 4032,
      "ä¸ºæį®çĤ¹": 4033,
      "åľ¨äºİ": 4034,
      "æĻ´å®Ĺ": 4035,
      "è¯·æĸĩ": 4036,
      "éķ¿æ²»": 4037,
      "å½¼": 4038,
      "è¡ĮçļĦ": 4039,
      "1588": 4040,
      "çĶµ": 4041,
      "ä¸ŃæľŁ": 4042,
      "ä½Ĳä¹ħéĹ´ä¿¡çĽĽ": 4043,
      "æĻ¨": 4044,
      "æĮ¡": 4045,
      "å¤§åĲįçļĦ": 4046,
      "çĪ±çŁ¥åİ¿": 4047,
      "å®Ĺåħ¨": 4048,
      "å®ŀä¸º": 4049,
      "èµ·åĪĿ": 4050,
      "ä½Ĳä½Ĳæľ¨": 4051,
      "å¥ĸ": 4052,
      "æ³Ľ": 4053,
      "åŁİä¸ĭçĶº": 4054,
      "æĦŁçĬ¶": 4055,
      "ä¼¼ä¹İ": 4056,
      "ä»¥å¤ĸ": 4057,
      "å¤§éĺªåŁİ": 4058,
      "åĨĪå´İåŁİ": 4059,
      "è®°è¿°": 4060,
      "éĺµåľ°": 4061,
      "èķ": 4062,
      "âĢķ": 4063,
      "å®ĪæĬ¤èģĮ": 4064,
      "éĩįè¦ģçļĦ": 4065,
      "éķ°ä»ĵåħ¬æĸ¹": 4066,
      "åķĨè®®": 4067,
      "åĨĽåľ¨": 4068,
      "é«ĺå±±": 4069,
      "èº«äº¡": 4070,
      "é¡ºåĪ©": 4071,
      "æĸ¥": 4072,
      "ä¸İä¿¡éķ¿": 4073,
      "çĲĥ": 4074,
      "1556": 4075,
      "å±Ī": 4076,
      "ä¸İæŃ¤": 4077,
      "ä¸įçŁ¥": 4078,
      "å®īèĹ¤": 4079,
      "1591": 4080,
      "1558": 4081,
      "çļĦéģĹ": 4082,
      "ä¸Ĭçļĩ": 4083,
      "ä¹īå°§": 4084,
      "èĢĮåĲİ": 4085,
      "å¾¡å®¶äºº": 4086,
      "è¶ĬåĲİåĽ½": 4087,
      "300": 4088,
      "æľ¬æĿ¥": 4089,
      "èµ·è¯·æĸĩ": 4090,
      "åľ¨è¿Ļ": 4091,
      "æĶ¯åŁİ": 4092,
      "æĤ¨": 4093,
      "åĩºæĪĺ": 4094,
      "åĭ¤": 4095,
      "ä¹ĭäºī": 4096,
      "æŃ£ä¿¡": 4097,
      "çĽ¸å¯¹": 4098,
      "éĺ²å®Ī": 4099,
      "æ´ĭ": 4100,
      "ä¸Ģä½į": 4101,
      "åıĸä»£": 4102,
      "é¢ģå¸ĥ": 4103,
      "æľīçĿĢ": 4104,
      "ä¸ľæµ·éģĵ": 4105,
      "äºĶåįĥ": 4106,
      "åĽŀå½Ĵ": 4107,
      "åįĸ": 4108,
      "äºİæ°¸ç¦Ħ": 4109,
      "ä¾£": 4110,
      "ç¼ĵ": 4111,
      "æ±Ĥæı´": 4112,
      "è®¾ç½®": 4113,
      "æĿµ": 4114,
      "éĹ²": 4115,
      "æĳĦæ´¥åĽ½": 4116,
      "ä¹Į": 4117,
      "æĪĺä¹±": 4118,
      "æ´¥è½»": 4119,
      "æĶ¹å§ĵ": 4120,
      "å¤±åİ»äºĨ": 4121,
      "åĲİè£Ķ": 4122,
      "éķ¿çļĦ": 4123,
      "æ·¡è·¯": 4124,
      "åĩºçļĦ": 4125,
      "å¥ł": 4126,
      "éļĪ": 4127,
      "ä»»åĬ¡": 4128,
      "æŁĵ": 4129,
      "å½ĴåĽ½": 4130,
      "èģĶç³»": 4131,
      "åĬª": 4132,
      "ä¸ľåĽ½": 4133,
      "æį®ä¼ł": 4134,
      "ç¦ıåİŁ": 4135,
      "ç²Ł": 4136,
      "ä»İèĢĮ": 4137,
      "æľ¬å¤ļå¿łèĥľ": 4138,
      "ï½ŀ": 4139,
      "æĩ": 4140,
      "æģ°": 4141,
      "éķ¿ä¹ħæīĭä¹ĭæĪĺ": 4142,
      "éĩįçļĦ": 4143,
      "éĥ¨å°ĳè¾ħ": 4144,
      "éªĮ": 4145,
      "å±±åŁİçļĦ": 4146,
      "å°ĨåĨĽå®¶": 4147,
      "çĮ¿": 4148,
      "æĺ¾å¦Ĥ": 4149,
      "è¹": 4150,
      "çļĦè®°è½½": 4151,
      "åĨĪåŁİ": 4152,
      "èĥĮåĲİ": 4153,
      "æ°¸äº«": 4154,
      "åı³è¿ĳ": 4155,
      "å¤©çļĩçļĦ": 4156,
      "ä½Ĳä½ĲæĪĲæĶ¿": 4157,
      "ä¸°èĩ£ç§ĢåĲīçļĦ": 4158,
      "çıŃ": 4159,
      "ä¿ĺ": 4160,
      "å¤©ä¸»": 4161,
      "æĬ¢": 4162,
      "åį´è¢«": 4163,
      "æİ¨è¿Ľ": 4164,
      "æģĴåħ´": 4165,
      "éĤĢè¯·": 4166,
      "æľĢé«ĺ": 4167,
      "çĻ¾äºº": 4168,
      "1554": 4169,
      "é¾ĻéĢłå¯ºéļĨä¿¡": 4170,
      "èĩ³æ±ŁæĪ·æĹ¶ä»£åīįæľŁ": 4171,
      "å¤©çİĭå¯º": 4172,
      "åĲįå°Ĩ": 4173,
      "é«ĺåŁİ": 4174,
      "å¾ģå¤·å¤§å°ĨåĨĽ": 4175,
      "ä¹ĭæĦı": 4176,
      "éĻª": 4177,
      "åłª": 4178,
      "æīĵåĩ»": 4179,
      "åºĨéķ¿ä¹ĭå½¹": 4180,
      "æºĲä¹ī": 4181,
      "ä¹ĥæĺ¯": 4182,
      "ãģĬ": 4183,
      "å²ĽåŁİ": 4184,
      "çĶ²éĺ³åĨĽ": 4185,
      "è¡¨æĺİ": 4186,
      "åı¬éĽĨ": 4187,
      "çĶ²éĺ³åĨĽéī´": 4188,
      "çļĦåľ°": 4189,
      "å¤©éĩİ": 4190,
      "åĲĮæĦı": 4191,
      "æĶ¯æĴĳ": 4192,
      "èĹ¤åłĤé«ĺèĻİ": 4193,
      "åı¡": 4194,
      "æ¡Ĳ": 4195,
      "æĹ©å·²": 4196,
      "èĤ¯": 4197,
      "ä½ĽæķĻ": 4198,
      "æļĹä¸Ń": 4199,
      "å®ľ": 4200,
      "éķ¿è°·": 4201,
      "éĹŃ": 4202,
      "çģ¾": 4203,
      "åºĨéķ¿åįģ": 4204,
      "ç±³æ³½": 4205,
      "ä»Ĭå·Ŀæ°ıçľŁ": 4206,
      "éķ¿äºķ": 4207,
      "éĻįæľį": 4208,
      "åįİæĹı": 4209,
      "èĵ": 4210,
      "ä¸ĢæĹ¶": 4211,
      "åħµç²®": 4212,
      "çĶ²åºľ": 4213,
      "æŀģä¸º": 4214,
      "ä¼Ĭè¾¾å®¶": 4215,
      "ä¸Ŀ": 4216,
      "åľ¨å¤§": 4217,
      "ç§Ģåº·": 4218,
      "çĽĽäº²": 4219,
      "æĹ©å¹´": 4220,
      "å¤§åĨħå®¶": 4221,
      "åĥ§ä¾£": 4222,
      "åıįæĺł": 4223,
      "å°ıæĹ©å·Ŀç§Ģç§ĭ": 4224,
      "å®ŀçİ°": 4225,
      "èİ·å¾ĹäºĨ": 4226,
      "åīĥ": 4227,
      "åľŁè±ª": 4228,
      "çĶ¨äºİ": 4229,
      "æĬķå¥Ķ": 4230,
      "æĹ¥åİ»ä¸ĸ": 4231,
      "æ²³éĩİ": 4232,
      "åĩºæĿ¥": 4233,
      "éļĨæĪ¿": 4234,
      "éķ¿å°¾æĻ¯": 4235,
      "å¿łè¯ļ": 4236,
      "æĽ°": 4237,
      "ä¸ĬæĿīå®¶çļĦ": 4238,
      "è¯¸ä¾¯": 4239,
      "èģĶå§»": 4240,
      "1559": 4241,
      "åĲ¯": 4242,
      "ä¸İåĬĽ": 4243,
      "æ²¹": 4244,
      "å±ħäºİ": 4245,
      "æŀĿ": 4246,
      "å®¶çĿ£çĶ±": 4247,
      "æ¹¾": 4248,
      "çĶ°åİŁ": 4249,
      "éĺ²å¤ĩ": 4250,
      "éĽĨåĽ¢": 4251,
      "æģ¶åĮĸ": 4252,
      "æĿĳä¸Ĭä¹īæ¸ħ": 4253,
      "éķ¿æ»¨": 4254,
      "åĨĽåĽ¢": 4255,
      "çºĤ": 4256,
      "å·¦äº¬": 4257,
      "ä¹ĭä¹±ä¸Ń": 4258,
      "é»ĳçĶ°éķ¿æĶ¿": 4259,
      "ä¸ĢåĲĳå®Ĺ": 4260,
      "é«ĺå¤©ç¥ŀ": 4261,
      "ç«ĭåľº": 4262,
      "åĮĹæĿ¡æ°ıçº²": 4263,
      "å¤§åĿĤä¹ĭéĺµ": 4264,
      "è¶ĬåīįåĽ½": 4265,
      "å°ıå¹¡": 4266,
      "ãģĻ": 4267,
      "ä½¿åħ¶": 4268,
      "çĮª": 4269,
      "ç³»è°±": 4270,
      "çĻ»éĻĨ": 4271,
      "åħµé©¬": 4272,
      "é«ĺè¿ľ": 4273,
      "ä¸ľéĥ¨": 4274,
      "ä¸¤åĽ½": 4275,
      "æī¿æĭħ": 4276,
      "æĥ¯": 4277,
      "å²©åŁİ": 4278,
      "åı¯èĥ½æĺ¯": 4279,
      "ä¸Ģå®ļ": 4280,
      "æľ¬èº«": 4281,
      "é¸£": 4282,
      "å§»äº²": 4283,
      "çŁ³åŀ£": 4284,
      "åıĳçĶŁäºĨ": 4285,
      "åĪĻåľ¨": 4286,
      "æĺ¾å®ļ": 4287,
      "å¯¡": 4288,
      "ç»ıèĲ¥": 4289,
      "æĦıè§ģ": 4290,
      "æĪĺåĽ½æĹ¶ä»£æŃ¦å°Ĩ": 4291,
      "å´İåŁİ": 4292,
      "ç´¢": 4293,
      "èµĭ": 4294,
      "çĭĤ": 4295,
      "1595": 4296,
      "è¿ľæ±ŁåĽ½": 4297,
      "æĹ¥åĨĽ": 4298,
      "æ´¥å·Ŀ": 4299,
      "è¶ĭ": 4300,
      "å°ļæľª": 4301,
      "éĢĤ": 4302,
      "å»¶åİĨ": 4303,
      "æŁĦ": 4304,
      "å±±åŁİä¸»": 4305,
      "1542": 4306,
      "éĻĦè¿ĳçļĦ": 4307,
      "ç¨³å®ļ": 4308,
      "éĩįçĶ¨": 4309,
      "164": 4310,
      "åīįéĩİ": 4311,
      "å¾ģè®¨": 4312,
      "èįĲ": 4313,
      "é¢Ĩåľ°çļĦ": 4314,
      "å±ĢéĿ¢": 4315,
      "æİĮæİ§": 4316,
      "ç»Ļè±«": 4317,
      "ä¾Ħ": 4318,
      "æ¬¾": 4319,
      "åį´åľ¨": 4320,
      "èĹ©çļĦ": 4321,
      "ç»ĦæĪĲ": 4322,
      "çīĮ": 4323,
      "ä¾ĿéĻĦ": 4324,
      "éº¾ä¸ĭçļĦ": 4325,
      "å®ĩåĸľå¤ļç§Ģå®¶": 4326,
      "çļĦè¯´æ³ķ": 4327,
      "å®īæĪ¿": 4328,
      "åħ»å¥³": 4329,
      "1551": 4330,
      "æ¯Ķåı¡": 4331,
      "ç½Ĺé©¬": 4332,
      "è®°ä¸º": 4333,
      "æī§äºĭ": 4334,
      "è¿ģèĩ³": 4335,
      "æ£®éķ¿åı¯": 4336,
      "æĿ°": 4337,
      "èĥ¡": 4338,
      "å°Ĩå£«": 4339,
      "éĩĮçļĦ": 4340,
      "è¡°èĲ½": 4341,
      "æĶ¿æĻ¯": 4342,
      "åħ¥åŁİ": 4343,
      "æ³ķå¸Ī": 4344,
      "çİ°ä»Ĭ": 4345,
      "éģ¿åħį": 4346,
      "é©¾": 4347,
      "ä¹Ŀé¬¼": 4348,
      "è¿ľå¾ģ": 4349,
      "åĭĩçĮĽ": 4350,
      "è¯ĽæĿĢ": 4351,
      "100": 4352,
      "åĲĹ": 4353,
      "ä¹ĭæŃ»": 4354,
      "åŃ©": 4355,
      "æľ¬æį®": 4356,
      "éĶģ": 4357,
      "åĮºåŁŁ": 4358,
      "é¢ģåıĳ": 4359,
      "èĳĽè¥¿": 4360,
      "èı©æıĲ": 4361,
      "Ġå±¥åİĨ": 4362,
      "æĸĩç¦Ħä¹ĭå½¹": 4363,
      "æĪª": 4364,
      "æŃ£èĥľ": 4365,
      "å¥¥ç¾½": 4366,
      "å¢ŀåĬł": 4367,
      "åıĤåĬłäºĨ": 4368,
      "ä¸»åħ¬": 4369,
      "åĲĮä¸º": 4370,
      "1557": 4371,
      "ãĤĪ": 4372,
      "ä¼ģåĽ¾": 4373,
      "ä½ĲåĴĮ": 4374,
      "åĪĽå»º": 4375,
      "ä¸ĢçĶŁ": 4376,
      "æ°ıä¸º": 4377,
      "å®ŀè´¨": 4378,
      "èµĦæĸĻ": 4379,
      "æľĿä»ĵæĻ¯": 4380,
      "åħ·æľī": 4381,
      "èĳĹç§°": 4382,
      "åĴĮå¹³": 4383,
      "æľĢå¤§": 4384,
      "å±ħå£«": 4385,
      "æİ¥è¿ĳ": 4386,
      "å¾Īå¤ļ": 4387,
      "ä¼łæķĻå£«": 4388,
      "å®¶ä¸ļ": 4389,
      "åĽłåħ¶": 4390,
      "è§ĤéŁ³": 4391,
      "å®£å¸ĥ": 4392,
      "çĥ§æ¯ģ": 4393,
      "åŃĲçļĦ": 4394,
      "éĻ¢æ®¿": 4395,
      "è®©è±«": 4396,
      "é»ĳçĶ°åŃĿé«ĺ": 4397,
      "æŁ³çĶŁ": 4398,
      "å¿įèĢħ": 4399,
      "ãģĤ": 4400,
      "ä»İåĽĽ": 4401,
      "åįĴäºİ": 4402,
      "å¯ĮçĶ°": 4403,
      "æľĿä»ĵå®¶": 4404,
      "å±±åİ¿æĺĮæĻ¯": 4405,
      "ä¸Ĭäº¬": 4406,
      "ä¸°èĩ£ç§Ģæ¬¡": 4407,
      "åĥļ": 4408,
      "èĳĹåĲįçļĦ": 4409,
      "å°Ħåĩ»": 4410,
      "å¹´èĩ³": 4411,
      "åľ¨æĹ¥æľ¬": 4412,
      "äººæķ°": 4413,
      "ãģĵ": 4414,
      "æľĢæĹ©": 4415,
      "æ°ıä¹ĭ": 4416,
      "æĪ·çĶ°": 4417,
      "éĺ¶å±Ĥ": 4418,
      "çļĦåīį": 4419,
      "åİ©": 4420,
      "éĿ¢åīį": 4421,
      "æĴ°": 4422,
      "ä¸ĬæĿīå®ªæĶ¿": 4423,
      "ç»Ĩå·ĿèĹ¤åŃĿ": 4424,
      "1548": 4425,
      "ä¸ĢèģĮ": 4426,
      "æľīæīĢ": 4427,
      "åĪ©çĽĬ": 4428,
      "è¥¿éĥ¨": 4429,
      "ä¹Ŀå·ŀå¾ģä¼Ĳ": 4430,
      "åľ¨å¤©æĸĩ": 4431,
      "ä¸İä¹ĭ": 4432,
      "å¯¹é©¬": 4433,
      "å¼ĢæĪĺ": 4434,
      "æ°ıæĺ¯": 4435,
      "äºĮä¹ĭä¸¸": 4436,
      "è¶³åĪ©ä¹īè¾ī": 4437,
      "çĶ°éĥ¡": 4438,
      "åĲİæĸ¹": 4439,
      "ç§Ģçº²": 4440,
      "æĺİç¡®": 4441,
      "åĦ¿çİī": 4442,
      "é¾Ļåħ´": 4443,
      "åŃĿæĻ¯": 4444,
      "å¢¨": 4445,
      "ä¹ĭä¸ĢçļĦ": 4446,
      "äºļ": 4447,
      "ä¸ĢéĿ¢": 4448,
      "ä¸įåĪ°": 4449,
      "åĬĽäºİ": 4450,
      "æī®": 4451,
      "ä¾įä»İ": 4452,
      "çĦļæ¯ģ": 4453,
      "åĲĪä½ľ": 4454,
      "åĵª": 4455,
      "åĬĿè¯´": 4456,
      "çĨĬè°·": 4457,
      "å¤§éļħ": 4458,
      "æķħäºĭ": 4459,
      "å®ĪåŁİ": 4460,
      "åįĹä¸ĭ": 4461,
      "åºĦåĨħ": 4462,
      "è²": 4463,
      "çļĦåĨĽäºĭ": 4464,
      "çĽ´èĮĤ": 4465,
      "åħīå¯º": 4466,
      "çĲ¼": 4467,
      "åĩºå¥Ķ": 4468,
      "ä¸Ĭè¿°": 4469,
      "æ¬¡æĹ¥": 4470,
      "å»»": 4471,
      "è°Ĵè§ģ": 4472,
      "æľ¬å±±": 4473,
      "æł¹æĿ¥": 4474,
      "1541": 4475,
      "åĿļå®Ī": 4476,
      "ä¸įå¦Ĥ": 4477,
      "1589": 4478,
      "åĩºçİ°äºĨ": 4479,
      "æĸĩç¦Ħåħĥå¹´": 4480,
      "éĿĻåĨĪ": 4481,
      "å¹ħ": 4482,
      "èĢĮå·²": 4483,
      "ç»Ĩå·Ŀèĥľåħĥ": 4484,
      "è°ĪåĪ¤": 4485,
      "åĽĽåįģ": 4486,
      "ç±»ä¼¼": 4487,
      "ä¸ºå¦»": 4488,
      "ä¸ªäºº": 4489,
      "æĪĸè®¸": 4490,
      "è½¬æĪĺ": 4491,
      "éļıä»İ": 4492,
      "è¿ŀæŃĮ": 4493,
      "åħ¼ä»»": 4494,
      "1550": 4495,
      "è¿½éļı": 4496,
      "åĮħåĽ´ç½ĳ": 4497,
      "ç«Ļåľ¨": 4498,
      "æ´¥çĶ°": 4499,
      "ä¼Ĭè¾¾æ°ı": 4500,
      "æĢİä¹Ī": 4501,
      "æĪı": 4502,
      "åĲĮæľĪ": 4503,
      "å¯¹åºĶ": 4504,
      "åĢŃå¯ĩ": 4505,
      "3000": 4506,
      "æŃ£éĿ¢": 4507,
      "éķĩå®Ī": 4508,
      "åŀĴ": 4509,
      "çŃĳç´«": 4510,
      "å¾·å¯º": 4511,
      "å¤ªæĶ¿": 4512,
      "æĥ³è¦ģ": 4513,
      "ä¸¤ä½į": 4514,
      "1593": 4515,
      "æľĿä»ĵæ°ı": 4516,
      "å·¥ç¨ĭ": 4517,
      "å¤§ä¹ħä¿Ŀå¿ł": 4518,
      "æŃ£å¹³": 4519,
      "äº¬çķ¿": 4520,
      "çİĩåħĪ": 4521,
      "æ²¼çĶ°": 4522,
      "æ¯«æĹł": 4523,
      "æ¥łæľ¨": 4524,
      "çĽĹ": 4525,
      "æŃ¦åĻ¨": 4526,
      "çºł": 4527,
      "è¶³åĪ©æ°ı": 4528,
      "åĽ´ç»ķ": 4529,
      "çļĦä¹ī": 4530,
      "ä¸ĢæĹ¦": 4531,
      "ä¸ĬæľĪ": 4532,
      "å¯Įå£«": 4533,
      "æīİ": 4534,
      "æŃ£äº²": 4535,
      "æµ®": 4536,
      "å°¼åŃĲç»ıä¹ħ": 4537,
      "çŃĸåıį": 4538,
      "å¦¹å¦¹": 4539,
      "ä»Ĺ": 4540,
      "ç»ĥ": 4541,
      "éĢı": 4542,
      "çº¢": 4543,
      "ç¥Ŀ": 4544,
      "éĢłæĪĲ": 4545,
      "è¾¹å¢ĥ": 4546,
      "å°¼åŃĲå®¶": 4547,
      "èĢ¶": 4548,
      "åĪĿéĺµ": 4549,
      "å¥ĳ": 4550,
      "ä¸»åĬ¨": 4551,
      "éĢļå¸¸": 4552,
      "æĽ´æĺ¯": 4553,
      "åİŁä¸º": 4554,
      "åİĨä»£": 4555,
      "è¶³åĪ©ä¹īæĶ¿": 4556,
      "éĢĲåĩº": 4557,
      "ä¹ĭå¦»": 4558,
      "æŀļ": 4559,
      "åĽ¾è°ĭ": 4560,
      "æľįéĥ¨": 4561,
      "è§£éĩĬ": 4562,
      "ç«ĭèĬ±å®¶": 4563,
      "ç®±": 4564,
      "éļ¶å±ŀ": 4565,
      "ä¸ģ": 4566,
      "æĿ¾æµ¦": 4567,
      "è®¸åı¯": 4568,
      "ä¸ĢåĲį": 4569,
      "æĶ¿ç§Ģ": 4570,
      "è¿ĩåİ»": 4571,
      "1553": 4572,
      "æ¯Ĵ": 4573,
      "ä¸ĸè¢Ń": 4574,
      "çªģçł´": 4575,
      "ç¡®ä¿Ŀ": 4576,
      "è®¾ç«ĭ": 4577,
      "èĳĹåĲį": 4578,
      "ä¹ĭèģĮ": 4579,
      "ä»ĵåŁİ": 4580,
      "åĩĢåľŁ": 4581,
      "çļĦçĪ¶äº²": 4582,
      "åįģæĹ¶": 4583,
      "æīĭæ®µ": 4584,
      "çģ«ç»³": 4585,
      "çĸ²": 4586,
      "ä¾Ŀæį®": 4587,
      "æĪĺåľºä¸Ĭ": 4588,
      "æĢ§çļĦ": 4589,
      "ç¢ĳ": 4590,
      "å¹¿å®¶": 4591,
      "ä¼ĬåĬ¿è´ŀ": 4592,
      "ä¸Ģä¸¾": 4593,
      "è¢«æĶ¹æĺĵ": 4594,
      "æĿ¥çľĭ": 4595,
      "åĨ³å¿ĥ": 4596,
      "çĮĽæĶ»": 4597,
      "åĨ¬ä¹ĭéĺµ": 4598,
      "è²Į": 4599,
      "æĸĩçĮ®": 4600,
      "èİ·èĥľ": 4601,
      "çºªå·ŀ": 4602,
      "åŃ¦èĢħ": 4603,
      "åĩĳ": 4604,
      "äº¬åħĨ": 4605,
      "åĨĪå±±": 4606,
      "åħ³åİŁä¹ĭæĪĺä¸Ń": 4607,
      "éĺ»æŃ¢": 4608,
      "å¥īåħ¬ä¼Ĺ": 4609,
      "èŀį": 4610,
      "çŁ³åŁİ": 4611,
      "æĿ¾äºķ": 4612,
      "å¥½çļĦ": 4613,
      "åı·ç§°": 4614,
      "éĺ¿å¼¥": 4615,
      "å¤§åĴĮåĽ½": 4616,
      "åĩŃåĢŁ": 4617,
      "æĺ¯ä¸º": 4618,
      "åĲįæĬ¤": 4619,
      "æĬĦ": 4620,
      "æŀ¶": 4621,
      "å¤§è¾ħ": 4622,
      "åĨħæĶ¿": 4623,
      "æİĺ": 4624,
      "çĮİ": 4625,
      "ä¸īå¥½å®¶": 4626,
      "æĸ¹éĿ¢çļĦ": 4627,
      "è¡°éĢĢ": 4628,
      "èĴ²çĶŁæ°ıä¹¡": 4629,
      "åŁºçĿ£æķĻ": 4630,
      "å¤©ä¸»æķĻ": 4631,
      "ç§Ģèĥľ": 4632,
      "éĩįæĶ¿": 4633,
      "ä¸°èĩ£æ°ı": 4634,
      "å·´": 4635,
      "ãģ¤": 4636,
      "è´Łä¼¤": 4637,
      "å¯¹æīĭ": 4638,
      "å°±æŃ¤": 4639,
      "ä¸°èĩ£åĨĽ": 4640,
      "éĢĢåĽŀ": 4641,
      "æµ·ä¸Ĭ": 4642,
      "è¿ŀç½²": 4643,
      "çŃĸçķ¥": 4644,
      "æĻ®è¯·": 4645,
      "ä¸īä¸ª": 4646,
      "å°ıå§ĵ": 4647,
      "å®¿èĢģ": 4648,
      "æ³¢å¤ļéĩİ": 4649,
      "ä¸½": 4650,
      "åĲŀ": 4651,
      "èĹ¤åĲī": 4652,
      "æ¶¦": 4653,
      "çĶ²è´º": 4654,
      "1552": 4655,
      "èµıèµĲ": 4656,
      "åĶ¯ä¸Ģ": 4657,
      "ä¹°": 4658,
      "ä¹īæ»¡": 4659,
      "æ²»çĲĨ": 4660,
      "è¿ĩç»§": 4661,
      "è¡Ĺéģĵ": 4662,
      "çĩ": 4663,
      "çļĦä¿¡": 4664,
      "ä¹ħçļĦ": 4665,
      "æĶ¹åıĺ": 4666,
      "å°¼åŃĲæĻ´ä¹ħ": 4667,
      "æ¡¶çĭŃéĹ´ä¹ĭæĪĺ": 4668,
      "åĩ¡": 4669,
      "åħĥä¿¡": 4670,
      "æī§è¡Į": 4671,
      "å±±åĲįæ°ı": 4672,
      "å®į": 4673,
      "çŃ¿": 4674,
      "æ´¾åħµ": 4675,
      "å«¡æµģ": 4676,
      "ä¾µçķ¥": 4677,
      "ä¸ĢçĻ¾": 4678,
      "ä¼łè¾¾": 4679,
      "æ¤İ": 4680,
      "å¤ķ": 4681,
      "æĶ¿çŁ¥": 4682,
      "æĿ¾çĶ°": 4683,
      "åĬłä¹ĭ": 4684,
      "å¦Ĥä¸ĭ": 4685,
      "å²©æĿĳ": 4686,
      "æĢ§åĳ½": 4687,
      "åĨł": 4688,
      "ä¸īçĶ·": 4689,
      "ç¬¦": 4690,
      "è¿ĳä¸ĸ": 4691,
      "æŁ±": 4692,
      "åıĪåľ¨": 4693,
      "åį³å°Ĩ": 4694,
      "éĵľ": 4695,
      "å©ļå§»": 4696,
      "æ§»": 4697,
      "æ¯Ķåı¡å±±": 4698,
      "åŃĲåĹ£": 4699,
      "144": 4700,
      "ä¸İæŃ¤åĲĮæĹ¶": 4701,
      "çĶŁé©¹": 4702,
      "éĹ´çļĦ": 4703,
      "ä¸¾åĬŀ": 4704,
      "åĳ¨éĺ²åĽ½": 4705,
      "æłħ": 4706,
      "åĿª": 4707,
      "ä»ĸä»¥": 4708,
      "åºĨéķ¿äºĶå¹´": 4709,
      "åŀĤ": 4710,
      "æĴŃç£¨åĽ½": 4711,
      "åľŁå²Ĳèµĸ": 4712,
      "åİŁçĶ°": 4713,
      "ä¹ĭåŃĲåĩºçĶŁ": 4714,
      "å¥¥å¹³": 4715,
      "ä¾ĿæĹ§": 4716,
      "æĭīæĭ¢": 4717,
      "ä¹ĭå¤Ħ": 4718,
      "è¿ĳå¹´": 4719,
      "åŁİåł¡": 4720,
      "ä¸īä¸ĩ": 4721,
      "ç§Ģåħĥ": 4722,
      "åľ°å½¢": 4723,
      "æĥ³åĪ°": 4724,
      "ç¼ĸçºĤ": 4725,
      "èĳ¬äºİ": 4726,
      "åŃ¦ä¹ł": 4727,
      "1546": 4728,
      "èķĥ": 4729,
      "æĹ¥çļĦ": 4730,
      "èĳ¡": 4731,
      "æĿ¾å¹³åħĥåº·": 4732,
      "ä¾ĿçĦ¶": 4733,
      "æĺ¯ä¸ª": 4734,
      "å¤ĸçĶ¥": 4735,
      "éĽĨä¸Ń": 4736,
      "ä»ĸä»¬çļĦ": 4737,
      "åĳĬç»Ī": 4738,
      "è§Ħå®ļ": 4739,
      "æ¿ĳæĪ·": 4740,
      "åħŃéĥİ": 4741,
      "ç½®äºİ": 4742,
      "åĬ£åĬ¿": 4743,
      "80": 4744,
      "Ġç»ıåİĨ": 4745,
      "ä¸Ģç§į": 4746,
      "ç¥ŀæĪ·": 4747,
      "èģĮä½į": 4748,
      "åı¤ä»£": 4749,
      "åĲ¬éĹ»": 4750,
      "åĭ¾": 4751,
      "ç§ĭå±±": 4752,
      "ä¸Ģè¾¹": 4753,
      "ç§©": 4754,
      "ä¿¡åıĭ": 4755,
      "å¯¹å¤ĸ": 4756,
      "äºĮéĺ¶": 4757,
      "æīĢçĶŁ": 4758,
      "å²ģæĹ¶": 4759,
      "å½Ĵé¡º": 4760,
      "å°¼åŃĲåĨĽ": 4761,
      "è´¡çĮ®": 4762,
      "åľ°çĲĨ": 4763,
      "ä¸ľå±±": 4764,
      "åĬłå°ģ": 4765,
      "è¿Ľè¡ĮäºĨ": 4766,
      "åĮħåĽ´äºĨ": 4767,
      "èĢĮæŃ»": 4768,
      "æĭĨ": 4769,
      "åģ¥": 4770,
      "çŃĳå±±": 4771,
      "ä»Ĭå·ĿåĨĽ": 4772,
      "éķ¿å°¾ä¸ºæĻ¯": 4773,
      "æ±łçĶ°æģĴåħ´": 4774,
      "æĢĢçĸĳ": 4775,
      "å¯¸": 4776,
      "è¿Ļä¹Ī": 4777,
      "åħµæ³ķ": 4778,
      "éĥ¡åĨħ": 4779,
      "è´¥èµ°": 4780,
      "åĨįåħ´": 4781,
      "ç»Ĩå·Ŀå®¶": 4782,
      "å¸¦é¢Ĩ": 4783,
      "è§£åĨ³": 4784,
      "åģľæŃ¢": 4785,
      "èıħæ²¼": 4786,
      "è¿ĩç¨ĭä¸Ń": 4787,
      "åĨħè®": 4788,
      "å¾¡é¦Ĩ": 4789,
      "æĶ¶åĪ°": 4790,
      "åĳ¨åĽ´": 4791,
      "æµħäºķå®¶": 4792,
      "åºĻ": 4793,
      "1599": 4794,
      "1549": 4795,
      "âĨ": 4796,
      "åĲİæĪĲä¸º": 4797,
      "éķ¿çŃ±": 4798,
      "ä¸įæķĮ": 4799,
      "åĲīå¼ĺ": 4800,
      "åİŁæ°ı": 4801,
      "åħ»çĪ¶": 4802,
      "æĽ´åĬł": 4803,
      "æĥ¨è´¥": 4804,
      "çļĦäººçī©": 4805,
      "åŁİéĥŃ": 4806,
      "å®īå®ħ": 4807,
      "èİ«": 4808,
      "åģ·": 4809,
      "ãĤĵ": 4810,
      "éºĵ": 4811,
      "å¼Ĥæ¯į": 4812,
      "éģµ": 4813,
      "åįģåĽĽ": 4814,
      "æĦĪ": 4815,
      "æľĢä¸º": 4816,
      "å¼ºå¤§": 4817,
      "åīĥåıĳ": 4818,
      "çļĦå®¶": 4819,
      "ãģ£": 4820,
      "æ¯Ķè¾ĥ": 4821,
      "æ¯ĽåĪ©æ°ıå®¶èĩ£": 4822,
      "åĨħè®§": 4823,
      "åĪĪ": 4824,
      "æłĩå¿Ĺ": 4825,
      "å¤§è°·åĲīç»§": 4826,
      "ä¸įæķ¢": 4827,
      "å¿ĺ": 4828,
      "åĲĳä¿¡éķ¿": 4829,
      "è¯¥åľ°": 4830,
      "åĹ£åŃĲ": 4831,
      "åħ«å¹¡å®«": 4832,
      "æŃ¦åĬŁ": 4833,
      "äºĮçĻ¾": 4834,
      "ç¹ģéķ¿": 4835,
      "åİĭåĪ¶": 4836,
      "å¡ŀ": 4837,
      "èĥľæĪĲ": 4838,
      "å¼ĢåĪĽ": 4839,
      "åħ¬åħĥ": 4840,
      "è¾īèĻİ": 4841,
      "æıĲåĪ°": 4842,
      "çĮĽå°Ĩ": 4843,
      "ä¹ĭåĬ©": 4844,
      "å¼Ĺ": 4845,
      "æĶ¿å¼ĺ": 4846,
      "åĮĹä¹Ŀå·ŀ": 4847,
      "çłį": 4848,
      "æĦ¿æĦı": 4849,
      "åħŃè§Ĵæ°ı": 4850,
      "ä¸İä¹ī": 4851,
      "èĪľ": 4852,
      "æĸĹäºī": 4853,
      "éªĳé©¬": 4854,
      "çŃĶåºĶ": 4855,
      "æľ±åį°çĬ¶": 4856,
      "çļĦäº²": 4857,
      "åŁİåħµ": 4858,
      "æĺİçŁ³": 4859,
      "åŁºæ¬¡": 4860,
      "çļĦæĸ°": 4861,
      "éķ¿å´İ": 4862,
      "æĺ¯åĽłä¸º": 4863,
      "æľīåħ³": 4864,
      "ç¥¢": 4865,
      "ç»ĵæŀĦ": 4866,
      "1547": 4867,
      "æŀĦæĪĲ": 4868,
      "èĬ¦åĲįçĽĽ": 4869,
      "éĩįå¤§": 4870,
      "åĸĬ": 4871,
      "æ½®": 4872,
      "è®¢": 4873,
      "èµ«": 4874,
      "å¿½": 4875,
      "å§¿": 4876,
      "å£ķ": 4877,
      "äº¤ç»Ļ": 4878,
      "èĤĥ": 4879,
      "èħ°": 4880,
      "æŁ³å·Ŀ": 4881,
      "åĩºäºĳåĽ½": 4882,
      "ä»ĻçŁ³": 4883,
      "ä½©": 4884,
      "äºĭè¿¹": 4885,
      "åĪ«åĲį": 4886,
      "ç®ķè½®": 4887,
      "çļĦåĨĽéĺŁ": 4888,
      "å·Ŀæ°ı": 4889,
      "è®¤åı¯": 4890,
      "èĩ³æ±ŁæĪ·æĹ¶ä»£åīįæľŁçļĦæŃ¦å°Ĩ": 4891,
      "åıįæĺłäºĨ": 4892,
      "æīĳ": 4893,
      "çŃīå¾ħ": 4894,
      "éĩİå¿ĥ": 4895,
      "ä¿ĿçķĻ": 4896,
      "åĥ§äºº": 4897,
      "çĵ¦è§£": 4898,
      "è¿Ľé©»": 4899,
      "æĦıä¹ī": 4900,
      "åį´åĽł": 4901,
      "è¯¸åŁİ": 4902,
      "è·¯çº¿": 4903,
      "éķ¿äº«": 4904,
      "å¤©ä¸ĭçļĦ": 4905,
      "åĲĮä¸Ģ": 4906,
      "å¾¡åīį": 4907,
      "åıªè¦ģ": 4908,
      "æºĲäºİ": 4909,
      "è¯¸å¤ļ": 4910,
      "å§¬è·¯": 4911,
      "å¤ªçĶ°èµĦ": 4912,
      "åĬ¨æĳĩ": 4913,
      "åıĹå°ģ": 4914,
      "æĥłçĲ¼": 4915,
      "âĨĴ": 4916,
      "åĲ¸": 4917,
      "éĩįä¿®": 4918,
      "çĶŁåįĴå¹´ä¸įè¯¦": 4919,
      "ç¬Ķå¤´": 4920,
      "åĨħåºĶ": 4921,
      "ç¨į": 4922,
      "éĻĨç»Ń": 4923,
      "åĨľä¸ļ": 4924,
      "çļĦç»Łæ²»": 4925,
      "å·§": 4926,
      "ä¸Ģè·¯": 4927,
      "äººé©¬": 4928,
      "æ±ŁåŁİ": 4929,
      "åħ³åİŁä¹ĭæĪĺåĲİ": 4930,
      "æ°ıçľŁ": 4931,
      "è¯¢": 4932,
      "å¤±åĬ¿": 4933,
      "å§ĵæ°ı": 4934,
      "çķłå±±æ°ı": 4935,
      "å»¶åİĨå¯º": 4936,
      "ä¹ĭåŃĻ": 4937,
      "æľĢå¤§çļĦ": 4938,
      "å¾¡æ®¿": 4939,
      "çĽĽæĶ¿": 4940,
      "æĹ©æľŁ": 4941,
      "åĪĩæĸŃ": 4942,
      "æŁ¿": 4943,
      "è¶Ĭè¿ĩ": 4944,
      "æĹıäºº": 4945,
      "åĿļæĮģ": 4946,
      "æĸĩåĮĸè´¢": 4947,
      "æ¥¼": 4948,
      "èģļä¹Ĳ": 4949,
      "ä¸ĭéĩİåĽ½": 4950,
      "æł¡": 4951,
      "ç³»åĪĹ": 4952,
      "åıĸåĲį": 4953,
      "æ®ī": 4954,
      "139": 4955,
      "ä¸įåĴĮ": 4956,
      "ç¥Ģ": 4957,
      "åĭĭ": 4958,
      "ç´¯": 4959,
      "ç§»å±ħ": 4960,
      "æĸ©é¦ĸ": 4961,
      "éħĴäºķå¿łæ¬¡": 4962,
      "å°Ĩå®¶çĿ£": 4963,
      "ä½ĲèĹ¤": 4964,
      "æ¶©": 4965,
      "è´ŀèĥľ": 4966,
      "åĨĪéĥ¨": 4967,
      "å²³çĪ¶": 4968,
      "äºĭå®ŀä¸Ĭ": 4969,
      "åĽ½åĪĨ": 4970,
      "ä¸īä»£": 4971,
      "åĲīè§ģ": 4972,
      "åĪĻçĶ±": 4973,
      "æ²¦": 4974,
      "èĥĨ": 4975,
      "åįģä¸ĥ": 4976,
      "åĪĻä»¥": 4977,
      "ä¸ºé¦ĸçļĦ": 4978,
      "ä¸ŀ": 4979,
      "å¹³æĪĲ": 4980,
      "åĬłæ²»": 4981,
      "ä¹±ä¸ĸ": 4982,
      "å¾ģæĶ¶": 4983,
      "136": 4984,
      "1603": 4985,
      "çļĦåĨĽ": 4986,
      "çļĦåİŁåĽł": 4987,
      "åŁİæĹ¶": 4988,
      "æĻĵ": 4989,
      "æĺİåĨĽ": 4990,
      "ä½Ĳéĩİ": 4991,
      "éļıè¡Į": 4992,
      "åĦ¿å²Ľ": 4993,
      "åĪĿä»£èĹ©ä¸»": 4994,
      "åĬ±": 4995,
      "ä¸Ģä¸°": 4996,
      "èĢĹ": 4997,
      "ç¬¬äºĶ": 4998,
      "ä¸īå¥½æ°ı": 4999,
      "ç«¹åįĥä»£": 5000,
      "ç«ĭèĬ±å±±åŁİ": 5001,
      "äºķä¼ĬçĽ´æĶ¿": 5002,
      "æµħéĩİéķ¿æĶ¿": 5003,
      "å¤§å®Ŀ": 5004,
      "ä¼¸": 5005,
      "åŃ¦çķĮ": 5006,
      "åħŃè§Ĵå®¶": 5007,
      "å½¢æĪĲäºĨ": 5008,
      "æīĢåľ¨çļĦ": 5009,
      "åĬªåĬĽ": 5010,
      "èĹ¤åĲīéĥİ": 5011,
      "æĪļ": 5012,
      "å¯¹æĸ¹": 5013,
      "åĩ»æºĥ": 5014,
      "æľĪåįģäºĶæĹ¥": 5015,
      "èĩ¼æĿµ": 5016,
      "æıĲä¾ĽäºĨ": 5017,
      "éĵłçĶ²": 5018,
      "ä½³": 5019,
      "æ´¼": 5020,
      "æĹłäºº": 5021,
      "æĬ¤åį«": 5022,
      "åĮĹæĿ¡æĹ©äºĳ": 5023,
      "åıĽåıĺ": 5024,
      "çĽ´æ±Łåħ¼ç»Ń": 5025,
      "æŃ¦åĬĽ": 5026,
      "å¦ĩ": 5027,
      "å®īåĽ½å¯º": 5028,
      "è¾±": 5029,
      "æĮº": 5030,
      "äºĶå¤§èĢģ": 5031,
      "èĪª": 5032,
      "æĥħæĬ¥": 5033,
      "æľºæŀĦ": 5034,
      "çļĦéķ¿åŃĲ": 5035,
      "åº·éķ¿": 5036,
      "å¾ģæľį": 5037,
      "çº¦å®ļ": 5038,
      "éĢģå¾Ģ": 5039,
      "æĿ¿åŀ£": 5040,
      "å±±éĺ´": 5041,
      "å®īåħ¨": 5042,
      "å·²è¢«": 5043,
      "æĽ¾ä»»": 5044,
      "ç¡®å®ŀ": 5045,
      "æħ°": 5046,
      "å±±åĨħä¸ĬæĿīå®¶": 5047,
      "æĮīçħ§": 5048,
      "çģ«ç»³æŀª": 5049,
      "éĩįè§Ĩ": 5050,
      "åħ¥äºĨ": 5051,
      "æ³ķåįİ": 5052,
      "åħ¨éĿ¢": 5053,
      "è¡¥ç»Ļ": 5054,
      "å²ĲéĺľåŁİ": 5055,
      "åĽ½åºľ": 5056,
      "çĽ´è¾ĸ": 5057,
      "æĭħå¿ĥ": 5058,
      "éĤ£æł·": 5059,
      "æĭŁ": 5060,
      "æĢª": 5061,
      "æĪĸèĢħ": 5062,
      "å°ĳå¹´": 5063,
      "æĢ§æł¼": 5064,
      "è°ĥæŁ¥": 5065,
      "ä¸Ģçķª": 5066,
      "äºİåĲĮå¹´": 5067,
      "åħĪåīį": 5068,
      "è¯¸åĽ½": 5069,
      "1597": 5070,
      "çĽĳè§Ĩ": 5071,
      "æľ½": 5072,
      "ä¸įåıĬ": 5073,
      "åħ¶åľ¨": 5074,
      "éĩįæ²»": 5075,
      "è½©": 5076,
      "è¯´æĺİ": 5077,
      "æĿĥçļĦ": 5078,
      "èĢģèĩ£": 5079,
      "åĽºå®Ī": 5080,
      "ç¼ºä¹ı": 5081,
      "åĲİç»§": 5082,
      "å®ŀè¡Į": 5083,
      "ä¼ĬåĬ¿åĽ½": 5084,
      "ä¸Ģæĸ¹éĿ¢": 5085,
      "éĩľ": 5086,
      "ä¸ĭè¾¾": 5087,
      "æ¸ħç§Ģ": 5088,
      "æķĮéĺµ": 5089,
      "éĢ¼è¿ĳ": 5090,
      "å¹³å®īæĹ¶ä»£": 5091,
      "å°ıç¬łåİŁéķ¿": 5092,
      "è¢«å¤Ħ": 5093,
      "æ³ª": 5094,
      "é¢Ĩå¯¼": 5095,
      "é«ĺæĿ¾": 5096,
      "å®ĹæĻ¯": 5097,
      "çİ°ä»£": 5098,
      "çĲī": 5099,
      "çļĦæĶ¿æ²»": 5100,
      "å¹´è´¡": 5101,
      "çŃ¹": 5102,
      "æİ©": 5103,
      "åĿĤæľ¬": 5104,
      "èĪ¹åıª": 5105,
      "1601": 5106,
      "æĽ²è½®": 5107,
      "åľ¨åľ°": 5108,
      "ä¸İç§ĢåĲī": 5109,
      "äºİå¤©æĸĩ": 5110,
      "å¹³æģ¯": 5111,
      "æ¸ħåĴĮ": 5112,
      "è¾¾åĪ°": 5113,
      "å·ŀå®¶": 5114,
      "æĶ¹ç§°": 5115,
      "ç«ĭèĬ±éģĵéĽª": 5116,
      "äº¬æŀģé«ĺ": 5117,
      "çŃ¾": 5118,
      "1540": 5119,
      "å¢ĥåĨħ": 5120,
      "æ¸©æ³ī": 5121,
      "åĨĴ": 5122,
      "åĬłä»¥": 5123,
      "çļĦä¸Ń": 5124,
      "éĢ¢": 5125,
      "ä¹īæķĻ": 5126,
      "ä»İå±ŀ": 5127,
      "ç»Ĩå·Ŀå¿łåħ´": 5128,
      "çļĦåĽ½äºº": 5129,
      "å°¸": 5130,
      "è°Ĺ": 5131,
      "é¡½": 5132,
      "åĦĴ": 5133,
      "äº«å¾·": 5134,
      "å¤§éĥ¨åĪĨ": 5135,
      "æ¯ĽåĪ©å®¶çļĦ": 5136,
      "ä¼łæī¿": 5137,
      "äºīæĸĹ": 5138,
      "æĬķåĲĳ": 5139,
      "Ġäººçī©çĶŁå¹³": 5140,
      "çļĦåľ°ä½į": 5141,
      "ä¹ĭåĨħ": 5142,
      "ä¸İç»ĩçĶ°ä¿¡éķ¿": 5143,
      "æ³¨æĦı": 5144,
      "åŁİå¸Ĥ": 5145,
      "è¿ĳä¾į": 5146,
      "åį³ä½į": 5147,
      "ä¿ĿåŃĺ": 5148,
      "åĪĿåĲį": 5149,
      "æĴ¤åĽŀ": 5150,
      "è¯´æ³ķè®¤ä¸º": 5151,
      "æĹ¥çĽĬ": 5152,
      "ç§Ģä¹ħ": 5153,
      "å¸ħ": 5154,
      "è¿ĺä¿Ĺ": 5155,
      "ä½Ĩæĺ¯åľ¨": 5156,
      "è±¡å¾ģ": 5157,
      "70": 5158,
      "è¢ĭ": 5159,
      "å®¶èĩ£ä»¬": 5160,
      "çĽ¸åĲĮ": 5161,
      "å£«åįĴ": 5162,
      "ç§įå®ŀ": 5163,
      "ç°": 5164,
      "å®Ĺåĥı": 5165,
      "å¤ļæķ°": 5166,
      "ä¼ĬéĤ£": 5167,
      "è®©ç»Ļ": 5168,
      "å¼ºçĥĪ": 5169,
      "åĺīæĺİ": 5170,
      "åįļå¤ļ": 5171,
      "ä¸īå¥½ä¹īç»§": 5172,
      "ç©Ĺ": 5173,
      "è¿İæĪĺ": 5174,
      "ä¸ĢèĪ¬è®¤ä¸º": 5175,
      "åĲįéĹ¨": 5176,
      "äº²çİĩ": 5177,
      "è¿ľèĹ¤": 5178,
      "åĲīçĶ°éĥ¡å±±åŁİ": 5179,
      "åĮ¿": 5180,
      "å¤ļè´º": 5181,
      "è¯´éģĵ": 5182,
      "ä½Ĳç«¹ä¹īéĩį": 5183,
      "å¤§æ´¥": 5184,
      "éķ¿éĩį": 5185,
      "è¯Ĺ": 5186,
      "äºĨå¯¹": 5187,
      "è´§": 5188,
      "é¥®": 5189,
      "æŁ´çĶ°èĥľ": 5190,
      "éķ¿æĪ¿": 5191,
      "æĹ¶æľŁçļĦ": 5192,
      "åĳ¼åºĶ": 5193,
      "ç¨»åı¶å±±åŁİ": 5194,
      "ä¹ĭä¸Ĭ": 5195,
      "æĶ»åħĭ": 5196,
      "åıĪä¸İ": 5197,
      "çĸ¾": 5198,
      "æĿĤè´ºä¼Ĺ": 5199,
      "ä¿¡ä¹ĭ": 5200,
      "ä¸īå®¶": 5201,
      "å½ĵä¸Ń": 5202,
      "æŁı": 5203,
      "éĹ»è®¯": 5204,
      "èµ°åĲĳ": 5205,
      "åı³åį«éĹ¨å°ī": 5206,
      "ä¸ĢæľĪ": 5207,
      "çĶ°å±±": 5208,
      "åĩĮ": 5209,
      "çľģ": 5210,
      "æ»ŀ": 5211,
      "åĪ¤æĸŃ": 5212,
      "åºĶå¯¹": 5213,
      "äº¬éĥ½å¸Ĥ": 5214,
      "å·¦é©¬": 5215,
      "çļĦæĥħåĨµä¸ĭ": 5216,
      "æĦıæĢĿ": 5217,
      "åŃĺç»Ń": 5218,
      "ãģł": 5219,
      "è®©ä»ĸ": 5220,
      "éĢĥåĽŀ": 5221,
      "çĥŁ": 5222,
      "æľ¬èĥ½å¯ºä¹ĭåıĺåĲİ": 5223,
      "åĽłä¸İ": 5224,
      "é«ĺèµĸ": 5225,
      "ç§°åĳ¼": 5226,
      "çĭ¼": 5227,
      "åĭ¿": 5228,
      "æ¸¡è¿ĩ": 5229,
      "éĻĨå¥¥åĽ½": 5230,
      "èµĸéĩį": 5231,
      "ä»ĬæĹ¥": 5232,
      "ç¦ıåĨĪ": 5233,
      "åķĨä¸ļ": 5234,
      "çī§éĩİ": 5235,
      "æĵį": 5236,
      "çŃĴäºķé¡ºåºĨ": 5237,
      "çļĦä¸»": 5238,
      "ä¹ĭå¦¹": 5239,
      "é»ĺ": 5240,
      "ç¡¬": 5241,
      "åĲĮæĹ¥": 5242,
      "å°ıå¼ĵ": 5243,
      "æİł": 5244,
      "1543": 5245,
      "çĨĻ": 5246,
      "è´µä¹ħ": 5247,
      "åĤ¬": 5248,
      "æĶ¿åºľ": 5249,
      "ç»Łé¢Ĩ": 5250,
      "è´¥äºİ": 5251,
      "æ¢¶": 5252,
      "ç»§ä»»å®¶çĿ£": 5253,
      "5000": 5254,
      "çļĦéĩįèĩ£": 5255,
      "å¤§åŃ¦": 5256,
      "æĺ¯å®¤çĶºæĹ¶ä»£": 5257,
      "è¿ĳçķ¿": 5258,
      "æĹ©åľ¨": 5259,
      "ç¼©": 5260,
      "éĢĥèĩ³": 5261,
      "ç®Ĺæĺ¯": 5262,
      "åīĬå¼±": 5263,
      "å·¡": 5264,
      "æ¬§": 5265,
      "ç¨£": 5266,
      "èĤ©": 5267,
      "èĢ¶ç¨£": 5268,
      "åŁİåĲİ": 5269,
      "ä¸ĬæĿīæľĿ": 5270,
      "æ´¾äºº": 5271,
      "æīĭä¸ĭ": 5272,
      "1594": 5273,
      "å®ļèµĸ": 5274,
      "è¢«ä¿¡éķ¿": 5275,
      "éĽ·": 5276,
      "ä¾ĿéĿł": 5277,
      "åĺīéļĨ": 5278,
      "å¤ªå¹³è®°": 5279,
      "å¤§æĿĳ": 5280,
      "ä»£çĲĨ": 5281,
      "å°ıè°·åŁİ": 5282,
      "é©¬å»»": 5283,
      "æĸ°åıĳ": 5284,
      "äº¤åĩº": 5285,
      "è¿ĺåľ¨": 5286,
      "å¤ªå¤«": 5287,
      "æĿ¾å¹³æ°ı": 5288,
      "æ¤İåĲį": 5289,
      "ä¿¡éķ¿åľ¨": 5290,
      "ä½ĵçİ°äºĨ": 5291,
      "çŃĸåĪĴ": 5292,
      "çļ®": 5293,
      "ä¿®çĲĨ": 5294,
      "æĸ¯æ³¢æ°ı": 5295,
      "çļĦå±ħåŁİ": 5296,
      "ä¸Ģåįĥ": 5297,
      "å¤§èĨ³": 5298,
      "åĮł": 5299,
      "è¢«æµģæĶ¾": 5300,
      "å¹ķæľ«": 5301,
      "éĩĳå±±": 5302,
      "åīĳæľ¯": 5303,
      "æĺĶæĹ¥": 5304,
      "äºĮéĺ¶åłĤ": 5305,
      "ä¹Łæ²¡æľī": 5306,
      "ä¸ĩå¤§åĨĽ": 5307,
      "éĵŃ": 5308,
      "æĮĩç¤º": 5309,
      "å½Ĵè¿ĺ": 5310,
      "èĦĳ": 5311,
      "çł´åĿı": 5312,
      "éķ°ä»ĵåºľ": 5313,
      "éī´è¿ŀ": 5314,
      "çļĦæĪĺäºī": 5315,
      "åĲķ": 5316,
      "çģ°": 5317,
      "å®įæĪ·": 5318,
      "å¤§æĢĴ": 5319,
      "ä¸Ńæľī": 5320,
      "ä¹īæĺĮ": 5321,
      "äºĮæľ¬": 5322,
      "æĻ¯çº²": 5323,
      "åıĪåĽł": 5324,
      "é©¬ä¸Ĭ": 5325,
      "èĮ¶ä¼ļ": 5326,
      "ä¸īæĿĳ": 5327,
      "æŃ»äº¡": 5328,
      "ä½Ĳæ¸¡": 5329,
      "èĲĦ": 5330,
      "ä¹ĿæĪ·": 5331,
      "æ¦Ĭ": 5332,
      "ç²Łå±ĭ": 5333,
      "èĳ¡èĲĦ": 5334,
      "40": 5335,
      "æ£®åı¯": 5336,
      "äºİäº¬éĥ½": 5337,
      "åĮĹè¿ĳæ±Ł": 5338,
      "äºĶå¥īè¡Į": 5339,
      "æľ¨åŁİ": 5340,
      "åıĹé¢Ĩ": 5341,
      "åį³ä¸º": 5342,
      "èĩ´ä¹¦": 5343,
      "çıį": 5344,
      "åıĻä»»": 5345,
      "å®½æĶ¿éĩįä¿®": 5346,
      "äºĭåĲİ": 5347,
      "æ³īå¯º": 5348,
      "åĩºèº«çļĦ": 5349,
      "åĢ¼å¾Ĺ": 5350,
      "æ°ıçĽ´": 5351,
      "åĮĹä¿¡æµĵ": 5352,
      "æĿ¾ä¸¸": 5353,
      "èĤĿ": 5354,
      "éļĲå²Ĳ": 5355,
      "å¯¿ä¸¸": 5356,
      "é«ĺæĶ¿": 5357,
      "ä¼Ĭæĸ¯": 5358,
      "éĽªæĸĭ": 5359,
      "çĮ®ä¸Ĭ": 5360,
      "æ¥ļ": 5361,
      "çĩĥ": 5362,
      "å±±å½¢": 5363,
      "çŁ¶": 5364,
      "æ±ĩ": 5365,
      "éĵ¸": 5366,
      "è¯¸å®¶è°±": 5367,
      "æľĢåĲİçļĦ": 5368,
      "çĶ°éĩį": 5369,
      "ä¹īçĽ´": 5370,
      "èİ·å°ģ": 5371,
      "æĹ©éĢĿ": 5372,
      "è¾īæĶ¿": 5373,
      "ä¸Ķåħĥ": 5374,
      "äºĮæĿ¡åŁİ": 5375,
      "å¤ªæĶ¿å¤§èĩ£": 5376,
      "ä¹³": 5377,
      "ä¸ºäºº": 5378,
      "æĿ¾å¹³å¹¿å¿ł": 5379,
      "è¿İæİ¥": 5380,
      "åħŃè§Ĵä¹īè´¤": 5381,
      "æĭľé¢Ĩ": 5382,
      "æ²³è¶ĬåŁİ": 5383,
      "å¤§å¯º": 5384,
      "è¾©": 5385,
      "æĶ»åįł": 5386,
      "æķĮæĸ¹": 5387,
      "éĢ¸è¯Ŀ": 5388,
      "å®½æĶ¿éĩįä¿®è¯¸å®¶è°±": 5389,
      "2000": 5390,
      "åįģåħ«": 5391,
      "ä¿®å»º": 5392,
      "éĢĿä¸ĸ": 5393,
      "é¦Ļå·Ŀ": 5394,
      "ç§ĺå¯Ĩ": 5395,
      "ä»İåĽĽä½įä¸ĭ": 5396,
      "ä¸Ģåľº": 5397,
      "çĽĶ": 5398,
      "ä¸Ĭäºº": 5399,
      "ä¹īç»Ł": 5400,
      "åıĪåĲį": 5401,
      "æĻ´æ°ı": 5402,
      "å±±åŁİåĽ½": 5403,
      "ä»įåľ¨": 5404,
      "æŃ¤æĹ¶çļĦ": 5405,
      "ç§ĭçĶ°": 5406,
      "ä¸ĢæĹıçļĦ": 5407,
      "æ²³åĨħåĽ½": 5408,
      "æĹ¶æľº": 5409,
      "ä¸ŃæĿ¡": 5410,
      "ä¸Ńä¸ĸ": 5411,
      "è§Ī": 5412,
      "æľ¨æĿĳ": 5413,
      "åħ¬æĸ¹çļĦ": 5414,
      "ç»ĵæĪĲ": 5415,
      "å¾ĢæĿ¥": 5416,
      "éĤ£ä¸ª": 5417,
      "ä½ıäºĨ": 5418,
      "ä¸´ç»Ī": 5419,
      "å¸¸éĻĨåĽ½": 5420,
      "èı©æıĲå¯º": 5421,
      "åĬ«": 5422,
      "å¸ģ": 5423,
      "ä¼ĬéĽĨ": 5424,
      "ä½¿èĬĤ": 5425,
      "å»ºè®¾": 5426,
      "çļĩåŃĲ": 5427,
      "ä¼ĬéĽĨéĻ¢": 5428,
      "çŁ¿": 5429,
      "å¯¹åħ¶": 5430,
      "å¼Ģåıĳ": 5431,
      "æĴ¤åĨĽ": 5432,
      "çľŁçĶ°ä¿¡ç¹ģ": 5433,
      "åĩıå°ģ": 5434,
      "å¤§éĩİæ²»": 5435,
      "å¤§åŀ£": 5436,
      "å¤§çº³è¨Ģ": 5437,
      "äºİåºĨéķ¿": 5438,
      "å®ŀåľ¨": 5439,
      "åı²ç§°": 5440,
      "æ®¿ä¸ĭ": 5441,
      "æĶ¿æĿĥçļĦ": 5442,
      "åĪĽä½ľ": 5443,
      "é¦Ļè¥¿": 5444,
      "ä»Ļåı°": 5445,
      "ä¸ĢäºĽ": 5446,
      "åĲİåĽł": 5447,
      "å«Į": 5448,
      "è¯¥åŁİ": 5449,
      "èĮ¶èĮ¶": 5450,
      "èĤ¥åīįåĽ½": 5451,
      "èĳ¡èĲĦçīĻ": 5452,
      "ä¸Ģä¹ĺ": 5453,
      "æĪĺåĨµ": 5454,
      "è¯´æľį": 5455,
      "1545": 5456,
      "çĶ²æĸĲæŃ¦çĶ°æ°ı": 5457,
      "å»¶å¾·": 5458,
      "æŃ¦çĶ°ä¿¡çİĦçļĦ": 5459,
      "1536": 5460,
      "ä¸§å¤±": 5461,
      "åĲİåıĪ": 5462,
      "å¤§å®¶": 5463,
      "æĶ»çł´": 5464,
      "ä¼ļéĿ¢": 5465,
      "åĲĦç§į": 5466,
      "éĢĲæŃ¥": 5467,
      "æĬµå¾¡": 5468,
      "ä»ĭç»į": 5469,
      "ä¾Ľåħ»": 5470,
      "çĽ¸æ¨¡åĽ½": 5471,
      "ä¸ĭæĢ»åĽ½": 5472,
      "ä¸²": 5473,
      "ç»ª": 5474,
      "å¸ľ": 5475,
      "è¿ĳèĩ£": 5476,
      "èģļä¹Ĳç¬¬": 5477,
      "60": 5478,
      "æĿ¾å±±åŁİ": 5479,
      "åĲĪè®¡": 5480,
      "è®¾æľī": 5481,
      "ç¢į": 5482,
      "éĩĮè§ģæ°ı": 5483,
      "æĨ": 5484,
      "ä¸ĢæĪĺ": 5485,
      "åīįè¿Ľ": 5486,
      "æĭ¼": 5487,
      "æŃ¦çĶ°æ°ıçļĦ": 5488,
      "å¾·å·Ŀå¹ķåºľ": 5489,
      "åĽŀçŃĶ": 5490,
      "çļĦåĲĮæĹ¶": 5491,
      "åıĤä¸İäºĨ": 5492,
      "å¯Łè§ī": 5493,
      "å¼ĢåŁİæĬķéĻį": 5494,
      "è¶ħè¿ĩ": 5495,
      "å¤§æ¦Ĥ": 5496,
      "ä¸Ńçº³è¨Ģ": 5497,
      "å±±ä¸Ĭ": 5498,
      "æ¬£": 5499,
      "ä¸ľäº¬": 5500,
      "åĪ¶ä½ľ": 5501,
      "ç»Īç»ĵ": 5502,
      "æĮĩå®ļ": 5503,
      "æľĿä»ĵåĨĽ": 5504,
      "çº·äºī": 5505,
      "æī®æ¼Ķ": 5506,
      "å±±ç§ĳ": 5507,
      "å°ıå¯º": 5508,
      "äº²æĹı": 5509,
      "çĶŁåīį": 5510,
      "æıĴ": 5511,
      "çĸİ": 5512,
      "åŃ¤ç«ĭ": 5513,
      "é«ĺæĿ¾åŁİ": 5514,
      "æĹ¥æľ¬åı²": 5515,
      "éģĤä»¥": 5516,
      "è·Ŀç¦»": 5517,
      "å¤§ä¹±": 5518,
      "æĪĺå±Ģ": 5519,
      "äº¤æį¢": 5520,
      "å¹¸çĽĽ": 5521,
      "ä¸°åĲİåĽ½": 5522,
      "å®¶ç³»": 5523,
      "åľ°æĸ¹çļĦ": 5524,
      "æĶ»éĺ²": 5525,
      "ç»Ŀå¯¹": 5526,
      "éģĹè¿¹": 5527,
      "åİĨåı²ä¸Ĭ": 5528,
      "å°ıå±±çĶ°": 5529,
      "çĵľ": 5530,
      "å¤ĩåĲİåĽ½": 5531,
      "åİħ": 5532,
      "æĭĸ": 5533,
      "åıĳåħµ": 5534,
      "è¦ģåĨ²": 5535,
      "åĳ½è¿Ĳ": 5536,
      "åľŁå±ĭ": 5537,
      "èĦ¸": 5538,
      "æ¦ĬåİŁ": 5539,
      "çļĦåĳ½ä»¤": 5540,
      "è®¼": 5541,
      "å¹ķåºľåĨĽ": 5542,
      "å®«åĨħ": 5543,
      "èĤ¡": 5544,
      "è°ĭçķ¥": 5545,
      "åłĢç§ĢæĶ¿": 5546,
      "1602": 5547,
      "äºķä¼ĬçĽ´": 5548,
      "æŃ¼": 5549,
      "ä¹īè§Ĩ": 5550,
      "å¯¹è±¡": 5551,
      "æĶ»åıĸ": 5552,
      "æīĵè´¥": 5553,
      "æŃ¤è¯´": 5554,
      "çķı": 5555,
      "å¤ļéĹ»": 5556,
      "å¤ĸçļĦ": 5557,
      "å®ĩä½Ĳ": 5558,
      "ä¸´æĹ¶": 5559,
      "çºµçģ«": 5560,
      "ä¹ĭéķ¿": 5561,
      "åĨħéĢļ": 5562,
      "éĩįæ¬¡": 5563,
      "çķ·": 5564,
      "åħ«ä»£": 5565,
      "æģ³": 5566,
      "ç¼´": 5567,
      "åıĺåĮĸ": 5568,
      "éĵģçĤ®éĺŁ": 5569,
      "æĬĢæľ¯": 5570,
      "çĶ«": 5571,
      "æľīåĪ©": 5572,
      "åħ¶éĹ´": 5573,
      "åıįæĶ»": 5574,
      "å°ıéĩİå¯º": 5575,
      "1000": 5576,
      "åĲĳç§ĢåĲī": 5577,
      "æ¯ĽåĪ©æ°ıçļĦ": 5578,
      "æĶ¶åħ¥": 5579,
      "æıĲè®®": 5580,
      "åŃĻåŃĲ": 5581,
      "ç½²åĲį": 5582,
      "ä¸įåľ¨": 5583,
      "è¶Ĭä¸ŃåĽ½": 5584,
      "éĺ¿èĭı": 5585,
      "ç²¾éĶĲ": 5586,
      "æ¯įäº²æĺ¯": 5587,
      "å¾ĭä»¤": 5588,
      "éķ¿ç¯łä¹ĭæĪĺ": 5589,
      "éķ¿è°·å·Ŀ": 5590,
      "éķ¿æŀª": 5591,
      "èĢ»": 5592,
      "èĢĮéĿŀ": 5593,
      "æĦıåĳ³": 5594,
      "è§£éĻ¤": 5595,
      "éķ¿å°¾æ°ı": 5596,
      "å¾ħéģĩ": 5597,
      "ä¸įåĬ¨": 5598,
      "éĥ¨å¤§è¾ħ": 5599,
      "æĺİæĺ¾": 5600,
      "è¥¿åĨĽçļĦ": 5601,
      "æŃ¦å£«çļĦ": 5602,
      "è´¢æĶ¿": 5603,
      "èģļéĽĨ": 5604,
      "éĴĪå¯¹": 5605,
      "é¢ĳç¹ģ": 5606,
      "çļĦä¿¡éķ¿": 5607,
      "åİī": 5608,
      "è¢«æ²¡æĶ¶": 5609,
      "æ³ķåº¦": 5610,
      "ç»Łçİĩ": 5611,
      "ä»Ĭå·Ŀå®¶çļĦ": 5612,
      "åĬĿéĻį": 5613,
      "æĻĭåįĩ": 5614,
      "èĢ¶ç¨£ä¼ļ": 5615,
      "µçĲ": 5616,
      "å¾Ħ": 5617,
      "åħĥçº²": 5618,
      "æĹ¥æľ¬æĪĺåĽ½": 5619,
      "çĲµçĲ": 5620,
      "æħĪ": 5621,
      "è¿ģå±ħ": 5622,
      "çĲµçĲ¶": 5623,
      "ä¸İå¾·å·Ŀå®¶åº·": 5624,
      "æĽ´ä¸º": 5625,
      "åıĽç¦»": 5626,
      "è¯Ħå®ļ": 5627,
      "å¼ĺæ²»åħĥå¹´": 5628,
      "è°±ä»£å®¶èĩ£": 5629,
      "è¿·": 5630,
      "å°ıä»ĵ": 5631,
      "èµĦæºĲ": 5632,
      "åĺīåĲī": 5633,
      "35": 5634,
      "åīįåİ»": 5635,
      "åĮĹä¸Ĭ": 5636,
      "æĻ´æĻ¯": 5637,
      "åħ´ç»ı": 5638,
      "çľŁçĶ°å¹¸æĿĳ": 5639,
      "æĹħ": 5640,
      "æľīäºĽ": 5641,
      "èĥľè´Ł": 5642,
      "åĽĽå¤©çİĭ": 5643,
      "èĩ´åĬĽäºİ": 5644,
      "ç§»èĩ³": 5645,
      "çĪĨåıĳçļĦ": 5646,
      "ä¾Ľå¥ī": 5647,
      "å¤§å®Ŀå¯º": 5648,
      "ä¸ºåħĪéĶĭ": 5649,
      "ä¸įä½Ĩ": 5650,
      "å®ĹçļĦ": 5651,
      "å¾·å·Ŀå®¶çļĦ": 5652,
      "å®«åŁİ": 5653,
      "å¼¹æŃ£å¿ł": 5654,
      "åĲ¾å¦»": 5655,
      "å®¶å½ĵä¸»": 5656,
      "çİ©": 5657,
      "å½ĵæĹ¥": 5658,
      "çģ«æŀª": 5659,
      "è¯¦ç»Ĩ": 5660,
      "æ»¨æĿ¾": 5661,
      "å·¨å¤§": 5662,
      "äºĴçĽ¸": 5663,
      "çĭ©éĩİ": 5664,
      "ä¿¡ä»°": 5665,
      "å¹¶ç§°": 5666,
      "æŃ¦çĶ°åĨĽçļĦ": 5667,
      "æĹłåĬĽ": 5668,
      "ç¬¬åħŃ": 5669,
      "éª¤": 5670,
      "éĢĢå¾Ģ": 5671,
      "135": 5672,
      "éķĩå¹¸": 5673,
      "å°ĨåĨĽè¶³åĪ©ä¹īè¾ī": 5674,
      "è®²åĴĮ": 5675,
      "èĤĥæ¸ħ": 5676,
      "éķ¿å®ī": 5677,
      "ãģ¡": 5678,
      "åĬ¨ä¹±": 5679,
      "è¶³åĪ©æĪĲæ°ı": 5680,
      "éĢĥåĩº": 5681,
      "çĲīçĲĥ": 5682,
      "çļĦåľ°æĸ¹": 5683,
      "ä¸»æĮģ": 5684,
      "åĨħæµ·": 5685,
      "é«ĺçļĦ": 5686,
      "çĶ±å¸ĥ": 5687,
      "èİ·åĩĨ": 5688,
      "åĩºèº«äºİ": 5689,
      "ä¸ºæŃ¢": 5690,
      "å½©": 5691,
      "éĢĥèµ°": 5692,
      "å¼ºå¤§çļĦ": 5693,
      "å¢ŀå¼º": 5694,
      "åĿļåĽº": 5695,
      "å®ĩéĥ½å®«æ°ı": 5696,
      "åŃ©åŃĲ": 5697,
      "åľ¨äºĨ": 5698,
      "çĽ¸æ¯Ķ": 5699,
      "åıĹåĳ½": 5700,
      "åįĹåĮĹ": 5701,
      "å°ĳæķ°": 5702,
      "åİĭåĬĽ": 5703,
      "éĿĴå±±": 5704,
      "åĲİè¢«": 5705,
      "ä¸įåı¯èĥ½": 5706,
      "è±«ä»¥": 5707,
      "æľĪåįģä¸īæĹ¥": 5708,
      "å¤©æŃ£åįģåħ«å¹´": 5709,
      "å±±åĲįå®Ĺåħ¨": 5710,
      "è§ĤçĤ¹è®¤ä¸º": 5711,
      "åľ°åŁŁ": 5712,
      "è¿ĻéĩĮ": 5713,
      "å®Ĺèĥľ": 5714,
      "åį´æĺ¯": 5715,
      "å¯ĮåŃĲ": 5716,
      "æ¾Ħä¹ĭ": 5717,
      "åĤĢ": 5718,
      "åłĢè¶Ĭåħ¬æĸ¹": 5719,
      "å·¢": 5720,
      "åľ¨åħ³ä¸ľ": 5721,
      "éĥ¨ç½²": 5722,
      "åĦ¡": 5723,
      "ç§įè¯´æ³ķ": 5724,
      "ä¸¹æ³¢åĽ½": 5725,
      "æĢĿæĥ³": 5726,
      "èĽ°": 5727,
      "ä¸ºæł¸å¿ĥ": 5728,
      "åľ¨åħ¶": 5729,
      "åľ¨ç§ĢåĲī": 5730,
      "ä¸įè¦ģ": 5731,
      "èĢĮæĿ¥": 5732,
      "å¹¶æĪĲä¸º": 5733,
      "ä¼Ĭä¸¹": 5734,
      "åĨįåĬłä¸Ĭ": 5735,
      "å¿Ĺæĳ©": 5736,
      "éģĹåĿĢ": 5737,
      "ç»´æĸ°": 5738,
      "æķĪå¿ł": 5739,
      "è¯īè®¼": 5740,
      "åĤĢåĦ¡": 5741,
      "ä¸ºæĿ¡ä»¶": 5742,
      "çĶŁä¸ĭ": 5743,
      "ç§°ä½ľ": 5744,
      "åıĺå¾Ĺ": 5745,
      "æĪĺæŃ»åĲİ": 5746,
      "æ¸¡æ²³": 5747,
      "å°ıæĿ¾": 5748,
      "æīĢè¿°": 5749,
      "èĻ¾": 5750,
      "çĽ¸åĲĮçĽŁ": 5751,
      "ä¿Ŀåħ¨": 5752,
      "åĬŁåĬ³": 5753,
      "æµ·éĩİ": 5754,
      "åĸĿ": 5755,
      "è¤": 5756,
      "ä¹ĭä»ĭ": 5757,
      "åĨĽå½¹": 5758,
      "å¾·å·Ŀæĸ¹": 5759,
      "åĪĨæĶ¯": 5760,
      "æ°¸ç¦Ħåħĥå¹´": 5761,
      "åħ·æķĻ": 5762,
      "çļĦä¹¦ä¿¡": 5763,
      "ä¸ĢåĪĩ": 5764,
      "åŃĲå¥³": 5765,
      "å¤ļå¹´": 5766,
      "ä¸¤æ¬¡": 5767,
      "å¤§ä¸º": 5768,
      "éĩİæĿĳ": 5769,
      "ç§ĢåĲīåľ¨": 5770,
      "çĿĢæīĭ": 5771,
      "æĬķåħ¥": 5772,
      "æīįæĺ¯": 5773,
      "çĽ¸å½ĵäºİ": 5774,
      "é«ĺå¤©ç¥ŀåŁİ": 5775,
      "çļĦæĶ¯æĮģ": 5776,
      "ä¿¡æĺĮ": 5777,
      "ä¸Ńè®°è½½": 5778,
      "æīĢåı¸": 5779,
      "éģĤä¸İ": 5780,
      "æĳĦåħ³": 5781,
      "é¥Ńå¯Į": 5782,
      "åĩ»è´¥äºĨ": 5783,
      "å¤ºåıĸäºĨ": 5784,
      "éŀį": 5785,
      "ä¹īéķĩ": 5786,
      "çĽ´ä¹ĭ": 5787,
      "èĮ¨": 5788,
      "è¾¹çļĦ": 5789,
      "æŀĦæĪĲäºĨ": 5790,
      "èĴĻ": 5791,
      "ä¿ĥæĪĲ": 5792,
      "å®Īåį«": 5793,
      "ãģ¿": 5794,
      "å¹ķåºľå°ĨåĨĽ": 5795,
      "å¤§åĨħåĨĽ": 5796,
      "éĤ»è¿ĳ": 5797,
      "èĬ³è´º": 5798,
      "ä½ĲåĴĮå±±åŁİ": 5799,
      "ä¸Ĭæ³ī": 5800,
      "åĽĽåŃĲ": 5801,
      "æľ¨æ³½": 5802,
      "ç¡®å®ļ": 5803,
      "æģ©èµı": 5804,
      "å±ıé£İ": 5805,
      "çļĦé¦ĸçº§": 5806,
      "åħµè´¥": 5807,
      "ãģĪ": 5808,
      "ãģĳ": 5809,
      "åıĪæľī": 5810,
      "å¤ĩä¸ŃåĽ½": 5811,
      "åĮħåĲ«": 5812,
      "å¤įæĿĤ": 5813,
      "æľĪåįģä¹ĿæĹ¥": 5814,
      "åĬłåħ¥äºĨ": 5815,
      "æİĴéĻ¤": 5816,
      "äººä»¬": 5817,
      "ä¸ĭéĹ´": 5818,
      "åĲīéĩİ": 5819,
      "å¹³æīĭ": 5820,
      "ä»İåĨĽ": 5821,
      "æī¿è¯º": 5822,
      "å®ĺéĢĶ": 5823,
      "é¼»": 5824,
      "ç½Ĺé©¬åĮĸ": 5825,
      "hi": 5826,
      "ä¿¡æĪ¿": 5827,
      "å®Ĺçĳŀ": 5828,
      "ä¸ĬæĿīå®ļ": 5829,
      "çļĦéĥ¨éĺŁ": 5830,
      "çªģåħ¥": 5831,
      "æĪĲä¹¦": 5832,
      "ä»Ĭäºķ": 5833,
      "ä¸ªæľĪ": 5834,
      "éĢĢèĩ³": 5835,
      "å·±æĸ¹": 5836,
      "åıĺä¸º": 5837,
      "ä½ıæĮģ": 5838,
      "æ³½åŁİ": 5839,
      "èĴ²æ±ł": 5840,
      "æĪĺæĸĹä¸Ń": 5841,
      "çŃĳå±±æ®¿": 5842,
      "31": 5843,
      "æŃ¤å½¹": 5844,
      "åĿĹ": 5845,
      "åĮĹæĿ¡æ°ıçĽ´": 5846,
      "1532": 5847,
      "æľĪäºĮåįģæĹ¥": 5848,
      "è§īå¯º": 5849,
      "ç²®é£Ł": 5850,
      "èªīä¸º": 5851,
      "æķ¦è´º": 5852,
      "çļĦæĸĩä¹¦": 5853,
      "ä¸Ģè¡Į": 5854,
      "ä¸ĢæĶ¯": 5855,
      "ä¿¡èĥľ": 5856,
      "å±±éĺ³": 5857,
      "å¤ļäºº": 5858,
      "èĹ©åĪĿä»£èĹ©ä¸»": 5859,
      "åĿĤäºķ": 5860,
      "ä¸¢": 5861,
      "è¾¨": 5862,
      "ç¥¸": 5863,
      "è¶³ä»¥": 5864,
      "èī¯äº²çİĭ": 5865,
      "æ¯įè¡£": 5866,
      "èµ¤å¤ĩ": 5867,
      "è¶ĬåĲİçļĦ": 5868,
      "æ°ıäº²": 5869,
      "åĲĮå¿ĥ": 5870,
      "çĽ´å±ŀ": 5871,
      "ä¹ĿæĿ¡": 5872,
      "åįĹæĿ¡": 5873,
      "æĶ¹éĿ©": 5874,
      "å®¶çĿ£ç»§æī¿": 5875,
      "ä¸¥éĩį": 5876,
      "æĢ¥å¿Ļ": 5877,
      "æĲľ": 5878,
      "éĻ¶éļĨæĪ¿": 5879,
      "æĵħèĩª": 5880,
      "åįĵ": 5881,
      "ä¸ĬçĶ°åŁİ": 5882,
      "äººä¼Ĺ": 5883,
      "æĬĵ": 5884,
      "ä¸»å°Ĩ": 5885,
      "ä¸¤ä¸ĩ": 5886,
      "å¤įä»ĩ": 5887,
      "ä¸īæ²³çļĦ": 5888,
      "å¼ķèµ·": 5889,
      "ç»ĩçĶ°ä¿¡åŃĿ": 5890,
      "æĹĹå¸ľ": 5891,
      "å¥ĭåĭĩ": 5892,
      "çļĦæľºä¼ļ": 5893,
      "ç§ĢéļĨ": 5894,
      "æĮ«": 5895,
      "æĭ¾": 5896,
      "é«ĺåŁº": 5897,
      "ä½Ĳè´º": 5898,
      "ä¼ļæĪĺ": 5899,
      "åħ´ç¦ıå¯º": 5900,
      "åıªå¥½": 5901,
      "ä»ħæľī": 5902,
      "ä¾įæīĢ": 5903,
      "ä»Ĭå·Ŀæ°ıäº²": 5904,
      "å®¡": 5905,
      "å¤Ń": 5906,
      "ä¸Ģä¸ĭ": 5907,
      "ä¼į": 5908,
      "å°ĨçĽĳ": 5909,
      "éĺħ": 5910,
      "è¶£": 5911,
      "è¿Ľè¨Ģ": 5912,
      "åħ¬åĽŃ": 5913,
      "æĶ¯æµģ": 5914,
      "å¹¿æ³Ľ": 5915,
      "è¡¨è¾¾": 5916,
      "è®¾è®¡": 5917,
      "ç¿ĮæĹ¥": 5918,
      "æľĪåįģäºĮæĹ¥": 5919,
      "ä¸įä¹ħåĲİ": 5920,
      "ä¸ĢéĹ¨ä¼Ĺ": 5921,
      "åįĹåĮĹæľĿæĹ¶ä»£": 5922,
      "éĻĢ": 5923,
      "æŃ»äºİ": 5924,
      "å¤©æŃ£åħŃå¹´": 5925,
      "ä¸ĬæĿīæ°ıçļĦ": 5926,
      "æĿĢäºĨ": 5927,
      "ãĤĦ": 5928,
      "å¹¿å²Ľ": 5929,
      "å®½æŃ£": 5930,
      "è¸ı": 5931,
      "æŃ£äº²çĶº": 5932,
      "Ġä¸İ": 5933,
      "ä¿¡åħĥ": 5934,
      "æŃ¦è£ħ": 5935,
      "åī¥": 5936,
      "æľ¬é¢Ĩ": 5937,
      "ä¸ĸçķĮ": 5938,
      "æĪ·æ³½": 5939,
      "åĵĢ": 5940,
      "åı³äº¬": 5941,
      "è¡¨éĿ¢": 5942,
      "å¡«": 5943,
      "å®¶æł¼": 5944,
      "åĩºäºİ": 5945,
      "å¹¶è¢«": 5946,
      "ç§°åı·": 5947,
      "åıĤæĭľ": 5948,
      "éĤ£éĩĮ": 5949,
      "åį¿è®°": 5950,
      "åĨ¶": 5951,
      "ä¸ĭåħĭ": 5952,
      "éĻĪ": 5953,
      "è§ģåĪ°": 5954,
      "éĢĥèĦ±": 5955,
      "æĬĹäºī": 5956,
      "186": 5957,
      "æĸ©èİ·": 5958,
      "èµ¶åĪ°": 5959,
      "è¡ĮåĨĽ": 5960,
      "ä¸°åĽ½": 5961,
      "æĮĩå®ļä¸º": 5962,
      "çľĭæĿ¥": 5963,
      "æ£®åŁİ": 5964,
      "æĸĭèĹ¤ä¹īé¾Ļ": 5965,
      "å²³åŁİ": 5966,
      "åĲ¬è¯´": 5967,
      "æ®ĭåħļ": 5968,
      "æģĲæĢķ": 5969,
      "éļĻ": 5970,
      "å¾·æĶ¿": 5971,
      "äºĭæĥħ": 5972,
      "æ¶Į": 5973,
      "è½¬æĬķ": 5974,
      "æķ°æŃ£": 5975,
      "å®ĩåĸľå¤ļçĽ´å®¶": 5976,
      "å¹½ç¦ģ": 5977,
      "åĲįåı¤å±ĭå¸Ĥ": 5978,
      "å®¶æĶ¿": 5979,
      "éķ¿èµĸ": 5980,
      "ä¸İå®¶åº·": 5981,
      "åħ¶åħĦ": 5982,
      "äº²ä¿¡": 5983,
      "åĮĹæĿ¡å®¶çļĦ": 5984,
      "åįĥåĪ©ä¼ĳ": 5985,
      "éĤĳ": 5986,
      "åħĪæĺ¯": 5987,
      "æ°¸ç¦Ħä¸īå¹´": 5988,
      "å¤©ä¸ĭäºº": 5989,
      "ä¸įäºĨ": 5990,
      "åľ°å¸¦": 5991,
      "åı¯çŁ¥": 5992,
      "ä»¤äºº": 5993,
      "æİ¥è¿ŀ": 5994,
      "æıĲåıĬ": 5995,
      "å¤§åĿĤå¤ıä¹ĭéĺµ": 5996,
      "ä»·åĢ¼": 5997,
      "æĹ¥åĲĳåĽ½": 5998,
      "éªıåºľåŁİ": 5999,
      "éŃĶ": 6000,
      "åĵ¥åĵ¥": 6001,
      "âĶģ": 6002,
      "å¥ĳæľº": 6003,
      "åħĥæ¸ħ": 6004,
      "ç¬¬äºĮå¹´": 6005,
      "å®ĺåħµåį«": 6006,
      "é¸Łç¾½": 6007,
      "åĽ½çİĭ": 6008,
      "ä¸įé¡¾": 6009,
      "å½ĵåĪĿ": 6010,
      "å®ŀçļĦ": 6011,
      "è¥¿ä¸Ĭéĩİ": 6012,
      "æĿĳèĲ½": 6013,
      "ç¥ŀå®«": 6014,
      "å¼Ģå§ĭäºĨ": 6015,
      "ç©·": 6016,
      "åŃĺä¿Ŀ": 6017,
      "1544": 6018,
      "å¤©æŃ£åįģä¸īå¹´": 6019,
      "å¤©æŃ£åįģäºĮå¹´": 6020,
      "ç»ĵåŁİæ°ı": 6021,
      "é»Ħéĩĳ": 6022,
      "å¤§åıĭä¹īéķĩ": 6023,
      "ä¸ºä½ķ": 6024,
      "æĿ¡çĽ®": 6025,
      "å¤©æŃ£ä¸īå¹´": 6026,
      "æ¸ħçĽĽ": 6027,
      "è¯ģæĺİ": 6028,
      "é¹¿åĦ¿å²Ľ": 6029,
      "æĵĴ": 6030,
      "çļĦæĹ¥æľ¬": 6031,
      "çĪ¶äº²ä¸º": 6032,
      "199": 6033,
      "æ´Ľä¼Ĭæĸ¯": 6034,
      "éħįç½®": 6035,
      "ç¥Ńç¥Ģ": 6036,
      "èĤĿä»ĺ": 6037,
      "ãŃ": 6038,
      "å±±ä¹ĭæĪĺ": 6039,
      "ä¹īæ°ı": 6040,
      "ä¹īå¿ł": 6041,
      "éĻµ": 6042,
      "æľ¬åĲį": 6043,
      "åĴĮå°ļ": 6044,
      "çī¢": 6045,
      "ä½Ĳä¼¯": 6046,
      "çĶ¨çļĦ": 6047,
      "å¾Ģå¾Ģ": 6048,
      "æıĲæĭĶ": 6049,
      "æĺ¾èĳĹ": 6050,
      "æ°¸æŃ£åįģ": 6051,
      "åħĥé¾Łä¸īå¹´": 6052,
      "åı²æĸĻä¸Ń": 6053,
      "å®¤çĶºå¹ķåºľçļĦ": 6054,
      "ãŃ´": 6055,
      "èĿ": 6056,
      "æľŃ": 6057,
      "äºİå¤§": 6058,
      "æĹłåŃĲ": 6059,
      "åıįå¤į": 6060,
      "æĸĭèĹ¤é¾Ļåħ´": 6061,
      "æħĮ": 6062,
      "ä¸ĺ": 6063,
      "åºŀ": 6064,
      "å²Ĥ": 6065,
      "è¦ģå®³": 6066,
      "åĮĹæĿ¡æ°ıçļĦ": 6067,
      "ä½ľä¸ºäººè´¨": 6068,
      "ä¿Ŀè¯ģ": 6069,
      "è½¬åĲĳ": 6070,
      "åĲİæĿ¥æĪĲä¸º": 6071,
      "å¯ĨåĪĩ": 6072,
      "éĢ¸äºĭ": 6073,
      "ç§©åºı": 6074,
      "å·Ŀä¸Ĭ": 6075,
      "åįĬåħµåį«": 6076,
      "éħįåĲĪ": 6077,
      "éĺ¶æ®µ": 6078,
      "å¤ªçĶ°éģĵçģĮ": 6079,
      "éĩĳåŃĲ": 6080,
      "ä¼ıåħµ": 6081,
      "æĹĹä¸ĭ": 6082,
      "æŀĦçŃĳ": 6083,
      "å°ıç¬łåİŁæ°ı": 6084,
      "ä¸»ä»İ": 6085,
      "å°ıå·Ŀ": 6086,
      "å°ģéĶģ": 6087,
      "åħ³ç³»çļĦ": 6088,
      "æŀľçĦ¶": 6089,
      "ä¹īéĩį": 6090,
      "éĥ½è¢«": 6091,
      "éģĵçļĦ": 6092,
      "å£¤": 6093,
      "æ·±åħ¥": 6094,
      "éģĹèĩ£": 6095,
      "éĢģåĪ°": 6096,
      "å²¸çļĦ": 6097,
      "èĻ¾å¤·": 6098,
      "å®¶ä¹ħ": 6099,
      "ä¹ĭåħĦ": 6100,
      "ä¹ĭæīĢä»¥": 6101,
      "æĪĺçº¿": 6102,
      "åĪĨéħį": 6103,
      "åĢļ": 6104,
      "å§ĭç¥ĸ": 6105,
      "éģĤäºİ": 6106,
      "1596": 6107,
      "æ°ĳä¼Ĺ": 6108,
      "ä¾Ŀèµĸ": 6109,
      "åįľ": 6110,
      "çĽĨ": 6111,
      "åıĤéĺµ": 6112,
      "èĩªå·±åĪĻ": 6113,
      "ä¹ĭåĲİçļĦ": 6114,
      "å¤įå½Ĵ": 6115,
      "è¿Ľåħ¥äºĨ": 6116,
      "æķ´å¤ĩ": 6117,
      "ç¨ĭåº¦": 6118,
      "æķĪåĬĽ": 6119,
      "æ¸ħæ´²åŁİ": 6120,
      "ä¼¦": 6121,
      "ä½ľåĩº": 6122,
      "æĻ´æĶ¿": 6123,
      "æ°¸ç¦Ħåįģä¸Ģå¹´": 6124,
      "èĲ½åħ¥": 6125,
      "åĽ½äººé¢Ĩä¸»": 6126,
      "èį¯å¸Ī": 6127,
      "æłĩå¿ĹçĿĢ": 6128,
      "å®¶å®°": 6129,
      "ä¸Ńå±±": 6130,
      "ç§ĢåĮħ": 6131,
      "å¿łä¹ī": 6132,
      "åıĪæĺ¯": 6133,
      "æ°¸ç¦ĦåįģäºĮå¹´": 6134,
      "æĭħå½ĵ": 6135,
      "è¿ŀæİ¥": 6136,
      "èĹıäºº": 6137,
      "åħ³åİŁåĲĪæĪĺ": 6138,
      "æ¡¥åŁİ": 6139,
      "çī¹å¾ģ": 6140,
      "ä¼¯çĪ¶": 6141,
      "çŁ³è§ģåĽ½": 6142,
      "æ¿ĳæĪ·åĨħæµ·": 6143,
      "ä¸ºäººè´¨": 6144,
      "ä¸ľåĨĽçļĦ": 6145,
      "å½¢è±¡": 6146,
      "åĪ«åĬ¨": 6147,
      "æľĪåįģæĹ¥": 6148,
      "æīĺä»ĺ": 6149,
      "å½°": 6150,
      "ä¸įå®ī": 6151,
      "æĿ¥å²Ľ": 6152,
      "1538": 6153,
      "å«ģè±«": 6154,
      "æĪĺå½¹ä¸Ń": 6155,
      "ç§ĭæľĪç§įå®ŀ": 6156,
      "æııç»ĺ": 6157,
      "åħ°ä¸¸": 6158,
      "åİĮ": 6159,
      "æĹ¥æľŁ": 6160,
      "ä¸ĭåİ»": 6161,
      "åħŃåįģ": 6162,
      "å®ĪæĬ¤çļĦ": 6163,
      "æİ¥åĪ°": 6164,
      "åĨĪæľ¬": 6165,
      "æĸĭèĹ¤æ°ı": 6166,
      "å¯»æ±Ĥ": 6167,
      "æ¯ķç«Ł": 6168,
      "éĽ¶": 6169,
      "åĪ¶å®ļ": 6170,
      "å¤ĦæŃ»": 6171,
      "æĪĳçļĦ": 6172,
      "ç¹ģèį£": 6173,
      "æĵħéķ¿": 6174,
      "å®¶ä¸»": 6175,
      "ä¹īç¥Ĳ": 6176,
      "ä¸īå®ħ": 6177,
      "æŃ£å½ĵ": 6178,
      "å¤ĦçļĦ": 6179,
      "èīºæľ¯": 6180,
      "æľĪåįģåħ«æĹ¥": 6181,
      "ãģĹãģ¦": 6182,
      "ä¿¡èµĸ": 6183,
      "ä¸ľåįĹ": 6184,
      "èĬ¥": 6185,
      "çī©èµĦ": 6186,
      "æķ°éĩı": 6187,
      "ç«ŁçĦ¶": 6188,
      "èĭĹåŃĹ": 6189,
      "åľ¨æĪĺåĽ½æĹ¶ä»£": 6190,
      "ä¸Ĭä¸ĭ": 6191,
      "ç»ĩçĶ°åĨĽçļĦ": 6192,
      "åı¯è°ĵ": 6193,
      "è½¬ä¸º": 6194,
      "æ£ĭ": 6195,
      "æħİ": 6196,
      "è¯´æ³ķç§°": 6197,
      "æĺ¥æĹ¥å±±åŁİ": 6198,
      "çĶŁäº§": 6199,
      "æķ°åįģ": 6200,
      "æ¼«": 6201,
      "åľ¨åºĨéķ¿": 6202,
      "åĲİèĢħ": 6203,
      "åĽ½äº²": 6204,
      "é¢ĨçļĦ": 6205,
      "æ´¾å¾Ģ": 6206,
      "åıĤè§ģ": 6207,
      "å°ģåľ°": 6208,
      "å¨ĺ": 6209,
      "å¤§åĴĮå®Ī": 6210,
      "ç²¾ç¥ŀ": 6211,
      "ä¸īæĸ¹åİŁ": 6212,
      "å¤§ç¤¾": 6213,
      "ä¹īæĹ¶": 6214,
      "æĶ»çģŃ": 6215,
      "åĪĨåĽ½": 6216,
      "ä¸¤åįĥ": 6217,
      "ç»ĩçĶ°ä¿¡éķ¿åľ¨": 6218,
      "èį·": 6219,
      "åĨĽäºĭè¡ĮåĬ¨": 6220,
      "åĲ¦å®ļ": 6221,
      "åŁĭä¼ı": 6222,
      "ä¹ĭç¥ĸ": 6223,
      "åľ¨ä¿¡éķ¿": 6224,
      "æĶ¿åĪĻ": 6225,
      "çķĳ": 6226,
      "éĥ½æľī": 6227,
      "éĢĥåĪ°": 6228,
      "ä»įæľī": 6229,
      "æ·±åİļ": 6230,
      "çī¹æ®Ĭ": 6231,
      "æľĪäºĮåįģåħ«æĹ¥": 6232,
      "ä¼¤äº¡": 6233,
      "çķłå±±ä¹īå°±": 6234,
      "å°Ŀ": 6235,
      "åĨĮ": 6236,
      "ä¹ĭæĸ¹": 6237,
      "è´Ń": 6238,
      "çļĩå®¤": 6239,
      "éĴµ": 6240,
      "é¾ĻéĢłå¯ºå®¶": 6241,
      "çļĦç§ĢåĲī": 6242,
      "åŁİå°Ĩ": 6243,
      "éĹ¨åı¸": 6244,
      "ç»ıå¸¸": 6245,
      "äº¤éĶĭ": 6246,
      "è¶³åĪ©ä¹īæĿĲ": 6247,
      "å¿ħè¦ģ": 6248,
      "çŃĳåīįåĽ½": 6249,
      "è°£": 6250,
      "äº²çĶŁ": 6251,
      "åıªåī©": 6252,
      "ä¼Ĭè¾¾è¾īå®Ĺ": 6253,
      "ä¸ĩçŁ³é¢Ĩåľ°": 6254,
      "é¸ŁåıĸåŁİ": 6255,
      "å¤§çº¦": 6256,
      "ä»£æĽ¿": 6257,
      "ä¸Ģäºĭ": 6258,
      "å¤§äºº": 6259,
      "åĩºèī²": 6260,
      "éģ¥": 6261,
      "è¶³åĪ©ä¹īæ»¡": 6262,
      "æīĩè°·ä¸ĬæĿīå®¶": 6263,
      "ä¸ĢåŃĹ": 6264,
      "ä¸Ģåº§": 6265,
      "ä¹ĭå®¶": 6266,
      "æĺ¯ä»¥": 6267,
      "ä¹īæĿĲ": 6268,
      "æŃ£ç»Ł": 6269,
      "å¤ĸæł·": 6270,
      "ä¸īå¥½åħĥéķ¿": 6271,
      "å¢ŀæı´": 6272,
      "ç¾½æŁ´åĨĽ": 6273,
      "çļĦä¸ĢåĲĳ": 6274,
      "éĩĩçº³": 6275,
      "æī«éĥ¨": 6276,
      "Ġå¤§": 6277,
      "ä¿¡å¾Ĵ": 6278,
      "è°¨": 6279,
      "æ¯Ļ": 6280,
      "ä½ĨçĶ±äºİ": 6281,
      "å¤ļçļĦ": 6282,
      "æľ¨æ´¥å·Ŀ": 6283,
      "éĢĢåĩº": 6284,
      "éģŃåĪ°äºĨ": 6285,
      "æµħäºķæ°ı": 6286,
      "åłĢå°¾": 6287,
      "æĲŀ": 6288,
      "çīĩæ¡Ĳ": 6289,
      "ç¨³åĽº": 6290,
      "å¹»": 6291,
      "äººå¿ĥ": 6292,
      "åħĥå¼ĺ": 6293,
      "æľ¬æŀª": 6294,
      "çĽ´çĽĽ": 6295,
      "ä¸ĬæĿīæĻ¯èĻİ": 6296,
      "éģŃåıĹ": 6297,
      "ä»ģç§ĳ": 6298,
      "è§īå¾Ĺ": 6299,
      "éķ¿éĹ¨åĽ½": 6300,
      "åīįçĶ°åĪ©éķ¿": 6301,
      "æŁ¿å´İ": 6302,
      "è¢«ç§ĢåĲī": 6303,
      "å°ıè¯´": 6304,
      "èĥľæ°¸": 6305,
      "å¥³åŃĲ": 6306,
      "æ°¸ç¦ĦåĽĽå¹´": 6307,
      "æıĲäº¤": 6308,
      "å¢ŀçĶ°éķ¿": 6309,
      "çļĦåĲįåŃĹ": 6310,
      "ä¹ĭæīĭ": 6311,
      "æĺ¯ä¸Ģä¸ª": 6312,
      "ä¸İåħĦéķ¿": 6313,
      "æľīäºĨ": 6314,
      "äºĮä¿£": 6315,
      "ç³»ç»Ł": 6316,
      "éĤ£åı¤": 6317,
      "éķ¿å®ĹæĪĳéĥ¨æ°ı": 6318,
      "åĬłèĹ¤åĺīæĺİ": 6319,
      "ä¸Ģèĩ´": 6320,
      "ä¸įçł´": 6321,
      "ä»¥åħ¶": 6322,
      "æĶ¿èĻİ": 6323,
      "çŃīåĪ°": 6324,
      "èĻı": 6325,
      "åĳ½åħ¶": 6326,
      "èģĮè´£": 6327,
      "æĶ¶å¤į": 6328,
      "æ»¨æĿ¾åŁİ": 6329,
      "ç®±æł¹": 6330,
      "äºĮæľ¬æĿ¾": 6331,
      "ĠåİĨåı²": 6332,
      "å®ĭ": 6333,
      "æĺ¯æ´»è·ĥäºİ": 6334,
      "éĢĴ": 6335,
      "ç«Ń": 6336,
      "ä½ľèĢħ": 6337,
      "æį®æŃ¤": 6338,
      "å®«éĥ¨": 6339,
      "åĬ¿åĬĽèĮĥåĽ´": 6340,
      "1537": 6341,
      "æľĪäºĮåįģä¸ĥæĹ¥": 6342,
      "ç©¶ç«Ł": 6343,
      "çļĦæĹ¶ä»£": 6344,
      "æŃ£å®¶": 6345,
      "å¹¶åĲĳ": 6346,
      "ç»ĩçĶ°æĸ¹": 6347,
      "è¥¿åĽŃ": 6348,
      "ä¸¤å¹´": 6349,
      "æĪĺåĽ½æĹ¶ä»£èĩ³å®īåľŁæ¡ĥå±±æĹ¶ä»£çļĦæŃ¦å°Ĩ": 6350,
      "è½¬ä»ķ": 6351,
      "çŃīäººçļĦ": 6352,
      "ç¥ĸåħĪ": 6353,
      "å¥īè¡Įäºº": 6354,
      "æľĪåįģåĽĽæĹ¥": 6355,
      "æ¥¯": 6356,
      "çļĦåĲİè£Ķ": 6357,
      "éĶħå²ĽçĽ´èĮĤ": 6358,
      "ä¿±": 6359,
      "è¯¾": 6360,
      "åıĪåħµåį«": 6361,
      "æ®ģ": 6362,
      "æµģäº¡": 6363,
      "æľĪåįģä¸ĥæĹ¥": 6364,
      "èĽ®": 6365,
      "å²Ľæ´¥å®¶ä¹ħ": 6366,
      "ä¸ĬæľĪåŁİ": 6367,
      "åľ¨æĪĺåĽ½": 6368,
      "ä¿¡å¹¸": 6369,
      "éĺĶ": 6370,
      "æĬ«": 6371,
      "é«ĺç»ı": 6372,
      "å¾¡åĿĬ": 6373,
      "éĩĮè§ģä¹īå°§": 6374,
      "èĭ¦æĪĺ": 6375,
      "å¢ŀçĶ°éķ¿çĽĽ": 6376,
      "åľĪ": 6377,
      "ä¸Ńéĥ¨": 6378,
      "å¹¶ä¸įæĺ¯": 6379,
      "ä»İå±ŀäºİ": 6380,
      "éĿ¢ä¸´": 6381,
      "å¹ķèĩ£": 6382,
      "å±ħé¦Ĩ": 6383,
      "çľŁå®Ĺ": 6384,
      "åŁºäºİ": 6385,
      "æ²¦ä¸º": 6386,
      "å®īåĽ½å¯ºæĥłçĲ¼": 6387,
      "çļĦç»ĩçĶ°ä¿¡éķ¿": 6388,
      "çī©é¦Ĩ": 6389,
      "è¿Ļä¸ªæĹ¶åĢĻ": 6390,
      "æ²¿æµ·": 6391,
      "å¼Ĺæ´Ľä¼Ĭæĸ¯": 6392,
      "Ġåĩºèĩª": 6393,
      "ä¸Ģå®¶": 6394,
      "æŃ¤äºº": 6395,
      "éļ¼": 6396,
      "å¯¹ä»ĺ": 6397,
      "æŃ»çļĦ": 6398,
      "è¿ĩäºİ": 6399,
      "åĮĹæĿ¡é«ĺ": 6400,
      "èĻ½ä¸º": 6401,
      "è´£ä»»": 6402,
      "åħĥé¾ŁäºĮå¹´": 6403,
      "ä¿¡æĸ¹": 6404,
      "æŃ£çº¯": 6405,
      "æĸĩæ²»": 6406,
      "ä»»å®ĺ": 6407,
      "èº²": 6408,
      "æĹłå¥Ī": 6409,
      "æĽ¾åľ¨": 6410,
      "åĽ´åĽ°": 6411,
      "çł´è£Ĥ": 6412,
      "å°ĨåĨĽè¶³åĪ©ä¹īæĺŃ": 6413,
      "éķ¿ç¦Ħ": 6414,
      "ä¿¡çļĦ": 6415,
      "ä¹īæĻ´": 6416,
      "æĿ¥æĶ»": 6417,
      "æ²³å°»": 6418,
      "çĽĽéĩį": 6419,
      "éĢĢåħµ": 6420,
      "æµģæµª": 6421,
      "æ·³": 6422,
      "çİĭåŃĲ": 6423,
      "åħŃè§Ĵé«ĺèµĸ": 6424,
      "éĻĲåĪ¶": 6425,
      "çıł": 6426,
      "åĽ½ä¸»": 6427,
      "ç§Ģæ²»": 6428,
      "å®ŀä¼ĳ": 6429,
      "èº«ä¸Ĭ": 6430,
      "åħ¨åĬĽ": 6431,
      "æ¶Ĥ": 6432,
      "æľĪäºĮåįģä¸ĢæĹ¥": 6433,
      "å¼ĵç®Ń": 6434,
      "å¯¨": 6435,
      "é¢ĨåŁŁ": 6436,
      "ãģĺ": 6437,
      "å¸ĤçļĦ": 6438,
      "åİĨç»ı": 6439,
      "ãĤģ": 6440,
      "è¿½è®¨": 6441,
      "ä½Ĳä¹ħéĥ¡": 6442,
      "èĬ¦åĲįæ°ı": 6443,
      "åĲİäºİ": 6444,
      "å±±åľ°": 6445,
      "æĬĽ": 6446,
      "å°ıåİ¿": 6447,
      "ä¹ŁåĽłæŃ¤": 6448,
      "åĽŀåĽ½": 6449,
      "å±ķç¤º": 6450,
      "ä¸ĢåĲĮè¢«": 6451,
      "åĪ«åĬ¨éĺŁ": 6452,
      "ä¹ĭå¿ĥ": 6453,
      "ä¿¡è¡Į": 6454,
      "è¿Ľåıĳ": 6455,
      "åĬ¨èį¡": 6456,
      "ä¸¾åĬ¨": 6457,
      "æľĪäºĮåįģåĽĽæĹ¥": 6458,
      "ä½łä»¬": 6459,
      "çļĦéķ¿çĶ·": 6460,
      "æ¸¯åı£": 6461,
      "åĽ½åºľåı°": 6462,
      "åĩ¶": 6463,
      "äºĮéĥİ": 6464,
      "1616": 6465,
      "æĿ¾å¹³æ¸ħåº·": 6466,
      "éĺ¿éĥ¨": 6467,
      "ç¢İ": 6468,
      "åĩºç¾½åĽ½": 6469,
      "äº§çĶŁäºĨ": 6470,
      "äºĮä½į": 6471,
      "å¦¥": 6472,
      "æľĿèĩ£": 6473,
      "å±ħçĦ¶": 6474,
      "æ³¢ç½Ĺ": 6475,
      "çİĦèķĥ": 6476,
      "åĭŁ": 6477,
      "äºĮåįģåĽĽ": 6478,
      "å®¶åĲį": 6479,
      "æ°ıæĹı": 6480,
      "ä¼°": 6481,
      "ä¹īä¸°": 6482,
      "ä¹īç¨Ļ": 6483,
      "çŃīçŃī": 6484,
      "ä¸ľå¤§å¯º": 6485,
      "ä»¤åħ¶": 6486,
      "åĵ²": 6487,
      "åĨ°": 6488,
      "åº¸": 6489,
      "æŃ£æľ¨": 6490,
      "ä¾¦": 6491,
      "ä¹ħæĶ¿": 6492,
      "å°±è¢«": 6493,
      "æŃ»å®Ī": 6494,
      "ä¼łéĹ»": 6495,
      "é¦ĸé¢Ĩ": 6496,
      "æĤŁ": 6497,
      "é»ĳå·Ŀ": 6498,
      "ç¾İæµĵçļĦ": 6499,
      "é«ĺæ¡¥ç»įè¿Ĳ": 6500,
      "è´±å²³ä¹ĭæĪĺ": 6501,
      "è¥¿åĽŃå¯º": 6502,
      "æĥ©": 6503,
      "èĢģä¸Ń": 6504,
      "åħŃè§Ĵå®ļèµĸ": 6505,
      "çĨĬæľ¬": 6506,
      "åį±éĻ©": 6507,
      "éĵ¶å±±": 6508,
      "åª": 6509,
      "å·Ŀä¹ĭæĪĺä¸Ń": 6510,
      "éĢļè¯´": 6511,
      "143": 6512,
      "éī´ç§į": 6513,
      "1605": 6514,
      "84": 6515,
      "æĹ¶åĪ»": 6516,
      "ä¹īéĺ³": 6517,
      "æĪĲéķ¿": 6518,
      "å¹¶å°Ĩåħ¶": 6519,
      "åĪ°æĿ¥": 6520,
      "äºķæ°ı": 6521,
      "çľŁéĩĮ": 6522,
      "ä¸įè¿ĩæĺ¯": 6523,
      "å¾·å·Ŀå®¶åħī": 6524,
      "å©¿åħ»åŃĲ": 6525,
      "è¸ª": 6526,
      "å£¬çĶŁ": 6527,
      "ä¸įå¹¸": 6528,
      "å¹³è´º": 6529,
      "éĽ¾": 6530,
      "æ·±åıĹ": 6531,
      "èĽĩ": 6532,
      "å®¶çº¹": 6533,
      "åŁİéĻ·èĲ½": 6534,
      "ä¹īéķ¿": 6535,
      "æłı": 6536,
      "æłĸ": 6537,
      "èĪħ": 6538,
      "ãĤı": 6539,
      "èģĶçĽŁ": 6540,
      "æľĪåįģä¸ĢæĹ¥": 6541,
      "å¯¹ç«ĭçļĦ": 6542,
      "æļĹéĢļ": 6543,
      "å¼Ĥè¯´": 6544,
      "åĢŁæŃ¤": 6545,
      "èĤ¥åĲİåĽ½": 6546,
      "åĲİèĹ¤åŁºæ¬¡": 6547,
      "å¾¡é¦Ĩä¹ĭä¹±": 6548,
      "å¤§å¹ħ": 6549,
      "æĪĺåīį": 6550,
      "å¯Ŀ": 6551,
      "åĩºçīĪ": 6552,
      "ä¸ĭæĹ¬": 6553,
      "æľĿæ¯Ķ": 6554,
      "å¾¡åĨħ": 6555,
      "åĪ¶çļĦ": 6556,
      "æ°´æĪ·": 6557,
      "1539": 6558,
      "çĽĳæĬ¤": 6559,
      "åıĳèµ·æĶ»åĩ»": 6560,
      "æľĿæ¯Ķå¥Ī": 6561,
      "ä¸ºåĲİ": 6562,
      "åºĬ": 6563,
      "å¤§å®«": 6564,
      "ä¹īå°±": 6565,
      "éģģ": 6566,
      "æĮ½": 6567,
      "é«ĺå¸Ī": 6568,
      "æŃ»ä¼¤": 6569,
      "è¥¿çıŃ": 6570,
      "éĺŁä¼į": 6571,
      "èĹ¤åİŁæ°ı": 6572,
      "å±¡æ¬¡": 6573,
      "æ»ĭè´º": 6574,
      "è¥¿çıŃçīĻ": 6575,
      "å®¶åħī": 6576,
      "ç»Ĩå·Ŀæ¾Ħåħĥ": 6577,
      "è®©ä¸İ": 6578,
      "çĲĨè§£": 6579,
      "ä¿¡æµĵçļĦ": 6580,
      "æľĪäºĮåįģäºĶæĹ¥": 6581,
      "å®¤çĶºå¹ķåºľç¬¬": 6582,
      "ä¼ĺç§Ģ": 6583,
      "åįļçī©é¦Ĩ": 6584,
      "åľ¨ä»ĸ": 6585,
      "åľ¨åĨħçļĦ": 6586,
      "ä¸Ńè¢«": 6587,
      "ä¹īå°ļ": 6588,
      "å®Ĺæ²»": 6589,
      "æ»´": 6590,
      "ç»ĵåĲĪ": 6591,
      "çºªå¿µ": 6592,
      "é¥ŃçĶ°": 6593,
      "æ°ıæ²»": 6594,
      "åĩºéĿ¢": 6595,
      "åĩºå¸Ń": 6596,
      "åĲĳå®¶åº·": 6597,
      "è¶³åĪ©ä¹īç¨Ļ": 6598,
      "éĺ²æŃ¢": 6599,
      "æİ¨è¡Į": 6600,
      "å®ĮæĪĲäºĨ": 6601,
      "æľĪåįģåħŃæĹ¥": 6602,
      "æī©å±ķ": 6603,
      "çºªä¼ĬåĽ½": 6604,
      "æĦıåĳ³çĿĢ": 6605,
      "çĲµçĲ¶æ¹ĸ": 6606,
      "çļĦè®°å½ķ": 6607,
      "ä¸Ģçīĩ": 6608,
      "éķ¿æĿŁ": 6609,
      "æĪĲå°±": 6610,
      "æĸ¹å¹¿": 6611,
      "æĸ¹éĴĪ": 6612,
      "é«ĺåĿĤ": 6613,
      "éĢļå¾Ģ": 6614,
      "åħŃæ³¢ç½Ĺ": 6615,
      "èĤī": 6616,
      "è¿ŀç»Ń": 6617,
      "è¾ŀä¸ĸ": 6618,
      "ç»ĵæĿŁåĲİ": 6619,
      "éĵĥæľ¨éĩį": 6620,
      "ä¹īæ¾Ħ": 6621,
      "é¢Ĩæ°ĳ": 6622,
      "ãģ°": 6623,
      "å½ĵå®¶": 6624,
      "æ¯ĽåĪ©æĸ¹": 6625,
      "äº¦äºİ": 6626,
      "åħ¬å¼Ģ": 6627,
      "å¤Ħç½®": 6628,
      "æĶ¹åħĥ": 6629,
      "ä¿¡çİĦçļĦ": 6630,
      "è¨Ģç»§": 6631,
      "çĬ¶åĨµ": 6632,
      "æİ¨ä¸¾": 6633,
      "1530": 6634,
      "1533": 6635,
      "1534": 6636,
      "1535": 6637,
      "å¤©æŃ£åįģåĽĽå¹´": 6638,
      "æĶ»éĻ·äºĨ": 6639,
      "æ¸ħåĴĮæºĲæ°ı": 6640,
      "ä¹ĭåĬŁ": 6641,
      "ä¹ĭæ¯į": 6642,
      "ä»£çļĦ": 6643,
      "ä»£å®¶çĿ£": 6644,
      "ä»ĸå°Ĩ": 6645,
      "éĩİçĶ°": 6646,
      "åĽĽçĶ·": 6647,
      "åıĺæĪĲ": 6648,
      "éĤ£äºĽ": 6649,
      "é¾ĻéĢłå¯ºæ°ı": 6650,
      "åıĸå¾ĹäºĨ": 6651,
      "çļĦäºĭæĥħ": 6652,
      "ä¸ºä»Ģä¹Ī": 6653,
      "ä¸Ģè¯į": 6654,
      "åĨĽåĬŁ": 6655,
      "èĢĮä¸į": 6656,
      "ä¹Łå°±": 6657,
      "å®ĩæ²»": 6658,
      "æ¡ĳåĲį": 6659,
      "éļ¼äºº": 6660,
      "Ġåľ¨": 6661,
      "åĲı": 6662,
      "å¤§å±ħå£«": 6663,
      "åīįéĶĭ": 6664,
      "è¿Ļåº§": 6665,
      "é«ĺçĶ°": 6666,
      "èĩ³å°ĳ": 6667,
      "æĬ¤éĢģ": 6668,
      "åħ´åħĥ": 6669,
      "å¹¸æĿĳ": 6670,
      "åĳĬçŁ¥": 6671,
      "å»ºç«ĭäºĨ": 6672,
      "ä¸ºåĲį": 6673,
      "è¿ĽäºĨ": 6674,
      "ä¸°èĩ£å®¶çļĦ": 6675,
      "åĩłä¸ª": 6676,
      "å¢ĵæīĢ": 6677,
      "æĻ®éģį": 6678,
      "å·ĿçļĦ": 6679,
      "ä»ĸåıĪ": 6680,
      "äºĮåįĥ": 6681,
      "æŀ¢": 6682,
      "æµģçļĦ": 6683,
      "çĪ±åŃ£": 6684,
      "æľĪäºĮåįģä¸īæĹ¥": 6685,
      "å¨¶äºĨ": 6686,
      "ä¸Ńå°Ĩ": 6687,
      "è´Ŀ": 6688,
      "å±±æ¢¨": 6689,
      "å±±éºĵ": 6690,
      "ä¸ĭåĲĳ": 6691,
      "ãģĿ": 6692,
      "äºĮä¸ĩ": 6693,
      "ä½Ĩåħ¶": 6694,
      "å¦¾": 6695,
      "ä½įåĪĹ": 6696,
      "éĢļäº¤": 6697,
      "ç»Ļä»ĸ": 6698,
      "ä¸ĩçŁ³çļĦ": 6699,
      "å¤§åĿĤåĨ¬ä¹ĭéĺµ": 6700,
      "è°Ĺè¨Ģ": 6701,
      "è¥¿ä¹¡": 6702,
      "1611": 6703,
      "äº¦ä¸º": 6704,
      "æĸ°å®«": 6705,
      "æĿĢåħ¥": 6706,
      "ä¾¿åľ¨": 6707,
      "çĽ®åīį": 6708,
      "è°ĭæ±Ĥ": 6709,
      "éĺ¿æ³¢åĽ½": 6710,
      "èĪŀåı°": 6711,
      "85": 6712,
      "ä¼½": 6713,
      "ä¸İå¤§": 6714,
      "ä¸¤æ´¾": 6715,
      "ç»§æī¿å®¶ä¸ļ": 6716,
      "çº²æĪĲ": 6717,
      "éħ·": 6718,
      "ä»ħä»ħ": 6719,
      "æľ¬å¤ļæŃ£ä¿¡": 6720,
      "æĹ¢çĦ¶": 6721,
      "æī¶æĮģ": 6722,
      "ä¿ĺèĻı": 6723,
      "åħ¹": 6724,
      "ä¸ºæĢ»å¤§å°Ĩ": 6725,
      "ä¸Ńéĩİ": 6726,
      "æĬĳ": 6727,
      "é¢ľ": 6728,
      "æĿ¥æı´": 6729,
      "ä¸ľæĿ¡": 6730,
      "æĹłäºĭ": 6731,
      "å¼ŁåŃĲ": 6732,
      "å¤ĦåĪĨ": 6733,
      "çłĤ": 6734,
      "åĨĻéģĵ": 6735,
      "è¶ģçĿĢ": 6736,
      "æĺİæ²»ç»´æĸ°": 6737,
      "ä¸Ģè¯´ä¸º": 6738,
      "åī²æį®": 6739,
      "çľŁéĩĮè°·": 6740,
      "çļĦæĶ»åĩ»": 6741,
      "ä¿¡åĲĽ": 6742,
      "åľ°éľĩ": 6743,
      "æ¬¡å·Ŀä¸Ńå²Ľ": 6744,
      "çĽ´èĩ£": 6745,
      "èģª": 6746,
      "ä¸ĥæľ¬æŀª": 6747,
      "å²©ä»ĵ": 6748,
      "éĿĻåĨĪåİ¿": 6749,
      "ç§Ģä¿¡": 6750,
      "æĸĩåŃĹ": 6751,
      "æīĢèĹı": 6752,
      "è½¯": 6753,
      "èĲ©": 6754,
      "ä¹¦ä¸Ń": 6755,
      "çĶºçļĦ": 6756,
      "çľŁçļĦ": 6757,
      "çĻ½äºķ": 6758,
      "å°¼åŃĲèĥľä¹ħ": 6759,
      "éĴĵ": 6760,
      "çīĩä»ĵ": 6761,
      "è¡Ģç¼ĺ": 6762,
      "åĪºæĿĢ": 6763,
      "åĲįæĬ¤å±ĭåŁİ": 6764,
      "æª": 6765,
      "ä¹ĭé¦ĸ": 6766,
      "ä¸İå¹ķåºľ": 6767,
      "åĽłçĪ¶äº²": 6768,
      "å¹³å®¶": 6769,
      "æĿĳäºķ": 6770,
      "çľŁå®ŀ": 6771,
      "è¶³åĪ©ä¹īè§Ĩ": 6772,
      "å¤§åĨħæĶ¿å¼ĺ": 6773,
      "ä»ķç½®": 6774,
      "çĶ²æĸĲçļĦ": 6775,
      "éĻ·åħ¥äºĨ": 6776,
      "ç®Ģåįķ": 6777,
      "äº¬åħĨå®¶": 6778,
      "é¡½å¼º": 6779,
      "åĽ½ä¹ħ": 6780,
      "ä¸įæĦ¿": 6781,
      "éĥ½å¸Ĥ": 6782,
      "åħĪç¥ĸ": 6783,
      "æľĿä»ĵåŃĿæĻ¯": 6784,
      "1609": 6785,
      "ç¢§": 6786,
      "å½ĵåľ°çļĦ": 6787,
      "æĪĲçº²": 6788,
      "è¶³åĪ©æĮģæ°ı": 6789,
      "çĭ±": 6790,
      "æķĻèĤ²": 6791,
      "åĽ´åŁİ": 6792,
      "åĨ³æĦı": 6793,
      "éĺ²çº¿": 6794,
      "æĸ½è¡Į": 6795,
      "å®¹æĺĵ": 6796,
      "åĽ°éļ¾": 6797,
      "é¢ĩä¸º": 6798,
      "çĶ²å·ŀå¾ģä¼Ĳ": 6799,
      "å¯Ĵæ²³": 6800,
      "å¥łå®ļäºĨ": 6801,
      "æĥ¯ä¾ĭ": 6802,
      "ä¸ĭåħĭä¸Ĭ": 6803,
      "åĪ©éķ¿": 6804,
      "è¥¿åįĹ": 6805,
      "ä¸¤å¤§": 6806,
      "å§ĭäºİ": 6807,
      "æ°¸ç¦Ħä¸ĥå¹´": 6808,
      "è®©åĩº": 6809,
      "æıĲåįĩ": 6810,
      "çķłå±±æĶ¿éķ¿": 6811,
      "å®¶æĹıçļĦ": 6812,
      "å¤ĩåīįåĽ½": 6813,
      "ä¸įå·²": 6814,
      "å®Īå°±": 6815,
      "æĿ¥è¶Ĭ": 6816,
      "æĶ¶å½ķ": 6817,
      "æĤĶ": 6818,
      "å±ķçİ°äºĨ": 6819,
      "çĪĨåıĳäºĨ": 6820,
      "åĩºçİ°åľ¨": 6821,
      "æŁ³æľ¬": 6822,
      "åĽ°å¢ĥ": 6823,
      "èĶļ": 6824,
      "æĹ¥åľ¨": 6825,
      "å¯ºåĨħ": 6826,
      "èµĸçº²": 6827,
      "åħ¬éĩĮ": 6828,
      "æµ·è·¯": 6829,
      "ä»¬çļĦ": 6830,
      "æ¶Īå¤±": 6831,
      "åĭĩå£«": 6832,
      "çĭ¬èĩª": 6833,
      "å·©åĽºäºĨ": 6834,
      "åĤ¬ä¿ĥ": 6835,
      "å¤§æĺİ": 6836,
      "å¤§èĩ´": 6837,
      "çĦ¦": 6838,
      "äº¦åľ¨": 6839,
      "è¶³åĪ©ä¹īæĻ´": 6840,
      "åĭī": 6841,
      "æĤ¦": 6842,
      "é¹«": 6843,
      "èı±": 6844,
      "1531": 6845,
      "åįıè®®": 6846,
      "å¤ªéĺģè®°": 6847,
      "èŁ": 6848,
      "å¥¢": 6849,
      "å¸½": 6850,
      "åº·èĥ¤": 6851,
      "åĮĹæĸ¹": 6852,
      "æľ¨æĿĳéĩį": 6853,
      "ç»ŁèĻİ": 6854,
      "åĬłåħ¥è¥¿åĨĽ": 6855,
      "ç¬¬äºĮä»£": 6856,
      "æ±łçĶ°è¾īæĶ¿": 6857,
      "æĹĭåį³": 6858,
      "ä¸įåłª": 6859,
      "ä»£ä»£": 6860,
      "è¿Ļå°±æĺ¯": 6861,
      "è·³": 6862,
      "æĹ¥æľ¬äºº": 6863,
      "æ°¸ç¦ĦåħŃå¹´": 6864,
      "å°ļé¡º": 6865,
      "å§¿æĢģ": 6866,
      "an": 6867,
      "ä¸Ģå®«": 6868,
      "è¢«èµĲè±«": 6869,
      "ä»ĸè¿ĺ": 6870,
      "æŀŃ": 6871,
      "ä»İä¸īä½į": 6872,
      "äºĶåįĥçŁ³": 6873,
      "è¶ĬæĿ¥è¶Ĭ": 6874,
      "åĮĹæĿ¡æĹ¶": 6875,
      "æºº": 6876,
      "æķĮå°Ĩ": 6877,
      "ä¼Ĭè¾¾ç¨Ļå®Ĺ": 6878,
      "å®£åĳĬ": 6879,
      "æľĢä¸Ĭæ°ı": 6880,
      "1527": 6881,
      "å«ģç»ĻäºĨ": 6882,
      "åº¶åŃĲ": 6883,
      "è¯¢éĹ®": 6884,
      "æ»ŀçķĻ": 6885,
      "ä¸ºæŃ£å®¤": 6886,
      "åĩ½": 6887,
      "æĬ¬": 6888,
      "éĹ¹": 6889,
      "å²ĽåİŁ": 6890,
      "å¤©æŃ£ä¹Ŀå¹´": 6891,
      "æ¸ħå·ŀ": 6892,
      "è¯¸è¯´": 6893,
      "çĸĹ": 6894,
      "éģ£ä½¿": 6895,
      "äºĮæĿ¡å¾¡æīĢ": 6896,
      "ç¥ŀä¿Ŀéķ¿": 6897,
      "æĦ¤æĢĴ": 6898,
      "åĲĵ": 6899,
      "èĢķ": 6900,
      "ä¹īæ²»": 6901,
      "æ¸Ķ": 6902,
      "æŃ¦çĶ°åħĥ": 6903,
      "æ¯ĽåĪ©éļĨåħĥ": 6904,
      "æĿĥåĬ¿": 6905,
      "åı²è¿¹": 6906,
      "çĪ¶äº²çļĦ": 6907,
      "éĺ²éķ¿": 6908,
      "è°ĥè§£": 6909,
      "å¤§ä½Ľæ®¿": 6910,
      "ä¸Ńå·Ŀæ¸ħç§Ģ": 6911,
      "èļ": 6912,
      "æľ¬åĽ½": 6913,
      "è¢«èªīä¸º": 6914,
      "æ²³éĩİæ°ı": 6915,
      "1612": 6916,
      "éĢĢåį´": 6917,
      "åı·åı¬": 6918,
      "æľ¬åºĦç¹ģéķ¿": 6919,
      "åŁİéĹ¨": 6920,
      "éķ¿å¹´": 6921,
      "éķ¿è¾¾": 6922,
      "æĶ¿å®ŀ": 6923,
      "åħ«åįĥ": 6924,
      "140": 6925,
      "çª¥": 6926,
      "éķĩå®ŀ": 6927,
      "çļĦè¡Įä¸º": 6928,
      "å¤©ç«¥": 6929,
      "åħ¶åĲį": 6930,
      "åīįè¿°": 6931,
      "éĩįä¼¤": 6932,
      "çĶŁçĪ¶": 6933,
      "æįĲ": 6934,
      "å¾¡éĹ¨": 6935,
      "è¿Ļä¸Ģæ¬¡": 6936,
      "æ±ŁæĪ·æĹ¶ä»£åĪĿæľŁ": 6937,
      "èħķ": 6938,
      "åĲ¬åĪ°": 6939,
      "çŀ¬": 6940,
      "åĪ«æīĢéķ¿æ²»": 6941,
      "æľ½æľ¨": 6942,
      "èĽ°å±ħ": 6943,
      "åľ¨æĪĺåľºä¸Ĭ": 6944,
      "éķ¿åħĦ": 6945,
      "è¿ĻæĹ¶åĢĻ": 6946,
      "çļĦæĪĺçķ¥": 6947,
      "çŁŃæļĤ": 6948,
      "ä¿¡éķ¿åĮħåĽ´ç½ĳ": 6949,
      "ç»ĩéĥ¨": 6950,
      "åĮĸä¸º": 6951,
      "åĪĽç«ĭ": 6952,
      "å¡Ļ": 6953,
      "çĶĺåĪ©": 6954,
      "1500": 6955,
      "å½ĵåľº": 6956,
      "åĽĽäºº": 6957,
      "çĽĽçļĦ": 6958,
      "æĭ¥æĪ´": 6959,
      "1606": 6960,
      "æī©å¼łåĬ¿åĬĽ": 6961,
      "ç¬¬ä¸īåŃĲ": 6962,
      "æīĢè°ĵçļĦ": 6963,
      "æŃ¼çģŃ": 6964,
      "æĪĺèĥľ": 6965,
      "è¾Ľ": 6966,
      "ä½Ĩä»ĸ": 6967,
      "è¿ĽèĢĮ": 6968,
      "äºĭåħĪ": 6969,
      "ä¼ĬèĹ¤": 6970,
      "åıĬåħ¶åŃĲ": 6971,
      "èµ·çļĦ": 6972,
      "äº¦ä»¥": 6973,
      "åıĸèĥľ": 6974,
      "äº¤çĶ±": 6975,
      "æĢ»æĶ»": 6976,
      "åĬłè´ºä¸ĢåĲĳä¸ĢæıĨ": 6977,
      "æİ¥åıĹäºĨ": 6978,
      "æĪĺè´¥åĲİ": 6979,
      "èĩ£æľįäºİ": 6980,
      "è¤Ĵ": 6981,
      "ä»¥æĿ¥çļĦ": 6982,
      "å¥Ĺ": 6983,
      "ä¸ĭèµĲ": 6984,
      "çĶŁæ¶¯": 6985,
      "å¹³éĩİ": 6986,
      "éĥ½æ²¡æľī": 6987,
      "æĿ¾å°¾": 6988,
      "åĽĽå¤Ħ": 6989,
      "æİ¥ä»»": 6990,
      "å¹¿éĹ¨": 6991,
      "åĲĦä¸ª": 6992,
      "ç®¡è¾ĸ": 6993,
      "çİĭæľĿ": 6994,
      "æ®¿åĨĽ": 6995,
      "è®¾æĸ½": 6996,
      "çĻ»åľº": 6997,
      "æ²¼çĶ°åŁİ": 6998,
      "åĭ¾ç»ĵ": 6999,
      "ãĢĪ": 7000,
      "ãĢī": 7001,
      "ä¹Ļ": 7002,
      "å¹´ä»½": 7003,
      "å±ł": 7004,
      "ä¿¡å®ļ": 7005,
      "èĢĢ": 7006,
      "æĸĩåºĵ": 7007,
      "æĳĦæĶ¿": 7008,
      "1523": 7009,
      "é¸Łå±ħåħĥå¿ł": 7010,
      "ä¸ľéĥ¡": 7011,
      "èµĸæĪ¿": 7012,
      "çĽĽä¿¡": 7013,
      "å«¡éķ¿åŃĲ": 7014,
      "å¼ķèµ·äºĨ": 7015,
      "æ¨ªçĶ°": 7016,
      "åı¬å¼Ģ": 7017,
      "æĲŃ": 7018,
      "èµŀèµı": 7019,
      "éĺ´è°ĭ": 7020,
      "1467": 7021,
      "æ£®åı¯æĪĲ": 7022,
      "æŃ£äº²çĶºå¤©çļĩ": 7023,
      "æĸ¹å¹¿å¯º": 7024,
      "æľĹ": 7025,
      "ä¹ĭåĬ¿": 7026,
      "å¤§æĪĺ": 7027,
      "æŃ¦èĹ¤": 7028,
      "é«ĺæ¢¨": 7029,
      "æĸĩé¾Ł": 7030,
      "æı½": 7031,
      "å®īæ²»": 7032,
      "ä¸¤åĲį": 7033,
      "æº¯": 7034,
      "æĦıè¯Ĩ": 7035,
      "çł²": 7036,
      "æľįä»İ": 7037,
      "ä¹ĥèĩ³": 7038,
      "1508": 7039,
      "éľ¸ä¸»": 7040,
      "ä»¥æŃ¤ä¸º": 7041,
      "æľ¨æ³½éķ¿æĶ¿": 7042,
      "âĶģâĶģ": 7043,
      "ä¸ĢåŃĺ": 7044,
      "ä¸ĬæĿ¡": 7045,
      "ä¸ľçħ§": 7046,
      "éĥ½ä¸į": 7047,
      "éªĤ": 7048,
      "æİ¨åĬ¨": 7049,
      "å®ªæĶ¿": 7050,
      "åĨ²çĶ°": 7051,
      "æ¯ĽåĪ©åħĥå°±çļĦ": 7052,
      "ä¸°åīįåĽ½": 7053,
      "å¤©å®Īéĺģ": 7054,
      "äºĺ": 7055,
      "æĹ¶è¢«": 7056,
      "èĩªçĶ±": 7057,
      "åİŁæĿ¥": 7058,
      "æĸĩåŃ¦": 7059,
      "è¿½æĶ¾": 7060,
      "ç¾½æŁ´ç§Ģéķ¿": 7061,
      "åĨĻä¿¡": 7062,
      "é¥ŃçĽĽ": 7063,
      "æĥħåĨµä¸ĭ": 7064,
      "ç¼ĺæķħ": 7065,
      "ä¼º": 7066,
      "è¯ı": 7067,
      "æĮĸ": 7068,
      "ç»ıçķ¥": 7069,
      "åģļåĩº": 7070,
      "æľĪäºĮåįģåħŃæĹ¥": 7071,
      "æī§æİĮ": 7072,
      "å¤§åıĭä¹īç»Ł": 7073,
      "åįģæ²³åŃĺä¿Ŀ": 7074,
      "ä¸Ģéĥ¨åĪĨ": 7075,
      "ä¸Ģæ®µ": 7076,
      "èĥĦ": 7077,
      "åĲįåı«": 7078,
      "æľ¬å§ĵ": 7079,
      "é¢Ĩåħµ": 7080,
      "åĽłåĬŁ": 7081,
      "è¿ĳä»£": 7082,
      "ä¿Ŀéļľ": 7083,
      "åĨ³è£Ĥ": 7084,
      "åĮĸçļĦ": 7085,
      "ä¹Ŀå·ŀå²Ľ": 7086,
      "åĲīå·Ŀå¹¿å®¶": 7087,
      "æ¨±äºķ": 7088,
      "è¿Ĥ": 7089,
      "ä¹ĭæľº": 7090,
      "éķ¿æķĻ": 7091,
      "åĨĽå¸Ī": 7092,
      "ç¬ĥ": 7093,
      "éĥ¡å±±": 7094,
      "æĿĥéĻĲ": 7095,
      "çĽĽæĹ¶": 7096,
      "æµ·è´¼": 7097,
      "æĺĮä¸°": 7098,
      "åħ¼å®ļ": 7099,
      "å²©å±ĭåŁİ": 7100,
      "å±±åĨħä¸ĬæĿīæ°ı": 7101,
      "æ¯ıå¹´": 7102,
      "éķ¿å°¾æĻ¯æĺ¥": 7103,
      "çļĦå½±åĵį": 7104,
      "å¹´é¾Ħ": 7105,
      "å¤§åįĬ": 7106,
      "ä¿¡äº²": 7107,
      "æĺ¯æĮĩ": 7108,
      "äººåĳĺ": 7109,
      "æĺİå¾·": 7110,
      "èµĸä¹ĭ": 7111,
      "æ²¡èĥ½": 7112,
      "ä»ģäº²çİĭ": 7113,
      "çļĦå±±": 7114,
      "ä¸Ģéĥİ": 7115,
      "æĺ¯çĶ±": 7116,
      "å¼ĳ": 7117,
      "è¿ĩæĿ¥": 7118,
      "æ¸ħæ¥ļ": 7119,
      "åıĤè®®": 7120,
      "èĻİæĺĮ": 7121,
      "é¥¥": 7122,
      "åĽ¢ç»ĵ": 7123,
      "å·¥äºĭ": 7124,
      "é¹¿ä¹ĭä»ĭ": 7125,
      "èµ¤æĿ¾æ°ı": 7126,
      "ä¼Ĭè±«åĽ½": 7127,
      "åĭĺåĬ©": 7128,
      "å£¬åįĪ": 7129,
      "ä¾ĦåŃĲ": 7130,
      "ä¹Ŀé¬¼åĺīéļĨ": 7131,
      "å£ķæ²Ł": 7132,
      "ãĢħ": 7133,
      "å¤§åĸľ": 7134,
      "è¯«": 7135,
      "åĩºåĬ¨": 7136,
      "å°ıè±Ĩ": 7137,
      "ä¸°èĩ£æĸ¹": 7138,
      "å¥³æĢ§": 7139,
      "å¼ĥåŁİ": 7140,
      "åĲİæĶ¹åĲį": 7141,
      "å¤§æ²³åĨħ": 7142,
      "åīįå¤ķ": 7143,
      "1610": 7144,
      "åħ»åĹ£åŃĲ": 7145,
      "æĶ¶èĹı": 7146,
      "çľĭåĩº": 7147,
      "é¸£æµ·": 7148,
      "çļĦåİĨåı²": 7149,
      "åį§": 7150,
      "åľ¨å½ĵæĹ¶": 7151,
      "æľ¬æĺ¯": 7152,
      "è¿Ļä¹Ł": 7153,
      "å°±ä¼ļ": 7154,
      "æĿ¾æľ¬": 7155,
      "ä¸¤ä»£": 7156,
      "åıĪè¢«": 7157,
      "äºĮåįģå¹´": 7158,
      "åı¦ä¸Ģä¸ª": 7159,
      "å°ĳå°Ĩ": 7160,
      "åĪ«å½ĵ": 7161,
      "å¹¼å¹´": 7162,
      "åģļäºĨ": 7163,
      "æī§æĿĥ": 7164,
      "åħħåĪĨ": 7165,
      "çļĦè¡ĮåĬ¨": 7166,
      "çļĦæł¸å¿ĥ": 7167,
      "åįģä½Ļ": 7168,
      "åĲīæĻ´": 7169,
      "åĲĮæ¯į": 7170,
      "å¯¹åĨ³": 7171,
      "äºĶåįĥäºº": 7172,
      "æĹłåıĮ": 7173,
      "æģŃ": 7174,
      "æĽ¾æł¹": 7175,
      "è´ŀæ²»": 7176,
      "éķ¿å°¾å®¶": 7177,
      "ä¼Ĭä¸ľæ°ı": 7178,
      "ä¹īæĺİ": 7179,
      "èĥ¶": 7180,
      "çĶ±åĪ©": 7181,
      "æĻ¯éļĨ": 7182,
      "ç§°åħ¶": 7183,
      "åĪĨç¦»": 7184,
      "å·²æĺ¯": 7185,
      "æİ¥æĶ¶": 7186,
      "äºīè®®": 7187,
      "å²ģä¹ħ": 7188,
      "ä»įä»¥": 7189,
      "åĽ¾ä¹¦": 7190,
      "è°ĭæĿĢ": 7191,
      "è¯¦æĥħ": 7192,
      "æ¸Ĳæ¸Ĳ": 7193,
      "å¯Ĵæ²³æ±Ł": 7194,
      "79": 7195,
      "æŃ¤å¤Ħ": 7196,
      "åĲīæĶ¿": 7197,
      "å®īçĶ°": 7198,
      "å®īç¥¥": 7199,
      "æĻ¯å®¶": 7200,
      "èµĸéļĨ": 7201,
      "åĪĨåħµ": 7202,
      "ç³Ł": 7203,
      "å¼ºè¡Į": 7204,
      "çĻ»ä¸Ĭ": 7205,
      "åĭĺåĲĪ": 7206,
      "ä¸īæľ¨åŁİ": 7207,
      "é¡¿æĹ¶": 7208,
      "æ»ĭè´ºåİ¿": 7209,
      "çļĦç¥ŀ": 7210,
      "å¤©çĦ¶": 7211,
      "åĮĹä¹ĭ": 7212,
      "ç¥ĩ": 7213,
      "è¯¸å®¶": 7214,
      "èĹıåĮ¿": 7215,
      "æĬµæĮ¡": 7216,
      "åĨ²éĶĭ": 7217,
      "èĢĮäº¡": 7218,
      "æŃ¤åľ°": 7219,
      "è¡Ļ": 7220,
      "å¹³äºķ": 7221,
      "æĿĳçļĦ": 7222,
      "ä¼łæĿ¥": 7223,
      "ä¸ĥå°¾åŁİ": 7224,
      "éĻ¢çļĦ": 7225,
      "åħµåį«å°ī": 7226,
      "ä¸ĬæĿīè°¦ä¿¡çļĦ": 7227,
      "1607": 7228,
      "æį¢åıĸ": 7229,
      "åħħå½ĵ": 7230,
      "çºłçº·": 7231,
      "åľ¨åŁİ": 7232,
      "æľīåĨĪåŁİ": 7233,
      "å°±è¿Ļæł·": 7234,
      "ä¸°å¯Į": 7235,
      "æĿīåİŁ": 7236,
      "å¤©æŃ£ä¸ĥå¹´": 7237,
      "æĹłçĸĳ": 7238,
      "é©¬åį°": 7239,
      "æľªè§ģ": 7240,
      "ç¿ģ": 7241,
      "ç¼ĸåħ¥": 7242,
      "æ¸©äºķ": 7243,
      "ç«ŀ": 7244,
      "æĶ»èĲ½": 7245,
      "æľĿæĹ¥": 7246,
      "éĥ½åľ¨": 7247,
      "åı¯ä¿¡": 7248,
      "æľ¨éĢł": 7249,
      "æľªè¢«": 7250,
      "æ°¸ç¦Ħåįģå¹´": 7251,
      "å½Ĵåħ¥": 7252,
      "å¼¥ä¸īéĥİ": 7253,
      "åĢŁåı£": 7254,
      "åħ³åİŁä¹ĭæĪĺæĹ¶": 7255,
      "å¥ĭåĬĽ": 7256,
      "1521": 7257,
      "ç²¾éĢļ": 7258,
      "åľŁä½ĲåĽ½": 7259,
      "åĢ¾åĲĳ": 7260,
      "83": 7261,
      "åĲİç§°": 7262,
      "å¤§æŃ£": 7263,
      "å¤§èĹı": 7264,
      "éķ¿å·ŀ": 7265,
      "èµ¢": 7266,
      "åģ¶": 7267,
      "è´Łæĭħ": 7268,
      "åħįéĻ¤": 7269,
      "æł¼å±Ģ": 7270,
      "æ¯įäº²ä¸º": 7271,
      "å®łçĪ±": 7272,
      "ä¹īæŃ¦": 7273,
      "ç«ĭä¸º": 7274,
      "æĺİçĻ½": 7275,
      "åįĹè¿ĳæ±Ł": 7276,
      "å±ŀä¸ĭ": 7277,
      "æĺĮä¿¡": 7278,
      "éĤ£å°±æĺ¯": 7279,
      "å±±åĨħä¸Ģä¸°": 7280,
      "æĺİæĻºåħīç§ĢçļĦ": 7281,
      "çŁ³å·Ŀæķ°æŃ£": 7282,
      "åĮĹéĥ¨çļĦ": 7283,
      "æĬļåħ»": 7284,
      "ä¸İåħ¶ä»ĸ": 7285,
      "ä¹īè¯ł": 7286,
      "æŃ¦èīº": 7287,
      "ä»ĸæĽ¾": 7288,
      "åĲĳå¹ķåºľ": 7289,
      "çľŁæĺ¯": 7290,
      "æķ°çĻ¾": 7291,
      "èĬ±æĬ¼": 7292,
      "æķħèĢĮ": 7293,
      "è§ĤåºĶ": 7294,
      "èĭ±éĽĦ": 7295,
      "çķĻä¸ĭäºĨ": 7296,
      "èĪįå¼ĥ": 7297,
      "åģĩåĲį": 7298,
      "å¤§å°ı": 7299,
      "æĿ¥è¢Ń": 7300,
      "å®¶çĿ£çļĦ": 7301,
      "çº·çº": 7302,
      "æľĪäºĮåįģä¹ĿæĹ¥": 7303,
      "ç®Ģä»ĭ": 7304,
      "æ¯«ä¸į": 7305,
      "ç»µ": 7306,
      "åĲİäºº": 7307,
      "åĲįç§°": 7308,
      "é¢Ĺ": 7309,
      "ä»ĸè¢«": 7310,
      "æĸĩæŃ¦": 7311,
      "æ³ķçļĩ": 7312,
      "ç¡®è¯ģ": 7313,
      "æķħæĦı": 7314,
      "è¡ĢèĦī": 7315,
      "åī¯å°Ĩ": 7316,
      "è°¢ç½ª": 7317,
      "æ®īæŃ»": 7318,
      "æīĢåı¸ä»£": 7319,
      "å¶": 7320,
      "æĿ¯": 7321,
      "ä¸įä¸ĭ": 7322,
      "ä¸įä½ı": 7323,
      "èĩ³å®īåľŁæ¡ĥå±±æĹ¶ä»£": 7324,
      "æĻ¯æĺ¥": 7325,
      "å¤©æŃ£äºĶå¹´": 7326,
      "æĹłè§Ĩ": 7327,
      "æĸ°çº³": 7328,
      "åıĸæ¬¡": 7329,
      "ä»¶äºĭ": 7330,
      "æľĢç»Īåľ¨": 7331,
      "æĴ¤åħµ": 7332,
      "åĨ²åħ¥": 7333,
      "è¿¹éĥ¨": 7334,
      "è·ŁçĿĢ": 7335,
      "æī§æĶ¿": 7336,
      "çĽĲè°·": 7337,
      "ä¼Ĭè±ĨåĽ½": 7338,
      "å®Īå¤ĩçļĦ": 7339,
      "è½¬å°ģèĩ³": 7340,
      "ä¸Īå¤«": 7341,
      "çº·çºŃ": 7342,
      "å¤§åĬŁ": 7343,
      "éķ¿åĨĪ": 7344,
      "æĬ½": 7345,
      "è¿Ļæ®µ": 7346,
      "é«ĺåº¦": 7347,
      "åĪĨåī²": 7348,
      "åįĹæĸ¹": 7349,
      "éĢĥç¦»": 7350,
      "æ¼Ĩ": 7351,
      "å¹¼åŃĲ": 7352,
      "åĥ§åħµ": 7353,
      "çĮĽçĥĪ": 7354,
      "å®¿æķĮ": 7355,
      "éľ¸æĿĥ": 7356,
      "æľ¨ä¸ĭèĹ¤åĲīéĥİ": 7357,
      "å¤¸": 7358,
      "ä¿¡åĲī": 7359,
      "åĨĽè®®": 7360,
      "äºĨè§£": 7361,
      "æľĪçļĦ": 7362,
      "ä¸įç®¡": 7363,
      "æľīåĬŁ": 7364,
      "æ´ª": 7365,
      "ç»§èĢĮ": 7366,
      "è¥¿ä¾§": 7367,
      "çĹķ": 7368,
      "æĤĦ": 7369,
      "æ··æĪĺ": 7370,
      "é¼İ": 7371,
      "æĸ°çĶ°ä¹īè´ŀ": 7372,
      "çī¹åĪ«æĺ¯": 7373,
      "æ·Ģæ®¿": 7374,
      "çĶ±å¸ĥæĥŁ": 7375,
      "åŁİä¸İ": 7376,
      "æĹ¶å¹´": 7377,
      "ç§Ģæ»¡": 7378,
      "æľīåĲį": 7379,
      "åİŁåħĪ": 7380,
      "çĶŁåĳ½": 7381,
      "åĽĽä¸ĩ": 7382,
      "èī°": 7383,
      "è¿ŀè´ŀ": 7384,
      "é¦ĸå¸Ń": 7385,
      "è®¨æŃ»": 7386,
      "çļĦå¤§åĨĽ": 7387,
      "è¿ģå¾Ģ": 7388,
      "å°ıå±±çĶ°ä¿¡": 7389,
      "èĲ¨æĳ©åĽ½": 7390,
      "èĤ¯å®ļ": 7391,
      "å®¶ä¸ŃçļĦ": 7392,
      "ä¸Ģéĵģ": 7393,
      "å¤§ä¸¾": 7394,
      "éķ¿éĢ¸": 7395,
      "åĨĽä¸Ń": 7396,
      "è¾¾å®ī": 7397,
      "ä¹¦éĻ¢": 7398,
      "ä¾¿ä»¥": 7399,
      "éĢĢå®Ī": 7400,
      "æ°¸ç¦Ħåħ«å¹´": 7401,
      "äºīæī§": 7402,
      "åĲ¬ä»İ": 7403,
      "å¢ĵåľ°": 7404,
      "åī¥å¤º": 7405,
      "å¶ĭ": 7406,
      "æĸ¹æ¡Ī": 7407,
      "åĲĮåĥļ": 7408,
      "å¤ļä¸ª": 7409,
      "çĽ¸åıį": 7410,
      "æĥŁæĶ¿": 7411,
      "1528": 7412,
      "åıĳæĮ¥äºĨ": 7413,
      "åĲİè§ģ": 7414,
      "ä¹īå®£": 7415,
      "ä¸īæ³½": 7416,
      "åįģä¹Ŀ": 7417,
      "è¿Ļä¸¤": 7418,
      "å²Ľå·¦è¿ĳ": 7419,
      "åºľåĨħ": 7420,
      "ä¸ĬæĿīæĪ¿": 7421,
      "ç»ŁåĪ¶": 7422,
      "åİĨä»»": 7423,
      "éģĤå°Ĩ": 7424,
      "æ®¿åĲİ": 7425,
      "å±ķçİ°": 7426,
      "æĭĴç»ĿäºĨ": 7427,
      "èĽİ": 7428,
      "æĥ¨éĩį": 7429,
      "çĽ¸èī¯æ°ı": 7430,
      "è§¦æĢĴ": 7431,
      "åĬłæ²»çĶ°": 7432,
      "75": 7433,
      "çļĦå¿ĥ": 7434,
      "ç»¼": 7435,
      "ç»¿": 7436,
      "å¤§çŁ³": 7437,
      "ä¿¡åħī": 7438,
      "èĩªæ²»": 7439,
      "ç»§å®¤": 7440,
      "ç»§æ¶¦": 7441,
      "è¥¿ä¸Ĭ": 7442,
      "åĭĴ": 7443,
      "å¹¸éķ¿": 7444,
      "åħ·è¶³": 7445,
      "ä¹ĺèĥľ": 7446,
      "æĺ¯æĪĺåĽ½æĹ¶ä»£èĩ³æ±ŁæĪ·æĹ¶ä»£åĪĿæľŁçļĦæŃ¦å°Ĩ": 7447,
      "å¹³å®ļäºĨ": 7448,
      "è´¯æĸĩ": 7449,
      "æĸĩæĺİåįģ": 7450,
      "æĮĳæĪĺ": 7451,
      "åĨ²çĶ°çķ·": 7452,
      "çĺ": 7453,
      "åĩī": 7454,
      "æľīéĻĲ": 7455,
      "ä»ĸä¹Ł": 7456,
      "ç«ĭæĪĺåĬŁ": 7457,
      "å¾ģæĪĺ": 7458,
      "æīĵåĢĴ": 7459,
      "æĸĭèĹ¤å®¶": 7460,
      "æľĿå»·çļĦ": 7461,
      "æĹ¥æľ¬æĪĺåĽ½æĹ¶ä»£æŃ¦å°Ĩ": 7462,
      "ãģĹãģŁ": 7463,
      "åŁºçĿ£å¾Ĵ": 7464,
      "æ¯įè¡£ä¼Ĺ": 7465,
      "å¹´å¯Ħ": 7466,
      "æ°ıçħ§": 7467,
      "æĹ¥æł¹": 7468,
      "æľ¬ä¸º": 7469,
      "è¢«ç»ĩçĶ°ä¿¡éķ¿": 7470,
      "èĥľéĩį": 7471,
      "ä½įçļĦ": 7472,
      "åĽŀå¸Ī": 7473,
      "è¾īå¼ĺ": 7474,
      "ä¸īå¥½åĨĽ": 7475,
      "åı¬è§ģ": 7476,
      "åºŁéĻ¤": 7477,
      "1507": 7478,
      "è¿ĩç»§ç»Ļ": 7479,
      "ä»ĻçŁ³ç§Ģä¹ħ": 7480,
      "ä¸ĭéĹ´èµĸ": 7481,
      "çļĦä¸ĭ": 7482,
      "åºĹ": 7483,
      "å¥´": 7484,
      "æĶ¿èĥľ": 7485,
      "è¾»": 7486,
      "ä»»èģĮ": 7487,
      "å¤©æŃ£åįģä¸Ģå¹´": 7488,
      "è¥¿åĮĹ": 7489,
      "å·²æľī": 7490,
      "èį»": 7491,
      "è¿Ļä¸ĢçĤ¹": 7492,
      "å¤©æŃ£åįģäºĶå¹´": 7493,
      "åģľæĪĺ": 7494,
      "åľ¨æŃ¤æľŁéĹ´": 7495,
      "å°ıéĩİéķĩå¹¸": 7496,
      "ä¹ĭè¯·": 7497,
      "äºĨä¸Ģä¸ª": 7498,
      "èĥŀ": 7499,
      "ä¸ĸäºº": 7500,
      "è¥¿æĸ¹": 7501,
      "åħ«çĻ¾": 7502,
      "éĺŁçļĦ": 7503,
      "ç¨Ģ": 7504,
      "å®ĺåĨĽ": 7505,
      "åŁºåľ°": 7506,
      "åģļæ³ķ": 7507,
      "éĢ¼è¿«": 7508,
      "çĽĲåĨ¶": 7509,
      "ç¦ħå¯º": 7510,
      "è¿Ŀåıį": 7511,
      "åħĥçĽĽ": 7512,
      "ä¸°èĩ£ç§Ģéķ¿": 7513,
      "èĪ°": 7514,
      "æ¶¨": 7515,
      "æľĪäºĮåįģäºĮæĹ¥": 7516,
      "åĬłè´ºåĽ½": 7517,
      "1524": 7518,
      "çº¯å¿ł": 7519,
      "æľ¨æĽ¾ä¹īæĺĮ": 7520,
      "âĶĢ": 7521,
      "éķ¿æĿŁæŃ£å®¶": 7522,
      "ä¼Ļ": 7523,
      "ä¸ŃéĹ´": 7524,
      "ä¸ĬæĿĳ": 7525,
      "å¥¸": 7526,
      "å¯¹ä»ĸ": 7527,
      "éĩįè¿Ķ": 7528,
      "æĥ¶": 7529,
      "èµ·ä¹ī": 7530,
      "ä¹ĭæĪĺåĲİ": 7531,
      "éĢļæĬ¥": 7532,
      "ä¼łä¸º": 7533,
      "æİ¥å¾ħ": 7534,
      "ç¼®": 7535,
      "èĲ½åŁİ": 7536,
      "æĺ¾çĦ¶": 7537,
      "ç»ĵåŁİç§Ģåº·": 7538,
      "æĹ¥éĩİå¯ĮåŃĲ": 7539,
      "æĢ¨æģ¨": 7540,
      "æľĭ": 7541,
      "å¹´åı·": 7542,
      "å¼¼": 7543,
      "åľ°åĲį": 7544,
      "è¿Ľèĩ³": 7545,
      "äºĭä¸ļ": 7546,
      "æĿĳå®Ĺ": 7547,
      "ä¾¿å°Ĩ": 7548,
      "å¹¿çº²": 7549,
      "å¤±åĪ©": 7550,
      "çĽŁçº¦": 7551,
      "é¹Ī": 7552,
      "åľŁå²Ĳæ°ı": 7553,
      "å§Ĭå·Ŀ": 7554,
      "çķıæĥ§": 7555,
      "çĽĨåľ°": 7556,
      "æ³¥": 7557,
      "æĮŁ": 7558,
      "165": 7559,
      "åħ´æĪ¿": 7560,
      "ä»Ĭå·Ŀæ°ıçļĦ": 7561,
      "å¯ĮãŃ´": 7562,
      "æİĮç®¡": 7563,
      "èµıè¯Ĩ": 7564,
      "åĦ¿çİīå°±": 7565,
      "ç°Ĺ": 7566,
      "èĽİå´İ": 7567,
      "çļĦæĹ§": 7568,
      "ä¸Ģåĳĺ": 7569,
      "ä¸īéĩį": 7570,
      "æŃ¤ä¹ĥ": 7571,
      "å¤©æŃ£äºĮå¹´": 7572,
      "æĹłåı¯": 7573,
      "èĢħä¸º": 7574,
      "ç´§å¼ł": 7575,
      "åĬŀæ³ķ": 7576,
      "äºĺçĲĨ": 7577,
      "æĹ¥å¤ľ": 7578,
      "ä¸ŃåĬ¡": 7579,
      "å°ĨæĿ¥": 7580,
      "æľīåĲįçļĦ": 7581,
      "ä¸»äºº": 7582,
      "èĩªå¹¼": 7583,
      "ä¹Łå¼Ģå§ĭ": 7584,
      "å§ī": 7585,
      "ç¥·": 7586,
      "è·¨": 7587,
      "åľŁå±ħ": 7588,
      "åĨįèµ·": 7589,
      "åĪ¶éĢł": 7590,
      "å¸Ĥå·Ŀ": 7591,
      "æĪĳåĨĽ": 7592,
      "çķĻåŃĺ": 7593,
      "åŁºæ°ı": 7594,
      "é¾Łå±±": 7595,
      "è´¤æ²»": 7596,
      "çī¹æĿĥ": 7597,
      "éĩįè¦ģæĸĩåĮĸè´¢": 7598,
      "åĽĽåĽ½å¾ģä¼Ĳ": 7599,
      "çŁ¶éĩİ": 7600,
      "èį¯å¸Īå¯º": 7601,
      "åµ": 7602,
      "çļĦåı²æĸĻ": 7603,
      "ä¹ĭéģĵ": 7604,
      "å±±éĹ¨": 7605,
      "ä¹īç»ı": 7606,
      "æĪĲå®ŀ": 7607,
      "æ±Łé©¬": 7608,
      "å»¿": 7609,
      "åıĬæĹ¶": 7610,
      "çł¥": 7611,
      "æİ¥è§¦": 7612,
      "åĲĦåĽ½": 7613,
      "æĪĺæŃ»çļĦ": 7614,
      "èĦĩ": 7615,
      "æķ´ä½ĵ": 7616,
      "åįıåĬĽ": 7617,
      "æ¬§æ´²": 7618,
      "çļĦå¯¹ç«ĭ": 7619,
      "éĩįæĪĲ": 7620,
      "ä¹Łä¼ļ": 7621,
      "åħ³å®¿": 7622,
      "èµĸå¿ł": 7623,
      "åĪĻè¢«": 7624,
      "åħĪè¡Į": 7625,
      "åįĹèĽ®": 7626,
      "å¤ªåŃĲ": 7627,
      "äºīåıĸ": 7628,
      "å®Įå·¥": 7629,
      "ä¿®è¡Į": 7630,
      "ä¿®ç¼®": 7631,
      "åĭĩå°Ĩ": 7632,
      "åģļä¸º": 7633,
      "1526": 7634,
      "åĩ»éĢĢäºĨ": 7635,
      "æĶ¿åŃĲ": 7636,
      "æĽ¹": 7637,
      "åĪĨå¸ĥ": 7638,
      "äº¤å¥½": 7639,
      "åįĬèĹı": 7640,
      "åİĭè¿«": 7641,
      "åįĴå¹´": 7642,
      "èĳ¬ç¤¼": 7643,
      "å²Ĳéĺľåİ¿": 7644,
      "åįĥåı¶æ°ı": 7645,
      "å¤§å¾¡æīĢ": 7646,
      "ä¸ŃåĽ½çļĦ": 7647,
      "è´´": 7648,
      "æĿ¾åīį": 7649,
      "ä»ķå¥ī": 7650,
      "ç²ī": 7651,
      "èĳĹä½ľ": 7652,
      "æºĥè´¥": 7653,
      "åĲĮæĹıçļĦ": 7654,
      "ä¹Įå¸½": 7655,
      "73": 7656,
      "åŁ¼": 7657,
      "åŁİè¢«": 7658,
      "ç§Ł": 7659,
      "ä¸Ĭå±±": 7660,
      "åĽłç´ł": 7661,
      "äº²è¿ĳ": 7662,
      "ä¼łåħ¥": 7663,
      "å¿ĥä¸Ń": 7664,
      "æºĲèµĸ": 7665,
      "åı£ä¹ĭæĪĺ": 7666,
      "ä¹Ŀå·ŀçļĦ": 7667,
      "çħ½": 7668,
      "éļ¶å±ŀäºİ": 7669,
      "åĩĢåľŁçľŁå®Ĺ": 7670,
      "çŃ¿åİŁ": 7671,
      "é³": 7672,
      "åį¡": 7673,
      "æĽ¾åŃĻ": 7674,
      "è¶³åĪ©ä¹īæĺİ": 7675,
      "æĪ¿æĢ»": 7676,
      "æ±ŁæĪ·æĹ¶ä»£çļĦ": 7677,
      "åįĹéĥ¨çļĦ": 7678,
      "å¸ĥéĺµäºİ": 7679,
      "å®ģå¯º": 7680,
      "å°¤åħ¶æĺ¯": 7681,
      "éĻªèĩ£": 7682,
      "ä¸Ģå¤©": 7683,
      "æĹ¶ä»»": 7684,
      "æĹ¶åĪĨ": 7685,
      "èĢĮæĪĲä¸º": 7686,
      "çº½": 7687,
      "æ³Ħ": 7688,
      "ä»ĸä¸º": 7689,
      "çĪ·": 7690,
      "åħ¥åĹ£": 7691,
      "ä¼ĬäºĪ": 7692,
      "è¶ĬæĻº": 7693,
      "åħ¨çĻ»": 7694,
      "æ·»": 7695,
      "æ°¸ç¦ĦäºĶå¹´": 7696,
      "éģĹè¨Ģ": 7697,
      "è¿Ĳè¾ĵ": 7698,
      "åħĥåĴĮåħĥå¹´": 7699,
      "å±Īæľį": 7700,
      "ä¾¦å¯Ł": 7701,
      "çļĦåħµåĬĽ": 7702,
      "çļĦæı´åĨĽ": 7703,
      "çļĦæŃ£å®¤": 7704,
      "ä¹ĭä¸º": 7705,
      "çĶ°è¾¹": 7706,
      "åĲİä¸įä¹ħ": 7707,
      "ä¸ĬåİŁ": 7708,
      "ä¸ľä¾§": 7709,
      "å®īå®ļ": 7710,
      "ç§°èµŀ": 7711,
      "æ¡ĵ": 7712,
      "ç½ķ": 7713,
      "å¾Īå¤§": 7714,
      "çľŁçĶ°å®¶": 7715,
      "1604": 7716,
      "æĤīæķ°": 7717,
      "çļĦå«¡çĶ·": 7718,
      "ä»ĸå¯¹": 7719,
      "å¹¶åĪĹ": 7720,
      "å®Ĺæ»´": 7721,
      "çŁ³äºķ": 7722,
      "è¥¿ä¸īæ²³": 7723,
      "æĹłæķ°": 7724,
      "1613": 7725,
      "åıĪå°Ĩ": 7726,
      "æīĭæĮģ": 7727,
      "æĢ»é¢Ĩ": 7728,
      "çĻ½å·Ŀ": 7729,
      "ä¸ļæŃ£": 7730,
      "è¶ĬåīįçļĦ": 7731,
      "æ¤¿": 7732,
      "éģ¿éļ¾": 7733,
      "éķ¿éĩİåİ¿": 7734,
      "ä¸ĬæĢ»åĽ½": 7735,
      "èĥ¶çĿĢ": 7736,
      "åŁİäºķ": 7737,
      "ä»£è®°": 7738,
      "èĢĮæĿ¥çļĦ": 7739,
      "åĨħçĶ°": 7740,
      "å°ıè°·": 7741,
      "å®Ĺæ°ı": 7742,
      "æľĿçĿĢ": 7743,
      "æį·": 7744,
      "èµĸç»§": 7745,
      "æĹłåĹ£": 7746,
      "æģķ": 7747,
      "èµĦæł¼": 7748,
      "é¾Łäºķ": 7749,
      "é£İæł¼": 7750,
      "çļĦä¸Ģéĥ¨åĪĨ": 7751,
      "çĭ¬çī¹": 7752,
      "ä¸´æµİ": 7753,
      "çĨĬéĩİ": 7754,
      "éĺ´æµģ": 7755,
      "76": 7756,
      "89": 7757,
      "æľīæķĪ": 7758,
      "æŃ£èµĸ": 7759,
      "è¢«æįķ": 7760,
      "ãģ²": 7761,
      "æıŃ": 7762,
      "èĩ³æĪĺåĽ½æĹ¶ä»£": 7763,
      "è§ģçĬ¶": 7764,
      "è¿ĩäºĨ": 7765,
      "çĽ¸äºĴ": 7766,
      "æĮģåĽ½": 7767,
      "åħ«çİĭåŃĲ": 7768,
      "æĸ°åºĦ": 7769,
      "åħĪéĺµ": 7770,
      "åıĭå¥½": 7771,
      "å±±åŁİä¹ĭæĪĺ": 7772,
      "è¿ŀé¾Ļ": 7773,
      "æĶ¶ä¸º": 7774,
      "éĩĳæ³½": 7775,
      "æĥħåĬ¿": 7776,
      "ä¸īæ²³å®Ī": 7777,
      "å»¶ä¼¸": 7778,
      "ä¸Ĭæ´ĽçļĦ": 7779,
      "é©»æīİ": 7780,
      "éĿĴæľ¨": 7781,
      "æīĩè°·ä¸ĬæĿīæ°ı": 7782,
      "å±±ä¸Ńå¹¸çĽĽ": 7783,
      "36": 7784,
      "ä¿¡è´µ": 7785,
      "æĺ¯ä¸ºäºĨ": 7786,
      "åĲįåĪĨ": 7787,
      "æµ©": 7788,
      "ç«ĸ": 7789,
      "åĮĹéĿ¢": 7790,
      "æ¬¡äºİ": 7791,
      "æīĢè½½": 7792,
      "ä¸ĬæĿīè¾īèĻİ": 7793,
      "å¥½äºĨ": 7794,
      "åħ´çĽĽ": 7795,
      "éĵº": 7796,
      "å²Ľæ´¥å®¶çļĦ": 7797,
      "éĺ²åį«": 7798,
      "åĸľæ¬¢": 7799,
      "ä¿®å¤į": 7800,
      "æľĢä¸Ĭä¹ī": 7801,
      "åįķçĭ¬": 7802,
      "éŃĤ": 7803,
      "çļĦå¤ĸ": 7804,
      "ä¹ĭåĬĽ": 7805,
      "éķ¿å¥³": 7806,
      "æĿ¾å±±": 7807,
      "ç»ĵå±Ģ": 7808,
      "çİĦä»¥": 7809,
      "éĵģçł²": 7810,
      "å¤§åĨħä¹īéķ¿": 7811,
      "åı¤æ²³åħ¬æĸ¹è¶³åĪ©": 7812,
      "ä¸ŃæĿĳä¸Ģ": 7813,
      "å§Ĳå§Ĳ": 7814,
      "çĶµå½±": 7815,
      "å®īèĹ¤å®Īå°±": 7816,
      "æ¬¾å¾ħ": 7817,
      "ä¼ĬéĤ£éĥ¡": 7818,
      "çļĦæĹ¶éĹ´": 7819,
      "å®ı": 7820,
      "åľ¨ä¸ī": 7821,
      "ä¸İæ¯ĽåĪ©": 7822,
      "ä¹īå¹¿": 7823,
      "èĩ£ä»İ": 7824,
      "è¿Ļæīį": 7825,
      "éĩİçĶ°åŁİ": 7826,
      "ä½Ĩè¢«": 7827,
      "ä¸°å²Ľ": 7828,
      "èµ·äºĭ": 7829,
      "1620": 7830,
      "çģ¯": 7831,
      "æİ¥ç®¡": 7832,
      "æĮĩå¯¼": 7833,
      "èĤĸ": 7834,
      "åħ±æľī": 7835,
      "å¿Ĺéģĵ": 7836,
      "å¿ħçĦ¶": 7837,
      "ä½Ĳä¹ħéĹ´çĽĽæĶ¿": 7838,
      "ç½ĳç»ľ": 7839,
      "ç©¿çĿĢ": 7840,
      "åįģå¸Ĥ": 7841,
      "åĮĹä¼ĬåĬ¿": 7842,
      "ä¹ŁæĽ¾": 7843,
      "å½ĵä½ľ": 7844,
      "æīĢçĶ¨": 7845,
      "çĽ¸ä¼¼": 7846,
      "è¿ĺè¦ģ": 7847,
      "çĶ²èĥĦ": 7848,
      "åĵ¨": 7849,
      "åĭĥ": 7850,
      "åħ·å¤ĩ": 7851,
      "é¥Ńå°¾": 7852,
      "å®ĺä½įä¸º": 7853,
      "è¾¾æĪĲåĴĮçĿ¦": 7854,
      "æİ©æĬ¤": 7855,
      "çīĩæ¡Ĳä¸Ķåħĥ": 7856,
      "èŁ¹": 7857,
      "çļĦé¢Ĩä¸»": 7858,
      "åĽ½è¡Ļ": 7859,
      "å°Ĩä»ĸ": 7860,
      "å¹³æ°ĳ": 7861,
      "çī²": 7862,
      "ä¸ĬæĿīæĸ¹": 7863,
      "åıĹèµĲ": 7864,
      "åıĹåĪ°äºĨ": 7865,
      "æķĮåħµ": 7866,
      "æºĲèĩª": 7867,
      "é¾Ļçİĭä¸¸": 7868,
      "èµĲç»Ļ": 7869,
      "æĥ³æ³ķ": 7870,
      "æĲ¬": 7871,
      "1493": 7872,
      "ä¸Ģæĸ¹çļĦ": 7873,
      "å¤§çł´": 7874,
      "è´«": 7875,
      "åĮĹä¿¡": 7876,
      "åı¯æĥľ": 7877,
      "å¤©æŃ£å£¬åįĪ": 7878,
      "çĽ¸åĽ½å¯º": 7879,
      "è¥¿å°¾": 7880,
      "æį®å®ĪçļĦ": 7881,
      "æĪĲä¸ºåħ¶": 7882,
      "è®©ä½į": 7883,
      "èģĶåĲį": 7884,
      "æĢ»åħµåĬĽ": 7885,
      "å®ĩå¤ļ": 7886,
      "çķłå±±å®¶": 7887,
      "æ¨ªå±±åŁİ": 7888,
      "éķ¿å®ĹæĪĳéĥ¨çĽĽäº²": 7889,
      "æııè¿°": 7890,
      "æŃ§": 7891,
      "éĥĬ": 7892,
      "æĹ¥æĿ¡": 7893,
      "è¡Įäºĭ": 7894,
      "ä¸ľæµ·": 7895,
      "å¾·å·ĿèģĶåĨĽ": 7896,
      "éĢļåŃĹ": 7897,
      "äº¤çķĮ": 7898,
      "æĦıå¤ĸ": 7899,
      "å¼ºè°ĥ": 7900,
      "åīįçĶ°å®¶": 7901,
      "åĴĮæ³īåĽ½": 7902,
      "å§Ĭå°ıè·¯": 7903,
      "åįłé¢ĨäºĨ": 7904,
      "çŃĳç´«å¹¿éĹ¨": 7905,
      "å°ıå¼ĵåħ¬æĸ¹": 7906,
      "åĽļ": 7907,
      "ä¹ĭè·¯": 7908,
      "ä¹ĭä¸¾": 7909,
      "åŁİä¸º": 7910,
      "è¢«æĮĩå®ļä¸º": 7911,
      "è§ģçļĦ": 7912,
      "å¤©æŃ£åĽĽå¹´": 7913,
      "æ³ķä»¤": 7914,
      "åĽŀäºĨ": 7915,
      "æīĭåıĸ": 7916,
      "æ°¸ç¦Ħä¹Ŀå¹´": 7917,
      "å¤ªåİŁ": 7918,
      "åĿĤä¹ĭæĪĺ": 7919,
      "ç»Ĩå·ĿæĮģ": 7920,
      "æĭħä»»åħĪéĶĭ": 7921,
      "éģĹäº§": 7922,
      "è¶ĬåĲİå®ĪæĬ¤": 7923,
      "åłĤåħĦå¼Ł": 7924,
      "çľŁçĶ°ä¸¸": 7925,
      "ç§»å¾Ģ": 7926,
      "éĨĴ": 7927,
      "éĿłè¿ĳ": 7928,
      "æĶ¯éħįæĿĥ": 7929,
      "åĤ²": 7930,
      "è¡¥ä»»": 7931,
      "æİªæĸ½": 7932,
      "çħ½åĬ¨": 7933,
      "45": 7934,
      "çļĦå¦»åŃĲ": 7935,
      "åĲ´": 7936,
      "æĹ¥å¸¸": 7937,
      "èĢĮä¸İ": 7938,
      "å°ıå²Ľ": 7939,
      "åĿŁ": 7940,
      "å»Ĭ": 7941,
      "å¤©æŃ£åħ«å¹´": 7942,
      "æŁĶ": 7943,
      "ä¸ĥçĻ¾": 7944,
      "åİĨæĿ¥": 7945,
      "åĲĦå¤Ħ": 7946,
      "å°¼åŃĲå®¶çļĦ": 7947,
      "å±ķå¼ĢäºĨ": 7948,
      "æĺ¯å®īåľŁæ¡ĥå±±æĹ¶ä»£èĩ³æ±ŁæĪ·æĹ¶ä»£åīįæľŁçļĦæŃ¦å°Ĩ": 7949,
      "400": 7950,
      "çļĦéĹ®é¢ĺ": 7951,
      "å®¶å¿ł": 7952,
      "ä¸ºæķĮ": 7953,
      "åħĥç§Ģ": 7954,
      "çĶ±æĿ¥": 7955,
      "éĥ½ä¼ļ": 7956,
      "æĬ¥å¤į": 7957,
      "æİ§åĪ¶äºĨ": 7958,
      "ç¯ĩ": 7959,
      "è¿ľå±±æ°ı": 7960,
      "å°ĳè´°æ°ı": 7961,
      "å¼Ĥæ¯įå¼Ł": 7962,
      "èĮ¶èĮ¶ä¸¸": 7963,
      "«èĤ¥": 7964,
      "ä¹ĭåŁİ": 7965,
      "ä¹ĭåħµ": 7966,
      "å¤©èįī": 7967,
      "æŃ¦çĶ°ä¹īä¿¡": 7968,
      "ä»İäºĭ": 7969,
      "åĽĽåĽ½çļĦ": 7970,
      "åĪĻæľī": 7971,
      "å¦ĤåĲĮ": 7972,
      "æīĭèħķ": 7973,
      "æĶ¾åľ¨": 7974,
      "æĽ´å¤ļ": 7975,
      "æ¯įä¸º": 7976,
      "åıĳçĶŁçļĦ": 7977,
      "ç»ĦæĪĲçļĦ": 7978,
      "æĪĺäºīä¸Ń": 7979,
      "äº®æĶ¿": 7980,
      "æľ¨ä¸ĭç§ĢåĲī": 7981,
      "ä¸Ģå¹¶": 7982,
      "åľ¨è¿ĳæ±Ł": 7983,
      "ç§Ģå°±": 7984,
      "ç§Ģè´ŀ": 7985,
      "èĩªå®¶": 7986,
      "åĮĹçĶ°": 7987,
      "æŃ¦çĶ°æĸ¹": 7988,
      "ç§įåŃĲ": 7989,
      "è®¾ä¹Ĳ": 7990,
      "ä¾įå¥³": 7991,
      "çļĦåĲįä¹ī": 7992,
      "ä¿ĥä½¿": 7993,
      "çļĦéĩĳ": 7994,
      "ä¸Ģå¤ľ": 7995,
      "åľ¨ä½į": 7996,
      "äºĨä»ĸ": 7997,
      "æĦļ": 7998,
      "åĪĨå°ģ": 7999
    },
    "merges": [
      [
        "ï",
        "¼"
      ],
      [
        "ä",
        "¸"
      ],
      [
        "ï¼",
        "Į"
      ],
      [
        "ã",
        "Ģ"
      ],
      [
        "ä",
        "º"
      ],
      [
        "ç",
        "ļ"
      ],
      [
        "çļ",
        "Ħ"
      ],
      [
        "å",
        "®"
      ],
      [
        "ãĢ",
        "Ĥ"
      ],
      [
        "å",
        "ħ"
      ],
      [
        "å",
        "Ĳ"
      ],
      [
        "ä",
        "¹"
      ],
      [
        "ä",
        "»"
      ],
      [
        "å",
        "¹"
      ],
      [
        "æ",
        "ľ"
      ],
      [
        "å",
        "¤"
      ],
      [
        "å",
        "ı"
      ],
      [
        "ç",
        "Ķ"
      ],
      [
        "æ",
        "Ĺ"
      ],
      [
        "å¹",
        "´"
      ],
      [
        "æ",
        "Ī"
      ],
      [
        "å",
        "ľ"
      ],
      [
        "æ",
        "Ń"
      ],
      [
        "å",
        "Ľ"
      ],
      [
        "å",
        "°"
      ],
      [
        "å",
        "Ī"
      ],
      [
        "å",
        "Ĩ"
      ],
      [
        "è",
        "¿"
      ],
      [
        "ç",
        "»"
      ],
      [
        "æ",
        "Ŀ"
      ],
      [
        "å®",
        "¶"
      ],
      [
        "æ",
        "°"
      ],
      [
        "æ",
        "ĺ"
      ],
      [
        "ä",
        "½"
      ],
      [
        "å",
        "į"
      ],
      [
        "ä¸",
        "º"
      ],
      [
        "ï¼",
        "Ī"
      ],
      [
        "ï¼",
        "ī"
      ],
      [
        "å",
        "Ĭ"
      ],
      [
        "â",
        "Ģ"
      ],
      [
        "æ",
        "Ķ"
      ],
      [
        "ä",
        "¿"
      ],
      [
        "ãĢ",
        "ģ"
      ],
      [
        "å",
        "Ł"
      ],
      [
        "å",
        "·"
      ],
      [
        "ä¸",
        "Ģ"
      ],
      [
        "ä¹",
        "ĭ"
      ],
      [
        "æ",
        "ĸ"
      ],
      [
        "é",
        "ķ"
      ],
      [
        "è",
        "ĩ"
      ],
      [
        "å",
        "º"
      ],
      [
        "åľ",
        "¨"
      ],
      [
        "çĶ",
        "°"
      ],
      [
        "å",
        "±"
      ],
      [
        "åŁ",
        "İ"
      ],
      [
        "åĲ",
        "İ"
      ],
      [
        "å¤",
        "§"
      ],
      [
        "æ°",
        "ı"
      ],
      [
        "éķ",
        "¿"
      ],
      [
        "ç",
        "§"
      ],
      [
        "ä",
        "¼"
      ],
      [
        "å",
        "¾"
      ],
      [
        "ä¿",
        "¡"
      ],
      [
        "æĪ",
        "ĺ"
      ],
      [
        "å",
        "¯"
      ],
      [
        "å",
        "ĩ"
      ],
      [
        "å",
        "Ń"
      ],
      [
        "åĨ",
        "Ľ"
      ],
      [
        "åĽ",
        "½"
      ],
      [
        "é",
        "ĩ"
      ],
      [
        "æĺ",
        "¯"
      ],
      [
        "æ",
        "ī"
      ],
      [
        "å",
        "¼"
      ],
      [
        "é",
        "ĥ"
      ],
      [
        "æĹ",
        "¶"
      ],
      [
        "è",
        "¯"
      ],
      [
        "äº",
        "Ĩ"
      ],
      [
        "è",
        "®"
      ],
      [
        "ä¸",
        "İ"
      ],
      [
        "ç",
        "Ľ"
      ],
      [
        "è",
        "Ģ"
      ],
      [
        "å",
        "İ"
      ],
      [
        "æĹ",
        "¥"
      ],
      [
        "ä¸",
        "Ń"
      ],
      [
        "äº",
        "İ"
      ],
      [
        "è",
        "µ"
      ],
      [
        "é",
        "Ģ"
      ],
      [
        "è",
        "´"
      ],
      [
        "ä¸",
        "Ĭ"
      ],
      [
        "äº",
        "º"
      ],
      [
        "å·",
        "Ŀ"
      ],
      [
        "å±",
        "±"
      ],
      [
        "æľ",
        "Ī"
      ],
      [
        "æ",
        "²"
      ],
      [
        "ä¹",
        "ī"
      ],
      [
        "1",
        "5"
      ],
      [
        "å",
        "½"
      ],
      [
        "ä¸",
        "ī"
      ],
      [
        "è",
        "ĥ"
      ],
      [
        "ä¸",
        "į"
      ],
      [
        "å°",
        "Ĩ"
      ],
      [
        "é",
        "ĺ"
      ],
      [
        "åŃ",
        "Ĳ"
      ],
      [
        "ä»",
        "¥"
      ],
      [
        "å",
        "¿"
      ],
      [
        "ç§",
        "Ģ"
      ],
      [
        "å",
        "Į"
      ],
      [
        "åĩ",
        "º"
      ],
      [
        "æľ",
        "ī"
      ],
      [
        "å",
        "¥"
      ],
      [
        "è",
        "¢"
      ],
      [
        "æŃ",
        "£"
      ],
      [
        "âĢ",
        "ľ"
      ],
      [
        "âĢ",
        "Ŀ"
      ],
      [
        "æŃ",
        "¦"
      ],
      [
        "åħ",
        "ĥ"
      ],
      [
        "ä¸",
        "ĭ"
      ],
      [
        "æĶ",
        "¿"
      ],
      [
        "åĲ",
        "į"
      ],
      [
        "ä»",
        "£"
      ],
      [
        "é",
        "Ļ"
      ],
      [
        "å¤",
        "©"
      ],
      [
        "æ",
        "Ĭ"
      ],
      [
        "é",
        "ģ"
      ],
      [
        "ç",
        "Ń"
      ],
      [
        "é",
        "Ĺ"
      ],
      [
        "å",
        "ī"
      ],
      [
        "æĪ",
        "Ĳ"
      ],
      [
        "æľ",
        "¬"
      ],
      [
        "è",
        "§"
      ],
      [
        "æ",
        "µ"
      ],
      [
        "å",
        "²"
      ],
      [
        "åľ",
        "°"
      ],
      [
        "èĢ",
        "Į"
      ],
      [
        "æ",
        "ķ"
      ],
      [
        "æŃ",
        "¤"
      ],
      [
        "åħ",
        "¶"
      ],
      [
        "é",
        "¢"
      ],
      [
        "æ",
        "´"
      ],
      [
        "åĪ",
        "©"
      ],
      [
        "è¢",
        "«"
      ],
      [
        "å",
        "Ĵ"
      ],
      [
        "å",
        "¸"
      ],
      [
        "è",
        "¡"
      ],
      [
        "æ",
        "Ļ"
      ],
      [
        "èĩ",
        "£"
      ],
      [
        "åĴ",
        "Į"
      ],
      [
        "ç",
        "İ"
      ],
      [
        "é",
        "ļ"
      ],
      [
        "ç",
        "º"
      ],
      [
        "è",
        "¾"
      ],
      [
        "æ",
        "³"
      ],
      [
        "åį",
        "ģ"
      ],
      [
        "ç",
        "Ł"
      ],
      [
        "åī",
        "į"
      ],
      [
        "åĲ",
        "ī"
      ],
      [
        "ä¸",
        "»"
      ],
      [
        "è",
        "¶"
      ],
      [
        "æĸ",
        "¹"
      ],
      [
        "ç",
        "«"
      ],
      [
        "æ",
        "±"
      ],
      [
        "é¢",
        "Ĩ"
      ],
      [
        "åĨ",
        "ħ"
      ],
      [
        "è",
        "°"
      ],
      [
        "ä",
        "¾"
      ],
      [
        "åĲ",
        "Į"
      ],
      [
        "è",
        "Ĺ"
      ],
      [
        "å¯",
        "¹"
      ],
      [
        "å®",
        "Ī"
      ],
      [
        "ä»",
        "ĸ"
      ],
      [
        "èĩ",
        "ª"
      ],
      [
        "å¹",
        "¶"
      ],
      [
        "æ",
        "¯"
      ],
      [
        "æ",
        "¬"
      ],
      [
        "æ",
        "Į"
      ],
      [
        "å",
        "ĳ"
      ],
      [
        "éĩ",
        "į"
      ],
      [
        "åİ",
        "Ł"
      ],
      [
        "åĽ",
        "ł"
      ],
      [
        "è¿",
        "Ļ"
      ],
      [
        "å°",
        "ı"
      ],
      [
        "æĿ",
        "¥"
      ],
      [
        "åĪ",
        "°"
      ],
      [
        "åº",
        "·"
      ],
      [
        "ç",
        "¦"
      ],
      [
        "åħ",
        "µ"
      ],
      [
        "æĶ",
        "»"
      ],
      [
        "åĮ",
        "Ĺ"
      ],
      [
        "äº",
        "²"
      ],
      [
        "çŃ",
        "ī"
      ],
      [
        "æ",
        "ĭ"
      ],
      [
        "åĬ",
        "Ľ"
      ],
      [
        "å¯",
        "º"
      ],
      [
        "ã",
        "ģ"
      ],
      [
        "æ",
        "İ"
      ],
      [
        "çĶ",
        "Ł"
      ],
      [
        "äº",
        "Į"
      ],
      [
        "é",
        "«"
      ],
      [
        "æ¬",
        "¡"
      ],
      [
        "é«",
        "ĺ"
      ],
      [
        "å®",
        "Ĺ"
      ],
      [
        "æ",
        "¸"
      ],
      [
        "ç",
        "Ī"
      ],
      [
        "ä¿¡",
        "éķ¿"
      ],
      [
        "è¡",
        "Į"
      ],
      [
        "éĥ",
        "¨"
      ],
      [
        "ä½",
        "ľ"
      ],
      [
        "ä¹",
        "Ł"
      ],
      [
        "é",
        "Ŀ"
      ],
      [
        "éĩ",
        "İ"
      ],
      [
        "ç»",
        "ĩ"
      ],
      [
        "å½",
        "ĵ"
      ],
      [
        "åħ",
        "¥"
      ],
      [
        "ç",
        "ķ"
      ],
      [
        "èĥ",
        "ľ"
      ],
      [
        "æ",
        "Ģ"
      ],
      [
        "ä½",
        "Ĩ"
      ],
      [
        "æĸ",
        "ĩ"
      ],
      [
        "åħ",
        "³"
      ],
      [
        "ç»ĩ",
        "çĶ°"
      ],
      [
        "ç",
        "Ŀ"
      ],
      [
        "æī",
        "Ģ"
      ],
      [
        "ç",
        "Ħ"
      ],
      [
        "å¿",
        "ł"
      ],
      [
        "æ",
        "ł"
      ],
      [
        "ä¹",
        "ħ"
      ],
      [
        "è¿",
        "Ľ"
      ],
      [
        "è",
        "¦"
      ],
      [
        "åı",
        "ĳ"
      ],
      [
        "ä»",
        "»"
      ],
      [
        "å¹",
        "³"
      ],
      [
        "æĿ",
        "¡"
      ],
      [
        "å",
        "¦"
      ],
      [
        "å°",
        "±"
      ],
      [
        "è¦",
        "ģ"
      ],
      [
        "ç«",
        "ĭ"
      ],
      [
        "ä¸",
        "ľ"
      ],
      [
        "åĲ",
        "ĳ"
      ],
      [
        "çŁ",
        "³"
      ],
      [
        "å®",
        "ļ"
      ],
      [
        "çĦ",
        "¶"
      ],
      [
        "æ",
        "ı"
      ],
      [
        "å¾",
        "·"
      ],
      [
        "èĩ",
        "³"
      ],
      [
        "æ",
        "ŀ"
      ],
      [
        "æľ",
        "Ŀ"
      ],
      [
        "å²",
        "Ľ"
      ],
      [
        "ç§Ģ",
        "åĲī"
      ],
      [
        "ç»",
        "§"
      ],
      [
        "å",
        "§"
      ],
      [
        "çĶ",
        "±"
      ],
      [
        "åĬ",
        "¿"
      ],
      [
        "å®",
        "ī"
      ],
      [
        "å¾",
        "Ĺ"
      ],
      [
        "äº",
        "ĭ"
      ],
      [
        "æŃ¦",
        "çĶ°"
      ],
      [
        "çĽ",
        "´"
      ],
      [
        "ç",
        "¥"
      ],
      [
        "å¤",
        "ļ"
      ],
      [
        "è",
        "½"
      ],
      [
        "æ°",
        "¸"
      ],
      [
        "ä¼",
        "Ĭ"
      ],
      [
        "æĹ¶",
        "ä»£"
      ],
      [
        "ç",
        "¬"
      ],
      [
        "æĺ",
        "İ"
      ],
      [
        "æ",
        "ĥ"
      ],
      [
        "ç",
        "ī"
      ],
      [
        "éĥ",
        "½"
      ],
      [
        "ï¼",
        "ļ"
      ],
      [
        "é",
        "©"
      ],
      [
        "æ",
        "Ħ"
      ],
      [
        "è¯",
        "´"
      ],
      [
        "ä¸",
        "°"
      ],
      [
        "æŃ",
        "»"
      ],
      [
        "æĻ",
        "¯"
      ],
      [
        "æ²",
        "³"
      ],
      [
        "æĿ",
        "¾"
      ],
      [
        "è",
        "Ļ"
      ],
      [
        "ç§",
        "°"
      ],
      [
        "èĥ",
        "½"
      ],
      [
        "ä½",
        "į"
      ],
      [
        "æ",
        "Ľ"
      ],
      [
        "å®",
        "ŀ"
      ],
      [
        "çĪ",
        "¶"
      ],
      [
        "éģ",
        "ĵ"
      ],
      [
        "å",
        "Ŀ"
      ],
      [
        "ãĢ",
        "ĭ"
      ],
      [
        "ãĢ",
        "Ĭ"
      ],
      [
        "æ±",
        "Ł"
      ],
      [
        "æ",
        "į"
      ],
      [
        "ä»",
        "İ"
      ],
      [
        "äº",
        "Ķ"
      ],
      [
        "ç",
        "¾"
      ],
      [
        "åĩ",
        "»"
      ],
      [
        "æ²",
        "»"
      ],
      [
        "å",
        "»"
      ],
      [
        "åº",
        "ľ"
      ],
      [
        "éĹ",
        "´"
      ],
      [
        "åĽ",
        "Ľ"
      ],
      [
        "åı",
        "¯"
      ],
      [
        "å®¶",
        "åº·"
      ],
      [
        "åĬ",
        "ł"
      ],
      [
        "äº",
        "ķ"
      ],
      [
        "å",
        "£"
      ],
      [
        "æ´",
        "¥"
      ],
      [
        "åı",
        "Ĭ"
      ],
      [
        "èĹ",
        "¤"
      ],
      [
        "ç",
        "ľ"
      ],
      [
        "è",
        "ī"
      ],
      [
        "è®",
        "°"
      ],
      [
        "è¶",
        "³"
      ],
      [
        "èµ",
        "ĸ"
      ],
      [
        "æĿ",
        "ī"
      ],
      [
        "å®¶",
        "èĩ£"
      ],
      [
        "è§",
        "ģ"
      ],
      [
        "å¾·",
        "å·Ŀ"
      ],
      [
        "æľ",
        "Ģ"
      ],
      [
        "ä½",
        "Ĳ"
      ],
      [
        "ä¸",
        "ĸ"
      ],
      [
        "éĹ",
        "¨"
      ],
      [
        "è¿",
        "ĩ"
      ],
      [
        "ç»",
        "ı"
      ],
      [
        "åĪ",
        "Ĩ"
      ],
      [
        "è",
        "ģ"
      ],
      [
        "å¤©",
        "æŃ£"
      ],
      [
        "å¼",
        "Ģ"
      ],
      [
        "ç",
        "Ļ"
      ],
      [
        "è¿",
        "ĳ"
      ],
      [
        "ä»",
        "Ĭ"
      ],
      [
        "ä¸Ĭ",
        "æĿī"
      ],
      [
        "éĺ",
        "µ"
      ],
      [
        "è",
        "º"
      ],
      [
        "ï¼",
        "Ľ"
      ],
      [
        "¥",
        "¿"
      ],
      [
        "çĽ",
        "¸"
      ],
      [
        "è",
        "¥¿"
      ],
      [
        "é",
        "Ľ"
      ],
      [
        "ä¼",
        "Ĺ"
      ],
      [
        "èµ",
        "·"
      ],
      [
        "æľ",
        "Ł"
      ],
      [
        "ä¹ĭ",
        "æĪĺ"
      ],
      [
        "æ¯",
        "Ľ"
      ],
      [
        "èº",
        "«"
      ],
      [
        "éĢ",
        "ļ"
      ],
      [
        "éĿ",
        "¢"
      ],
      [
        "æĿ",
        "ĳ"
      ],
      [
        "ä¸",
        "ª"
      ],
      [
        "å¤",
        "ĸ"
      ],
      [
        "åħ",
        "ī"
      ],
      [
        "åİ",
        "»"
      ],
      [
        "äº",
        "¬"
      ],
      [
        "å¹",
        "ķ"
      ],
      [
        "è¶",
        "Ĭ"
      ],
      [
        "æĹ",
        "ł"
      ],
      [
        "æ¯Ľ",
        "åĪ©"
      ],
      [
        "ä¸",
        "¤"
      ],
      [
        "åĲ",
        "Ī"
      ],
      [
        "æ¸",
        "ħ"
      ],
      [
        "1",
        "6"
      ],
      [
        "åĬ",
        "¨"
      ],
      [
        "è",
        "·"
      ],
      [
        "è",
        "±"
      ],
      [
        "æĬ",
        "¤"
      ],
      [
        "åĪ",
        "Ļ"
      ],
      [
        "éĥ",
        "¡"
      ],
      [
        "æ³",
        "ķ"
      ],
      [
        "æį",
        "®"
      ],
      [
        "åĳ",
        "½"
      ],
      [
        "å·",
        "²"
      ],
      [
        "éļ",
        "ı"
      ],
      [
        "ç¦",
        "Ħ"
      ],
      [
        "æĪ",
        "·"
      ],
      [
        "åľ",
        "Ł"
      ],
      [
        "ç",
        "ģ"
      ],
      [
        "æ",
        "Ł"
      ],
      [
        "åħ",
        "Ń"
      ],
      [
        "åĮĹ",
        "æĿ¡"
      ],
      [
        "æī",
        "¿"
      ],
      [
        "å¦",
        "Ĥ"
      ],
      [
        "èĢ",
        "ħ"
      ],
      [
        "ä½",
        "¿"
      ],
      [
        "æĮ",
        "ģ"
      ],
      [
        "åı",
        "Ī"
      ],
      [
        "é",
        "¦"
      ],
      [
        "ç¬",
        "¬"
      ],
      [
        "äº",
        "¦"
      ],
      [
        "ä¼",
        "ļ"
      ],
      [
        "æľ",
        "¨"
      ],
      [
        "åħ",
        "«"
      ],
      [
        "åį",
        "«"
      ],
      [
        "è¶³",
        "åĪ©"
      ],
      [
        "åħ",
        "¬"
      ],
      [
        "æĪĲ",
        "ä¸º"
      ],
      [
        "æ",
        "¡"
      ],
      [
        "æĹ",
        "ı"
      ],
      [
        "åº",
        "Ĩ"
      ],
      [
        "å°",
        "¾"
      ],
      [
        "æĿ",
        "ĥ"
      ],
      [
        "åĽ",
        "ŀ"
      ],
      [
        "çĿ",
        "Ģ"
      ],
      [
        "å¹ķ",
        "åºľ"
      ],
      [
        "ç",
        "®"
      ],
      [
        "è",
        "Ĳ"
      ],
      [
        "æĪĺ",
        "åĽ½"
      ],
      [
        "éĥ",
        "İ"
      ],
      [
        "ä¹",
        "Ŀ"
      ],
      [
        "é©",
        "¬"
      ],
      [
        "å¼",
        "Ł"
      ],
      [
        "0",
        "0"
      ],
      [
        "ä½ľ",
        "ä¸º"
      ],
      [
        "æ",
        "ģ"
      ],
      [
        "è¾",
        "¾"
      ],
      [
        "ä»",
        "ĵ"
      ],
      [
        "éļ",
        "Ĩ"
      ],
      [
        "ä¹",
        "±"
      ],
      [
        "å",
        "Ģ"
      ],
      [
        "å¥",
        "½"
      ],
      [
        "å£",
        "«"
      ],
      [
        "ç",
        "¤"
      ],
      [
        "çĶ",
        "¨"
      ],
      [
        "ä¸",
        "ĩ"
      ],
      [
        "ç",
        "³"
      ],
      [
        "æĹ¥",
        "æľ¬"
      ],
      [
        "é",
        "ª"
      ],
      [
        "åį",
        "ĥ"
      ],
      [
        "çİ",
        "°"
      ],
      [
        "ä¼",
        "ł"
      ],
      [
        "åº",
        "Ķ"
      ],
      [
        "åı",
        "Ĺ"
      ],
      [
        "å®¶",
        "çļĦ"
      ],
      [
        "æĸ",
        "°"
      ],
      [
        "ç»",
        "Ł"
      ],
      [
        "å±",
        "ħ"
      ],
      [
        "è",
        "Ĭ"
      ],
      [
        "ç",
        "½"
      ],
      [
        "é",
        "¾"
      ],
      [
        "è",
        "İ"
      ],
      [
        "æ",
        "»"
      ],
      [
        "é",
        "Ĥ"
      ],
      [
        "ç³",
        "»"
      ],
      [
        "å¾",
        "¡"
      ],
      [
        "é",
        "¡"
      ],
      [
        "æ´",
        "¾"
      ],
      [
        "å",
        "ł"
      ],
      [
        "è´",
        "¥"
      ],
      [
        "å¤§",
        "åĲį"
      ],
      [
        "åı",
        "į"
      ],
      [
        "æĿ",
        "Ģ"
      ],
      [
        "è",
        "Į"
      ],
      [
        "åı",
        "ĸ"
      ],
      [
        "æī",
        "ĭ"
      ],
      [
        "ä»",
        "¤"
      ],
      [
        "çĽ",
        "Ľ"
      ],
      [
        "æ",
        "®"
      ],
      [
        "å¿",
        "ĥ"
      ],
      [
        "ä¸°",
        "èĩ£"
      ],
      [
        "ç»",
        "ĵ"
      ],
      [
        "å¤",
        "ĩ"
      ],
      [
        "æĶ",
        "¯"
      ],
      [
        "è",
        "ĭ"
      ],
      [
        "åħ",
        "Ī"
      ],
      [
        "è",
        "Ī"
      ],
      [
        "ä¹",
        "¦"
      ],
      [
        "ä¸",
        "ĥ"
      ],
      [
        "äº",
        "¤"
      ],
      [
        "å¾",
        "Ģ"
      ],
      [
        "çİ",
        "ĩ"
      ],
      [
        "éĺ",
        "Ł"
      ],
      [
        "åĨ",
        "į"
      ],
      [
        "åį",
        "Ĺ"
      ],
      [
        "åĪ",
        "¶"
      ],
      [
        "è¿",
        "ĺ"
      ],
      [
        "è´",
        "º"
      ],
      [
        "çĶ",
        "º"
      ],
      [
        "æĻ",
        "´"
      ],
      [
        "åı",
        "ĭ"
      ],
      [
        "åį",
        "³"
      ],
      [
        "âĢ",
        "Ķ"
      ],
      [
        "å",
        "´"
      ],
      [
        "å¥",
        "³"
      ],
      [
        "å¸",
        "Ĥ"
      ],
      [
        "å±±",
        "åŁİ"
      ],
      [
        "ä¾",
        "¿"
      ],
      [
        "ç¥",
        "ŀ"
      ],
      [
        "åħ",
        "´"
      ],
      [
        "æ",
        "º"
      ],
      [
        "éĢ",
        "Ģ"
      ],
      [
        "å",
        "¢"
      ],
      [
        "æ°",
        "´"
      ],
      [
        "ç»§",
        "æī¿"
      ],
      [
        "å°Ĩ",
        "åĨĽ"
      ],
      [
        "å¤",
        "Ħ"
      ],
      [
        "åħ",
        "¨"
      ],
      [
        "çŁ",
        "¥"
      ],
      [
        "ç»",
        "Ī"
      ],
      [
        "åı",
        "Ĥ"
      ],
      [
        "å»",
        "º"
      ],
      [
        "çľ",
        "Ł"
      ],
      [
        "ç",
        "Ĳ"
      ],
      [
        "ç",
        "¨"
      ],
      [
        "1",
        "4"
      ],
      [
        "æ",
        "¶"
      ],
      [
        "èİ",
        "·"
      ],
      [
        "ä¿",
        "Ŀ"
      ],
      [
        "åĬ",
        "Ł"
      ],
      [
        "æĦ",
        "ı"
      ],
      [
        "çº",
        "²"
      ],
      [
        "å®Ī",
        "æĬ¤"
      ],
      [
        "å·",
        "ŀ"
      ],
      [
        "15",
        "8"
      ],
      [
        "æĽ",
        "¾"
      ],
      [
        "æĪ",
        "ĳ"
      ],
      [
        "æµ",
        "ģ"
      ],
      [
        "ç»ĩçĶ°",
        "ä¿¡éķ¿"
      ],
      [
        "å¥",
        "ī"
      ],
      [
        "æµ",
        "ĵ"
      ],
      [
        "çĿ",
        "£"
      ],
      [
        "ç»",
        "Ĩ"
      ],
      [
        "ç»",
        "Ļ"
      ],
      [
        "æľ",
        "ª"
      ],
      [
        "æ²",
        "¡"
      ],
      [
        "ç¾",
        "½"
      ],
      [
        "15",
        "7"
      ],
      [
        "æķ",
        "Į"
      ],
      [
        "ç",
        "ł"
      ],
      [
        "å¾",
        "ģ"
      ],
      [
        "æ",
        "·"
      ],
      [
        "ç",
        "Ĥ"
      ],
      [
        "æ°ı",
        "çļĦ"
      ],
      [
        "åİ",
        "Ĩ"
      ],
      [
        "æİ",
        "¥"
      ],
      [
        "å®",
        "¤"
      ],
      [
        "æĹ",
        "©"
      ],
      [
        "å",
        "ģ"
      ],
      [
        "å®",
        "«"
      ],
      [
        "ã",
        "Ĥ"
      ],
      [
        "åº",
        "¦"
      ],
      [
        "åį",
        "´"
      ],
      [
        "è®",
        "¤"
      ],
      [
        "çļ",
        "ĩ"
      ],
      [
        "æĶ",
        "¹"
      ],
      [
        "äº¬",
        "éĥ½"
      ],
      [
        "å§",
        "ĭ"
      ],
      [
        "è",
        "į"
      ],
      [
        "çĶ",
        "²"
      ],
      [
        "ç",
        "ĭ"
      ],
      [
        "æ°¸",
        "ç¦Ħ"
      ],
      [
        "å¤",
        "ª"
      ],
      [
        "å¹",
        "¿"
      ],
      [
        "èĹ",
        "©"
      ],
      [
        "éĩ",
        "Į"
      ],
      [
        "èĻ",
        "İ"
      ],
      [
        "æµ",
        "·"
      ],
      [
        "ä»",
        "¬"
      ],
      [
        "å",
        "ĸ"
      ],
      [
        "çŃ",
        "ĳ"
      ],
      [
        "åı",
        "²"
      ],
      [
        "å·",
        "¦"
      ],
      [
        "éĻ",
        "¢"
      ],
      [
        "ç»",
        "Ń"
      ],
      [
        "åĿ",
        "Ĥ"
      ],
      [
        "åĪ",
        "Ŀ"
      ],
      [
        "é",
        "ĵ"
      ],
      [
        "æĭ",
        "ħ"
      ],
      [
        "å®",
        "ĺ"
      ],
      [
        "æķ",
        "Ļ"
      ],
      [
        "å¤©",
        "æĸĩ"
      ],
      [
        "å",
        "Ħ"
      ],
      [
        "ç»Ĩ",
        "å·Ŀ"
      ],
      [
        "å¸",
        "¸"
      ],
      [
        "å",
        "ĵ"
      ],
      [
        "è´",
        "ŀ"
      ],
      [
        "æ",
        "¦"
      ],
      [
        "æŃ¦",
        "å°Ĩ"
      ],
      [
        "æ³",
        "¢"
      ],
      [
        "æı",
        "´"
      ],
      [
        "ä¸",
        "¸"
      ],
      [
        "çī",
        "©"
      ],
      [
        "15",
        "6"
      ],
      [
        "å·",
        "±"
      ],
      [
        "è¶³åĪ©",
        "ä¹ī"
      ],
      [
        "åĬ¿",
        "åĬĽ"
      ],
      [
        "æ",
        "Ĵ"
      ],
      [
        "æĮ",
        "ĩ"
      ],
      [
        "ä»Ĭ",
        "å·Ŀ"
      ],
      [
        "å",
        "«"
      ],
      [
        "å®¶",
        "çĿ£"
      ],
      [
        "é",
        "Ķ"
      ],
      [
        "çİ",
        "Ħ"
      ],
      [
        "è°",
        "·"
      ],
      [
        "èī",
        "¯"
      ],
      [
        "å¼",
        "ł"
      ],
      [
        "æī",
        "ĵ"
      ],
      [
        "è¾",
        "ī"
      ],
      [
        "è",
        "Ĥ"
      ],
      [
        "è¿",
        "ľ"
      ],
      [
        "ç¾",
        "İ"
      ],
      [
        "å²Ľ",
        "æ´¥"
      ],
      [
        "èĻ",
        "½"
      ],
      [
        "åĬ",
        "©"
      ],
      [
        "åı",
        "ª"
      ],
      [
        "1",
        "0"
      ],
      [
        "æĪĺåĽ½",
        "æĹ¶ä»£"
      ],
      [
        "å¾·å·Ŀ",
        "å®¶åº·"
      ],
      [
        "åľ",
        "º"
      ],
      [
        "åĨ",
        "Ī"
      ],
      [
        "è®",
        "©"
      ],
      [
        "çĲ",
        "Ĩ"
      ],
      [
        "é¢Ĩ",
        "åľ°"
      ],
      [
        "åĦ",
        "¿"
      ],
      [
        "æĪ",
        "ĸ"
      ],
      [
        "ç",
        "¼"
      ],
      [
        "åºĨ",
        "éķ¿"
      ],
      [
        "è¿",
        "ŀ"
      ],
      [
        "æ±Ł",
        "æĪ·"
      ],
      [
        "çĻ",
        "¾"
      ],
      [
        "æº",
        "Ĳ"
      ],
      [
        "åĽ",
        "´"
      ],
      [
        "æ»",
        "¡"
      ],
      [
        "äº",
        "ī"
      ],
      [
        "èģ",
        "Į"
      ],
      [
        "æ¦",
        "Ĥ"
      ],
      [
        "è¯",
        "¸"
      ],
      [
        "é¦",
        "ĸ"
      ],
      [
        "äº",
        "¡"
      ],
      [
        "åı",
        "£"
      ],
      [
        "ç§",
        "į"
      ],
      [
        "å´",
        "İ"
      ],
      [
        "åħ",
        "»"
      ],
      [
        "æĪ",
        "¿"
      ],
      [
        "èģ",
        "Ķ"
      ],
      [
        "ç",
        "Ĭ"
[...]
