{
  "version": "1.0",
  "truncation": null,
  "padding": null,
  "added_tokens": [
    {
      "id": 0,
      "content": "<|endoftext|>",
      "single_word": false,
      "lstrip": false,
      "rstrip": false,
      "normalized": false,
      "special": true
    },
    {
      "id": 1,
      "content": "<|im_end|>",
      "single_word": false,
      "lstrip": false,
      "rstrip": false,
      "normalized": false,
      "special": true
    },
    {
      "id": 2,
      "content": "<|im_system|>",
      "single_word": false,
      "lstrip": false,
      "rstrip": false,
      "normalized": false,
      "special": true
    },
    {
      "id": 3,
      "content": "<|im_user|>",
      "single_word": false,
      "lstrip": false,
      "rstrip": false,
      "normalized": false,
      "special": true
    },
    {
      "id": 4,
      "content": "<|im_assistant|>",
      "single_word": false,
      "lstrip": false,
      "rstrip": false,
      "normalized": false,
      "special": true
    }
  ],
  "normalizer": null,
  "pre_tokenizer": {
    "type": "Sequence",
    "pretokenizers": [
      {
        "type": "Whitespace"
      },
      {
        "type": "Punctuation",
        "behavior": "Isolated"
      },
      {
        "type": "ByteLevel",
        "add_prefix_space": false,
        "trim_offsets": true,
        "use_regex": true
      }
    ]
  },
  "post_processor": {
    "type": "ByteLevel",
    "add_prefix_space": true,
    "trim_offsets": false,
    "use_regex": true
  },
  "decoder": {
    "type": "ByteLevel",
    "add_prefix_space": true,
    "trim_offsets": true,
    "use_regex": true
  },
  "model": {
    "type": "BPE",
    "dropout": null,
    "unk_token": null,
    "continuing_subword_prefix": null,
    "end_of_word_suffix": null,
    "fuse_unk": false,
    "byte_fallback": false,
    "ignore_merges": false,
    "vocab": {
      "<|endoftext|>": 0,
      "<|im_end|>": 1,
      "<|im_system|>": 2,
      "<|im_user|>": 3,
      "<|im_assistant|>": 4,
      "!": 5,
      "\"": 6,
      "#": 7,
      "$": 8,
      "%": 9,
      "&": 10,
      "'": 11,
      "(": 12,
      ")": 13,
      "*": 14,
      "+": 15,
      ",": 16,
      "-": 17,
      ".": 18,
      "/": 19,
      "0": 20,
      "1": 21,
      "2": 22,
      "3": 23,
      "4": 24,
      "5": 25,
      "6": 26,
      "7": 27,
      "8": 28,
      "9": 29,
      ":": 30,
      ";": 31,
      "<": 32,
      "=": 33,
      ">": 34,
      "?": 35,
      "@": 36,
      "A": 37,
      "B": 38,
      "C": 39,
      "D": 40,
      "E": 41,
      "F": 42,
      "G": 43,
      "H": 44,
      "I": 45,
      "J": 46,
      "K": 47,
      "L": 48,
      "M": 49,
      "N": 50,
      "O": 51,
      "P": 52,
      "Q": 53,
      "R": 54,
      "S": 55,
      "T": 56,
      "U": 57,
      "V": 58,
      "W": 59,
      "X": 60,
      "Y": 61,
      "Z": 62,
      "[": 63,
      "\\": 64,
      "]": 65,
      "^": 66,
      "_": 67,
      "`": 68,
      "a": 69,
      "b": 70,
      "c": 71,
      "d": 72,
      "e": 73,
      "f": 74,
      "g": 75,
      "h": 76,
      "i": 77,
      "j": 78,
      "k": 79,
      "l": 80,
      "m": 81,
      "n": 82,
      "o": 83,
      "p": 84,
      "q": 85,
      "r": 86,
      "s": 87,
      "t": 88,
      "u": 89,
      "v": 90,
      "w": 91,
      "x": 92,
      "y": 93,
      "z": 94,
      "{": 95,
      "|": 96,
      "}": 97,
      "~": 98,
      "¡": 99,
      "¢": 100,
      "£": 101,
      "¤": 102,
      "¥": 103,
      "¦": 104,
      "§": 105,
      "¨": 106,
      "©": 107,
      "ª": 108,
      "«": 109,
      "¬": 110,
      "®": 111,
      "¯": 112,
      "°": 113,
      "±": 114,
      "²": 115,
      "³": 116,
      "´": 117,
      "µ": 118,
      "¶": 119,
      "·": 120,
      "¸": 121,
      "¹": 122,
      "º": 123,
      "»": 124,
      "¼": 125,
      "½": 126,
      "¾": 127,
      "¿": 128,
      "À": 129,
      "Á": 130,
      "Â": 131,
      "Ã": 132,
      "Ä": 133,
      "Å": 134,
      "Æ": 135,
      "Ç": 136,
      "È": 137,
      "É": 138,
      "Ê": 139,
      "Ë": 140,
      "Ì": 141,
      "Í": 142,
      "Î": 143,
      "Ï": 144,
      "Ð": 145,
      "Ñ": 146,
      "Ò": 147,
      "Ó": 148,
      "Ô": 149,
      "Õ": 150,
      "Ö": 151,
      "×": 152,
      "Ø": 153,
      "Ù": 154,
      "Ú": 155,
      "Û": 156,
      "Ü": 157,
      "Ý": 158,
      "Þ": 159,
      "ß": 160,
      "à": 161,
      "á": 162,
      "â": 163,
      "ã": 164,
      "ä": 165,
      "å": 166,
      "æ": 167,
      "ç": 168,
      "è": 169,
      "é": 170,
      "ê": 171,
      "ë": 172,
      "ì": 173,
      "í": 174,
      "î": 175,
      "ï": 176,
      "ð": 177,
      "ñ": 178,
      "ò": 179,
      "ó": 180,
      "ô": 181,
      "õ": 182,
      "ö": 183,
      "÷": 184,
      "ø": 185,
      "ù": 186,
      "ú": 187,
      "û": 188,
      "ü": 189,
      "ý": 190,
      "þ": 191,
      "ÿ": 192,
      "Ā": 193,
      "ā": 194,
      "Ă": 195,
      "ă": 196,
      "Ą": 197,
      "ą": 198,
      "Ć": 199,
      "ć": 200,
      "Ĉ": 201,
      "ĉ": 202,
      "Ċ": 203,
      "ċ": 204,
      "Č": 205,
      "č": 206,
      "Ď": 207,
      "ď": 208,
      "Đ": 209,
      "đ": 210,
      "Ē": 211,
      "ē": 212,
      "Ĕ": 213,
      "ĕ": 214,
      "Ė": 215,
      "ė": 216,
      "Ę": 217,
      "ę": 218,
      "Ě": 219,
      "ě": 220,
      "Ĝ": 221,
      "ĝ": 222,
      "Ğ": 223,
      "ğ": 224,
      "Ġ": 225,
      "ġ": 226,
      "Ģ": 227,
      "ģ": 228,
      "Ĥ": 229,
      "ĥ": 230,
      "Ħ": 231,
      "ħ": 232,
      "Ĩ": 233,
      "ĩ": 234,
      "Ī": 235,
      "ī": 236,
      "Ĭ": 237,
      "ĭ": 238,
      "Į": 239,
      "į": 240,
      "İ": 241,
      "ı": 242,
      "Ĳ": 243,
      "ĳ": 244,
      "Ĵ": 245,
      "ĵ": 246,
      "Ķ": 247,
      "ķ": 248,
      "ĸ": 249,
      "Ĺ": 250,
      "ĺ": 251,
      "Ļ": 252,
      "ļ": 253,
      "Ľ": 254,
      "ľ": 255,
      "Ŀ": 256,
      "ŀ": 257,
      "Ł": 258,
      "ł": 259,
      "Ń": 260,
      "ï¼": 261,
      "ä¸": 262,
      "ï¼Į": 263,
      "ãĢ": 264,
      "äº": 265,
      "çļ": 266,
      "çļĦ": 267,
      "å®": 268,
      "ãĢĤ": 269,
      "åħ": 270,
      "åĲ": 271,
      "ä¹": 272,
      "ä»": 273,
      "å¹": 274,
      "æľ": 275,
      "å¤": 276,
      "åı": 277,
      "çĶ": 278,
      "æĹ": 279,
      "å¹´": 280,
      "æĪ": 281,
      "åľ": 282,
      "æŃ": 283,
      "åĽ": 284,
      "å°": 285,
      "åĪ": 286,
      "åĨ": 287,
      "è¿": 288,
      "ç»": 289,
      "æĿ": 290,
      "å®¶": 291,
      "æ°": 292,
      "æĺ": 293,
      "ä½": 294,
      "åį": 295,
      "ä¸º": 296,
      "ï¼Ī": 297,
      "ï¼ī": 298,
      "åĬ": 299,
      "âĢ": 300,
      "æĶ": 301,
      "ä¿": 302,
      "ãĢģ": 303,
      "åŁ": 304,
      "å·": 305,
      "æĸ": 306,
      "ä¸Ģ": 307,
      "ä¹ĭ": 308,
      "éķ": 309,
      "èĩ": 310,
      "åº": 311,
      "åľ¨": 312,
      "çĶ°": 313,
      "å±": 314,
      "åŁİ": 315,
      "åĲİ": 316,
      "å¤§": 317,
      "æ°ı": 318,
      "ç§": 319,
      "éķ¿": 320,
      "å¾": 321,
      "ä¼": 322,
      "ä¿¡": 323,
      "å¯": 324,
      "æĪĺ": 325,
      "åĩ": 326,
      "åŃ": 327,
      "éĩ": 328,
      "åĨĽ": 329,
      "åĽ½": 330,
      "æĺ¯": 331,
      "æī": 332,
      "å¼": 333,
      "éĥ": 334,
      "æĹ¶": 335,
      "è¯": 336,
      "äºĨ": 337,
      "è®": 338,
      "ä¸İ": 339,
      "çĽ": 340,
      "èĢ": 341,
      "åİ": 342,
      "æĹ¥": 343,
      "ä¸Ń": 344,
      "äºİ": 345,
      "èµ": 346,
      "éĢ": 347,
      "ä¸Ĭ": 348,
      "äºº": 349,
      "è´": 350,
      "å·Ŀ": 351,
      "å±±": 352,
      "æľĪ": 353,
      "æ²": 354,
      "ä¹ī": 355,
      "15": 356,
      "ä¸ī": 357,
      "å½": 358,
      "èĥ": 359,
      "ä¸į": 360,
      "å°Ĩ": 361,
      "éĺ": 362,
      "åŃĲ": 363,
      "ä»¥": 364,
      "å¿": 365,
      "ç§Ģ": 366,
      "åĮ": 367,
      "åĩº": 368,
      "æľī": 369,
      "å¥": 370,
      "è¢": 371,
      "æŃ£": 372,
      "âĢľ": 373,
      "âĢĿ": 374,
      "æŃ¦": 375,
      "åħĥ": 376,
      "ä¸ĭ": 377,
      "æĶ¿": 378,
      "åĲį": 379,
      "ä»£": 380,
      "éĻ": 381,
      "å¤©": 382,
      "éģ": 383,
      "æĬ": 384,
      "çŃ": 385,
      "åī": 386,
      "æĪĲ": 387,
      "éĹ": 388,
      "æľ¬": 389,
      "æµ": 390,
      "è§": 391,
      "å²": 392,
      "åľ°": 393,
      "èĢĮ": 394,
      "æķ": 395,
      "æŃ¤": 396,
      "åħ¶": 397,
      "é¢": 398,
      "åĪ©": 399,
      "æ´": 400,
      "è¢«": 401,
      "æĻ": 402,
      "åĴ": 403,
      "è¡": 404,
      "å¸": 405,
      "èĩ£": 406,
      "åĴĮ": 407,
      "çİ": 408,
      "éļ": 409,
      "çº": 410,
      "è¾": 411,
      "åįģ": 412,
      "çŁ": 413,
      "åīį": 414,
      "æ³": 415,
      "åĲī": 416,
      "ä¸»": 417,
      "è¶": 418,
      "æĸ¹": 419,
      "ç«": 420,
      "æ±": 421,
      "ä¾": 422,
      "åĨħ": 423,
      "é¢Ĩ": 424,
      "è°": 425,
      "åĲĮ": 426,
      "èĹ": 427,
      "å¯¹": 428,
      "å®Ī": 429,
      "ä»ĸ": 430,
      "èĩª": 431,
      "å¹¶": 432,
      "æ¬": 433,
      "æ¯": 434,
      "æĮ": 435,
      "åĳ": 436,
      "éĩį": 437,
      "åİŁ": 438,
      "åĽł": 439,
      "è¿Ļ": 440,
      "å°ı": 441,
      "æĿ¥": 442,
      "åĪ°": 443,
      "åº·": 444,
      "ç¦": 445,
      "åħµ": 446,
      "æĶ»": 447,
      "åĮĹ": 448,
      "ãģ": 449,
      "çŃī": 450,
      "äº²": 451,
      "æĭ": 452,
      "åĬĽ": 453,
      "å¯º": 454,
      "æİ": 455,
      "çĶŁ": 456,
      "äºĮ": 457,
      "é«": 458,
      "æ¬¡": 459,
      "é«ĺ": 460,
      "æ¸": 461,
      "å®Ĺ": 462,
      "çĪ": 463,
      "è¡Į": 464,
      "ä¿¡éķ¿": 465,
      "ä½ľ": 466,
      "éĥ¨": 467,
      "ä¹Ł": 468,
      "éĿ": 469,
      "éĩİ": 470,
      "ç»ĩ": 471,
      "å½ĵ": 472,
      "çķ": 473,
      "åħ¥": 474,
      "èĥľ": 475,
      "æĢ": 476,
      "ä½Ĩ": 477,
      "æĸĩ": 478,
      "åħ³": 479,
      "ç»ĩçĶ°": 480,
      "çĿ": 481,
      "æīĢ": 482,
      "çĦ": 483,
      "è¦": 484,
      "å¿ł": 485,
      "ä¹ħ": 486,
      "è¿Ľ": 487,
      "æł": 488,
      "ä»»": 489,
      "å¹³": 490,
      "åıĳ": 491,
      "å¦": 492,
      "æĿ¡": 493,
      "å°±": 494,
      "è¦ģ": 495,
      "ç«ĭ": 496,
      "çŁ³": 497,
      "åĲĳ": 498,
      "ä¸ľ": 499,
      "å®ļ": 500,
      "çĦ¶": 501,
      "æı": 502,
      "èĩ³": 503,
      "æľĿ": 504,
      "å¾·": 505,
      "æŀ": 506,
      "ç§ĢåĲī": 507,
      "å²Ľ": 508,
      "å§": 509,
      "çĶ±": 510,
      "å®ī": 511,
      "åĬ¿": 512,
      "ç»§": 513,
      "å¾Ĺ": 514,
      "äºĭ": 515,
      "æŃ¦çĶ°": 516,
      "çĽ´": 517,
      "å¤ļ": 518,
      "æ°¸": 519,
      "ç¥": 520,
      "è½": 521,
      "ä¼Ĭ": 522,
      "ç¬": 523,
      "æĹ¶ä»£": 524,
      "æĺİ": 525,
      "æĥ": 526,
      "çī": 527,
      "éĥ½": 528,
      "ï¼ļ": 529,
      "æĦ": 530,
      "è¯´": 531,
      "é©": 532,
      "æŃ»": 533,
      "æĻ¯": 534,
      "æ²³": 535,
      "æĿ¾": 536,
      "ä¸°": 537,
      "èĻ": 538,
      "ç§°": 539,
      "èĥ½": 540,
      "ä½į": 541,
      "æĽ": 542,
      "çĪ¶": 543,
      "ç¾": 544,
      "éģĵ": 545,
      "åĿ": 546,
      "ãĢĭ": 547,
      "ãĢĬ": 548,
      "æ±Ł": 549,
      "å®ŀ": 550,
      "æį": 551,
      "äºĶ": 552,
      "ä»İ": 553,
      "å»": 554,
      "æ²»": 555,
      "åºľ": 556,
      "åĩ»": 557,
      "åĽĽ": 558,
      "åı¯": 559,
      "å®¶åº·": 560,
      "éĹ´": 561,
      "åĬł": 562,
      "äºķ": 563,
      "å£": 564,
      "æ´¥": 565,
      "çľ": 566,
      "åıĬ": 567,
      "èĹ¤": 568,
      "è¶³": 569,
      "æĿī": 570,
      "è®°": 571,
      "å®¶èĩ£": 572,
      "è§ģ": 573,
      "èµĸ": 574,
      "æľĢ": 575,
      "èī": 576,
      "ä½Ĳ": 577,
      "å¾·å·Ŀ": 578,
      "ä¸ĸ": 579,
      "è¿ĩ": 580,
      "éĹ¨": 581,
      "åĪĨ": 582,
      "å¤©æŃ£": 583,
      "èģ": 584,
      "å¼Ģ": 585,
      "çĻ": 586,
      "ç»ı": 587,
      "è¿ĳ": 588,
      "ä»Ĭ": 589,
      "ä¸ĬæĿī": 590,
      "èº": 591,
      "è¥": 592,
      "éĺµ": 593,
      "ï¼Ľ": 594,
      "çĽ¸": 595,
      "éĽ": 596,
      "è¥¿": 597,
      "ä¼Ĺ": 598,
      "èµ·": 599,
      "æľŁ": 600,
      "æ¯Ľ": 601,
      "èº«": 602,
      "éĢļ": 603,
      "ä¹ĭæĪĺ": 604,
      "éĿ¢": 605,
      "æĿĳ": 606,
      "ä¸ª": 607,
      "åħī": 608,
      "å¤ĸ": 609,
      "åİ»": 610,
      "äº¬": 611,
      "å¹ķ": 612,
      "è¶Ĭ": 613,
      "æĹł": 614,
      "æ¯ĽåĪ©": 615,
      "åĲĪ": 616,
      "ä¸¤": 617,
      "æ¸ħ": 618,
      "16": 619,
      "è·": 620,
      "åĬ¨": 621,
      "æĬ¤": 622,
      "éĥ¡": 623,
      "åĪĻ": 624,
      "æ³ķ": 625,
      "åĳ½": 626,
      "å·²": 627,
      "æį®": 628,
      "éļı": 629,
      "åľŁ": 630,
      "ç¦Ħ": 631,
      "çģ": 632,
      "æŁ": 633,
      "åħŃ": 634,
      "åĮĹæĿ¡": 635,
      "æī¿": 636,
      "æĪ·": 637,
      "å¦Ĥ": 638,
      "èĢħ": 639,
      "ä½¿": 640,
      "é¦": 641,
      "æĮģ": 642,
      "åıĪ": 643,
      "ç¬¬": 644,
      "äº¦": 645,
      "ä¼ļ": 646,
      "æľ¨": 647,
      "åħ«": 648,
      "åį«": 649,
      "åħ¬": 650,
      "æĹı": 651,
      "æ¡": 652,
      "å°¾": 653,
      "åĽŀ": 654,
      "æĪĲä¸º": 655,
      "åºĨ": 656,
      "ç®": 657,
      "æĿĥ": 658,
      "çĿĢ": 659,
      "å¹ķåºľ": 660,
      "èĲ": 661,
      "éĥİ": 662,
      "ä¹Ŀ": 663,
      "æĪĺåĽ½": 664,
      "å¼Ł": 665,
      "00": 666,
      "æģ": 667,
      "ä½ľä¸º": 668,
      "é©¬": 669,
      "éļĨ": 670,
      "è¾¾": 671,
      "åĢ": 672,
      "è¶³åĪ©": 673,
      "ä¹±": 674,
      "ä»ĵ": 675,
      "å¥½": 676,
      "å£«": 677,
      "ç¤": 678,
      "çĶ¨": 679,
      "ç³": 680,
      "ä¸ĩ": 681,
      "èĬ": 682,
      "æĹ¥æľ¬": 683,
      "åįĥ": 684,
      "éª": 685,
      "çİ°": 686,
      "åıĹ": 687,
      "åºĶ": 688,
      "ä¼ł": 689,
      "æĸ°": 690,
      "å±ħ": 691,
      "ç»Ł": 692,
      "ç½": 693,
      "åł": 694,
      "éĤ": 695,
      "é¡": 696,
      "æ»": 697,
      "å¾¡": 698,
      "èİ": 699,
      "ç³»": 700,
      "æ´¾": 701,
      "é¾": 702,
      "åıį": 703,
      "å¤§åĲį": 704,
      "èĪ": 705,
      "è´¥": 706,
      "æĿĢ": 707,
      "åıĸ": 708,
      "æīĭ": 709,
      "èĮ": 710,
      "æ®": 711,
      "ä»¤": 712,
      "çĽĽ": 713,
      "å¿ĥ": 714,
      "ç»ĵ": 715,
      "ä¸°èĩ£": 716,
      "æĶ¯": 717,
      "å¤ĩ": 718,
      "èĭ": 719,
      "åħĪ": 720,
      "ä¸ĥ": 721,
      "äº¤": 722,
      "å¾Ģ": 723,
      "çİĩ": 724,
      "ä¹¦": 725,
      "åĨį": 726,
      "éĺŁ": 727,
      "åįĹ": 728,
      "åĪ¶": 729,
      "è¿ĺ": 730,
      "è´º": 731,
      "çĶº": 732,
      "æĻ´": 733,
      "åıĭ": 734,
      "åį³": 735,
      "âĢĶ": 736,
      "å´": 737,
      "å¥³": 738,
      "å¸Ĥ": 739,
      "æº": 740,
      "ä¾¿": 741,
      "ç¥ŀ": 742,
      "éĢĢ": 743,
      "åħ´": 744,
      "æ°´": 745,
      "ç»§æī¿": 746,
      "çŁ¥": 747,
      "åħ¨": 748,
      "å¢": 749,
      "å¤Ħ": 750,
      "åıĤ": 751,
      "ç»Ī": 752,
      "å°ĨåĨĽ": 753,
      "å»º": 754,
      "ç¨": 755,
      "çľŁ": 756,
      "çĲ": 757,
      "14": 758,
      "ä¿Ŀ": 759,
      "èİ·": 760,
      "åĬŁ": 761,
      "æĦı": 762,
      "å·ŀ": 763,
      "158": 764,
      "æ¶": 765,
      "æĪĳ": 766,
      "æµģ": 767,
      "å®ĪæĬ¤": 768,
      "æĽ¾": 769,
      "çĤ": 770,
      "å¥ī": 771,
      "ç»ĩçĶ°ä¿¡éķ¿": 772,
      "çº²": 773,
      "çĿ£": 774,
      "ç»Ļ": 775,
      "ç»Ĩ": 776,
      "æľª": 777,
      "æµĵ": 778,
      "ç¾½": 779,
      "æ²¡": 780,
      "157": 781,
      "æ·": 782,
      "çł": 783,
      "æķĮ": 784,
      "å¾ģ": 785,
      "ãĤ": 786,
      "æİ¥": 787,
      "åģ": 788,
      "å®¤": 789,
      "æĹ©": 790,
      "åº¦": 791,
      "åİĨ": 792,
      "çļĩ": 793,
      "åį´": 794,
      "è®¤": 795,
      "æĶ¹": 796,
      "äº¬éĥ½": 797,
      "å§ĭ": 798,
      "å®«": 799,
      "çĶ²": 800,
      "èį": 801,
      "çĭ": 802,
      "å¤ª": 803,
      "èĹ©": 804,
      "æ°¸ç¦Ħ": 805,
      "å±±åŁİ": 806,
      "èĻİ": 807,
      "æµ·": 808,
      "éĩĮ": 809,
      "ä»¬": 810,
      "å¹¿": 811,
      "åĸ": 812,
      "åı²": 813,
      "çŃĳ": 814,
      "å·¦": 815,
      "éĻ¢": 816,
      "åĿĤ": 817,
      "åĪĿ": 818,
      "ç»Ń": 819,
      "æĴ": 820,
      "æĭħ": 821,
      "å®ĺ": 822,
      "æķĻ": 823,
      "éĵ": 824,
      "å¤©æĸĩ": 825,
      "ç»Ĩå·Ŀ": 826,
      "åĵ": 827,
      "å¸¸": 828,
      "æ¦": 829,
      "åĦ": 830,
      "è´ŀ": 831,
      "æ³¢": 832,
      "è±": 833,
      "æı´": 834,
      "æŃ¦å°Ĩ": 835,
      "ä¸¸": 836,
      "156": 837,
      "çī©": 838,
      "å·±": 839,
      "æĮĩ": 840,
      "åĬ¿åĬĽ": 841,
      "ä»Ĭå·Ŀ": 842,
      "å«": 843,
      "å®¶çĿ£": 844,
      "çİĦ": 845,
      "è°·": 846,
      "éĶ": 847,
      "èī¯": 848,
      "å¼ł": 849,
      "æīĵ": 850,
      "èĤ": 851,
      "è¶³åĪ©ä¹ī": 852,
      "ç¾İ": 853,
      "è¾ī": 854,
      "è¿ľ": 855,
      "åĬ©": 856,
      "èĻ½": 857,
      "å²Ľæ´¥": 858,
      "åıª": 859,
      "10": 860,
      "æĪĺåĽ½æĹ¶ä»£": 861,
      "å¾·å·Ŀå®¶åº·": 862,
      "åľº": 863,
      "æ¨": 864,
      "çĲĨ": 865,
      "åĭ": 866,
      "æĪĸ": 867,
      "è®©": 868,
      "è¿ŀ": 869,
      "é¢Ĩåľ°": 870,
      "çĻ¾": 871,
      "åĨĪ": 872,
      "æºĲ": 873,
      "åºĨéķ¿": 874,
      "åĽ´": 875,
      "æ±ŁæĪ·": 876,
      "åĦ¿": 877,
      "äºī": 878,
      "ç¼": 879,
      "æ¦Ĥ": 880,
      "é¦ĸ": 881,
      "äº¡": 882,
      "èģĮ": 883,
      "åı£": 884,
      "å´İ": 885,
      "è¯¸": 886,
      "æ»¡": 887,
      "ç§į": 888,
      "æĪ¿": 889,
      "çĬ": 890,
      "åħ»": 891,
      "äºĪ": 892,
      "æ±Ĥ": 893,
      "èģĶ": 894,
      "åıĺ": 895,
      "åı¤": 896,
      "åı³": 897,
      "æĳ": 898,
      "é£": 899,
      "æĢ»": 900,
      "åĨ³": 901,
      "12": 902,
      "è·¯": 903,
      "èĩªå·±": 904,
      "å±ŀ": 905,
      "åħĦ": 906,
      "çĦ¶èĢĮ": 907,
      "çĮ": 908,
      "çķĻ": 909,
      "éģĤ": 910,
      "å±ĭ": 911,
      "æĺĮ": 912,
      "å¹¸": 913,
      "è¨": 914,
      "è½¬": 915,
      "è¯·": 916,
      "å²ģ": 917,
      "èĢģ": 918,
      "éħ": 919,
      "æķ°": 920,
      "å¤±": 921,
      "å½ĵæĹ¶": 922,
      "èĲ½": 923,
      "æŁ´": 924,
      "çª": 925,
      "ä»ħ": 926,
      "å¤´": 927,
      "éĢĥ": 928,
      "é»": 929,
      "æĶ¶": 930,
      "åĮĸ": 931,
      "å¼º": 932,
      "éĻ·": 933,
      "è®¨": 934,
      "è½½": 935,
      "éģŃ": 936,
      "åĮħ": 937,
      "æ¦Ĥè¦ģ": 938,
      "11": 939,
      "æ£": 940,
      "å¼ĺ": 941,
      "ä»į": 942,
      "å¼Ģå§ĭ": 943,
      "ä¿¡çİĦ": 944,
      "åĲĦ": 945,
      "ç®¡": 946,
      "æĭħä»»": 947,
      "ç¡": 948,
      "ä¸īå¥½": 949,
      "æł·": 950,
      "åŁº": 951,
      "å°ģ": 952,
      "èĹı": 953,
      "ä¸¾": 954,
      "è¡¨": 955,
      "è¨Ģ": 956,
      "å°¼": 957,
      "å½¢": 958,
      "ä¼Ĳ": 959,
      "åħ³ä¸ľ": 960,
      "éĻį": 961,
      "çĪ¶äº²": 962,
      "13": 963,
      "å½Ĵ": 964,
      "åİ¿": 965,
      "äºĮåįģ": 966,
      "åħ¼": 967,
      "ç©": 968,
      "å¤§åıĭ": 969,
      "å¤§åĨħ": 970,
      "æĬķ": 971,
      "éĺ²": 972,
      "é¾Ļ": 973,
      "éĤ£": 974,
      "åŃĺ": 975,
      "æıĲ": 976,
      "è§Ĩ": 977,
      "çķ¥": 978,
      "èµĲ": 979,
      "å®ĩ": 980,
      "èĬ±": 981,
      "å½¹": 982,
      "åĮº": 983,
      "éĢł": 984,
      "æł¹": 985,
      "æĺ¥": 986,
      "åı¦": 987,
      "åĲĮå¹´": 988,
      "çİĭ": 989,
      "åİ»ä¸ĸ": 990,
      "è£": 991,
      "è®®": 992,
      "èĳ": 993,
      "åħĥå¹´": 994,
      "159": 995,
      "è¾¹": 996,
      "æĺ¾": 997,
      "æĶ¾": 998,
      "æľį": 999,
      "å¤©çļĩ": 1000,
      "éĩĳ": 1001,
      "çĹ": 1002,
      "ä»ķ": 1003,
      "è®¤ä¸º": 1004,
      "èĩ´": 1005,
      "è°¦": 1006,
      "æĥħ": 1007,
      "æĽ´": 1008,
      "åĽ¾": 1009,
      "æµħ": 1010,
      "ä¹ĭåĲİ": 1011,
      "ä½ĵ": 1012,
      "å°ĳ": 1013,
      "æļ": 1014,
      "æĬĹ": 1015,
      "åĥ": 1016,
      "å¸¦": 1017,
      "å«¡": 1018,
      "ç¦ı": 1019,
      "å¤į": 1020,
      "éķĩ": 1021,
      "æĸĭ": 1022,
      "èĭ¥": 1023,
      "å¼ı": 1024,
      "æ®¿": 1025,
      "å¯Į": 1026,
      "çģŃ": 1027,
      "ç±": 1028,
      "åĪ«": 1029,
      "æĿ¾å¹³": 1030,
      "åĽłä¸º": 1031,
      "è°¦ä¿¡": 1032,
      "çĻ½": 1033,
      "çĤ¹": 1034,
      "åĽłæŃ¤": 1035,
      "ä½Ļ": 1036,
      "çĥ": 1037,
      "ç«¹": 1038,
      "ãĥ": 1039,
      "å¸ĥ": 1040,
      "çĶ·": 1041,
      "æ¯į": 1042,
      "ä¹ĭåŃĲ": 1043,
      "æĪĺæŃ»": 1044,
      "åı·": 1045,
      "Â·": 1046,
      "å¤º": 1047,
      "çªģ": 1048,
      "è§Ĵ": 1049,
      "åĲİæĿ¥": 1050,
      "éľ": 1051,
      "ç¿": 1052,
      "æ±ł": 1053,
      "æľº": 1054,
      "æ¿": 1055,
      "è¿ĽæĶ»": 1056,
      "äº«": 1057,
      "åºĦ": 1058,
      "éĻĨ": 1059,
      "ç¦»": 1060,
      "æ²¡æľī": 1061,
      "å°¼åŃĲ": 1062,
      "ç¤¾": 1063,
      "155": 1064,
      "éĽĨ": 1065,
      "å¨": 1066,
      "ä¸Ķ": 1067,
      "æĻº": 1068,
      "æĸŃ": 1069,
      "è¯¥": 1070,
      "è¯Ń": 1071,
      "æĹ§": 1072,
      "è´Ł": 1073,
      "è§£": 1074,
      "çº¦": 1075,
      "éº": 1076,
      "æĤ": 1077,
      "åĲĪæĪĺ": 1078,
      "ä»½": 1079,
      "æīį": 1080,
      "çĽ®": 1081,
      "æĦ¿": 1082,
      "éĺ¿": 1083,
      "æĸ¹éĿ¢": 1084,
      "è¢Ń": 1085,
      "æĺŃ": 1086,
      "ç²": 1087,
      "çģ«": 1088,
      "åħ³ç³»": 1089,
      "å±ķ": 1090,
      "å²©": 1091,
      "æŀģ": 1092,
      "å§ĵ": 1093,
      "æŀľ": 1094,
      "ä¼Ĭè¾¾": 1095,
      "ãĢį": 1096,
      "ãĢĮ": 1097,
      "æĬĬ": 1098,
      "ä¾µ": 1099,
      "çĽŁ": 1100,
      "è´£": 1101,
      "åŃĻ": 1102,
      "ä¹¡": 1103,
      "æŃ¦å£«": 1104,
      "æŃ¤æĹ¶": 1105,
      "éĻ¤": 1106,
      "é»ĳ": 1107,
      "åŃĿ": 1108,
      "è°ĭ": 1109,
      "æ´»": 1110,
      "åħ±": 1111,
      "è®°è½½": 1112,
      "éĿŀ": 1113,
      "ç¡®": 1114,
      "åĳ¨": 1115,
      "èµĦ": 1116,
      "æĥ³": 1117,
      "ä¸¹": 1118,
      "æ¯Ķ": 1119,
      "äºĽ": 1120,
      "åŃĹ": 1121,
      "ä¸°èĩ£ç§ĢåĲī": 1122,
      "æ°ĳ": 1123,
      "ä¸īæ²³": 1124,
      "äºĳ": 1125,
      "æĢ§": 1126,
      "æķħ": 1127,
      "19": 1128,
      "æ·±": 1129,
      "åĲĮæĹ¶": 1130,
      "åĸľ": 1131,
      "åĬ¡": 1132,
      "éªı": 1133,
      "é¹": 1134,
      "æľĿä»ĵ": 1135,
      "è¿½": 1136,
      "åıĽ": 1137,
      "éķ°": 1138,
      "çķł": 1139,
      "èĦ": 1140,
      "é¥": 1141,
      "çĹħ": 1142,
      "çĬ¶": 1143,
      "æıĨ": 1144,
      "ä¸Ģä¸ª": 1145,
      "ä¸īå¹´": 1146,
      "è®¾": 1147,
      "å°½": 1148,
      "ä¸ĢæıĨ": 1149,
      "äºĮå¹´": 1150,
      "çºª": 1151,
      "è®¸": 1152,
      "ä»¶": 1153,
      "å½ĵä¸»": 1154,
      "æĸĻ": 1155,
      "18": 1156,
      "çľĭ": 1157,
      "äºİæĺ¯": 1158,
      "å°ļ": 1159,
      "çĸ": 1160,
      "å¥¥": 1161,
      "éļ¾": 1162,
      "ç»Ŀ": 1163,
      "æĸĲ": 1164,
      "ä¹ĭä¹±": 1165,
      "ä½Ĩæĺ¯": 1166,
      "ç¾İæµĵ": 1167,
      "éĢĲ": 1168,
      "èµ¤": 1169,
      "ä¸ĢåĲĮ": 1170,
      "çł´": 1171,
      "å®¤çĶº": 1172,
      "å¢ŀ": 1173,
      "é¾Ł": 1174,
      "æĸĹ": 1175,
      "æİ¨": 1176,
      "è¿Ľåħ¥": 1177,
      "éĩįèĩ£": 1178,
      "ä½ı": 1179,
      "è¿ĳæ±Ł": 1180,
      "å¸Ī": 1181,
      "éķ°ä»ĵ": 1182,
      "éĴ": 1183,
      "åŃ¦": 1184,
      "ä»¥åıĬ": 1185,
      "å¾Ī": 1186,
      "å®Į": 1187,
      "æĺĵ": 1188,
      "154": 1189,
      "æľĢç»Ī": 1190,
      "ä¸ĩçŁ³": 1191,
      "åķ": 1192,
      "çĶ²æĸĲ": 1193,
      "åįĬ": 1194,
      "ä¿®": 1195,
      "èī²": 1196,
      "åŀ": 1197,
      "åīįå¾Ģ": 1198,
      "å²Ĳ": 1199,
      "è®¡": 1200,
      "å°¾å¼ł": 1201,
      "ä¾į": 1202,
      "é²": 1203,
      "ç¹": 1204,
      "ç¤º": 1205,
      "å°ıçĶ°": 1206,
      "èĮĤ": 1207,
      "å¤§åĿĤ": 1208,
      "æ³½": 1209,
      "æ¢": 1210,
      "ç´": 1211,
      "å¿Ĺ": 1212,
      "ä¼ĬåĬ¿": 1213,
      "æµ¦": 1214,
      "èº«ä»½": 1215,
      "å¯¼": 1216,
      "ç§ĭ": 1217,
      "å¼ķ": 1218,
      "ä¾Ŀ": 1219,
      "éĻĦ": 1220,
      "ä¿¡æµĵ": 1221,
      "æŃ¤åĲİ": 1222,
      "éĻħ": 1223,
      "å°±æĺ¯": 1224,
      "çĶ±äºİ": 1225,
      "æĴ¤": 1226,
      "å®īåľŁ": 1227,
      "æ´Ľ": 1228,
      "å¦»": 1229,
      "éģĹ": 1230,
      "åĪĢ": 1231,
      "æĬµ": 1232,
      "æĹ¶æľŁ": 1233,
      "åĩºåħµ": 1234,
      "è´¤": 1235,
      "ä¸įè¿ĩ": 1236,
      "å»¶": 1237,
      "é¡»": 1238,
      "ç¹ģ": 1239,
      "éĹ®": 1240,
      "åĲĽ": 1241,
      "åĪĩ": 1242,
      "å®½": 1243,
      "æĭ¥": 1244,
      "èīº": 1245,
      "æ£®": 1246,
      "é¸": 1247,
      "ç½®": 1248,
      "é£İ": 1249,
      "æĶ»åĩ»": 1250,
      "èĪ¹": 1251,
      "ä¼ı": 1252,
      "ä¸ļ": 1253,
      "æĹĹ": 1254,
      "åĽ¢": 1255,
      "éģ£": 1256,
      "éĽĦ": 1257,
      "åħ·": 1258,
      "è¿Ķ": 1259,
      "æµħäºķ": 1260,
      "åħīç§Ģ": 1261,
      "éļıåĲİ": 1262,
      "è¿Ľè¡Į": 1263,
      "è¶ĬåĲİ": 1264,
      "åĳĺ": 1265,
      "å¤«": 1266,
      "ä¹Ŀå·ŀ": 1267,
      "20": 1268,
      "ä»ĸä»¬": 1269,
      "ç¥ĸ": 1270,
      "é¦Ĩ": 1271,
      "æľĽ": 1272,
      "åłĤ": 1273,
      "æ¡¥": 1274,
      "éªĳ": 1275,
      "ä¹ĭä¸Ģ": 1276,
      "ï¼Ł": 1277,
      "åĽ½äºº": 1278,
      "åħ³åİŁ": 1279,
      "ä»ĭ": 1280,
      "åħ»åŃĲ": 1281,
      "éĹ»": 1282,
      "æ¸¡": 1283,
      "éķ¿å°¾": 1284,
      "è¿İ": 1285,
      "éĢģ": 1286,
      "çĽĬ": 1287,
      "è¿Ĳ": 1288,
      "åŁİä¸»": 1289,
      "å±Ģ": 1290,
      "ä¸ºäºĨ": 1291,
      "åĳĬ": 1292,
      "æĸĭèĹ¤": 1293,
      "èĥĮ": 1294,
      "å®ª": 1295,
      "ä¾§": 1296,
      "èĮ¶": 1297,
      "çŃĸ": 1298,
      "éħį": 1299,
      "è±ª": 1300,
      "æŃ¦çĶ°ä¿¡çİĦ": 1301,
      "æĬ¥": 1302,
      "åį«éĹ¨": 1303,
      "ç«ĭèĬ±": 1304,
      "åĩĨ": 1305,
      "æĦŁ": 1306,
      "éĵģ": 1307,
      "èµ°": 1308,
      "è½»": 1309,
      "èĤ¥": 1310,
      "åħ¬æĸ¹": 1311,
      "çľŁçĶ°": 1312,
      "é²ľ": 1313,
      "åľ°åĮº": 1314,
      "è´¨": 1315,
      "éļĲ": 1316,
      "éī": 1317,
      "ä»ģ": 1318,
      "åĨ²": 1319,
      "åıĮ": 1320,
      "éĩı": 1321,
      "æĶ¯æĮģ": 1322,
      "èı": 1323,
      "åįł": 1324,
      "17": 1325,
      "çķłå±±": 1326,
      "æ¡ĥ": 1327,
      "æ¶Ī": 1328,
      "å·¦åį«éĹ¨": 1329,
      "çħ": 1330,
      "éī´": 1331,
      "æ³ī": 1332,
      "æŀª": 1333,
      "ç»Łæ²»": 1334,
      "å¤ľ": 1335,
      "çº³": 1336,
      "ä¸īæĪĲ": 1337,
      "èħ": 1338,
      "è¯¦": 1339,
      "æĸ¯": 1340,
      "æ¨¡": 1341,
      "å¥īè¡Į": 1342,
      "è¿«": 1343,
      "æľ«": 1344,
      "å³": 1345,
      "å½ķ": 1346,
      "åĪĹ": 1347,
      "æĶ¿æĿĥ": 1348,
      "è§Ĥ": 1349,
      "è¶Ĭåīį": 1350,
      "é¡º": 1351,
      "è´Łè´£": 1352,
      "å·²ç»ı": 1353,
      "åĦ¿åŃĲ": 1354,
      "åĵį": 1355,
      "ç¿Į": 1356,
      "æŃ¤å¤ĸ": 1357,
      "å®£": 1358,
      "æķ´": 1359,
      "å½±": 1360,
      "è°±": 1361,
      "æĹ¥è¯Ń": 1362,
      "æľĿé²ľ": 1363,
      "çº¿": 1364,
      "äººçī©": 1365,
      "å¾ħ": 1366,
      "çĪ¶åŃĲ": 1367,
      "ç§»": 1368,
      "æľĢåĲİ": 1369,
      "å¤§å°Ĩ": 1370,
      "çĻ»": 1371,
      "ãĥ»": 1372,
      "å·¥": 1373,
      "åı¯èĥ½": 1374,
      "çİĩé¢Ĩ": 1375,
      "å©": 1376,
      "åĮħåĽ´": 1377,
      "è¿ĻäºĽ": 1378,
      "çī¹": 1379,
      "ç§°ä¸º": 1380,
      "ä¹Ī": 1381,
      "æĺİæĻº": 1382,
      "æ¾": 1383,
      "ç±³": 1384,
      "æŃ¥": 1385,
      "éĢļè¿ĩ": 1386,
      "éĩįè¦ģ": 1387,
      "åĽĽå¹´": 1388,
      "ç¾½æŁ´": 1389,
      "åłĢ": 1390,
      "åĭĩ": 1391,
      "ä¸Ĭæ´Ľ": 1392,
      "è¾ħ": 1393,
      "ãģ®": 1394,
      "åıĳçĶŁ": 1395,
      "åĩł": 1396,
      "ä¸Ĭéĩİ": 1397,
      "å¹¡": 1398,
      "å«¡åŃĲ": 1399,
      "æŀĹ": 1400,
      "åįģä¸Ģ": 1401,
      "åĨĽäºĭ": 1402,
      "åİĭ": 1403,
      "åĢĴ": 1404,
      "å¿ħ": 1405,
      "éķ¿æĶ¿": 1406,
      "000": 1407,
      "ä¸¥": 1408,
      "ä¹Ĳ": 1409,
      "åĳ½ä»¤": 1410,
      "åķĨ": 1411,
      "å°ıçĶ°åİŁ": 1412,
      "ä½ķ": 1413,
      "éªıæ²³": 1414,
      "å¤©ä¸ĭ": 1415,
      "æŃ¢": 1416,
      "ä¹ĭéĹ´": 1417,
      "çļĨ": 1418,
      "é©»": 1419,
      "è¿Ļä¸ª": 1420,
      "ä¹ĥ": 1421,
      "èĲ¥": 1422,
      "åıĤä¸İ": 1423,
      "ä¸ĬæĿīè°¦ä¿¡": 1424,
      "åĮĹæĿ¡æ°ı": 1425,
      "éĶĭ": 1426,
      "è§Ħ": 1427,
      "å®³": 1428,
      "è°ĥ": 1429,
      "èĥľèµĸ": 1430,
      "æľ¯": 1431,
      "å¨ģ": 1432,
      "åĶ": 1433,
      "æĳĦ": 1434,
      "æĶ¿å®Ĺ": 1435,
      "å°Ĭ": 1436,
      "åı³åį«": 1437,
      "å¾ģä¼Ĳ": 1438,
      "æ¼": 1439,
      "çº§": 1440,
      "è®¨ä¼Ĳ": 1441,
      "çĨ": 1442,
      "çĪ±": 1443,
      "ä¿Ĭ": 1444,
      "çĭ¬": 1445,
      "æ¡ĥå±±": 1446,
      "æ°Ķ": 1447,
      "è¾īåħĥ": 1448,
      "å¹¼": 1449,
      "åı¶": 1450,
      "è¥¿åĨĽ": 1451,
      "çĪĨ": 1452,
      "åģļ": 1453,
      "ç®¡é¢Ĩ": 1454,
      "åľ°æĸ¹": 1455,
      "é¢Ĩä¸»": 1456,
      "æĹ©å·Ŀ": 1457,
      "åħµåĬĽ": 1458,
      "153": 1459,
      "çħ§": 1460,
      "æ¶¯": 1461,
      "åħŃè§Ĵ": 1462,
      "çĶŁæ¶¯": 1463,
      "éĽª": 1464,
      "åħ¶ä¸Ń": 1465,
      "çº·": 1466,
      "æİ§": 1467,
      "ä»¥åĲİ": 1468,
      "èĳĹ": 1469,
      "æĮ¥": 1470,
      "æ¡ĥå±±æĹ¶ä»£": 1471,
      "åĨ³å®ļ": 1472,
      "çĶļ": 1473,
      "æŀĦ": 1474,
      "æ¾Ħ": 1475,
      "åīįçĶ°": 1476,
      "èĥ¤": 1477,
      "å¢ĥ": 1478,
      "äºĶå¹´": 1479,
      "ä¹ĺ": 1480,
      "åº§": 1481,
      "å°ıæĹ©å·Ŀ": 1482,
      "å®īåľŁæ¡ĥå±±æĹ¶ä»£": 1483,
      "çĪĨåıĳ": 1484,
      "æĬķéĻį": 1485,
      "æī©": 1486,
      "æĸĩä¹¦": 1487,
      "é¢ĺ": 1488,
      "æ°¸æŃ£": 1489,
      "åĪĴ": 1490,
      "å»·": 1491,
      "æħ": 1492,
      "åħį": 1493,
      "åĩºçİ°": 1494,
      "åĽº": 1495,
      "éĨ": 1496,
      "åıĤåĬł": 1497,
      "åĢĻ": 1498,
      "å¡": 1499,
      "ä½Ĳç«¹": 1500,
      "è¿°": 1501,
      "æİĮ": 1502,
      "åĺ": 1503,
      "è®º": 1504,
      "èĮĥ": 1505,
      "èĻ½çĦ¶": 1506,
      "æĶ¿æ²»": 1507,
      "æĦ¿å¯º": 1508,
      "è¿¹": 1509,
      "åħĦå¼Ł": 1510,
      "ä»»åĳ½": 1511,
      "äº§": 1512,
      "æľ¬æĦ¿å¯º": 1513,
      "æģ¯": 1514,
      "ç¤¼": 1515,
      "èĴ": 1516,
      "æł¼": 1517,
      "å¾ĹåĪ°": 1518,
      "åĿļ": 1519,
      "åĨµ": 1520,
      "åħµåį«": 1521,
      "æīĢä»¥": 1522,
      "åİĨåı²": 1523,
      "ç¬ł": 1524,
      "ç»Ħ": 1525,
      "ç£": 1526,
      "æĸĩç¦Ħ": 1527,
      "åı¸": 1528,
      "æ¿Ģ": 1529,
      "160": 1530,
      "çĭŃ": 1531,
      "å¼ĥ": 1532,
      "æ¸Ĳ": 1533,
      "åı°": 1534,
      "ä¸ĢåĲĳ": 1535,
      "éĥ¨éĺŁ": 1536,
      "æľĿå»·": 1537,
      "çĤ®": 1538,
      "å®Ŀ": 1539,
      "ä¼¤": 1540,
      "æĻ¯èĥľ": 1541,
      "åĩºçĶŁ": 1542,
      "ä¸ĢæĹı": 1543,
      "å§¬": 1544,
      "é¸Ł": 1545,
      "ç¾½æŁ´ç§ĢåĲī": 1546,
      "åĸĦ": 1547,
      "éĥ¨åĪĨ": 1548,
      "è·Ł": 1549,
      "èª": 1550,
      "ç»ĩçĶ°ä¿¡": 1551,
      "åįģäºĮ": 1552,
      "è¯´æ³ķ": 1553,
      "åı²æĸĻ": 1554,
      "æĪĳéĥ¨": 1555,
      "æĸ½": 1556,
      "èİ·å¾Ĺ": 1557,
      "æ¨ª": 1558,
      "è®¿": 1559,
      "å®¶æĹı": 1560,
      "çģŃäº¡": 1561,
      "æĢģ": 1562,
      "åĨĻ": 1563,
      "è¯ģ": 1564,
      "åįı": 1565,
      "éĢĶ": 1566,
      "æ³°": 1567,
      "éĢŁ": 1568,
      "è¯Ŀ": 1569,
      "ä¾ĭ": 1570,
      "åĥ§": 1571,
      "æ²¼": 1572,
      "å¯¹ç«ĭ": 1573,
      "éķ¿å®Ĺ": 1574,
      "ä½ľæĪĺ": 1575,
      "å¯Ĩ": 1576,
      "æļĹ": 1577,
      "çĮ®": 1578,
      "æĶ»æīĵ": 1579,
      "ä½Ľ": 1580,
      "ä¹īåħĥ": 1581,
      "éĺª": 1582,
      "èĥľå®¶": 1583,
      "å¼Ĥ": 1584,
      "éķ¿å®ĹæĪĳéĥ¨": 1585,
      "æĸ©": 1586,
      "æī§": 1587,
      "èµı": 1588,
      "å®īèīº": 1589,
      "é»ĳçĶ°": 1590,
      "æĪĺæĸĹ": 1591,
      "ç»§ç»Ń": 1592,
      "äº¤æĪĺ": 1593,
      "äº«å¹´": 1594,
      "éĢĿ": 1595,
      "åĬĿ": 1596,
      "å±±åĲį": 1597,
      "ç¬¬ä¸Ģ": 1598,
      "åĹ": 1599,
      "è§Ĩä¸º": 1600,
      "åı¬": 1601,
      "å¼¥": 1602,
      "å¤§åĴĮ": 1603,
      "åĽŃ": 1604,
      "ä¸įè¯¦": 1605,
      "åĪĽ": 1606,
      "æķĳ": 1607,
      "æľŁéĹ´": 1608,
      "å®ħ": 1609,
      "æĪĲåĬŁ": 1610,
      "åĥı": 1611,
      "ç®Ĺ": 1612,
      "äºĭä»¶": 1613,
      "åľ°ä½į": 1614,
      "æĹłæ³ķ": 1615,
      "åĩºèº«": 1616,
      "éħĴ": 1617,
      "åĨįæ¬¡": 1618,
      "æĢ¥": 1619,
      "éķ¿åŃĲ": 1620,
      "å¤§åĨĽ": 1621,
      "è§ī": 1622,
      "å²³": 1623,
      "æŁ´çĶ°": 1624,
      "åı¯ä»¥": 1625,
      "èĪ¬": 1626,
      "ç¨ĭ": 1627,
      "ä»ĺ": 1628,
      "å±±åĨħ": 1629,
      "åįĴ": 1630,
      "åıĳåĬ¨": 1631,
      "æ´¾éģ£": 1632,
      "åĢŁ": 1633,
      "åĲīå·Ŀ": 1634,
      "åıĮæĸ¹": 1635,
      "å¼Łå¼Ł": 1636,
      "æĲ": 1637,
      "è°Ī": 1638,
      "åĪ»": 1639,
      "æĶ»éĻ·": 1640,
      "å½±åĵį": 1641,
      "çŁ³çĶ°": 1642,
      "ä½įäºİ": 1643,
      "æ¿ĳ": 1644,
      "æĴŃ": 1645,
      "ä»ķäºİ": 1646,
      "ä¹İ": 1647,
      "ä¸´": 1648,
      "æŃĮ": 1649,
      "åĬłè´º": 1650,
      "ç§Ģå¿ł": 1651,
      "çķª": 1652,
      "ä¸ľåĨĽ": 1653,
      "è¿ĶåĽŀ": 1654,
      "å¤§éĺª": 1655,
      "éĻ¶": 1656,
      "æ¬¡åŃĲ": 1657,
      "åħĥé¾Ł": 1658,
      "è¶Ĭä¸Ń": 1659,
      "æĴ¤éĢĢ": 1660,
      "å£°": 1661,
      "ä¼¼": 1662,
      "ç»´": 1663,
      "æ®µ": 1664,
      "æĳ©": 1665,
      "åį°": 1666,
      "å¹³å®ļ": 1667,
      "å¾Ĵ": 1668,
      "åĲĮçĽŁ": 1669,
      "éĿł": 1670,
      "ç¦ģ": 1671,
      "åĹ£": 1672,
      "ä¹ĭåıĺ": 1673,
      "å±ħåŁİ": 1674,
      "åıĹåĪ°": 1675,
      "æľ¬èĥ½": 1676,
      "ä¸»è¦ģ": 1677,
      "éĩĩ": 1678,
      "æı´åĨĽ": 1679,
      "æľ¬èĥ½å¯º": 1680,
      "ä¸ĢçĽ´": 1681,
      "ç»Łä¸Ģ": 1682,
      "ç£¨": 1683,
      "åĲ¬": 1684,
      "æ²³åĨħ": 1685,
      "ä¸ŃåĽ½": 1686,
      "åĸľå¤ļ": 1687,
      "çĮĽ": 1688,
      "è¯·æ±Ĥ": 1689,
      "ä¸įä¹ħ": 1690,
      "æĺİæĻºåħīç§Ģ": 1691,
      "çĸĳ": 1692,
      "åĬłåħ¥": 1693,
      "éģŃåĪ°": 1694,
      "1582": 1695,
      "è´µ": 1696,
      "ä½ł": 1697,
      "é¾ĻéĢł": 1698,
      "¾ä¸ĭ": 1699,
      "é¾ĻéĢłå¯º": 1700,
      "éŁ": 1701,
      "éº¾ä¸ĭ": 1702,
      "ä¾Ľ": 1703,
      "åĨľ": 1704,
      "æĪĺåĲİ": 1705,
      "ç¿Įå¹´": 1706,
      "æ¬²": 1707,
      "ç»ĵæŀľ": 1708,
      "è¿Ļæł·": 1709,
      "å¯¹æĬĹ": 1710,
      "æĪĺäºī": 1711,
      "åĨĽéĺŁ": 1712,
      "æŁ³": 1713,
      "è¿ľæ±Ł": 1714,
      "èħ¹": 1715,
      "è·ĥ": 1716,
      "ï¼ģ": 1717,
      "å¹´éĹ´": 1718,
      "åħĥå°±": 1719,
      "æµİ": 1720,
      "æ¯ĽåĪ©åħĥå°±": 1721,
      "å¦¹": 1722,
      "æľĢä¸Ĭ": 1723,
      "åģľ": 1724,
      "è±ªæĹı": 1725,
      "æĸ¯æ³¢": 1726,
      "éļĲå±ħ": 1727,
      "æĵ": 1728,
      "èĴ²": 1729,
      "åħŃå¹´": 1730,
      "ç¬¬äºĮ": 1731,
      "æĭ¬": 1732,
      "è¿ģ": 1733,
      "çķ¿": 1734,
      "åħ±åĲĮ": 1735,
      "å®ĩåĸľå¤ļ": 1736,
      "æĳĦæ´¥": 1737,
      "åĪ©å®¶": 1738,
      "æĶ¹åĲį": 1739,
      "æ¸¸": 1740,
      "é¹¿": 1741,
      "éķ¿åºĨ": 1742,
      "å¥Ī": 1743,
      "é¥Ń": 1744,
      "æĹ¶éĹ´": 1745,
      "åįĹéĥ¨": 1746,
      "åħ³äºİ": 1747,
      "éĺ³": 1748,
      "ä¸»åĲĽ": 1749,
      "éģĩ": 1750,
      "æŃ¦èĹı": 1751,
      "æĿĤ": 1752,
      "è¦ģæ±Ĥ": 1753,
      "çľ¼": 1754,
      "å®¿": 1755,
      "æĿĳä¸Ĭ": 1756,
      "åĩ»è´¥": 1757,
      "åĺī": 1758,
      "æİĪ": 1759,
      "ç¥ŀç¤¾": 1760,
      "æ¥": 1761,
      "èģĶåĨĽ": 1762,
      "æİ§åĪ¶": 1763,
      "å®ĩéĥ½": 1764,
      "ä½¿çĶ¨": 1765,
      "æĥŁ": 1766,
      "å¿«": 1767,
      "å¥ĭ": 1768,
      "æ¼Ķ": 1769,
      "èįĴ": 1770,
      "å¥³åĦ¿": 1771,
      "åĪ¤": 1772,
      "æŃ£å¼ı": 1773,
      "ç©¶": 1774,
      "å®¹": 1775,
      "çī§": 1776,
      "ç¥Ĳ": 1777,
      "åħ«æľĪ": 1778,
      "æĿŁ": 1779,
      "åĩĨå¤ĩ": 1780,
      "åĵģ": 1781,
      "åĮħæĭ¬": 1782,
      "æ»¨": 1783,
      "éĵģçĤ®": 1784,
      "è¯¹": 1785,
      "å²¸": 1786,
      "æ°´åĨĽ": 1787,
      "åĪĿæľŁ": 1788,
      "æĪĺåĽ½å¤§åĲį": 1789,
      "åħĥäº²": 1790,
      "åĻ": 1791,
      "åħĪéĶĭ": 1792,
      "è¶ģ": 1793,
      "ä¼¯": 1794,
      "å®ĩéĥ½å®«": 1795,
      "152": 1796,
      "åħ¶åŃĲ": 1797,
      "ä¸Ģæĸ¹éĿ¢": 1798,
      "åŃĺåľ¨": 1799,
      "è¿ĺæĺ¯": 1800,
      "è¯Ħ": 1801,
      "æĪĺåĬŁ": 1802,
      "èį£": 1803,
      "ä¹ĭéĺµ": 1804,
      "èµŀ": 1805,
      "è±¡": 1806,
      "å¯¼èĩ´": 1807,
      "å°ıç¬ł": 1808,
      "ä¼ĳ": 1809,
      "æĸĩåĮĸ": 1810,
      "èĭ±": 1811,
      "åĩºéĺµ": 1812,
      "æĻ¯èĻİ": 1813,
      "åħ¶ä»ĸ": 1814,
      "å®ĪæĬ¤ä»£": 1815,
      "ä¹ĭéĻħ": 1816,
      "æĢĴ": 1817,
      "é¦Ļ": 1818,
      "åįģå¹´": 1819,
      "å°Ħ": 1820,
      "å°ıç¬łåİŁ": 1821,
      "ç²¾": 1822,
      "ä¸īäºº": 1823,
      "èµ¤æĿ¾": 1824,
      "æĭĴ": 1825,
      "å±Ĥ": 1826,
      "è´¯": 1827,
      "ç§Ģæ¬¡": 1828,
      "åħ«å¹´": 1829,
      "èµ´": 1830,
      "çĥĪ": 1831,
      "æĻ´ä¿¡": 1832,
      "åįİ": 1833,
      "éĢļç§°": 1834,
      "éļĨæĻ¯": 1835,
      "åı¤æ²³": 1836,
      "çŁ³çĶ°ä¸īæĪĲ": 1837,
      "æķĪ": 1838,
      "å®ŀéĻħ": 1839,
      "ä½¿èĢħ": 1840,
      "æĹ¶åĢĻ": 1841,
      "äº²èĩª": 1842,
      "çĶ°åŁİ": 1843,
      "ä¹ĿæľĪ": 1844,
      "ä¼ĺ": 1845,
      "æ¯ģ": 1846,
      "ä¸ĥå¹´": 1847,
      "æĴŃç£¨": 1848,
      "ç¨»": 1849,
      "æĮĩæĮ¥": 1850,
      "æ··": 1851,
      "èģĶåĲĪ": 1852,
      "ç¢": 1853,
      "èįī": 1854,
      "å±ķå¼Ģ": 1855,
      "æł¹æį®": 1856,
      "çº¯": 1857,
      "ä¸īæľĪ": 1858,
      "ç§¯": 1859,
      "äººè´¨": 1860,
      "è¡ĮåĬ¨": 1861,
      "åĬłèĹ¤": 1862,
      "èĬĤ": 1863,
      "åħļ": 1864,
      "æ¤": 1865,
      "åħŃæľĪ": 1866,
      "1600": 1867,
      "äºĶæľĪ": 1868,
      "è±Ĩ": 1869,
      "ä¸īéĥİ": 1870,
      "åŃ£": 1871,
      "å¦ĤæŃ¤": 1872,
      "çĶ±æŃ¤": 1873,
      "ç¼ĸ": 1874,
      "å«ģ": 1875,
      "ä¸ĥæľĪ": 1876,
      "è´¸": 1877,
      "åħĦéķ¿": 1878,
      "èĲ¨": 1879,
      "ç²®": 1880,
      "æĻļ": 1881,
      "è¶³åĪ©ä¹īæĺŃ": 1882,
      "åºķ": 1883,
      "æºĥ": 1884,
      "çĽĳ": 1885,
      "ä¹ħç§Ģ": 1886,
      "çķĮ": 1887,
      "å¼¹": 1888,
      "æĪĺåľº": 1889,
      "ä¸Ģåº¦": 1890,
      "å¼ĵ": 1891,
      "å¦Ļ": 1892,
      "ï¼į": 1893,
      "è®°å½ķ": 1894,
      "éĢī": 1895,
      "éĢ¼": 1896,
      "èĬ¦": 1897,
      "æ´»è·ĥ": 1898,
      "åĨ¬": 1899,
      "ä¹Ŀå¹´": 1900,
      "æį®çĤ¹": 1901,
      "è¾ĥ": 1902,
      "æĭľ": 1903,
      "éĻĦè¿ĳ": 1904,
      "å¿į": 1905,
      "ç¯": 1906,
      "éĻ·åħ¥": 1907,
      "ãģ«": 1908,
      "éĺ¶": 1909,
      "ä½Ĳä¹ħ": 1910,
      "åįķ": 1911,
      "æŃ£å®¤": 1912,
      "çīĩ": 1913,
      "å¤ªçĶ°": 1914,
      "æ²¿": 1915,
      "ç½Ĺ": 1916,
      "ä¸Ģèµ·": 1917,
      "éĺ¿æ³¢": 1918,
      "åİŁæľ¬": 1919,
      "èĦ±": 1920,
      "åĩºä»ķ": 1921,
      "æģ¶": 1922,
      "è£ħ": 1923,
      "ä¿¡èĻİ": 1924,
      "çĨĬ": 1925,
      "ä¹īå¼ĺ": 1926,
      "åĿĩ": 1927,
      "æłĩ": 1928,
      "è½®": 1929,
      "è°ĵ": 1930,
      "æ¹": 1931,
      "è¡°": 1932,
      "è®³": 1933,
      "é¢Ĩæľī": 1934,
      "æĭ¥æľī": 1935,
      "çł¦": 1936,
      "åĽĽæľĪ": 1937,
      "åĻ¨": 1938,
      "æ´²": 1939,
      "åĤ": 1940,
      "èµĲäºĪ": 1941,
      "å¥Ķ": 1942,
      "å¥ĩ": 1943,
      "éľĢ": 1944,
      "ç¦ıå²Ľ": 1945,
      "è´¸æĺĵ": 1946,
      "çŃĶ": 1947,
      "å¼±": 1948,
      "åĩºäºĳ": 1949,
      "èĢĥ": 1950,
      "æķĮåĨĽ": 1951,
      "éĺ»": 1952,
      "éĩĮè§ģ": 1953,
      "ä»Ĭå·Ŀä¹īåħĥ": 1954,
      "åŁŁ": 1955,
      "æĶ¯éħį": 1956,
      "23": 1957,
      "å¹²": 1958,
      "ç¨Ļ": 1959,
      "æ±łçĶ°": 1960,
      "åŀ£": 1961,
      "æĻ´åħĥ": 1962,
      "ä¸įæĺ¯": 1963,
      "ä¸įå¾Ĺ": 1964,
      "ä»·": 1965,
      "åįĩ": 1966,
      "éĺģ": 1967,
      "ä¹ĭä¸ĭ": 1968,
      "æĿĥåĬĽ": 1969,
      "æĬµæĬĹ": 1970,
      "è¡Ģ": 1971,
      "åºŁ": 1972,
      "ç§Ģèµĸ": 1973,
      "ç±»": 1974,
      "ä¹ĭå½¹": 1975,
      "å±ŀäºİ": 1976,
      "è¯ķ": 1977,
      "åº¶": 1978,
      "äºĶéĥİ": 1979,
      "è´¢": 1980,
      "å¨¶": 1981,
      "æ£Ģ": 1982,
      "ç»ĵåŁİ": 1983,
      "æľ¬å¤ļ": 1984,
      "åıĶ": 1985,
      "æĶ¯æı´": 1986,
      "æĸĩæĺİ": 1987,
      "åĲĦåľ°": 1988,
      "æµª": 1989,
      "å»ºç«ĭ": 1990,
      "çĶ»": 1991,
      "åĩ»éĢĢ": 1992,
      "é£ŀ": 1993,
      "é¦ĸçº§": 1994,
      "åıĤæĪĺ": 1995,
      "è£Ĥ": 1996,
      "å¢ĵ": 1997,
      "çİī": 1998,
      "25": 1999,
      "ä¸ĭä»¤": 2000,
      "è¯ļ": 2001,
      "æŁ´çĶ°èĥľå®¶": 2002,
      "åį·": 2003,
      "å¯Ħ": 2004,
      "æĺİæ²»": 2005,
      "è¿Ļç§į": 2006,
      "åį¿": 2007,
      "éĢĲæ¸Ĳ": 2008,
      "ä¸°åĲİ": 2009,
      "è¿ĽåĨĽ": 2010,
      "çŃĳåīį": 2011,
      "ä¹īéļĨ": 2012,
      "ä½Ĳä½Ĳ": 2013,
      "å¤ĩä¸Ń": 2014,
      "ä¸¹æ³¢": 2015,
      "å®Įåħ¨": 2016,
      "æĿ¾æ°¸": 2017,
      "éĹ®é¢ĺ": 2018,
      "æ³¨": 2019,
      "æŃ¦çĶ°èĥľèµĸ": 2020,
      "21": 2021,
      "æīĩ": 2022,
      "å°Ĭæ°ı": 2023,
      "ç«Ł": 2024,
      "èµĸæľĿ": 2025,
      "åľŁä½Ĳ": 2026,
      "ç»į": 2027,
      "æ¬¡éĥİ": 2028,
      "æĢĢ": 2029,
      "åģı": 2030,
      "æį®è¯´": 2031,
      "ç¨³": 2032,
      "æİ¥åıĹ": 2033,
      "æķ£": 2034,
      "æıĲåĩº": 2035,
      "åŃĲåŃĻ": 2036,
      "çĶŁäºİ": 2037,
      "æĥħåĨµ": 2038,
      "å¤±åİ»": 2039,
      "é¢ĨåĽ½": 2040,
      "ç©º": 2041,
      "èµ¶": 2042,
      "ä¼ıè§ģ": 2043,
      "åĽĽåĽ½": 2044,
      "èĢĮæĺ¯": 2045,
      "ãģĹ": 2046,
      "æľ¬èĥ½å¯ºä¹ĭåıĺ": 2047,
      "ä»ª": 2048,
      "é¬": 2049,
      "é«ĺåĽ½": 2050,
      "å®ĮæĪĲ": 2051,
      "éģĵéĽª": 2052,
      "èľ": 2053,
      "çĽ´æİ¥": 2054,
      "çĶļèĩ³": 2055,
      "å§»": 2056,
      "éĿĴ": 2057,
      "éĻ·èĲ½": 2058,
      "22": 2059,
      "æį¢": 2060,
      "å½¢æĪĲ": 2061,
      "è¿Ļä¸Ģ": 2062,
      "åı¦ä¸Ģæĸ¹éĿ¢": 2063,
      "éĤ¸": 2064,
      "çĥ§": 2065,
      "æİĴ": 2066,
      "å¾Ĺä»¥": 2067,
      "éĴ±": 2068,
      "åĨħéĥ¨": 2069,
      "çı": 2070,
      "ç½²": 2071,
      "æĢĿ": 2072,
      "æ³·": 2073,
      "ä¼Ĭä¸ľ": 2074,
      "èĹ¤åİŁ": 2075,
      "åŁİæ±ł": 2076,
      "éŁ³": 2077,
      "æľ¬éĺµ": 2078,
      "ç½ª": 2079,
      "150": 2080,
      "å½ĵåľ°": 2081,
      "ç«ĭä¸ĭ": 2082,
      "ä»Ļ": 2083,
      "æĹ¢": 2084,
      "æµĭ": 2085,
      "ä¹ĭåīį": 2086,
      "æı¡": 2087,
      "å¯¿": 2088,
      "æ¯įäº²": 2089,
      "æĶ»çķ¥": 2090,
      "æĭĽ": 2091,
      "ç»Īäºİ": 2092,
      "å·¦åı³": 2093,
      "åıĬåħ¶": 2094,
      "ä¸Ģæĸ¹": 2095,
      "å¿µ": 2096,
      "åı¯è§ģ": 2097,
      "ä¹ĭä½į": 2098,
      "æī©å¼ł": 2099,
      "ä¸ĢæĿ¡": 2100,
      "è¡¨ç¤º": 2101,
      "çªģçĦ¶": 2102,
      "é¼": 2103,
      "åħģ": 2104,
      "çŁ¢": 2105,
      "æĿĲ": 2106,
      "éĻĲ": 2107,
      "å°ıå±±": 2108,
      "åĨįåº¦": 2109,
      "è¿ĺæľī": 2110,
      "æºĲæ°ı": 2111,
      "æł¸": 2112,
      "é¬¼": 2113,
      "çŁ³å·Ŀ": 2114,
      "éºŁ": 2115,
      "èĴ²çĶŁ": 2116,
      "åį±": 2117,
      "èĤ¥åĲİ": 2118,
      "å®ĹèĮĤ": 2119,
      "åºĶä»ģ": 2120,
      "èĹ©ä¸»": 2121,
      "æĪĺå½¹": 2122,
      "éļıçĿĢ": 2123,
      "éĵ¶": 2124,
      "24": 2125,
      "ãģ¨": 2126,
      "ç¬Ķ": 2127,
      "æģ©": 2128,
      "æŃ¤äºĭ": 2129,
      "æĭĴç»Ŀ": 2130,
      "çĽ¸æ¨¡": 2131,
      "å¹¶ä¸Ķ": 2132,
      "å¸Į": 2133,
      "æ®ĭ": 2134,
      "ç§ģ": 2135,
      "éĺ´": 2136,
      "æİ¢": 2137,
      "åĪļ": 2138,
      "åıĸå¾Ĺ": 2139,
      "èĬ¦åĲį": 2140,
      "åĪĩèħ¹": 2141,
      "æŃ¦å®¶": 2142,
      "æĭī": 2143,
      "å´©": 2144,
      "åĩºå®¶": 2145,
      "åĽĽéĥİ": 2146,
      "å©ļ": 2147,
      "ä¸įæ»¡": 2148,
      "ä¸¹ç¾½": 2149,
      "çŃĴ": 2150,
      "ç¦ħ": 2151,
      "å¤ºåıĸ": 2152,
      "åħ¶åĲİ": 2153,
      "æĽ¿": 2154,
      "è¿½åĩ»": 2155,
      "ä¹ĭå¼Ł": 2156,
      "åįĥä»£": 2157,
      "åĨħèĹ¤": 2158,
      "æ¶Īæģ¯": 2159,
      "çłĶ": 2160,
      "è®¸å¤ļ": 2161,
      "åı«": 2162,
      "å®½æ°¸": 2163,
      "æŃ»åĲİ": 2164,
      "åĨĪå´İ": 2165,
      "éĢĥå¾Ģ": 2166,
      "è§Ħæ¨¡": 2167,
      "ä¾įå¥ī": 2168,
      "å°ī": 2169,
      "ç¼ĺ": 2170,
      "å¸ĥéĺµ": 2171,
      "åħ¶çĪ¶": 2172,
      "è¾ŀ": 2173,
      "åħħ": 2174,
      "åįģæľĪ": 2175,
      "å¹¶éĿŀ": 2176,
      "èĭ¦": 2177,
      "æļĤ": 2178,
      "æ´»åĬ¨": 2179,
      "åĲ¦": 2180,
      "æ¸ħæŃ£": 2181,
      "è¯Ĩ": 2182,
      "æģĴ": 2183,
      "ä¹īæĺŃ": 2184,
      "ä¸ĢéĹ¨": 2185,
      "èĥľåĪ©": 2186,
      "æĿĢå®³": 2187,
      "åı¦å¤ĸ": 2188,
      "æĿ¿": 2189,
      "èģļ": 2190,
      "28": 2191,
      "ç»ıè¿ĩ": 2192,
      "è®¡åĪĴ": 2193,
      "åħ¥ä¾µ": 2194,
      "æĬĺ": 2195,
      "åįģä¸ī": 2196,
      "æĥł": 2197,
      "ä¹īåħ´": 2198,
      "ç»§æī¿äºº": 2199,
      "ç«Ļ": 2200,
      "åıªæĺ¯": 2201,
      "éĢ¸": 2202,
      "æĭ¥ç«ĭ": 2203,
      "åĳ¼": 2204,
      "æ¯ĽåĪ©è¾īåħĥ": 2205,
      "åľŁå²Ĳ": 2206,
      "ä¸Ģå¸¦": 2207,
      "1590": 2208,
      "åĳ¨è¾¹": 2209,
      "æ½": 2210,
      "çĵ": 2211,
      "ä¼Ĭè±Ĩ": 2212,
      "ç§ĳ": 2213,
      "ãģŁ": 2214,
      "ä¸ĬæĿīæĻ¯èĥľ": 2215,
      "ä¹īåħī": 2216,
      "æĶ¿åħĥ": 2217,
      "ä¼ĬäºĪ": 2218,
      "æĪĺè´¥": 2219,
      "ç¦»å¼Ģ": 2220,
      "ç¥ĸçĪ¶": 2221,
      "ä¸ĭéĩİ": 2222,
      "èĨ": 2223,
      "æľªèĥ½": 2224,
      "ãģĦ": 2225,
      "çĶŁå¹³": 2226,
      "å¼ĺæ²»": 2227,
      "èĤ¥åīį": 2228,
      "è¢«è¿«": 2229,
      "ç¬¬ä¸ī": 2230,
      "å©¿": 2231,
      "ç®Ń": 2232,
      "éĤ»": 2233,
      "æ¯ı": 2234,
      "åīĳ": 2235,
      "ä¸ĸçºª": 2236,
      "çŁ¥è¡Į": 2237,
      "åıĳå±ķ": 2238,
      "å®ĹéºŁ": 2239,
      "æ¡¶": 2240,
      "æĹ¥åĲĳ": 2241,
      "åĿĬ": 2242,
      "äºķä¼Ĭ": 2243,
      "æł¸å¿ĥ": 2244,
      "éģ¿": 2245,
      "ä¸ĢèĪ¬": 2246,
      "åħĭ": 2247,
      "ä¸Ńå²Ľ": 2248,
      "æľĢåĪĿ": 2249,
      "åĲĮæł·": 2250,
      "å°§": 2251,
      "åıĳèµ·": 2252,
      "ä¸ĵ": 2253,
      "ä¹ĭåĳ½": 2254,
      "æĮī": 2255,
      "æĮģç»Ń": 2256,
      "æĹĹæľ¬": 2257,
      "çĹħéĢĿ": 2258,
      "æ´¾åĩº": 2259,
      "å¸ĮæľĽ": 2260,
      "ä»Ģ": 2261,
      "ä¸Ģæ¬¡": 2262,
      "ç»ĺ": 2263,
      "å®ŀåĬĽ": 2264,
      "èĥģ": 2265,
      "æĮĩåĩº": 2266,
      "ç´§": 2267,
      "åįģäºĶ": 2268,
      "çİĩåĨĽ": 2269,
      "æĹĭ": 2270,
      "åĲīçĶ°": 2271,
      "åĩłä¹İ": 2272,
      "å¸¸éĻĨ": 2273,
      "åĽ°": 2274,
      "åħĥæĺ¥": 2275,
      "å¯Ł": 2276,
      "åıªæľī": 2277,
      "å¤§åĿĤåŁİ": 2278,
      "ä»Ģä¹Ī": 2279,
      "äº¬æŀģ": 2280,
      "çĽĲ": 2281,
      "ä¸¾åħµ": 2282,
      "ä¼Ĭè¾¾æĶ¿å®Ĺ": 2283,
      "ä¼Ĭè´º": 2284,
      "æľīåĬĽ": 2285,
      "ä¾µæĶ»": 2286,
      "ä¸Ģè¯´": 2287,
      "æ±¤": 2288,
      "åħ«å¹¡": 2289,
      "ä¸»åĬĽ": 2290,
      "ä¸ĢæŃ¥": 2291,
      "åįıåĬ©": 2292,
      "ä¿ĥ": 2293,
      "å¤§æ°¸": 2294,
      "è¡¥": 2295,
      "èĽ": 2296,
      "åĮĹæĿ¡æ°ıåº·": 2297,
      "çłĶç©¶": 2298,
      "åıĽä¹±": 2299,
      "æµģæĶ¾": 2300,
      "å°Ĩé¢Ĩ": 2301,
      "ä¸īäººä¼Ĺ": 2302,
      "çķĻä¸ĭ": 2303,
      "åĪĳ": 2304,
      "å¤ĸäº¤": 2305,
      "ç»ıæµİ": 2306,
      "é£Ł": 2307,
      "åħ³çĻ½": 2308,
      "åĽ½ä¼Ĺ": 2309,
      "æĬµè¾¾": 2310,
      "149": 2311,
      "åħ¸": 2312,
      "ä¹īä¹ħ": 2313,
      "ä¸įåĲĮ": 2314,
      "åĩºä»»": 2315,
      "æĻ®": 2316,
      "ç«ĭåį³": 2317,
      "å¤ªéĥİ": 2318,
      "ç»ĵæĿŁ": 2319,
      "1570": 2320,
      "å®ĺä½į": 2321,
      "åħ¨éĥ¨": 2322,
      "æĺĮå¹¸": 2323,
      "åĩı": 2324,
      "ç¾¤": 2325,
      "å¯¹äºİ": 2326,
      "å£«åħµ": 2327,
      "ä¹ĭåĲį": 2328,
      "ä¼łè¯´": 2329,
      "å¤ĩåīį": 2330,
      "ä½Ĳä¹ħéĹ´": 2331,
      "ä¹ĭä¸Ń": 2332,
      "ä»¥æĿ¥": 2333,
      "èĳ¬": 2334,
      "åĳ¨éĺ²": 2335,
      "æľ¨æĿĳ": 2336,
      "æīĺ": 2337,
      "èĲ¨æĳ©": 2338,
      "åĪĥ": 2339,
      "ä¼ļæ´¥": 2340,
      "åİŁåĽł": 2341,
      "æŃ»åİ»": 2342,
      "èŃ": 2343,
      "éķ¿ç§Ģ": 2344,
      "åºµ": 2345,
      "ä¸¾è¡Į": 2346,
      "éĢĶä¸Ń": 2347,
      "æĺİåºĶ": 2348,
      "æļ´": 2349,
      "éĿŀå¸¸": 2350,
      "çŁ³è§ģ": 2351,
      "å¤ºåĽŀ": 2352,
      "ãĢİ": 2353,
      "åī²": 2354,
      "ä¸įä»ħ": 2355,
      "ä¹ħä¿Ŀ": 2356,
      "éĺľ": 2357,
      "é©±": 2358,
      "å¸Ń": 2359,
      "åĪº": 2360,
      "è°ĭåıį": 2361,
      "ãĢı": 2362,
      "å®Īå¤ĩ": 2363,
      "ä¸ĢçĽĬ": 2364,
      "ç»§ä»»": 2365,
      "ä¸ĬçĶ°": 2366,
      "åıĶçĪ¶": 2367,
      "äºĮæľĪ": 2368,
      "çĽ´æĶ¿": 2369,
      "èĩªå°½": 2370,
      "éľ¸": 2371,
      "é¢ģ": 2372,
      "åįģåĪĨ": 2373,
      "å±¡": 2374,
      "éķ¿æľŁ": 2375,
      "å¾ĹçŁ¥": 2376,
      "æŃ¤æĪĺ": 2377,
      "åłº": 2378,
      "å¹¶æľª": 2379,
      "å½¦": 2380,
      "åįģäºĮæľĪ": 2381,
      "èĩªæĿĢ": 2382,
      "è¾¾æĪĲ": 2383,
      "åī§": 2384,
      "ãģ¯": 2385,
      "ä¸¤å®¶": 2386,
      "çºªä¼Ĭ": 2387,
      "åİļ": 2388,
      "ä¸īåįĥ": 2389,
      "ä¸įæĺİ": 2390,
      "é¡¾": 2391,
      "èİ·èµĲ": 2392,
      "éķĩåİĭ": 2393,
      "å¤±è´¥": 2394,
      "è¢Ńåĩ»": 2395,
      "ä¸Ģæł·": 2396,
      "26": 2397,
      "ä¸įèĥ½": 2398,
      "å²Ĳéĺľ": 2399,
      "âĢ¦": 2400,
      "çĬ¬": 2401,
      "åĲİä¸ĸ": 2402,
      "åīįæĿ¥": 2403,
      "æ´¥åŁİ": 2404,
      "ç¡Ģ": 2405,
      "ç¬¼": 2406,
      "åĮĹæľĿ": 2407,
      "éĻĨå¥¥": 2408,
      "è¿ħ": 2409,
      "è¡£": 2410,
      "ä»²": 2411,
      "ä¸Ńå¿ĥ": 2412,
      "åĬłä¸Ĭ": 2413,
      "1573": 2414,
      "ç»³": 2415,
      "å±±åı£": 2416,
      "çŃĴäºķ": 2417,
      "æİ¨æµĭ": 2418,
      "çĽ¸å½ĵ": 2419,
      "éķ¿éĩİ": 2420,
      "éĨį": 2421,
      "åıĳçİ°": 2422,
      "åºĵ": 2423,
      "éĿĻ": 2424,
      "èľĤ": 2425,
      "æ³·å·Ŀ": 2426,
      "ä¹īæĻ¯": 2427,
      "æľ¬äºº": 2428,
      "åįģä¸ĢæľĪ": 2429,
      "å°ıæĹ©å·ĿéļĨæĻ¯": 2430,
      "æİĮæı¡": 2431,
      "åĿĲ": 2432,
      "éĨĲ": 2433,
      "éĨįéĨĲ": 2434,
      "å¤§èĩ£": 2435,
      "åĩºå¾ģ": 2436,
      "éķ¿ä¹ħ": 2437,
      "æŃ£æľĪ": 2438,
      "çķ¿åĨħ": 2439,
      "åĪ©çĶ¨": 2440,
      "èµł": 2441,
      "çĭŃéĹ´": 2442,
      "éļĨä¿¡": 2443,
      "æģĲ": 2444,
      "å¤·": 2445,
      "ç»ıåİĨ": 2446,
      "å¥ĭæĪĺ": 2447,
      "ä¸įåı¯": 2448,
      "æķĮäºº": 2449,
      "å®Ĺå®¶": 2450,
      "è´¡": 2451,
      "ä»£å½ĵä¸»": 2452,
      "çķĻå®Ī": 2453,
      "èªī": 2454,
      "èĥ½çĻ»": 2455,
      "æĥĬ": 2456,
      "è¯ķåĽ¾": 2457,
      "åŁºç¡Ģ": 2458,
      "åħ¶å®ŀ": 2459,
      "æĥ¨": 2460,
      "è¾ħä½Ĳ": 2461,
      "ä¹ĭå¥³": 2462,
      "æ¶ī": 2463,
      "ç«¯": 2464,
      "è¸": 2465,
      "å¥¥å·ŀ": 2466,
      "æĶ¿çŃĸ": 2467,
      "ä¸°åīį": 2468,
      "èµ·æĿ¥": 2469,
      "åĩºåıĳ": 2470,
      "ä¸ĭæĢ»": 2471,
      "çİ°åľ¨": 2472,
      "åıįå¯¹": 2473,
      "ä¸ĥæĹ¥": 2474,
      "è¯ī": 2475,
      "é«ĺæ¡¥": 2476,
      "ç§Ģéķ¿": 2477,
      "äºĮæĿ¡": 2478,
      "å°¤": 2479,
      "åłµ": 2480,
      "äº®": 2481,
      "æĪĺäºĭ": 2482,
      "éĩįæĸ°": 2483,
      "å·¨": 2484,
      "åĭĺ": 2485,
      "æķĳæı´": 2486,
      "ä¹ł": 2487,
      "æĿ¾æ°¸ä¹ħç§Ģ": 2488,
      "åįļ": 2489,
      "åŁİä¸ĭ": 2490,
      "åĽŀåĪ°": 2491,
      "æĶ¹æĺĵ": 2492,
      "çĭ¬ç«ĭ": 2493,
      "åĩŃ": 2494,
      "æĿ¡ä»¶": 2495,
      "27": 2496,
      "è¯¯": 2497,
      "åĶ¯": 2498,
      "åįģäºĮå¹´": 2499,
      "åĽłèĢĮ": 2500,
      "ãģ¦": 2501,
      "äºĶä½į": 2502,
      "äº²çİĭ": 2503,
      "äºĴ": 2504,
      "åºŃ": 2505,
      "èĩªç§°": 2506,
      "ãĤĭ": 2507,
      "æĶ»åħ¥": 2508,
      "å¦Ĥæŀľ": 2509,
      "æĭĶ": 2510,
      "éªıåºľ": 2511,
      "åľ£": 2512,
      "ä½İ": 2513,
      "ãģĭ": 2514,
      "å¤ı": 2515,
      "èªĵ": 2516,
      "åĢ¼": 2517,
      "è£Ķ": 2518,
      "çĿ¦": 2519,
      "æĽ²": 2520,
      "1578": 2521,
      "äºĮäºº": 2522,
      "æįŁ": 2523,
      "1585": 2524,
      "éĻ©": 2525,
      "åįģåħŃ": 2526,
      "åĴĮæ³ī": 2527,
      "é¹¤": 2528,
      "ä¹¦ä¿¡": 2529,
      "ç¯ł": 2530,
      "èĪŀ": 2531,
      "çĽ¾": 2532,
      "æ¡¶çĭŃéĹ´": 2533,
      "èıĬ": 2534,
      "ä»ĩ": 2535,
      "30": 2536,
      "å¤©çİĭ": 2537,
      "å¸®": 2538,
      "å·®": 2539,
      "åŀĭ": 2540,
      "æŁĲ": 2541,
      "å¤Ł": 2542,
      "éħĴäºķ": 2543,
      "1575": 2544,
      "åįģä¸Ģå¹´": 2545,
      "åıĻ": 2546,
      "éĺ²å¾¡": 2547,
      "åįĹæľĿ": 2548,
      "éĺµèĲ¥": 2549,
      "åĩºèĩª": 2550,
      "éĻ¤äºĨ": 2551,
      "åĪ¶åº¦": 2552,
      "è¶³è½»": 2553,
      "å°ıéĩİ": 2554,
      "è¿ħéĢŁ": 2555,
      "è¯ł": 2556,
      "éľ²": 2557,
      "ä½¿å¾Ĺ": 2558,
      "ä¸¤ä¸ª": 2559,
      "1584": 2560,
      "åĪĿä»£": 2561,
      "ä¸ĢæĹ¥": 2562,
      "å¤ĩåĲİ": 2563,
      "æŃ£æĺ¯": 2564,
      "æįķ": 2565,
      "çĽ¸èī¯": 2566,
      "åģıè®³": 2567,
      "äºĶåįģ": 2568,
      "æ¡Ĥ": 2569,
      "ç¨»åı¶": 2570,
      "è®¨åıĸ": 2571,
      "æľ¨ä¸ĭ": 2572,
      "29": 2573,
      "å±±ä¸Ń": 2574,
      "æīĢåľ¨": 2575,
      "åīįçĶ°åĪ©å®¶": 2576,
      "ä¿Ĺ": 2577,
      "äºĶåįĥ": 2578,
      "äºīå¤º": 2579,
      "å½»": 2580,
      "èĪį": 2581,
      "å±±åİ¿": 2582,
      "éĽ¨": 2583,
      "åīįåĲİ": 2584,
      "èĻĳ": 2585,
      "è¿Ļæ¬¡": 2586,
      "è¯±": 2587,
      "åħ«æĹ¥": 2588,
      "åĴĮçĶ°": 2589,
      "å»ºçŃĳ": 2590,
      "åĬŀ": 2591,
      "çŁ³å±±": 2592,
      "ãĤĴ": 2593,
      "æŃ£åĪĻ": 2594,
      "å¼ĢåŁİ": 2595,
      "çīĽ": 2596,
      "åħ¬å®¶": 2597,
      "åħĪåĲİ": 2598,
      "è¡¨çİ°": 2599,
      "ç®Ģ": 2600,
      "ä¸Ģä¸ĩ": 2601,
      "ä¸°èĩ£æĶ¿æĿĥ": 2602,
      "åĲİæľŁ": 2603,
      "åĲįä¹ī": 2604,
      "ä¸īæµ¦": 2605,
      "çºµ": 2606,
      "æģ¢": 2607,
      "ç½ĳ": 2608,
      "çģµ": 2609,
      "æ¢ħ": 2610,
      "èĢĮä¸Ķ": 2611,
      "åĲĮæĹı": 2612,
      "æĪĲæĶ¿": 2613,
      "å¾·å·Ŀç§Ģå¿ł": 2614,
      "æľºä¼ļ": 2615,
      "èŃ¦": 2616,
      "åĲįåŃĹ": 2617,
      "éĶĻ": 2618,
      "å¤§å¤«": 2619,
      "åĽĽæĹ¥": 2620,
      "åĨħä¹±": 2621,
      "æİĪäºĪ": 2622,
      "ä»£è¡¨": 2623,
      "ãģª": 2624,
      "çŃĳåĲİ": 2625,
      "æģ¢å¤į": 2626,
      "å¤ļæ¬¡": 2627,
      "åĪĨåĪ«": 2628,
      "æłĭ": 2629,
      "1568": 2630,
      "åĩĢ": 2631,
      "ä¸įæĸŃ": 2632,
      "ç»ľ": 2633,
      "éĶħ": 2634,
      "èĩªèº«": 2635,
      "1569": 2636,
      "ä¸Ģå¹´": 2637,
      "åĨ²çªģ": 2638,
      "åĶĲ": 2639,
      "çīµ": 2640,
      "ä¸īå¥½éķ¿åºĨ": 2641,
      "èĭ¥çĭŃ": 2642,
      "èĸ": 2643,
      "é¢Ħ": 2644,
      "å¦»åŃĲ": 2645,
      "ä¿¡åº·": 2646,
      "æķ·": 2647,
      "å¼ķåıĳ": 2648,
      "åľĨ": 2649,
      "ä»¥ä¸ĭ": 2650,
      "åĲįä¸º": 2651,
      "è¯Ħä»·": 2652,
      "åįĪ": 2653,
      "ä¹ĿæĹ¥": 2654,
      "æĻ´è´¤": 2655,
      "çŁŃ": 2656,
      "ä¸Ģä½į": 2657,
      "ç§Ģå®¶": 2658,
      "1560": 2659,
      "å³Ļ": 2660,
      "ç«¥": 2661,
      "æīĢæľī": 2662,
      "ç©¿": 2663,
      "åĬ³": 2664,
      "èıħ": 2665,
      "é«ĺèĻİ": 2666,
      "å¹¼åĲį": 2667,
      "è·Łéļı": 2668,
      "å¾·å·Ŀæ°ı": 2669,
      "å°ıçī§": 2670,
      "åıĳåĩº": 2671,
      "çĽ¸ç»§": 2672,
      "ç»©": 2673,
      "åħĥæľį": 2674,
      "åľŁåľ°": 2675,
      "ï¼ı": 2676,
      "ç¥Ń": 2677,
      "éĿ¢å¯¹": 2678,
      "ç¼º": 2679,
      "çĦļ": 2680,
      "åºĶä»ģä¹ĭä¹±": 2681,
      "ä¸īåįģ": 2682,
      "çĽ¸ä¼ł": 2683,
      "æ··ä¹±": 2684,
      "èĳĽ": 2685,
      "ç´ł": 2686,
      "åĬĽéĩı": 2687,
      "æ¸©": 2688,
      "åĩºç¾½": 2689,
      "ä½ĵåĪ¶": 2690,
      "éľĩ": 2691,
      "ä¿¡å¿ł": 2692,
      "çĳ": 2693,
      "å±±å´İ": 2694,
      "å¯¹å³Ļ": 2695,
      "é»Ħ": 2696,
      "æĢ»å¤§å°Ĩ": 2697,
      "è°±ä»£": 2698,
      "æĥ£": 2699,
      "æŃ¤æ¬¡": 2700,
      "æłĹ": 2701,
      "æĹ©äºĳ": 2702,
      "æĶ¾å¼ĥ": 2703,
      "æĪĳä»¬": 2704,
      "ä¸Ģèī²": 2705,
      "148": 2706,
      "æ¸ħæ´²": 2707,
      "ä¹ĭä¸¸": 2708,
      "æķ¢": 2709,
      "æŃ£æĪĲ": 2710,
      "æµħäºķéķ¿æĶ¿": 2711,
      "èĳĹåĲį": 2712,
      "ç©´": 2713,
      "163": 2714,
      "æĸ¹åĲĳ": 2715,
      "æĮĤ": 2716,
      "æ¸¯": 2717,
      "æ§": 2718,
      "ä¸Ģç§į": 2719,
      "åĴĮçĿ¦": 2720,
      "å¯¹æŃ¤": 2721,
      "æļĹæĿĢ": 2722,
      "éĺµäº¡": 2723,
      "éķ¿éĹ¨": 2724,
      "åŃ¤": 2725,
      "æŁ¥": 2726,
      "æĿĢæŃ»": 2727,
      "è¶³åĪ©ä¹īè¾ī": 2728,
      "äºĭåĬ¡": 2729,
      "å®ģ": 2730,
      "äºĭå®ŀ": 2731,
      "è´±": 2732,
      "ç»ķ": 2733,
      "å¤®": 2734,
      "ä¾¿æĺ¯": 2735,
      "200": 2736,
      "é¢ĨåĨħ": 2737,
      "è¿Ļæĺ¯": 2738,
      "èİ²": 2739,
      "è¶ħ": 2740,
      "æĪĺçķ¥": 2741,
      "ä¸¤åĨĽ": 2742,
      "147": 2743,
      "ä¸īæĹ¥": 2744,
      "çº¹": 2745,
      "çĻ¾å§ĵ": 2746,
      "èµ·åħµ": 2747,
      "éĤĢ": 2748,
      "å¤ªéĺģ": 2749,
      "å§Ĭ": 2750,
      "åįĥåı¶": 2751,
      "æ·¡": 2752,
      "å·Ŀä¸Ńå²Ľ": 2753,
      "å¤įåħ´": 2754,
      "çº·çº·": 2755,
      "åĲ§": 2756,
      "æīĢè°ĵ": 2757,
      "èĥĮåıĽ": 2758,
      "æĹ¥è®°": 2759,
      "åĳ¢": 2760,
      "æłĳ": 2761,
      "æ¤į": 2762,
      "ç®¡çĲĨ": 2763,
      "å¤¹": 2764,
      "è¾ĸ": 2765,
      "äºĶçĻ¾": 2766,
      "çĥŃ": 2767,
      "ä¿¡ç¹ģ": 2768,
      "å¾Į": 2769,
      "å¿łèĥľ": 2770,
      "éĢĥäº¡": 2771,
      "åĮĹéĥ¨": 2772,
      "çĽ¸åħ³": 2773,
      "æĭ©": 2774,
      "èį¯": 2775,
      "æľĢå¤§": 2776,
      "éĥ¡å±±": 2777,
      "æµħéĩİ": 2778,
      "åĲīç»§": 2779,
      "æ²¡æĶ¶": 2780,
      "ä¾µåħ¥": 2781,
      "èĩªåĪĥ": 2782,
      "é½": 2783,
      "èĬ³": 2784,
      "ä¸¤äºº": 2785,
      "è¿Ľä¸ĢæŃ¥": 2786,
      "åĲİè£Ķ": 2787,
      "çŁ¥éģĵ": 2788,
      "æĸŃç»Ŀ": 2789,
      "å³°": 2790,
      "è¯ŀ": 2791,
      "è¿ľå±±": 2792,
      "åĮĹæĿ¡æ°ıæĶ¿": 2793,
      "è®®åĴĮ": 2794,
      "å¤©å®Ī": 2795,
      "å¯»": 2796,
      "è£ģ": 2797,
      "åı¥": 2798,
      "åīįæľŁ": 2799,
      "ç»ĵçĽŁ": 2800,
      "ç¾İä½ľ": 2801,
      "æ£Ģåľ°": 2802,
      "æľ±": 2803,
      "ä¸įå¾Ĺä¸į": 2804,
      "éĩĬ": 2805,
      "ä¸Ńå¤®": 2806,
      "éŀ": 2807,
      "ä¿¡éĽĦ": 2808,
      "åĿĢ": 2809,
      "åįłé¢Ĩ": 2810,
      "å¤§éĩİ": 2811,
      "æµªäºº": 2812,
      "èĹ¤åłĤ": 2813,
      "åħ¼ç»Ń": 2814,
      "ä¸ĬæĢ»": 2815,
      "åĢŃ": 2816,
      "å»¶ç»Ń": 2817,
      "æĿĤè´º": 2818,
      "åŁİä»£": 2819,
      "åĴĮè§£": 2820,
      "æ¡Ī": 2821,
      "æĪĲæ°ı": 2822,
      "éļıåį³": 2823,
      "é¡»è´º": 2824,
      "åħĥéķ¿": 2825,
      "ãģĨ": 2826,
      "å®īä¸ľ": 2827,
      "åıªèĥ½": 2828,
      "çŃĳåŁİ": 2829,
      "æĤ¬": 2830,
      "åĩ»çł´": 2831,
      "åģĩ": 2832,
      "å¥¹": 2833,
      "äº«ç¦Ħ": 2834,
      "éĴĪ": 2835,
      "è®²": 2836,
      "çīĪ": 2837,
      "å¤§è´¥": 2838,
      "ä¸īæľ¨": 2839,
      "æİī": 2840,
      "å¿łæ¬¡": 2841,
      "æī¹": 2842,
      "1561": 2843,
      "å¿Ļ": 2844,
      "æĢķ": 2845,
      "çĭ©": 2846,
      "ä¸¥å²Ľ": 2847,
      "æ¿ĢæĪĺ": 2848,
      "å®¢": 2849,
      "æŃ¤åīį": 2850,
      "å°ıè¥¿": 2851,
      "èĨ³": 2852,
      "æĻļå¹´": 2853,
      "ç§Ģç§ĭ": 2854,
      "çĶ³": 2855,
      "æĬĢ": 2856,
      "146": 2857,
      "å¤§éĩı": 2858,
      "ä¼´": 2859,
      "æ¯«": 2860,
      "æĶ»åĬ¿": 2861,
      "çģĮ": 2862,
      "æ¬¡çĶ·": 2863,
      "è¡Įéķ¿": 2864,
      "å°ıçĶ°åİŁå¾ģä¼Ĳ": 2865,
      "ãĤĬ": 2866,
      "æģ¨": 2867,
      "åı¯æĺ¯": 2868,
      "ç¨İ": 2869,
      "åºĦåĽŃ": 2870,
      "å¾Īå¿«": 2871,
      "å¯ºéĻ¢": 2872,
      "å°±ä»»": 2873,
      "æĸ¼": 2874,
      "å®īåłµ": 2875,
      "æľ¬åŁİ": 2876,
      "è½¬å°ģ": 2877,
      "ä¸¹ç¾½éķ¿ç§Ģ": 2878,
      "æĹģ": 2879,
      "ä»£å®ĺ": 2880,
      "æķı": 2881,
      "çĶĺ": 2882,
      "ä¸»å¼ł": 2883,
      "ä»įçĦ¶": 2884,
      "åŁĭ": 2885,
      "é©»å®Ī": 2886,
      "åĽłå¹¡": 2887,
      "é±": 2888,
      "æĹ¨": 2889,
      "å®¶è°±": 2890,
      "ç¡®ç«ĭ": 2891,
      "ä¾§è¿ĳ": 2892,
      "æĸ°çĶ°": 2893,
      "ä¼ĺåĬ¿": 2894,
      "åı¤å±ĭ": 2895,
      "åĨ³æĪĺ": 2896,
      "éļ¾ä»¥": 2897,
      "é«ĺéĩİ": 2898,
      "æ¡ĳ": 2899,
      "æĺ¥æĹ¥": 2900,
      "éĢĨ": 2901,
      "ä¼łæķĻ": 2902,
      "èµ¦": 2903,
      "ä¸§": 2904,
      "è¯į": 2905,
      "æ°´éĩİ": 2906,
      "ä»Ĭå·Ŀæ°ı": 2907,
      "å®ŀéĻħä¸Ĭ": 2908,
      "çľĭåĪ°": 2909,
      "é±¼": 2910,
      "çĳŀ": 2911,
      "è¿Ł": 2912,
      "å¤§ä¹ħä¿Ŀ": 2913,
      "å¾ĭ": 2914,
      "èĩªçĦ¶": 2915,
      "å¤§åĨħä¹īéļĨ": 2916,
      "æ°ıåº·": 2917,
      "ãģĮ": 2918,
      "åĬ¨åĳĺ": 2919,
      "æ¨±": 2920,
      "çķ¥åİĨ": 2921,
      "åĬłèĹ¤æ¸ħæŃ£": 2922,
      "1587": 2923,
      "é©±éĢĲ": 2924,
      "ä¿£": 2925,
      "è¿ĻæĹ¶": 2926,
      "æ¸ħæ°´": 2927,
      "æ¶ĪçģŃ": 2928,
      "èĩ¼": 2929,
      "å°»": 2930,
      "å°½ç®¡": 2931,
      "å®ħéĤ¸": 2932,
      "ç§¯æŀģ": 2933,
      "åħĥåº·": 2934,
      "è¿Ļåľº": 2935,
      "è¡Įä¸º": 2936,
      "å¤ĦçĲĨ": 2937,
      "çŁĽ": 2938,
      "çīĻ": 2939,
      "éĤ¦": 2940,
      "åĪĨè£Ĥ": 2941,
      "åºı": 2942,
      "ç»´æĮģ": 2943,
      "åī©": 2944,
      "è¾°": 2945,
      "åħ¬è®°": 2946,
      "å±ħä½ı": 2947,
      "æī¬": 2948,
      "åķĨäºº": 2949,
      "çĽ´èĩ³": 2950,
      "1592": 2951,
      "åī¯": 2952,
      "å®ªæĶ¿": 2953,
      "çĽ´å®¶": 2954,
      "çĶ°æ°ı": 2955,
      "å§Ĳ": 2956,
      "1583": 2957,
      "é¢ĩ": 2958,
      "æıĲä¾Ľ": 2959,
      "åħ¬åį¿": 2960,
      "éĵĥ": 2961,
      "éĶ®": 2962,
      "å¡Ķ": 2963,
      "ä¸ĭæĿ¥": 2964,
      "å¹¿å¿ł": 2965,
      "ç¼Ķ": 2966,
      "çĶ¥": 2967,
      "1580": 2968,
      "æķĮå¯¹": 2969,
      "åĲ«": 2970,
      "ä½Ĩé©¬": 2971,
      "è¿ĳåį«": 2972,
      "èĩ£æľį": 2973,
      "åĨĽåĬ¿": 2974,
      "éļ¶": 2975,
      "æĮĳ": 2976,
      "1586": 2977,
      "å®¶äºº": 2978,
      "ä¿ĿæĮģ": 2979,
      "éªļ": 2980,
      "1581": 2981,
      "è´¹": 2982,
      "ä»¥ä¸Ĭ": 2983,
      "åįłæį®": 2984,
      "æĶ¿éķ¿": 2985,
      "æĶ»åŁİ": 2986,
      "èĻļ": 2987,
      "å¤Ħäºİ": 2988,
      "æ³·å·Ŀä¸ĢçĽĬ": 2989,
      "åħ³éĶ®": 2990,
      "æĵħ": 2991,
      "åīĬ": 2992,
      "ä¾§å®¤": 2993,
      "ç»ĩçĶ°ä¿¡ç§Ģ": 2994,
      "åĽ½å®¶": 2995,
      "éŃ": 2996,
      "ç»ıä¹ħ": 2997,
      "âĢĺ": 2998,
      "âĢĻ": 2999,
      "éļľ": 3000,
      "æŃ¦çĶ°ä¿¡èĻİ": 3001,
      "æī¾": 3002,
      "å¹³å®ī": 3003,
      "æķ´ä¸ª": 3004,
      "åĨľæ°ĳ": 3005,
      "åĵ¥": 3006,
      "æĬķéĿł": 3007,
      "æ¬¡å¹´": 3008,
      "çĽ´æ±Ł": 3009,
      "æĶ¿åĬ¡": 3010,
      "æµ¦ä¸Ĭ": 3011,
      "éļħ": 3012,
      "ä¸Ģä»£": 3013,
      "éĤ£ä¹Ī": 3014,
      "é¼ĵ": 3015,
      "åĲİèĹ¤": 3016,
      "ä¿ĿæĬ¤": 3017,
      "æ´ŀ": 3018,
      "è°¢": 3019,
      "èº«ä¸º": 3020,
      "å½»åºķ": 3021,
      "äºķä¸Ĭ": 3022,
      "åĨ¢": 3023,
      "æ©": 3024,
      "å½ĵçĦ¶": 3025,
      "è¿Ŀ": 3026,
      "å¤§è°·": 3027,
      "åĲİéĨįéĨĲ": 3028,
      "æŀĦæĪĲ": 3029,
      "åĲİéĨįéĨĲå¤©çļĩ": 3030,
      "éļĶ": 3031,
      "ãĤĤ": 3032,
      "æľīé©¬": 3033,
      "å½ĵå¹´": 3034,
      "å¼ºå¤§": 3035,
      "èĦī": 3036,
      "ä¸īæĸ¹": 3037,
      "è¥¿åĽ½": 3038,
      "æ³ķåı·": 3039,
      "æĿ¥è¯´": 3040,
      "å£ģ": 3041,
      "å¤§å´İ": 3042,
      "ç¬¬åĽĽ": 3043,
      "ç¿¼": 3044,
      "ç§ĭæľĪ": 3045,
      "æĪ·æ¬¡": 3046,
      "èĤ²": 3047,
      "æķ¬": 3048,
      "å¥īåħ¬": 3049,
      "åŃĿé«ĺ": 3050,
      "ä»¥æŃ¤": 3051,
      "ç¬ĳ": 3052,
      "åıįèĢĮ": 3053,
      "èĥĮæĻ¯": 3054,
      "æĹ¥éĩİ": 3055,
      "æį®å®Ī": 3056,
      "ç»ĦæĪĲ": 3057,
      "éķľ": 3058,
      "åĪ°è¾¾": 3059,
      "çĽŁåıĭ": 3060,
      "1615": 3061,
      "ç¡®è®¤": 3062,
      "ä¸Ģå®ļ": 3063,
      "åĮĹéĻĨ": 3064,
      "èĥľåħĥ": 3065,
      "èĥ½å¤Ł": 3066,
      "ä¹Ŀéĥİ": 3067,
      "çļĦè¯Ŀ": 3068,
      "å¥ı": 3069,
      "æĽ¾ç»ı": 3070,
      "ä¸īçĻ¾": 3071,
      "äº§çĶŁ": 3072,
      "å¤©ç¥ŀ": 3073,
      "é©¹": 3074,
      "äºĶæĹ¥": 3075,
      "ä¿®çŃĳ": 3076,
      "æŃ¦çĶ°æĻ´ä¿¡": 3077,
      "1614": 3078,
      "æ²³éĩİ": 3079,
      "èĥ½åĬĽ": 3080,
      "èĢĨ": 3081,
      "å«ģç»Ļ": 3082,
      "éº»": 3083,
      "æľ¬ä¸¸": 3084,
      "å§Ķ": 3085,
      "1579": 3086,
      "ä¿¡çĽ´": 3087,
      "çİ¯": 3088,
      "è¶³åĪ©ä¹īæĶ¿": 3089,
      "éĽĨç»ĵ": 3090,
      "çŀ": 3091,
      "æĬ¼": 3092,
      "åĲīå·Ŀåħĥæĺ¥": 3093,
      "èĢĮè¨Ģ": 3094,
      "å±¥": 3095,
      "æ¹ĸ": 3096,
      "æ°ıä¹¡": 3097,
      "æŃ£åľ¨": 3098,
      "ä¿¡éķ¿åħ¬è®°": 3099,
      "åıªå¾Ĺ": 3100,
      "æ²¼çĶ°": 3101,
      "ä¸īåĽ½": 3102,
      "æĪĪ": 3103,
      "ä¸ĢåĽ½": 3104,
      "æ²³è¶Ĭ": 3105,
      "ä¼¯èĢĨ": 3106,
      "è¯ŀçĶŁ": 3107,
      "è¯Ľ": 3108,
      "åĲįåı¤å±ĭ": 3109,
      "çĽ´åĪ°": 3110,
      "æī¿è®¤": 3111,
      "æĹ¥åĲİ": 3112,
      "ç§ĢæĶ¿": 3113,
      "åıįåĩ»": 3114,
      "æĻ´ä¹ħ": 3115,
      "çĦ¶åĲİ": 3116,
      "éķ¿å²Ľ": 3117,
      "éĢīæĭ©": 3118,
      "çĽĺ": 3119,
      "è¿Ļä½į": 3120,
      "ä¿¸": 3121,
      "©åĽº": 3122,
      "ä¸įè¶³": 3123,
      "ä¸įä¼ļ": 3124,
      "æĪĲç«ĭ": 3125,
      "å·©åĽº": 3126,
      "è¾īå®Ĺ": 3127,
      "50": 3128,
      "å®ĥ": 3129,
      "é«ĺæĿ¾": 3130,
      "å»ī": 3131,
      "èĢ³": 3132,
      "è¡Ĺ": 3133,
      "æ±ŁæĪ·åŁİ": 3134,
      "æľĿä»ĵä¹īæĻ¯": 3135,
      "èĩ³ä»Ĭ": 3136,
      "èµŀå²Ĳ": 3137,
      "èĶ": 3138,
      "æī«": 3139,
      "å¦Ĥä½ķ": 3140,
      "ä¸ºé¦ĸ": 3141,
      "å¥ĩè¢Ń": 3142,
      "æĭ¿": 3143,
      "1574": 3144,
      "å®¶å½ĵ": 3145,
      "å¿ħé¡»": 3146,
      "éĶħå²Ľ": 3147,
      "ä¹īéĩį": 3148,
      "è´±å²³": 3149,
      "è§Ĵèī²": 3150,
      "çĽ®æłĩ": 3151,
      "å±ĢåĬ¿": 3152,
      "ç»ĩçĶ°ä¿¡éĽĦ": 3153,
      "éĻ¶æĻ´è´¤": 3154,
      "æ±ī": 3155,
      "éĹ»åĲį": 3156,
      "ä»¥åīį": 3157,
      "æĶ»ä¸ĭ": 3158,
      "å®ŀæĿĥ": 3159,
      "é¦ĸåħĪ": 3160,
      "æ¢ģ": 3161,
      "ãĤī": 3162,
      "æ¾Ħåħĥ": 3163,
      "æĪĺæľ¯": 3164,
      "1563": 3165,
      "1567": 3166,
      "çº³è¨Ģ": 3167,
      "ä¹īé¾Ļ": 3168,
      "è¿ĩç¨ĭ": 3169,
      "éļĨåħĥ": 3170,
      "åºĩ": 3171,
      "ä¸ľæµ·": 3172,
      "1571": 3173,
      "æĺŁ": 3174,
      "æİ¥çĿĢ": 3175,
      "çĵ¦": 3176,
      "ä¹ĭåľ°": 3177,
      "ãĤĮ": 3178,
      "æ£®éķ¿": 3179,
      "1577": 3180,
      "å¿łæĶ¿": 3181,
      "éĥ¨ä¸ĭ": 3182,
      "å¥³å©¿": 3183,
      "1572": 3184,
      "å·¦è¿ĳ": 3185,
      "éķ¿å®ĹæĪĳéĥ¨åħĥäº²": 3186,
      "ä¸īåŃĲ": 3187,
      "å®ĪåĨĽ": 3188,
      "æĲº": 3189,
      "è½¦": 3190,
      "åĲĦèĩª": 3191,
      "ç¬¬äºĮæ¬¡": 3192,
      "åħ¨åĽ½": 3193,
      "å®°": 3194,
      "æľīäºº": 3195,
      "æ²Ł": 3196,
      "åįģéĥİ": 3197,
      "èĹ¤åŃĿ": 3198,
      "æ²Ļ": 3199,
      "è¡ĮæĶ¿": 3200,
      "ç¦ıå²ĽæŃ£åĪĻ": 3201,
      "è´¼": 3202,
      "ä»¥ä¸º": 3203,
      "æ¸ħåº·": 3204,
      "é¡¶": 3205,
      "æĸ©æĿĢ": 3206,
      "ç¬¬ä¸Ģæ¬¡": 3207,
      "çī©è¯Ń": 3208,
      "å°ĳè¾ħ": 3209,
      "æĿ¥åĪ°": 3210,
      "çĶŁæ´»": 3211,
      "ç»Ĩå·ĿæĻ´åħĥ": 3212,
      "é¥°": 3213,
      "å®ŀæĸ½": 3214,
      "åĨ·": 3215,
      "èĩªæŃ¤": 3216,
      "âĶ": 3217,
      "åĲ¾": 3218,
      "æĪĲåĳĺ": 3219,
      "è¡¡": 3220,
      "æī©å¤§": 3221,
      "ç§ĺ": 3222,
      "é¡¿": 3223,
      "åĽ½äººä¼Ĺ": 3224,
      "åĩºæĿ¥": 3225,
      "å®´": 3226,
      "é¹°": 3227,
      "èĮĥåĽ´": 3228,
      "åĳ³": 3229,
      "ä¼łç»Ł": 3230,
      "ç½¢": 3231,
      "é½Ĳ": 3232,
      "åºĶè¯¥": 3233,
      "å¤§åıĭå®ĹéºŁ": 3234,
      "ç»įè¿Ĳ": 3235,
      "åĲīèī¯": 3236,
      "ç¥ŀä¿Ŀ": 3237,
      "åħ¨åĨĽ": 3238,
      "å¤§å°ĨåĨĽ": 3239,
      "ä¹īè¾ī": 3240,
      "æ·Ģ": 3241,
      "æĺİæľĿ": 3242,
      "çĽ¸é©¬": 3243,
      "æł¹æľ¬": 3244,
      "å¤«äºº": 3245,
      "ä¸Ģåľº": 3246,
      "æľ¬åºĦ": 3247,
      "åıĪç§°": 3248,
      "çŁĽçĽ¾": 3249,
      "ä¿¡åŃĿ": 3250,
      "1576": 3251,
      "æĦŁåĪ°": 3252,
      "çī¹åĪ«": 3253,
      "ä¹īè´¤": 3254,
      "éĽħ": 3255,
      "ç¤¾ä¼ļ": 3256,
      "åĨĪå´İåŁİ": 3257,
      "å¸Ĳ": 3258,
      "è¿«ä½¿": 3259,
      "çĪµ": 3260,
      "ç§»å°ģ": 3261,
      "å±±çĶ°": 3262,
      "æĮ¯": 3263,
      "å½¢å¼ı": 3264,
      "çĶ°å®¶": 3265,
      "æ³ķåĲį": 3266,
      "ä¸¹åĲİ": 3267,
      "åħ¶å¼Ł": 3268,
      "åºĶæ°¸": 3269,
      "ä¿¡çĽĽ": 3270,
      "ä¸İåħ¶": 3271,
      "ä¸īæĿ¡": 3272,
      "æľ¬å®¶": 3273,
      "åįĹåĮĹæľĿ": 3274,
      "ä¸ŃæĿĳ": 3275,
      "åıįåıĽ": 3276,
      "è¯»": 3277,
      "èĩ³æŃ¤": 3278,
      "å´Ľ": 3279,
      "å·¥ä½ľ": 3280,
      "è°Ĵ": 3281,
      "è¦Ĩ": 3282,
      "ä¸ĸä»£": 3283,
      "æīĭä¸Ń": 3284,
      "å°¤åħ¶": 3285,
      "ä¸ºæĻ¯": 3286,
      "çĶ°æĿĳ": 3287,
      "æĮĩå®ļ": 3288,
      "æĿĥå¨ģ": 3289,
      "åĬŁç»©": 3290,
      "ç¿»": 3291,
      "åŁºæľ¬": 3292,
      "é¸Łå±ħ": 3293,
      "éĹ°": 3294,
      "å¨ģèĥģ": 3295,
      "å¤ªå¹³": 3296,
      "çľŁçĶ°æĺĮå¹¸": 3297,
      "ä¹īæ¸ħ": 3298,
      "æį®ç§°": 3299,
      "å¹´è½»": 3300,
      "ç«ĭåĬŁ": 3301,
      "ç¦ıå¯º": 3302,
      "çĽ®çļĦ": 3303,
      "çŁ©": 3304,
      "éĥ¨å°Ĩ": 3305,
      "ä½ĵç³»": 3306,
      "åŁİåĨħ": 3307,
      "è®Ń": 3308,
      "åį³ä¾¿": 3309,
      "ç»Ĩå·ĿæĶ¿åħĥ": 3310,
      "åįģä¸īå¹´": 3311,
      "ç»Ĩå·Ŀé«ĺåĽ½": 3312,
      "éĤ£é¡»": 3313,
      "æĹ§èĩ£": 3314,
      "ä¹īç»Ł": 3315,
      "æĺŃåĴĮ": 3316,
      "éĩĩåıĸ": 3317,
      "ä¹īæĶ¿": 3318,
      "133": 3319,
      "æĹ§é¢Ĩ": 3320,
      "å¹½": 3321,
      "åŁºçĿ£": 3322,
      "åĽ½å¯º": 3323,
      "åĨħå®¹": 3324,
      "éĿ©": 3325,
      "è§¦": 3326,
      "å¹³æ°ı": 3327,
      "èľĤé¡»è´º": 3328,
      "ä¼ª": 3329,
      "å§ĭç»Ī": 3330,
      "æīĩè°·": 3331,
      "åĲİæĸ¹": 3332,
      "çĪ±çŁ¥": 3333,
      "åįģåħ«å¹´": 3334,
      "éľĢè¦ģ": 3335,
      "å´Ľèµ·": 3336,
      "æĤ£": 3337,
      "è°ĥåģľ": 3338,
      "æĪĴ": 3339,
      "è®¯": 3340,
      "ä¹īç»§": 3341,
      "æĦ¤": 3342,
      "1555": 3343,
      "æ¿ĢçĥĪ": 3344,
      "ä¾ĭå¦Ĥ": 3345,
      "åĬ£": 3346,
      "ç±į": 3347,
      "åĨĽè®°": 3348,
      "1564": 3349,
      "ä¸ľè¥¿": 3350,
      "éģĵä¸ī": 3351,
      "ä¾¯": 3352,
      "åįĥçŁ³": 3353,
      "æĳĩ": 3354,
      "æĸĭèĹ¤éģĵä¸ī": 3355,
      "å¸Ŀ": 3356,
      "åįģåĽĽå¹´": 3357,
      "æĮģæ°ı": 3358,
      "æĶ¾éĢĲ": 3359,
      "æīįèĥ½": 3360,
      "è¯º": 3361,
      "æ¢¨": 3362,
      "çĶ°éķ¿": 3363,
      "æĪ´": 3364,
      "åĢ¾": 3365,
      "åĪ©ä¼ĳ": 3366,
      "1562": 3367,
      "äºĮæĹ¥": 3368,
      "æµģä¼ł": 3369,
      "è½¬èĢĮ": 3370,
      "ä¿¡ä»»": 3371,
      "æĻĭ": 3372,
      "å¤§è§Ħæ¨¡": 3373,
      "åĿı": 3374,
      "æł¹æį®åľ°": 3375,
      "æĺ¯åĲ¦": 3376,
      "æĢİ": 3377,
      "å¥Īèī¯": 3378,
      "å²Ľæ´¥ä¹īå¼ĺ": 3379,
      "åĳĪ": 3380,
      "æĹ¦": 3381,
      "åĪĨå®¶": 3382,
      "å±±å¯Į": 3383,
      "è¶³åĪ©å°Ĭæ°ı": 3384,
      "æĢģåº¦": 3385,
      "è²": 3386,
      "ä¼ģ": 3387,
      "æĬ¥åĳĬ": 3388,
      "å°ıè¥¿è¡Įéķ¿": 3389,
      "è·ĳ": 3390,
      "é©¬åľº": 3391,
      "ç¼Ķç»ĵ": 3392,
      "ä»°": 3393,
      "å¾®": 3394,
      "æŃ¤ä¸¾": 3395,
      "ãģķ": 3396,
      "ä¿¸ç¦Ħ": 3397,
      "åĲįå°Ĩ": 3398,
      "å½±åĵįåĬĽ": 3399,
      "ç»Ħç»ĩ": 3400,
      "éģį": 3401,
      "å®ĺèģĮ": 3402,
      "åįģæ²³": 3403,
      "æ´¥çĶ°": 3404,
      "ä¸Ģäºº": 3405,
      "æĢ¨": 3406,
      "¡æĹĭ": 3407,
      "æĺł": 3408,
      "èıĬæ±ł": 3409,
      "æĸ¡æĹĭ": 3410,
      "å¤§äºķ": 3411,
      "åĴĮè®®": 3412,
      "çĹħæŃ»": 3413,
      "ç«ĭèĬ±å®ĹèĮĤ": 3414,
      "ç«ĭåĪ»": 3415,
      "éļıåĨĽ": 3416,
      "çĹĽ": 3417,
      "èº«è¾¹": 3418,
      "æĤ²": 3419,
      "åĢĴæĪĪ": 3420,
      "1565": 3421,
      "ä½ľåĵģ": 3422,
      "åĽ½åĨħ": 3423,
      "æĸ¹å¼ı": 3424,
      "ï½": 3425,
      "å£®": 3426,
      "æ²ī": 3427,
      "åĴĮæŃĮ": 3428,
      "åĪĨä¸º": 3429,
      "å³ł": 3430,
      "èĦ±ç¦»": 3431,
      "æĹ¬": 3432,
      "æĪĺä¹±": 3433,
      "ãģ¾": 3434,
      "è·Ŀ": 3435,
      "å¦Ĥä»Ĭ": 3436,
      "ä»ĭåħ¥": 3437,
      "è¿İå¨¶": 3438,
      "æ°ıå®¶": 3439,
      "è§ĤçĤ¹": 3440,
      "åħµåºĵ": 3441,
      "è´¥éĢĢ": 3442,
      "å½ĴéĻĦ": 3443,
      "éĺ²å®Ī": 3444,
      "é¢ĳ": 3445,
      "æ¬¢": 3446,
      "ä»»ä½ķ": 3447,
      "æıı": 3448,
      "ç»§ä½į": 3449,
      "åĽĽä½į": 3450,
      "æīĵç®Ĺ": 3451,
      "ä¸ĢåĲį": 3452,
      "çĽ´ä¹ī": 3453,
      "500": 3454,
      "åı¦æľī": 3455,
      "æľ«æľŁ": 3456,
      "ä¼ļåĲĪ": 3457,
      "éĵĥæľ¨": 3458,
      "ä¸ºä¸»": 3459,
      "è°ģ": 3460,
      "åĽ´æĶ»": 3461,
      "å°º": 3462,
      "éļıä¹ĭ": 3463,
      "åħ°": 3464,
      "å²Ľæ´¥ä¹īä¹ħ": 3465,
      "å¼ºåĮĸ": 3466,
      "æ¢¦": 3467,
      "åľ°å¤´": 3468,
      "å¾ģå¤·": 3469,
      "æĶ¹ä¸º": 3470,
      "èĥĮåĲİ": 3471,
      "çĬ¯": 3472,
      "ä½ĳ": 3473,
      "åħŃæĹ¥": 3474,
      "èĭĹ": 3475,
      "ç»ĩçĶ°ä¿¡å¿ł": 3476,
      "å»ºæŃ¦": 3477,
      "å»ºéĢł": 3478,
      "é¡¹": 3479,
      "å¤§åĨħä¹īåħ´": 3480,
      "åºĩæĬ¤": 3481,
      "ä¸°èĩ£æ°ı": 3482,
      "åħģè®¸": 3483,
      "é«ĺåŁİ": 3484,
      "éĢłæĪĲ": 3485,
      "èĦļ": 3486,
      "çĨŁ": 3487,
      "ä¹ĭå¤ĸ": 3488,
      "çŃ±": 3489,
      "èı©": 3490,
      "èģĮåĬ¡": 3491,
      "åł¡": 3492,
      "1598": 3493,
      "å¯Ĵ": 3494,
      "æĥ§": 3495,
      "å®ŀçİ°": 3496,
      "ç¨³å®ļ": 3497,
      "ç¬¼åŁİ": 3498,
      "éĥŃ": 3499,
      "ç¥¥": 3500,
      "æĤī": 3501,
      "åĲĮä¸Ģ": 3502,
      "ä¼Ĺäºº": 3503,
      "èį¡": 3504,
      "ä»ªå¼ı": 3505,
      "åīįçº¿": 3506,
      "å®ĹæķĻ": 3507,
      "èģĶæīĭ": 3508,
      "è´¥åĮĹ": 3509,
      "å¿Į": 3510,
      "æ®Ĭ": 3511,
      "åı¹": 3512,
      "å¹´ä»£": 3513,
      "æĺ¯åĽłä¸º": 3514,
      "åįģäºĶå¹´": 3515,
      "å¿łåħ´": 3516,
      "çĬ¶æĢģ": 3517,
      "éķ¿å°¾æĻ¯èĻİ": 3518,
      "å¤§å¤ļ": 3519,
      "åħ¶ä¸º": 3520,
      "å°ıè·¯": 3521,
      "çĶŁæ¯į": 3522,
      "çĽ¸å¯¹": 3523,
      "æĺ¾ç¤º": 3524,
      "å¤§ä½Ľ": 3525,
      "éĩįå»º": 3526,
      "åĬłå¢ŀ": 3527,
      "çķĻåľ¨": 3528,
      "å¯ĩ": 3529,
      "æļĤæĹ¶": 3530,
      "çĶ²å·ŀ": 3531,
      "å¿§": 3532,
      "åĮ¹": 3533,
      "æī¶": 3534,
      "ä»İæŃ¤": 3535,
      "ä¿¡ç§Ģ": 3536,
      "å¯ºç¤¾": 3537,
      "æĴĳ": 3538,
      "åħ¶ä½Ļ": 3539,
      "ç´«": 3540,
      "çº³åħ¥": 3541,
      "åŁİåŁİä¸»": 3542,
      "çªģè¢Ń": 3543,
      "éªĳåħµ": 3544,
      "æ¥ł": 3545,
      "åĲ¹": 3546,
      "å°Ķ": 3547,
      "ä¹īè´ŀ": 3548,
      "éª¨": 3549,
      "ä¸ĢéĿ¢": 3550,
      "åº·æĶ¿": 3551,
      "çĻ½æ²³": 3552,
      "çīµåĪ¶": 3553,
      "ãģį": 3554,
      "æĦıåĽ¾": 3555,
      "åħĥå¿ł": 3556,
      "ç«ł": 3557,
      "å¾ģå¤·å¤§å°ĨåĨĽ": 3558,
      "è¾ĵ": 3559,
      "ä¸īä½į": 3560,
      "éĹ¨å¾Ĵ": 3561,
      "çİ°åŃĺ": 3562,
      "æĶ¿åıĺ": 3563,
      "åĲĥ": 3564,
      "å°¹": 3565,
      "æī°": 3566,
      "æ¸Ĭ": 3567,
      "ä¸ĥéĥİ": 3568,
      "çĬ¹": 3569,
      "æľĢä¸Ĭä¹īåħī": 3570,
      "ä¸ĢçĶŁ": 3571,
      "ä¸ĢåĲĳå®Ĺ": 3572,
      "å®¶ä¹ħ": 3573,
      "æ°ıæĶ¿": 3574,
      "æľ¬éĺŁ": 3575,
      "é¢Ŀ": 3576,
      "éĴŁ": 3577,
      "å»ºè®®": 3578,
      "æĿİ": 3579,
      "æķ¦": 3580,
      "æ°ıçº²": 3581,
      "ä¸įåĨį": 3582,
      "äº¤æ¶ī": 3583,
      "åĬłå¼º": 3584,
      "æ½ľ": 3585,
      "å´ĩ": 3586,
      "ç»ĻäºĪ": 3587,
      "ä¸Ī": 3588,
      "åħĨ": 3589,
      "ç®ķ": 3590,
      "æĩ": 3591,
      "å°ıè°·": 3592,
      "èįĴæľ¨æĿĳ": 3593,
      "èįĴæľ¨æĿĳéĩį": 3594,
      "æĺĶ": 3595,
      "ä¸»å¯¼": 3596,
      "è°ı": 3597,
      "ä¸ĢæĹ¶": 3598,
      "æĭ¢": 3599,
      "èĩ³äºİ": 3600,
      "åĢį": 3601,
      "å¤¹åĩ»": 3602,
      "éĸ": 3603,
      "åŁİæĹ¶": 3604,
      "æŃ¦èĢħ": 3605,
      "è¶³åĪ©æ°ı": 3606,
      "åľ¨äºİ": 3607,
      "æĺİç¡®": 3608,
      "åıįæĬĹ": 3609,
      "æ³¢å¤ļ": 3610,
      "æºĲèµĸæľĿ": 3611,
      "é¡ºåºĨ": 3612,
      "é©Ĵ": 3613,
      "å£¬": 3614,
      "å¾¡å®¶äºº": 3615,
      "ä¸°èĩ£ç§Ģèµĸ": 3616,
      "éĻįä¼ı": 3617,
      "å¸®åĬ©": 3618,
      "çľŁæŃ£": 3619,
      "éķ·": 3620,
      "ãģ§": 3621,
      "æĺĮæĻ¯": 3622,
      "èĪŁ": 3623,
      "ç¦ģæŃ¢": 3624,
      "èµ¦åħį": 3625,
      "å¹´å¹¼": 3626,
      "åįĬå²Ľ": 3627,
      "ä¹ı": 3628,
      "ä½įç½®": 3629,
      "çİĩåħµ": 3630,
      "ä¸Ģåº§": 3631,
      "æ¸¡è¾¹": 3632,
      "ä¸įå°ĳ": 3633,
      "æĪ·çĶ°": 3634,
      "æ´Ĺ": 3635,
      "ä¼ļè®®": 3636,
      "å¹¸æĿĳ": 3637,
      "çĽĸ": 3638,
      "å¹³åİŁ": 3639,
      "æĥľ": 3640,
      "ä¹¦çĬ¶": 3641,
      "å½¢åĬ¿": 3642,
      "ç½ļ": 3643,
      "ä¸Ģåįĥ": 3644,
      "ä½Ĳä½ĲæĪĲæĶ¿": 3645,
      "æ¯ķ": 3646,
      "ãģı": 3647,
      "åį±æľº": 3648,
      "èĥľä¹ħ": 3649,
      "æĳĨ": 3650,
      "éĩĩçĶ¨": 3651,
      "ä¿¡çº²": 3652,
      "äº¤éĢļ": 3653,
      "åĽ½åı¸": 3654,
      "æİ¢é¢ĺ": 3655,
      "æĬļ": 3656,
      "ä½ľçĶ¨": 3657,
      "ä¸ºæŃ¤": 3658,
      "ä»¿": 3659,
      "é¢ĨåľŁ": 3660,
      "è§ģäºİ": 3661,
      "å®īæİĴ": 3662,
      "æ¸¡æµ·": 3663,
      "è´µæĹı": 3664,
      "åĩºåĩ»": 3665,
      "äºĭæĥħ": 3666,
      "æı´åĬ©": 3667,
      "æħ¢": 3668,
      "åĮ»": 3669,
      "èĭı": 3670,
      "éĺµåľ°": 3671,
      "å¤ªåĪĢ": 3672,
      "èģĶç»ľ": 3673,
      "ä½ĵçİ°": 3674,
      "å±ı": 3675,
      "è¢ĸ": 3676,
      "æĶ¾çģ«": 3677,
      "å®½æĶ¿": 3678,
      "åıĳæĮ¥": 3679,
      "éĵł": 3680,
      "é¦ĸæ¬¡": 3681,
      "æĹ¥åĨĽ": 3682,
      "åĬ¨åĲĳ": 3683,
      "åł¤": 3684,
      "æĹłè®º": 3685,
      "å½Ĵå±ŀ": 3686,
      "ä¿¡åıĭ": 3687,
      "å¥īåĳ½": 3688,
      "ç¥Ī": 3689,
      "145": 3690,
      "å®ł": 3691,
      "æĬ±": 3692,
      "æľ¬æĿ¥": 3693,
      "æİª": 3694,
      "åĵįåºĶ": 3695,
      "å´©æºĥ": 3696,
      "è¾Ī": 3697,
      "æĿ¥èĩª": 3698,
      "éģĵè·¯": 3699,
      "åŁİä¸ĭçĶº": 3700,
      "ä¹īéķĩ": 3701,
      "å¤©éĩİ": 3702,
      "åĴĮè°Ī": 3703,
      "éĶĲ": 3704,
      "çªģåĩ»": 3705,
      "åº¶æµģ": 3706,
      "ä¸Ńå·Ŀ": 3707,
      "åıĳå¸ĥ": 3708,
      "é¸Łåıĸ": 3709,
      "é©°": 3710,
      "èŀ": 3711,
      "ä¹īå°§": 3712,
      "å¤ľè¢Ń": 3713,
      "å±¥åİĨ": 3714,
      "ä¸ľåĽ½": 3715,
      "èīĺ": 3716,
      "åİĨä»£": 3717,
      "åķĬ": 3718,
      "éł": 3719,
      "ä¸ĢäºĽ": 3720,
      "ä¸įåĪ©": 3721,
      "éģŃéģĩ": 3722,
      "ç³»åĽ¾": 3723,
      "å½ĴåĽ½": 3724,
      "åĪĹä¸º": 3725,
      "æ»ĭ": 3726,
      "1566": 3727,
      "åłĢè¶Ĭ": 3728,
      "åħ«éĥİ": 3729,
      "çĲĨçĶ±": 3730,
      "é¾Ħ": 3731,
      "çŁ³é«ĺ": 3732,
      "ä¸ľåĮĹ": 3733,
      "éķĩå®Ī": 3734,
      "è¶ģæľº": 3735,
      "èĸĦ": 3736,
      "èķ": 3737,
      "çº¸": 3738,
      "å¼ķèµ·": 3739,
      "åħ·ä½ĵ": 3740,
      "é«ĺå±±": 3741,
      "æ»¨æĿ¾": 3742,
      "åį³ä½¿": 3743,
      "çĶ²éĺ³": 3744,
      "èĢĥèĻĳ": 3745,
      "æįŁå¤±": 3746,
      "èĵ": 3747,
      "å¢Ļ": 3748,
      "åĨĽéī´": 3749,
      "å±±æľ¬": 3750,
      "ä¸Ģè¾¹": 3751,
      "ä¸ŃæľŁ": 3752,
      "å½¼": 3753,
      "ä»İèĢĮ": 3754,
      "çĶµ": 3755,
      "1588": 3756,
      "æ³¢å¤ļéĩİ": 3757,
      "ä¸įçŁ¥": 3758,
      "åįģä¹Ŀå¹´": 3759,
      "å¤ıä¹ĭéĺµ": 3760,
      "æŃ¦åĭĩ": 3761,
      "æĻ¨": 3762,
      "åĲĮæĦı": 3763,
      "æĮ¡": 3764,
      "ä¸ĢæĪĺ": 3765,
      "å¦Ĥæ°´": 3766,
      "åĪ«æīĢ": 3767,
      "éķ¿æ²»": 3768,
      "å²Ń": 3769,
      "ä½Ĳä½Ĳæľ¨": 3770,
      "å¤©çİĭå¯º": 3771,
      "èĮ¶éģĵ": 3772,
      "ä¼¼ä¹İ": 3773,
      "é«ĺè¿ľ": 3774,
      "å¥ĸ": 3775,
      "èµ·åĪĿ": 3776,
      "ä½Ĳä¹ħéĹ´ä¿¡çĽĽ": 3777,
      "å®ĪåŁİ": 3778,
      "æ²³åİŁ": 3779,
      "åķĨè®®": 3780,
      "âĢķ": 3781,
      "ä¸īä»£": 3782,
      "ãģĬ": 3783,
      "é¡ºåĪ©": 3784,
      "åĪ©éķ¿": 3785,
      "åĲĮæľĪ": 3786,
      "å®ŀä¸º": 3787,
      "è¿İåĩ»": 3788,
      "çĪ±çŁ¥åİ¿": 3789,
      "æĸ¥": 3790,
      "èº«äº¡": 3791,
      "çĲĥ": 3792,
      "1556": 3793,
      "å±Ī": 3794,
      "åĩºæĪĺ": 3795,
      "å®īèĹ¤": 3796,
      "è®°è¿°": 3797,
      "1591": 3798,
      "1558": 3799,
      "éªļåĬ¨": 3800,
      "ä¸ľæµ·éģĵ": 3801,
      "å¤§èĢģ": 3802,
      "åĨĪåŁİ": 3803,
      "300": 3804,
      "çĶ°ä¸Ń": 3805,
      "é«ĺå¤©ç¥ŀ": 3806,
      "äººé©¬": 3807,
      "åĭ¤": 3808,
      "æĤ¨": 3809,
      "åįģåħŃå¹´": 3810,
      "å®¶åħī": 3811,
      "éĩİçĶ°": 3812,
      "æ±Ĥæı´": 3813,
      "ä¹ĥæĺ¯": 3814,
      "æŁ³å·Ŀ": 3815,
      "æľīçĿĢ": 3816,
      "åıĸä»£": 3817,
      "ä¸ĬæĿīå®ªæĶ¿": 3818,
      "æĶ¯åŁİ": 3819,
      "æĦŁçĬ¶": 3820,
      "å®ĩåĸľå¤ļç§Ģå®¶": 3821,
      "æ°¸äº«": 3822,
      "åĨĽåĽ¢": 3823,
      "æĹ©å¹´": 3824,
      "æĿµ": 3825,
      "æ´ĭ": 3826,
      "åĽŀå½Ĵ": 3827,
      "é¢ģå¸ĥ": 3828,
      "è¹": 3829,
      "ä¸ĢçĻ¾": 3830,
      "ä¹īä¿¡": 3831,
      "å®Ĺåħ¨": 3832,
      "ä»»åĬ¡": 3833,
      "ç¼ĵ": 3834,
      "éķ¿è°·": 3835,
      "ä¾£": 3836,
      "æŁĵ": 3837,
      "èĹ©å£«": 3838,
      "æ·¡è·¯": 3839,
      "æŃ£ä¿¡": 3840,
      "éļĪ": 3841,
      "æĺ¾å®ļ": 3842,
      "ç²Ł": 3843,
      "ï½ŀ": 3844,
      "åĬª": 3845,
      "è®¾ç½®": 3846,
      "ä¹Į": 3847,
      "æ³Ľ": 3848,
      "æ²¡èĲ½": 3849,
      "èģĶç³»": 3850,
      "æģ°": 3851,
      "çĮ¿": 3852,
      "åįĸ": 3853,
      "ä½Ĳéĩİ": 3854,
      "å¥ł": 3855,
      "éĹ²": 3856,
      "æľ¬å¤ļå¿łèĥľ": 3857,
      "éªĮ": 3858,
      "å¿įèĢħ": 3859,
      "çıŃ": 3860,
      "ä¿ĺ": 3861,
      "åħ«ä»£": 3862,
      "æİ¨è¿Ľ": 3863,
      "éĤĢè¯·": 3864,
      "ä¸ĢæĶ¯": 3865,
      "äººä»¬": 3866,
      "æĬ¢": 3867,
      "è¾¾åĪ°": 3868,
      "1554": 3869,
      "å£«æ°Ķ": 3870,
      "æĶ¹å§ĵ": 3871,
      "è¡¨æĺİ": 3872,
      "éĻª": 3873,
      "åłª": 3874,
      "æģĴåħ´": 3875,
      "ä¸īæĸ¹åİŁ": 3876,
      "ä»¥å¤ĸ": 3877,
      "å¤©ä¸»": 3878,
      "æ´¥å·Ŀ": 3879,
      "åı¡": 3880,
      "èĢĮåĲİ": 3881,
      "åı¬éĽĨ": 3882,
      "èĹ¤åłĤé«ĺèĻİ": 3883,
      "å°Ĩå£«": 3884,
      "æ¡Ĳ": 3885,
      "æĹ©å·²": 3886,
      "èĤ¯": 3887,
      "ä½ĽæķĻ": 3888,
      "æľĢé«ĺ": 3889,
      "æīĵåĩ»": 3890,
      "é¾ĻéĢłå¯ºéļĨä¿¡": 3891,
      "å·¨å¤§": 3892,
      "çģ¾": 3893,
      "æĶ¯æĴĳ": 3894,
      "åºĨéķ¿ä¹ĭå½¹": 3895,
      "éĻįæľį": 3896,
      "ä»Ĭå·Ŀæ°ıçľŁ": 3897,
      "å®ľ": 3898,
      "ä¹ĭçĪ¶": 3899,
      "æľ¬èº«": 3900,
      "ãģĻ": 3901,
      "åıįæĺł": 3902,
      "çĶ²åºľ": 3903,
      "ä¹ĭäºī": 3904,
      "éĹŃ": 3905,
      "å±ĢéĿ¢": 3906,
      "æŀģä¸º": 3907,
      "åħ·æľī": 3908,
      "å°ıæĹ©å·Ŀç§Ģç§ĭ": 3909,
      "åĥ§ä¾£": 3910,
      "éĺ²å¤ĩ": 3911,
      "ç§Ģåº·": 3912,
      "åīĥ": 3913,
      "æĿ¾çĶ°": 3914,
      "æĬķå¥Ķ": 3915,
      "æļĹä¸Ń": 3916,
      "åľŁè±ª": 3917,
      "æĽ°": 3918,
      "çĮĽæĶ»": 3919,
      "å¼¹æŃ£": 3920,
      "æ²¹": 3921,
      "è¯¸ä¾¯": 3922,
      "1559": 3923,
      "ä¹īéķ¿": 3924,
      "å¿łè¯ļ": 3925,
      "æŀĿ": 3926,
      "æį®ä¼ł": 3927,
      "è§Ħå®ļ": 3928,
      "ç«ĭåľº": 3929,
      "äºĭè¿¹": 3930,
      "éļĨæĪ¿": 3931,
      "çĮª": 3932,
      "æ¹¾": 3933,
      "æķķ": 3934,
      "çºĤ": 3935,
      "èģĶå§»": 3936,
      "æĿĳä¸Ĭä¹īæ¸ħ": 3937,
      "å·¦äº¬": 3938,
      "éĽĨåĽ¢": 3939,
      "é»ĳçĶ°éķ¿æĶ¿": 3940,
      "ç±³æ³½": 3941,
      "åĮĹæĿ¡æ°ıçº²": 3942,
      "æģ¶åĮĸ": 3943,
      "åĲ¯": 3944,
      "éĿ¢åīį": 3945,
      "åįģä¸ĥå¹´": 3946,
      "å¤§åĿĤä¹ĭéĺµ": 3947,
      "ä¹ĭæĦı": 3948,
      "åĪ©çĽĬ": 3949,
      "å°ļæľª": 3950,
      "ä¸Ģçķª": 3951,
      "åħµé©¬": 3952,
      "æĥ¯": 3953,
      "æī¿æĭħ": 3954,
      "æĶ¶åĪ°": 3955,
      "ç»ıèĲ¥": 3956,
      "çĻ»éĻĨ": 3957,
      "ä¸Ģéĥ¨åĪĨ": 3958,
      "å¯¡": 3959,
      "æľīæīĢ": 3960,
      "æŃ£éĿ¢": 3961,
      "åħµç²®": 3962,
      "çĽĽäº²": 3963,
      "åĿļå®Ī": 3964,
      "ç©´å±±": 3965,
      "åİŁçĶ°": 3966,
      "æĻ´å®Ĺ": 3967,
      "å¾ģè®¨": 3968,
      "ç´¢": 3969,
      "è¶ĭ": 3970,
      "ä¸ĩäºº": 3971,
      "1595": 3972,
      "æ¸¸ä½Ĳ": 3973,
      "å§»äº²": 3974,
      "çĭĤ": 3975,
      "é¸£": 3976,
      "å¤§éļħ": 3977,
      "ãģĤ": 3978,
      "ç³»è°±": 3979,
      "å§ĵæ°ı": 3980,
      "æİĮæİ§": 3981,
      "åľ°å½¢": 3982,
      "ä¸ľéĥ¨": 3983,
      "æŁĦ": 3984,
      "æĦıè§ģ": 3985,
      "å¹¿å®¶": 3986,
      "ä¸»åħ¬": 3987,
      "1542": 3988,
      "éĢĤ": 3989,
      "164": 3990,
      "ç¶": 3991,
      "å®¶ä¸ļ": 3992,
      "çŁ³åŀ£": 3993,
      "ä¾Ħ": 3994,
      "åįİæĹı": 3995,
      "æ¬¾": 3996,
      "çīĮ": 3997,
      "å¼ĢæĪĺ": 3998,
      "ä¾ĿéĻĦ": 3999,
      "åįĥäºº": 4000,
      "1551": 4001,
      "ç½Ĺé©¬": 4002,
      "å®īæĪ¿": 4003,
      "æ±ŁåŁİ": 4004,
      "æ£®éķ¿åı¯": 4005,
      "åľ°çĲĨ": 4006,
      "ä¸¤å¹´": 4007,
      "ãĤĪ": 4008,
      "èįĲ": 4009,
      "èĥ¡": 4010,
      "è¡°èĲ½": 4011,
      "èı©æıĲ": 4012,
      "èµĭ": 4013,
      "éĩįçĶ¨": 4014,
      "åĮºåŁŁ": 4015,
      "åĭĩçĮĽ": 4016,
      "éģ¿åħį": 4017,
      "äººæķ°": 4018,
      "ä¹Ŀé¬¼": 4019,
      "åħ»å¥³": 4020,
      "æī§äºĭ": 4021,
      "100": 4022,
      "åŃ©": 4023,
      "æĪª": 4024,
      "æĿ°": 4025,
      "ä¸»åĬ¨": 4026,
      "è¯¸åĽ½": 4027,
      "æĽ´æĺ¯": 4028,
      "è¯ĽæĿĢ": 4029,
      "åĲĹ": 4030,
      "é©¾": 4031,
      "æĸĩç¦Ħä¹ĭå½¹": 4032,
      "äº¤ç»Ļ": 4033,
      "1557": 4034,
      "éĶģ": 4035,
      "å¢ŀåĬł": 4036,
      "é¢ģåıĳ": 4037,
      "äºĭå®ŀä¸Ĭ": 4038,
      "å¥¥ç¾½": 4039,
      "ä¸ĢæľĪ": 4040,
      "èĬ¸": 4041,
      "å±ħå£«": 4042,
      "å®£å¸ĥ": 4043,
      "èĳĹç§°": 4044,
      "åĪĽå»º": 4045,
      "åįĹä¸ĭ": 4046,
      "è¿ľå¾ģ": 4047,
      "æŁ³çĶŁ": 4048,
      "ä¼ģåĽ¾": 4049,
      "æĶ¿æĻ¯": 4050,
      "çİ°ä»Ĭ": 4051,
      "æİ¥è¿ĳ": 4052,
      "è¿ģèĩ³": 4053,
      "å®ŀè´¨": 4054,
      "æīĭä¸ĭ": 4055,
      "å¯¹æĸ¹": 4056,
      "ä¼łæķĻå£«": 4057,
      "ãģĵ": 4058,
      "åĽ¾è°ĭ": 4059,
      "åĥļ": 4060,
      "èµĦæĸĻ": 4061,
      "å»¶åİĨ": 4062,
      "çĥ§æ¯ģ": 4063,
      "åİŁåŁİ": 4064,
      "å¤ļå¹´": 4065,
      "çī§éĩİ": 4066,
      "åİ©": 4067,
      "ä¸įåĪ°": 4068,
      "è¿ĩåİ»": 4069,
      "è¶³åĪ©ä¹īæĻ´": 4070,
      "åı³è¿ĳ": 4071,
      "éĢĲåĩº": 4072,
      "è§ĤéŁ³": 4073,
      "æĴ°": 4074,
      "å±ķçİ°": 4075,
      "ç»Ĩå·Ŀèĥľåħĥ": 4076,
      "1548": 4077,
      "ä¹Ŀå·ŀå¾ģä¼Ĳ": 4078,
      "éķ¿äºķ": 4079,
      "è¥¿éĥ¨": 4080,
      "ç»Ĩå·ĿèĹ¤åŃĿ": 4081,
      "è°ĪåĪ¤": 4082,
      "éĺ¶å±Ĥ": 4083,
      "ä¸įæķ¢": 4084,
      "éĩįå¤§": 4085,
      "ä¸°èĩ£ç§Ģæ¬¡": 4086,
      "å°Ħåĩ»": 4087,
      "ä¸Ĭäº¬": 4088,
      "æºĲä¹ī": 4089,
      "å¥īåħ¬ä¼Ĺ": 4090,
      "é»ĳçĶ°åŃĿé«ĺ": 4091,
      "å¯¹é©¬": 4092,
      "æľĢæĹ©": 4093,
      "è¿ĳå¹´": 4094,
      "å¢¨": 4095,
      "åŃĿæĻ¯": 4096,
      "æī®": 4097,
      "ä¸Ĭè¿°": 4098,
      "å¾Īå¤ļ": 4099,
      "äºļ": 4100,
      "ä¸įå¦Ĥ": 4101,
      "åŃĲåĹ£": 4102,
      "æŃ£èĥľ": 4103,
      "æľ¬æį®": 4104,
      "åĪ¶å®ļ": 4105,
      "é¾Ļåħ´": 4106,
      "æ¯Ķåı¡": 4107,
      "æ¯Ķåı¡å±±": 4108,
      "çĶŁåįĴ": 4109,
      "åĵª": 4110,
      "åĴĮå±±": 4111,
      "åĲĪä½ľ": 4112,
      "è¿½éļı": 4113,
      "æ©¹": 4114,
      "åĲįéĹ¨": 4115,
      "åįģåĽĽ": 4116,
      "äºĮä¹ĭä¸¸": 4117,
      "ä½ĲåĴĮå±±": 4118,
      "æķħäºĭ": 4119,
      "æ¬¡æĹ¥": 4120,
      "æīĢé¢Ĩ": 4121,
      "çĽ´èĮĤ": 4122,
      "æµ·ä¸Ĭ": 4123,
      "éĿĻåĨĪ": 4124,
      "ä¸ĢèģĮ": 4125,
      "æ³ķå¸Ī": 4126,
      "åĬĿè¯´": 4127,
      "çĦļæ¯ģ": 4128,
      "ä¸ĢçĤ¹": 4129,
      "ä¸ĬæľĪ": 4130,
      "å»»": 4131,
      "éļıä»İ": 4132,
      "1541": 4133,
      "çĲ¼": 4134,
      "1589": 4135,
      "å¹ħ": 4136,
      "ä¸īä¸ª": 4137,
      "åĩºå¥Ķ": 4138,
      "èĢĮå·²": 4139,
      "ä¾įä»İ": 4140,
      "åİŁæ°ı": 4141,
      "ç±»ä¼¼": 4142,
      "è°Ĵè§ģ": 4143,
      "å¤§éĥ¨åĪĨ": 4144,
      "åĨħæĶ¿": 4145,
      "äºĮçĻ¾": 4146,
      "åħ¼ä»»": 4147,
      "1550": 4148,
      "äº¬çķ¿": 4149,
      "æĢİä¹Ī": 4150,
      "å¤ªæĶ¿": 4151,
      "æł¹æĿ¥": 4152,
      "å±±åİ¿æĺĮæĻ¯": 4153,
      "åĢŃå¯ĩ": 4154,
      "3000": 4155,
      "ä¸Ģè·¯": 4156,
      "å¯¹åºĶ": 4157,
      "æĪĸè®¸": 4158,
      "æĪı": 4159,
      "åĮħåĽ´ç½ĳ": 4160,
      "çĨĬè°·": 4161,
      "ç¨»åı¶å±±": 4162,
      "éĩįæĶ¿": 4163,
      "ç§Ģçº²": 4164,
      "å¹¶äºİ": 4165,
      "1593": 4166,
      "å·¥ç¨ĭ": 4167,
      "çĩ": 4168,
      "ä¸ĢæĹ¦": 4169,
      "ä¸¤ä½į": 4170,
      "å¯Įå£«": 4171,
      "åºĦåĨħ": 4172,
      "æ¥łæľ¨": 4173,
      "æŃ¦åĻ¨": 4174,
      "çĽĽæĶ¿": 4175,
      "çĽĹ": 4176,
      "æµ®": 4177,
      "è¿ĻéĩĮ": 4178,
      "çŃĸåıį": 4179,
      "åįģäºĶæĹ¥": 4180,
      "çİĩåħĪ": 4181,
      "è¾¹å¢ĥ": 4182,
      "æľįéĥ¨": 4183,
      "å¦¹å¦¹": 4184,
      "æ¯«æĹł": 4185,
      "ä»Ĺ": 4186,
      "ä¸Ģä¸¾": 4187,
      "ä¸ĢåĪĩ": 4188,
      "éĢı": 4189,
      "ç¥Ŀ": 4190,
      "åĽ´ç»ķ": 4191,
      "å¹´ä»ħ": 4192,
      "ç»ĥ": 4193,
      "èĢ¶": 4194,
      "æŃ¤å½¹": 4195,
      "åĴĮå¹³": 4196,
      "ãģ¤": 4197,
      "ç»ĵæĪĲ": 4198,
      "å¥ĳ": 4199,
      "éĢļå¸¸": 4200,
      "å²©åŁİ": 4201,
      "æī§è¡Į": 4202,
      "æīİ": 4203,
      "ä¸ģ": 4204,
      "çºł": 4205,
      "æŀļ": 4206,
      "ç®±": 4207,
      "èµıèµĲ": 4208,
      "æĻ¯æĺ¥": 4209,
      "åĨĪå±±": 4210,
      "è§£éĩĬ": 4211,
      "åĲİç»§": 4212,
      "åįĥä½Ļ": 4213,
      "1553": 4214,
      "ç¡®ä¿Ŀ": 4215,
      "å»¶åİĨå¯º": 4216,
      "ä¸Ŀ": 4217,
      "åŁİåł¡": 4218,
      "éķ¿æ»¨": 4219,
      "æŃ£å¹³": 4220,
      "æľ¬å±±": 4221,
      "çº¢": 4222,
      "æ¯Ĵ": 4223,
      "åĪ«åĲį": 4224,
      "çªģçł´": 4225,
      "åŀĴ": 4226,
      "åĶ¯ä¸Ģ": 4227,
      "ä¸ĸè¢Ń": 4228,
      "åľ¨åĨħ": 4229,
      "åŁİä¸º": 4230,
      "æĿ¾æµ¦": 4231,
      "éĢĢåĽŀ": 4232,
      "æıĲåĪ°": 4233,
      "çĸ²": 4234,
      "éļ¶å±ŀ": 4235,
      "çĶ¨äºİ": 4236,
      "æĻ´æ°ı": 4237,
      "åı·ç§°": 4238,
      "å°¼åŃĲç»ıä¹ħ": 4239,
      "è®¸åı¯": 4240,
      "ç¢ĳ": 4241,
      "ä¸İæŃ¤": 4242,
      "æĶ¿æīĢ": 4243,
      "æīĭæ®µ": 4244,
      "èİ·èĥľ": 4245,
      "åıĺæĪĲ": 4246,
      "çģ«ç»³": 4247,
      "å¢ĥåĨħ": 4248,
      "èŀį": 4249,
      "æĨ": 4250,
      "æ²»çĲĨ": 4251,
      "äº¬åħĨ": 4252,
      "ä¾Ŀæį®": 4253,
      "åĽºå®Ī": 4254,
      "éĺ»æŃ¢": 4255,
      "è²Į": 4256,
      "çĶ°ä¿¡": 4257,
      "æĿ¾äºķ": 4258,
      "è®¾ç«ĭ": 4259,
      "ä¸īä¸ĩ": 4260,
      "åĨ³å¿ĥ": 4261,
      "å¥łå®ļ": 4262,
      "èĹ¤åĲī": 4263,
      "æĥ³è¦ģ": 4264,
      "åŁºçĿ£æķĻ": 4265,
      "æĬĦ": 4266,
      "æİĺ": 4267,
      "æĸĩçĮ®": 4268,
      "è¡°éĢĢ": 4269,
      "èĳĽè¥¿": 4270,
      "æŀ¶": 4271,
      "åĬłä¹ĭ": 4272,
      "èģĮä½į": 4273,
      "å¤©ä¸»æķĻ": 4274,
      "å·´": 4275,
      "æŃ£äº²": 4276,
      "åĩŃåĢŁ": 4277,
      "çĮİ": 4278,
      "åĲŀ": 4279,
      "çŃĸçķ¥": 4280,
      "ä¸īå®¶": 4281,
      "å°ıå§ĵ": 4282,
      "è¿ŀç½²": 4283,
      "å°¼åŃĲæĻ´ä¹ħ": 4284,
      "1552": 4285,
      "éĺ¿å¼¥": 4286,
      "å¯¹æīĭ": 4287,
      "å°±æŃ¤": 4288,
      "åĪĿéĺµ": 4289,
      "è½¬æĪĺ": 4290,
      "è¯¥åľ°": 4291,
      "åĩĢåľŁ": 4292,
      "å¤§è°·åĲīç»§": 4293,
      "å®į": 4294,
      "åĩ¡": 4295,
      "è¡Ĺéģĵ": 4296,
      "ä¸½": 4297,
      "è´°": 4298,
      "åħµæ³ķ": 4299,
      "è´Łä¼¤": 4300,
      "ä¾µçķ¥": 4301,
      "äºķä¼ĬçĽ´æĶ¿": 4302,
      "å¤ķ": 4303,
      "æĶ¹åıĺ": 4304,
      "çĶ²è´º": 4305,
      "è¶³åĪ©ä¹īæ»¡": 4306,
      "æĽ´åĬł": 4307,
      "ç§Ģåħĥ": 4308,
      "çºªå·ŀ": 4309,
      "ç§ĭå±±": 4310,
      "æ¤İ": 4311,
      "æŁ±": 4312,
      "å¦Ĥä¸ĭ": 4313,
      "éĽĨä¸Ń": 4314,
      "æĢ§åĳ½": 4315,
      "åĨł": 4316,
      "æĶ¿ç§Ģ": 4317,
      "å¯¹å¤ĸ": 4318,
      "ç¬¦": 4319,
      "è¿ĳä¸ĸ": 4320,
      "çº¦å®ļ": 4321,
      "å¿Ĺè´º": 4322,
      "å§Ĭå·Ŀ": 4323,
      "ä¹°": 4324,
      "åŁİéĥŃ": 4325,
      "æ¶¦": 4326,
      "æ§»": 4327,
      "åħĪåīį": 4328,
      "144": 4329,
      "ç¹ģéķ¿": 4330,
      "å©ļå§»": 4331,
      "å¤ĸçĶ¥": 4332,
      "æ´¾åħµ": 4333,
      "åı¤ä»£": 4334,
      "çĮ®ä¸Ĭ": 4335,
      "æĻ®è¯·": 4336,
      "å¤§å®Ŀ": 4337,
      "åįģä¸ĥ": 4338,
      "åĿª": 4339,
      "éĢĥåĩº": 4340,
      "ä¸¾åĬŀ": 4341,
      "åŀĤ": 4342,
      "åĹ£åŃĲ": 4343,
      "ä¸İæŃ¤åĲĮæĹ¶": 4344,
      "æłħ": 4345,
      "éĵľ": 4346,
      "æĥ³åĪ°": 4347,
      "ä¾ĿæĹ§": 4348,
      "åĨ¬ä¹ĭéĺµ": 4349,
      "éķ¿çŃ±": 4350,
      "ç§ĭçĶ°": 4351,
      "ä¾ĿçĦ¶": 4352,
      "æĭīæĭ¢": 4353,
      "éļıè¡Į": 4354,
      "åį³å°Ĩ": 4355,
      "å¸¦é¢Ĩ": 4356,
      "åī©ä¸ĭ": 4357,
      "ä¸»å®¶": 4358,
      "ä¼łè¾¾": 4359,
      "èĳ¡": 4360,
      "1546": 4361,
      "åį°çĬ¶": 4362,
      "èķĥ": 4363,
      "åĽ½åºľ": 4364,
      "è®©ç»Ļ": 4365,
      "æĿ¾å¹³åħĥåº·": 4366,
      "ç¼ĸçºĤ": 4367,
      "ä¿¡èĥľ": 4368,
      "åħŃéĥİ": 4369,
      "ãĤĵ": 4370,
      "å±±åŁİåĽ½": 4371,
      "åŃ¦ä¹ł": 4372,
      "åĬ£åĬ¿": 4373,
      "80": 4374,
      "å°ıç¬łåİŁæ°ı": 4375,
      "è¿Ļä¹Ī": 4376,
      "è¿ĩç»§": 4377,
      "åĭ¾": 4378,
      "ç§©": 4379,
      "æĶ¿çŁ¥": 4380,
      "å¸¦æĿ¥": 4381,
      "æĺĶæĹ¥": 4382,
      "âĨ": 4383,
      "åįģæĹ¥": 4384,
      "æĭĨ": 4385,
      "ä¹ĭä¸Ĭ": 4386,
      "éķ¿å´İ": 4387,
      "å¯¸": 4388,
      "å±±ä¸Ĭ": 4389,
      "åģ¥": 4390,
      "å½Ĵé¡º": 4391,
      "æĺ¾å¦Ĥ": 4392,
      "è§£åĨ³": 4393,
      "åĲ¬éĹ»": 4394,
      "è´¡çĮ®": 4395,
      "ä¸ªäºº": 4396,
      "åģľæŃ¢": 4397,
      "æ±łçĶ°æģĴåħ´": 4398,
      "æĢĢçĸĳ": 4399,
      "åĬłå°ģ": 4400,
      "ä¸ľå±±": 4401,
      "1599": 4402,
      "åĳ¨åĽ´": 4403,
      "1549": 4404,
      "éķ¿äº«": 4405,
      "åĨħè®": 4406,
      "çŃĳå±±": 4407,
      "æ¿ĳæĪ·": 4408,
      "æłĩå¿Ĺ": 4409,
      "åºĻ": 4410,
      "å®īå®ħ": 4411,
      "ç¬¬äºĶ": 4412,
      "èİ«": 4413,
      "ä¿ĿçķĻ": 4414,
      "åģ·": 4415,
      "èĩ´åĬĽ": 4416,
      "è§£éĻ¤": 4417,
      "éºĵ": 4418,
      "ä¹ĭèģĮ": 4419,
      "äºĮéĺ¶": 4420,
      "æĦĪ": 4421,
      "æľĢä¸º": 4422,
      "æĥ¨è´¥": 4423,
      "ãģ£": 4424,
      "åħ»çĪ¶": 4425,
      "æĦ¿æĦı": 4426,
      "åįģä¸īæĹ¥": 4427,
      "åĨħè®§": 4428,
      "åĪĪ": 4429,
      "å¤§å¯º": 4430,
      "æŃ¦åĬŁ": 4431,
      "éģµ": 4432,
      "åĲīå¼ĺ": 4433,
      "ç¥ŀæĪ·": 4434,
      "æĶ¹ç§°": 4435,
      "æ¯Ķè¾ĥ": 4436,
      "å¿ĺ": 4437,
      "ä»ĬæĹ¥": 4438,
      "å¤§è¾ħ": 4439,
      "åİĭåĪ¶": 4440,
      "å¡ŀ": 4441,
      "æľīåĲį": 4442,
      "åįģåħ«": 4443,
      "æĺİåĨĽ": 4444,
      "æ´¥è½»": 4445,
      "å¾¡é¦Ĩ": 4446,
      "åħ¨éĿ¢": 4447,
      "æºĲäºİ": 4448,
      "ä¿¡è¡Į": 4449,
      "å¼Ĺ": 4450,
      "å§¿": 4451,
      "åħ¬åħĥ": 4452,
      "çłį": 4453,
      "æĸĹäºī": 4454,
      "åŃ¦èĢħ": 4455,
      "çĮĽå°Ĩ": 4456,
      "ä¹ĭåĬ©": 4457,
      "éĩİå¿ĥ": 4458,
      "èĪľ": 4459,
      "çŃĶåºĶ": 4460,
      "å°ıä»ĵ": 4461,
      "1547": 4462,
      "ä½©": 4463,
      "åĩĳ": 4464,
      "åĸĬ": 4465,
      "èħ°": 4466,
      "æ½®": 4467,
      "å®¶ä¸Ń": 4468,
      "åŁºæ¬¡": 4469,
      "ä»ĻçŁ³": 4470,
      "å¿½": 4471,
      "å£ķ": 4472,
      "è´¥èµ°": 4473,
      "æĦıä¹ī": 4474,
      "å«¡æµģ": 4475,
      "å°ıç¬łåİŁéķ¿": 4476,
      "èµ«": 4477,
      "å®ŀè¡Į": 4478,
      "ç»ĵæŀĦ": 4479,
      "æĹ©æľŁ": 4480,
      "è®¤åı¯": 4481,
      "åŁİåħµ": 4482,
      "äº²çİĩ": 4483,
      "çĵ¦è§£": 4484,
      "âĨĴ": 4485,
      "æĶ¿å¼ĺ": 4486,
      "åįģæĹ¶": 4487,
      "æĿ¥çľĭ": 4488,
      "çŃīå¾ħ": 4489,
      "èĤĥ": 4490,
      "è·¯çº¿": 4491,
      "åĮĹä¹Ŀå·ŀ": 4492,
      "å¼ĢåĪĽ": 4493,
      "åıªè¦ģ": 4494,
      "æĹĹä¸ĭ": 4495,
      "æīĳ": 4496,
      "è¯¸å¤ļ": 4497,
      "åĲ¸": 4498,
      "ä¸Ģç³»": 4499,
      "è®¢": 4500,
      "ç¨į": 4501,
      "æķĮéĺµ": 4502,
      "ç§»å±ħ": 4503,
      "ä½Ĳç«¹ä¹īéĩį": 4504,
      "ä¹ĭäºĭ": 4505,
      "éĩįä¿®": 4506,
      "å±ħäºİ": 4507,
      "èĢģèĩ£": 4508,
      "äºĮåįģå¹´": 4509,
      "éªĳé©¬": 4510,
      "é¦Ļå·Ŀ": 4511,
      "å·§": 4512,
      "éĻĨç»Ń": 4513,
      "åĨľä¸ļ": 4514,
      "è¯¢": 4515,
      "è¿Ľé©»": 4516,
      "åĬ¨æĳĩ": 4517,
      "ç»Īç»ĵ": 4518,
      "å¹³æĪĲ": 4519,
      "åĥ§äºº": 4520,
      "ç®ķè½®": 4521,
      "æŁ¿": 4522,
      "åıĸåĲį": 4523,
      "å¤±åĬ¿": 4524,
      "åĪĩæĸŃ": 4525,
      "åįģä½Ļ": 4526,
      "ä½ĲèĹ¤": 4527,
      "æ®ī": 4528,
      "ç¦ıåĨĪ": 4529,
      "å½ĵä¸Ń": 4530,
      "æł¡": 4531,
      "æĬ¤åį«": 4532,
      "ä¿ĿåŃĺ": 4533,
      "139": 4534,
      "ç¥Ģ": 4535,
      "äºĮåįģæĹ¥": 4536,
      "ç´¯": 4537,
      "åĿļæĮģ": 4538,
      "ç¬Ķå¤´": 4539,
      "åĪĳéĥ¨": 4540,
      "éħĴäºķå¿łæ¬¡": 4541,
      "èĹ¤åĲīéĥİ": 4542,
      "æķĮæĸ¹": 4543,
      "å²³çĪ¶": 4544,
      "åŁİä¸Ń": 4545,
      "èĥĨ": 4546,
      "åĨħåºĶ": 4547,
      "æĹłäºº": 4548,
      "å²©å±ĭ": 4549,
      "ä¸ŀ": 4550,
      "136": 4551,
      "çĸı": 4552,
      "1603": 4553,
      "æ¥¼": 4554,
      "æ²¦": 4555,
      "ä¹īæ°ı": 4556,
      "æĸ©é¦ĸ": 4557,
      "ä¸Ģä¸°": 4558,
      "èĢĹ": 4559,
      "æŃ¤åľ°": 4560,
      "æµ·éĩİ": 4561,
      "ç«¹åįĥä»£": 4562,
      "ç¡®å®ļ": 4563,
      "æķĪåĬĽ": 4564,
      "æĥłçĲ¼": 4565,
      "åĬªåĬĽ": 4566,
      "åįģä¹ĿæĹ¥": 4567,
      "åĩ»æºĥ": 4568,
      "åĭĭ": 4569,
      "åĬ±": 4570,
      "è¯´æĺİ": 4571,
      "è¯·æĸĩ": 4572,
      "æĪļ": 4573,
      "ä¼¸": 4574,
      "ä¸įåľ¨": 4575,
      "å°ıå¼ĵ": 4576,
      "åĮĹæĿ¡æĹ©äºĳ": 4577,
      "åıĽåıĺ": 4578,
      "èĩ¼æĿµ": 4579,
      "ä½³": 4580,
      "æĪĺå±Ģ": 4581,
      "æľīåħ³": 4582,
      "äºĶå¤§èĢģ": 4583,
      "å¾ģæĶ¶": 4584,
      "æĥħæĬ¥": 4585,
      "æľºæŀĦ": 4586,
      "åŃ¦çķĮ": 4587,
      "ç§Ģä¹ħ": 4588,
      "çĤº": 4589,
      "å°ĳè´°": 4590,
      "å§¬è·¯": 4591,
      "æµħéĩİéķ¿æĶ¿": 4592,
      "éĵłçĶ²": 4593,
      "ä¹īè¯ł": 4594,
      "æŃ¦åĬĽ": 4595,
      "è¾±": 4596,
      "é¢Ĩå¯¼": 4597,
      "æĮº": 4598,
      "åĬłæ²»": 4599,
      "èĪª": 4600,
      "å¾ģæľį": 4601,
      "è´ŀèĥľ": 4602,
      "ç¡®å®ŀ": 4603,
      "æĿ¿åŀ£": 4604,
      "æĻĵ": 4605,
      "ä¹±ä¸ĸ": 4606,
      "åĲīçĶ°éĥ¡å±±": 4607,
      "æĪĺåĨµ": 4608,
      "è¶Ĭè¿ĩ": 4609,
      "æħ°": 4610,
      "æĮīçħ§": 4611,
      "æ¸ħç§Ģ": 4612,
      "éĩĳå±±": 4613,
      "å°ĳå¹´": 4614,
      "è¡¥ç»Ļ": 4615,
      "å¤§å®¶": 4616,
      "ä¸īæĿĳ": 4617,
      "åº·éķ¿": 4618,
      "å¦ĩ": 4619,
      "çĽ´æ±Łåħ¼ç»Ń": 4620,
      "éĩįè§Ĩ": 4621,
      "æĢª": 4622,
      "å®īåħ¨": 4623,
      "äº¤åĩº": 4624,
      "æĬķåĲĳ": 4625,
      "æĢ§æł¼": 4626,
      "åĪĿä»£èĹ©": 4627,
      "çĶŁé©¹": 4628,
      "æĪĸèĢħ": 4629,
      "1597": 4630,
      "æľ½": 4631,
      "æĭħå¿ĥ": 4632,
      "éĤ£æł·": 4633,
      "ç½²åĲį": 4634,
      "éĩľ": 4635,
      "ä¸įåıĬ": 4636,
      "åĲīè§ģ": 4637,
      "æ¸ħåĴĮ": 4638,
      "å·ŀå®¶": 4639,
      "ä¹ĭåĨħ": 4640,
      "æĭŁ": 4641,
      "ä¼ļæĪĺ": 4642,
      "åįĹæĸ¹": 4643,
      "æ¨«": 4644,
      "éĢ¼è¿ĳ": 4645,
      "ç¼ºä¹ı": 4646,
      "çĽ¸åĲĮ": 4647,
      "éĢģå¾Ģ": 4648,
      "çĽĳè§Ĩ": 4649,
      "èģļä¹Ĳ": 4650,
      "åħĥä¿¡": 4651,
      "èĥľæĪĲ": 4652,
      "å¹³æģ¯": 4653,
      "çĲī": 4654,
      "è°ĥæŁ¥": 4655,
      "æ°ıçħ§": 4656,
      "åľ°åŁŁ": 4657,
      "æİ©": 4658,
      "å®ĹæĻ¯": 4659,
      "å¾ĢæĿ¥": 4660,
      "1601": 4661,
      "è¯¥åŁİ": 4662,
      "è¿İæĪĺ": 4663,
      "ç«ĭèĬ±éģĵéĽª": 4664,
      "çŃ¹": 4665,
      "æĺİçŁ³": 4666,
      "1540": 4667,
      "åĨĴ": 4668,
      "åĲįæĬ¤": 4669,
      "è½©": 4670,
      "æ¸©æ³ī": 4671,
      "éĢ¢": 4672,
      "åĬłä»¥": 4673,
      "ä¼łæī¿": 4674,
      "çĻ¾ä½Ļ": 4675,
      "äºīæĸĹ": 4676,
      "ä¸ĭè¾¾": 4677,
      "åĦĴ": 4678,
      "åĦ¿çİī": 4679,
      "æĴ¤åĽŀ": 4680,
      "æ¨ªå±±": 4681,
      "åŁİå¸Ĥ": 4682,
      "å¤§æĿĳ": 4683,
      "ç»Ĩå·Ŀå¿łåħ´": 4684,
      "èĪ¹åıª": 4685,
      "è¶³åĪ©æĪĲæ°ı": 4686,
      "é¡½": 4687,
      "å¼ºçĥĪ": 4688,
      "è´µä¹ħ": 4689,
      "åĺīæĺİ": 4690,
      "æ³¨æĦı": 4691,
      "æĹ¥çĽĬ": 4692,
      "æ³ª": 4693,
      "å£«åįĴ": 4694,
      "ãģł": 4695,
      "è¿ĳä¾į": 4696,
      "çİ°ä»£": 4697,
      "70": 4698,
      "è¢ĭ": 4699,
      "å¸ħ": 4700,
      "éĩįæ²»": 4701,
      "å®Ĺåĥı": 4702,
      "ä¹ħä¹ĭ": 4703,
      "åį´æĺ¯": 4704,
      "åģļåĩº": 4705,
      "ç°": 4706,
      "è¯´éģĵ": 4707,
      "åįļå¤ļ": 4708,
      "è°Ĺ": 4709,
      "è±¡å¾ģ": 4710,
      "å¤§åŃ¦": 4711,
      "åĮ¿": 4712,
      "çŃ¾": 4713,
      "çĽ´è¾ĸ": 4714,
      "åį³ä½į": 4715,
      "å¯ĮçĶ°": 4716,
      "å°¸": 4717,
      "ç§Ģèĥľ": 4718,
      "æĶ¿åºľ": 4719,
      "åĨįåħ´": 4720,
      "è¾īèĻİ": 4721,
      "åĦ¿å²Ľ": 4722,
      "éĩįæĪĲ": 4723,
      "çľģ": 4724,
      "é¥®": 4725,
      "ä¸Ģæ®µ": 4726,
      "ä¿¡ä»°": 4727,
      "è´§": 4728,
      "åħ«åįĥ": 4729,
      "çĸ¾": 4730,
      "å¤§åŀ£": 4731,
      "è¯Ĺ": 4732,
      "æĶ»åħĭ": 4733,
      "éĹ¨å°ī": 4734,
      "æŁı": 4735,
      "å²©ä»ĵ": 4736,
      "éĹ»è®¯": 4737,
      "å¤§å®Ŀå¯º": 4738,
      "çļ®": 4739,
      "åĩĮ": 4740,
      "å¹¿å²Ľ": 4741,
      "åĪ¤æĸŃ": 4742,
      "æ»ŀ": 4743,
      "éģĹè¿¹": 4744,
      "èµ°åĲĳ": 4745,
      "æµľ": 4746,
      "æŃ»äº¡": 4747,
      "è¿ĳçķ¿": 4748,
      "è¿ĺä¿Ĺ": 4749,
      "æĦıæĢĿ": 4750,
      "ä½ľåĩº": 4751,
      "ç§°åĳ¼": 4752,
      "å¤ĦæŃ»": 4753,
      "åĨĽäºĭè¡ĮåĬ¨": 4754,
      "æĵį": 4755,
      "å®¶ç³»": 4756,
      "çĭ¼": 4757,
      "åĭ¿": 4758,
      "æ¸¡è¿ĩ": 4759,
      "åłĢç§ĢæĶ¿": 4760,
      "åīĬå¼±": 4761,
      "ä»£çĲĨ": 4762,
      "å®ļä¸º": 4763,
      "è¶³åĪ©ä¹īç¨Ļ": 4764,
      "ç¡¬": 4765,
      "ä¸»æĮģ": 4766,
      "å¤ļæķ°": 4767,
      "åı¯æĪĲ": 4768,
      "ä¸īå¥½ä¹īç»§": 4769,
      "ä¸¥éĩį": 4770,
      "çŃĴäºķé¡ºåºĨ": 4771,
      "æİł": 4772,
      "ç»Łé¢Ĩ": 4773,
      "åĪĿåĲį": 4774,
      "è¾īæĶ¿": 4775,
      "å¯ĮåŃĲ": 4776,
      "äº«å¾·": 4777,
      "å²©æĿĳ": 4778,
      "1543": 4779,
      "æ¢¶": 4780,
      "æĴ¤åĨĽ": 4781,
      "çĨĻ": 4782,
      "åįģäºĮæĹ¥": 4783,
      "åĳ¼åºĶ": 4784,
      "éķ¿æĪ¿": 4785,
      "çĶŁåīį": 4786,
      "çĥŁ": 4787,
      "åĤ¬": 4788,
      "5000": 4789,
      "æĹ¶æľº": 4790,
      "åĮĹæĸ¹": 4791,
      "å®ŀåľ¨": 4792,
      "èĤ©": 4793,
      "ç¼©": 4794,
      "èı©æıĲå¯º": 4795,
      "å·¡": 4796,
      "æĬķåħ¥": 4797,
      "ä¸Ģä¹ĺ": 4798,
      "æ¬§": 4799,
      "ç¨£": 4800,
      "1594": 4801,
      "ä¿ĥæĪĲ": 4802,
      "èĢ¶ç¨£": 4803,
      "é»ĺ": 4804,
      "åķĨä¸ļ": 4805,
      "éĢĿä¸ĸ": 4806,
      "è§ĤéŁ³å¯º": 4807,
      "å®¶æĶ¿": 4808,
      "å¤§èĨ³": 4809,
      "äº²æĹı": 4810,
      "é«ĺèµĸ": 4811,
      "éĽ·": 4812,
      "ä¾ĿéĿł": 4813,
      "åĺīéļĨ": 4814,
      "äº²ä¿¡": 4815,
      "å¹³äºķ": 4816,
      "æĻ¯çº²": 4817,
      "çŃĸåĪĴ": 4818,
      "å°ıå¯º": 4819,
      "å¾¡æ®¿": 4820,
      "ä¿®çĲĨ": 4821,
      "åĳĬç»Ī": 4822,
      "å¤§ä¹±": 4823,
      "ä¹īå®£": 4824,
      "é«ĺæĶ¿": 4825,
      "åºĶå¯¹": 4826,
      "åĿĤæľ¬": 4827,
      "å°ıéĩİå¯º": 4828,
      "åĮł": 4829,
      "äºĭåĲİ": 4830,
      "äºĶå¥īè¡Į": 4831,
      "éĺµä¸Ń": 4832,
      "æĮĩç¤º": 4833,
      "èĦĳ": 4834,
      "åĲĮæĹ¥": 4835,
      "çļĩåŃĲ": 4836,
      "å®«åŁİ": 4837,
      "ç«¹ä¸Ń": 4838,
      "åīĳæľ¯": 4839,
      "çģ°": 4840,
      "å½Ĵè¿ĺ": 4841,
      "å¾Īå¤§": 4842,
      "ç¬¬ä¸īä»£": 4843,
      "ä¹īæĺĮ": 4844,
      "èĲĦ": 4845,
      "å·±æĸ¹": 4846,
      "èĳ¡èĲĦ": 4847,
      "ä½Ĳæ¸¡": 4848,
      "ä¼ļéĿ¢": 4849,
      "æ¦Ĭ": 4850,
      "äºĮåįģåħ«æĹ¥": 4851,
      "40": 4852,
      "ä¹ĭå¦»": 4853,
      "äºĮæľ¬": 4854,
      "ä»İå±ŀ": 4855,
      "æ³ķåįİ": 4856,
      "åħĭä¸Ĭ": 4857,
      "éĤ£ä¸ª": 4858,
      "çł´åĿı": 4859,
      "éĵŃ": 4860,
      "éĢĥåĽŀ": 4861,
      "ç¦ıåİŁ": 4862,
      "å®ĩåĸľå¤ļçĽ´å®¶": 4863,
      "çıį": 4864,
      "åĢ¼å¾Ĺ": 4865,
      "äºĮéĺ¶åłĤ": 4866,
      "ä¸Ģåĳĺ": 4867,
      "ä¸ĭåħĭä¸Ĭ": 4868,
      "è®¾æľī": 4869,
      "çĩĥ": 4870,
      "å±±å½¢": 4871,
      "æľīäºĽ": 4872,
      "åīįè¿Ľ": 4873,
      "ä¼Ĭæĸ¯": 4874,
      "èĤĿ": 4875,
      "å¤©ä¸ĭäºº": 4876,
      "ç¬¬äºĮä»£": 4877,
      "æ¥ļ": 4878,
      "ä¹īè§Ĩ": 4879,
      "è¶³åĪ©ä¹īæĿĲ": 4880,
      "çĽĶ": 4881,
      "æĪĲå¹´": 4882,
      "åŃĺç»Ń": 4883,
      "å¤ªæĶ¿å¤§èĩ£": 4884,
      "ä¹³": 4885,
      "æĹ©éĢĿ": 4886,
      "éĵ¸": 4887,
      "è¿İæİ¥": 4888,
      "åħŃè§Ĵä¹īè´¤": 4889,
      "åĲķ": 4890,
      "å¤§æĢĴ": 4891,
      "æĶ»åįł": 4892,
      "å¼Ģåıĳ": 4893,
      "åıĹé¢Ĩ": 4894,
      "æĿ¾å¹³å¹¿å¿ł": 4895,
      "ä¿®å»º": 4896,
      "2000": 4897,
      "ä¸Ģå®¶": 4898,
      "ä¸Ģå¤©": 4899,
      "å¤§çº³è¨Ģ": 4900,
      "è¾©": 4901,
      "æ±ĩ": 4902,
      "é©¬ä¸Ĭ": 4903,
      "èĲ½åħ¥": 4904,
      "é»ĳå·Ŀ": 4905,
      "ç§ĺå¯Ĩ": 4906,
      "å°ıå·Ŀ": 4907,
      "ç¾©": 4908,
      "å¤ªå¤«": 4909,
      "äºĪä»¥": 4910,
      "åĨĽå½¹": 4911,
      "åħ¶éĹ´": 4912,
      "åīįéĩİ": 4913,
      "ä¸´ç»Ī": 4914,
      "éķ¿è°·å·Ŀ": 4915,
      "åĬ«": 4916,
      "ä¼ĬéĽĨ": 4917,
      "ä¸¤ä¸ĩ": 4918,
      "ç¬¬åħŃ": 4919,
      "å¤§æ¦Ĥ": 4920,
      "çŁ¿": 4921,
      "çľŁçĶ°ä¿¡ç¹ģ": 4922,
      "è´¢æĶ¿": 4923,
      "ä»Ļåı°": 4924,
      "çĭ©éĩİ": 4925,
      "åľ¨æŃ¤": 4926,
      "çĶ°å±±": 4927,
      "åįģåħ«æĹ¥": 4928,
      "é«ĺçĶ°": 4929,
      "æĹıäºº": 4930,
      "ä¸ĥå°¾": 4931,
      "èĳ¡èĲĦçīĻ": 4932,
      "å¸ģ": 4933,
      "åıĪåĲį": 4934,
      "å«Į": 4935,
      "æĭľé¢Ĩ": 4936,
      "åıĻä»»": 4937,
      "ä¹īæķĻ": 4938,
      "è¯´æľį": 4939,
      "åı²ç§°": 4940,
      "1545": 4941,
      "1536": 4942,
      "ä¸§å¤±": 4943,
      "åŃ©åŃĲ": 4944,
      "éķ¿æŀª": 4945,
      "èĩ´ä¹¦": 4946,
      "ä¸²": 4947,
      "ç»ª": 4948,
      "ä¹īæ»¡": 4949,
      "ä¸ĭåİ»": 4950,
      "æıĴ": 4951,
      "åĪ¶ä½ľ": 4952,
      "æĻ´æĶ¿": 4953,
      "åĲĦç§į": 4954,
      "ç©Ĺ": 4955,
      "éĢĲæŃ¥": 4956,
      "æĬµå¾¡": 4957,
      "ä»ĭç»į": 4958,
      "åĪĽä½ľ": 4959,
      "æī®æ¼Ķ": 4960,
      "60": 4961,
      "æĪ¦": 4962,
      "æľīåĪ©": 4963,
      "å¸ľ": 4964,
      "æĶ»çł´": 4965,
      "æĭ¼": 4966,
      "è§ģåĪ°": 4967,
      "èĮ¶èĮ¶": 4968,
      "åįģåĽĽæĹ¥": 4969,
      "è¿ĳèĩ£": 4970,
      "åĲĪè®¡": 4971,
      "åĽŀçŃĶ": 4972,
      "å»ºè®¾": 4973,
      "éĴĪå¯¹": 4974,
      "ä¹ĭç¥ĸ": 4975,
      "ä¸įä½Ĩ": 4976,
      "éħįç½®": 4977,
      "éĽªæĸĭ": 4978,
      "æ¬£": 4979,
      "äº²çĶŁ": 4980,
      "å¾¡æīĢ": 4981,
      "åıįæĶ»": 4982,
      "æıĲè®®": 4983,
      "ä¾Ľåħ»": 4984,
      "åŃ¤ç«ĭ": 4985,
      "è¶ħè¿ĩ": 4986,
      "å®¶ä¸»": 4987,
      "è·Ŀç¦»": 4988,
      "éķ¿å®ī": 4989,
      "åĮĹä¸Ĭ": 4990,
      "åĳ½è¿Ĳ": 4991,
      "ä½¿èĬĤ": 4992,
      "åŃĻåŃĲ": 4993,
      "çº·äºī": 4994,
      "ç¢į": 4995,
      "ä¹ĭå¦¹": 4996,
      "æĶ»éĺ²": 4997,
      "ä¸ľäº¬": 4998,
      "åħīå¯º": 4999,
      "åıĺåĮĸ": 5000,
      "çİĭä¸¸": 5001,
      "ç»Ŀå¯¹": 5002,
      "å¯Łè§ī": 5003,
      "åįģä¹Ŀ": 5004,
      "åľŁå±ĭ": 5005,
      "èĤ¡": 5006,
      "çĵľ": 5007,
      "çĶ°åİŁ": 5008,
      "åįģä¸ĥæĹ¥": 5009,
      "æĭĸ": 5010,
      "ä¸´æĹ¶": 5011,
      "è¯Ħå®ļ": 5012,
      "æīĵè´¥": 5013,
      "1602": 5014,
      "æŃ¼": 5015,
      "è§Ī": 5016,
      "è¯¸åŁİ": 5017,
      "æĶ¶åħ¥": 5018,
      "è°ĭçķ¥": 5019,
      "èĦ¸": 5020,
      "æĶ»åıĸ": 5021,
      "çķı": 5022,
      "äº¤æį¢": 5023,
      "äºĮåįģä¸ĥæĹ¥": 5024,
      "åŁİéĹ¨": 5025,
      "è®¼": 5026,
      "çķ·": 5027,
      "åıĳåħµ": 5028,
      "å¤ļéĹ»": 5029,
      "å®ĩä½Ĳ": 5030,
      "æ°ĳéĥ¨": 5031,
      "å»¶å¾·": 5032,
      "æĬĢæľ¯": 5033,
      "çĶ«": 5034,
      "ä¿¡èµĸ": 5035,
      "å¯¹è±¡": 5036,
      "æĺİæĺ¾": 5037,
      "ç¼´": 5038,
      "éļĲå²Ĳ": 5039,
      "1000": 5040,
      "å¤§æĪĺ": 5041,
      "åĽ½çİĭ": 5042,
      "ä¸»ä»İ": 5043,
      "è¦ģåĨ²": 5044,
      "è¿ľèĹ¤": 5045,
      "å¹¸çĽĽ": 5046,
      "æĪĲçĶ°": 5047,
      "éĢĢåĩº": 5048,
      "æĦıåĳ³": 5049,
      "å¾ħéģĩ": 5050,
      "äºĴçĽ¸": 5051,
      "çºµçģ«": 5052,
      "å¾¡é¦Ĩä¹ĭä¹±": 5053,
      "ä¸Ńéĩİ": 5054,
      "åŃĲå¥³": 5055,
      "èµĸéĩį": 5056,
      "æ°ĳä¼Ĺ": 5057,
      "èĮ¶ä¼ļ": 5058,
      "æħĪ": 5059,
      "åİī": 5060,
      "ä¹īéī´": 5061,
      "å½ĵæĹ¥": 5062,
      "æģ³": 5063,
      "èģļéĽĨ": 5064,
      "æ¦ĬåİŁ": 5065,
      "35": 5066,
      "µçĲ": 5067,
      "å°ıè¯´": 5068,
      "ãģ¡": 5069,
      "çĲµçĲ": 5070,
      "æİ¥åĪ°": 5071,
      "å®ªå®ŀ": 5072,
      "ç»´æĸ°": 5073,
      "è¿ģå±ħ": 5074,
      "ç²¾éĶĲ": 5075,
      "åĲ¦å®ļ": 5076,
      "çĲµçĲ¶": 5077,
      "å®¶æł¼": 5078,
      "ä¸Ģä¸ĭ": 5079,
      "æ³ķåº¦": 5080,
      "æŁ´åĨĽ": 5081,
      "æĽ´ä¸º": 5082,
      "éģĹåĿĢ": 5083,
      "å¾Ħ": 5084,
      "èµĦæºĲ": 5085,
      "åĬĿéĻį": 5086,
      "åĺīåĲī": 5087,
      "è¿·": 5088,
      "èĢ»": 5089,
      "æĻ´æĻ¯": 5090,
      "çľŁçĶ°å¹¸æĿĳ": 5091,
      "ä¾Ľå¥ī": 5092,
      "é¦Ļè¥¿": 5093,
      "èĢ¶ç¨£ä¼ļ": 5094,
      "æĹħ": 5095,
      "çİ©": 5096,
      "ç»Łçİĩ": 5097,
      "æĽ¾ä»»": 5098,
      "éĺ¿èĭı": 5099,
      "åıĽç¦»": 5100,
      "æ··æĪĺ": 5101,
      "æİĴéĻ¤": 5102,
      "åĲįç§°": 5103,
      "åīįåİ»": 5104,
      "ãģ¿": 5105,
      "å®ļèµĸ": 5106,
      "åĽĽå¤©çİĭ": 5107,
      "åĨĪéĥ¨": 5108,
      "éĤ£éĩĮ": 5109,
      "çģ«æŀª": 5110,
      "éĢģåĪ°": 5111,
      "å¡ļ": 5112,
      "ç®Ĺæĺ¯": 5113,
      "éĿĴå±±": 5114,
      "åĲ¾å¦»": 5115,
      "æĻĭåįĩ": 5116,
      "é¢ĳç¹ģ": 5117,
      "ä¸įè¦ģ": 5118,
      "å°ıçĶ°æ°ı": 5119,
      "è¯¦ç»Ĩ": 5120,
      "ãģĳ": 5121,
      "135": 5122,
      "çªģåħ¥": 5123,
      "ä¸ºæŃ¢": 5124,
      "èĥľè´Ł": 5125,
      "åĬ¨ä¹±": 5126,
      "è¶³åĪ©æĮģæ°ı": 5127,
      "åįĹåĮĹ": 5128,
      "äºĮåįģä¸ĢæĹ¥": 5129,
      "æĵħéķ¿": 5130,
      "èĤĥæ¸ħ": 5131,
      "çĲīçĲĥ": 5132,
      "å½©": 5133,
      "æĿ¥å²Ľ": 5134,
      "åĬ¿åĬĽèĮĥåĽ´": 5135,
      "åįģåħŃæĹ¥": 5136,
      "ä¸»å°Ĩ": 5137,
      "æĿ¾åŁİ": 5138,
      "éª¤": 5139,
      "è¿ŀæŃĮ": 5140,
      "éĢĥèµ°": 5141,
      "èµ¶åĪ°": 5142,
      "æ°ıæĹı": 5143,
      "æľ¬é¢Ĩ": 5144,
      "åıĹåĳ½": 5145,
      "å¢ŀå¼º": 5146,
      "åİĭåĬĽ": 5147,
      "åĿļåĽº": 5148,
      "èĩ´åĬĽäºİ": 5149,
      "æĪ¸": 5150,
      "ä¸Ģè¡Į": 5151,
      "å¼Ĳ": 5152,
      "åĨħæµ·": 5153,
      "åħµéĥ¨": 5154,
      "èİ·å°ģ": 5155,
      "å±±åĲįå®Ĺåħ¨": 5156,
      "è¤": 5157,
      "æ´¼": 5158,
      "å°ıå¹¡": 5159,
      "æĹłåĬĽ": 5160,
      "çľŁçļĦ": 5161,
      "éī´è¿ŀ": 5162,
      "æľ¬åĽ½": 5163,
      "ãģĪ": 5164,
      "æĿ¾ä¸¸": 5165,
      "å°ĳæķ°": 5166,
      "åĤĢ": 5167,
      "æĢĿæĥ³": 5168,
      "åĲİèĢħ": 5169,
      "åĪ°æĿ¥": 5170,
      "è¡ĮåĨĽ": 5171,
      "éĥ¨ç½²": 5172,
      "ä¼Ĭä¸¹": 5173,
      "çĽ¸æ¯Ķ": 5174,
      "åħ´ç»ı": 5175,
      "ä¿Ŀåħ¨": 5176,
      "åĬŁåĬ³": 5177,
      "åĦ¡": 5178,
      "å¿Ĺæĳ©": 5179,
      "çĽ¸å½ĵäºİ": 5180,
      "ä¿£åŁİ": 5181,
      "å¹³å®¶": 5182,
      "åĪĨæĶ¯": 5183,
      "å®«åĨħ": 5184,
      "æ¸¡æ²³": 5185,
      "æķĪå¿ł": 5186,
      "å¾ĭä»¤": 5187,
      "èĢ³å·Ŀ": 5188,
      "åĤĢåĦ¡": 5189,
      "ä¿¡å¾Ĵ": 5190,
      "æīĢè¿°": 5191,
      "ä¸¤åĽ½": 5192,
      "åĸĿ": 5193,
      "å¼¹æŃ£å¿ł": 5194,
      "çĶ±å¸ĥ": 5195,
      "ç§°ä½ľ": 5196,
      "èįĴæľ¨": 5197,
      "èĽ°": 5198,
      "è¯īè®¼": 5199,
      "åĲīéĩİ": 5200,
      "éŀį": 5201,
      "ä¸Ģçīĩ": 5202,
      "ä¿¡æĪ¿": 5203,
      "åİħ": 5204,
      "éĩİæĿĳ": 5205,
      "æķ°çĻ¾": 5206,
      "ä¿¡åħĥ": 5207,
      "ä¸¤æ¬¡": 5208,
      "èĮ¨": 5209,
      "ãĤĦ": 5210,
      "ç§įå®ŀ": 5211,
      "åıĺå¾Ĺ": 5212,
      "èµĲç»Ļ": 5213,
      "åĮĹæĿ¡æ°ıçĽ´": 5214,
      "æĪĺçº¿": 5215,
      "å®Īåį«": 5216,
      "èĴĻ": 5217,
      "èĳ¬äºİ": 5218,
      "æľīåĨĪåŁİ": 5219,
      "åĿĤäºķ": 5220,
      "éģĹèĩ£": 5221,
      "èĭ¦æĪĺ": 5222,
      "æīĢåı¸": 5223,
      "ä»Ĭäºķ": 5224,
      "é¼»": 5225,
      "hi": 5226,
      "æ°ıéĤ¦": 5227,
      "ä¹īçĽ´": 5228,
      "æĻĤ": 5229,
      "å¹¶ç§°": 5230,
      "å¿łèī¯": 5231,
      "å¹³æīĭ": 5232,
      "æĿ¾å±±": 5233,
      "èĻ¾": 5234,
      "æī¿è¯º": 5235,
      "åħ·æķĻ": 5236,
      "è¡¨éĿ¢": 5237,
      "äºĮåįģåĽĽæĹ¥": 5238,
      "éĤ»è¿ĳ": 5239,
      "åİŁæĿ¥": 5240,
      "å®Ĺèĥľ": 5241,
      "å®Ĺçĳŀ": 5242,
      "æ²»éķ¿": 5243,
      "æĹłåŃĲ": 5244,
      "åħ¬éĩĮ": 5245,
      "åĮħåĲ«": 5246,
      "å¤įæĿĤ": 5247,
      "åįģä¸ĢæĹ¥": 5248,
      "å·¢": 5249,
      "èµ¤å¤ĩ": 5250,
      "çŃĳå±±æ®¿": 5251,
      "31": 5252,
      "åĿĹ": 5253,
      "çĻ½äºķ": 5254,
      "1532": 5255,
      "ç²®é£Ł": 5256,
      "æĵħèĩª": 5257,
      "ä¸¢": 5258,
      "å¿łåĲī": 5259,
      "ç¥¸": 5260,
      "çľŁå®Ĺ": 5261,
      "ç¿ĮæĹ¥": 5262,
      "åĩıå°ģ": 5263,
      "åīĥåıĳ": 5264,
      "åįĵ": 5265,
      "ä¹ĭä»ĭ": 5266,
      "æŃ¤å¤Ħ": 5267,
      "äºĮåįģä¸īæĹ¥": 5268,
      "è®¾è®¡": 5269,
      "æĢ¥å¿Ļ": 5270,
      "éĻ¶éļĨæĪ¿": 5271,
      "èĴ²æ±ł": 5272,
      "å¯¿ä¸¸": 5273,
      "å¤§ä¸º": 5274,
      "ä¼į": 5275,
      "æĬĵ": 5276,
      "çĿĢæīĭ": 5277,
      "å¤įä»ĩ": 5278,
      "èµĦæŃ£": 5279,
      "æĹĹå¸ľ": 5280,
      "æĮ«": 5281,
      "æĭ¾": 5282,
      "çĽ´å±ŀ": 5283,
      "æĶ¯æµģ": 5284,
      "æĶ¹éĿ©": 5285,
      "è¿ŀæİ¥": 5286,
      "å°ģåľ°": 5287,
      "ä½ıæĮģ": 5288,
      "ä»Ĭå·Ŀæ°ıäº²": 5289,
      "ä¼ĬéĽĨéĻ¢": 5290,
      "å¤Ń": 5291,
      "åĴĮå°ļ": 5292,
      "ä¸»äºº": 5293,
      "åĲĮå¿ĥ": 5294,
      "æ²»éĥ¨": 5295,
      "åĽĽåŃĲ": 5296,
      "ä¸ĩä½Ļ": 5297,
      "åıªå¥½": 5298,
      "ç»ĩçĶ°ä¿¡åŃĿ": 5299,
      "å±±ç§ĳ": 5300,
      "éĻĢ": 5301,
      "æĪĲä¹¦": 5302,
      "è¶£": 5303,
      "åı¯çŁ¥": 5304,
      "ä¸ĸçķĮ": 5305,
      "æĿĳéĩį": 5306,
      "å¾¡åīį": 5307,
      "å¥ĭåĭĩ": 5308,
      "è¸ı": 5309,
      "æĽ²è½®": 5310,
      "ä¿¡å®ļ": 5311,
      "å±±éĺ³": 5312,
      "ä¸īå®ħ": 5313,
      "åī¥": 5314,
      "è¿Ľè¨Ģ": 5315,
      "ç§°åı·": 5316,
      "ä»İåĨĽ": 5317,
      "ä½Ĳè´º": 5318,
      "æľ¨æĽ¾": 5319,
      "åĵĢ": 5320,
      "æŀĦçŃĳ": 5321,
      "å¡«": 5322,
      "åĲ¬è¯´": 5323,
      "å±ıé£İ": 5324,
      "èĿ": 5325,
      "åĨ¶": 5326,
      "éķ¿éĩį": 5327,
      "éĺħ": 5328,
      "å¤ĦåĪĳ": 5329,
      "å¹¿æ³Ľ": 5330,
      "é¹¿åĦ¿å²Ľ": 5331,
      "éĵ¶å±±": 5332,
      "ä¸Ģä¹ĺè°·": 5333,
      "æŃ¦è£ħ": 5334,
      "å¿łä¹ī": 5335,
      "æ»Ŀ": 5336,
      "çĽĽæ°ı": 5337,
      "åħĪæĺ¯": 5338,
      "åıĤæĭľ": 5339,
      "è¡¨è¾¾": 5340,
      "æĬĹäºī": 5341,
      "186": 5342,
      "æĸ©èİ·": 5343,
      "ä¸ºä½ķ": 5344,
      "ä¹īæķı": 5345,
      "åı³äº¬": 5346,
      "æģĲæĢķ": 5347,
      "æŃ£å®¶": 5348,
      "éĻĪ": 5349,
      "éļĻ": 5350,
      "åįĥåĪ©ä¼ĳ": 5351,
      "éĤĳ": 5352,
      "éĢĥèĦ±": 5353,
      "åĩłä¸ª": 5354,
      "æĲľ": 5355,
      "å¹½ç¦ģ": 5356,
      "ä¸°åĽ½": 5357,
      "è¶³ä»¥": 5358,
      "åħ¬åĽŃ": 5359,
      "ä»¤äºº": 5360,
      "èİ·åĩĨ": 5361,
      "å¢ĵåľ°": 5362,
      "å®¡": 5363,
      "åĨħéĢļ": 5364,
      "æ¶Į": 5365,
      "å®ĺåħµåį«": 5366,
      "çľĭæĿ¥": 5367,
      "ä»·åĢ¼": 5368,
      "æ®ĭåħļ": 5369,
      "éŃĶ": 5370,
      "åĵ¥åĵ¥": 5371,
      "âĶģ": 5372,
      "äºĮåįģäºĶæĹ¥": 5373,
      "æıĲåıĬ": 5374,
      "æĸĭèĹ¤ä¹īé¾Ļ": 5375,
      "å¤§äºº": 5376,
      "æİ¥è¿ŀ": 5377,
      "éķĩå¹¸": 5378,
      "æ¯įè¡£": 5379,
      "199": 5380,
      "1544": 5381,
      "åħµè´¥": 5382,
      "æĿĳèĲ½": 5383,
      "ç¬¬äºĮå¹´": 5384,
      "æľ¨æ³½": 5385,
      "å²Ľæ´¥å®¶ä¹ħ": 5386,
      "æ¯įå¼Ł": 5387,
      "æĵĴ": 5388,
      "ä¸Ģèĩ´": 5389,
      "ä¹ĭæĸ¹": 5390,
      "æĶ¿åĪĻ": 5391,
      "åĮĹéĿ¢": 5392,
      "å½ĵåĪĿ": 5393,
      "æ´Ľä¼Ĭæĸ¯": 5394,
      "èªīä¸º": 5395,
      "ç¥Ńç¥Ģ": 5396,
      "åĽ½å¢ĥ": 5397,
      "ä¸įé¡¾": 5398,
      "ç§ĢéļĨ": 5399,
      "éĻµ": 5400,
      "åľ°å¸¦": 5401,
      "çŁ¶": 5402,
      "çŃīåĪ°": 5403,
      "ä½Ĳä¼¯": 5404,
      "å¾Ģå¾Ģ": 5405,
      "è½¬åĲĳ": 5406,
      "ç©·": 5407,
      "æıĲæĭĶ": 5408,
      "éĩĳåŃĲ": 5409,
      "æ·±åħ¥": 5410,
      "ç¥ĸåħĪ": 5411,
      "å¥ĳæľº": 5412,
      "æľŃ": 5413,
      "åºŀ": 5414,
      "ä¿¡æĺĮ": 5415,
      "ä¸Ĭä¸ĭ": 5416,
      "ä¹īå°±": 5417,
      "åĩºäºİ": 5418,
      "å¤§åıĭä¹īéķĩ": 5419,
      "æħĮ": 5420,
      "å¯ĨåĪĩ": 5421,
      "éĺ¶æ®µ": 5422,
      "æģ©èµı": 5423,
      "é»Ħéĩĳ": 5424,
      "ä¸Ģç³»åĪĹ": 5425,
      "ä¸ĺ": 5426,
      "å²Ĥ": 5427,
      "çī¢": 5428,
      "åŃĺä¿Ŀ": 5429,
      "æĸĭèĹ¤é¾Ļåħ´": 5430,
      "éĢ¸äºĭ": 5431,
      "ç§©åºı": 5432,
      "ä¹ĭæīĢä»¥": 5433,
      "ä¸Ńå±±": 5434,
      "è¦ģå®³": 5435,
      "æĿ¾å°¾": 5436,
      "éģĵçģĮ": 5437,
      "æ¸ħçĽĽ": 5438,
      "ä¿Ŀè¯ģ": 5439,
      "æĺ¾èĳĹ": 5440,
      "æŀľçĦ¶": 5441,
      "æİ¨è¡Į": 5442,
      "åīįçĶ°åĪ©éķ¿": 5443,
      "å¤ªçĶ°éģĵçģĮ": 5444,
      "åħ¶åħĦ": 5445,
      "æĪ·æ³½": 5446,
      "è±Ĭ": 5447,
      "éħįåĲĪ": 5448,
      "çķłå±±ä¹īå°±": 5449,
      "è¯ģæĺİ": 5450,
      "æľ¬åĲį": 5451,
      "æĿ¡çĽ®": 5452,
      "åı¯è°ĵ": 5453,
      "ç½®äºİ": 5454,
      "ä¼ıåħµ": 5455,
      "ä¿¡åħī": 5456,
      "ä¸įäºĨ": 5457,
      "ä¸ĭéĹ´": 5458,
      "æŃ»å®Ī": 5459,
      "è½¬ä¸º": 5460,
      "é¥ŃçĶ°": 5461,
      "åľ°åĲį": 5462,
      "å£¤": 5463,
      "åĪĨéħį": 5464,
      "æľ¨åŁİ": 5465,
      "æĭħå½ĵ": 5466,
      "æķ°æŃ£": 5467,
      "å°ģéĶģ": 5468,
      "çĽĨ": 5469,
      "èº«ä¸Ĭ": 5470,
      "åĢļ": 5471,
      "å±ŀä¸ĭ": 5472,
      "1596": 5473,
      "åĬłè´ºåĽ½": 5474,
      "ç²Łå±ĭ": 5475,
      "åįľ": 5476,
      "èĹ¤æ°ı": 5477,
      "å§ĭç¥ĸ": 5478,
      "çĨĬæľ¬": 5479,
      "å¤§çº¦": 5480,
      "äººå¿ĥ": 5481,
      "ä¼łæĿ¥": 5482,
      "åħ´ç¦ıå¯º": 5483,
      "æķ´å¤ĩ": 5484,
      "ç¨ĭåº¦": 5485,
      "å®¶å¿ł": 5486,
      "ä¿¡æĸ¹": 5487,
      "æŃ¤äºº": 5488,
      "çī¹å¾ģ": 5489,
      "ä¼¯çĪ¶": 5490,
      "ä¼¦": 5491,
      "æĹ¥æľŁ": 5492,
      "äººä¼Ĺ": 5493,
      "ä¹ħæĶ¿": 5494,
      "çĽ´çĽĽ": 5495,
      "æį®æŃ¤": 5496,
      "ä¾Ŀèµĸ": 5497,
      "å±±åŁİä¹ĭæĪĺ": 5498,
      "åĪ«åĬ¨": 5499,
      "1538": 5500,
      "æħİ": 5501,
      "åħ°ä¸¸": 5502,
      "å½°": 5503,
      "ç¥¢": 5504,
      "å½¢è±¡": 5505,
      "æ¯ķç«Ł": 5506,
      "æ¿ĳæĪ·åĨħæµ·": 5507,
      "å±±åľ°": 5508,
      "ä¸įåĬ¨": 5509,
      "æŃ£å½ĵ": 5510,
      "éĽ¶": 5511,
      "æĿĢåħ¥": 5512,
      "å¥³åŃĲ": 5513,
      "æķ°éĩı": 5514,
      "å¤įå½Ĵ": 5515,
      "ç¹ģèį£": 5516,
      "å¯»æ±Ĥ": 5517,
      "æııç»ĺ": 5518,
      "ä»£æĽ¿": 5519,
      "åĨĽå¸Ī": 5520,
      "åİĮ": 5521,
      "å±±éĺ´": 5522,
      "çĶŁäº§": 5523,
      "èĬ¥": 5524,
      "ç«ŁçĦ¶": 5525,
      "ä¹īå¿ł": 5526,
      "ä¹īæĿĲ": 5527,
      "å®Īå®¶": 5528,
      "çī©èµĦ": 5529,
      "é¦ĸé¢Ĩ": 5530,
      "åŁºäºİ": 5531,
      "çī¹æ®Ĭ": 5532,
      "æ¼«": 5533,
      "ç²¾ç¥ŀ": 5534,
      "æīĺä»ĺ": 5535,
      "å¿łä¸ĸ": 5536,
      "åĽŀåĽ½": 5537,
      "ç³»ç»Ł": 5538,
      "åıĤéĺµ": 5539,
      "åĽ´åŁİ": 5540,
      "åİ©æ¡¥": 5541,
      "èł": 5542,
      "ä¸ĢåŃĹ": 5543,
      "ç¥ŀå®«": 5544,
      "æ£ĭ": 5545,
      "åŁĭä¼ı": 5546,
      "è¿ĩäºİ": 5547,
      "èį·": 5548,
      "å®ĺéĢĶ": 5549,
      "èģĮè´£": 5550,
      "æŀģå¤§": 5551,
      "è»": 5552,
      "å¤§ç¤¾": 5553,
      "çķĳ": 5554,
      "åıĤè§ģ": 5555,
      "æ·±åİļ": 5556,
      "å¢ŀæı´": 5557,
      "ä¸Ńéĥ¨": 5558,
      "è½¬ä»ķ": 5559,
      "éģŃåıĹ": 5560,
      "äºĮåįģä¹ĿæĹ¥": 5561,
      "æıĲäº¤": 5562,
      "å¨ĺ": 5563,
      "èĽ°å±ħ": 5564,
      "å¤§å®«": 5565,
      "æĪĲéķ¿": 5566,
      "ç»ıå¸¸": 5567,
      "å¼ŁåŃĲ": 5568,
      "èīºæľ¯": 5569,
      "ä¼¤äº¡": 5570,
      "èĭĹåŃĹ": 5571,
      "æ²¦ä¸º": 5572,
      "æĶ¶ä¸º": 5573,
      "åĲĦåĽ½": 5574,
      "å°Ŀ": 5575,
      "åĨĮ": 5576,
      "ä¸Ģäºĭ": 5577,
      "åĲİä»£": 5578,
      "è´Ń": 5579,
      "äº¤éĶĭ": 5580,
      "ä¼Ĭè¾¾è¾īå®Ĺ": 5581,
      "åĬłèĹ¤åĺīæĺİ": 5582,
      "æŁ¿å´İ": 5583,
      "å¤§å°ı": 5584,
      "åĩºèī²": 5585,
      "éģ¥": 5586,
      "åĽ½äº²": 5587,
      "ä¸Ńæľī": 5588,
      "æŃ£ç»Ł": 5589,
      "èĩªå®¶": 5590,
      "å¹ķæľ«": 5591,
      "åıįå¤į": 5592,
      "çº²æĪĲ": 5593,
      "çļĩå®¤": 5594,
      "ä¸īå¥½åħĥéķ¿": 5595,
      "éķ¿å¥³": 5596,
      "è°£": 5597,
      "èµĸèīº": 5598,
      "æĲŀ": 5599,
      "å¹»": 5600,
      "æĺ¯ä»İ": 5601,
      "ä¸ľå¤§å¯º": 5602,
      "ä¸ĬæĿīæĻ¯èĻİ": 5603,
      "å§ĭäºİ": 5604,
      "è§īå¾Ĺ": 5605,
      "è³": 5606,
      "æ¯Ļ": 5607,
      "æīĢçĶŁ": 5608,
      "çľŁå®ŀ": 5609,
      "éĩĩçº³": 5610,
      "çµ": 5611,
      "åīįéĶĭ": 5612,
      "äºĮä»£": 5613,
      "è¿ĩæĿ¥": 5614,
      "éĿ¢ä¸´": 5615,
      "çĽĽéĩį": 5616,
      "è°·åŁİ": 5617,
      "äºĮåįģåħŃæĹ¥": 5618,
      "èį¯å¸Ī": 5619,
      "å®ĭ": 5620,
      "ä¹ĿæĿ¡": 5621,
      "åłĢå°¾": 5622,
      "æ²¿æµ·": 5623,
      "ç¨³åĽº": 5624,
      "ä¹ĭæīĭ": 5625,
      "æĹ¶æĶ¿": 5626,
      "ç«Ń": 5627,
      "è°¨": 5628,
      "èĻı": 5629,
      "å¤§åĿĤå¤ıä¹ĭéĺµ": 5630,
      "1537": 5631,
      "ç©¶ç«Ł": 5632,
      "ç®±æł¹": 5633,
      "æª": 5634,
      "ä¸Ģå¤Ħ": 5635,
      "èĥľæ°¸": 5636,
      "è¥¿åĽŃ": 5637,
      "è´ŀäº²": 5638,
      "æĶ¶å¤į": 5639,
      "æ¥¯": 5640,
      "æĮĤå·Ŀ": 5641,
      "å®¶åĲį": 5642,
      "ä¿±": 5643,
      "åŁİå¤ĸ": 5644,
      "ä¸Ńå°Ĩ": 5645,
      "ä¸Ĭæ³ī": 5646,
      "ä¹īä¸°": 5647,
      "ä¸įå®ī": 5648,
      "é«ĺæ¬¡": 5649,
      "æµģäº¡": 5650,
      "èĽ®": 5651,
      "ä¿¡å¹¸": 5652,
      "æĶ¿èĻİ": 5653,
      "æĬ«": 5654,
      "ä½ľèĢħ": 5655,
      "å¾¡åĿĬ": 5656,
      "æĪĺåīį": 5657,
      "éĢĴ": 5658,
      "ä¸¾åĬ¨": 5659,
      "çİĭåŃĲ": 5660,
      "çĽ®åīį": 5661,
      "éĩĮè§ģä¹īå°§": 5662,
      "æķ¦è´º": 5663,
      "è¥¿åĽŃå¯º": 5664,
      "ä¹īå»ī": 5665,
      "åħĥçº²": 5666,
      "å¯¹ä»ĺ": 5667,
      "ãģĺ": 5668,
      "è®°ä¸º": 5669,
      "å¼Ĺæ´Ľä¼Ĭæĸ¯": 5670,
      "åľĪ": 5671,
      "éĺĶ": 5672,
      "éļ¼": 5673,
      "çŃīçŃī": 5674,
      "å±ķç¤º": 5675,
      "éĴµ": 5676,
      "åºŀå¤§": 5677,
      "ä¸Ģéĥ¨": 5678,
      "èº²": 5679,
      "è´£ä»»": 5680,
      "çł´è£Ĥ": 5681,
      "å°ıåİ¿": 5682,
      "æĹłå¥Ī": 5683,
      "æ®ģ": 5684,
      "éĢĢåħµ": 5685,
      "åħ¨åĬĽ": 5686,
      "æµģæµª": 5687,
      "æ·³": 5688,
      "å·¦é©¬": 5689,
      "åĽ´åĽ°": 5690,
      "å¿ħè¦ģ": 5691,
      "çıł": 5692,
      "éĻĲåĪ¶": 5693,
      "æ»ŀçķĻ": 5694,
      "å¯¨": 5695,
      "æĹ¶åĪ»": 5696,
      "äººä¸º": 5697,
      "å¿łçĽ´": 5698,
      "ãĤģ": 5699,
      "å¶": 5700,
      "æĪĲå°±": 5701,
      "éĢĢå¾Ģ": 5702,
      "ãĤı": 5703,
      "ç»Ĩå·Ŀæ¾Ħåħĥ": 5704,
      "å¢ŀçĶ°éķ¿": 5705,
      "å¼ĵç®Ń": 5706,
      "å¢ŀçĶ°éķ¿çĽĽ": 5707,
      "äºĮä½į": 5708,
      "å¹ķèĩ£": 5709,
      "åİĨç»ı": 5710,
      "æ¸¯åı£": 5711,
      "éĶħå²ĽçĽ´èĮĤ": 5712,
      "åĲİäºº": 5713,
      "éķ¿ç¦Ħ": 5714,
      "è¯¾": 5715,
      "ä¹īæĹ¶": 5716,
      "æĬĽ": 5717,
      "é¢ĨåŁŁ": 5718,
      "é«ĺç»ı": 5719,
      "æĸĩæ²»": 5720,
      "åĬ¨èį¡": 5721,
      "ä¼łéĹ»": 5722,
      "æĶ¹åħĥ": 5723,
      "æ·±åıĹ": 5724,
      "åĽ½åºľåı°": 5725,
      "åĪ«åĬ¨éĺŁ": 5726,
      "æŃ£çº¯": 5727,
      "äºĮéĥİ": 5728,
      "é«ĺå±ĭ": 5729,
      "æľĿèĩ£": 5730,
      "1616": 5731,
      "éĺŁä¼į": 5732,
      "æĿ¾å¹³æ¸ħåº·": 5733,
      "éĺ¿éĥ¨": 5734,
      "ä½łä»¬": 5735,
      "ä¸ºåĲį": 5736,
      "åĩ¶": 5737,
      "åĽ½åĪĨ": 5738,
      "äººåĳĺ": 5739,
      "è¿Ľåıĳ": 5740,
      "ä»»å®ĺ": 5741,
      "å¦¥": 5742,
      "å±ħçĦ¶": 5743,
      "æ¶Ĥ": 5744,
      "åĭŁ": 5745,
      "æĸ½è¡Į": 5746,
      "åĲİèĹ¤åŁºæ¬¡": 5747,
      "ä¸ºä»Ģä¹Ī": 5748,
      "åĲİäºİ": 5749,
      "å¤§å¹ħ": 5750,
      "ä¼°": 5751,
      "åĵ²": 5752,
      "äºĮåįģåĽĽ": 5753,
      "è¿½è®¨": 5754,
      "ä¸ŃéĹ´": 5755,
      "ä¾¦": 5756,
      "å¿łæģĴ": 5757,
      "å®īåĽ½å¯º": 5758,
      "èĪĩ": 5759,
      "æĤŁ": 5760,
      "æ£®åı¯æĪĲ": 5761,
      "ä»ģç§ĳ": 5762,
      "é«ĺæ¡¥ç»įè¿Ĳ": 5763,
      "éł¼": 5764,
      "å®īåĽ½å¯ºæĥłçĲ¼": 5765,
      "åº¸": 5766,
      "å¤§å¾·": 5767,
      "ç§Ģä¿¡": 5768,
      "æĥ©": 5769,
      "ä¸¤ä»£": 5770,
      "æ³¢ç½Ĺ": 5771,
      "åĪºæĿĢ": 5772,
      "ä¸įå¹¸": 5773,
      "è¿Ļåº§": 5774,
      "143": 5775,
      "éģ£ä½¿": 5776,
      "1605": 5777,
      "åį±éĻ©": 5778,
      "åįļçī©": 5779,
      "84": 5780,
      "åĨĽåĬŁ": 5781,
      "èģĶçĽŁ": 5782,
      "å¹¼å¹´": 5783,
      "æī©å±ķ": 5784,
      "æ¨ªçĶ°": 5785,
      "åª": 5786,
      "è¿ĻæĹ¶åĢĻ": 5787,
      "æĶ»çģŃ": 5788,
      "æŃ»ä¼¤": 5789,
      "å¾·å·Ŀå®¶åħī": 5790,
      "è¥¿æĸ¹": 5791,
      "ä¸¤æ´¾": 5792,
      "å¤ĦåĪĨ": 5793,
      "çľŁéĩĮ": 5794,
      "å®£åĳĬ": 5795,
      "çīĩæ¡Ĳ": 5796,
      "æ²¿å²¸": 5797,
      "èĽĩ": 5798,
      "è¸ª": 5799,
      "éķ¿æĿŁ": 5800,
      "ä¹īéĺ³": 5801,
      "æĸ¹éĴĪ": 5802,
      "æłı": 5803,
      "èĪħ": 5804,
      "çİĦèķĥ": 5805,
      "çĲĨè§£": 5806,
      "è®©åĩº": 5807,
      "æ®¿åĨĽ": 5808,
      "ä½Ļäºº": 5809,
      "éī´ç§į": 5810,
      "åħŃè§Ĵå®ļèµĸ": 5811,
      "çĽĳæĬ¤": 5812,
      "åºĬ": 5813,
      "ä¸įçł´": 5814,
      "åĩºçīĪ": 5815,
      "ä¸ĭæĹ¬": 5816,
      "éģģ": 5817,
      "ãģ°": 5818,
      "æľĿæ¯Ķ": 5819,
      "éĽ¾": 5820,
      "ä¸¤åįĥ": 5821,
      "çĻ»ä¸Ĭ": 5822,
      "1539": 5823,
      "åĲīå·Ŀå¹¿å®¶": 5824,
      "åĲ¬åĪ°": 5825,
      "æĺİæ²»ç»´æĸ°": 5826,
      "æľĿæ¯Ķå¥Ī": 5827,
      "å¯Ŀ": 5828,
      "æĮ½": 5829,
      "èĩ³å°ĳ": 5830,
      "æĻ¯å®¶": 5831,
      "è¥¿çıŃ": 5832,
      "åıĹå°ģ": 5833,
      "ä¸ĥæľ¬": 5834,
      "è¶³åĪ©ä¹īè§Ĩ": 5835,
      "ä¾įæīĢ": 5836,
      "ç¢İ": 5837,
      "è¥¿çıŃçīĻ": 5838,
      "ä¼ĺç§Ģ": 5839,
      "æ»ĭè´º": 5840,
      "é«ĺåŁº": 5841,
      "é«ĺå¸Ī": 5842,
      "å¤ĸæł·": 5843,
      "åħ¬å¼Ģ": 5844,
      "æ»´": 5845,
      "åħŃè§Ĵé«ĺèµĸ": 5846,
      "æ±łçĶ°è¾īæĶ¿": 5847,
      "å±¡æ¬¡": 5848,
      "åĽ½ä¹ħ": 5849,
      "ä¸įä½ı": 5850,
      "åĩºéĿ¢": 5851,
      "å½ĵå®¶": 5852,
      "ç»ĵåĲĪ": 5853,
      "æ°´æĪ·": 5854,
      "æĳĦæĶ¿": 5855,
      "å¼Ĥè¯´": 5856,
      "æĦıåĳ³çĿĢ": 5857,
      "ä¸įæĦ¿": 5858,
      "åĩºå¸Ń": 5859,
      "èĢĮæĿ¥": 5860,
      "é«ĺåĿĤ": 5861,
      "æīĢçĶ¨": 5862,
      "éĢļå¾Ģ": 5863,
      "å¤Ħç½®": 5864,
      "èĤī": 5865,
      "éĺ²æŃ¢": 5866,
      "è¿İæĿ¥": 5867,
      "è¾ŀä¸ĸ": 5868,
      "é¢Ĩæ°ĳ": 5869,
      "ãģĿ": 5870,
      "æłĸ": 5871,
      "éĥ½å¸Ĥ": 5872,
      "åĳĬçŁ¥": 5873,
      "1530": 5874,
      "1533": 5875,
      "1534": 5876,
      "1535": 5877,
      "éĹ¨åı¸": 5878,
      "æĿĳäºķ": 5879,
      "æĬ¤éĢģ": 5880,
      "åħ´åħĥ": 5881,
      "éĤ£äºĽ": 5882,
      "æļĹéĢļ": 5883,
      "ä¹ĭå¿ĥ": 5884,
      "ç§Ģæ²»": 5885,
      "æĴĥ": 5886,
      "è¿ŀç»Ń": 5887,
      "å®ĩæ²»": 5888,
      "çºªå¿µ": 5889,
      "æİ¨ä¸¾": 5890,
      "éľ¸æĿĥ": 5891,
      "åĲı": 5892,
      "å±±æ¢¨": 5893,
      "å®Ĺæ°ı": 5894,
      "å±ħé¦Ĩ": 5895,
      "äº¤å¥½": 5896,
      "åı¤éĩİ": 5897,
      "äºĮåįģäºĮæĹ¥": 5898,
      "éĤ£åı¤éĩİ": 5899,
      "çĬ¶åĨµ": 5900,
      "ä¹ĭæĹ¶": 5901,
      "å¤§èĩ´": 5902,
      "åĲįåı«": 5903,
      "åľ°éľĩ": 5904,
      "éģĹè¨Ģ": 5905,
      "æĹĭåį³": 5906,
      "æĻ®éģį": 5907,
      "æĹ¥å¤ľ": 5908,
      "æķ°åįģ": 5909,
      "ä»ħä»ħ": 5910,
      "åħ¼å®ļ": 5911,
      "ä¹ĭåħĦ": 5912,
      "ä¿¡ä¸°": 5913,
      "å±±éºĵ": 5914,
      "å¦¾": 5915,
      "æŀ¢": 5916,
      "çľĭåĩº": 5917,
      "èĪŀåı°": 5918,
      "ä¼½": 5919,
      "ä½įåĪĹ": 5920,
      "1611": 5921,
      "éħ·": 5922,
      "æľ¬å¤ļæŃ£ä¿¡": 5923,
      "æĹ¢çĦ¶": 5924,
      "å£¬çĶŁ": 5925,
      "è°Ĺè¨Ģ": 5926,
      "åįļçī©é¦Ĩ": 5927,
      "85": 5928,
      "å¤§çŁ³": 5929,
      "è´Ŀ": 5930,
      "çłĤ": 5931,
      "å°¼å´İ": 5932,
      "éĩĳå´İ": 5933,
      "è°ĭæ±Ĥ": 5934,
      "ç»Łæ²»èĢħ": 5935,
      "ç¦ħå¯º": 5936,
      "æī¶æĮģ": 5937,
      "åĨ°": 5938,
      "ä¸Ģè¯į": 5939,
      "ä¹ĭåĬŁ": 5940,
      "æĬĳ": 5941,
      "ä¿¡éķ¿åĮħåĽ´ç½ĳ": 5942,
      "è¶ģçĿĢ": 5943,
      "ä¿ĺèĻı": 5944,
      "å¤§ä¹ī": 5945,
      "äºĨè§£": 5946,
      "ä¸įæķĮ": 5947,
      "å®īèĬ¸": 5948,
      "åĽĽçĶ·": 5949,
      "èĲ©": 5950,
      "é¸Łç¾½": 5951,
      "åĨĻéģĵ": 5952,
      "æľ¬åºĦç¹ģéķ¿": 5953,
      "åĲİç»§èĢħ": 5954,
      "å¤§æĺİ": 5955,
      "è¢«èªīä¸º": 5956,
      "ä¸ľåįĹ": 5957,
      "ç»§èĢĮ": 5958,
      "å®ŀä¼ĳ": 5959,
      "æİ¨å®ļ": 5960,
      "åī²æį®": 5961,
      "èŁ": 5962,
      "å°ıè±Ĩ": 5963,
      "å®Ĺæ²»": 5964,
      "å¹³éĩİ": 5965,
      "å¥³æĢ§": 5966,
      "å¹¿å¯º": 5967,
      "ä»ķç½®": 5968,
      "å°¼åŃĲèĥľä¹ħ": 5969,
      "ç®Ģåįķ": 5970,
      "éĿĻåĨĪåİ¿": 5971,
      "é¢ľ": 5972,
      "å¸½": 5973,
      "æĸĩåŃĹ": 5974,
      "è½¯": 5975,
      "æ¯ĽåĪ©éļĨåħĥ": 5976,
      "åħĪç¥ĸ": 5977,
      "æķĻèĤ²": 5978,
      "è½¬åıĺ": 5979,
      "å¤§åĨħæĶ¿å¼ĺ": 5980,
      "æıĲåįĩ": 5981,
      "éĴĵ": 5982,
      "1609": 5983,
      "ç¢§": 5984,
      "è¡Ģç¼ĺ": 5985,
      "åº¶åŃĲ": 5986,
      "åĲīèī¯æ°ı": 5987,
      "å¤§æ²³": 5988,
      "é«ĺå¹¿": 5989,
      "çĪ±åŃ£": 5990,
      "å®¹æĺĵ": 5991,
      "åºŁéĻ¤": 5992,
      "å¤§ä½Ľæ®¿": 5993,
      "çĶ²å·ŀå¾ģä¼Ĳ": 5994,
      "æĥ¯ä¾ĭ": 5995,
      "é¡½å¼º": 5996,
      "å¤§åįĬ": 5997,
      "ä¿¡åĲĽ": 5998,
      "äºĭä¸ļ": 5999,
      "æĿ¾ä»ĵ": 6000,
      "è¿ĳä»£": 6001,
      "è½¬ç§»": 6002,
      "åĽ°éļ¾": 6003,
      "å§¿æĢģ": 6004,
      "ä¸įå·²": 6005,
      "åĲĮä¸º": 6006,
      "éĺ²çº¿": 6007,
      "éĩĳæ³½": 6008,
      "æĤĶ": 6009,
      "æ¶Īå¤±": 6010,
      "èĶļ": 6011,
      "éķ¿åħĦ": 6012,
      "åīįå¤ķ": 6013,
      "æĸ¹å¹¿å¯º": 6014,
      "æľĿåħ´": 6015,
      "æĻ¯éļĨ": 6016,
      "çĭ±": 6017,
      "æµ·è·¯": 6018,
      "åĨ³æĦı": 6019,
      "æķ°å¹´": 6020,
      "è°ĭæĿĢ": 6021,
      "æľĿä»ĵåŃĿæĻ¯": 6022,
      "åĭĩå£«": 6023,
      "æĭ¿ä¸ĭ": 6024,
      "éķ¿å¹´": 6025,
      "åħĥå¼ĺ": 6026,
      "é«ĺæ¢¨": 6027,
      "åı¯ä¿¡": 6028,
      "åĭī": 6029,
      "æĢ»æĶ»": 6030,
      "æĤ¦": 6031,
      "å¢ŀèĩ³": 6032,
      "èı±": 6033,
      "1531": 6034,
      "æī§æĶ¿": 6035,
      "å«ģäºĪ": 6036,
      "åĽ°å¢ĥ": 6037,
      "é¢ĩä¸º": 6038,
      "åĤ¬ä¿ĥ": 6039,
      "ä¹ĭå®¶": 6040,
      "ç§ĢåĮħ": 6041,
      "å¥¢": 6042,
      "åīįè¿°": 6043,
      "å¯¹åĨ³": 6044,
      "çĦ¦": 6045,
      "å¿łè¾ī": 6046,
      "å¤ļç§į": 6047,
      "çķłå±±æĶ¿éķ¿": 6048,
      "ä¸Ńå·Ŀæ¸ħç§Ģ": 6049,
      "ä¸įåłª": 6050,
      "æĿ¥è¶Ĭ": 6051,
      "ä¸ľæĿ¡": 6052,
      "è¶ĬæĿ¥è¶Ĭ": 6053,
      "è·³": 6054,
      "çĭ¬èĩª": 6055,
      "åįıè®®": 6056,
      "1527": 6057,
      "èĩ¼äºķ": 6058,
      "an": 6059,
      "åĩ½": 6060,
      "è¥¿ä¹¡": 6061,
      "å¿ĥä¸Ń": 6062,
      "æºº": 6063,
      "å®«éĥ¨": 6064,
      "æĳĦåħ³": 6065,
      "æ¸©äºķ": 6066,
      "äººçĶŁ": 6067,
      "æĬ¬": 6068,
      "éĹ¹": 6069,
      "é«ĺåº¦": 6070,
      "è¿ĽèĢĮ": 6071,
      "åıĳçĶ°": 6072,
      "æ¸ħå·ŀ": 6073,
      "åıĸèĥľ": 6074,
      "åĨĪæľ¬": 6075,
      "éĺ²éķ¿": 6076,
      "åħįéĻ¤": 6077,
      "æ¯ıå¹´": 6078,
      "æĦ¤æĢĴ": 6079,
      "è¯¢éĹ®": 6080,
      "åĲĵ": 6081,
      "èĢķ": 6082,
      "æĺİçĻ½": 6083,
      "ä¼Ĭè¾¾ç¨Ļ": 6084,
      "çĸĹ": 6085,
      "å¤§åĿĤåĨ¬ä¹ĭéĺµ": 6086,
      "çŁŃæļĤ": 6087,
      "èĩ£æľįäºİ": 6088,
      "æĹ¥éĩİå¯ĮåŃĲ": 6089,
      "ä¼Ĭè¾¾ç¨Ļå®Ĺ": 6090,
      "ä¿¡åĲī": 6091,
      "äººåı£": 6092,
      "ä¹īæ²»": 6093,
      "åħĥæ¸ħ": 6094,
      "ä¸»ä¹ī": 6095,
      "æ¸Ķ": 6096,
      "çĽ´èĩ£": 6097,
      "1612": 6098,
      "éĢĢåį´": 6099,
      "å¹¸éļĨ": 6100,
      "ç¬¬åĽĽæ¬¡": 6101,
      "æľ½æľ¨": 6102,
      "ä¹ĭæ¯į": 6103,
      "ä¹īæĻ´": 6104,
      "çŃ¿": 6105,
      "140": 6106,
      "åı·åı¬": 6107,
      "è°ĥè§£": 6108,
      "æ¨±äºķ": 6109,
      "çŀ¬": 6110,
      "ä¸ĢåŃĺ": 6111,
      "äºĭåħĪ": 6112,
      "éĢļè¯´": 6113,
      "åı²è¿¹": 6114,
      "æķħèĢĮ": 6115,
      "åįĬåħµåį«": 6116,
      "æī¾åĪ°": 6117,
      "èļ": 6118,
      "éĩįä¼¤": 6119,
      "çĶŁçĪ¶": 6120,
      "æįĲ": 6121,
      "èģª": 6122,
      "æĶ¶å½ķ": 6123,
      "èħķ": 6124,
      "åĪĽç«ĭ": 6125,
      "ç¥ŀä¿Ŀéķ¿": 6126,
      "åĪ«æīĢéķ¿æ²»": 6127,
      "å¹´ä»½": 6128,
      "ä¸ĢæĹ¶æľŁ": 6129,
      "ä¹ĭåĬ¿": 6130,
      "éĩįå®¶": 6131,
      "æĿĥåĬ¿": 6132,
      "å¡Ļ": 6133,
      "çĶĺåĪ©": 6134,
      "å®¶çº¹": 6135,
      "ä¸ºä¿¡": 6136,
      "å¤§å¾¡æīĢ": 6137,
      "1500": 6138,
      "åĳ½åĲį": 6139,
      "åħ´çĽĽ": 6140,
      "æľįä»İ": 6141,
      "çĻ½å·Ŀ": 6142,
      "çĽŁçº¦": 6143,
      "1606": 6144,
      "æī§æĿĥ": 6145,
      "æĥ¨éĩį": 6146,
      "æŃ¼çģŃ": 6147,
      "åħ¹": 6148,
      "æ°ıçĽ´": 6149,
      "å¥Ĺ": 6150,
      "è¾Ľ": 6151,
      "èĹī": 6152,
      "åĽĽå¤Ħ": 6153,
      "å¤§åıĭä¹īç»Ł": 6154,
      "æľ«æ£®": 6155,
      "åģļä¸º": 6156,
      "èĤ¯å®ļ": 6157,
      "è¤Ĵ": 6158,
      "ãĢĪ": 6159,
      "ãĢī": 6160,
      "å½ĵåľº": 6161,
      "æĸ°çº³": 6162,
      "äº¤çĶ±": 6163,
      "æİ¥ä»»": 6164,
      "åĲĦä¸ª": 6165,
      "çİĭæľĿ": 6166,
      "éĺ´è°ĭ": 6167,
      "ä¹Ļ": 6168,
      "å±ł": 6169,
      "å·Ŀä¸Ĭ": 6170,
      "åĲīæĶ¿": 6171,
      "å®īç½®": 6172,
      "åįĹæĿ¡": 6173,
      "çª¥": 6174,
      "æĭ¥æĪ´": 6175,
      "åĨ²åħ¥": 6176,
      "ä¹ĥèĩ³": 6177,
      "æĲŃ": 6178,
      "1523": 6179,
      "éľ¸ä¸»": 6180,
      "åĭ¾ç»ĵ": 6181,
      "æīĢåı¸ä»£": 6182,
      "åŁİäºķ": 6183,
      "èĢĢ": 6184,
      "ä»£ä»£": 6185,
      "æı½": 6186,
      "çĽĽä¿¡": 6187,
      "æľªæĿ¥": 6188,
      "çĻ»åľº": 6189,
      "æŁ³æľ¬": 6190,
      "åĩºç¾½åĽ½": 6191,
      "1467": 6192,
      "æľĹ": 6193,
      "èĩªçĶ±": 6194,
      "æĦıè¯Ĩ": 6195,
      "çł²": 6196,
      "è±«": 6197,
      "å«¡éķ¿åŃĲ": 6198,
      "è®¾æĸ½": 6199,
      "åı¬å¼Ģ": 6200,
      "èµŀèµı": 6201,
      "1508": 6202,
      "ä¸Ńä»ĭ": 6203,
      "è¢«æįķ": 6204,
      "åıĭå¥½": 6205,
      "å¿įåŁİ": 6206,
      "ç¼ĺæķħ": 6207,
      "æ¯įè¡£ä¼Ĺ": 6208,
      "å¤§èĹı": 6209,
      "ä¼º": 6210,
      "æŃ£æľ¨": 6211,
      "æĮĸ": 6212,
      "å®īå®ļ": 6213,
      "æĿ¾æľ¬": 6214,
      "éªĤ": 6215,
      "å¾ģæĪĺ": 6216,
      "ç®¡è¾ĸ": 6217,
      "å¥¥å¹³": 6218,
      "åĽ¢ç»ĵ": 6219,
      "ä¹Ŀå·ŀå²Ľ": 6220,
      "é¸Łå±ħåħĥå¿ł": 6221,
      "åįģæ²³åŃĺä¿Ŀ": 6222,
      "åĩĢåľŁçľŁå®Ĺ": 6223,
      "äºĺ": 6224,
      "æĸĩé¾Ł": 6225,
      "æĸĩåŃ¦": 6226,
      "æİ¥ä¸ĭæĿ¥": 6227,
      "æĺĮä¿¡": 6228,
      "åĢŁæŃ¤": 6229,
      "ä»ĻçŁ³ç§Ģä¹ħ": 6230,
      "éķ¿æĿŁæŃ£å®¶": 6231,
      "æ°ıäº²": 6232,
      "è¯ı": 6233,
      "ä¸¤åĲį": 6234,
      "ä¿Ŀéļľ": 6235,
      "åĨ³è£Ĥ": 6236,
      "æİ¨åĬ¨": 6237,
      "æĥŁæĶ¿": 6238,
      "ä¾ĦåŃĲ": 6239,
      "è¿Ĥ": 6240,
      "èĥĦ": 6241,
      "ä¸ľçħ§": 6242,
      "å®ļå®ŀ": 6243,
      "å®īæ²»": 6244,
      "ç»ıçķ¥": 6245,
      "æĹłäºĭ": 6246,
      "å·²æľī": 6247,
      "æĿĥéĻĲ": 6248,
      "æº¯": 6249,
      "åĨ²çĶ°": 6250,
      "ç¾½æŁ´ç§Ģéķ¿": 6251,
      "åĨĻä¿¡": 6252,
      "çĽĨåľ°": 6253,
      "é¢Ĩåħµ": 6254,
      "æŀŃ": 6255,
      "ä¸¤å¤§": 6256,
      "å¹¿éĹ¨": 6257,
      "éķ¿å°¾æĻ¯æĺ¥": 6258,
      "æī§æİĮ": 6259,
      "èµ¶æĿ¥": 6260,
      "èĤĿä»ĺ": 6261,
      "å¼ĳ": 6262,
      "æŃ¤åŁİ": 6263,
      "æīĢèĹı": 6264,
      "æ¸ħæ¥ļ": 6265,
      "åıĤè®®": 6266,
      "èĻİæĺĮ": 6267,
      "æĶ¶èĹı": 6268,
      "é¥¥": 6269,
      "ä¿®è¡Į": 6270,
      "å·¥äºĭ": 6271,
      "éĺ´æµģ": 6272,
      "å£¬åįĪ": 6273,
      "ä¹Ŀé¬¼åĺīéļĨ": 6274,
      "ãĢħ": 6275,
      "ä¸Ģéĥİ": 6276,
      "å¤§åĸľ": 6277,
      "ä¹īç»ı": 6278,
      "åĩºåĬ¨": 6279,
      "åħ¥éģĵ": 6280,
      "è´ºæ°ı": 6281,
      "æİ¥æĶ¶": 6282,
      "è¨Ģç»§": 6283,
      "åģľæĪĺ": 6284,
      "å£ķæ²Ł": 6285,
      "éķ¿æ°ı": 6286,
      "ä¿¡å¹¿": 6287,
      "æĪĺèĥľ": 6288,
      "å°ĨæĿ¥": 6289,
      "ä¼ĬèĹ¤": 6290,
      "ç¬ĥ": 6291,
      "1610": 6292,
      "åį«å°ī": 6293,
      "åħħåĪĨ": 6294,
      "é¡¿æĹ¶": 6295,
      "é¸£æµ·": 6296,
      "æľ¨æ³½éķ¿æĶ¿": 6297,
      "79": 6298,
      "å¹´é¾Ħ": 6299,
      "åĨĽåĬĽ": 6300,
      "ä¸ŃæĿ¡": 6301,
      "ä¹īæĺİ": 6302,
      "æĿ¥æı´": 6303,
      "äºĮä¿£åŁİ": 6304,
      "æģŃ": 6305,
      "ä¹¦éĻ¢": 6306,
      "å±ĭåŁİ": 6307,
      "åħħå½ĵ": 6308,
      "ä½Ĳä¹ħéĹ´çĽĽæĶ¿": 6309,
      "åĨĽè®®": 6310,
      "è¯«": 6311,
      "åĪĨç¦»": 6312,
      "å®ĺåĨĽ": 6313,
      "äºīè®®": 6314,
      "å°ĳå°Ĩ": 6315,
      "å°ļé¡º": 6316,
      "äº®æĶ¿": 6317,
      "åį§": 6318,
      "ä¸Ģå®«": 6319,
      "éķ¿å·ŀ": 6320,
      "èĥ¶": 6321,
      "åħĥçĽĽ": 6322,
      "çĶ²çĽ¸": 6323,
      "èĹıåĮ¿": 6324,
      "å½Ĵåħ¥": 6325,
      "çī¹æĿĥ": 6326,
      "åĭĺåĬ©": 6327,
      "å¤§åĬŁ": 6328,
      "å¤©çĦ¶": 6329,
      "åĽłåĬŁ": 6330,
      "å®īç¥¥": 6331,
      "ç³Ł": 6332,
      "è´ŀæ²»": 6333,
      "é¦ĸå¸Ń": 6334,
      "åĽ¾ä¹¦": 6335,
      "æ¸Ĳæ¸Ĳ": 6336,
      "æĶ¯éħįæĿĥ": 6337,
      "çŁ³å·Ŀæķ°æŃ£": 6338,
      "åģĩåĲį": 6339,
      "ç¥ĩ": 6340,
      "æĺİå¾·": 6341,
      "æ²³å°»": 6342,
      "åŁºåľ°": 6343,
      "èµ¤äºķ": 6344,
      "éģĹé¢Ĩ": 6345,
      "æĬµæĮ¡": 6346,
      "åĨ²éĶĭ": 6347,
      "è¯¦æĥħ": 6348,
      "æį¢åıĸ": 6349,
      "åĢ¾åĲĳ": 6350,
      "ä¿¡äº²": 6351,
      "ä¸įç®¡": 6352,
      "è¡Ļ": 6353,
      "æĹłåıĮ": 6354,
      "è®¤å®ļ": 6355,
      "èĲ½åŁİ": 6356,
      "ç¿ģ": 6357,
      "1607": 6358,
      "åĭĺåĲĪ": 6359,
      "æ¤İåĲį": 6360,
      "ä¹ĭæľº": 6361,
      "åľ¨ä½į": 6362,
      "ä¸īéĩį": 6363,
      "åĽĽäºº": 6364,
      "åĽĽåįĥ": 6365,
      "è¥¿å°¾": 6366,
      "åģ¶": 6367,
      "æĺĮä¸°": 6368,
      "å²©å´İ": 6369,
      "é¹¿ä¹ĭä»ĭ": 6370,
      "å¤©å®Īéĺģ": 6371,
      "æĮĳæĪĺ": 6372,
      "ä¸Ĭæĸ¹": 6373,
      "èĥľéĩį": 6374,
      "èµ·è¯·æĸĩ": 6375,
      "åħ«çĻ¾": 6376,
      "1521": 6377,
      "èĭ±éĽĦ": 6378,
      "çºłçº·": 6379,
      "83": 6380,
      "ä¸Ģæ´¾": 6381,
      "æĪĺä¸Ń": 6382,
      "èĢĮäº¡": 6383,
      "ä¸°å¯Į": 6384,
      "ä¸ĸäºº": 6385,
      "çªģåĩº": 6386,
      "å¥ĭåĬĽ": 6387,
      "å®łçĪ±": 6388,
      "è»į": 6389,
      "èµ¢": 6390,
      "ä¸Ĭçļĩ": 6391,
      "åİŁåħĪ": 6392,
      "æ¶©": 6393,
      "åĪĴåĪĨ": 6394,
      "å¼¥ä¸īéĥİ": 6395,
      "æ¼Ķåıĺ": 6396,
      "è¾ŀåİ»": 6397,
      "åįģä¸īå²ģ": 6398,
      "èĪįå¼ĥ": 6399,
      "åľ°çĽĺ": 6400,
      "åĽĽä¸ĩ": 6401,
      "åĪĨåī²": 6402,
      "æĹłçĸĳ": 6403,
      "ç»ŁåĪ¶": 6404,
      "å¤ĦåĨ³": 6405,
      "æĦıå¤ĸ": 6406,
      "è´Łæĭħ": 6407,
      "å¹¼åŃĲ": 6408,
      "æł¼å±Ģ": 6409,
      "ç²¾éĢļ": 6410,
      "çĲµçĲ¶æ¹ĸ": 6411,
      "äºİæ°¸æŃ£": 6412,
      "çĶŁåĳ½": 6413,
      "æ¬¡äºİ": 6414,
      "çľŁæĺ¯": 6415,
      "æĪĳåĨĽ": 6416,
      "å±ĭæķ·": 6417,
      "èĬ±æĬ¼": 6418,
      "ç®Ģä»ĭ": 6419,
      "å¤§ä¸¾": 6420,
      "å°ıå²Ľ": 6421,
      "æĸĩæŃ¦": 6422,
      "å®ŀåĪĻ": 6423,
      "åıĬæĹ¶": 6424,
      "èµĸéļĨ": 6425,
      "æĹłè§Ĩ": 6426,
      "å¼ºè¡Į": 6427,
      "æķħæĦı": 6428,
      "çĨĬéĩİ": 6429,
      "é¼İ": 6430,
      "å°ıå±±çĶ°ä¿¡": 6431,
      "è°¢ç½ª": 6432,
      "æĬļåħ»": 6433,
      "é¢Ĺ": 6434,
      "ç«ŀ": 6435,
      "äºĮä¸ĩ": 6436,
      "èµĸæĪ¿": 6437,
      "é¹«": 6438,
      "æĴ¤åħµ": 6439,
      "ä¸Īå¤«": 6440,
      "è¿ĤåĽŀ": 6441,
      "éķ¿åĨĪ": 6442,
      "ä¹īçº²": 6443,
      "åĲįåĪĨ": 6444,
      "æĬ½": 6445,
      "çºŃ": 6446,
      "æĸ¹æ¡Ī": 6447,
      "åĨħçĶ°": 6448,
      "ãģ²": 6449,
      "çĶ±åĪ©": 6450,
      "æľ¨éĢł": 6451,
      "å¹¿ä¸º": 6452,
      "éĢĥç¦»": 6453,
      "ç¡®è¯ģ": 6454,
      "æ¼Ĩ": 6455,
      "çº·çºŃ": 6456,
      "è·ŁçĿĢ": 6457,
      "åĲ¬ä»İ": 6458,
      "çĮĽçĥĪ": 6459,
      "æľ¨ä¸ĭèĹ¤åĲīéĥİ": 6460,
      "åī¯å°Ĩ": 6461,
      "å¯Ĵæ²³": 6462,
      "é³": 6463,
      "æĿ¯": 6464,
      "ä¹ĭæŃ»": 6465,
      "æĶ¿æ°ı": 6466,
      "æĪĲå®ŀ": 6467,
      "åľ°çĤ¹": 6468,
      "æ´ª": 6469,
      "åĲīæĻ´": 6470,
      "åı¤çĶ°": 6471,
      "çĹķ": 6472,
      "æĤĦ": 6473,
      "éģĩåĪ°": 6474,
      "å®¿æķĮ": 6475,
      "æ·Ģæ®¿": 6476,
      "å¤¸": 6477,
      "åĨĽäºİ": 6478,
      "äºĮåįĥ": 6479,
      "æľĿæĹ¥": 6480,
      "çĽ¸åıį": 6481,
      "åĨįèµ·": 6482,
      "éĢĢå®Ī": 6483,
      "è¿ŀè´ŀ": 6484,
      "éģĹäº§": 6485,
      "æ²¼åŁİ": 6486,
      "æľ¬å§ĵ": 6487,
      "åĲĮåĥļ": 6488,
      "èī°": 6489,
      "æµ·è´¼": 6490,
      "æīĵå¼Ģ": 6491,
      "äºīæī§": 6492,
      "æĶ»éĺ²æĪĺ": 6493,
      "å¶ĭ": 6494,
      "æĶ¿åŃĲ": 6495,
      "æĪĲçº²": 6496,
      "æĸĩä¸Ń": 6497,
      "å²Ľå·¦è¿ĳ": 6498,
      "åĽŀæĿ¥": 6499,
      "è¶³åĪ©æĻ´æ°ı": 6500,
      "æĸ°åŁİ": 6501,
      "å¾¡éĹ¨": 6502,
      "è¿½æĶ¾": 6503,
      "1528": 6504,
      "è¡ĢèĦī": 6505,
      "æľ¨ä¸ĭç§ĢåĲī": 6506,
      "åī¥å¤º": 6507,
      "ç»µ": 6508,
      "å®¶å®¶": 6509,
      "ä¹ĭéķ¿": 6510,
      "å¤ªåŃĲ": 6511,
      "75": 6512,
      "çĺ": 6513,
      "ä¸Ģå¤ľ": 6514,
      "æľīéĻĲ": 6515,
      "èĩªæ²»": 6516,
      "éĩįæ¬¡": 6517,
      "ä»»èģĮ": 6518,
      "å¤ļä¸ª": 6519,
      "æĿĳå®Ĺ": 6520,
      "åĭĴ": 6521,
      "è¯¥åĽ½": 6522,
      "ç§»èĩ³": 6523,
      "å±±åĨħä¸Ģä¸°": 6524,
      "æľīåĬŁ": 6525,
      "å¤©ç«¥": 6526,
      "ç§°èµŀ": 6527,
      "èµ·ä¹ī": 6528,
      "åİĨä»»": 6529,
      "è¿ģå¾Ģ": 6530,
      "åŁºçĿ£å¾Ĵ": 6531,
      "è§¦æĢĴ": 6532,
      "åºĹ": 6533,
      "æĹ¶å¹´": 6534,
      "éĥ¨æ°ı": 6535,
      "æ³ķçļĩ": 6536,
      "ç»ŁèĻİ": 6537,
      "æīĵåĢĴ": 6538,
      "éķĩå®ŀ": 6539,
      "1507": 6540,
      "éĤ»åĽ½": 6541,
      "ä¸Ģéĵģ": 6542,
      "å¤§éģĵ": 6543,
      "æĪĺæ³ķ": 6544,
      "ä¸įä¸ĭ": 6545,
      "å¥´": 6546,
      "è¾»": 6547,
      "ç»§æ¶¦": 6548,
      "åıĸæ¬¡": 6549,
      "èį»": 6550,
      "çĻ½çŁ³": 6551,
      "åı¬è§ģ": 6552,
      "ç¶±": 6553,
      "åľ¨æŃ¤æľŁéĹ´": 6554,
      "åĲİç»Ń": 6555,
      "éķ¿èµĸ": 6556,
      "ä¹īå°ļ": 6557,
      "ä¹īæ¾Ħ": 6558,
      "èĥŀ": 6559,
      "éĩįè¿Ķ": 6560,
      "çŁ³äºķ": 6561,
      "è¥¿ä¾§": 6562,
      "åĽŀå¸Ī": 6563,
      "å®½æŃ£": 6564,
      "ä¹ĺèĥľ": 6565,
      "åĸĦæĪĺ": 6566,
      "é¥Ńå¯Į": 6567,
      "éĢ¼è¿«": 6568,
      "æ°ıè¾ī": 6569,
      "åľ°ä¸ĭ": 6570,
      "åİŁæľī": 6571,
      "åĮĹçĶ°": 6572,
      "å¦ĤåĲĮ": 6573,
      "ç¨Ģ": 6574,
      "æĺ¾çĦ¶": 6575,
      "éģĹä½ĵ": 6576,
      "å®ªæĺ¾": 6577,
      "åģļæ³ķ": 6578,
      "1524": 6579,
      "è¿Ŀåıį": 6580,
      "âĶĢ": 6581,
      "æľ¨æĽ¾ä¹īæĺĮ": 6582,
      "åµ": 6583,
      "ä¸ĢæĬĬ": 6584,
      "å¤§æ´¥": 6585,
      "å±±éĹ¨": 6586,
      "å¥¸": 6587,
      "ç»§å®¤": 6588,
      "æĥ¶": 6589,
      "éĢļæĬ¥": 6590,
      "èĪ°": 6591,
      "ä¸ĥåįĥ": 6592,
      "æİ¥å¾ħ": 6593,
      "ç¼ĸåħ¥": 6594,
      "ç»ĵåŁİç§Ģåº·": 6595,
      "æĢ¨æģ¨": 6596,
      "æľĭ": 6597,
      "åĩī": 6598,
      "å¼¼": 6599,
      "æ³¥": 6600,
      "èĩªå¹¼": 6601,
      "æĮŁ": 6602,
      "æĮģåĽ½": 6603,
      "è¾¾å®ī": 6604,
      "ä¸°èĩ£ç§Ģéķ¿": 6605,
      "æ¶¨": 6606,
      "å¤±åĪ©": 6607,
      "æ£®åŁİ": 6608,
      "æ®īæŃ»": 6609,
      "å¸½åŃĲ": 6610,
      "å±±æ°ı": 6611,
      "ç§Ģæ»¡": 6612,
      "æŃ¦èīº": 6613,
      "åĽĽéĿ¢": 6614,
      "165": 6615,
      "è·¨": 6616,
      "åħĪè¡Į": 6617,
      "è®©ä½į": 6618,
      "ç¼®": 6619,
      "å¹¸éķ¿": 6620,
      "æĥŁä¿¡": 6621,
      "æºĥè´¥": 6622,
      "æī«éĥ¨": 6623,
      "ç°Ĺ": 6624,
      "ç»¼": 6625,
      "ä¼Ļ": 6626,
      "æĹ¶ä»»": 6627,
      "é«ĺæ¸ħ": 6628,
      "æĸĩåºĵ": 6629,
      "å§ī": 6630,
      "è¥¿åįĹ": 6631,
      "è§ĤåºĶ": 6632,
      "æİĮç®¡": 6633,
      "äººæ°ĳ": 6634,
      "ä¹īå®Ī": 6635,
      "åİŁåĪĻ": 6636,
      "è¿Ļä»¶": 6637,
      "äº²è¿ĳ": 6638,
      "äº¦åı¯": 6639,
      "åĪ¶éĢł": 6640,
      "è¾īå¼ĺ": 6641,
      "çķĻåŃĺ": 6642,
      "èĦĩ": 6643,
      "èµıè¯Ĩ": 6644,
      "çº¯å¿ł": 6645,
      "åĽĽåĽ½å¾ģä¼Ĳ": 6646,
      "ç´§å¼ł": 6647,
      "çķıæĥ§": 6648,
      "ç¥·": 6649,
      "å»¿": 6650,
      "ä¼łåħ¥": 6651,
      "çł¥": 6652,
      "æİ¥è§¦": 6653,
      "æķ°åįĥ": 6654,
      "æĶ¾åľ¨": 6655,
      "åĢŁåı£": 6656,
      "åĬŀæ³ķ": 6657,
      "éĸĵ": 6658,
      "æ¬§æ´²": 6659,
      "ä¸ĬåŁİ": 6660,
      "åĩºåŁİ": 6661,
      "èĩªç«ĭ": 6662,
      "åįĹèĽ®": 6663,
      "äºīåıĸ": 6664,
      "ç²ī": 6665,
      "å®Įå·¥": 6666,
      "åįĬåĽ½": 6667,
      "1526": 6668,
      "éİ": 6669,
      "æĽ¹": 6670,
      "ç¬¬ä¸ĥ": 6671,
      "ä¿Ŀæľī": 6672,
      "èĳĹä½ľ": 6673,
      "éĻ¶æ°ı": 6674,
      "åĬłæ²»çĶ°": 6675,
      "ä¹ĭåĬĽ": 6676,
      "ç§Ł": 6677,
      "æľīæĹ¶": 6678,
      "å®Īå°±": 6679,
      "åĽłç´ł": 6680,
      "å¹³æ°ĳ": 6681,
      "çŁ³åŁİ": 6682,
      "æĸ°åºĦ": 6683,
      "å¹¿çº²": 6684,
      "è¶³åĪ©ä¹īæĺİ": 6685,
      "åĲĦå¤Ħ": 6686,
      "ä¿®ç¼®": 6687,
      "è´¯æĸĩ": 6688,
      "å®īèĹ¤å®Īå°±": 6689,
      "ä¸»ä»İåħ³ç³»": 6690,
      "73": 6691,
      "å¤§æĿĥ": 6692,
      "å¾³": 6693,
      "è¿ĺè¦ģ": 6694,
      "çħ½": 6695,
      "æķ´ä½ĵ": 6696,
      "åį·åħ¥": 6697,
      "èĳ¬ç¤¼": 6698,
      "åį¡": 6699,
      "è´´": 6700,
      "åĬŁåĭĭ": 6701,
      "åİĭè¿«": 6702,
      "ä¸ºä¹ī": 6703,
      "åĲİçĽ¾": 6704,
      "æĶ¿èĥľ": 6705,
      "åħ¶æ¯į": 6706,
      "çĶŁä¸ĭ": 6707,
      "é«ĺä¿¡": 6708,
      "çĪ·": 6709,
      "èµĸå¿ł": 6710,
      "åĪĨå¸ĥ": 6711,
      "åħŃåįģ": 6712,
      "äº¤ä»£": 6713,
      "æ·»": 6714,
      "è´¤æ²»": 6715,
      "é£İæł¼": 6716,
      "åħ·è¶³": 6717,
      "è¿Ĳè¾ĵ": 6718,
      "éĿĴæľ¨": 6719,
      "å®ģå¯º": 6720,
      "å±Īæľį": 6721,
      "ä¾¦å¯Ł": 6722,
      "ä¹ĭä¸º": 6723,
      "æĹ¥åħĥ": 6724,
      "åħ¶åĲį": 6725,
      "ä»ĸäºº": 6726,
      "çĶ±æĿ¥": 6727,
      "æ¡ĵ": 6728,
      "ç½ķ": 6729,
      "åİĨæĿ¥": 6730,
      "ä¸Ķåħĥ": 6731,
      "1604": 6732,
      "éģ¿éļ¾": 6733,
      "æ¡ĳåĲį": 6734,
      "æĤīæķ°": 6735,
      "ä¸Ģå¹¶": 6736,
      "æ³Ħ": 6737,
      "ç»ĩéĥ¨": 6738,
      "æĹłæķ°": 6739,
      "ä¸¤ç§į": 6740,
      "1613": 6741,
      "çĻ¾äºº": 6742,
      "é¾Łå±±": 6743,
      "åįıåĬĽ": 6744,
      "æ¤¿": 6745,
      "åįķçĭ¬": 6746,
      "éŃĤ": 6747,
      "èĬ¥å·Ŀ": 6748,
      "èĥ¶çĿĢ": 6749,
      "76": 6750,
      "çº½": 6751,
      "å®ļå±ħ": 6752,
      "æľĿçĿĢ": 6753,
      "æį·": 6754,
      "è§ģçĬ¶": 6755,
      "æĹłåı¯": 6756,
      "æģķ": 6757,
      "è®¨æŃ»": 6758,
      "èĩ´ä¿¡": 6759,
      "åĸľæ¬¢": 6760,
      "é¹Ī": 6761,
      "89": 6762,
      "äººæīį": 6763,
      "åħĥæĺİ": 6764,
      "å®Ĺæ»´": 6765,
      "èµĸçº²": 6766,
      "å¿ħçĦ¶": 6767,
      "çĭ¬çī¹": 6768,
      "å±±ä¸Ńå¹¸çĽĽ": 6769,
      "éļ¶å±ŀäºİ": 6770,
      "36": 6771,
      "å¤§èĥľ": 6772,
      "ä¹īæŃ¦": 6773,
      "æµ©": 6774,
      "æıŃ": 6775,
      "ä¼łç»Ļ": 6776,
      "æĽ¾åŃĻ": 6777,
      "è¿ŀé¾Ļ": 6778,
      "åī²è®©": 6779,
      "æĹ¶åĪĨ": 6780,
      "åĲĮè¡Į": 6781,
      "çĽ¸äºĴ": 6782,
      "æĹłåĹ£": 6783,
      "åľŁå±ħ": 6784,
      "åħŃåįĥ": 6785,
      "åħ¨çĻ»": 6786,
      "çİĦä»¥": 6787,
      "çķĻæľī": 6788,
      "ä¿®å¤į": 6789,
      "å»¶ä¼¸": 6790,
      "ä¸´æµİ": 6791,
      "çĶµå½±": 6792,
      "æ¬¾å¾ħ": 6793,
      "çīĩæ¡Ĳä¸Ķåħĥ": 6794,
      "å®ı": 6795,
      "åŁ¼": 6796,
      "åľ¨å®¶": 6797,
      "ä¸īä¹ĭä¸¸": 6798,
      "å½ĵä½ľ": 6799,
      "äºĶä¸ĩ": 6800,
      "ä¸ĬæĿīè¾īèĻİ": 6801,
      "1620": 6802,
      "çģ¯": 6803,
      "ä¿Ŀä½ı": 6804,
      "æİ¥ç®¡": 6805,
      "éĵº": 6806,
      "èĤĸ": 6807,
      "äºĮåįģä¸īå¹´": 6808,
      "æĬĹæĪĺ": 6809,
      "èµĦæł¼": 6810,
      "çļĨå·Ŀ": 6811,
      "å§Ĳå§Ĳ": 6812,
      "å®¶ä¼ł": 6813,
      "ä¿¡ç»³": 6814,
      "æľīæķĪ": 6815,
      "åı¯æĥľ": 6816,
      "çĽ¸ä¼¼": 6817,
      "ç»ĵå±Ģ": 6818,
      "äº¤æµģ": 6819,
      "å¤Ħä»¥": 6820,
      "åĵ¨": 6821,
      "åĭĥ": 6822,
      "æĥħåĬ¿": 6823,
      "æ°ĳéĹ´": 6824,
      "åįĬèĹı": 6825,
      "è´¨çĸĳ": 6826,
      "é©»æīİ": 6827,
      "ç¬¬åĽĽä»£": 6828,
      "æııè¿°": 6829,
      "èŁ¹": 6830,
      "å¹´åı·": 6831,
      "åĲīåŁİ": 6832,
      "åĮĹä¿¡": 6833,
      "çī²": 6834,
      "åºľåŁİ": 6835,
      "æĸ°å®«": 6836,
      "çĶ²èĥĦ": 6837,
      "éĺ²åį«": 6838,
      "é¾Ļçİĭä¸¸": 6839,
      "æĥ³æ³ķ": 6840,
      "æĲ¬": 6841,
      "ä¿ĥä½¿": 6842,
      "1493": 6843,
      "æĲºå¸¦": 6844,
      "æİ©æĬ¤": 6845,
      "è¡Įäºĭ": 6846,
      "ä¸°å²Ľ": 6847,
      "åĩ»æĿĢ": 6848,
      "çĽ¸åĽ½å¯º": 6849,
      "å®«å´İ": 6850,
      "æĶ¶åħ»": 6851,
      "ç»Łæ²»æĿĥ": 6852,
      "è°±ç³»": 6853,
      "éĿłè¿ĳ": 6854,
      "åįģäºĶå²ģ": 6855,
      "ç½ĳç»ľ": 6856,
      "å§Ĭå°ıè·¯": 6857,
      "éĻªèĩ£": 6858,
      "æŃ§": 6859,
      "ä¸Ģå¤§": 6860,
      "éĥ·": 6861,
      "éĥĬ": 6862,
      "æĹ¥å¸¸": 6863,
      "æŃ£èµĸ": 6864,
      "è¢«ç§°ä½ľ": 6865,
      "ä¸¤åŁİ": 6866,
      "æ³ķä»¤": 6867,
      "äº¤çķĮ": 6868,
      "èģĶåĲį": 6869,
      "æĢ»åħµåĬĽ": 6870,
      "åħ·å¤ĩ": 6871,
      "éĨĴ": 6872,
      "éķ¿å®ĹæĪĳéĥ¨çĽĽäº²": 6873,
      "åĽļ": 6874,
      "ä¸Ģå°ģ": 6875,
      "è´«": 6876,
      "ä¸īæ³½": 6877,
      "ç«ĸ": 6878,
      "é¢ĨåĨĽ": 6879,
      "å°ıè¯¸": 6880,
      "å¤ĸéĥ¨": 6881,
      "å¤ªåİŁ": 6882,
      "æĮĩå¯¼": 6883,
      "åłĤåħĦå¼Ł": 6884,
      "é¥Ńå°¾": 6885,
      "åĤ²": 6886,
      "æİªæĸ½": 6887,
      "çŁ¶éĩİ": 6888,
      "çħ½åĬ¨": 6889,
      "45": 6890,
      "ä¹ĭéģĵ": 6891,
      "ä¿¡æĺ¥": 6892,
      "åĮĹåĽ½": 6893,
      "å®īçĶ°": 6894,
      "ä»İäºĭ": 6895,
      "å»Ĭ": 6896,
      "åĪĨå°ģ": 6897,
      "æŁĶ": 6898,
      "å¸Ĥå·Ŀ": 6899,
      "æĹ©å°±": 6900,
      "èī¯å·Ŀ": 6901,
      "éĺ¿å¸Ĥ": 6902,
      "400": 6903,
      "å¤§çł´": 6904,
      "è¾¨": 6905,
      "çĶ·åŃĲ": 6906,
      "è¿ĲçĶ¨": 6907,
      "ç¯ĩ": 6908,
      "ç©¿çĿĢ": 6909,
      "èĮ¶èĮ¶ä¸¸": 6910,
      "é¤": 6911,
      "å¤§æ±Ł": 6912,
      "ä¸Ńä¸ĸ": 6913,
      "ä¸Ńä¸ĸçºª": 6914,
      "èµ·äºĭ": 6915,
      "æīĭèħķ": 6916,
      "æºĲèĩª": 6917,
      "ä¾įå¥³": 6918,
      "æĬ¥å¤į": 6919,
      "ä¸ŃåĬ¡": 6920,
      "è¿Ļæīį": 6921,
      "ä¸ľä¾§": 6922,
      "æŃ¦çĶ°ä¹īä¿¡": 6923,
      "ä¸¤èĢħ": 6924,
      "æīĭæĮģ": 6925,
      "éĢĢä½į": 6926,
      "æµģè¡Į": 6927,
      "æľªæľī": 6928,
      "ç§įåŃĲ": 6929,
      "å¼ºè°ĥ": 6930,
      "ç¦ıäºķ": 6931,
      "ç§»å¾Ģ": 6932,
      "ç´«å¹¿éĹ¨": 6933,
      "ä¸Ģæīĭ": 6934,
      "æĪĺçģ«": 6935,
      "ä¹īä»²": 6936,
      "æľīæĦı": 6937,
      "åįģå¸Ĥ": 6938,
      "å°ıæŀĹ": 6939,
      "æĦļ": 6940,
      "åĿŁ": 6941,
      "è¥¿åĮĹ": 6942,
      "é©°æı´": 6943,
      "å®¶éķ¿": 6944,
      "éķ¿å¤§": 6945,
      "æ³Ĭ": 6946,
      "æ¯ħ": 6947,
      "å½ĵå¤©": 6948,
      "å¹³åŁİ": 6949,
      "å¾·æĶ¿": 6950,
      "åĪĨæķ£": 6951,
      "éĺµåīį": 6952,
      "é©¬åĮ¹": 6953,
      "èĤĨ": 6954,
      "æľįåĬ¡": 6955,
      "å¿Ĺéģĵ": 6956,
      "æ¸¸æĪı": 6957,
      "åĲİéĢĢ": 6958,
      "å¤§å²Ľ": 6959,
      "ä¼Ł": 6960,
      "åİŁåĲį": 6961,
      "é«ĺåı°": 6962,
      "ä»ĬåĲİ": 6963,
      "è¶ĬæĻº": 6964,
      "ç¬¬åįģ": 6965,
      "æµģéĢļ": 6966,
      "æĻ®éĢļ": 6967,
      "åĲĬ": 6968,
      "ä¸Ģåı¥": 6969,
      "ä¹ĭåħµ": 6970,
      "å¤§æĶ¿": 6971,
      "åĪ°åºķ": 6972,
      "ãģļ": 6973,
      "æīĢèĩ´": 6974,
      "èµĸç»§": 6975,
      "éĢļäº¤": 6976,
      "å¼ºæĶ»": 6977,
      "æħ¨": 6978,
      "åįķä½į": 6979,
      "åĲŀå¹¶": 6980,
      "æĹ¥æĿ¡": 6981,
      "æŃ¤åĪ»": 6982,
      "åīįæĸ¹": 6983,
      "ãģ¸": 6984,
      "åħ¥ä¸»": 6985,
      "å¤ļéĩį": 6986,
      "äºĶä»£": 6987,
      "çĶ³è¯·": 6988,
      "åĨ·æ³ī": 6989,
      "49": 6990,
      "æĪ°": 6991,
      "åħĥç§Ģ": 6992,
      "æľ¬åľ°": 6993,
      "éĩįä¿¡": 6994,
      "åĮĹä¼Ĺ": 6995,
      "é«ĺå²Ľ": 6996,
      "å¿łäºİ": 6997,
      "éĢļåŃĹ": 6998,
      "ä¸¤è·¯": 6999,
      "éĢĥèĩ³": 7000,
      "ç²Ĺ": 7001,
      "åĶ¤": 7002,
      "è®¿æ°ı": 7003,
      "71": 7004,
      "å®Ľ": 7005,
      "ä¸Ģä»¶": 7006,
      "ä¿¡è´µ": 7007,
      "åº·èĥ¤": 7008,
      "è¿Ľå±ķ": 7009,
      "æŀĲ": 7010,
      "å¾ĹåĲį": 7011,
      "çīŁ": 7012,
      "å¸Ĥåľº": 7013,
      "ç§įç§į": 7014,
      "éģĩå®³": 7015,
      "ä¸Ģä¸ĩäºĶåįĥ": 7016,
      "è¹Ħ": 7017,
      "äº«å¾·ä¹ĭä¹±": 7018,
      "åĲ´": 7019,
      "éķ¿éĢ¸": 7020,
      "æĹ¥åħī": 7021,
      "äºĭåıĺ": 7022,
      "çĽ´åŃĿ": 7023,
      "çĪ¶ä¸º": 7024,
      "æķĮåħµ": 7025,
      "è°·æ°ı": 7026,
      "éĩĳæ£®éķ¿": 7027,
      "ä¹ĺæľº": 7028,
      "ç¤¼ä»ª": 7029,
      "é¥°æ¼Ķ": 7030,
      "ä¹³æ¯į": 7031,
      "å±±æ¢¨åİ¿": 7032,
      "42": 7033,
      "ç§¦": 7034,
      "ä¸įæĥ³": 7035,
      "ç§Ģè´ŀ": 7036,
      "è°Ĭ": 7037,
      "èĩªè¡Į": 7038,
      "äº²æĪļ": 7039,
      "å¹³æĪ·": 7040,
      "æĸ°ä»»": 7041,
      "è®¤è¯Ĩ": 7042,
      "æĥħå½¢": 7043,
      "éĻ¶åĨĽ": 7044,
      "æī°ä¹±": 7045,
      "æĩĪ": 7046,
      "ä¸ĢæĹ¶éĹ´": 7047,
      "å¤§å¤§": 7048,
      "åĲīçĶ°åŁİ": 7049,
      "æĶ»èĲ½": 7050,
      "å¿łéķ¿": 7051,
      "æĢ»é¢Ĩ": 7052,
      "æ·±æĦŁ": 7053,
      "é¾Łäºķ": 7054,
      "æķĪæŀľ": 7055,
      "éŁ³ä¹Ĳ": 7056,
      "æ¯«ä¸į": 7057,
      "æģ³è¯·": 7058,
      "åŁ¹": 7059,
      "å¹¶åĪĹ": 7060,
      "å®ļæŃ£": 7061,
      "ä¼ļè§ģ": 7062,
      "çĽĽéļĨ": 7063,
      "åıĤèĢĥ": 7064,
      "æİ¥æĽ¿": 7065,
      "æİ¨èįĲ": 7066,
      "ä»ģæľ¨": 7067,
      "å¥Ķèµ°": 7068,
      "è¡¥ä»»": 7069,
      "å®ģå®ģ": 7070,
      "700": 7071,
      "ç»¿": 7072,
      "æ²¢": 7073,
      "ä¸»åŁİ": 7074,
      "åĽĽåįģ": 7075,
      "ç»ıå®¶": 7076,
      "æ¸ħéķ¿": 7077,
      "1623": 7078,
      "éļĨéĩį": 7079,
      "å£«æĹı": 7080,
      "èī¯å¥½": 7081,
      "çĥ¦": 7082,
      "å®ªå¿ł": 7083,
      "åĶ±": 7084,
      "åĿļåĨ³": 7085,
      "åĬĿè°ı": 7086,
      "åĤħ": 7087,
      "å¤ŃæĬĺ": 7088,
      "çŀ¬éĹ´": 7089,
      "çĢ": 7090,
      "å°ĺ": 7091,
      "å¤§äºĭ": 7092,
      "ç¬¬ä¹Ŀ": 7093,
      "åħ´æĪ¿": 7094,
      "å¤Ħç½ļ": 7095,
      "è½»æĺĵ": 7096,
      "åĨĻä½ľ": 7097,
      "å¯Ĩè°ĭ": 7098,
      "ç»´æĬ¤": 7099,
      "ç«¥åŃĲ": 7100,
      "ºçī²": 7101,
      "çĴ": 7102,
      "äºŃ": 7103,
      "ä¸Ģç»Ł": 7104,
      "ä¹ĭåºĦ": 7105,
      "åľ¨ä¸ĸ": 7106,
      "éķ¿åĿĤ": 7107,
      "åĩºä¼Ĺ": 7108,
      "æŃ¦åį«": 7109,
      "åĨħä¹¦": 7110,
      "çīºçī²": 7111,
      "åĿł": 7112,
      "ä¸ĥçĻ¾": 7113,
      "ä¾§éĿ¢": 7114,
      "åĨ¬åº·": 7115,
      "å·®å¼Ĥ": 7116,
      "åĿªåĨħ": 7117,
      "78": 7118,
      "åŁİéĻ·": 7119,
      "å¤§é¡»": 7120,
      "ä¸įèĤ¯": 7121,
      "æŃ¦åĲī": 7122,
      "åħ¶æ¬¡": 7123,
      "æ¬º": 7124,
      "åİŁä¸º": 7125,
      "å°±ç®Ĺ": 7126,
      "äºĭæĢģ": 7127,
      "é©¬åį°": 7128,
      "åĢº": 7129,
      "äºĮåįģä¸Ģå¹´": 7130,
      "ä»ķå¥ī": 7131,
      "èĩ´ä½¿": 7132,
      "è¾ħåĬ©": 7133,
      "çľ¼è§ģ": 7134,
      "è¾ĥä¸º": 7135,
      "æĹ¨åľ¨": 7136,
      "çĽĳæĬ¤äºº": 7137,
      "åĪĬ": 7138,
      "ä¿¡è´ŀ": 7139,
      "ä¸ĭåįĪ": 7140,
      "å°ıæłĹ": 7141,
      "åħµå£«": 7142,
      "é«ĺæ°ı": 7143,
      "è®¨çģŃ": 7144,
      "éĻĨåĨĽ": 7145,
      "æĿ¿ä»ĵ": 7146,
      "ç¼´çº³": 7147,
      "ä¹ĭç§°": 7148,
      "å±±ä¸ĭ": 7149,
      "æŃ¦èĹ¤": 7150,
      "åĿĽ": 7151,
      "åĽĽåĳ¨": 7152,
      "åĬłæ·±": 7153,
      "ä»Ĭå¤©": 7154,
      "åĳ½åħ¶": 7155,
      "åıĸå·Ŀ": 7156,
      "æīĭéĩĮ": 7157,
      "å°ģå»º": 7158,
      "èµ¤å·Ŀ": 7159,
      "éī´çĲĨ": 7160,
      "åİĭåĢĴ": 7161,
      "å¿ħå®ļ": 7162,
      "è¯ģæį®": 7163,
      "æ§»åŁİ": 7164,
      "éĩľå±±": 7165,
      "åħľ": 7166,
      "å±¯": 7167,
      "1520": 7168,
      "ä»¥å¾Ģ": 7169,
      "åīįéĿ¢": 7170,
      "ä¹ħçķĻ": 7171,
      "æĿ¾åīį": 7172,
      "è¿ĩä¸ĸ": 7173,
      "åħīæĺİ": 7174,
      "ç¬¬ä¸Ģä¸ª": 7175,
      "åĽŀåºĶ": 7176,
      "é©¬å¤´": 7177,
      "åħ¨å¢ĥ": 7178,
      "æµ·å²¸": 7179,
      "æīĵçł´": 7180,
      "å¼Ĥå¸¸": 7181,
      "èĪ¬çļĦ": 7182,
      "åĢŁåĬ©": 7183,
      "ç¦ħç§Ģ": 7184,
      "èŃ¦æĪĴ": 7185,
      "72": 7186,
      "å®¾": 7187,
      "æĺı": 7188,
      "ä¸Ģæ°ı": 7189,
      "æĹ¥èĩ³": 7190,
      "çİĸ": 7191,
      "åĲĮæĹ¶ä»£": 7192,
      "å¯¹éĺµ": 7193,
      "ä¼łåĪ°": 7194,
      "éĢĢèĩ³": 7195,
      "é¸Ń": 7196,
      "å©Ĩ": 7197,
      "ä¸¥æł¼": 7198,
      "åĺ±": 7199,
      "åĤ»": 7200,
      "æĤ£çĹħ": 7201,
      "è´§å¸ģ": 7202,
      "åľĭ": 7203,
      "ä¸ĢæĿ¥": 7204,
      "ä¸Ńåħ´": 7205,
      "æĸ¹æ³ķ": 7206,
      "å¦Ħ": 7207,
      "ç»ıéªĮ": 7208,
      "åĽŀå¤į": 7209,
      "æĹ§ä¸»": 7210,
      "33": 7211,
      "åįĳ": 7212,
      "ä¸ŃåİŁ": 7213,
      "ä¸ĬåįĪ": 7214,
      "å¤©èįī": 7215,
      "å°ıè§Ħæ¨¡": 7216,
      "æľªèİ·": 7217,
      "é¾Ļå¯º": 7218,
      "åĽºå®ļ": 7219,
      "ç²¾åħµ": 7220,
      "ä¹ĭä¸»": 7221,
      "ä¿¡æ¾Ħ": 7222,
      "ä¸įçĶ¨": 7223,
      "ä»¥ç¤º": 7224,
      "æĶ¿å®¶": 7225,
      "æĶ¿ç¹ģ": 7226,
      "å¯¹å²¸": 7227,
      "å¿łéĩį": 7228,
      "è®°ä½ľ": 7229,
      "åĲĪè®®": 7230,
      "çĮľ": 7231,
      "å¼ķè¯±": 7232,
      "æĵ¢": 7233,
      "1529": 7234,
      "å§Ĳå¦¹": 7235,
      "65": 7236,
      "æ°ıåıĬ": 7237,
      "ä¸İåĬĽ": 7238,
      "å±±åĨĪ": 7239,
      "èĢĮæĪĲ": 7240,
      "éĩįæķ´": 7241,
      "è¡ĮåĪĹ": 7242,
      "æīĢå±ŀ": 7243,
      "ä¸¤æĸ¹": 7244,
      "ä¼łæİĪ": 7245,
      "åįĹéĿ¢": 7246,
      "åĵŃ": 7247,
      "éĶĢ": 7248,
      "åĮĸä¸º": 7249,
      "æ£ļ": 7250,
      "å¸ĥæŃ¦": 7251,
      "è®¾ä¹Ĳ": 7252,
      "ç¯¡": 7253,
      "èĢĥè¯ģ": 7254,
      "åĩıå°ĳ": 7255,
      "ç¥Īç¥·": 7256,
      "å¤§åŀ£åŁİ": 7257,
      "ç½ķè§ģ": 7258,
      "åĲİä»»": 7259,
      "å°ıæĿ¾": 7260,
      "æłĥ": 7261,
      "å®ŀä¹ħ": 7262,
      "æ²»å®ī": 7263,
      "åľŁçĶ°": 7264,
      "çļĩæĹı": 7265,
      "éĻ¢æĶ¿": 7266,
      "å§ĵåĲį": 7267,
      "æ¼Ĥ": 7268,
      "èĮĥç¤¼": 7269,
      "è£ħé¥°": 7270,
      "å§Ķæīĺ": 7271,
      "èĮĥç¤¼å®ī": 7272,
      "800": 7273,
      "æŃ¤ç±»": 7274,
      "èµĸæŃ¦": 7275,
      "ä¸Ģä¸ªæľĪ": 7276,
      "åŃ¦å®¶": 7277,
      "æ¬¢è¿İ": 7278,
      "åıł": 7279,
      "ä¸ľéĿ¢": 7280,
      "çĽ¸ä¿¡": 7281,
      "1619": 7282,
      "åħ«å·ŀ": 7283,
      "æķ´é¡¿": 7284,
      "æ¾³": 7285,
      "å±ıéļľ": 7286,
      "çĸıè¿ľ": 7287,
      "è«": 7288,
      "ä¸Ģåı£": 7289,
      "ä¸īçĶ°": 7290,
      "å¿łåħĥ": 7291,
      "å¹ķåĲİ": 7292,
      "ä¿Ŀç§ĳ": 7293,
      "çĭĹ": 7294,
      "è¯¸è¯´": 7295,
      "æł¹åŁº": 7296,
      "åĳĺæĺĮ": 7297,
      "è¡Ģç»Ł": 7298,
      "æĭĽåĭŁ": 7299,
      "æłĭæ¢ģ": 7300,
      "ä¸ľçħ§å®«": 7301,
      "ä¹ŀ": 7302,
      "å®¶åºŃ": 7303,
      "åĲİç§°": 7304,
      "åĲİæı´": 7305,
      "çº¶": 7306,
      "ãģĽ": 7307,
      "æĥ«": 7308,
      "éĽĩ": 7309,
      "æĹ¥æľ¬æµ·": 7310,
      "å¾¡æĸĻ": 7311,
      "åĭĿ": 7312,
      "èµĲå§ĵ": 7313,
      "è£ķ": 7314,
      "å¢ŀæĹ¶": 7315,
      "éĢģç»Ļ": 7316,
      "èıľ": 7317,
      "åı¯èĥ½æĢ§": 7318,
      "å®¿èĢģ": 7319,
      "ç¬¬ä¸īæ¬¡": 7320,
      "åħ¸åŀĭ": 7321,
      "æłħæłı": 7322,
      "ä¸ĢæŃ»": 7323,
      "æĪĺåĬĽ": 7324,
      "æīŃ": 7325,
      "è®½": 7326,
      "éĢ®": 7327,
      "çŃĭ": 7328,
      "åĲĮåĲį": 7329,
      "å§ĳ": 7330,
      "æĪ·æĶ¿": 7331,
      "ç¥ŀçĪ¶": 7332,
      "çĸ²æĥ«": 7333,
      "åĭīå¼º": 7334,
      "32": 7335,
      "ä¹ĭå¤Ħ": 7336,
      "åŁİåĿĢ": 7337,
      "ä¸Ńç«ĭ": 7338,
      "æŃ¦æĸŃ": 7339,
      "æĶ¿ç»ı": 7340,
      "èĩªåı¤": 7341,
      "å¤ļè´º": 7342,
      "èº«ä½ĵ": 7343,
      "æ²¡æĥ³åĪ°": 7344,
      "èĹ©æĶ¿": 7345,
      "åı²å®ŀ": 7346,
      "å·¦ç¿¼": 7347,
      "å®ĺåĳĺ": 7348,
      "å¼ķåħ¥": 7349,
      "åĩĮæĻ¨": 7350,
      "å¤§åĬ¿": 7351,
      "ä¿¡æ¸ħ": 7352,
      "æ¬¡å¥³": 7353,
      "æ¸ĭ": 7354,
      "åĬłåī§": 7355,
      "æĶ¯ä¸¹": 7356,
      "ä¸ĥåįģ": 7357,
      "çľŁå£ģ": 7358,
      "åĨ²åĩ»": 7359,
      "1608": 7360,
      "åĪļåĪļ": 7361,
      "æ²Ļåĭ¿": 7362,
      "åĲ¸å¼ķ": 7363,
      "81": 7364,
      "å¼Ħ": 7365,
      "åĮĨ": 7366,
      "åĲīåĪ©": 7367,
      "ãģŃ": 7368,
      "å°±è¦ģ": 7369,
      "è½°": 7370,
      "æĬ¤åŁİ": 7371,
      "é¥±": 7372,
      "è¡°å¼±": 7373,
      "1506": 7374,
      "ç´§å¯Ĩ": 7375,
      "å¸ĿåĽ½": 7376,
      "ä¸ĢåįĬ": 7377,
      "ä¿¡éĩį": 7378,
      "åĨĽä»¥": 7379,
      "æĹ¥èİ²": 7380,
      "ä¸Ĭå±±": 7381,
      "ä¸»æ°´": 7382,
      "çĶŁåŃĺ": 7383,
      "ä¹Łè®¸": 7384,
      "çĿ¹": 7385,
      "èµ·æºĲ": 7386,
      "1622": 7387,
      "æģ¼": 7388,
      "èĪĨ": 7389,
      "çªģåĽ´": 7390,
      "éģĹåŃ¤": 7391,
      "æķĳåĩº": 7392,
      "1525": 7393,
      "éĻĲäºİ": 7394,
      "æļ´åĬ¨": 7395,
      "å®ĩä½Ĳç¾İ": 7396,
      "at": 7397,
      "ä»Ĩ": 7398,
      "çĶ°è¾¹": 7399,
      "å¯ºåºĻ": 7400,
      "æŃ»åĽł": 7401,
      "æ²»æĪ¿": 7402,
      "è·µ": 7403,
      "éķĩä¹ħ": 7404,
      "å»¶åħĥ": 7405,
      "ä¸ļæŃ£": 7406,
      "è¦ĨçģŃ": 7407,
      "æĪĺæŀľ": 7408,
      "æ²ĵ": 7409,
      "ä¸īåĪĨ": 7410,
      "æľ¬èĲ¥": 7411,
      "ãģ©": 7412,
      "å¿łéĤ»": 7413,
      "èºħ": 7414,
      "åħ«åįģ": 7415,
      "è¶³åĪ©æĶ¿çŁ¥": 7416,
      "å¿ĥèħ¹": 7417,
      "åŁºæ°ı": 7418,
      "å°ļæľī": 7419,
      "ä»ĭéĶĻ": 7420,
      "æĦŁè°¢": 7421,
      "æ½Ł": 7422,
      "è¿Ń": 7423,
      "å¤§çĶ°": 7424,
      "å¾ª": 7425,
      "æľīä¹Ĳ": 7426,
      "æĶ¿äº²": 7427,
      "æ¸ħæĻ¨": 7428,
      "æĪ·å·Ŀ": 7429,
      "æĮģä¹ħ": 7430,
      "åı¤å¿Ĺ": 7431,
      "åħ±æľī": 7432,
      "å°ĦæĿĢ": 7433,
      "æĭĽèĩ´": 7434,
      "çĬ¹è±«": 7435,
      "å¤§åľ£": 7436,
      "æī£": 7437,
      "è¯ĳ": 7438,
      "ä¹īåº·": 7439,
      "æĻŁ": 7440,
      "å®Ĺä¿¡": 7441,
      "è¿ĽéĢĢ": 7442,
      "åıĳæİĺ": 7443,
      "åį³åı¯": 7444,
      "åħ´å»º": 7445,
      "çĻ¾å¹´": 7446,
      "åı¤ä»Ĭ": 7447,
      "éĢĥåĪ°": 7448,
      "äºĮåįģäºĮå¹´": 7449,
      "çĽ®ä»ĺ": 7450,
      "æ·±å¾Ĺ": 7451,
      "éĺ³æĪĲ": 7452,
      "æĮĩæĮ¥å®ĺ": 7453,
      "æłĩåĩĨ": 7454,
      "ç´§æİ¥çĿĢ": 7455,
      "æľ±åį°çĬ¶": 7456,
      "æ²³å°»ç§ĢéļĨ": 7457,
      "43": 7458,
      "90": 7459,
      "åŁİå¢Ļ": 7460,
      "æ°ıè§Ħ": 7461,
      "éķ¿çĽĬ": 7462,
      "ä¸ŃæĹ¬": 7463,
      "æİĢ": 7464,
      "æ±Łé©¬": 7465,
      "åĽĽæĸ¹": 7466,
      "åħ´èµ·": 7467,
      "æĴķ": 7468,
      "è®¨è®º": 7469,
      "æĺ¾èµ«": 7470,
      "éĩĳéĵ¶": 7471,
      "ä¹Ĳå¸Ĥ": 7472,
      "å¤§å¤ļæķ°": 7473,
      "æ½ľä¼ı": 7474,
      "ä¹ĭåŁİ": 7475,
      "ä¸ĭçº§": 7476,
      "åĪ©æ²»": 7477,
      "åĴı": 7478,
      "åħ³èģĶ": 7479,
      "çĶ¨åħµ": 7480,
      "å±ħæ°ĳ": 7481,
      "ç¼Ŀ": 7482,
      "åħ¼å¤ĩ": 7483,
      "åįĬå¹´": 7484,
      "æĳĦå®¶": 7485,
      "æ¿ĳå·Ŀ": 7486,
      "ä¸įå¾Ĺå·²": 7487,
      "çĥŃçĶ°": 7488,
      "çĨŁæĤī": 7489,
      "æ¸ĬæºĲ": 7490,
      "å¹´å°ĳ": 7491,
      "å¹´çºª": 7492,
      "ä¸ĢæŁ³": 7493,
      "åĨħåºľ": 7494,
      "çŃīäºİ": 7495,
      "å¿łæłĭ": 7496,
      "å¤ļå°ĳ": 7497,
      "åĪĨéĴŁ": 7498,
      "ç»ıçĶ±": 7499,
      "ä¼łæĴŃ": 7500,
      "æµ·æĪĺ": 7501,
      "åı²ä¹¦": 7502,
      "éĢĥåħ¥": 7503,
      "æİ¨ç¿»": 7504,
      "æ¿ĢåĮĸ": 7505,
      "åģľçķĻ": 7506,
      "å°¤ä¸º": 7507,
      "é¹¤åĨĪ": 7508,
      "1632": 7509,
      "èĻļæŀĦ": 7510,
      "æ±īåŁİ": 7511,
      "æ¾³éĹ¨": 7512,
      "æ²Ļåĭ¿çķ¥": 7513,
      "ä¹īç»´": 7514,
      "æİŁ": 7515,
      "æ¸Ĺ": 7516,
      "æĢľ": 7517,
      "å¹³è´º": 7518,
      "åĲĳä¸ľ": 7519,
      "äºĭå®ľ": 7520,
      "ä¼Ĭå¥Ī": 7521,
      "éªĦ": 7522,
      "ç»ĵå©ļ": 7523,
      "æľªæŀľ": 7524,
      "195": 7525,
      "åĲĽä¸»": 7526,
      "æĬ¥ä»ĩ": 7527,
      "å¤§éĺªåºľ": 7528,
      "åĶ¯æľī": 7529,
      "æĹłè®ºå¦Ĥä½ķ": 7530,
      "çľŁéĩĮè°·": 7531,
      "41": 7532,
      "87": 7533,
      "å¤§æ£®": 7534,
      "ä¸Ńä»¥": 7535,
      "åĪ©æł¹": 7536,
      "å®ĹçŁ©": 7537,
      "åħŃæĿ¡": 7538,
      "äº¦æľī": 7539,
      "æĻ´æľĿ": 7540,
      "åº¦è¿ĩ": 7541,
      "èĹıäºº": 7542,
      "æł¹éĩİ": 7543,
      "æĺ¾å®¶": 7544,
      "éĢģæĿ¥": 7545,
      "åĥ§åħµ": 7546,
      "ç§ģä¸ĭ": 7547,
      "æĶ»åŁİæĪĺ": 7548,
      "å¤§æī¹": 7549,
      "éķ¿åº·": 7550,
      "å±±å®¶": 7551,
      "å¯¹å¾ħ": 7552,
      "è¿ĽéĢ¼": 7553,
      "æľĿå®ļ": 7554,
      "çĤĬ": 7555,
      "äº¬éĥ½åºľ": 7556,
      "æĪĸæĺ¯": 7557,
      "çªĹ": 7558,
      "åĩĨè®¸": 7559,
      "å³¡": 7560,
      "æķ´åĲĪ": 7561,
      "è¯ģå®ŀ": 7562,
      "è§īå¯º": 7563,
      "è®³åĲį": 7564,
      "èĨĿ": 7565,
      "èŃ¦å¤ĩ": 7566,
      "å¨ĺå®¶": 7567,
      "ä¸ĢæıĲ": 7568,
      "ä¸Ģæī¹": 7569,
      "èĩĤ": 7570,
      "åĽ½ä¸»": 7571,
      "åĽ½æ¸ħ": 7572,
      "æŃ£çº²": 7573,
      "å®Īä¿¡": 7574,
      "èĥ½å²Ľ": 7575,
      "ç¥ŀå¥Ī": 7576,
      "ãĤĩ": 7577,
      "éĩĮéĿ¢": 7578,
      "ç¦»åİ»": 7579,
      "éº¦": 7580,
      "è°ĭåĪĴ": 7581,
      "çĶ°æĿĳæ°ı": 7582,
      "æĴ°åĨĻ": 7583,
      "åłĢå°¾åĲīæĻ´": 7584,
      "èĥ¸": 7585,
      "åħ¶å¦»": 7586,
      "ä¸»æµģ": 7587,
      "çĦ¶åĽł": 7588,
      "åºĨéļĨ": 7589,
      "æĿĥåĪ©": 7590,
      "åħ´è¶£": 7591,
      "æĪĳæĸ¹": 7592,
      "å¤´çĽĶ": 7593,
      "ç¢Ĺ": 7594,
      "äºĺçĲĨ": 7595,
      "ç¥ŀå¥Īå·Ŀ": 7596,
      "é§": 7597,
      "æĿľ": 7598,
      "å¤§éĹ¨": 7599,
      "ä¿¡å®ī": 7600,
      "éĢ¾": 7601,
      "ä¸Ĭéĺµ": 7602,
      "æĶ¿ä»¤": 7603,
      "åīįåĵ¨": 7604,
      "é¢Ĩè¢ĸ": 7605,
      "æ±Łåı£": 7606,
      "éĥ¡ä»£": 7607,
      "åĬŁèĥ½": 7608,
      "æ¨ĭ": 7609,
      "å¤įåİŁ": 7610,
      "è¯¥ä¹¦": 7611,
      "åĩłå¹´": 7612,
      "æ²¼å®ļ": 7613,
      "æ©ĺ": 7614,
      "éĢ®æįķ": 7615,
      "48": 7616,
      "é¨": 7617,
      "æŃ£çĽ´": 7618,
      "éĩįéķ¿": 7619,
      "å®īä¸Ń": 7620,
      "åĲĪæµģ": 7621,
      "ç¥ŀåĻ¨": 7622,
      "æľªè§ģ": 7623,
      "æºĲèµĸ": 7624,
      "120": 7625,
      "è·¯æĺĵ": 7626,
      "åħ³ç³»æģ¶åĮĸ": 7627,
      "æĢģåĬ¿": 7628,
      "æīĢåľ¨åľ°": 7629,
      "ä¼´éļı": 7630,
      "æĬ¤åŁİæ²³": 7631,
      "ä¿¡æĥł": 7632,
      "åŃķ": 7633,
      "åħĥç¹ģ": 7634,
      "æĶ¿åº·": 7635,
      "åī¿": 7636,
      "ä¸ľæĸ¹": 7637,
      "æĺİçŁ¥": 7638,
      "èĹ¤çĶ°": 7639,
      "è¥¿è¿Ľ": 7640,
      "èº«åĪĨ": 7641,
      "åĨįä¹Ł": 7642,
      "æµģè¨Ģ": 7643,
      "çĭł": 7644,
      "å´İé¦Ĩ": 7645,
      "éī´éĢŁ": 7646,
      "åºŃåĽŃ": 7647,
      "è´¹çĶ¨": 7648,
      "ä½¯": 7649,
      "ä¸ºå¦»": 7650,
      "æĹ¥äºİ": 7651,
      "1517": 7652,
      "å½ĵä»£": 7653,
      "ç»§åĹ£": 7654,
      "äºĶäºº": 7655,
      "å¼Ģå±±": 7656,
      "éĢļè¡Į": 7657,
      "éĢļéģĵ": 7658,
      "æĮģæľī": 7659,
      "çŃĳèµ·": 7660,
      "æķ°æĹ¥": 7661,
      "åĮºåĪĨ": 7662,
      "çģ«èį¯": 7663,
      "æ¯Ķå¦Ĥ": 7664,
      "é¥¿": 7665,
      "åĶ®": 7666,
      "æ¨ªæ¿ĳ": 7667,
      "ä¾ĭåŃĲ": 7668,
      "åĬĿéĺ»": 7669,
      "çĦļçĥ§": 7670,
      "èĵĿ": 7671,
      "å°¸ä½ĵ": 7672,
      "ä¸Ľ": 7673,
      "åĽ½å¤§": 7674,
      "ä¸įå¥½": 7675,
      "åĨħå¤ĸ": 7676,
      "æ¬¡ä¹ĭ": 7677,
      "å¿łå¿ĥ": 7678,
      "æ²³æµģ": 7679,
      "ä»İä¸Ń": 7680,
      "è¿ĳèĹ¤": 7681,
      "éĽĢ": 7682,
      "åĲĪåĬĽ": 7683,
      "åºĶåħģ": 7684,
      "è·¯ä¸Ĭ": 7685,
      "ä¸¥åİī": 7686,
      "æĲı": 7687,
      "æĭľè°Ĵ": 7688,
      "1504": 7689,
      "ä¸īçĻ¾ä½Ļ": 7690,
      "1336": 7691,
      "ç¥ĪæĦ¿": 7692,
      "èĵĦ": 7693,
      "as": 7694,
      "å¤§æŃ£": 7695,
      "æŃ£éĩį": 7696,
      "åĴĮçº¦": 7697,
      "åıĳè¡Į": 7698,
      "åĲĳå¯¼": 7699,
      "åĽĽä¸ª": 7700,
      "æĹłä¸į": 7701,
      "éªĹ": 7702,
      "è´ŀåºĨ": 7703,
      "åı³ç¿¼": 7704,
      "æµħåĪ©": 7705,
      "åŃ¦æł¡": 7706,
      "åŀ¦": 7707,
      "é¹¿å²Ľ": 7708,
      "éĺ¶çº§": 7709,
      "æ²¿çĶ¨": 7710,
      "ç´§æĢ¥": 7711,
      "ç§įåŃĲå²Ľ": 7712,
      "ak": 7713,
      "æ«": 7714,
      "æĪĺéĺµ": 7715,
      "1518": 7716,
      "ä¸īæ¬¡": 7717,
      "ä¸ĭé©¬": 7718,
      "çº¬": 7719,
      "æĭ¨": 7720,
      "è½¶": 7721,
      "æĶ¯æŁ±": 7722,
      "åħĪä¾ĭ": 7723,
      "è¨ĺ": 7724,
      "æĬĹè¡¡": 7725,
      "æĢ§è´¨": 7726,
      "èĮĥæ»¡": 7727,
      "æ¿ĢæĢĴ": 7728,
      "å¼ĥåŁİ": 7729,
      "åį°åº¦": 7730,
      "éĶĻè¯¯": 7731,
      "è¿ĿèĥĮ": 7732,
      "èĭĹæľ¨": 7733,
      "éĸĢ": 7734,
      "æĳĨèĦ±": 7735,
      "åįĵè¶Ĭ": 7736,
      "è·¯æĺĵæĸ¯": 7737,
      "600": 7738,
      "ç»ĳ": 7739,
      "å®¶ä¸º": 7740,
      "ä¿¡åĮħ": 7741,
      "å¯Ĥ": 7742,
      "æĪĺæĹ¶": 7743,
      "åĽ½ç«ĭ": 7744,
      "åĽ½æ³ķ": 7745,
      "1512": 7746,
      "å½ĵå¤ľ": 7747,
      "å¹ķæĶ¿": 7748,
      "å±ħæīĢ": 7749,
      "æ°´åŁİ": 7750,
      "å°ģèµı": 7751,
      "èĳµ": 7752,
      "æ³½åŁİ": 7753,
      "å¤ľæĪĺ": 7754,
      "èħ¾": 7755,
      "è§Ĥå¯Ł": 7756,
      "çīĩä»ĵ": 7757,
      "ç¦ħå®Ĺ": 7758,
      "åģ·è¢Ń": 7759,
      "å®¶éĹ¨": 7760,
      "ä¸įè§ģ": 7761,
      "è°ķ": 7762,
      "åĿ¡": 7763,
      "ä¸ĥå²ģ": 7764,
      "æºª": 7765,
      "è¯¥å¯º": 7766,
      "è¿½æº¯": 7767,
      "å°½åĬĽ": 7768,
      "å¤©ä¸ĭå¸ĥæŃ¦": 7769,
      "ä¼°è®¡": 7770,
      "è¯Ī": 7771,
      "æĭĵ": 7772,
      "çķĶ": 7773,
      "è¿Ľåħµ": 7774,
      "äºĶæĿ¡": 7775,
      "éĿ¢ç§¯": 7776,
      "éļĨå®¶": 7777,
      "çİ°è±¡": 7778,
      "æĢ»è®¡": 7779,
      "é¥¶": 7780,
      "éĢģåħ¥": 7781,
      "å®ªæĪ¿": 7782,
      "æ²¿çĿĢ": 7783,
      "å±¡ç«ĭ": 7784,
      "æī¬åĮĹä¼Ĺ": 7785,
      "ç½¢äºĨ": 7786,
      "ä¸Ģéģĵ": 7787,
      "åİĺ": 7788,
      "ä¹īæĮģ": 7789,
      "ä¹īä½ĳ": 7790,
      "åĪ©èĥľ": 7791,
      "æĻĥ": 7792,
      "äº²å®¶": 7793,
      "åħ³å®¿": 7794,
      "å¹³æ¬¡": 7795,
      "ç«ĭè¶³": 7796,
      "ä¸¤åº¦": 7797,
      "åľŁäºķ": 7798,
      "åľŁæ¡¥": 7799,
      "åºĶä¸º": 7800,
      "ä»¤åħ¶": 7801,
      "å´ĸ": 7802,
      "èĹıåħ¥": 7803,
      "åĪ«ç§°": 7804,
      "æĤł": 7805,
      "æŀģåĬĽ": 7806,
      "å¦Ļå¿ĥ": 7807,
      "ä¸ĵéĹ¨": 7808,
      "è¸¯": 7809,
      "æĹŃ": 7810,
      "ä¹ĭå£«": 7811,
      "ä¹ĭåŃĻ": 7812,
      "ä¹īæĿĳ": 7813,
      "ä¸įè®º": 7814,
      "åĪ©ä¸ī": 7815,
      "åĲīåĨĪ": 7816,
      "è¦ģå¡ŀ": 7817,
      "æĻ¯éķľ": 7818,
      "ä¹ĿæĪ·": 7819,
      "çĶ¨ä½ľ": 7820,
      "ç»Łå¹¸": 7821,
      "æµģæ´¾": 7822,
      "æĶ¶éĽĨ": 7823,
      "å°½å¿ł": 7824,
      "å³¶": 7825,
      "èįĴå·Ŀ": 7826,
      "å½¼æŃ¤": 7827,
      "éĵ¸éĢł": 7828,
      "ä¸ĺéĻµ": 7829,
      "è°¨æħİ": 7830,
      "è¿Ī": 7831,
      "ä¿¡æģ¯": 7832,
      "æī¼": 7833,
      "å¤©çĽ®": 7834,
      "éĩįèĥľ": 7835,
      "äº²æīĭ": 7836,
      "æİ¾": 7837,
      "é«ĺçĻ½": 7838,
      "å¤ļäºº": 7839,
      "æ²»æī¿": 7840,
      "èº«çĿĢ": 7841,
      "å¤ĸç¥ĸçĪ¶": 7842,
      "è´ŀæĻ¯": 7843,
      "è§Ĩä½ľ": 7844,
      "å²©ä»ĺ": 7845,
      "ç¤ºä¼Ĺ": 7846,
      "æ£®åħ°ä¸¸": 7847,
      "æŃ¥åħµ": 7848,
      "ä¹ĺèĪ¹": 7849,
      "æĿĤåħµ": 7850,
      "çĽĲåĨ¶": 7851,
      "è¶ħè¶Ĭ": 7852,
      "å£ģçĶ»": 7853,
      "ä¸Ģåıª": 7854,
      "ä¿¡æĪĲ": 7855,
      "1511": 7856,
      "åĨħåŁİ": 7857,
      "å¯¹æĪĺ": 7858,
      "åĮĹä¹ĭåºĦ": 7859,
      "å®īæĬļ": 7860,
      "æįī": 7861,
      "éĢļçŁ¥": 7862,
      "ç»Īç©¶": 7863,
      "å¥īçº³": 7864,
      "æķ°æ¬¡": 7865,
      "é»ľ": 7866,
      "è¡¨æ¼Ķ": 7867,
      "æ²¼æ°ı": 7868,
      "è§īä¹¦": 7869,
      "æŃĮä¼ļ": 7870,
      "åįģåħŃå²ģ": 7871,
      "çīµè¿ŀ": 7872,
      "88": 7873,
      "åĩĿ": 7874,
      "åĽ½å®ī": 7875,
      "éĥĳ": 7876,
      "ä¸īå¤§": 7877,
      "æŃ£åĢ¼": 7878,
      "ä¸ĭå±±": 7879,
      "è¡Ķ": 7880,
      "æĭ¦": 7881,
      "çĿ¿": 7882,
      "æĿ¾åİŁ": 7883,
      "éĹ¨ä¸ĭ": 7884,
      "æĸ°æĶ¿": 7885,
      "åħĪéĺµ": 7886,
      "åģ¿": 7887,
      "æĶ¹çĶ±": 7888,
      "æµ·éģĵ": 7889,
      "è´ŀä¿Ĭ": 7890,
      "è¶³åĪ©ä¹īæĮģ": 7891,
      "å½¢åŁİ": 7892,
      "å½Ĵäºİ": 7893,
      "å¸ĥæĸ½": 7894,
      "éĻ¤æŃ¤": 7895,
      "è¿½åħµ": 7896,
      "éĴī": 7897,
      "è¿Ķè¿ĺ": 7898,
      "åĨĽäºĭåĬĽéĩı": 7899,
      "æºĥæķ£": 7900,
      "å¦Ļå¿ĥå¯º": 7901,
      "ä¿©": 7902,
      "ä¸ĢèĦī": 7903,
      "ä¹ĭè®¡": 7904,
      "ä¿¡è´¤": 7905,
      "åĽ½æĹ¶": 7906,
      "ä¸īéĿ¢": 7907,
      "åŃĲå¼Ł": 7908,
      "æĪĲèµĸ": 7909,
      "åīįä¹ħ": 7910,
      "å°ıè¢ĸ": 7911,
      "æĶ»ä¼Ĳ": 7912,
      "ãģĴ": 7913,
      "åĪĨæŀĲ": 7914,
      "1617": 7915,
      "æī¿èĬ³": 7916,
      "ç»Łè¾ĸ": 7917,
      "å¸ĤåĨħ": 7918,
      "è´ŀå®Ĺ": 7919,
      "çĮĿ": 7920,
      "å½¢æĢģ": 7921,
      "æĴ¤ç¦»": 7922,
      "æŀĹå¯º": 7923,
      "æħ¢æħ¢": 7924,
      "77": 7925,
      "ä¸Ģä»½": 7926,
      "å¤§çģ«": 7927,
      "æĹ¥åŃĲ": 7928,
      "ä»¥ä¸ľ": 7929,
      "æŃ£å¦Ĥ": 7930,
      "è¡į": 7931,
      "æĸ¹ä¾¿": 7932,
      "éĩįå¿ł": 7933,
      "å¿łèĩ£": 7934,
      "ä¸ľäº¬éĥ½": 7935,
      "åıįåºĶ": 7936,
      "å®ĺèĩ³": 7937,
      "æıĲé«ĺ": 7938,
      "æ¿ł": 7939,
      "åıĽåĨĽ": 7940,
      "å£°ç§°": 7941,
      "1487": 7942,
      "æĤ¬æ®Ĭ": 7943,
      "å·¦äº¬äº®": 7944,
      "ä¿µ": 7945,
      "æĪĲäºº": 7946,
      "æľ¬åºĶ": 7947,
      "è§Ĳ": 7948,
      "å°ıæĹ¶": 7949,
      "æĭį": 7950,
      "å¼Ģè®¾": 7951,
      "æľ¨æĿĲ": 7952,
      "ç³Ĭ": 7953,
      "æµ·å¤ĸ": 7954,
      "è´ŀéļĨ": 7955,
      "éĢĥè·ĳ": 7956,
      "è§Ĵåº¦": 7957,
      "æĻºåĭĩ": 7958,
      "è¿Ĳä½ľ": 7959,
      "åįłæľī": 7960,
      "å³»": 7961,
      "ç§»åĬ¨": 7962,
      "ç»ĺçĶ»": 7963,
      "è¯łä¹ħ": 7964,
      "æįķèİ·": 7965,
      "èĶµ": 7966,
      "éķ¿çŃ±åŁİ": 7967,
      "è¸¯èºħ": 7968,
      "ä¸ĢåĪĢ": 7969,
      "å±Ĭ": 7970,
      "å¤§æīĭ": 7971,
      "çĽĪ": 7972,
      "ä»¥è¥¿": 7973,
      "åĲįåŁİ": 7974,
      "æµ´": 7975,
      "åĨħä¼Ĺ": 7976,
      "å½ĵåį³": 7977,
      "ä¸°ä¹ħ": 7978,
      "éļıçĪ¶": 7979,
      "åĽŀåİ»": 7980,
      "éĢłåıį": 7981,
      "ãĥ³": 7982,
      "ç²ķ": 7983,
      "è¿½ç©¶": 7984,
      "è´¤ç§Ģ": 7985,
      "åĺ²": 7986,
      "å°Ŀè¯ķ": 7987,
      "èĤĸåĥı": 7988,
      "63": 7989,
      "åĲİéĿ¢": 7990,
      "å±±è·¯": 7991,
      "è¢«ä¿ĺ": 7992,
      "çŁ£": 7993,
      "è°ľ": 7994,
      "çĶ¨æĿ¥": 7995,
      "åıĹä¼¤": 7996,
      "è´ºåŁİ": 7997,
      "å¹¿æ¿ĳ": 7998,
      "åĲĦæĸ¹": 7999
    },
    "merges": [
      [
        "ï",
        "¼"
      ],
      [
        "ä",
        "¸"
      ],
      [
        "ï¼",
        "Į"
      ],
      [
        "ã",
        "Ģ"
      ],
      [
        "ä",
        "º"
      ],
      [
        "ç",
        "ļ"
      ],
      [
        "çļ",
        "Ħ"
      ],
      [
        "å",
        "®"
      ],
      [
        "ãĢ",
        "Ĥ"
      ],
      [
        "å",
        "ħ"
      ],
      [
        "å",
        "Ĳ"
      ],
      [
        "ä",
        "¹"
      ],
      [
        "ä",
        "»"
      ],
      [
        "å",
        "¹"
      ],
      [
        "æ",
        "ľ"
      ],
      [
        "å",
        "¤"
      ],
      [
        "å",
        "ı"
      ],
      [
        "ç",
        "Ķ"
      ],
      [
        "æ",
        "Ĺ"
      ],
      [
        "å¹",
        "´"
      ],
      [
        "æ",
        "Ī"
      ],
      [
        "å",
        "ľ"
      ],
      [
        "æ",
        "Ń"
      ],
      [
        "å",
        "Ľ"
      ],
      [
        "å",
        "°"
      ],
      [
        "å",
        "Ī"
      ],
      [
        "å",
        "Ĩ"
      ],
      [
        "è",
        "¿"
      ],
      [
        "ç",
        "»"
      ],
      [
        "æ",
        "Ŀ"
      ],
      [
        "å®",
        "¶"
      ],
      [
        "æ",
        "°"
      ],
      [
        "æ",
        "ĺ"
      ],
      [
        "ä",
        "½"
      ],
      [
        "å",
        "į"
      ],
      [
        "ä¸",
        "º"
      ],
      [
        "ï¼",
        "Ī"
      ],
      [
        "ï¼",
        "ī"
      ],
      [
        "å",
        "Ĭ"
      ],
      [
        "â",
        "Ģ"
      ],
      [
        "æ",
        "Ķ"
      ],
      [
        "ä",
        "¿"
      ],
      [
        "ãĢ",
        "ģ"
      ],
      [
        "å",
        "Ł"
      ],
      [
        "å",
        "·"
      ],
      [
        "æ",
        "ĸ"
      ],
      [
        "ä¸",
        "Ģ"
      ],
      [
        "ä¹",
        "ĭ"
      ],
      [
        "é",
        "ķ"
      ],
      [
        "è",
        "ĩ"
      ],
      [
        "å",
        "º"
      ],
      [
        "åľ",
        "¨"
      ],
      [
        "çĶ",
        "°"
      ],
      [
        "å",
        "±"
      ],
      [
        "åŁ",
        "İ"
      ],
      [
        "åĲ",
        "İ"
      ],
      [
        "å¤",
        "§"
      ],
      [
        "æ°",
        "ı"
      ],
      [
        "ç",
        "§"
      ],
      [
        "éķ",
        "¿"
      ],
      [
        "å",
        "¾"
      ],
      [
        "ä",
        "¼"
      ],
      [
        "ä¿",
        "¡"
      ],
      [
        "å",
        "¯"
      ],
      [
        "æĪ",
        "ĺ"
      ],
      [
        "å",
        "ĩ"
      ],
      [
        "å",
        "Ń"
      ],
      [
        "é",
        "ĩ"
      ],
      [
        "åĨ",
        "Ľ"
      ],
      [
        "åĽ",
        "½"
      ],
      [
        "æĺ",
        "¯"
      ],
      [
        "æ",
        "ī"
      ],
      [
        "å",
        "¼"
      ],
      [
        "é",
        "ĥ"
      ],
      [
        "æĹ",
        "¶"
      ],
      [
        "è",
        "¯"
      ],
      [
        "äº",
        "Ĩ"
      ],
      [
        "è",
        "®"
      ],
      [
        "ä¸",
        "İ"
      ],
      [
        "ç",
        "Ľ"
      ],
      [
        "è",
        "Ģ"
      ],
      [
        "å",
        "İ"
      ],
      [
        "æĹ",
        "¥"
      ],
      [
        "ä¸",
        "Ń"
      ],
      [
        "äº",
        "İ"
      ],
      [
        "è",
        "µ"
      ],
      [
        "é",
        "Ģ"
      ],
      [
        "ä¸",
        "Ĭ"
      ],
      [
        "äº",
        "º"
      ],
      [
        "è",
        "´"
      ],
      [
        "å·",
        "Ŀ"
      ],
      [
        "å±",
        "±"
      ],
      [
        "æľ",
        "Ī"
      ],
      [
        "æ",
        "²"
      ],
      [
        "ä¹",
        "ī"
      ],
      [
        "1",
        "5"
      ],
      [
        "ä¸",
        "ī"
      ],
      [
        "å",
        "½"
      ],
      [
        "è",
        "ĥ"
      ],
      [
        "ä¸",
        "į"
      ],
      [
        "å°",
        "Ĩ"
      ],
      [
        "é",
        "ĺ"
      ],
      [
        "åŃ",
        "Ĳ"
      ],
      [
        "ä»",
        "¥"
      ],
      [
        "å",
        "¿"
      ],
      [
        "ç§",
        "Ģ"
      ],
      [
        "å",
        "Į"
      ],
      [
        "åĩ",
        "º"
      ],
      [
        "æľ",
        "ī"
      ],
      [
        "å",
        "¥"
      ],
      [
        "è",
        "¢"
      ],
      [
        "æŃ",
        "£"
      ],
      [
        "âĢ",
        "ľ"
      ],
      [
        "âĢ",
        "Ŀ"
      ],
      [
        "æŃ",
        "¦"
      ],
      [
        "åħ",
        "ĥ"
      ],
      [
        "ä¸",
        "ĭ"
      ],
      [
        "æĶ",
        "¿"
      ],
      [
        "åĲ",
        "į"
      ],
      [
        "ä»",
        "£"
      ],
      [
        "é",
        "Ļ"
      ],
      [
        "å¤",
        "©"
      ],
      [
        "é",
        "ģ"
      ],
      [
        "æ",
        "Ĭ"
      ],
      [
        "ç",
        "Ń"
      ],
      [
        "å",
        "ī"
      ],
      [
        "æĪ",
        "Ĳ"
      ],
      [
        "é",
        "Ĺ"
      ],
      [
        "æľ",
        "¬"
      ],
      [
        "æ",
        "µ"
      ],
      [
        "è",
        "§"
      ],
      [
        "å",
        "²"
      ],
      [
        "åľ",
        "°"
      ],
      [
        "èĢ",
        "Į"
      ],
      [
        "æ",
        "ķ"
      ],
      [
        "æŃ",
        "¤"
      ],
      [
        "åħ",
        "¶"
      ],
      [
        "é",
        "¢"
      ],
      [
        "åĪ",
        "©"
      ],
      [
        "æ",
        "´"
      ],
      [
        "è¢",
        "«"
      ],
      [
        "æ",
        "Ļ"
      ],
      [
        "å",
        "Ĵ"
      ],
      [
        "è",
        "¡"
      ],
      [
        "å",
        "¸"
      ],
      [
        "èĩ",
        "£"
      ],
      [
        "åĴ",
        "Į"
      ],
      [
        "ç",
        "İ"
      ],
      [
        "é",
        "ļ"
      ],
      [
        "ç",
        "º"
      ],
      [
        "è",
        "¾"
      ],
      [
        "åį",
        "ģ"
      ],
      [
        "ç",
        "Ł"
      ],
      [
        "åī",
        "į"
      ],
      [
        "æ",
        "³"
      ],
      [
        "åĲ",
        "ī"
      ],
      [
        "ä¸",
        "»"
      ],
      [
        "è",
        "¶"
      ],
      [
        "æĸ",
        "¹"
      ],
      [
        "ç",
        "«"
      ],
      [
        "æ",
        "±"
      ],
      [
        "ä",
        "¾"
      ],
      [
        "åĨ",
        "ħ"
      ],
      [
        "é¢",
        "Ĩ"
      ],
      [
        "è",
        "°"
      ],
      [
        "åĲ",
        "Į"
      ],
      [
        "è",
        "Ĺ"
      ],
      [
        "å¯",
        "¹"
      ],
      [
        "å®",
        "Ī"
      ],
      [
        "ä»",
        "ĸ"
      ],
      [
        "èĩ",
        "ª"
      ],
      [
        "å¹",
        "¶"
      ],
      [
        "æ",
        "¬"
      ],
      [
        "æ",
        "¯"
      ],
      [
        "æ",
        "Į"
      ],
      [
        "å",
        "ĳ"
      ],
      [
        "éĩ",
        "į"
      ],
      [
        "åİ",
        "Ł"
      ],
      [
        "åĽ",
        "ł"
      ],
      [
        "è¿",
        "Ļ"
      ],
      [
        "å°",
        "ı"
      ],
      [
        "æĿ",
        "¥"
      ],
      [
        "åĪ",
        "°"
      ],
      [
        "åº",
        "·"
      ],
      [
        "ç",
        "¦"
      ],
      [
        "åħ",
        "µ"
      ],
      [
        "æĶ",
        "»"
      ],
      [
        "åĮ",
        "Ĺ"
      ],
      [
        "ã",
        "ģ"
      ],
      [
        "çŃ",
        "ī"
      ],
      [
        "äº",
        "²"
      ],
      [
        "æ",
        "ĭ"
      ],
      [
        "åĬ",
        "Ľ"
      ],
      [
        "å¯",
        "º"
      ],
      [
        "æ",
        "İ"
      ],
      [
        "çĶ",
        "Ł"
      ],
      [
        "äº",
        "Į"
      ],
      [
        "é",
        "«"
      ],
      [
        "æ¬",
        "¡"
      ],
      [
        "é«",
        "ĺ"
      ],
      [
        "æ",
        "¸"
      ],
      [
        "å®",
        "Ĺ"
      ],
      [
        "ç",
        "Ī"
      ],
      [
        "è¡",
        "Į"
      ],
      [
        "ä¿¡",
        "éķ¿"
      ],
      [
        "ä½",
        "ľ"
      ],
      [
        "éĥ",
        "¨"
      ],
      [
        "ä¹",
        "Ł"
      ],
      [
        "é",
        "Ŀ"
      ],
      [
        "éĩ",
        "İ"
      ],
      [
        "ç»",
        "ĩ"
      ],
      [
        "å½",
        "ĵ"
      ],
      [
        "ç",
        "ķ"
      ],
      [
        "åħ",
        "¥"
      ],
      [
        "èĥ",
        "ľ"
      ],
      [
        "æ",
        "Ģ"
      ],
      [
        "ä½",
        "Ĩ"
      ],
      [
        "æĸ",
        "ĩ"
      ],
      [
        "åħ",
        "³"
      ],
      [
        "ç»ĩ",
        "çĶ°"
      ],
      [
        "ç",
        "Ŀ"
      ],
      [
        "æī",
        "Ģ"
      ],
      [
        "ç",
        "Ħ"
      ],
      [
        "è",
        "¦"
      ],
      [
        "å¿",
        "ł"
      ],
      [
        "ä¹",
        "ħ"
      ],
      [
        "è¿",
        "Ľ"
      ],
      [
        "æ",
        "ł"
      ],
      [
        "ä»",
        "»"
      ],
      [
        "å¹",
        "³"
      ],
      [
        "åı",
        "ĳ"
      ],
      [
        "å",
        "¦"
      ],
      [
        "æĿ",
        "¡"
      ],
      [
        "å°",
        "±"
      ],
      [
        "è¦",
        "ģ"
      ],
      [
        "ç«",
        "ĭ"
      ],
      [
        "çŁ",
        "³"
      ],
      [
        "åĲ",
        "ĳ"
      ],
      [
        "ä¸",
        "ľ"
      ],
      [
        "å®",
        "ļ"
      ],
      [
        "çĦ",
        "¶"
      ],
      [
        "æ",
        "ı"
      ],
      [
        "èĩ",
        "³"
      ],
      [
        "æľ",
        "Ŀ"
      ],
      [
        "å¾",
        "·"
      ],
      [
        "æ",
        "ŀ"
      ],
      [
        "ç§Ģ",
        "åĲī"
      ],
      [
        "å²",
        "Ľ"
      ],
      [
        "å",
        "§"
      ],
      [
        "çĶ",
        "±"
      ],
      [
        "å®",
        "ī"
      ],
      [
        "åĬ",
        "¿"
      ],
      [
        "ç»",
        "§"
      ],
      [
        "å¾",
        "Ĺ"
      ],
      [
        "äº",
        "ĭ"
      ],
      [
        "æŃ¦",
        "çĶ°"
      ],
      [
        "çĽ",
        "´"
      ],
      [
        "å¤",
        "ļ"
      ],
      [
        "æ°",
        "¸"
      ],
      [
        "ç",
        "¥"
      ],
      [
        "è",
        "½"
      ],
      [
        "ä¼",
        "Ĭ"
      ],
      [
        "ç",
        "¬"
      ],
      [
        "æĹ¶",
        "ä»£"
      ],
      [
        "æĺ",
        "İ"
      ],
      [
        "æ",
        "ĥ"
      ],
      [
        "ç",
        "ī"
      ],
      [
        "éĥ",
        "½"
      ],
      [
        "ï¼",
        "ļ"
      ],
      [
        "æ",
        "Ħ"
      ],
      [
        "è¯",
        "´"
      ],
      [
        "é",
        "©"
      ],
      [
        "æŃ",
        "»"
      ],
      [
        "æĻ",
        "¯"
      ],
      [
        "æ²",
        "³"
      ],
      [
        "æĿ",
        "¾"
      ],
      [
        "ä¸",
        "°"
      ],
      [
        "è",
        "Ļ"
      ],
      [
        "ç§",
        "°"
      ],
      [
        "èĥ",
        "½"
      ],
      [
        "ä½",
        "į"
      ],
      [
        "æ",
        "Ľ"
      ],
      [
        "çĪ",
        "¶"
      ],
      [
        "ç",
        "¾"
      ],
      [
        "éģ",
        "ĵ"
      ],
      [
        "å",
        "Ŀ"
      ],
      [
        "ãĢ",
        "ĭ"
      ],
      [
        "ãĢ",
        "Ĭ"
      ],
      [
        "æ±",
        "Ł"
      ],
      [
        "å®",
        "ŀ"
      ],
      [
        "æ",
        "į"
      ],
      [
        "äº",
        "Ķ"
      ],
      [
        "ä»",
        "İ"
      ],
      [
        "å",
        "»"
      ],
      [
        "æ²",
        "»"
      ],
      [
        "åº",
        "ľ"
      ],
      [
        "åĩ",
        "»"
      ],
      [
        "åĽ",
        "Ľ"
      ],
      [
        "åı",
        "¯"
      ],
      [
        "å®¶",
        "åº·"
      ],
      [
        "éĹ",
        "´"
      ],
      [
        "åĬ",
        "ł"
      ],
      [
        "äº",
        "ķ"
      ],
      [
        "å",
        "£"
      ],
      [
        "æ´",
        "¥"
      ],
      [
        "ç",
        "ľ"
      ],
      [
        "åı",
        "Ĭ"
      ],
      [
        "èĹ",
        "¤"
      ],
      [
        "è¶",
        "³"
      ],
      [
        "æĿ",
        "ī"
      ],
      [
        "è®",
        "°"
      ],
      [
        "å®¶",
        "èĩ£"
      ],
      [
        "è§",
        "ģ"
      ],
      [
        "èµ",
        "ĸ"
      ],
      [
        "æľ",
        "Ģ"
      ],
      [
        "è",
        "ī"
      ],
      [
        "ä½",
        "Ĳ"
      ],
      [
        "å¾·",
        "å·Ŀ"
      ],
      [
        "ä¸",
        "ĸ"
      ],
      [
        "è¿",
        "ĩ"
      ],
      [
        "éĹ",
        "¨"
      ],
      [
        "åĪ",
        "Ĩ"
      ],
      [
        "å¤©",
        "æŃ£"
      ],
      [
        "è",
        "ģ"
      ],
      [
        "å¼",
        "Ģ"
      ],
      [
        "ç",
        "Ļ"
      ],
      [
        "ç»",
        "ı"
      ],
      [
        "è¿",
        "ĳ"
      ],
      [
        "ä»",
        "Ĭ"
      ],
      [
        "ä¸Ĭ",
        "æĿī"
      ],
      [
        "è",
        "º"
      ],
      [
        "è",
        "¥"
      ],
      [
        "éĺ",
        "µ"
      ],
      [
        "ï¼",
        "Ľ"
      ],
      [
        "çĽ",
        "¸"
      ],
      [
        "é",
        "Ľ"
      ],
      [
        "è¥",
        "¿"
      ],
      [
        "ä¼",
        "Ĺ"
      ],
      [
        "èµ",
        "·"
      ],
      [
        "æľ",
        "Ł"
      ],
      [
        "æ¯",
        "Ľ"
      ],
      [
        "èº",
        "«"
      ],
      [
        "éĢ",
        "ļ"
      ],
      [
        "ä¹ĭ",
        "æĪĺ"
      ],
      [
        "éĿ",
        "¢"
      ],
      [
        "æĿ",
        "ĳ"
      ],
      [
        "ä¸",
        "ª"
      ],
      [
        "åħ",
        "ī"
      ],
      [
        "å¤",
        "ĸ"
      ],
      [
        "åİ",
        "»"
      ],
      [
        "äº",
        "¬"
      ],
      [
        "å¹",
        "ķ"
      ],
      [
        "è¶",
        "Ĭ"
      ],
      [
        "æĹ",
        "ł"
      ],
      [
        "æ¯Ľ",
        "åĪ©"
      ],
      [
        "åĲ",
        "Ī"
      ],
      [
        "ä¸",
        "¤"
      ],
      [
        "æ¸",
        "ħ"
      ],
      [
        "1",
        "6"
      ],
      [
        "è",
        "·"
      ],
      [
        "åĬ",
        "¨"
      ],
      [
        "æĬ",
        "¤"
      ],
      [
        "éĥ",
        "¡"
      ],
      [
        "åĪ",
        "Ļ"
      ],
      [
        "æ³",
        "ķ"
      ],
      [
        "åĳ",
        "½"
      ],
      [
        "å·",
        "²"
      ],
      [
        "æį",
        "®"
      ],
      [
        "éļ",
        "ı"
      ],
      [
        "åľ",
        "Ł"
      ],
      [
        "ç¦",
        "Ħ"
      ],
      [
        "ç",
        "ģ"
      ],
      [
        "æ",
        "Ł"
      ],
      [
        "åħ",
        "Ń"
      ],
      [
        "åĮĹ",
        "æĿ¡"
      ],
      [
        "æī",
        "¿"
      ],
      [
        "æĪ",
        "·"
      ],
      [
        "å¦",
        "Ĥ"
      ],
      [
        "èĢ",
        "ħ"
      ],
      [
        "ä½",
        "¿"
      ],
      [
        "é",
        "¦"
      ],
      [
        "æĮ",
        "ģ"
      ],
      [
        "åı",
        "Ī"
      ],
      [
        "ç¬",
        "¬"
      ],
      [
        "äº",
        "¦"
      ],
      [
        "ä¼",
        "ļ"
      ],
      [
        "æľ",
        "¨"
      ],
      [
        "åħ",
        "«"
      ],
      [
        "åį",
        "«"
      ],
      [
        "åħ",
        "¬"
      ],
      [
        "æĹ",
        "ı"
      ],
      [
        "æ",
        "¡"
      ],
      [
        "å°",
        "¾"
      ],
      [
        "åĽ",
        "ŀ"
      ],
      [
        "æĪĲ",
        "ä¸º"
      ],
      [
        "åº",
        "Ĩ"
      ],
      [
        "ç",
        "®"
      ],
      [
        "æĿ",
        "ĥ"
      ],
      [
        "çĿ",
        "Ģ"
      ],
      [
        "å¹ķ",
        "åºľ"
      ],
      [
        "è",
        "Ĳ"
      ],
      [
        "éĥ",
        "İ"
      ],
      [
        "ä¹",
        "Ŀ"
      ],
      [
        "æĪĺ",
        "åĽ½"
      ],
      [
        "å¼",
        "Ł"
      ],
      [
        "0",
        "0"
      ],
      [
        "æ",
        "ģ"
      ],
      [
        "ä½ľ",
        "ä¸º"
      ],
      [
        "é©",
        "¬"
      ],
      [
        "éļ",
        "Ĩ"
      ],
      [
        "è¾",
        "¾"
      ],
      [
        "å",
        "Ģ"
      ],
      [
        "è¶³",
        "åĪ©"
      ],
      [
        "ä¹",
        "±"
      ],
      [
        "ä»",
        "ĵ"
      ],
      [
        "å¥",
        "½"
      ],
      [
        "å£",
        "«"
      ],
      [
        "ç",
        "¤"
      ],
      [
        "çĶ",
        "¨"
      ],
      [
        "ç",
        "³"
      ],
      [
        "ä¸",
        "ĩ"
      ],
      [
        "è",
        "Ĭ"
      ],
      [
        "æĹ¥",
        "æľ¬"
      ],
      [
        "åį",
        "ĥ"
      ],
      [
        "é",
        "ª"
      ],
      [
        "çİ",
        "°"
      ],
      [
        "åı",
        "Ĺ"
      ],
      [
        "åº",
        "Ķ"
      ],
      [
        "ä¼",
        "ł"
      ],
      [
        "æĸ",
        "°"
      ],
      [
        "å±",
        "ħ"
      ],
      [
        "ç»",
        "Ł"
      ],
      [
        "ç",
        "½"
      ],
      [
        "å",
        "ł"
      ],
      [
        "é",
        "Ĥ"
      ],
      [
        "é",
        "¡"
      ],
      [
        "æ",
        "»"
      ],
      [
        "å¾",
        "¡"
      ],
      [
        "è",
        "İ"
      ],
      [
        "ç³",
        "»"
      ],
      [
        "æ´",
        "¾"
      ],
      [
        "é",
        "¾"
      ],
      [
        "åı",
        "į"
      ],
      [
        "å¤§",
        "åĲį"
      ],
      [
        "è",
        "Ī"
      ],
      [
        "è´",
        "¥"
      ],
      [
        "æĿ",
        "Ģ"
      ],
      [
        "åı",
        "ĸ"
      ],
      [
        "æī",
        "ĭ"
      ],
      [
        "è",
        "Į"
      ],
      [
        "æ",
        "®"
      ],
      [
        "ä»",
        "¤"
      ],
      [
        "çĽ",
        "Ľ"
      ],
      [
        "å¿",
        "ĥ"
      ],
      [
        "ç»",
        "ĵ"
      ],
      [
        "ä¸°",
        "èĩ£"
      ],
      [
        "æĶ",
        "¯"
      ],
      [
        "å¤",
        "ĩ"
      ],
      [
        "è",
        "ĭ"
      ],
      [
        "åħ",
        "Ī"
      ],
      [
        "ä¸",
        "ĥ"
      ],
      [
        "äº",
        "¤"
      ],
      [
        "å¾",
        "Ģ"
      ],
      [
        "çİ",
        "ĩ"
      ],
      [
        "ä¹",
        "¦"
      ],
      [
        "åĨ",
        "į"
      ],
      [
        "éĺ",
        "Ł"
      ],
      [
        "åį",
        "Ĺ"
      ],
      [
        "åĪ",
        "¶"
      ],
      [
        "è¿",
        "ĺ"
      ],
      [
        "è´",
        "º"
      ],
      [
        "çĶ",
        "º"
      ],
      [
        "æĻ",
        "´"
      ],
      [
        "åı",
        "ĭ"
      ],
      [
        "åį",
        "³"
      ],
      [
        "âĢ",
        "Ķ"
      ],
      [
        "å",
        "´"
      ],
      [
        "å¥",
        "³"
      ],
      [
        "å¸",
        "Ĥ"
      ],
      [
        "æ",
        "º"
      ],
      [
        "ä¾",
        "¿"
      ],
      [
        "ç¥",
        "ŀ"
      ],
      [
        "éĢ",
        "Ģ"
      ],
      [
        "åħ",
        "´"
      ],
      [
        "æ°",
        "´"
      ],
      [
        "ç»§",
        "æī¿"
      ],
      [
        "çŁ",
        "¥"
      ],
      [
        "åħ",
        "¨"
      ],
      [
        "å",
        "¢"
      ],
      [
        "å¤",
        "Ħ"
      ],
      [
        "åı",
        "Ĥ"
      ],
      [
        "ç»",
        "Ī"
      ],
      [
        "å°Ĩ",
        "åĨĽ"
      ],
      [
        "å»",
        "º"
      ],
      [
        "ç",
        "¨"
      ],
      [
        "çľ",
        "Ł"
      ],
      [
        "ç",
        "Ĳ"
      ],
      [
        "1",
        "4"
      ],
      [
        "ä¿",
        "Ŀ"
      ],
      [
        "èİ",
        "·"
      ],
      [
        "åĬ",
        "Ł"
      ],
      [
        "æĦ",
        "ı"
      ],
      [
        "å·",
        "ŀ"
      ],
      [
        "15",
        "8"
      ],
      [
        "æ",
        "¶"
      ],
      [
        "æĪ",
        "ĳ"
      ],
      [
        "æµ",
        "ģ"
      ],
      [
        "å®Ī",
        "æĬ¤"
      ],
      [
        "æĽ",
        "¾"
      ],
      [
        "ç",
        "Ĥ"
      ],
      [
        "å¥",
        "ī"
      ],
      [
        "ç»ĩçĶ°",
        "ä¿¡éķ¿"
      ],
      [
        "çº",
        "²"
      ],
      [
        "çĿ",
        "£"
      ],
      [
        "ç»",
        "Ļ"
      ],
      [
        "ç»",
        "Ĩ"
      ],
      [
        "æľ",
        "ª"
      ],
      [
        "æµ",
        "ĵ"
      ],
      [
        "ç¾",
        "½"
      ],
      [
        "æ²",
        "¡"
      ],
      [
        "15",
        "7"
      ],
      [
        "æ",
        "·"
      ],
      [
        "ç",
        "ł"
      ],
      [
        "æķ",
        "Į"
      ],
      [
        "å¾",
        "ģ"
      ],
      [
        "ã",
        "Ĥ"
      ],
      [
        "æİ",
        "¥"
      ],
      [
        "å",
        "ģ"
      ],
      [
        "å®",
        "¤"
      ],
      [
        "æĹ",
        "©"
      ],
      [
        "åº",
        "¦"
      ],
      [
        "åİ",
        "Ĩ"
      ],
      [
        "çļ",
        "ĩ"
      ],
      [
        "åį",
        "´"
      ],
      [
        "è®",
        "¤"
      ],
      [
        "æĶ",
        "¹"
      ],
      [
        "äº¬",
        "éĥ½"
      ],
      [
        "å§",
        "ĭ"
      ],
      [
        "å®",
        "«"
      ],
      [
        "çĶ",
        "²"
      ],
      [
        "è",
        "į"
      ],
      [
        "ç",
        "ĭ"
      ],
      [
        "å¤",
        "ª"
      ],
      [
        "èĹ",
        "©"
      ],
      [
        "æ°¸",
        "ç¦Ħ"
      ],
      [
        "å±±",
        "åŁİ"
      ],
      [
        "èĻ",
        "İ"
      ],
      [
        "æµ",
        "·"
      ],
      [
        "éĩ",
        "Į"
      ],
      [
        "ä»",
        "¬"
      ],
      [
        "å¹",
        "¿"
      ],
      [
        "å",
        "ĸ"
      ],
      [
        "åı",
        "²"
      ],
      [
        "çŃ",
        "ĳ"
      ],
      [
        "å·",
        "¦"
      ],
      [
        "éĻ",
        "¢"
      ],
      [
        "åĿ",
        "Ĥ"
      ],
      [
        "åĪ",
        "Ŀ"
      ],
      [
        "ç»",
        "Ń"
      ],
      [
        "æ",
        "Ĵ"
      ],
      [
        "æĭ",
        "ħ"
      ],
      [
        "å®",
        "ĺ"
      ],
      [
        "æķ",
        "Ļ"
      ],
      [
        "é",
        "ĵ"
      ],
      [
        "å¤©",
        "æĸĩ"
      ],
      [
        "ç»Ĩ",
        "å·Ŀ"
      ],
      [
        "å",
        "ĵ"
      ],
      [
        "å¸",
        "¸"
      ],
      [
        "æ",
        "¦"
      ],
      [
        "å",
        "Ħ"
      ],
      [
        "è´",
        "ŀ"
      ],
      [
        "æ³",
        "¢"
      ],
      [
        "è",
        "±"
      ],
      [
        "æı",
        "´"
      ],
      [
        "æŃ¦",
        "å°Ĩ"
      ],
      [
        "ä¸",
        "¸"
      ],
      [
        "15",
        "6"
      ],
      [
        "çī",
        "©"
      ],
      [
        "å·",
        "±"
      ],
      [
        "æĮ",
        "ĩ"
      ],
      [
        "åĬ¿",
        "åĬĽ"
      ],
      [
        "ä»Ĭ",
        "å·Ŀ"
      ],
      [
        "å",
        "«"
      ],
      [
        "å®¶",
        "çĿ£"
      ],
      [
        "çİ",
        "Ħ"
      ],
      [
        "è°",
        "·"
      ],
      [
        "é",
        "Ķ"
      ],
      [
        "èī",
        "¯"
      ],
      [
        "å¼",
        "ł"
      ],
      [
        "æī",
        "ĵ"
      ],
      [
        "è",
        "Ĥ"
      ],
      [
        "è¶³åĪ©",
        "ä¹ī"
      ],
      [
        "ç¾",
        "İ"
      ],
      [
        "è¾",
        "ī"
      ],
      [
        "è¿",
        "ľ"
      ],
      [
        "åĬ",
        "©"
      ],
      [
        "èĻ",
        "½"
      ],
      [
        "å²Ľ",
        "æ´¥"
      ],
      [
        "åı",
        "ª"
      ],
      [
        "1",
        "0"
      ],
      [
        "æĪĺåĽ½",
        "æĹ¶ä»£"
      ],
      [
        "å¾·å·Ŀ",
        "å®¶åº·"
      ],
      [
        "åľ",
        "º"
      ],
      [
        "æ",
        "¨"
      ],
      [
        "çĲ",
        "Ĩ"
      ],
      [
        "å",
        "ĭ"
      ],
      [
        "æĪ",
        "ĸ"
      ],
      [
        "è®",
        "©"
      ],
      [
        "è¿",
        "ŀ"
      ],
      [
        "é¢Ĩ",
        "åľ°"
      ],
      [
        "çĻ",
        "¾"
      ],
      [
        "åĨ",
        "Ī"
      ],
      [
        "æº",
        "Ĳ"
      ],
      [
        "åºĨ",
        "éķ¿"
      ],
      [
        "åĽ",
        "´"
      ],
      [
        "æ±Ł",
        "æĪ·"
      ],
      [
        "åĦ",
        "¿"
      ],
      [
        "äº",
        "ī"
      ],
      [
        "ç",
        "¼"
      ],
      [
        "æ¦",
        "Ĥ"
      ],
      [
        "é¦",
        "ĸ"
      ],
      [
        "äº",
        "¡"
      ],
      [
        "èģ",
        "Į"
      ],
      [
        "åı",
        "£"
      ],
      [
        "å´",
        "İ"
      ],
      [
        "è¯",
        "¸"
      ],
      [
        "æ»",
        "¡"
      ],
      [
        "ç§",
        "į"
      ],
      [
        "æĪ",
        "¿"
      ],
      [
        "ç",
        "Ĭ"
      ],
      [
        "åħ",
        "»"
      ],
      [
        "äº",
        "Ī"
      ],
      [
        "æ±",
        "Ĥ"
      ],
      [
        "èģ",
        "Ķ"
      ],
      [
        "åı",
        "ĺ"
      ],
      [
        "åı",
        "¤"
      ],
      [
        "åı",
        "³"
      ],
      [
        "æ",
        "ĳ"
      ],
      [
        "é",
        "£"
      ],
      [
        "æĢ",
        "»"
      ],
      [
        "åĨ",
        "³"
      ],
      [
        "1",
        "2"
      ],
      [
        "è·",
        "¯"
      ],
      [
        "èĩª",
        "å·±"
      ],
      [
        "å±",
        "ŀ"
      ],
      [
        "åħ",
        "Ħ"
      ],
      [
        "çĦ¶",
        "èĢĮ"
      ],
      [
        "ç",
        "Į"
      ],
      [
        "çķ",
        "Ļ"
      ],
      [
        "éģ",
        "Ĥ"
      ],
      [
        "å±",
        "ĭ"
      ],
      [
        "æĺ",
        "Į"
      ],
      [
        "å¹",
        "¸"
      ],
      [
        "è",
        "¨"
      ],
      [
        "è½",
        "¬"
      ],
      [
        "è¯",
        "·"
      ],
      [
        "å²",
        "ģ"
      ],
      [
        "èĢ",
        "ģ"
      ],
      [
        "é",
        "ħ"
      ],
      [
        "æķ",
        "°"
      ],
      [
        "å¤",
        "±"
      ],
      [
        "å½ĵ",
        "æĹ¶"
      ],
      [
        "èĲ",
        "½"
      ],
      [
        "æŁ",
        "´"
      ],
      [
        "ç",
        "ª"
      ],
      [
        "ä»",
        "ħ"
      ],
      [
        "å¤",
        "´"
      ],
      [
        "éĢ",
        "ĥ"
      ],
      [
        "é",
        "»"
      ],
      [
        "æĶ",
        "¶"
      ],
      [
        "åĮ",
        "ĸ"
      ],
      [
        "å¼",
        "º"
      ],
      [
        "éĻ",
        "·"
      ],
      [
        "è®",
        "¨"
      ],
      [
        "è½",
        "½"
      ],
      [
        "éģ",
        "Ń"
      ],
      [
        "åĮ",
        "ħ"
      ],
      [
        "æ¦Ĥ",
        "è¦ģ"
      ],
      [
        "1",
        "1"
      ],
      [
        "æ",
        "£"
      ],
      [
        "å¼",
        "ĺ"
      ],
      [
        "ä»",
        "į"
      ],
      [
        "å¼Ģ",
        "å§ĭ"
      ],
      [
        "ä¿¡",
        "çİĦ"
      ],
      [
        "åĲ",
        "Ħ"
      ],
      [
        "ç®",
        "¡"
      ],
      [
        "æĭħ",
        "ä»»"
      ],
      [
        "ç",
        "¡"
      ],
      [
        "ä¸ī",
        "å¥½"
      ],
      [
        "æł",
        "·"
      ],
      [
        "åŁ",
        "º"
      ],
      [
        "å°",
        "ģ"
      ],
      [
        "èĹ",
        "ı"
      ],
      [
        "ä¸",
        "¾"
      ],
      [
        "è¡",
        "¨"
      ],
      [
        "è¨",
        "Ģ"
      ],
      [
        "å°",
        "¼"
      ],
      [
        "å½",
        "¢"
      ],
      [
        "ä¼",
        "Ĳ"
      ],
      [
        "åħ³",
        "ä¸ľ"
      ],
      [
        "éĻ",
        "į"
      ],
      [
        "çĪ¶",
        "äº²"
      ],
      [
        "1",
        "3"
      ],
      [
        "å½",
        "Ĵ"
      ],
      [
        "åİ",
        "¿"
      ],
      [
        "äºĮ",
        "åįģ"
      ],
      [
        "åħ",
        "¼"
      ],
      [
        "ç",
        "©"
      ],
      [
        "å¤§",
        "åıĭ"
      ],
      [
        "å¤§",
        "åĨħ"
      ],
      [
        "æĬ",
        "ķ"
      ],
      [
        "éĺ",
        "²"
      ],
      [
        "é¾",
        "Ļ"
      ],
      [
        "éĤ",
        "£"
      ],
      [
        "åŃ",
        "ĺ"
      ],
      [
        "æı",
        "Ĳ"
      ],
      [
        "è§",
        "Ĩ"
      ],
      [
        "çķ",
        "¥"
      ],
      [
        "èµ",
        "Ĳ"
      ],
      [
        "å®",
        "ĩ"
      ],
      [
        "èĬ",
        "±"
      ],
      [
        "å½",
        "¹"
      ],
      [
        "åĮ",
        "º"
      ],
      [
        "éĢ",
        "ł"
      ],
      [
        "æł",
        "¹"
      ],
[...]
