{
  "version": "1.0",
  "truncation": null,
  "padding": null,
  "added_tokens": [
    {
      "id": 0,
      "content": "<|endoftext|>",
      "single_word": false,
      "lstrip": false,
      "rstrip": false,
      "normalized": false,
      "special": true
    },
    {
      "id": 1,
      "content": "<|im_end|>",
      "single_word": false,
      "lstrip": false,
      "rstrip": false,
      "normalized": false,
      "special": true
    },
    {
      "id": 2,
      "content": "<|im_system|>",
      "single_word": false,
      "lstrip": false,
      "rstrip": false,
      "normalized": false,
      "special": true
    },
    {
      "id": 3,
      "content": "<|im_user|>",
      "single_word": false,
      "lstrip": false,
      "rstrip": false,
      "normalized": false,
      "special": true
    },
    {
      "id": 4,
      "content": "<|im_assistant|>",
      "single_word": false,
      "lstrip": false,
      "rstrip": false,
      "normalized": false,
      "special": true
    }
  ],
  "normalizer": null,
  "pre_tokenizer": {
    "type": "Sequence",
    "pretokenizers": [
      {
        "type": "Whitespace"
      },
      {
        "type": "Punctuation",
        "behavior": "Isolated"
      },
      {
        "type": "ByteLevel",
        "add_prefix_space": false,
        "trim_offsets": true,
        "use_regex": true
      }
    ]
  },
  "post_processor": {
    "type": "ByteLevel",
    "add_prefix_space": true,
    "trim_offsets": false,
    "use_regex": true
  },
  "decoder": {
    "type": "ByteLevel",
    "add_prefix_space": true,
    "trim_offsets": true,
    "use_regex": true
  },
  "model": {
    "type": "BPE",
    "dropout": null,
    "unk_token": null,
    "continuing_subword_prefix": null,
    "end_of_word_suffix": null,
    "fuse_unk": false,
    "byte_fallback": false,
    "ignore_merges": false,
    "vocab": {
      "<|endoftext|>": 0,
      "<|im_end|>": 1,
      "<|im_system|>": 2,
      "<|im_user|>": 3,
      "<|im_assistant|>": 4,
      "!": 5,
      "\"": 6,
      "#": 7,
      "$": 8,
      "%": 9,
      "&": 10,
      "'": 11,
      "(": 12,
      ")": 13,
      "*": 14,
      "+": 15,
      ",": 16,
      "-": 17,
      ".": 18,
      "/": 19,
      "0": 20,
      "1": 21,
      "2": 22,
      "3": 23,
      "4": 24,
      "5": 25,
      "6": 26,
      "7": 27,
      "8": 28,
      "9": 29,
      ":": 30,
      ";": 31,
      "<": 32,
      "=": 33,
      ">": 34,
      "?": 35,
      "@": 36,
      "A": 37,
      "B": 38,
      "C": 39,
      "D": 40,
      "E": 41,
      "F": 42,
      "G": 43,
      "H": 44,
      "I": 45,
      "J": 46,
      "K": 47,
      "L": 48,
      "M": 49,
      "N": 50,
      "O": 51,
      "P": 52,
      "Q": 53,
      "R": 54,
      "S": 55,
      "T": 56,
      "U": 57,
      "V": 58,
      "W": 59,
      "X": 60,
      "Y": 61,
      "Z": 62,
      "[": 63,
      "\\": 64,
      "]": 65,
      "^": 66,
      "_": 67,
      "`": 68,
      "a": 69,
      "b": 70,
      "c": 71,
      "d": 72,
      "e": 73,
      "f": 74,
      "g": 75,
      "h": 76,
      "i": 77,
      "j": 78,
      "k": 79,
      "l": 80,
      "m": 81,
      "n": 82,
      "o": 83,
      "p": 84,
      "q": 85,
      "r": 86,
      "s": 87,
      "t": 88,
      "u": 89,
      "v": 90,
      "w": 91,
      "x": 92,
      "y": 93,
      "z": 94,
      "{": 95,
      "|": 96,
      "}": 97,
      "~": 98,
      "¡": 99,
      "¢": 100,
      "£": 101,
      "¤": 102,
      "¥": 103,
      "¦": 104,
      "§": 105,
      "¨": 106,
      "©": 107,
      "ª": 108,
      "«": 109,
      "¬": 110,
      "®": 111,
      "¯": 112,
      "°": 113,
      "±": 114,
      "²": 115,
      "³": 116,
      "´": 117,
      "µ": 118,
      "¶": 119,
      "·": 120,
      "¸": 121,
      "¹": 122,
      "º": 123,
      "»": 124,
      "¼": 125,
      "½": 126,
      "¾": 127,
      "¿": 128,
      "À": 129,
      "Á": 130,
      "Â": 131,
      "Ã": 132,
      "Ä": 133,
      "Å": 134,
      "Æ": 135,
      "Ç": 136,
      "È": 137,
      "É": 138,
      "Ê": 139,
      "Ë": 140,
      "Ì": 141,
      "Í": 142,
      "Î": 143,
      "Ï": 144,
      "Ð": 145,
      "Ñ": 146,
      "Ò": 147,
      "Ó": 148,
      "Ô": 149,
      "Õ": 150,
      "Ö": 151,
      "×": 152,
      "Ø": 153,
      "Ù": 154,
      "Ú": 155,
      "Û": 156,
      "Ü": 157,
      "Ý": 158,
      "Þ": 159,
      "ß": 160,
      "à": 161,
      "á": 162,
      "â": 163,
      "ã": 164,
      "ä": 165,
      "å": 166,
      "æ": 167,
      "ç": 168,
      "è": 169,
      "é": 170,
      "ê": 171,
      "ë": 172,
      "ì": 173,
      "í": 174,
      "î": 175,
      "ï": 176,
      "ð": 177,
      "ñ": 178,
      "ò": 179,
      "ó": 180,
      "ô": 181,
      "õ": 182,
      "ö": 183,
      "÷": 184,
      "ø": 185,
      "ù": 186,
      "ú": 187,
      "û": 188,
      "ü": 189,
      "ý": 190,
      "þ": 191,
      "ÿ": 192,
      "Ā": 193,
      "ā": 194,
      "Ă": 195,
      "ă": 196,
      "Ą": 197,
      "ą": 198,
      "Ć": 199,
      "ć": 200,
      "Ĉ": 201,
      "ĉ": 202,
      "Ċ": 203,
      "ċ": 204,
      "Č": 205,
      "č": 206,
      "Ď": 207,
      "ď": 208,
      "Đ": 209,
      "đ": 210,
      "Ē": 211,
      "ē": 212,
      "Ĕ": 213,
      "ĕ": 214,
      "Ė": 215,
      "ė": 216,
      "Ę": 217,
      "ę": 218,
      "Ě": 219,
      "ě": 220,
      "Ĝ": 221,
      "ĝ": 222,
      "Ğ": 223,
      "ğ": 224,
      "Ġ": 225,
      "ġ": 226,
      "Ģ": 227,
      "ģ": 228,
      "Ĥ": 229,
      "ĥ": 230,
      "Ħ": 231,
      "ħ": 232,
      "Ĩ": 233,
      "ĩ": 234,
      "Ī": 235,
      "ī": 236,
      "Ĭ": 237,
      "ĭ": 238,
      "Į": 239,
      "į": 240,
      "İ": 241,
      "ı": 242,
      "Ĳ": 243,
      "ĳ": 244,
      "Ĵ": 245,
      "ĵ": 246,
      "Ķ": 247,
      "ķ": 248,
      "ĸ": 249,
      "Ĺ": 250,
      "ĺ": 251,
      "Ļ": 252,
      "ļ": 253,
      "Ľ": 254,
      "ľ": 255,
      "Ŀ": 256,
      "ŀ": 257,
      "Ł": 258,
      "ł": 259,
      "Ń": 260,
      "ï¼": 261,
      "ä¸": 262,
      "ï¼Į": 263,
      "ãĢ": 264,
      "äº": 265,
      "çļ": 266,
      "çļĦ": 267,
      "å®": 268,
      "ãĢĤ": 269,
      "åħ": 270,
      "åĲ": 271,
      "ä¹": 272,
      "ä»": 273,
      "å¹": 274,
      "æľ": 275,
      "å¤": 276,
      "åı": 277,
      "çĶ": 278,
      "æĹ": 279,
      "å¹´": 280,
      "æĪ": 281,
      "åľ": 282,
      "æŃ": 283,
      "åĽ": 284,
      "å°": 285,
      "åĪ": 286,
      "åĨ": 287,
      "è¿": 288,
      "ç»": 289,
      "æĿ": 290,
      "å®¶": 291,
      "æ°": 292,
      "æĺ": 293,
      "ä½": 294,
      "åį": 295,
      "ä¸º": 296,
      "ï¼Ī": 297,
      "ï¼ī": 298,
      "åĬ": 299,
      "âĢ": 300,
      "æĶ": 301,
      "ä¿": 302,
      "ãĢģ": 303,
      "åŁ": 304,
      "å·": 305,
      "æĸ": 306,
      "ä¸Ģ": 307,
      "ä¹ĭ": 308,
      "éķ": 309,
      "èĩ": 310,
      "åº": 311,
      "åľ¨": 312,
      "çĶ°": 313,
      "å±": 314,
      "åŁİ": 315,
      "åĲİ": 316,
      "å¤§": 317,
      "æ°ı": 318,
      "ç§": 319,
      "éķ¿": 320,
      "å¾": 321,
      "ä¼": 322,
      "ä¿¡": 323,
      "å¯": 324,
      "æĪĺ": 325,
      "åĩ": 326,
      "åŃ": 327,
      "éĩ": 328,
      "åĨĽ": 329,
      "åĽ½": 330,
      "æĺ¯": 331,
      "æī": 332,
      "å¼": 333,
      "éĥ": 334,
      "æĹ¶": 335,
      "è¯": 336,
      "äºĨ": 337,
      "è®": 338,
      "ä¸İ": 339,
      "çĽ": 340,
      "èĢ": 341,
      "åİ": 342,
      "æĹ¥": 343,
      "ä¸Ń": 344,
      "äºİ": 345,
      "èµ": 346,
      "éĢ": 347,
      "ä¸Ĭ": 348,
      "äºº": 349,
      "è´": 350,
      "å·Ŀ": 351,
      "å±±": 352,
      "æľĪ": 353,
      "æ²": 354,
      "ä¹ī": 355,
      "15": 356,
      "ä¸ī": 357,
      "å½": 358,
      "èĥ": 359,
      "ä¸į": 360,
      "å°Ĩ": 361,
      "éĺ": 362,
      "åŃĲ": 363,
      "ä»¥": 364,
      "å¿": 365,
      "ç§Ģ": 366,
      "åĮ": 367,
      "åĩº": 368,
      "æľī": 369,
      "å¥": 370,
      "è¢": 371,
      "æŃ£": 372,
      "âĢľ": 373,
      "âĢĿ": 374,
      "æŃ¦": 375,
      "åħĥ": 376,
      "ä¸ĭ": 377,
      "æĶ¿": 378,
      "åĲį": 379,
      "ä»£": 380,
      "éĻ": 381,
      "å¤©": 382,
      "éģ": 383,
      "æĬ": 384,
      "çŃ": 385,
      "åī": 386,
      "æĪĲ": 387,
      "éĹ": 388,
      "æľ¬": 389,
      "æµ": 390,
      "è§": 391,
      "å²": 392,
      "åľ°": 393,
      "èĢĮ": 394,
      "æķ": 395,
      "æŃ¤": 396,
      "åħ¶": 397,
      "é¢": 398,
      "åĪ©": 399,
      "æ´": 400,
      "è¢«": 401,
      "æĻ": 402,
      "åĴ": 403,
      "è¡": 404,
      "å¸": 405,
      "èĩ£": 406,
      "åĴĮ": 407,
      "çİ": 408,
      "éļ": 409,
      "çº": 410,
      "è¾": 411,
      "åįģ": 412,
      "çŁ": 413,
      "åīį": 414,
      "æ³": 415,
      "åĲī": 416,
      "ä¸»": 417,
      "è¶": 418,
      "æĸ¹": 419,
      "ç«": 420,
      "æ±": 421,
      "ä¾": 422,
      "åĨħ": 423,
      "é¢Ĩ": 424,
      "è°": 425,
      "åĲĮ": 426,
      "èĹ": 427,
      "å¯¹": 428,
      "å®Ī": 429,
      "ä»ĸ": 430,
      "èĩª": 431,
      "å¹¶": 432,
      "æ¬": 433,
      "æ¯": 434,
      "æĮ": 435,
      "åĳ": 436,
      "éĩį": 437,
      "åİŁ": 438,
      "åĽł": 439,
      "è¿Ļ": 440,
      "å°ı": 441,
      "æĿ¥": 442,
      "åĪ°": 443,
      "åº·": 444,
      "ç¦": 445,
      "åħµ": 446,
      "æĶ»": 447,
      "åĮĹ": 448,
      "ãģ": 449,
      "çŃī": 450,
      "äº²": 451,
      "æĭ": 452,
      "åĬĽ": 453,
      "å¯º": 454,
      "æİ": 455,
      "çĶŁ": 456,
      "äºĮ": 457,
      "é«": 458,
      "æ¬¡": 459,
      "é«ĺ": 460,
      "æ¸": 461,
      "å®Ĺ": 462,
      "çĪ": 463,
      "è¡Į": 464,
      "ä½ľ": 465,
      "éĥ¨": 466,
      "ä¹Ł": 467,
      "éĿ": 468,
      "éĩİ": 469,
      "ç»ĩ": 470,
      "å½ĵ": 471,
      "çķ": 472,
      "åħ¥": 473,
      "èĥľ": 474,
      "æĢ": 475,
      "ä½Ĩ": 476,
      "æĸĩ": 477,
      "åħ³": 478,
      "çĿ": 479,
      "æīĢ": 480,
      "çĦ": 481,
      "è¦": 482,
      "å¿ł": 483,
      "ä¹ħ": 484,
      "è¿Ľ": 485,
      "æł": 486,
      "ä»»": 487,
      "å¹³": 488,
      "ç»ĩçĶ°": 489,
      "åıĳ": 490,
      "å¦": 491,
      "æĿ¡": 492,
      "å°±": 493,
      "è¦ģ": 494,
      "ç«ĭ": 495,
      "çŁ³": 496,
      "åĲĳ": 497,
      "ä¸ľ": 498,
      "å®ļ": 499,
      "çĦ¶": 500,
      "æı": 501,
      "èĩ³": 502,
      "æľĿ": 503,
      "å¾·": 504,
      "æŀ": 505,
      "å²Ľ": 506,
      "å§": 507,
      "çĶ±": 508,
      "å®ī": 509,
      "åĬ¿": 510,
      "ç»§": 511,
      "å¾Ĺ": 512,
      "ç§ĢåĲī": 513,
      "äºĭ": 514,
      "çĽ´": 515,
      "å¤ļ": 516,
      "æ°¸": 517,
      "ç¥": 518,
      "è½": 519,
      "æŃ¦çĶ°": 520,
      "ä¿¡éķ¿": 521,
      "ä¼Ĭ": 522,
      "ç¬": 523,
      "æĹ¶ä»£": 524,
      "æĺİ": 525,
      "æĥ": 526,
      "çī": 527,
      "éĥ½": 528,
      "ï¼ļ": 529,
      "æĦ": 530,
      "è¯´": 531,
      "é©": 532,
      "æŃ»": 533,
      "æĻ¯": 534,
      "æ²³": 535,
      "æĿ¾": 536,
      "ä¸°": 537,
      "èĻ": 538,
      "ç§°": 539,
      "èĥ½": 540,
      "ä½į": 541,
      "æĽ": 542,
      "çĪ¶": 543,
      "ç¾": 544,
      "éģĵ": 545,
      "åĿ": 546,
      "ãĢĭ": 547,
      "ãĢĬ": 548,
      "æ±Ł": 549,
      "å®ŀ": 550,
      "æį": 551,
      "äºĶ": 552,
      "ä»İ": 553,
      "å»": 554,
      "æ²»": 555,
      "åºľ": 556,
      "åĩ»": 557,
      "åĽĽ": 558,
      "åı¯": 559,
      "å®¶åº·": 560,
      "éĹ´": 561,
      "åĬł": 562,
      "äºķ": 563,
      "å£": 564,
      "æ´¥": 565,
      "çľ": 566,
      "åıĬ": 567,
      "èĹ¤": 568,
      "è¶³": 569,
      "æĿī": 570,
      "è®°": 571,
      "è§ģ": 572,
      "èµĸ": 573,
      "æľĢ": 574,
      "èī": 575,
      "ä½Ĳ": 576,
      "ä¸ĸ": 577,
      "è¿ĩ": 578,
      "éĹ¨": 579,
      "åĪĨ": 580,
      "èģ": 581,
      "å¤©æŃ£": 582,
      "å¼Ģ": 583,
      "çĻ": 584,
      "ç»ı": 585,
      "è¿ĳ": 586,
      "ä»Ĭ": 587,
      "èº": 588,
      "è¥": 589,
      "éĺµ": 590,
      "ï¼Ľ": 591,
      "å®¶èĩ£": 592,
      "çĽ¸": 593,
      "éĽ": 594,
      "ä¸ĬæĿī": 595,
      "è¥¿": 596,
      "ä¼Ĺ": 597,
      "èµ·": 598,
      "æľŁ": 599,
      "æ¯Ľ": 600,
      "èº«": 601,
      "éĢļ": 602,
      "éĿ¢": 603,
      "æĿĳ": 604,
      "ä¸ª": 605,
      "åħī": 606,
      "å¤ĸ": 607,
      "åİ»": 608,
      "äº¬": 609,
      "å¹ķ": 610,
      "è¶Ĭ": 611,
      "æĹł": 612,
      "æ¯ĽåĪ©": 613,
      "åĲĪ": 614,
      "ä¸¤": 615,
      "æ¸ħ": 616,
      "16": 617,
      "è·": 618,
      "åĬ¨": 619,
      "æĬ¤": 620,
      "éĥ¡": 621,
      "åĪĻ": 622,
      "æ³ķ": 623,
      "åĳ½": 624,
      "å·²": 625,
      "æį®": 626,
      "éļı": 627,
      "åľŁ": 628,
      "ç¦Ħ": 629,
      "çģ": 630,
      "æŁ": 631,
      "åħŃ": 632,
      "æī¿": 633,
      "åĮĹæĿ¡": 634,
      "æĪ·": 635,
      "å¦Ĥ": 636,
      "èĢħ": 637,
      "ä½¿": 638,
      "é¦": 639,
      "æĮģ": 640,
      "åıĪ": 641,
      "ç¬¬": 642,
      "äº¦": 643,
      "ä¼ļ": 644,
      "æľ¨": 645,
      "åħ«": 646,
      "åį«": 647,
      "åħ¬": 648,
      "æĹı": 649,
      "æ¡": 650,
      "å°¾": 651,
      "æĪĲä¸º": 652,
      "åĽŀ": 653,
      "åºĨ": 654,
      "ç®": 655,
      "æĿĥ": 656,
      "çĿĢ": 657,
      "å¹ķåºľ": 658,
      "èĲ": 659,
      "éĥİ": 660,
      "ä¹Ŀ": 661,
      "å¼Ł": 662,
      "00": 663,
      "æĪĺåĽ½": 664,
      "æģ": 665,
      "ä½ľä¸º": 666,
      "é©¬": 667,
      "éļĨ": 668,
      "è¾¾": 669,
      "åĢ": 670,
      "ä¹±": 671,
      "ä»ĵ": 672,
      "å¥½": 673,
      "å£«": 674,
      "ç¤": 675,
      "çĶ¨": 676,
      "ç³": 677,
      "ä¸ĩ": 678,
      "ä¹ĭæĪĺ": 679,
      "èĬ": 680,
      "æĹ¥æľ¬": 681,
      "åįĥ": 682,
      "éª": 683,
      "çİ°": 684,
      "åıĹ": 685,
      "åºĶ": 686,
      "ä¼ł": 687,
      "æĸ°": 688,
      "å±ħ": 689,
      "ç»Ł": 690,
      "ç½": 691,
      "åł": 692,
      "éĤ": 693,
      "é¡": 694,
      "æ»": 695,
      "å¾¡": 696,
      "èİ": 697,
      "ç³»": 698,
      "æ´¾": 699,
      "é¾": 700,
      "åıį": 701,
      "èĪ": 702,
      "è´¥": 703,
      "æĿĢ": 704,
      "åıĸ": 705,
      "æīĭ": 706,
      "èĮ": 707,
      "æ®": 708,
      "ä»¤": 709,
      "çĽĽ": 710,
      "å¿ĥ": 711,
      "å¤§åĲį": 712,
      "ç»ĵ": 713,
      "æĶ¯": 714,
      "ä¸°èĩ£": 715,
      "å¤ĩ": 716,
      "èĭ": 717,
      "åħĪ": 718,
      "ä¸ĥ": 719,
      "äº¤": 720,
      "å¾Ģ": 721,
      "çİĩ": 722,
      "ä¹¦": 723,
      "åĨį": 724,
      "éĺŁ": 725,
      "åįĹ": 726,
      "åĪ¶": 727,
      "è¿ĺ": 728,
      "è´º": 729,
      "çĶº": 730,
      "æĻ´": 731,
      "åıĭ": 732,
      "åį³": 733,
      "âĢĶ": 734,
      "å´": 735,
      "å¥³": 736,
      "å¸Ĥ": 737,
      "æº": 738,
      "ä¾¿": 739,
      "ç¥ŀ": 740,
      "è¶³åĪ©": 741,
      "éĢĢ": 742,
      "åħ´": 743,
      "æ°´": 744,
      "ç»§æī¿": 745,
      "çŁ¥": 746,
      "åħ¨": 747,
      "å¢": 748,
      "å¤Ħ": 749,
      "åıĤ": 750,
      "ç»Ī": 751,
      "å°ĨåĨĽ": 752,
      "å»º": 753,
      "ç¨": 754,
      "çľŁ": 755,
      "çĲ": 756,
      "14": 757,
      "ä¿Ŀ": 758,
      "èİ·": 759,
      "åĬŁ": 760,
      "æĦı": 761,
      "å·ŀ": 762,
      "158": 763,
      "æ¶": 764,
      "æĪĳ": 765,
      "æµģ": 766,
      "æĽ¾": 767,
      "çĤ": 768,
      "å®ĪæĬ¤": 769,
      "å¥ī": 770,
      "ç»ĩçĶ°ä¿¡éķ¿": 771,
      "çº²": 772,
      "çĿ£": 773,
      "ç»Ļ": 774,
      "ç»Ĩ": 775,
      "æľª": 776,
      "æµĵ": 777,
      "ç¾½": 778,
      "æ²¡": 779,
      "157": 780,
      "æ·": 781,
      "çł": 782,
      "æķĮ": 783,
      "å¾ģ": 784,
      "å¾·å·Ŀ": 785,
      "ãĤ": 786,
      "æİ¥": 787,
      "åģ": 788,
      "å®¤": 789,
      "æĹ©": 790,
      "åº¦": 791,
      "åİĨ": 792,
      "çļĩ": 793,
      "åį´": 794,
      "è®¤": 795,
      "æĶ¹": 796,
      "å§ĭ": 797,
      "å®«": 798,
      "çĶ²": 799,
      "èį": 800,
      "çĭ": 801,
      "äº¬éĥ½": 802,
      "å¤ª": 803,
      "èĹ©": 804,
      "æ°¸ç¦Ħ": 805,
      "èĻİ": 806,
      "æµ·": 807,
      "éĩĮ": 808,
      "ä»¬": 809,
      "å¹¿": 810,
      "åĸ": 811,
      "åı²": 812,
      "çŃĳ": 813,
      "å·¦": 814,
      "éĻ¢": 815,
      "åĿĤ": 816,
      "åĪĿ": 817,
      "ç»Ń": 818,
      "æĴ": 819,
      "æĭħ": 820,
      "å®ĺ": 821,
      "æķĻ": 822,
      "éĵ": 823,
      "å¤©æĸĩ": 824,
      "åĵ": 825,
      "å¸¸": 826,
      "æ¦": 827,
      "åĦ": 828,
      "ç»Ĩå·Ŀ": 829,
      "è´ŀ": 830,
      "æ³¢": 831,
      "è±": 832,
      "æı´": 833,
      "æŃ¦å°Ĩ": 834,
      "ä¸¸": 835,
      "156": 836,
      "çī©": 837,
      "å·±": 838,
      "æĮĩ": 839,
      "åĬ¿åĬĽ": 840,
      "å«": 841,
      "çİĦ": 842,
      "è°·": 843,
      "éĶ": 844,
      "å±±åŁİ": 845,
      "èī¯": 846,
      "å¼ł": 847,
      "æīĵ": 848,
      "èĤ": 849,
      "ç¾İ": 850,
      "è¾ī": 851,
      "è¿ľ": 852,
      "åĬ©": 853,
      "èĻ½": 854,
      "å²Ľæ´¥": 855,
      "åıª": 856,
      "10": 857,
      "å·Ŀå®¶åº·": 858,
      "æĪĺåĽ½æĹ¶ä»£": 859,
      "åľº": 860,
      "æ¨": 861,
      "çĲĨ": 862,
      "åĭ": 863,
      "æĪĸ": 864,
      "è®©": 865,
      "è¿ŀ": 866,
      "çĻ¾": 867,
      "åĨĪ": 868,
      "æºĲ": 869,
      "åĽ´": 870,
      "é¢Ĩåľ°": 871,
      "åºĨéķ¿": 872,
      "åĦ¿": 873,
      "æ±ŁæĪ·": 874,
      "äºī": 875,
      "ç¼": 876,
      "æ¦Ĥ": 877,
      "é¦ĸ": 878,
      "äº¡": 879,
      "èģĮ": 880,
      "å®¶çĿ£": 881,
      "åı£": 882,
      "å´İ": 883,
      "è¯¸": 884,
      "æ»¡": 885,
      "ç§į": 886,
      "ä»Ĭå·Ŀ": 887,
      "æĪ¿": 888,
      "çĬ": 889,
      "åħ»": 890,
      "äºĪ": 891,
      "æ±Ĥ": 892,
      "èģĶ": 893,
      "åıĺ": 894,
      "åı¤": 895,
      "åı³": 896,
      "æĳ": 897,
      "é£": 898,
      "æĢ»": 899,
      "åĨ³": 900,
      "12": 901,
      "è·¯": 902,
      "èĩªå·±": 903,
      "å±ŀ": 904,
      "åħĦ": 905,
      "çĦ¶èĢĮ": 906,
      "çĮ": 907,
      "çķĻ": 908,
      "éģĤ": 909,
      "å±ĭ": 910,
      "æĺĮ": 911,
      "å¹¸": 912,
      "è¨": 913,
      "è½¬": 914,
      "è¯·": 915,
      "å²ģ": 916,
      "èĢģ": 917,
      "éħ": 918,
      "æķ°": 919,
      "å¤±": 920,
      "å½ĵæĹ¶": 921,
      "èĲ½": 922,
      "æŁ´": 923,
      "çª": 924,
      "ä»ħ": 925,
      "å¤´": 926,
      "éĢĥ": 927,
      "é»": 928,
      "æĶ¶": 929,
      "åĮĸ": 930,
      "å¼º": 931,
      "éĻ·": 932,
      "è®¨": 933,
      "è½½": 934,
      "éģŃ": 935,
      "åĮħ": 936,
      "æ¦Ĥè¦ģ": 937,
      "11": 938,
      "æ£": 939,
      "å¼ĺ": 940,
      "ä»į": 941,
      "å¼Ģå§ĭ": 942,
      "åĲĦ": 943,
      "ç®¡": 944,
      "ç¡": 945,
      "æĭħä»»": 946,
      "æł·": 947,
      "åŁº": 948,
      "å°ģ": 949,
      "èĹı": 950,
      "ä¸¾": 951,
      "è¡¨": 952,
      "è¶³åĪ©ä¹ī": 953,
      "è¨Ģ": 954,
      "å°¼": 955,
      "å½¢": 956,
      "ä¼Ĳ": 957,
      "éĻį": 958,
      "çĪ¶äº²": 959,
      "13": 960,
      "å½Ĵ": 961,
      "åİ¿": 962,
      "äºĮåįģ": 963,
      "åħ¼": 964,
      "ç©": 965,
      "åħ³ä¸ľ": 966,
      "æĬķ": 967,
      "éĺ²": 968,
      "é¾Ļ": 969,
      "éĤ£": 970,
      "åŃĺ": 971,
      "æıĲ": 972,
      "è§Ĩ": 973,
      "çķ¥": 974,
      "èµĲ": 975,
      "å®ĩ": 976,
      "èĬ±": 977,
      "å½¹": 978,
      "åĮº": 979,
      "éĢł": 980,
      "æł¹": 981,
      "æĺ¥": 982,
      "åı¦": 983,
      "åĲĮå¹´": 984,
      "çİĭ": 985,
      "åİ»ä¸ĸ": 986,
      "è£": 987,
      "è®®": 988,
      "èĳ": 989,
      "åħĥå¹´": 990,
      "159": 991,
      "è¾¹": 992,
      "æĺ¾": 993,
      "æĶ¾": 994,
      "æľį": 995,
      "éĩĳ": 996,
      "çĹ": 997,
      "ä»ķ": 998,
      "è®¤ä¸º": 999,
      "èĩ´": 1000,
      "è°¦": 1001,
      "æĥħ": 1002,
      "æĽ´": 1003,
      "åĽ¾": 1004,
      "æµħ": 1005,
      "ä¹ĭåĲİ": 1006,
      "ä½ĵ": 1007,
      "å°ĳ": 1008,
      "å¤©çļĩ": 1009,
      "æļ": 1010,
      "æĬĹ": 1011,
      "åĥ": 1012,
      "å¸¦": 1013,
      "å«¡": 1014,
      "ç¦ı": 1015,
      "å¤į": 1016,
      "éķĩ": 1017,
      "æĸĭ": 1018,
      "èĭ¥": 1019,
      "å¼ı": 1020,
      "æ®¿": 1021,
      "å¯Į": 1022,
      "çģŃ": 1023,
      "ç±": 1024,
      "åĪ«": 1025,
      "åĽłä¸º": 1026,
      "çĻ½": 1027,
      "çĤ¹": 1028,
      "è°¦ä¿¡": 1029,
      "åĽłæŃ¤": 1030,
      "ä½Ļ": 1031,
      "çĥ": 1032,
      "ç«¹": 1033,
      "ãĥ": 1034,
      "å¸ĥ": 1035,
      "çĶ·": 1036,
      "æ¯į": 1037,
      "æĪĺæŃ»": 1038,
      "åı·": 1039,
      "ä¹ĭåŃĲ": 1040,
      "Â·": 1041,
      "å¤º": 1042,
      "çªģ": 1043,
      "åĲİæĿ¥": 1044,
      "è§Ĵ": 1045,
      "éľ": 1046,
      "ç¿": 1047,
      "æ±ł": 1048,
      "æľº": 1049,
      "æ¿": 1050,
      "è¿ĽæĶ»": 1051,
      "äº«": 1052,
      "åºĦ": 1053,
      "éĻĨ": 1054,
      "ç¦»": 1055,
      "æ²¡æľī": 1056,
      "ç¤¾": 1057,
      "155": 1058,
      "éĽĨ": 1059,
      "å¨": 1060,
      "ä¸Ķ": 1061,
      "å¤§åĨħ": 1062,
      "æĻº": 1063,
      "æĸŃ": 1064,
      "è¯¥": 1065,
      "è¯Ń": 1066,
      "æĹ§": 1067,
      "è´Ł": 1068,
      "è§£": 1069,
      "çº¦": 1070,
      "ä¸īå¥½": 1071,
      "éº": 1072,
      "å°¼åŃĲ": 1073,
      "å¤§åıĭ": 1074,
      "æĤ": 1075,
      "ä»½": 1076,
      "æīį": 1077,
      "çĽ®": 1078,
      "æĦ¿": 1079,
      "éĺ¿": 1080,
      "æĸ¹éĿ¢": 1081,
      "è¢Ń": 1082,
      "æĺŃ": 1083,
      "ç²": 1084,
      "çģ«": 1085,
      "åħ³ç³»": 1086,
      "å±ķ": 1087,
      "æŃ¦çĶ°ä¿¡": 1088,
      "å²©": 1089,
      "æŀģ": 1090,
      "å§ĵ": 1091,
      "æŀľ": 1092,
      "ãĢį": 1093,
      "ãĢĮ": 1094,
      "æĬĬ": 1095,
      "ä¾µ": 1096,
      "çĽŁ": 1097,
      "è´£": 1098,
      "åŃĻ": 1099,
      "ä¹¡": 1100,
      "æŃ¦å£«": 1101,
      "ä¼Ĭè¾¾": 1102,
      "æŃ¤æĹ¶": 1103,
      "éĻ¤": 1104,
      "é»ĳ": 1105,
      "åŃĿ": 1106,
      "è°ĭ": 1107,
      "æ´»": 1108,
      "åħ±": 1109,
      "è®°è½½": 1110,
      "éĿŀ": 1111,
      "ç¡®": 1112,
      "åĳ¨": 1113,
      "èµĦ": 1114,
      "æĥ³": 1115,
      "ä¸¹": 1116,
      "æ¯Ķ": 1117,
      "äºĽ": 1118,
      "åŃĹ": 1119,
      "ä¸°èĩ£ç§ĢåĲī": 1120,
      "æ°ĳ": 1121,
      "äºĳ": 1122,
      "æĢ§": 1123,
      "æķħ": 1124,
      "19": 1125,
      "æ·±": 1126,
      "åĲĮæĹ¶": 1127,
      "åĸľ": 1128,
      "åĬ¡": 1129,
      "ä¸īæ²³": 1130,
      "åĲĪæĪĺ": 1131,
      "éªı": 1132,
      "é¹": 1133,
      "è¿½": 1134,
      "åıĽ": 1135,
      "éķ°": 1136,
      "çķł": 1137,
      "èĦ": 1138,
      "é¥": 1139,
      "çĹħ": 1140,
      "çĬ¶": 1141,
      "æıĨ": 1142,
      "ä¸Ģä¸ª": 1143,
      "ä¸īå¹´": 1144,
      "è®¾": 1145,
      "å°½": 1146,
      "ä¸ĢæıĨ": 1147,
      "äºĮå¹´": 1148,
      "çºª": 1149,
      "è®¸": 1150,
      "ä»¶": 1151,
      "æĸĻ": 1152,
      "18": 1153,
      "çľĭ": 1154,
      "äºİæĺ¯": 1155,
      "å°ļ": 1156,
      "çĸ": 1157,
      "å¥¥": 1158,
      "éļ¾": 1159,
      "å½ĵä¸»": 1160,
      "ç»Ŀ": 1161,
      "æĸĲ": 1162,
      "ä½Ĩæĺ¯": 1163,
      "éĢĲ": 1164,
      "èµ¤": 1165,
      "ä¸ĢåĲĮ": 1166,
      "çł´": 1167,
      "å¢ŀ": 1168,
      "é¾Ł": 1169,
      "ç¾İæµĵ": 1170,
      "æĸĹ": 1171,
      "æİ¨": 1172,
      "è¿Ľåħ¥": 1173,
      "ä¹ĭä¹±": 1174,
      "éĩįèĩ£": 1175,
      "ä½ı": 1176,
      "åŁİä¸»": 1177,
      "å¸Ī": 1178,
      "éĴ": 1179,
      "åŃ¦": 1180,
      "å¾Ī": 1181,
      "ä»¥åıĬ": 1182,
      "å®Į": 1183,
      "æĺĵ": 1184,
      "154": 1185,
      "æľĢç»Ī": 1186,
      "åķ": 1187,
      "åįĬ": 1188,
      "ä¿®": 1189,
      "èī²": 1190,
      "çĶ²æĸĲ": 1191,
      "åŀ": 1192,
      "åīįå¾Ģ": 1193,
      "å²Ĳ": 1194,
      "è®¡": 1195,
      "ä¾į": 1196,
      "é²": 1197,
      "ç¹": 1198,
      "ç¤º": 1199,
      "èĮĤ": 1200,
      "å¤§åĿĤ": 1201,
      "æ³½": 1202,
      "æ¢": 1203,
      "ç´": 1204,
      "å°ıçĶ°": 1205,
      "å¿Ĺ": 1206,
      "æĿ¾å¹³": 1207,
      "ä¼ĬåĬ¿": 1208,
      "æµ¦": 1209,
      "èº«ä»½": 1210,
      "å¯¼": 1211,
      "ç§ĭ": 1212,
      "å¼ķ": 1213,
      "ä¾Ŀ": 1214,
      "éĻĦ": 1215,
      "æŃ¤åĲİ": 1216,
      "éĻħ": 1217,
      "å°±æĺ¯": 1218,
      "æĴ¤": 1219,
      "çĶ±äºİ": 1220,
      "æ´Ľ": 1221,
      "å¦»": 1222,
      "éģĹ": 1223,
      "åĪĢ": 1224,
      "æĬµ": 1225,
      "æĹ¶æľŁ": 1226,
      "è´¤": 1227,
      "åĩºåħµ": 1228,
      "ä¸įè¿ĩ": 1229,
      "å®īåľŁ": 1230,
      "å»¶": 1231,
      "é¡»": 1232,
      "ç¹ģ": 1233,
      "éĹ®": 1234,
      "åĲĽ": 1235,
      "åĪĩ": 1236,
      "å®½": 1237,
      "æĭ¥": 1238,
      "èīº": 1239,
      "æ£®": 1240,
      "é¸": 1241,
      "ç½®": 1242,
      "é£İ": 1243,
      "æĶ»åĩ»": 1244,
      "èĪ¹": 1245,
      "ä¼ı": 1246,
      "ä¸ļ": 1247,
      "æĹĹ": 1248,
      "åĽ¢": 1249,
      "éģ£": 1250,
      "éĽĦ": 1251,
      "åħ·": 1252,
      "è¿Ķ": 1253,
      "æµħäºķ": 1254,
      "åħīç§Ģ": 1255,
      "éļıåĲİ": 1256,
      "è¿Ľè¡Į": 1257,
      "åĳĺ": 1258,
      "å¤«": 1259,
      "ä¹Ŀå·ŀ": 1260,
      "20": 1261,
      "ä»ĸä»¬": 1262,
      "ç¥ĸ": 1263,
      "é¦Ĩ": 1264,
      "æľĽ": 1265,
      "åłĤ": 1266,
      "æ¡¥": 1267,
      "éªĳ": 1268,
      "ä¹ĭä¸Ģ": 1269,
      "ï¼Ł": 1270,
      "åħ³åİŁ": 1271,
      "è¿ĳæ±Ł": 1272,
      "ä»ĭ": 1273,
      "åħ»åŃĲ": 1274,
      "éĹ»": 1275,
      "æ¸¡": 1276,
      "è¿İ": 1277,
      "åĽ½äºº": 1278,
      "éĢģ": 1279,
      "çĽĬ": 1280,
      "è¿Ĳ": 1281,
      "éķ¿å°¾": 1282,
      "å±Ģ": 1283,
      "ä¸ºäºĨ": 1284,
      "åĳĬ": 1285,
      "æĸĭèĹ¤": 1286,
      "èĥĮ": 1287,
      "å®ª": 1288,
      "ä¾§": 1289,
      "èĮ¶": 1290,
      "çŃĸ": 1291,
      "éħį": 1292,
      "è±ª": 1293,
      "æĬ¥": 1294,
      "åį«éĹ¨": 1295,
      "åĩĨ": 1296,
      "æĦŁ": 1297,
      "éĵģ": 1298,
      "èµ°": 1299,
      "è½»": 1300,
      "èĤ¥": 1301,
      "åħ¬æĸ¹": 1302,
      "é²ľ": 1303,
      "åľ°åĮº": 1304,
      "è´¨": 1305,
      "éļĲ": 1306,
      "éī": 1307,
      "ä»ģ": 1308,
      "åĨ²": 1309,
      "åıĮ": 1310,
      "éĩı": 1311,
      "æĶ¯æĮģ": 1312,
      "èı": 1313,
      "åįł": 1314,
      "17": 1315,
      "æ¡ĥ": 1316,
      "æ¶Ī": 1317,
      "å·¦åį«éĹ¨": 1318,
      "çħ": 1319,
      "éī´": 1320,
      "æ³ī": 1321,
      "æŀª": 1322,
      "ç»Łæ²»": 1323,
      "å¤ľ": 1324,
      "çº³": 1325,
      "èħ": 1326,
      "è¯¦": 1327,
      "æĪĺåĲİ": 1328,
      "æĸ¯": 1329,
      "æ¨¡": 1330,
      "å¥īè¡Į": 1331,
      "è¿«": 1332,
      "æľ«": 1333,
      "å³": 1334,
      "å½ķ": 1335,
      "æĶ¿æĿĥ": 1336,
      "åĪĹ": 1337,
      "è§Ĥ": 1338,
      "é¡º": 1339,
      "è´Łè´£": 1340,
      "ä¸īæĪĲ": 1341,
      "å·²ç»ı": 1342,
      "åĦ¿åŃĲ": 1343,
      "åĵį": 1344,
      "ç¿Į": 1345,
      "æŃ¤å¤ĸ": 1346,
      "å®£": 1347,
      "æķ´": 1348,
      "å½±": 1349,
      "è°±": 1350,
      "æĹ¥è¯Ń": 1351,
      "æľĿé²ľ": 1352,
      "çº¿": 1353,
      "äººçī©": 1354,
      "å¾ħ": 1355,
      "çĪ¶åŃĲ": 1356,
      "ç§»": 1357,
      "æľĢåĲİ": 1358,
      "å¤§å°Ĩ": 1359,
      "çĻ»": 1360,
      "ãĥ»": 1361,
      "å·¥": 1362,
      "åı¯èĥ½": 1363,
      "çİĩé¢Ĩ": 1364,
      "å©": 1365,
      "åĮħåĽ´": 1366,
      "è¿ĻäºĽ": 1367,
      "çī¹": 1368,
      "ç§°ä¸º": 1369,
      "ä¹Ī": 1370,
      "çľŁçĶ°": 1371,
      "æŃ¦çĶ°å®¶": 1372,
      "æĺİæĻº": 1373,
      "æ¾": 1374,
      "ç±³": 1375,
      "æŃ¥": 1376,
      "éĢļè¿ĩ": 1377,
      "éĩįè¦ģ": 1378,
      "åĽĽå¹´": 1379,
      "åłĢ": 1380,
      "åĭĩ": 1381,
      "è¾ħ": 1382,
      "ãģ®": 1383,
      "åıĳçĶŁ": 1384,
      "åĩł": 1385,
      "å¹¡": 1386,
      "å«¡åŃĲ": 1387,
      "æŀĹ": 1388,
      "åįģä¸Ģ": 1389,
      "åİĭ": 1390,
      "åĢĴ": 1391,
      "åĨĽäºĭ": 1392,
      "å¿ħ": 1393,
      "000": 1394,
      "ä¸¥": 1395,
      "ä¹Ĳ": 1396,
      "åĳ½ä»¤": 1397,
      "åķĨ": 1398,
      "ä½ķ": 1399,
      "æŃ¢": 1400,
      "çļĨ": 1401,
      "ä¹ĭéĹ´": 1402,
      "é©»": 1403,
      "è¿Ļä¸ª": 1404,
      "å¤©ä¸ĭ": 1405,
      "ä¹ĥ": 1406,
      "èĲ¥": 1407,
      "åıĤä¸İ": 1408,
      "æľĿä»ĵ": 1409,
      "éĶĭ": 1410,
      "è§Ħ": 1411,
      "å®³": 1412,
      "ä¸Ĭéĩİ": 1413,
      "è°ĥ": 1414,
      "æľ¯": 1415,
      "å¨ģ": 1416,
      "åĶ": 1417,
      "æĳĦ": 1418,
      "èĥľèµĸ": 1419,
      "å°Ĭ": 1420,
      "åı³åį«": 1421,
      "æĶ¿å®Ĺ": 1422,
      "å¾ģä¼Ĳ": 1423,
      "æ¼": 1424,
      "çº§": 1425,
      "è®¨ä¼Ĳ": 1426,
      "çĨ": 1427,
      "çĪ±": 1428,
      "ä¿Ĭ": 1429,
      "çĭ¬": 1430,
      "ä¸ŃåĽ½": 1431,
      "æ°Ķ": 1432,
      "å¹¼": 1433,
      "åı¶": 1434,
      "çĪĨ": 1435,
      "åģļ": 1436,
      "ç®¡é¢Ĩ": 1437,
      "åľ°æĸ¹": 1438,
      "é¢Ĩä¸»": 1439,
      "åħµåĬĽ": 1440,
      "153": 1441,
      "æĹ©å·Ŀ": 1442,
      "çħ§": 1443,
      "æ¶¯": 1444,
      "åħŃè§Ĵ": 1445,
      "åħ¶ä¸Ń": 1446,
      "çĶŁæ¶¯": 1447,
      "éĽª": 1448,
      "çº·": 1449,
      "ä»¥åĲİ": 1450,
      "æİ§": 1451,
      "ç»ĩçĶ°å®¶": 1452,
      "èĳĹ": 1453,
      "æĮ¥": 1454,
      "æŃ¦çĶ°æ°ı": 1455,
      "åĨ³å®ļ": 1456,
      "çĶļ": 1457,
      "æŀĦ": 1458,
      "å®īåľŁæ¡ĥ": 1459,
      "æ¾Ħ": 1460,
      "è¥¿åĨĽ": 1461,
      "èĥ¤": 1462,
      "å¢ĥ": 1463,
      "äºĶå¹´": 1464,
      "ä¹ĺ": 1465,
      "åº§": 1466,
      "å°ıæĹ©å·Ŀ": 1467,
      "çĪĨåıĳ": 1468,
      "æĸĩä¹¦": 1469,
      "æĬķéĻį": 1470,
      "æī©": 1471,
      "ä¸Ĭæ´Ľ": 1472,
      "é¢ĺ": 1473,
      "æ°¸æŃ£": 1474,
      "åĪĴ": 1475,
      "å»·": 1476,
      "æħ": 1477,
      "éķ¿æĶ¿": 1478,
      "åħį": 1479,
      "ä¸ĢæĹı": 1480,
      "åĩºçİ°": 1481,
      "åĽº": 1482,
      "éĨ": 1483,
      "åıĤåĬł": 1484,
      "åĢĻ": 1485,
      "å¡": 1486,
      "è¿°": 1487,
      "æİĮ": 1488,
      "åĺ": 1489,
      "è®º": 1490,
      "ä¸ĩçŁ³": 1491,
      "èĮĥ": 1492,
      "æĶ¿æ²»": 1493,
      "éķ°ä»ĵ": 1494,
      "èĻ½çĦ¶": 1495,
      "ä¿¡çİĦ": 1496,
      "è¿¹": 1497,
      "åħĦå¼Ł": 1498,
      "éªıæ²³": 1499,
      "ä»»åĳ½": 1500,
      "äº§": 1501,
      "æģ¯": 1502,
      "ç¤¼": 1503,
      "èĴ": 1504,
      "æł¼": 1505,
      "å¾ĹåĪ°": 1506,
      "åĿļ": 1507,
      "åĨµ": 1508,
      "æīĢä»¥": 1509,
      "åİĨåı²": 1510,
      "ç¬ł": 1511,
      "ç»Ħ": 1512,
      "ç£": 1513,
      "åı¸": 1514,
      "æ¿Ģ": 1515,
      "160": 1516,
      "çĭŃ": 1517,
      "å¼ĥ": 1518,
      "æĸĩç¦Ħ": 1519,
      "æ¸Ĳ": 1520,
      "åı°": 1521,
      "éĥ¨éĺŁ": 1522,
      "ä¸ĢåĲĳ": 1523,
      "æľĿå»·": 1524,
      "çĤ®": 1525,
      "å®Ŀ": 1526,
      "ä¼¤": 1527,
      "åĩºçĶŁ": 1528,
      "å§¬": 1529,
      "é¸Ł": 1530,
      "æŁ´ç§ĢåĲī": 1531,
      "åĸĦ": 1532,
      "éĥ¨åĪĨ": 1533,
      "è·Ł": 1534,
      "æĻ¯èĥľ": 1535,
      "èª": 1536,
      "æŃ¦çĶ°åĨĽ": 1537,
      "åįģäºĮ": 1538,
      "è¯´æ³ķ": 1539,
      "åı²æĸĻ": 1540,
      "æĸ½": 1541,
      "èİ·å¾Ĺ": 1542,
      "æ¨ª": 1543,
      "è®¿": 1544,
      "æĢģ": 1545,
      "å®¶æĹı": 1546,
      "ä»Ĭå·Ŀæ°ı": 1547,
      "åĨĻ": 1548,
      "è¯ģ": 1549,
      "åįı": 1550,
      "éĢĶ": 1551,
      "æ³°": 1552,
      "å¯¹ç«ĭ": 1553,
      "éĢŁ": 1554,
      "è¯Ŀ": 1555,
      "ä¾ĭ": 1556,
      "åĥ§": 1557,
      "æ²¼": 1558,
      "ä½ľæĪĺ": 1559,
      "å¯Ĩ": 1560,
      "æļĹ": 1561,
      "çĮ®": 1562,
      "æĶ»æīĵ": 1563,
      "ä½Ľ": 1564,
      "éĺª": 1565,
      "èĥľå®¶": 1566,
      "å¼Ĥ": 1567,
      "æĸ©": 1568,
      "æī§": 1569,
      "éķ¿å®Ĺ": 1570,
      "èµı": 1571,
      "åīįçĶ°": 1572,
      "æĪĺæĸĹ": 1573,
      "ç»§ç»Ń": 1574,
      "äº¤æĪĺ": 1575,
      "äº«å¹´": 1576,
      "éĢĿ": 1577,
      "åĬĿ": 1578,
      "ç¬¬ä¸Ģ": 1579,
      "åĹ": 1580,
      "é»ĳçĶ°": 1581,
      "è§Ĩä¸º": 1582,
      "åı¬": 1583,
      "å¼¥": 1584,
      "åĽŃ": 1585,
      "ä¸įè¯¦": 1586,
      "åĪĽ": 1587,
      "æķĳ": 1588,
      "æľŁéĹ´": 1589,
      "å®ħ": 1590,
      "å®īèīº": 1591,
      "æĪĲåĬŁ": 1592,
      "åĥı": 1593,
      "ç®Ĺ": 1594,
      "äºĭä»¶": 1595,
      "åľ°ä½į": 1596,
      "æĹłæ³ķ": 1597,
      "åĩºèº«": 1598,
      "éħĴ": 1599,
      "éķ¿åŃĲ": 1600,
      "åħµåį«": 1601,
      "åĨįæ¬¡": 1602,
      "æĢ¥": 1603,
      "å¤§åĨĽ": 1604,
      "è§ī": 1605,
      "åı¯ä»¥": 1606,
      "å²³": 1607,
      "èĪ¬": 1608,
      "ç¨ĭ": 1609,
      "ä»ĺ": 1610,
      "å¹³å®ļ": 1611,
      "åįĴ": 1612,
      "æ´¾éģ£": 1613,
      "åĢŁ": 1614,
      "åıĳåĬ¨": 1615,
      "æľ¬æĦ¿": 1616,
      "åıĮæĸ¹": 1617,
      "å¼Łå¼Ł": 1618,
      "æŁ´çĶ°": 1619,
      "æĲ": 1620,
      "è°Ī": 1621,
      "åĪ»": 1622,
      "æĶ»éĻ·": 1623,
      "å½±åĵį": 1624,
      "åĬłè´º": 1625,
      "ä½įäºİ": 1626,
      "æ¿ĳ": 1627,
      "æĴŃ": 1628,
      "ä¹İ": 1629,
      "çŁ³çĶ°": 1630,
      "ä¸´": 1631,
      "æŃĮ": 1632,
      "åĲīå·Ŀ": 1633,
      "çķª": 1634,
      "è¿ĶåĽŀ": 1635,
      "å¤§éĺª": 1636,
      "ç§Ģå¿ł": 1637,
      "éĻ¶": 1638,
      "æ¬¡åŃĲ": 1639,
      "æĴ¤éĢĢ": 1640,
      "å£°": 1641,
      "ä¼¼": 1642,
      "ç»´": 1643,
      "çģŃäº¡": 1644,
      "æ®µ": 1645,
      "æĳ©": 1646,
      "åħĥé¾Ł": 1647,
      "åį°": 1648,
      "ä»ķäºİ": 1649,
      "å¾Ĵ": 1650,
      "åĲĮçĽŁ": 1651,
      "éĿł": 1652,
      "ç¦ģ": 1653,
      "åĹ£": 1654,
      "å±ħåŁİ": 1655,
      "æľ¬èĥ½": 1656,
      "åıĹåĪ°": 1657,
      "ä¸»è¦ģ": 1658,
      "éĩĩ": 1659,
      "æı´åĨĽ": 1660,
      "ç»Łä¸Ģ": 1661,
      "æľ¬èĥ½å¯º": 1662,
      "ç£¨": 1663,
      "ä¸ĢçĽ´": 1664,
      "ä¹ĭåıĺ": 1665,
      "åĲ¬": 1666,
      "çĮĽ": 1667,
      "ä¸įä¹ħ": 1668,
      "è¯·æ±Ĥ": 1669,
      "æĺİæĻºåħīç§Ģ": 1670,
      "çĸĳ": 1671,
      "åĬłåħ¥": 1672,
      "éģŃåĪ°": 1673,
      "1582": 1674,
      "è´µ": 1675,
      "ä½ł": 1676,
      "è¶ĬåĲİ": 1677,
      "¾ä¸ĭ": 1678,
      "éŁ": 1679,
      "éº¾ä¸ĭ": 1680,
      "ä¾Ľ": 1681,
      "åĨľ": 1682,
      "ç¿Įå¹´": 1683,
      "æ¬²": 1684,
      "æ°ıåº·": 1685,
      "ç»ĵæŀľ": 1686,
      "è¿Ļæł·": 1687,
      "å¯¹æĬĹ": 1688,
      "æĪĺäºī": 1689,
      "åĨĽéĺŁ": 1690,
      "æŁ³": 1691,
      "èħ¹": 1692,
      "è·ĥ": 1693,
      "ï¼ģ": 1694,
      "å¹´éĹ´": 1695,
      "æµİ": 1696,
      "å¦¹": 1697,
      "åģľ": 1698,
      "è±ªæĹı": 1699,
      "éļĲå±ħ": 1700,
      "æĵ": 1701,
      "èĴ²": 1702,
      "åħŃå¹´": 1703,
      "ä¸ľåĨĽ": 1704,
      "ç¬¬äºĮ": 1705,
      "æĭ¬": 1706,
      "è¿ģ": 1707,
      "çķ¿": 1708,
      "åħ±åĲĮ": 1709,
      "æĶ¹åĲį": 1710,
      "è¶Ĭåīį": 1711,
      "æ¸¸": 1712,
      "é¹¿": 1713,
      "å°ıçĶ°åİŁ": 1714,
      "éķ¿åºĨ": 1715,
      "å±±åĨħ": 1716,
      "å¥Ī": 1717,
      "é¥Ń": 1718,
      "æĹ¶éĹ´": 1719,
      "åĪ©å®¶": 1720,
      "åħ³äºİ": 1721,
      "éĺ³": 1722,
      "æĸ¯æ³¢": 1723,
      "éģĩ": 1724,
      "åįĹéĥ¨": 1725,
      "æĳĦæ´¥": 1726,
      "æĿĤ": 1727,
      "é¾ĻéĢł": 1728,
      "è¦ģæ±Ĥ": 1729,
      "çľ¼": 1730,
      "å®¿": 1731,
      "æŃ¦èĹı": 1732,
      "åĩ»è´¥": 1733,
      "åĺī": 1734,
      "æİĪ": 1735,
      "ç¥ŀç¤¾": 1736,
      "æ¥": 1737,
      "èģĶåĨĽ": 1738,
      "å®ĩéĥ½": 1739,
      "æİ§åĪ¶": 1740,
      "ä½¿çĶ¨": 1741,
      "å¥³åĦ¿": 1742,
      "æĥŁ": 1743,
      "ä¸»åĲĽ": 1744,
      "å¿«": 1745,
      "å¥ĭ": 1746,
      "æ¼Ķ": 1747,
      "èįĴ": 1748,
      "æ²³åĨħ": 1749,
      "åĪ¤": 1750,
      "æŃ£å¼ı": 1751,
      "ç©¶": 1752,
      "å®¹": 1753,
      "çī§": 1754,
      "ç¥Ĳ": 1755,
      "åħ«æľĪ": 1756,
      "æĿŁ": 1757,
      "åĩĨå¤ĩ": 1758,
      "åĵģ": 1759,
      "åĮħæĭ¬": 1760,
      "æ»¨": 1761,
      "è¯¹": 1762,
      "éĵģçĤ®": 1763,
      "å²¸": 1764,
      "åĪĿæľŁ": 1765,
      "åĻ": 1766,
      "åħĪéĶĭ": 1767,
      "æ°´åĨĽ": 1768,
      "è¶ģ": 1769,
      "ä¼¯": 1770,
      "å®ĩéĥ½å®«": 1771,
      "è¿ľæ±Ł": 1772,
      "152": 1773,
      "ä¸Ģæĸ¹éĿ¢": 1774,
      "åħ¶åŃĲ": 1775,
      "åŃĺåľ¨": 1776,
      "æĪĺåĬŁ": 1777,
      "è¿ĺæĺ¯": 1778,
      "è¯Ħ": 1779,
      "èį£": 1780,
      "èµŀ": 1781,
      "è±¡": 1782,
      "å¯¼èĩ´": 1783,
      "å°ıç¬ł": 1784,
      "ä¼ĳ": 1785,
      "æĸĩåĮĸ": 1786,
      "èĭ±": 1787,
      "åĩºéĺµ": 1788,
      "åħ¶ä»ĸ": 1789,
      "ä¹ĭéĺµ": 1790,
      "ä¹ĭéĻħ": 1791,
      "æĢĴ": 1792,
      "é¦Ļ": 1793,
      "åįģå¹´": 1794,
      "å°Ħ": 1795,
      "æĻ¯èĻİ": 1796,
      "ç²¾": 1797,
      "èµ¤æĿ¾": 1798,
      "æĭĴ": 1799,
      "ä¸īäºº": 1800,
      "åħĥäº²": 1801,
      "å±Ĥ": 1802,
      "è´¯": 1803,
      "åħ«å¹´": 1804,
      "èµ´": 1805,
      "çĥĪ": 1806,
      "åįİ": 1807,
      "éĢļç§°": 1808,
      "æķĪ": 1809,
      "å®ŀéĻħ": 1810,
      "åı¤æ²³": 1811,
      "éļĨæĻ¯": 1812,
      "ç«ĭèĬ±": 1813,
      "ä½¿èĢħ": 1814,
      "æĹ¶åĢĻ": 1815,
      "äº²èĩª": 1816,
      "æĿĳä¸Ĭ": 1817,
      "ä¹ĿæľĪ": 1818,
      "ä¼ĺ": 1819,
      "æ¯ģ": 1820,
      "ä¸ĥå¹´": 1821,
      "åĸľå¤ļ": 1822,
      "ç¨»": 1823,
      "æĮĩæĮ¥": 1824,
      "æ··": 1825,
      "èģĶåĲĪ": 1826,
      "ç¢": 1827,
      "èįī": 1828,
      "å±ķå¼Ģ": 1829,
      "æł¹æį®": 1830,
      "çº¯": 1831,
      "ä¸īæľĪ": 1832,
      "ç§¯": 1833,
      "è¡ĮåĬ¨": 1834,
      "äººè´¨": 1835,
      "åĬłèĹ¤": 1836,
      "èĬĤ": 1837,
      "åħļ": 1838,
      "æ¤": 1839,
      "åħŃæľĪ": 1840,
      "1600": 1841,
      "äºĶæľĪ": 1842,
      "è±Ĩ": 1843,
      "åŃ£": 1844,
      "ä¸īéĥİ": 1845,
      "å¦ĤæŃ¤": 1846,
      "çĶ±æŃ¤": 1847,
      "ç¼ĸ": 1848,
      "å«ģ": 1849,
      "ä¸ĥæľĪ": 1850,
      "åħĦéķ¿": 1851,
      "è´¸": 1852,
      "æĻ´ä¿¡": 1853,
      "èĲ¨": 1854,
      "ç²®": 1855,
      "ä½Ĳç«¹": 1856,
      "æĻļ": 1857,
      "åºķ": 1858,
      "æºĥ": 1859,
      "æĪĺåľº": 1860,
      "å°¾å¼ł": 1861,
      "çĽĳ": 1862,
      "çķĮ": 1863,
      "å¼¹": 1864,
      "ä¸Ģåº¦": 1865,
      "å¼ĵ": 1866,
      "å¦Ļ": 1867,
      "ï¼į": 1868,
      "è®°å½ķ": 1869,
      "éĢī": 1870,
      "éĢ¼": 1871,
      "èĬ¦": 1872,
      "æ´»è·ĥ": 1873,
      "çĶ°åŁİ": 1874,
      "åĨ¬": 1875,
      "ä¹Ŀå¹´": 1876,
      "è¾ĥ": 1877,
      "æĭľ": 1878,
      "æį®çĤ¹": 1879,
      "éĻĦè¿ĳ": 1880,
      "å¿į": 1881,
      "ç¯": 1882,
      "éĻ·åħ¥": 1883,
      "ãģ«": 1884,
      "éĺ¶": 1885,
      "åįķ": 1886,
      "çīĩ": 1887,
      "æŃ£å®¤": 1888,
      "æ²¿": 1889,
      "åİŁæľ¬": 1890,
      "ç½Ĺ": 1891,
      "ä¸Ģèµ·": 1892,
      "èĦ±": 1893,
      "åĩºä»ķ": 1894,
      "ä»Ĭå·Ŀä¹ī": 1895,
      "æģ¶": 1896,
      "è£ħ": 1897,
      "çĨĬ": 1898,
      "åĿĩ": 1899,
      "æłĩ": 1900,
      "è½®": 1901,
      "è°ĵ": 1902,
      "æ¹": 1903,
      "è¡°": 1904,
      "è®³": 1905,
      "ä¹īå¼ĺ": 1906,
      "é¢Ĩæľī": 1907,
      "æĭ¥æľī": 1908,
      "çł¦": 1909,
      "åĽĽæľĪ": 1910,
      "åĻ¨": 1911,
      "æ´²": 1912,
      "åĤ": 1913,
      "èµĲäºĪ": 1914,
      "å¥Ķ": 1915,
      "å¥ĩ": 1916,
      "éľĢ": 1917,
      "è´¸æĺĵ": 1918,
      "ç¦ıå²Ľ": 1919,
      "çŃĶ": 1920,
      "å¼±": 1921,
      "èĢĥ": 1922,
      "æķĮåĨĽ": 1923,
      "éĺ»": 1924,
      "åŁŁ": 1925,
      "23": 1926,
      "å¹²": 1927,
      "æĶ¯éħį": 1928,
      "ç¨Ļ": 1929,
      "åŀ£": 1930,
      "ä¸įæĺ¯": 1931,
      "ä¸įå¾Ĺ": 1932,
      "ä»·": 1933,
      "ä¹ĭä¸ĭ": 1934,
      "åĩºäºĳ": 1935,
      "åįĩ": 1936,
      "éĺģ": 1937,
      "æĻ´åħĥ": 1938,
      "æĿĥåĬĽ": 1939,
      "æĬµæĬĹ": 1940,
      "è¡Ģ": 1941,
      "åºŁ": 1942,
      "ç±»": 1943,
      "å¤ªçĶ°": 1944,
      "ä¹ĭå½¹": 1945,
      "ä¿¡éĽĦ": 1946,
      "åĲİåĽ½": 1947,
      "è¯ķ": 1948,
      "åº¶": 1949,
      "äºĶéĥİ": 1950,
      "è´¢": 1951,
      "å¨¶": 1952,
      "æ£Ģ": 1953,
      "åıĶ": 1954,
      "æĶ¯æı´": 1955,
      "æĸĩæĺİ": 1956,
      "åĲĦåľ°": 1957,
      "æµª": 1958,
      "å»ºç«ĭ": 1959,
      "çĶ»": 1960,
      "åĩ»éĢĢ": 1961,
      "é£ŀ": 1962,
      "é¦ĸçº§": 1963,
      "åıĤæĪĺ": 1964,
      "è£Ĥ": 1965,
      "å¢ĵ": 1966,
      "çİī": 1967,
      "25": 1968,
      "ä¸ĭä»¤": 1969,
      "å±ŀäºİ": 1970,
      "è¯ļ": 1971,
      "æŁ´çĶ°èĥľå®¶": 1972,
      "åį·": 1973,
      "å¯Ħ": 1974,
      "æĺİæ²»": 1975,
      "è¿Ļç§į": 1976,
      "åį¿": 1977,
      "éĢĲæ¸Ĳ": 1978,
      "å®Įåħ¨": 1979,
      "éĹ®é¢ĺ": 1980,
      "æ³¨": 1981,
      "21": 1982,
      "æīĩ": 1983,
      "æ±łçĶ°": 1984,
      "ä¿¡å¿ł": 1985,
      "ä½Ĳä½Ĳ": 1986,
      "è¿ĽåĨĽ": 1987,
      "åĪ©ä¹ī": 1988,
      "ç«Ł": 1989,
      "å°Ĭæ°ı": 1990,
      "è¾īåħĥ": 1991,
      "ç»į": 1992,
      "ä¹īéļĨ": 1993,
      "æĢĢ": 1994,
      "åģı": 1995,
      "æį®è¯´": 1996,
      "ç¨³": 1997,
      "æİ¥åıĹ": 1998,
      "æķ£": 1999,
      "æıĲåĩº": 2000,
      "åŃĲåŃĻ": 2001,
      "æŃ¦çĶ°èĥľèµĸ": 2002,
      "çĶŁäºİ": 2003,
      "æĥħåĨµ": 2004,
      "æ¬¡éĥİ": 2005,
      "å¤±åİ»": 2006,
      "ç©º": 2007,
      "èµ¶": 2008,
      "èĢĮæĺ¯": 2009,
      "ãģĹ": 2010,
      "ä»ª": 2011,
      "é¬": 2012,
      "é¢ĨåĽ½": 2013,
      "é«ĺåĽ½": 2014,
      "èµĸæľĿ": 2015,
      "å®ĮæĪĲ": 2016,
      "çĽ´æİ¥": 2017,
      "èľ": 2018,
      "çĶļèĩ³": 2019,
      "å§»": 2020,
      "éĿĴ": 2021,
      "éĻ·èĲ½": 2022,
      "22": 2023,
      "åīįåĽ½": 2024,
      "æį¢": 2025,
      "å½¢æĪĲ": 2026,
      "åı¦ä¸Ģæĸ¹éĿ¢": 2027,
      "éĤ¸": 2028,
      "çĥ§": 2029,
      "æİĴ": 2030,
      "åĨħéĥ¨": 2031,
      "éĴ±": 2032,
      "çı": 2033,
      "å¾Ĺä»¥": 2034,
      "ç½²": 2035,
      "æĢĿ": 2036,
      "åĩºå®¶": 2037,
      "æ³·": 2038,
      "æľ¬å¤ļ": 2039,
      "åŁİæ±ł": 2040,
      "éŁ³": 2041,
      "è¿Ļä¸Ģ": 2042,
      "ç½ª": 2043,
      "150": 2044,
      "å½ĵåľ°": 2045,
      "ç«ĭä¸ĭ": 2046,
      "ä¹ĭåīį": 2047,
      "ä»Ļ": 2048,
      "æĹ¢": 2049,
      "æµĭ": 2050,
      "åĽĽåĽ½": 2051,
      "çĶ°å®¶": 2052,
      "æı¡": 2053,
      "å¯¿": 2054,
      "æ¯įäº²": 2055,
      "æĶ»çķ¥": 2056,
      "æĭĽ": 2057,
      "ç»Īäºİ": 2058,
      "å·¦åı³": 2059,
      "ä¸Ģæĸ¹": 2060,
      "åıĬåħ¶": 2061,
      "ä¼Ĭä¸ľ": 2062,
      "èĹ¤åİŁ": 2063,
      "ç»ĵåŁİ": 2064,
      "æ°ıæĶ¿": 2065,
      "åı¯è§ģ": 2066,
      "ä¹ĭä½į": 2067,
      "å¿µ": 2068,
      "æī©å¼ł": 2069,
      "ä¸ĢæĿ¡": 2070,
      "è¡¨ç¤º": 2071,
      "çªģçĦ¶": 2072,
      "é¼": 2073,
      "åľŁä½Ĳ": 2074,
      "æľ¬éĺµ": 2075,
      "å°ıå±±": 2076,
      "åħģ": 2077,
      "çŁ¢": 2078,
      "æĿĲ": 2079,
      "éĻĲ": 2080,
      "è¿ĺæľī": 2081,
      "åĨįåº¦": 2082,
      "æºĲæ°ı": 2083,
      "æł¸": 2084,
      "é¬¼": 2085,
      "éºŁ": 2086,
      "æĪĺè´¥": 2087,
      "åį±": 2088,
      "çŁ³å·Ŀ": 2089,
      "å®ĹèĮĤ": 2090,
      "æĪĺå½¹": 2091,
      "éļıçĿĢ": 2092,
      "éĵ¶": 2093,
      "24": 2094,
      "ãģ¨": 2095,
      "ç¬Ķ": 2096,
      "æģ©": 2097,
      "æŃ¤äºĭ": 2098,
      "æĭĴç»Ŀ": 2099,
      "å¹¶ä¸Ķ": 2100,
      "ä¿¡ç§Ģ": 2101,
      "å¸Į": 2102,
      "æ®ĭ": 2103,
      "ç§ģ": 2104,
      "éĺ´": 2105,
      "æİ¢": 2106,
      "åĪļ": 2107,
      "åıĸå¾Ĺ": 2108,
      "åĪĩèħ¹": 2109,
      "æŃ¦å®¶": 2110,
      "æĭī": 2111,
      "å´©": 2112,
      "åĽĽéĥİ": 2113,
      "åºĶä»ģ": 2114,
      "ä¸°èĩ£ç§Ģ": 2115,
      "å©ļ": 2116,
      "ä¸įæ»¡": 2117,
      "çŃĴ": 2118,
      "ç¦ħ": 2119,
      "å¤ºåıĸ": 2120,
      "åħ¶åĲİ": 2121,
      "æĽ¿": 2122,
      "è¿½åĩ»": 2123,
      "ä¸¹ç¾½": 2124,
      "åĨħèĹ¤": 2125,
      "åįĥä»£": 2126,
      "æ¶Īæģ¯": 2127,
      "çłĶ": 2128,
      "èĴ²çĶŁ": 2129,
      "è®¸å¤ļ": 2130,
      "åı«": 2131,
      "ç§Ģæ¬¡": 2132,
      "å®½æ°¸": 2133,
      "çĽ¸æ¨¡": 2134,
      "åĨĪå´İ": 2135,
      "éĢĥå¾Ģ": 2136,
      "è§Ħæ¨¡": 2137,
      "ä¾įå¥ī": 2138,
      "å°ī": 2139,
      "ç¼ĺ": 2140,
      "ä¹ĭå¼Ł": 2141,
      "å¸ĥéĺµ": 2142,
      "åħ¶çĪ¶": 2143,
      "è¾ŀ": 2144,
      "åħħ": 2145,
      "åįģæľĪ": 2146,
      "å¹¶éĿŀ": 2147,
      "èĭ¦": 2148,
      "æļĤ": 2149,
      "æ´»åĬ¨": 2150,
      "åĲ¦": 2151,
      "èĹ©ä¸»": 2152,
      "è¯Ĩ": 2153,
      "æĴŃç£¨": 2154,
      "æģĴ": 2155,
      "ä¸ĢéĹ¨": 2156,
      "èĥľåĪ©": 2157,
      "æĿĢå®³": 2158,
      "åı¦å¤ĸ": 2159,
      "æĿ¿": 2160,
      "èģļ": 2161,
      "28": 2162,
      "åįģä¸ī": 2163,
      "ç»ıè¿ĩ": 2164,
      "è®¡åĪĴ": 2165,
      "åħ¥ä¾µ": 2166,
      "æĬĺ": 2167,
      "æĥł": 2168,
      "ç»§æī¿äºº": 2169,
      "ç«Ļ": 2170,
      "ä¹īåħ´": 2171,
      "åıªæĺ¯": 2172,
      "éĢ¸": 2173,
      "æ¸ħæŃ£": 2174,
      "åĳ¼": 2175,
      "æ¯ĽåĪ©è¾ī": 2176,
      "ä¸Ģå¸¦": 2177,
      "åĳ¨è¾¹": 2178,
      "1590": 2179,
      "æ½": 2180,
      "çĵ": 2181,
      "ä¼Ĭè±Ĩ": 2182,
      "ç§ĳ": 2183,
      "ãģŁ": 2184,
      "æĶ¿åħĥ": 2185,
      "éĺ¿æ³¢": 2186,
      "ç¦»å¼Ģ": 2187,
      "ç¥ĸçĪ¶": 2188,
      "ä¼ĬäºĪ": 2189,
      "åľŁå²Ĳ": 2190,
      "æľªèĥ½": 2191,
      "èĨ": 2192,
      "ãģĦ": 2193,
      "çĶŁå¹³": 2194,
      "å¼ĺæ²»": 2195,
      "è¢«è¿«": 2196,
      "ç¬¬ä¸ī": 2197,
      "å©¿": 2198,
      "ç®Ń": 2199,
      "éĤ»": 2200,
      "æ¯ı": 2201,
      "åīĳ": 2202,
      "ä¸ĸçºª": 2203,
      "åıĳå±ķ": 2204,
      "æ¡¶": 2205,
      "å®ĹéºŁ": 2206,
      "åĿĬ": 2207,
      "æł¸å¿ĥ": 2208,
      "éģ¿": 2209,
      "ä¸ĢèĪ¬": 2210,
      "ä¸ĭéĩİ": 2211,
      "åħĭ": 2212,
      "æľĢåĪĿ": 2213,
      "åĲĮæł·": 2214,
      "å°§": 2215,
      "ä¸ĵ": 2216,
      "æĮī": 2217,
      "åıĳèµ·": 2218,
      "æĮģç»Ń": 2219,
      "çĹħéĢĿ": 2220,
      "å¸ĮæľĽ": 2221,
      "ä»Ģ": 2222,
      "ä¸Ģæ¬¡": 2223,
      "ç»ĺ": 2224,
      "å®ŀåĬĽ": 2225,
      "æĮĩåĩº": 2226,
      "ä¹ĭåĳ½": 2227,
      "æ´¾åĩº": 2228,
      "èĥģ": 2229,
      "ç´§": 2230,
      "å°Ĩé¢Ĩ": 2231,
      "åįģäºĶ": 2232,
      "ä¸°åĲİ": 2233,
      "æĹĭ": 2234,
      "åĲīçĶ°": 2235,
      "æĹĹæľ¬": 2236,
      "åĩłä¹İ": 2237,
      "åĽ°": 2238,
      "å¤§åĿĤåŁİ": 2239,
      "åıªæľī": 2240,
      "å¯Ł": 2241,
      "åħĥæĺ¥": 2242,
      "ä»Ģä¹Ī": 2243,
      "çĽĲ": 2244,
      "ä¹īåħī": 2245,
      "ä¸¾åħµ": 2246,
      "æľīåĬĽ": 2247,
      "ä¸Ģè¯´": 2248,
      "æ±¤": 2249,
      "ä¸Ģä¸ĩ": 2250,
      "åħ«å¹¡": 2251,
      "ä¸»åĬĽ": 2252,
      "ä¼Ĭè´º": 2253,
      "ä¸ĢæŃ¥": 2254,
      "åįıåĬ©": 2255,
      "ä¸Ńå²Ľ": 2256,
      "ä¿ĥ": 2257,
      "è¡¥": 2258,
      "å¤§æ°¸": 2259,
      "è¾¾æĪĲ": 2260,
      "æĭ¥ç«ĭ": 2261,
      "åİŁåŁİ": 2262,
      "èĽ": 2263,
      "çłĶç©¶": 2264,
      "åıĽä¹±": 2265,
      "æµģæĶ¾": 2266,
      "çķĻä¸ĭ": 2267,
      "åĪĳ": 2268,
      "å¤ĸäº¤": 2269,
      "ç»ıæµİ": 2270,
      "é£Ł": 2271,
      "ä»Ĭå·Ŀå®¶": 2272,
      "æĬµè¾¾": 2273,
      "ä¾µæĶ»": 2274,
      "149": 2275,
      "åħ¸": 2276,
      "ä¸įåĲĮ": 2277,
      "æĻ®": 2278,
      "ç«ĭåį³": 2279,
      "å¤ªéĥİ": 2280,
      "éķ¿ç§Ģ": 2281,
      "ç»ĵæĿŁ": 2282,
      "1570": 2283,
      "ä¹ħéĹ´": 2284,
      "åħ¨éĥ¨": 2285,
      "èİ·èµĲ": 2286,
      "å¼łåĽ½": 2287,
      "åĩı": 2288,
      "å®ĺä½į": 2289,
      "ç¾¤": 2290,
      "ä¹ĭä¸Ń": 2291,
      "å±±åĲį": 2292,
      "æĺĮå¹¸": 2293,
      "åĩºä»»": 2294,
      "å£«åħµ": 2295,
      "ä»¥æĿ¥": 2296,
      "å¯¹äºİ": 2297,
      "ä¹ĭåĲį": 2298,
      "ä¼łè¯´": 2299,
      "å®Īå¤ĩ": 2300,
      "èĳ¬": 2301,
      "ä¹īæĺŃ": 2302,
      "äºķä¼Ĭ": 2303,
      "æīĺ": 2304,
      "æ°¸ä¹ħ": 2305,
      "èĲ¨æĳ©": 2306,
      "åĪĥ": 2307,
      "åİŁåĽł": 2308,
      "èŃ": 2309,
      "æŃ»åİ»": 2310,
      "ä¼ļæ´¥": 2311,
      "æľ¨æĿĳ": 2312,
      "åºµ": 2313,
      "ä¸¾è¡Į": 2314,
      "éĢĶä¸Ń": 2315,
      "æĺİåºĶ": 2316,
      "æļ´": 2317,
      "éĿŀå¸¸": 2318,
      "å¤ºåĽŀ": 2319,
      "ãĢİ": 2320,
      "åī²": 2321,
      "ä¸įä»ħ": 2322,
      "éĺľ": 2323,
      "é©±": 2324,
      "å¸Ń": 2325,
      "åĪº": 2326,
      "è°ĭåıį": 2327,
      "ãĢı": 2328,
      "éķ¿æľŁ": 2329,
      "åıĶçĪ¶": 2330,
      "äºĮæľĪ": 2331,
      "èĩªå°½": 2332,
      "éľ¸": 2333,
      "é¢ģ": 2334,
      "åįģåĪĨ": 2335,
      "åħ³çĻ½": 2336,
      "å±¡": 2337,
      "æŃ¤æĪĺ": 2338,
      "åłº": 2339,
      "å¹¶æľª": 2340,
      "ä¼ıè§ģ": 2341,
      "ä¸īäººä¼Ĺ": 2342,
      "å½¦": 2343,
      "ç»§ä»»": 2344,
      "åįģäºĮæľĪ": 2345,
      "å¾ĹçŁ¥": 2346,
      "åĽ½ä¼Ĺ": 2347,
      "ä¸ĢçĽĬ": 2348,
      "èĩªæĿĢ": 2349,
      "ä¹ħä¿Ŀ": 2350,
      "åī§": 2351,
      "ãģ¯": 2352,
      "ä¸¤å®¶": 2353,
      "åİļ": 2354,
      "ä¸īåįĥ": 2355,
      "ä¸įæĺİ": 2356,
      "é¡¾": 2357,
      "çŁ³è§ģ": 2358,
      "éķĩåİĭ": 2359,
      "å¤±è´¥": 2360,
      "è¢Ńåĩ»": 2361,
      "ä¸Ģæł·": 2362,
      "åīįæĿ¥": 2363,
      "26": 2364,
      "ä¸įèĥ½": 2365,
      "å²Ĳéĺľ": 2366,
      "âĢ¦": 2367,
      "çĬ¬": 2368,
      "å±±åı£": 2369,
      "åĲİä¸ĸ": 2370,
      "ç¡Ģ": 2371,
      "ç¬¼": 2372,
      "æľĢä¸Ĭ": 2373,
      "åĮĹæľĿ": 2374,
      "è¿ħ": 2375,
      "è¡£": 2376,
      "åĬłä¸Ĭ": 2377,
      "ä»²": 2378,
      "ä¸Ńå¿ĥ": 2379,
      "1573": 2380,
      "ç»³": 2381,
      "æİ¨æµĭ": 2382,
      "çŃĴäºķ": 2383,
      "çĽ¸å½ĵ": 2384,
      "æ´¥åŁİ": 2385,
      "éĨį": 2386,
      "åıĳçİ°": 2387,
      "éķ¿éĩİ": 2388,
      "åºĵ": 2389,
      "åŁİä¹ĭæĪĺ": 2390,
      "éĿĻ": 2391,
      "èľĤ": 2392,
      "åįģä¸ĢæľĪ": 2393,
      "æİĮæı¡": 2394,
      "åĿĲ": 2395,
      "éĨĲ": 2396,
      "éĨįéĨĲ": 2397,
      "æľ¬äºº": 2398,
      "å¤§èĩ£": 2399,
      "åĩºå¾ģ": 2400,
      "éķ¿ä¹ħ": 2401,
      "æŃ£æľĪ": 2402,
      "çķ¿åĨħ": 2403,
      "çĶ°æ°ı": 2404,
      "åĪ©çĶ¨": 2405,
      "èµł": 2406,
      "çĭŃéĹ´": 2407,
      "æģĲ": 2408,
      "å¤·": 2409,
      "ç»ıåİĨ": 2410,
      "å¥ĭæĪĺ": 2411,
      "ä¸įåı¯": 2412,
      "æķĮäºº": 2413,
      "è´¡": 2414,
      "èªī": 2415,
      "çİĩåĨĽ": 2416,
      "çķĻå®Ī": 2417,
      "æĥĬ": 2418,
      "è¯ķåĽ¾": 2419,
      "åŁºç¡Ģ": 2420,
      "åħ¶å®ŀ": 2421,
      "æĥ¨": 2422,
      "èĥ½çĻ»": 2423,
      "éļĨä¿¡": 2424,
      "åĲįæ°ı": 2425,
      "è¾ħä½Ĳ": 2426,
      "æ¶ī": 2427,
      "å¤§åıĭæ°ı": 2428,
      "ç«¯": 2429,
      "è¸": 2430,
      "æĶ¿çŃĸ": 2431,
      "åĲįä¹ī": 2432,
      "å¥¥å·ŀ": 2433,
      "åŁİä¸ĭ": 2434,
      "ä¸ĬçĶ°": 2435,
      "èµ·æĿ¥": 2436,
      "ä¸ĥæĹ¥": 2437,
      "åĩºåıĳ": 2438,
      "çİ°åľ¨": 2439,
      "åıįå¯¹": 2440,
      "è¯ī": 2441,
      "å°¤": 2442,
      "æĪĺäºĭ": 2443,
      "åłµ": 2444,
      "äº®": 2445,
      "éĩįæĸ°": 2446,
      "å·¨": 2447,
      "å¸¸éĻĨ": 2448,
      "åĭĺ": 2449,
      "æķĳæı´": 2450,
      "ä¹ł": 2451,
      "åįļ": 2452,
      "åĽŀåĪ°": 2453,
      "çĭ¬ç«ĭ": 2454,
      "æĶ¹æĺĵ": 2455,
      "åĩŃ": 2456,
      "æĿ¡ä»¶": 2457,
      "æ°ıçº²": 2458,
      "27": 2459,
      "è¯¯": 2460,
      "é«ĺæ¡¥": 2461,
      "åĶ¯": 2462,
      "æ³·å·Ŀ": 2463,
      "åįģäºĮå¹´": 2464,
      "äºĮæĿ¡": 2465,
      "å®Ĺå®¶": 2466,
      "åĽłèĢĮ": 2467,
      "ãģ¦": 2468,
      "äºĶä½į": 2469,
      "äº²çİĭ": 2470,
      "äºĴ": 2471,
      "åºŃ": 2472,
      "èĩªç§°": 2473,
      "ãĤĭ": 2474,
      "ä¹īä¹ħ": 2475,
      "æĶ»åħ¥": 2476,
      "å¦Ĥæŀľ": 2477,
      "æĭĶ": 2478,
      "åľ£": 2479,
      "ä½İ": 2480,
      "ãģĭ": 2481,
      "å¤ı": 2482,
      "èªĵ": 2483,
      "åĢ¼": 2484,
      "è£Ķ": 2485,
      "çĿ¦": 2486,
      "æĽ²": 2487,
      "1578": 2488,
      "äºĮäºº": 2489,
      "æįŁ": 2490,
      "1585": 2491,
      "éĻ©": 2492,
      "åįģåħŃ": 2493,
      "äº¬æŀģ": 2494,
      "ä¹¦ä¿¡": 2495,
      "é¹¤": 2496,
      "èĤ¥åĲİ": 2497,
      "çŁ¥è¡Į": 2498,
      "ç¯ł": 2499,
      "èĪŀ": 2500,
      "çĽ¾": 2501,
      "æ¡¶çĭŃéĹ´": 2502,
      "èıĬ": 2503,
      "ä»ĩ": 2504,
      "30": 2505,
      "å¸®": 2506,
      "å·®": 2507,
      "åŀĭ": 2508,
      "æŁĲ": 2509,
      "å¤©çİĭ": 2510,
      "åıĭåĨĽ": 2511,
      "å¤§åıĭå®¶": 2512,
      "å¤Ł": 2513,
      "ä¹īæĻ¯": 2514,
      "ä¸¹æ³¢": 2515,
      "æĪĺä¸Ń": 2516,
      "1575": 2517,
      "éħĴäºķ": 2518,
      "åįģä¸Ģå¹´": 2519,
      "åĴĮçĶ°": 2520,
      "åıĻ": 2521,
      "çŁ³å±±": 2522,
      "éĺ²å¾¡": 2523,
      "ä»£å½ĵä¸»": 2524,
      "åįĹæľĿ": 2525,
      "éĺµèĲ¥": 2526,
      "éĻ¤äºĨ": 2527,
      "ä»¥ä¸ĭ": 2528,
      "åĪ¶åº¦": 2529,
      "è¶³è½»": 2530,
      "è¿ħéĢŁ": 2531,
      "è¯ł": 2532,
      "éľ²": 2533,
      "ä¸ĢæĹ¥": 2534,
      "ä½¿å¾Ĺ": 2535,
      "åĳ¨éĺ²": 2536,
      "æŃ£æĺ¯": 2537,
      "ä¸¤ä¸ª": 2538,
      "1584": 2539,
      "å±±ä¸Ń": 2540,
      "åĩºèĩª": 2541,
      "æįķ": 2542,
      "å°ıéĩİ": 2543,
      "äºĶåįģ": 2544,
      "æ¡Ĥ": 2545,
      "åĪĿä»£": 2546,
      "åģıè®³": 2547,
      "ç¨»åı¶": 2548,
      "çĽ¸èī¯": 2549,
      "åīįåĲİ": 2550,
      "åĲįä¸º": 2551,
      "æīĢåľ¨": 2552,
      "è®¨åıĸ": 2553,
      "29": 2554,
      "ç§Ģèµĸ": 2555,
      "æľ¨ä¸ĭ": 2556,
      "ä¿Ĺ": 2557,
      "äºĶåįĥ": 2558,
      "äºīå¤º": 2559,
      "å½»": 2560,
      "èĪį": 2561,
      "éĽ¨": 2562,
      "èĻĳ": 2563,
      "è¿Ļæ¬¡": 2564,
      "åħ«æĹ¥": 2565,
      "è¯±": 2566,
      "å»ºçŃĳ": 2567,
      "åĬŀ": 2568,
      "ãĤĴ": 2569,
      "æŃ£åĪĻ": 2570,
      "åħ¬å®¶": 2571,
      "çīĽ": 2572,
      "å¼ĢåŁİ": 2573,
      "åħĪåĲİ": 2574,
      "è¡¨çİ°": 2575,
      "ç®Ģ": 2576,
      "å®¶å®¶": 2577,
      "åĲİæľŁ": 2578,
      "çºµ": 2579,
      "æģ¢": 2580,
      "ç½ĳ": 2581,
      "ä¸īæµ¦": 2582,
      "çģµ": 2583,
      "æ¢ħ": 2584,
      "èĢĮä¸Ķ": 2585,
      "åĲĮæĹı": 2586,
      "æľºä¼ļ": 2587,
      "èŃ¦": 2588,
      "åĲįåŃĹ": 2589,
      "éĶĻ": 2590,
      "å¤§å¤«": 2591,
      "åĽĽæĹ¥": 2592,
      "è¶Ĭä¸Ń": 2593,
      "åĨħä¹±": 2594,
      "æİĪäºĪ": 2595,
      "ä»£è¡¨": 2596,
      "ãģª": 2597,
      "å¤ļæ¬¡": 2598,
      "æģ¢å¤į": 2599,
      "åĪĨåĪ«": 2600,
      "æłĭ": 2601,
      "1568": 2602,
      "çĶ²æĸĲåĽ½": 2603,
      "åĩĢ": 2604,
      "ä¸įæĸŃ": 2605,
      "ç»ľ": 2606,
      "éĶħ": 2607,
      "èĩªèº«": 2608,
      "1569": 2609,
      "ä¸Ģå¹´": 2610,
      "åĨ²çªģ": 2611,
      "åĶĲ": 2612,
      "çīµ": 2613,
      "èĸ": 2614,
      "é¢Ħ": 2615,
      "å¦»åŃĲ": 2616,
      "æķ·": 2617,
      "å¼ķåıĳ": 2618,
      "åľĨ": 2619,
      "è¯Ħä»·": 2620,
      "ä¹ĿæĹ¥": 2621,
      "å¾·å·Ŀæ°ı": 2622,
      "åįĪ": 2623,
      "çŁŃ": 2624,
      "ä¸Ģä½į": 2625,
      "1560": 2626,
      "å³Ļ": 2627,
      "ç«¥": 2628,
      "æīĢæľī": 2629,
      "ç©¿": 2630,
      "åĬ³": 2631,
      "èıħ": 2632,
      "æĻ´è´¤": 2633,
      "è·Łéļı": 2634,
      "å±±æ°ı": 2635,
      "åıĳåĩº": 2636,
      "ä¿¡åŃĿ": 2637,
      "çĽ¸ç»§": 2638,
      "ç»©": 2639,
      "å°ıçī§": 2640,
      "ç§Ģå®¶": 2641,
      "è°±ä»£": 2642,
      "åľŁåľ°": 2643,
      "ï¼ı": 2644,
      "ç¥Ń": 2645,
      "éĿ¢å¯¹": 2646,
      "å¤§åĴĮ": 2647,
      "ç¼º": 2648,
      "çĦļ": 2649,
      "çĽ¸ä¼ł": 2650,
      "æ··ä¹±": 2651,
      "èĳĽ": 2652,
      "èĤ¥åīį": 2653,
      "ç´ł": 2654,
      "åĬĽéĩı": 2655,
      "æ¸©": 2656,
      "åħĥæľį": 2657,
      "ä½ĵåĪ¶": 2658,
      "éľĩ": 2659,
      "çĳ": 2660,
      "å±±åİ¿": 2661,
      "ä¸īåįģ": 2662,
      "å¯¹å³Ļ": 2663,
      "é»Ħ": 2664,
      "å±±å´İ": 2665,
      "æĥ£": 2666,
      "æŃ¤æ¬¡": 2667,
      "æłĹ": 2668,
      "æĶ¾å¼ĥ": 2669,
      "æĪĳä»¬": 2670,
      "åĩºç¾½": 2671,
      "è°·åŁİ": 2672,
      "ä¸Ģèī²": 2673,
      "148": 2674,
      "ä¹ĭä¸¸": 2675,
      "æķ¢": 2676,
      "åĨħå®¶": 2677,
      "æ¸ħæ´²": 2678,
      "æĹ©äºĳ": 2679,
      "èĳĹåĲį": 2680,
      "æŃ£æĪĲ": 2681,
      "ç©´": 2682,
      "163": 2683,
      "æĸ¹åĲĳ": 2684,
      "çŃĳåīį": 2685,
      "æĮĤ": 2686,
      "æ¸¯": 2687,
      "æ§": 2688,
      "ä¸Ģç§į": 2689,
      "åĴĮçĿ¦": 2690,
      "å¯¹æŃ¤": 2691,
      "æļĹæĿĢ": 2692,
      "éĺµäº¡": 2693,
      "åŃ¤": 2694,
      "ä¹ĭå¥³": 2695,
      "æŁ¥": 2696,
      "æĿĢæŃ»": 2697,
      "ä¸°èĩ£å®¶": 2698,
      "äºĭåĬ¡": 2699,
      "å®ģ": 2700,
      "äºĭå®ŀ": 2701,
      "ä»¥ä¸Ĭ": 2702,
      "è´±": 2703,
      "ç»ķ": 2704,
      "å¤®": 2705,
      "ä¾¿æĺ¯": 2706,
      "200": 2707,
      "èİ²": 2708,
      "è¶ħ": 2709,
      "ä¸īæĹ¥": 2710,
      "ä¿¡èĻİ": 2711,
      "æĪĺçķ¥": 2712,
      "ä¸¤åĨĽ": 2713,
      "147": 2714,
      "çº¹": 2715,
      "çĻ¾å§ĵ": 2716,
      "èµ·åħµ": 2717,
      "éĤĢ": 2718,
      "å¤ªéĺģ": 2719,
      "å§Ĭ": 2720,
      "åįĥåı¶": 2721,
      "æ·¡": 2722,
      "å¤įåħ´": 2723,
      "çº·çº·": 2724,
      "åĲ§": 2725,
      "æīĢè°ĵ": 2726,
      "è¿ĳæ±ŁåĽ½": 2727,
      "èĥĮåıĽ": 2728,
      "æĹ¥è®°": 2729,
      "åĳ¢": 2730,
      "æłĳ": 2731,
      "æ¤į": 2732,
      "åİŁæ°ı": 2733,
      "ç®¡çĲĨ": 2734,
      "å¤¹": 2735,
      "è¾ĸ": 2736,
      "è¿Ļæĺ¯": 2737,
      "äºĶçĻ¾": 2738,
      "çĥŃ": 2739,
      "å¾Į": 2740,
      "éĢĥäº¡": 2741,
      "ä¸°åīį": 2742,
      "åĮĹéĥ¨": 2743,
      "çĽ¸åħ³": 2744,
      "æĭ©": 2745,
      "æľĢå¤§": 2746,
      "èį¯": 2747,
      "éķ¿éĹ¨": 2748,
      "æ²¡æĶ¶": 2749,
      "ä¾µåħ¥": 2750,
      "é¢ĨåĨħ": 2751,
      "é½": 2752,
      "èĬ³": 2753,
      "èĩªåĪĥ": 2754,
      "ä¸¤äºº": 2755,
      "è¿Ľä¸ĢæŃ¥": 2756,
      "å®īä¸ľ": 2757,
      "åĲİè£Ķ": 2758,
      "çŁ¥éģĵ": 2759,
      "æĸŃç»Ŀ": 2760,
      "å³°": 2761,
      "è¯ŀ": 2762,
      "è®®åĴĮ": 2763,
      "å¤©å®Ī": 2764,
      "å¯ºéĻ¢": 2765,
      "å¹¼åĲį": 2766,
      "å¯»": 2767,
      "è£ģ": 2768,
      "åı¥": 2769,
      "åīįæľŁ": 2770,
      "å¿łèĥľ": 2771,
      "ç»ĵçĽŁ": 2772,
      "æľ±": 2773,
      "ä¸įå¾Ĺä¸į": 2774,
      "æ£Ģåľ°": 2775,
      "æµĵåĽ½": 2776,
      "éĩĬ": 2777,
      "ä¸Ńå¤®": 2778,
      "åĴĮè§£": 2779,
      "åĲīç»§": 2780,
      "éŀ": 2781,
      "å®īèīºåĽ½": 2782,
      "åĿĢ": 2783,
      "åįłé¢Ĩ": 2784,
      "èĹ¤åłĤ": 2785,
      "æµªäºº": 2786,
      "åĢŃ": 2787,
      "å»¶ç»Ń": 2788,
      "æ¡Ī": 2789,
      "æĪĲæ°ı": 2790,
      "éļıåį³": 2791,
      "çºªä¼Ĭ": 2792,
      "ãģĨ": 2793,
      "åıªèĥ½": 2794,
      "çŃĳåŁİ": 2795,
      "åĩ»çł´": 2796,
      "æĤ¬": 2797,
      "åģĩ": 2798,
      "åħ¼ç»Ń": 2799,
      "äº«ç¦Ħ": 2800,
      "ç§Ģéķ¿": 2801,
      "å¥¹": 2802,
      "è¿ľå±±": 2803,
      "éĴĪ": 2804,
      "å°¼åŃĲæ°ı": 2805,
      "è®²": 2806,
      "çīĪ": 2807,
      "å¤§è´¥": 2808,
      "æİī": 2809,
      "æī¹": 2810,
      "1561": 2811,
      "å¿Ļ": 2812,
      "æŃ¤åīį": 2813,
      "æĢķ": 2814,
      "çĭ©": 2815,
      "æ¿ĢæĪĺ": 2816,
      "å®¢": 2817,
      "èĨ³": 2818,
      "æĻļå¹´": 2819,
      "çĶ³": 2820,
      "æĬĢ": 2821,
      "146": 2822,
      "å¤§éĩı": 2823,
      "ä¼´": 2824,
      "ç§Ģç§ĭ": 2825,
      "åħĥéķ¿": 2826,
      "æ¯«": 2827,
      "æĶ»åĬ¿": 2828,
      "çģĮ": 2829,
      "å¤§éĩİ": 2830,
      "æ¬¡çĶ·": 2831,
      "å¿łæ¬¡": 2832,
      "ãĤĬ": 2833,
      "ä¸īæľ¨": 2834,
      "åı¯æĺ¯": 2835,
      "æģ¨": 2836,
      "ç¨İ": 2837,
      "ä¿¡åº·": 2838,
      "åºĦåĽŃ": 2839,
      "å¾Īå¿«": 2840,
      "ä»£å®ĺ": 2841,
      "æĸ¼": 2842,
      "æĹģ": 2843,
      "æľ¬åŁİ": 2844,
      "å°ıè¥¿": 2845,
      "æķı": 2846,
      "çĶĺ": 2847,
      "ä¸»å¼ł": 2848,
      "ä»įçĦ¶": 2849,
      "åŁĭ": 2850,
      "é±": 2851,
      "æĹ¨": 2852,
      "å±±ä¹ī": 2853,
      "ç¡®ç«ĭ": 2854,
      "ä¾§è¿ĳ": 2855,
      "ä¼ĺåĬ¿": 2856,
      "åı¤å±ĭ": 2857,
      "åĨ³æĪĺ": 2858,
      "éļ¾ä»¥": 2859,
      "æĪĲæĶ¿": 2860,
      "æĸ°çĶ°": 2861,
      "ä¸¥å²Ľ": 2862,
      "æ¡ĳ": 2863,
      "æĹ¥åĲĳ": 2864,
      "æĺ¥æĹ¥": 2865,
      "éĢĨ": 2866,
      "ä¼łæķĻ": 2867,
      "èµ¦": 2868,
      "é©»å®Ī": 2869,
      "ä¸§": 2870,
      "åŁİä»£": 2871,
      "è¯į": 2872,
      "èĩ£æľį": 2873,
      "é«ĺéĩİ": 2874,
      "æ°´éĩİ": 2875,
      "å®ŀéĻħä¸Ĭ": 2876,
      "è¶³åĪ©ä¹īè¾ī": 2877,
      "çľĭåĪ°": 2878,
      "é±¼": 2879,
      "çĳŀ": 2880,
      "è¿Ł": 2881,
      "å¾ĭ": 2882,
      "èĩªçĦ¶": 2883,
      "ãģĮ": 2884,
      "åĬ¨åĳĺ": 2885,
      "æ¨±": 2886,
      "çķ¥åİĨ": 2887,
      "1587": 2888,
      "é©±éĢĲ": 2889,
      "ä¿£": 2890,
      "åĽ½å®¶": 2891,
      "è¿ĻæĹ¶": 2892,
      "è¡Įä¸º": 2893,
      "æ¸ħæ°´": 2894,
      "å®¶è°±": 2895,
      "æ¶ĪçģŃ": 2896,
      "èĩ¼": 2897,
      "å°»": 2898,
      "å°½ç®¡": 2899,
      "å®ħéĤ¸": 2900,
      "ç§¯æŀģ": 2901,
      "å¤ĦçĲĨ": 2902,
      "çŁĽ": 2903,
      "çīĻ": 2904,
      "éĤ¦": 2905,
      "åĪĨè£Ĥ": 2906,
      "åºı": 2907,
      "ç»´æĮģ": 2908,
      "åī©": 2909,
      "è¾°": 2910,
      "åħ¬è®°": 2911,
      "å±ħä½ı": 2912,
      "æī¬": 2913,
      "åķĨäºº": 2914,
      "1592": 2915,
      "åī¯": 2916,
      "çĽ´èĩ³": 2917,
      "äºķä¸Ĭ": 2918,
      "å®ªæĶ¿": 2919,
      "å®īåłµ": 2920,
      "æĪĺåĽ½æĹ¶æľŁ": 2921,
      "ä¸ĭæĿ¥": 2922,
      "å§Ĳ": 2923,
      "1583": 2924,
      "é¢ĩ": 2925,
      "æıĲä¾Ľ": 2926,
      "åħ¬åį¿": 2927,
      "éĵĥ": 2928,
      "éĶ®": 2929,
      "å¡Ķ": 2930,
      "ç¼Ķ": 2931,
      "çĶ¥": 2932,
      "1580": 2933,
      "æķĮå¯¹": 2934,
      "å¹¿å¿ł": 2935,
      "åĲ«": 2936,
      "çĽ´å®¶": 2937,
      "è¿ĳåį«": 2938,
      "éļ¶": 2939,
      "æĮĳ": 2940,
      "1586": 2941,
      "ä¿ĿæĮģ": 2942,
      "éªļ": 2943,
      "1581": 2944,
      "å®¶äºº": 2945,
      "è´¹": 2946,
      "çĶ°ä¿¡ç§Ģ": 2947,
      "åįłæį®": 2948,
      "èĻļ": 2949,
      "æĶ»åŁİ": 2950,
      "åħĥåº·": 2951,
      "åħ³éĶ®": 2952,
      "æĵħ": 2953,
      "åīĬ": 2954,
      "ä¾§å®¤": 2955,
      "éŃ": 2956,
      "å¹³å®ī": 2957,
      "å¤Ħäºİ": 2958,
      "âĢĺ": 2959,
      "âĢĻ": 2960,
      "éļľ": 2961,
      "ç»ıä¹ħ": 2962,
      "æī¾": 2963,
      "æķ´ä¸ª": 2964,
      "è¿Ļåľº": 2965,
      "åĨľæ°ĳ": 2966,
      "åĲİèĹ¤": 2967,
      "æĶ¿éķ¿": 2968,
      "å°±ä»»": 2969,
      "åĵ¥": 2970,
      "æĬķéĿł": 2971,
      "æ¬¡å¹´": 2972,
      "æĶ¿åĬ¡": 2973,
      "éļħ": 2974,
      "ä¸Ģä»£": 2975,
      "éĺ²å®Ī": 2976,
      "éĤ£ä¹Ī": 2977,
      "é¼ĵ": 2978,
      "ä¿ĿæĬ¤": 2979,
      "æ´ŀ": 2980,
      "è°¢": 2981,
      "èº«ä¸º": 2982,
      "å½»åºķ": 2983,
      "åĨ¢": 2984,
      "æµ¦ä¸Ĭ": 2985,
      "æ©": 2986,
      "åĨĽåĬ¿": 2987,
      "æŃ£åľ¨": 2988,
      "å½ĵçĦ¶": 2989,
      "è¿Ŀ": 2990,
      "æĪ·æ¬¡": 2991,
      "æŀĦæĪĲ": 2992,
      "éļĶ": 2993,
      "æ³ķåı·": 2994,
      "å¹ķåºľå°ĨåĨĽ": 2995,
      "ãĤĤ": 2996,
      "å¼ºå¤§": 2997,
      "ä¸īæĸ¹": 2998,
      "å½ĵå¹´": 2999,
      "èĦī": 3000,
      "å£ģ": 3001,
      "ç¬¬åĽĽ": 3002,
      "ç¿¼": 3003,
      "ç§ĭæľĪ": 3004,
      "æĿ¥è¯´": 3005,
      "èĤ²": 3006,
      "æķ¬": 3007,
      "æĸ¯æ³¢ä¹ī": 3008,
      "è¥¿åĽ½": 3009,
      "è½¬å°ģ": 3010,
      "å¤§å´İ": 3011,
      "ä»¥æŃ¤": 3012,
      "ç¬ĳ": 3013,
      "åıįèĢĮ": 3014,
      "èĥĮæĻ¯": 3015,
      "å¤§è°·": 3016,
      "åĮĹéĻĨ": 3017,
      "æľ¬ä¸¸": 3018,
      "ç»ĦæĪĲ": 3019,
      "åĲįåı¤å±ĭ": 3020,
      "éķľ": 3021,
      "åĪ°è¾¾": 3022,
      "çĽŁåıĭ": 3023,
      "æį®å®Ī": 3024,
      "ä¹Ŀéĥİ": 3025,
      "1615": 3026,
      "ç¡®è®¤": 3027,
      "ä¸Ģå®ļ": 3028,
      "èĥ½å¤Ł": 3029,
      "ä¿®çŃĳ": 3030,
      "çļĦè¯Ŀ": 3031,
      "å¥ı": 3032,
      "äºĶæĹ¥": 3033,
      "æĽ¾ç»ı": 3034,
      "ä¸īçĻ¾": 3035,
      "äº§çĶŁ": 3036,
      "é©¹": 3037,
      "å¤©ç¥ŀ": 3038,
      "èĥľåħĥ": 3039,
      "ä»¥åīį": 3040,
      "1614": 3041,
      "å¤ĩä¸Ń": 3042,
      "èĥ½åĬĽ": 3043,
      "èĢĨ": 3044,
      "å«ģç»Ļ": 3045,
      "éº»": 3046,
      "å§Ķ": 3047,
      "1579": 3048,
      "éĽĨç»ĵ": 3049,
      "çİ¯": 3050,
      "èĩ³ä»Ĭ": 3051,
      "æ±ŁæĪ·åŁİ": 3052,
      "åĪ©ä¹īæĶ¿": 3053,
      "ä¿¡ç¹ģ": 3054,
      "çŀ": 3055,
      "æĬ¼": 3056,
      "èĢĮè¨Ģ": 3057,
      "å±¥": 3058,
      "æ¹ĸ": 3059,
      "åıªå¾Ĺ": 3060,
      "æ²¼çĶ°": 3061,
      "ä¸īåĽ½": 3062,
      "æĪĪ": 3063,
      "çĽ´åĪ°": 3064,
      "è¯ŀçĶŁ": 3065,
      "ä¸ĢåĽ½": 3066,
      "è¯Ľ": 3067,
      "æµħéĩİ": 3068,
      "æ²³éĩİ": 3069,
      "æī¿è®¤": 3070,
      "ä¹īåħĥ": 3071,
      "å¹³æ°ı": 3072,
      "çĦ¶åĲİ": 3073,
      "åıįåĩ»": 3074,
      "æ³¢åĽ½": 3075,
      "éĢīæĭ©": 3076,
      "æĹ¥åĲİ": 3077,
      "æĪĲç«ĭ": 3078,
      "çĽĺ": 3079,
      "è¿Ļä½į": 3080,
      "ç§ĢæĶ¿": 3081,
      "ä¿¸": 3082,
      "©åĽº": 3083,
      "ä¸įè¶³": 3084,
      "ä¸įä¼ļ": 3085,
      "å·©åĽº": 3086,
      "äºķä¼ĬçĽ´": 3087,
      "éķ¿å²Ľ": 3088,
      "50": 3089,
      "å®ĥ": 3090,
      "å»ī": 3091,
      "èĢ³": 3092,
      "è¡Ĺ": 3093,
      "è¾īå®Ĺ": 3094,
      "åŃĿé«ĺ": 3095,
      "èĶ": 3096,
      "æī«": 3097,
      "å¦Ĥä½ķ": 3098,
      "å¥ĩè¢Ń": 3099,
      "ä¸ºé¦ĸ": 3100,
      "æĭ¿": 3101,
      "æĻ´ä¹ħ": 3102,
      "1574": 3103,
      "å¿ħé¡»": 3104,
      "çĽ´æĶ¿": 3105,
      "æĶ»ä¸ĭ": 3106,
      "è§Ĵèī²": 3107,
      "çĽ®æłĩ": 3108,
      "é«ĺæĿ¾": 3109,
      "å±ĢåĬ¿": 3110,
      "æ±ī": 3111,
      "æĪĺæĹ¶": 3112,
      "éĹ»åĲį": 3113,
      "å®ŀæĿĥ": 3114,
      "é¦ĸåħĪ": 3115,
      "æ¢ģ": 3116,
      "èµŀå²Ĳ": 3117,
      "ãĤī": 3118,
      "åŁİåĨħ": 3119,
      "æĪĺæľ¯": 3120,
      "1563": 3121,
      "åİŁä¹ĭæĪĺ": 3122,
      "1567": 3123,
      "çº³è¨Ģ": 3124,
      "è¿ĩç¨ĭ": 3125,
      "å·ĿåĨĽ": 3126,
      "éļĨåħĥ": 3127,
      "åºĩ": 3128,
      "ä¸ľæµ·": 3129,
      "1571": 3130,
      "æĺŁ": 3131,
      "ä¹īé¾Ļ": 3132,
      "æİ¥çĿĢ": 3133,
      "çĵ¦": 3134,
      "éĥ¨ä¸ĭ": 3135,
      "ãĤĮ": 3136,
      "æ£®éķ¿": 3137,
      "æ¾Ħåħĥ": 3138,
      "1577": 3139,
      "æĿĤè´º": 3140,
      "å¿łæĶ¿": 3141,
      "å¤ĩåīį": 3142,
      "å¥³å©¿": 3143,
      "1572": 3144,
      "å·¦è¿ĳ": 3145,
      "ä¸īåŃĲ": 3146,
      "åĲįå®¶": 3147,
      "æĲº": 3148,
      "è½¦": 3149,
      "åĲĦèĩª": 3150,
      "ç¬¬äºĮæ¬¡": 3151,
      "æĿ¾å±±": 3152,
      "åħ¨åĽ½": 3153,
      "å®°": 3154,
      "æľīäºº": 3155,
      "åĨħæĶ¿": 3156,
      "å®īåľŁåŁİ": 3157,
      "æ²Ł": 3158,
      "åįģéĥİ": 3159,
      "æ²Ļ": 3160,
      "è¡ĮæĶ¿": 3161,
      "æŃ»åĲİ": 3162,
      "èĹ¤åŃĿ": 3163,
      "è´¼": 3164,
      "ä»¥ä¸º": 3165,
      "å®ĪåĨĽ": 3166,
      "æ¸ħåº·": 3167,
      "é¡¶": 3168,
      "æĸ©æĿĢ": 3169,
      "ç¬¬ä¸Ģæ¬¡": 3170,
      "çī©è¯Ń": 3171,
      "å±±çĶ°": 3172,
      "çĶŁæ´»": 3173,
      "é¥°": 3174,
      "å®ŀæĸ½": 3175,
      "åĨ·": 3176,
      "èĩªæŃ¤": 3177,
      "âĶ": 3178,
      "åĲ¾": 3179,
      "æĪĲåĳĺ": 3180,
      "è¡¡": 3181,
      "æĿ¥åĪ°": 3182,
      "å°ĳè¾ħ": 3183,
      "æī©å¤§": 3184,
      "ç§ĺ": 3185,
      "åĩºæĿ¥": 3186,
      "é¡¿": 3187,
      "å®´": 3188,
      "é¹°": 3189,
      "èĮĥåĽ´": 3190,
      "åĳ³": 3191,
      "ä¼łç»Ł": 3192,
      "ç½¢": 3193,
      "é½Ĳ": 3194,
      "åºĶè¯¥": 3195,
      "å¤§å°ĨåĨĽ": 3196,
      "åĲīèī¯": 3197,
      "åħ¨åĨĽ": 3198,
      "æĺİæľĿ": 3199,
      "æ·Ģ": 3200,
      "æĺŃåĴĮ": 3201,
      "éĻ¶æĻ´è´¤": 3202,
      "ä¹īè¾ī": 3203,
      "çĽ¸é©¬": 3204,
      "æł¹æľ¬": 3205,
      "å¤«äºº": 3206,
      "ä¸ŃæĿĳ": 3207,
      "åıĪç§°": 3208,
      "çŁĽçĽ¾": 3209,
      "1576": 3210,
      "æĦŁåĪ°": 3211,
      "çī¹åĪ«": 3212,
      "éĽħ": 3213,
      "ç¤¾ä¼ļ": 3214,
      "å¸Ĳ": 3215,
      "ä¹īè´¤": 3216,
      "è¿«ä½¿": 3217,
      "çĪµ": 3218,
      "æĮ¯": 3219,
      "å½¢å¼ı": 3220,
      "ä¸İåħ¶": 3221,
      "ä¸īæĿ¡": 3222,
      "æ³ķåĲį": 3223,
      "åºĶæ°¸": 3224,
      "ä¹ĭåľ°": 3225,
      "ä¿¡çĽĽ": 3226,
      "åįĹåĮĹæľĿ": 3227,
      "ä¼¯èĢĨ": 3228,
      "åıįåıĽ": 3229,
      "è¯»": 3230,
      "èĩ³æŃ¤": 3231,
      "å´Ľ": 3232,
      "å·¥ä½ľ": 3233,
      "è°Ĵ": 3234,
      "è¦Ĩ": 3235,
      "ä¸ĸä»£": 3236,
      "æīĭä¸Ń": 3237,
      "å°¤åħ¶": 3238,
      "éĥ¨æ°ı": 3239,
      "æĮĩå®ļ": 3240,
      "çĶ°æĿĳ": 3241,
      "æĿĥå¨ģ": 3242,
      "åĬŁç»©": 3243,
      "ç¿»": 3244,
      "åŁºæľ¬": 3245,
      "å®¶å½ĵ": 3246,
      "ä¸ºæĻ¯": 3247,
      "éĹ°": 3248,
      "å¨ģèĥģ": 3249,
      "å¤ªå¹³": 3250,
      "åĲİæĸ¹": 3251,
      "åħ¶å¼Ł": 3252,
      "æį®ç§°": 3253,
      "å¹´è½»": 3254,
      "ç«ĭåĬŁ": 3255,
      "çĽ®çļĦ": 3256,
      "çŁ©": 3257,
      "éĥ¨å°Ĩ": 3258,
      "ä½ĵç³»": 3259,
      "è®Ń": 3260,
      "åį³ä¾¿": 3261,
      "åįģä¸īå¹´": 3262,
      "æŃ¦çĶ°æĻ´ä¿¡": 3263,
      "éĤ£é¡»": 3264,
      "æĹ§èĩ£": 3265,
      "éĩĩåıĸ": 3266,
      "133": 3267,
      "ç¦ıå¯º": 3268,
      "éĶħå²Ľ": 3269,
      "ä¹īæĶ¿": 3270,
      "å¹½": 3271,
      "åŁºçĿ£": 3272,
      "å°ıè¥¿è¡Į": 3273,
      "ä¸Ģåľº": 3274,
      "ä¹īæ¸ħ": 3275,
      "åĨħå®¹": 3276,
      "éĿ©": 3277,
      "æľ¬å®¶": 3278,
      "è§¦": 3279,
      "ä¼ª": 3280,
      "éĥ¨åħĥäº²": 3281,
      "å§ĭç»Ī": 3282,
      "èľĤé¡»": 3283,
      "çĪ±çŁ¥": 3284,
      "åįģåħ«å¹´": 3285,
      "éľĢè¦ģ": 3286,
      "å´Ľèµ·": 3287,
      "æĤ£": 3288,
      "è°ĥåģľ": 3289,
      "é¸Łå±ħ": 3290,
      "æĪĴ": 3291,
      "è®¯": 3292,
      "åĲįå°Ĩ": 3293,
      "æĦ¤": 3294,
      "1555": 3295,
      "æ¿ĢçĥĪ": 3296,
      "ä¾ĭå¦Ĥ": 3297,
      "åĬ£": 3298,
      "åĨĽè®°": 3299,
      "ä¸ľè¥¿": 3300,
      "å°¾åŁİ": 3301,
      "ç±į": 3302,
      "1564": 3303,
      "ä¾¯": 3304,
      "åįĥçŁ³": 3305,
      "æĳĩ": 3306,
      "å¸Ŀ": 3307,
      "åįģåĽĽå¹´": 3308,
      "ä¿¡ä»»": 3309,
      "æĶ¾éĢĲ": 3310,
      "æīįèĥ½": 3311,
      "è¯º": 3312,
      "æ¢¨": 3313,
      "äºĮæĹ¥": 3314,
      "æĪ´": 3315,
      "åĢ¾": 3316,
      "åĪ©ä¼ĳ": 3317,
      "1562": 3318,
      "æīĩè°·": 3319,
      "ä¿¡çĽ´": 3320,
      "çĽ´æ±Ł": 3321,
      "é©¬åľº": 3322,
      "æµģä¼ł": 3323,
      "è½¬èĢĮ": 3324,
      "æĻĭ": 3325,
      "éĩİæ°ı": 3326,
      "å¤§è§Ħæ¨¡": 3327,
      "åĿı": 3328,
      "æĺ¯åĲ¦": 3329,
      "æĢİ": 3330,
      "åºľåŁİ": 3331,
      "å¥Īèī¯": 3332,
      "æł¹æį®åľ°": 3333,
      "ä½Ĳç«¹ä¹ī": 3334,
      "éªıåºľ": 3335,
      "å²Ľæ´¥ä¹īå¼ĺ": 3336,
      "åĳĪ": 3337,
      "æĹ¦": 3338,
      "åĪ©å°Ĭæ°ı": 3339,
      "æĢģåº¦": 3340,
      "è²": 3341,
      "ä¼ģ": 3342,
      "å±±å¯Į": 3343,
      "æĬ¥åĳĬ": 3344,
      "è·ĳ": 3345,
      "ç¼Ķç»ĵ": 3346,
      "ä»°": 3347,
      "å¾®": 3348,
      "æŃ¤ä¸¾": 3349,
      "ãģķ": 3350,
      "éĩİåŁİ": 3351,
      "ä¿¸ç¦Ħ": 3352,
      "åĪĨå®¶": 3353,
      "å½±åĵįåĬĽ": 3354,
      "ç»Ħç»ĩ": 3355,
      "æ´¥çĶ°": 3356,
      "éģį": 3357,
      "å®ĺèģĮ": 3358,
      "åįģæ²³": 3359,
      "å°¼åŃĲå®¶": 3360,
      "ä¸Ģäºº": 3361,
      "æĢ¨": 3362,
      "¡æĹĭ": 3363,
      "æĺł": 3364,
      "èıĬæ±ł": 3365,
      "æĸ¡æĹĭ": 3366,
      "åĴĮè®®": 3367,
      "å¦Ĥä»Ĭ": 3368,
      "èĬ±å®ĹèĮĤ": 3369,
      "çĹħæŃ»": 3370,
      "ä¹ħç§Ģ": 3371,
      "ç«ĭåĪ»": 3372,
      "éļıåĨĽ": 3373,
      "çĹĽ": 3374,
      "èº«è¾¹": 3375,
      "æĤ²": 3376,
      "åĢĴæĪĪ": 3377,
      "é«ĺå±±": 3378,
      "1565": 3379,
      "ç¬¼åŁİ": 3380,
      "ä½ľåĵģ": 3381,
      "æĢ»åĽ½": 3382,
      "æĸ¹å¼ı": 3383,
      "é«ĺéĩİå±±": 3384,
      "ï½": 3385,
      "åĴĮæŃĮ": 3386,
      "å£®": 3387,
      "æ²ī": 3388,
      "åĪĨä¸º": 3389,
      "æĿ¾å¹³å®¶": 3390,
      "å³ł": 3391,
      "èĦ±ç¦»": 3392,
      "æĹ¬": 3393,
      "æĪĺä¹±": 3394,
      "ãģ¾": 3395,
      "è·Ŀ": 3396,
      "ä»ĭåħ¥": 3397,
      "è¿İå¨¶": 3398,
      "è§ĤçĤ¹": 3399,
      "åħµåºĵ": 3400,
      "å½ĴéĻĦ": 3401,
      "é¢ĳ": 3402,
      "ç»§ä½į": 3403,
      "æ¬¢": 3404,
      "ä»»ä½ķ": 3405,
      "æıı": 3406,
      "åĽĽä½į": 3407,
      "æīĵç®Ĺ": 3408,
      "ä¸ĢåĲį": 3409,
      "500": 3410,
      "æľ«æľŁ": 3411,
      "éĵĥæľ¨": 3412,
      "ä¸ºä¸»": 3413,
      "è°ģ": 3414,
      "ä¼ļåĲĪ": 3415,
      "åĽ´æĶ»": 3416,
      "å°º": 3417,
      "éļıä¹ĭ": 3418,
      "çĽ´ä¹ī": 3419,
      "ç»įè¿Ĳ": 3420,
      "åħ°": 3421,
      "åħŃæĹ¥": 3422,
      "å¼ºåĮĸ": 3423,
      "æ¢¦": 3424,
      "æĶ¹ä¸º": 3425,
      "èĥĮåĲİ": 3426,
      "å®ĹæķĻ": 3427,
      "çĬ¯": 3428,
      "ä½ĳ": 3429,
      "èĭĹ": 3430,
      "å»ºæŃ¦": 3431,
      "å»ºéĢł": 3432,
      "åı¦æľī": 3433,
      "åĽłå¹¡": 3434,
      "é¡¹": 3435,
      "ä¸°èĩ£æ°ı": 3436,
      "åºĩæĬ¤": 3437,
      "è´¥éĢĢ": 3438,
      "çŃĳåĲİ": 3439,
      "åħģè®¸": 3440,
      "é«ĺåŁİ": 3441,
      "åľ°å¤´": 3442,
      "éĢłæĪĲ": 3443,
      "èĦļ": 3444,
      "çĨŁ": 3445,
      "ä¹ĭå¤ĸ": 3446,
      "çŃ±": 3447,
      "èı©": 3448,
      "èģĮåĬ¡": 3449,
      "åł¡": 3450,
      "ç¾İä½ľ": 3451,
      "1598": 3452,
      "å¯Ĵ": 3453,
      "åīįçº¿": 3454,
      "åĲĮä¸Ģ": 3455,
      "æĥ§": 3456,
      "å®ŀçİ°": 3457,
      "èĬ¦åĲį": 3458,
      "ç¨³å®ļ": 3459,
      "éĥŃ": 3460,
      "ç¥¥": 3461,
      "ä¼Ĺäºº": 3462,
      "æĤī": 3463,
      "èį¡": 3464,
      "ä»ªå¼ı": 3465,
      "èģĶæīĭ": 3466,
      "å¿Į": 3467,
      "æ®Ĭ": 3468,
      "æļĤæĹ¶": 3469,
      "åı¹": 3470,
      "å¹´ä»£": 3471,
      "æĺ¯åĽłä¸º": 3472,
      "åįģäºĶå¹´": 3473,
      "çĬ¶æĢģ": 3474,
      "å¤§å¤ļ": 3475,
      "å¤§äºķ": 3476,
      "çĶŁæ¯į": 3477,
      "å¿łåħ´": 3478,
      "çĽ¸å¯¹": 3479,
      "æĺ¾ç¤º": 3480,
      "å¤§ä½Ľ": 3481,
      "åħ¶ä¸º": 3482,
      "éĩįå»º": 3483,
      "çķĻåľ¨": 3484,
      "å¯ĩ": 3485,
      "å°ıè·¯": 3486,
      "çĶ²å·ŀ": 3487,
      "æ°ıå®¶": 3488,
      "å¿§": 3489,
      "åĮ¹": 3490,
      "æī¶": 3491,
      "åĬłå¢ŀ": 3492,
      "ä»İæŃ¤": 3493,
      "å¯ºç¤¾": 3494,
      "æĴĳ": 3495,
      "åħ¶ä½Ļ": 3496,
      "ç´«": 3497,
      "çº³åħ¥": 3498,
      "çªģè¢Ń": 3499,
      "éªĳåħµ": 3500,
      "æ¥ł": 3501,
      "åĲ¹": 3502,
      "å°Ķ": 3503,
      "ä¹īè´ŀ": 3504,
      "éª¨": 3505,
      "ä¸ĢéĿ¢": 3506,
      "åº·æĶ¿": 3507,
      "çĻ½æ²³": 3508,
      "çīµåĪ¶": 3509,
      "ãģį": 3510,
      "æĦıåĽ¾": 3511,
      "æĹ§é¢Ĩ": 3512,
      "åħĥå¿ł": 3513,
      "ç«ł": 3514,
      "è¾ĵ": 3515,
      "å·ĿåŁİ": 3516,
      "ä¸īä½į": 3517,
      "ä¸īä¸ĩ": 3518,
      "éĹ¨å¾Ĵ": 3519,
      "çİ°åŃĺ": 3520,
      "æĶ¿åıĺ": 3521,
      "åĲĥ": 3522,
      "å°¹": 3523,
      "æī°": 3524,
      "æ¸Ĭ": 3525,
      "çĬ¹": 3526,
      "ä¸ĢçĶŁ": 3527,
      "é¢Ŀ": 3528,
      "éĴŁ": 3529,
      "å»ºè®®": 3530,
      "æĿİ": 3531,
      "æķ¦": 3532,
      "ä¸įåĨį": 3533,
      "äº¤æ¶ī": 3534,
      "åĬłå¼º": 3535,
      "æ½ľ": 3536,
      "å´ĩ": 3537,
      "ç»ĻäºĪ": 3538,
      "ä¸Ī": 3539,
      "åħĨ": 3540,
      "ç®ķ": 3541,
      "æĩ": 3542,
      "æľ¬éĺŁ": 3543,
      "ä¸ĥéĥİ": 3544,
      "èįĴæľ¨æĿĳ": 3545,
      "èįĴæľ¨æĿĳéĩį": 3546,
      "æĺĶ": 3547,
      "ä¸»å¯¼": 3548,
      "è°ı": 3549,
      "ä¸ĢæĹ¶": 3550,
      "æĭ¢": 3551,
      "åĢį": 3552,
      "å¤¹åĩ»": 3553,
      "éĸ": 3554,
      "æŃ¦èĢħ": 3555,
      "èĩ³äºİ": 3556,
      "è¶³åĪ©æ°ı": 3557,
      "éĩĳå±±": 3558,
      "æĺİç¡®": 3559,
      "åıįæĬĹ": 3560,
      "ä¸ľåĮĹ": 3561,
      "åľ¨äºİ": 3562,
      "é¡ºåºĨ": 3563,
      "å®¶ä¹ħ": 3564,
      "é©Ĵ": 3565,
      "å£¬": 3566,
      "å¾¡å®¶äºº": 3567,
      "éĻįä¼ı": 3568,
      "å¸®åĬ©": 3569,
      "çľŁæŃ£": 3570,
      "éĻĨå¥¥": 3571,
      "éķ·": 3572,
      "ãģ§": 3573,
      "æĺĮæĻ¯": 3574,
      "èĪŁ": 3575,
      "ç¦ģæŃ¢": 3576,
      "èµ¦åħį": 3577,
      "å¹´å¹¼": 3578,
      "çĶ°ä¸Ń": 3579,
      "åįĬå²Ľ": 3580,
      "ä¹ı": 3581,
      "ä½įç½®": 3582,
      "ä¸Ģåº§": 3583,
      "ä¸įå°ĳ": 3584,
      "æĪ·çĶ°": 3585,
      "çİĩåħµ": 3586,
      "æ´Ĺ": 3587,
      "ä¼ļè®®": 3588,
      "æ¸¡è¾¹": 3589,
      "çĽĸ": 3590,
      "å¹³åİŁ": 3591,
      "æĥľ": 3592,
      "å½¢åĬ¿": 3593,
      "ç½ļ": 3594,
      "ä¸Ģåįĥ": 3595,
      "é¢ĨåľŁ": 3596,
      "æ¯ķ": 3597,
      "ãģı": 3598,
      "ä¹¦çĬ¶": 3599,
      "å¹¸æĿĳ": 3600,
      "åį±æľº": 3601,
      "æ²³è¶Ĭ": 3602,
      "æĳĨ": 3603,
      "éĩĩçĶ¨": 3604,
      "ä¿¡çº²": 3605,
      "äº¤éĢļ": 3606,
      "æīĭä¹ĭæĪĺ": 3607,
      "æİ¢é¢ĺ": 3608,
      "èĹ¤åłĤé«ĺ": 3609,
      "æĬļ": 3610,
      "å¹¶äºİ": 3611,
      "ä½ľçĶ¨": 3612,
      "åŁİæĹ¶": 3613,
      "ä»¿": 3614,
      "è§ģäºİ": 3615,
      "åĨĪå±±": 3616,
      "åĽ½åı¸": 3617,
      "å®īæİĴ": 3618,
      "æ¸¡æµ·": 3619,
      "è´µæĹı": 3620,
      "åĩºåĩ»": 3621,
      "äºĭæĥħ": 3622,
      "æı´åĬ©": 3623,
      "æħ¢": 3624,
      "åĮ»": 3625,
      "èĭı": 3626,
      "å¤ªåĪĢ": 3627,
      "èģĶç»ľ": 3628,
      "ä½ĵçİ°": 3629,
      "ä¸ºæŃ¤": 3630,
      "å±ı": 3631,
      "è¢ĸ": 3632,
      "éĺµåľ°": 3633,
      "æĶ¾çģ«": 3634,
      "å®½æĶ¿": 3635,
      "å¯ºå®¶": 3636,
      "åıĳæĮ¥": 3637,
      "éĵł": 3638,
      "é¦ĸæ¬¡": 3639,
      "æĹ¥åĨĽ": 3640,
      "åĬ¨åĲĳ": 3641,
      "åł¤": 3642,
      "å½Ĵå±ŀ": 3643,
      "æĹłè®º": 3644,
      "æĪĳéĥ¨": 3645,
      "ä¿¡åıĭ": 3646,
      "å¥īåĳ½": 3647,
      "ç¥Ī": 3648,
      "145": 3649,
      "æĳĦæ´¥åĽ½": 3650,
      "å®ł": 3651,
      "æĬ±": 3652,
      "æľ¬æĿ¥": 3653,
      "æİª": 3654,
      "åĵįåºĶ": 3655,
      "å´©æºĥ": 3656,
      "è¾Ī": 3657,
      "éģĵè·¯": 3658,
      "åĴĮè°Ī": 3659,
      "éĶĲ": 3660,
      "çªģåĩ»": 3661,
      "èĥľä¹ħ": 3662,
      "åıĳå¸ĥ": 3663,
      "èĴ²çĶŁæ°ı": 3664,
      "çŁ³é«ĺ": 3665,
      "é©°": 3666,
      "èŀ": 3667,
      "å¤ľè¢Ń": 3668,
      "å±¥åİĨ": 3669,
      "ä¸ľåĽ½": 3670,
      "èīĺ": 3671,
      "åİĨä»£": 3672,
      "åķĬ": 3673,
      "è´±å²³": 3674,
      "éł": 3675,
      "åłĢè¶Ĭ": 3676,
      "ä¸ĢäºĽ": 3677,
      "ä¸įåĪ©": 3678,
      "éģŃéģĩ": 3679,
      "ä¹ĭçĪ¶": 3680,
      "ä¸įçŁ¥": 3681,
      "å½ĴåĽ½": 3682,
      "åĪĹä¸º": 3683,
      "å±±æľ¬": 3684,
      "æ»ĭ": 3685,
      "1566": 3686,
      "åħ«éĥİ": 3687,
      "çĲĨçĶ±": 3688,
      "æĿ¥èĩª": 3689,
      "é¾Ħ": 3690,
      "è¶ģæľº": 3691,
      "èĸĦ": 3692,
      "èķ": 3693,
      "çº¸": 3694,
      "éķĩå®Ī": 3695,
      "å¼ķèµ·": 3696,
      "åħ·ä½ĵ": 3697,
      "åĽ½åĨħ": 3698,
      "æ»¨æĿ¾": 3699,
      "åį³ä½¿": 3700,
      "çĶ²éĺ³": 3701,
      "èĢĥèĻĳ": 3702,
      "æįŁå¤±": 3703,
      "èĵ": 3704,
      "åĨĽéī´": 3705,
      "è´¥åĮĹ": 3706,
      "å¢Ļ": 3707,
      "ä¸Ģè¾¹": 3708,
      "ä¸ŃæľŁ": 3709,
      "å½¼": 3710,
      "åĮĹä¿¡": 3711,
      "ä»İèĢĮ": 3712,
      "çĶµ": 3713,
      "1588": 3714,
      "ä¸¹åĲİ": 3715,
      "åįģä¹Ŀå¹´": 3716,
      "æŃ¦åĭĩ": 3717,
      "æĻ¨": 3718,
      "åĲĮæĦı": 3719,
      "æĮ¡": 3720,
      "å¹³å®¶": 3721,
      "åº¶æµģ": 3722,
      "ä¸ĢæĪĺ": 3723,
      "ä¸Ńå·Ŀ": 3724,
      "å²Ń": 3725,
      "ä½Ĳä½Ĳæľ¨": 3726,
      "å¦Ĥæ°´": 3727,
      "èĮ¶éģĵ": 3728,
      "ä¼¼ä¹İ": 3729,
      "å¥ĸ": 3730,
      "é«ĺè¿ľ": 3731,
      "èµ·åĪĿ": 3732,
      "å®ĪåŁİ": 3733,
      "åķĨè®®": 3734,
      "âĢķ": 3735,
      "ä¸īä»£": 3736,
      "åĨĪåŁİ": 3737,
      "ãģĬ": 3738,
      "é¡ºåĪ©": 3739,
      "åĲĮæľĪ": 3740,
      "å®ŀä¸º": 3741,
      "è¿İåĩ»": 3742,
      "çĪ±çŁ¥åİ¿": 3743,
      "æĸ¥": 3744,
      "äºķåŁİ": 3745,
      "èº«äº¡": 3746,
      "çĲĥ": 3747,
      "1556": 3748,
      "å¤ıä¹ĭéĺµ": 3749,
      "å±Ī": 3750,
      "åĩºæĪĺ": 3751,
      "è®°è¿°": 3752,
      "1591": 3753,
      "1558": 3754,
      "éªļåĬ¨": 3755,
      "ä¸ľæµ·éģĵ": 3756,
      "300": 3757,
      "åĭ¤": 3758,
      "å¤§åıĭä¹ī": 3759,
      "æĤ¨": 3760,
      "åįģåħŃå¹´": 3761,
      "äººé©¬": 3762,
      "ä¹īç»Ł": 3763,
      "æ±Ĥæı´": 3764,
      "ä¹ĥæĺ¯": 3765,
      "å®¶åħī": 3766,
      "åıĸä»£": 3767,
      "æĸ¯æ³¢æ°ı": 3768,
      "æľīçĿĢ": 3769,
      "æ°¸äº«": 3770,
      "åĪ©éķ¿": 3771,
      "æĹ©å¹´": 3772,
      "æĦŁçĬ¶": 3773,
      "æĿµ": 3774,
      "æ´ĭ": 3775,
      "é¢ģå¸ĥ": 3776,
      "è¹": 3777,
      "éĩİçĶ°": 3778,
      "ä»»åĬ¡": 3779,
      "åĽŀå½Ĵ": 3780,
      "æĶ¯åŁİ": 3781,
      "ç¼ĵ": 3782,
      "ä¸ĢçĻ¾": 3783,
      "åĨĽåĽ¢": 3784,
      "ä¾£": 3785,
      "æŁĵ": 3786,
      "éļĪ": 3787,
      "æĺ¾å®ļ": 3788,
      "ç²Ł": 3789,
      "ï½ŀ": 3790,
      "åĬª": 3791,
      "èĹ©å£«": 3792,
      "è®¾ç½®": 3793,
      "ä¹Į": 3794,
      "æ³Ľ": 3795,
      "å¹³ä¿¡": 3796,
      "æ²¡èĲ½": 3797,
      "èģĶç³»": 3798,
      "æ°ıçĽ´": 3799,
      "å±±å®¶": 3800,
      "å®īèĹ¤": 3801,
      "æģ°": 3802,
      "çĮ¿": 3803,
      "åįĸ": 3804,
      "èĢĮåĲİ": 3805,
      "ä½Ĳéĩİ": 3806,
      "è¿ľæ±ŁåĽ½": 3807,
      "å¥ł": 3808,
      "éĹ²": 3809,
      "éªĮ": 3810,
      "å¿įèĢħ": 3811,
      "çıŃ": 3812,
      "ä¿ĺ": 3813,
      "åħ«ä»£": 3814,
      "æİ¨è¿Ľ": 3815,
      "éĤĢè¯·": 3816,
      "ä¸ĢæĶ¯": 3817,
      "äººä»¬": 3818,
      "æĬ¢": 3819,
      "è¾¾åĪ°": 3820,
      "1554": 3821,
      "æ·¡è·¯": 3822,
      "æĶ¹å§ĵ": 3823,
      "è¡¨æĺİ": 3824,
      "éĻª": 3825,
      "åłª": 3826,
      "å¤©ä¸»": 3827,
      "ç³»åĽ¾": 3828,
      "æģĴåħ´": 3829,
      "åı¡": 3830,
      "å¤ĩåĲİ": 3831,
      "åı¬éĽĨ": 3832,
      "å°Ĩå£«": 3833,
      "æŃ£ä¿¡": 3834,
      "æ¡Ĳ": 3835,
      "æĹ©å·²": 3836,
      "èĤ¯": 3837,
      "ä½ĽæķĻ": 3838,
      "æľĢé«ĺ": 3839,
      "å¤§åĴĮåĽ½": 3840,
      "ä»¥å¤ĸ": 3841,
      "æīĵåĩ»": 3842,
      "èĬ±å±±": 3843,
      "æŀģä¸º": 3844,
      "å·¨å¤§": 3845,
      "çģ¾": 3846,
      "æĶ¯æĴĳ": 3847,
      "éĻįæľį": 3848,
      "å®ľ": 3849,
      "æľ¬èº«": 3850,
      "ãģĻ": 3851,
      "åıįæĺł": 3852,
      "ä½Ĳç«¹æ°ı": 3853,
      "å£«æ°Ķ": 3854,
      "ä¹ĭäºī": 3855,
      "éĹŃ": 3856,
      "å±ĢéĿ¢": 3857,
      "éĺ²å¤ĩ": 3858,
      "åħ·æľī": 3859,
      "åĥ§ä¾£": 3860,
      "åīĥ": 3861,
      "æĿ¾çĶ°": 3862,
      "æĬķå¥Ķ": 3863,
      "æļĹä¸Ń": 3864,
      "åľŁè±ª": 3865,
      "å¯ĮçĶ°": 3866,
      "æ³¢å¤ļ": 3867,
      "å¿łè¯ļ": 3868,
      "æĽ°": 3869,
      "çĮĽæĶ»": 3870,
      "æ²¹": 3871,
      "è¯¸ä¾¯": 3872,
      "1559": 3873,
      "æŀĿ": 3874,
      "è§Ħå®ļ": 3875,
      "ç«ĭåľº": 3876,
      "äºĭè¿¹": 3877,
      "æį®ä¼ł": 3878,
      "çĮª": 3879,
      "æ¹¾": 3880,
      "æķķ": 3881,
      "çºĤ": 3882,
      "èģĶå§»": 3883,
      "ç§Ģåº·": 3884,
      "ä¸¤åĽ½": 3885,
      "å·¦äº¬": 3886,
      "éĽĨåĽ¢": 3887,
      "ç±³æ³½": 3888,
      "æģ¶åĮĸ": 3889,
      "åĲ¯": 3890,
      "éĿ¢åīį": 3891,
      "åįģä¸ĥå¹´": 3892,
      "åĪ©çĽĬ": 3893,
      "å°ļæľª": 3894,
      "å®Ĺåħ¨": 3895,
      "ä¸Ģçķª": 3896,
      "ä¹ĭæĦı": 3897,
      "æĥ¯": 3898,
      "æī¿æĭħ": 3899,
      "æĶ¶åĪ°": 3900,
      "çĻ»éĻĨ": 3901,
      "åħµé©¬": 3902,
      "ç»ıèĲ¥": 3903,
      "ä¸Ģéĥ¨åĪĨ": 3904,
      "å¯¡": 3905,
      "æľīæīĢ": 3906,
      "æŃ£éĿ¢": 3907,
      "åħµç²®": 3908,
      "åĿļå®Ī": 3909,
      "åİŁçĶ°": 3910,
      "å¾ģè®¨": 3911,
      "ç´¢": 3912,
      "è¶ĭ": 3913,
      "1595": 3914,
      "æ¸¸ä½Ĳ": 3915,
      "å§»äº²": 3916,
      "æĻ´å®Ĺ": 3917,
      "çĭĤ": 3918,
      "é¸£": 3919,
      "åľ°å½¢": 3920,
      "ãģĤ": 3921,
      "ç³»è°±": 3922,
      "å§ĵæ°ı": 3923,
      "æİĮæİ§": 3924,
      "ä¸ľéĥ¨": 3925,
      "æŁĦ": 3926,
      "æĦıè§ģ": 3927,
      "å¾ģå¤·": 3928,
      "å¤§åĿĤä¹ĭéĺµ": 3929,
      "1542": 3930,
      "éĢĤ": 3931,
      "164": 3932,
      "ä»ĵåŁİ": 3933,
      "å¹¿å®¶": 3934,
      "ç¶": 3935,
      "ä¹īéķ¿": 3936,
      "çŁ³åŀ£": 3937,
      "ä½Ĳä¹ħ": 3938,
      "åħ¬ä¼Ĺ": 3939,
      "ä¾Ħ": 3940,
      "åįİæĹı": 3941,
      "æ¬¾": 3942,
      "çīĮ": 3943,
      "æ±ŁåŁİ": 3944,
      "å¼ĢæĪĺ": 3945,
      "åįĥäºº": 3946,
      "ä¾ĿéĻĦ": 3947,
      "1551": 3948,
      "ç½Ĺé©¬": 3949,
      "å®¶ä¸ļ": 3950,
      "å¤§éļħ": 3951,
      "ä¸»åħ¬": 3952,
      "ç«ĭèĬ±å®¶": 3953,
      "åľ°çĲĨ": 3954,
      "ä¸¤å¹´": 3955,
      "ãĤĪ": 3956,
      "èįĲ": 3957,
      "èĥ¡": 3958,
      "è¡°èĲ½": 3959,
      "èı©æıĲ": 3960,
      "èµĭ": 3961,
      "å´İåŁİ": 3962,
      "è¯¸åĽ½": 3963,
      "åĮºåŁŁ": 3964,
      "åĭĩçĮĽ": 3965,
      "éģ¿åħį": 3966,
      "äººæķ°": 3967,
      "éĩįçĶ¨": 3968,
      "åħ»å¥³": 3969,
      "æī§äºĭ": 3970,
      "100": 3971,
      "åŃ©": 3972,
      "æĪª": 3973,
      "æĿ°": 3974,
      "ä¸»åĬ¨": 3975,
      "æĽ´æĺ¯": 3976,
      "è¯ĽæĿĢ": 3977,
      "åĲĹ": 3978,
      "é©¾": 3979,
      "çİ°ä»Ĭ": 3980,
      "å¥¥ç¾½": 3981,
      "äº¤ç»Ļ": 3982,
      "1557": 3983,
      "éĶģ": 3984,
      "å¢ŀåĬł": 3985,
      "é¢ģåıĳ": 3986,
      "äºĭå®ŀä¸Ĭ": 3987,
      "ä¸ĢæľĪ": 3988,
      "éļĨæĪ¿": 3989,
      "èĬ¸": 3990,
      "å±ħå£«": 3991,
      "å®£å¸ĥ": 3992,
      "èĳĹç§°": 3993,
      "åĪĽå»º": 3994,
      "æİ¥è¿ĳ": 3995,
      "è¿ľå¾ģ": 3996,
      "ä¼ģåĽ¾": 3997,
      "æĶ¿æĻ¯": 3998,
      "è¿ģèĩ³": 3999,
      "å®ŀè´¨": 4000,
      "æīĭä¸ĭ": 4001,
      "å¯¹æĸ¹": 4002,
      "ä¼łæķĻå£«": 4003,
      "çĽĽäº²": 4004,
      "åįĹä¸ĭ": 4005,
      "ãģĵ": 4006,
      "åĽ¾è°ĭ": 4007,
      "åĥļ": 4008,
      "å±ĭåŁİ": 4009,
      "èµĦæĸĻ": 4010,
      "éĢĲåĩº": 4011,
      "çĥ§æ¯ģ": 4012,
      "å¤ļå¹´": 4013,
      "æºĲä¹ī": 4014,
      "çī§éĩİ": 4015,
      "åİ©": 4016,
      "ä¸įåĪ°": 4017,
      "è¿ĩåİ»": 4018,
      "è§ĤéŁ³": 4019,
      "æĴ°": 4020,
      "å±ķçİ°": 4021,
      "éĩįå¤§": 4022,
      "1548": 4023,
      "è°ĪåĪ¤": 4024,
      "éĺ¶å±Ĥ": 4025,
      "ä¸įæķ¢": 4026,
      "å°Ħåĩ»": 4027,
      "ä¸Ĭäº¬": 4028,
      "æľĢæĹ©": 4029,
      "è¿ĳå¹´": 4030,
      "å¢¨": 4031,
      "æī®": 4032,
      "ä¸Ĭè¿°": 4033,
      "åŃĿæĻ¯": 4034,
      "å¾Īå¤ļ": 4035,
      "äºļ": 4036,
      "åŃĲåĹ£": 4037,
      "æ¬¡æĹ¥": 4038,
      "åĪ¶å®ļ": 4039,
      "ä¸įå¦Ĥ": 4040,
      "æľ¬æį®": 4041,
      "çĶŁåįĴ": 4042,
      "æ²³åİŁ": 4043,
      "è¥¿éĥ¨": 4044,
      "åĵª": 4045,
      "é¾Ļåħ´": 4046,
      "åįģåĽĽ": 4047,
      "ä¸»å®¶": 4048,
      "åĲĪä½ľ": 4049,
      "åĲįéĹ¨": 4050,
      "è¿½éļı": 4051,
      "æ©¹": 4052,
      "æŃ£èĥľ": 4053,
      "äºĮä¹ĭä¸¸": 4054,
      "æķħäºĭ": 4055,
      "çĽ´èĮĤ": 4056,
      "æµ·ä¸Ĭ": 4057,
      "éĿĻåĨĪ": 4058,
      "ä¹ĭä¸Ĭ": 4059,
      "å¤©éĩİ": 4060,
      "çĦļæ¯ģ": 4061,
      "ä¸ĢèģĮ": 4062,
      "ä¸ĢçĤ¹": 4063,
      "å»»": 4064,
      "æ³ķå¸Ī": 4065,
      "éļıä»İ": 4066,
      "ä¹Ŀé¬¼": 4067,
      "1541": 4068,
      "çĲ¼": 4069,
      "1589": 4070,
      "åı³è¿ĳ": 4071,
      "åĬĿè¯´": 4072,
      "å¹ħ": 4073,
      "ä¸īä¸ª": 4074,
      "åĩºå¥Ķ": 4075,
      "èĢĮå·²": 4076,
      "å²ĽåŁİ": 4077,
      "ä¾įä»İ": 4078,
      "çĶ²åºľ": 4079,
      "ç±»ä¼¼": 4080,
      "è°Ĵè§ģ": 4081,
      "å¤§éĥ¨åĪĨ": 4082,
      "éķ¿äºķ": 4083,
      "äºĮçĻ¾": 4084,
      "1550": 4085,
      "åĴĮå¹³": 4086,
      "å¯¹åºĶ": 4087,
      "äº¬çķ¿": 4088,
      "æĢİä¹Ī": 4089,
      "åŁİåŁİä¸»": 4090,
      "æĶ¿æīĢ": 4091,
      "åħ¼ä»»": 4092,
      "åĢŃå¯ĩ": 4093,
      "3000": 4094,
      "ä¸Ģè·¯": 4095,
      "æĪĸè®¸": 4096,
      "æł¹æĿ¥": 4097,
      "æĪı": 4098,
      "åĮħåĽ´ç½ĳ": 4099,
      "éĩįæĶ¿": 4100,
      "çĨĬè°·": 4101,
      "ä¿¡æµĵåĽ½": 4102,
      "1593": 4103,
      "å·¥ç¨ĭ": 4104,
      "çĩ": 4105,
      "ä¸ĢæĹ¦": 4106,
      "ä¸¤ä½į": 4107,
      "å¯Įå£«": 4108,
      "æ¥łæľ¨": 4109,
      "æŃ¦åĻ¨": 4110,
      "è¿ĻéĩĮ": 4111,
      "åįģäºĶæĹ¥": 4112,
      "éļ¶å±ŀ": 4113,
      "çĽĹ": 4114,
      "æµ®": 4115,
      "çİĩåħĪ": 4116,
      "è¾¹å¢ĥ": 4117,
      "å¦¹å¦¹": 4118,
      "æ¯«æĹł": 4119,
      "ä»Ĺ": 4120,
      "ä¸Ģä¸¾": 4121,
      "ä¸ĢåĪĩ": 4122,
      "éĢı": 4123,
      "ç¥Ŀ": 4124,
      "åĽ´ç»ķ": 4125,
      "çŃĸåıį": 4126,
      "ç»ĥ": 4127,
      "èĢ¶": 4128,
      "æŃ¤å½¹": 4129,
      "ãģ¤": 4130,
      "ç»ĵæĪĲ": 4131,
      "ç§Ģçº²": 4132,
      "å¥ĳ": 4133,
      "æĿ¾æ°¸": 4134,
      "éĢļå¸¸": 4135,
      "æī§è¡Į": 4136,
      "æīİ": 4137,
      "å¤ªæĶ¿": 4138,
      "æºĲèµĸæľĿ": 4139,
      "è¯¸åŁİ": 4140,
      "ä¸ģ": 4141,
      "åľ¨åĨħ": 4142,
      "çºł": 4143,
      "æŀļ": 4144,
      "ç®±": 4145,
      "å²©åŁİ": 4146,
      "èµıèµĲ": 4147,
      "è§£éĩĬ": 4148,
      "åĲİç»§": 4149,
      "æľ¬å±±": 4150,
      "æĻ¯æĺ¥": 4151,
      "ä¸¤ä¸ĩ": 4152,
      "åįĥä½Ļ": 4153,
      "1553": 4154,
      "ç¡®ä¿Ŀ": 4155,
      "ä¸Ŀ": 4156,
      "åŁİåł¡": 4157,
      "ä¸īå®¶": 4158,
      "æŃ£å¹³": 4159,
      "çº¢": 4160,
      "æ¯Ĵ": 4161,
      "åĪ«åĲį": 4162,
      "çªģçł´": 4163,
      "åŀĴ": 4164,
      "åĶ¯ä¸Ģ": 4165,
      "éķ¿æ»¨": 4166,
      "æīĢé¢Ĩ": 4167,
      "ä¸ĸè¢Ń": 4168,
      "åºĦåĨħ": 4169,
      "å¹´ä»ħ": 4170,
      "æĿ¾æµ¦": 4171,
      "çĽĽæĶ¿": 4172,
      "éĢĢåĽŀ": 4173,
      "æıĲåĪ°": 4174,
      "çĸ²": 4175,
      "æĪĺåīį": 4176,
      "çĶ¨äºİ": 4177,
      "æĻ´æ°ı": 4178,
      "è®¸åı¯": 4179,
      "ç¢ĳ": 4180,
      "ä¸İæŃ¤": 4181,
      "æīĭæ®µ": 4182,
      "èİ·èĥľ": 4183,
      "åıĺæĪĲ": 4184,
      "æľįéĥ¨": 4185,
      "çģ«ç»³": 4186,
      "å¢ĥåĨħ": 4187,
      "èŀį": 4188,
      "æĨ": 4189,
      "äº¬åħĨ": 4190,
      "åı·ç§°": 4191,
      "ä¾Ŀæį®": 4192,
      "åĽºå®Ī": 4193,
      "éĺ»æŃ¢": 4194,
      "è²Į": 4195,
      "è®¾ç«ĭ": 4196,
      "åĨ³å¿ĥ": 4197,
      "å¥łå®ļ": 4198,
      "èĹ¤åĲī": 4199,
      "åŁºçĿ£æķĻ": 4200,
      "æĬĦ": 4201,
      "å°ıå§ĵ": 4202,
      "æİĺ": 4203,
      "æĸĩçĮ®": 4204,
      "è¡°éĢĢ": 4205,
      "æŀ¶": 4206,
      "åĬłä¹ĭ": 4207,
      "èģĮä½į": 4208,
      "èĳĽè¥¿": 4209,
      "å¤©ä¸»æķĻ": 4210,
      "å·´": 4211,
      "åĩŃåĢŁ": 4212,
      "çĮİ": 4213,
      "åĲŀ": 4214,
      "é«ĺèĻİ": 4215,
      "æĥ³è¦ģ": 4216,
      "å»¶åİĨ": 4217,
      "çŃĸçķ¥": 4218,
      "åĩĢåľŁ": 4219,
      "æŃ£äº²": 4220,
      "æ²»çĲĨ": 4221,
      "åĪĿéĺµ": 4222,
      "è¿ŀç½²": 4223,
      "1552": 4224,
      "éĺ¿å¼¥": 4225,
      "é»ĳçĶ°åŃĿé«ĺ": 4226,
      "å°±æŃ¤": 4227,
      "è¯¥åľ°": 4228,
      "å®į": 4229,
      "ä¹ĭäºĭ": 4230,
      "çĶ°ä¿¡": 4231,
      "åĩ¡": 4232,
      "æľ¬åºĦ": 4233,
      "åįģä¸ĥ": 4234,
      "å¯¹æīĭ": 4235,
      "è¡Ĺéģĵ": 4236,
      "ä¸½": 4237,
      "è´°": 4238,
      "è´Łä¼¤": 4239,
      "ä¾µçķ¥": 4240,
      "æĿ¾å¹³æ°ı": 4241,
      "ç§»å°ģ": 4242,
      "æľ¬å¤ļå¿łèĥľ": 4243,
      "å¤ķ": 4244,
      "åħµæ³ķ": 4245,
      "æĶ¹åıĺ": 4246,
      "æĽ´åĬł": 4247,
      "åĪ©ä¹īæ»¡": 4248,
      "è½¬æĪĺ": 4249,
      "çºªå·ŀ": 4250,
      "æ¤İ": 4251,
      "æĹ¥éĩİ": 4252,
      "æŁ±": 4253,
      "å¦Ĥä¸ĭ": 4254,
      "æĢ§åĳ½": 4255,
      "åĳ¨éĺ²åĽ½": 4256,
      "åĨł": 4257,
      "æĶ¿ç§Ģ": 4258,
      "å¯¹å¤ĸ": 4259,
      "ç¬¦": 4260,
      "è¿ĳä¸ĸ": 4261,
      "éĽĨä¸Ń": 4262,
      "ä¹°": 4263,
      "ç§Ģåħĥ": 4264,
      "æ¶¦": 4265,
      "æ§»": 4266,
      "åŁİéĥŃ": 4267,
      "åħĪåīį": 4268,
      "144": 4269,
      "çº¦å®ļ": 4270,
      "å©ļå§»": 4271,
      "å§Ĭå·Ŀ": 4272,
      "éķ¿çŃ±": 4273,
      "å¤ĸçĶ¥": 4274,
      "åı¤ä»£": 4275,
      "çĮ®ä¸Ĭ": 4276,
      "æĻ®è¯·": 4277,
      "å¤§å®Ŀ": 4278,
      "åĿª": 4279,
      "äºĶå¤§": 4280,
      "éĢĥåĩº": 4281,
      "ä¸¾åĬŀ": 4282,
      "åŀĤ": 4283,
      "åĹ£åŃĲ": 4284,
      "éĵ¶å±±": 4285,
      "ä¸İæŃ¤åĲĮæĹ¶": 4286,
      "å±±ä¸Ĭ": 4287,
      "æłħ": 4288,
      "éĵľ": 4289,
      "æ´¾åħµ": 4290,
      "æĥ³åĪ°": 4291,
      "ç§ĭçĶ°": 4292,
      "ä¾ĿæĹ§": 4293,
      "ä¾ĿçĦ¶": 4294,
      "æĭīæĭ¢": 4295,
      "åī©ä¸ĭ": 4296,
      "åİŁéķ¿": 4297,
      "éļıè¡Į": 4298,
      "åį³å°Ĩ": 4299,
      "ä¼łè¾¾": 4300,
      "èĳ¡": 4301,
      "1546": 4302,
      "åĨ¬ä¹ĭéĺµ": 4303,
      "èķĥ": 4304,
      "ä¹īéĩį": 4305,
      "è®©ç»Ļ": 4306,
      "æĺ¾å¦Ĥ": 4307,
      "ç¼ĸçºĤ": 4308,
      "å¸¦é¢Ĩ": 4309,
      "éªıæ²³åĽ½": 4310,
      "åį°çĬ¶": 4311,
      "ç»ĵåŁİæ°ı": 4312,
      "ä¸ľå±±": 4313,
      "åħŃéĥİ": 4314,
      "ãĤĵ": 4315,
      "åŃ¦ä¹ł": 4316,
      "åĬ£åĬ¿": 4317,
      "80": 4318,
      "å·Ŀæ°ı": 4319,
      "è¿Ļä¹Ī": 4320,
      "è¿ĩç»§": 4321,
      "åĭ¾": 4322,
      "ç§©": 4323,
      "åĽ½åºľ": 4324,
      "æĶ¿çŁ¥": 4325,
      "å¸¦æĿ¥": 4326,
      "æĺĶæĹ¥": 4327,
      "âĨ": 4328,
      "åįģæĹ¥": 4329,
      "æĭĨ": 4330,
      "å¿Ĺè´º": 4331,
      "éķ¿å´İ": 4332,
      "å¯¸": 4333,
      "åģ¥": 4334,
      "è§£åĨ³": 4335,
      "è´¡çĮ®": 4336,
      "ä¸ªäºº": 4337,
      "å½Ĵé¡º": 4338,
      "åĲ¬éĹ»": 4339,
      "åģľæŃ¢": 4340,
      "æĢĢçĸĳ": 4341,
      "å¥¥åĽ½": 4342,
      "1599": 4343,
      "åĳ¨åĽ´": 4344,
      "1549": 4345,
      "éķ¿äº«": 4346,
      "åĨħè®": 4347,
      "æ¿ĳæĪ·": 4348,
      "æłĩå¿Ĺ": 4349,
      "åºĻ": 4350,
      "ç¬¬äºĶ": 4351,
      "èİ«": 4352,
      "ä¿ĿçķĻ": 4353,
      "åģ·": 4354,
      "èĩ´åĬĽ": 4355,
      "è§£éĻ¤": 4356,
      "éºĵ": 4357,
      "åįģä¸īæĹ¥": 4358,
      "äº²çİĩ": 4359,
      "äºĮéĺ¶": 4360,
      "æĦĪ": 4361,
      "æľĢä¸º": 4362,
      "æĥ¨è´¥": 4363,
      "ãģ£": 4364,
      "æĺİåĨĽ": 4365,
      "åħ»çĪ¶": 4366,
      "æĦ¿æĦı": 4367,
      "åĨħè®§": 4368,
      "åĪĪ": 4369,
      "ä¹ĭèģĮ": 4370,
      "æľīåĲį": 4371,
      "æŃ¦åĬŁ": 4372,
      "éģµ": 4373,
      "åĲīå¼ĺ": 4374,
      "åĬłå°ģ": 4375,
      "ç¥ŀæĪ·": 4376,
      "æĶ¹ç§°": 4377,
      "æ¯Ķè¾ĥ": 4378,
      "å¿ĺ": 4379,
      "ä»ĬæĹ¥": 4380,
      "å¤§è¾ħ": 4381,
      "åįģæĹ¶": 4382,
      "åįģåħ«": 4383,
      "å¡ŀ": 4384,
      "éĩİå¿ĥ": 4385,
      "åİĭåĪ¶": 4386,
      "æŁ³å·Ŀ": 4387,
      "ä¿¡è¡Į": 4388,
      "å¾¡é¦Ĩ": 4389,
      "åħ¨éĿ¢": 4390,
      "æºĲäºİ": 4391,
      "å¼Ĺ": 4392,
      "å§¿": 4393,
      "åħ¬åħĥ": 4394,
      "çłį": 4395,
      "æĸĹäºī": 4396,
      "çĮĽå°Ĩ": 4397,
      "ä¹ĭåĬ©": 4398,
      "ä¹ħä¹ĭ": 4399,
      "èĪľ": 4400,
      "çŃĶåºĶ": 4401,
      "åŃ¦èĢħ": 4402,
      "1547": 4403,
      "ä½©": 4404,
      "åĩĳ": 4405,
      "å¹³æĪĲ": 4406,
      "åĸĬ": 4407,
      "èħ°": 4408,
      "æ½®": 4409,
      "ä¸Ģç³»": 4410,
      "å¿½": 4411,
      "å£ķ": 4412,
      "æĦıä¹ī": 4413,
      "èµ«": 4414,
      "å®ŀè¡Į": 4415,
      "ç»ĵæŀĦ": 4416,
      "æĹ©æľŁ": 4417,
      "åŁİåħµ": 4418,
      "è®¤åı¯": 4419,
      "åŁºæ¬¡": 4420,
      "ä»ĻçŁ³": 4421,
      "çĵ¦è§£": 4422,
      "âĨĴ": 4423,
      "æĿ¥çľĭ": 4424,
      "çŃīå¾ħ": 4425,
      "èĤĥ": 4426,
      "è·¯çº¿": 4427,
      "åŁİä¸Ń": 4428,
      "åĮĹä¹Ŀå·ŀ": 4429,
      "å¼ĢåĪĽ": 4430,
      "çŃĳå±±": 4431,
      "åıªè¦ģ": 4432,
      "æīĳ": 4433,
      "å«¡æµģ": 4434,
      "æĹĹä¸ĭ": 4435,
      "å¼¹æŃ£": 4436,
      "åĲ¸": 4437,
      "è®¢": 4438,
      "æ´¥è½»": 4439,
      "å±ħäºİ": 4440,
      "ç¨į": 4441,
      "æķĮéĺµ": 4442,
      "è¯¸å¤ļ": 4443,
      "ç§»å±ħ": 4444,
      "éĩįä¿®": 4445,
      "å®īæĪ¿": 4446,
      "ç»Īç»ĵ": 4447,
      "äºĮåįģå¹´": 4448,
      "éªĳé©¬": 4449,
      "é¦Ļå·Ŀ": 4450,
      "å·§": 4451,
      "éĻĨç»Ń": 4452,
      "åĨľä¸ļ": 4453,
      "æŁ³çĶŁ": 4454,
      "è¯¢": 4455,
      "è¿Ľé©»": 4456,
      "åĬ¨æĳĩ": 4457,
      "èĢģèĩ£": 4458,
      "æľīåħ³": 4459,
      "åįģä½Ļ": 4460,
      "åĥ§äºº": 4461,
      "ä½ĲèĹ¤": 4462,
      "æŁ¿": 4463,
      "åıĸåĲį": 4464,
      "å¤±åĬ¿": 4465,
      "åĪĩæĸŃ": 4466,
      "æ®ī": 4467,
      "ç¦ıåĨĪ": 4468,
      "å½ĵä¸Ń": 4469,
      "æł¡": 4470,
      "å®īåĽ½": 4471,
      "æĬ¤åį«": 4472,
      "ä¿ĿåŃĺ": 4473,
      "139": 4474,
      "äºĮåįģæĹ¥": 4475,
      "å§¬è·¯": 4476,
      "ç¥Ģ": 4477,
      "ç´¯": 4478,
      "åĿļæĮģ": 4479,
      "é¸Łåıĸ": 4480,
      "å²³çĪ¶": 4481,
      "ç¬Ķå¤´": 4482,
      "åĪĳéĥ¨": 4483,
      "èĹ¤åĲīéĥİ": 4484,
      "åĨħåºĶ": 4485,
      "æķĮæĸ¹": 4486,
      "èĥĨ": 4487,
      "æĹłäºº": 4488,
      "ä¸ŀ": 4489,
      "136": 4490,
      "çĸı": 4491,
      "é¾Łå±±": 4492,
      "1603": 4493,
      "æ¥¼": 4494,
      "æ²¦": 4495,
      "æĸ©é¦ĸ": 4496,
      "èĢĹ": 4497,
      "æŃ¤åľ°": 4498,
      "åįģä¹ĿæĹ¥": 4499,
      "éĥ¨å®¶": 4500,
      "ç¡®å®ļ": 4501,
      "æķĪåĬĽ": 4502,
      "æĥłçĲ¼": 4503,
      "åĬªåĬĽ": 4504,
      "å¤§æ²³": 4505,
      "è¯´æĺİ": 4506,
      "åĩ»æºĥ": 4507,
      "åĭĭ": 4508,
      "åĬ±": 4509,
      "è´¥èµ°": 4510,
      "è¯·æĸĩ": 4511,
      "æĪļ": 4512,
      "ä¼¸": 4513,
      "ä¸įåľ¨": 4514,
      "åıĽåıĺ": 4515,
      "èĩ¼æĿµ": 4516,
      "ä½³": 4517,
      "æĪĺå±Ģ": 4518,
      "å¾ģæĶ¶": 4519,
      "æĥħæĬ¥": 4520,
      "æľºæŀĦ": 4521,
      "åŃ¦çķĮ": 4522,
      "ç©´å±±": 4523,
      "ä¸Ģä¸°": 4524,
      "ä¿¡èĥľ": 4525,
      "çĤº": 4526,
      "æ¡¥åŁİ": 4527,
      "éĵłçĶ²": 4528,
      "ä¿¡æµĵ": 4529,
      "æŃ¦åĬĽ": 4530,
      "è¾±": 4531,
      "é¢Ĩå¯¼": 4532,
      "æĮº": 4533,
      "åĬłæ²»": 4534,
      "èĪª": 4535,
      "å¾ģæľį": 4536,
      "è´ŀèĥľ": 4537,
      "ç¡®å®ŀ": 4538,
      "æĿ¿åŀ£": 4539,
      "æĻĵ": 4540,
      "ä¹±ä¸ĸ": 4541,
      "åŁİå¸Ĥ": 4542,
      "å¤§å®¶": 4543,
      "æħ°": 4544,
      "æĮīçħ§": 4545,
      "æĪĺåĨµ": 4546,
      "å®īå®ħ": 4547,
      "æ¸ħç§Ģ": 4548,
      "å°ĳå¹´": 4549,
      "è¡¥ç»Ļ": 4550,
      "å¦ĩ": 4551,
      "è¶Ĭè¿ĩ": 4552,
      "åĲīè§ģ": 4553,
      "éĩįè§Ĩ": 4554,
      "çĶŁé©¹": 4555,
      "æĢª": 4556,
      "å®īåħ¨": 4557,
      "äº¤åĩº": 4558,
      "æĢ§æł¼": 4559,
      "åĪĿä»£èĹ©": 4560,
      "æĪĸèĢħ": 4561,
      "1597": 4562,
      "æĴŃç£¨åĽ½": 4563,
      "æľ½": 4564,
      "ä¹ĭåĨħ": 4565,
      "åįģä¸ĩ": 4566,
      "æĭħå¿ĥ": 4567,
      "éĤ£æł·": 4568,
      "æ£®åŁİ": 4569,
      "ç½²åĲį": 4570,
      "éĩľ": 4571,
      "ä¸įåıĬ": 4572,
      "å¤§å¯º": 4573,
      "æĭŁ": 4574,
      "ä¼ļæĪĺ": 4575,
      "åįĹæĸ¹": 4576,
      "æ¨«": 4577,
      "éĢ¼è¿ĳ": 4578,
      "ç¼ºä¹ı": 4579,
      "çĽ¸åĲĮ": 4580,
      "éĢģå¾Ģ": 4581,
      "çĽĳè§Ĩ": 4582,
      "èĥľæĪĲ": 4583,
      "å¹³æģ¯": 4584,
      "æĺİçŁ³": 4585,
      "å¾ĢæĿ¥": 4586,
      "çĲī": 4587,
      "è°ĥæŁ¥": 4588,
      "æ¨ªå±±": 4589,
      "èģļä¹Ĳ": 4590,
      "åľ°åŁŁ": 4591,
      "æİ©": 4592,
      "1601": 4593,
      "æ°ıçħ§": 4594,
      "å®ĹæĻ¯": 4595,
      "è¯¥åŁİ": 4596,
      "è¿İæĪĺ": 4597,
      "çŃ¹": 4598,
      "1540": 4599,
      "å²³åŁİ": 4600,
      "åĨĴ": 4601,
      "åŁİä¸º": 4602,
      "ä¹īå°§": 4603,
      "åĲįæĬ¤": 4604,
      "è½©": 4605,
      "æ¸©æ³ī": 4606,
      "éĢ¢": 4607,
      "åĬłä»¥": 4608,
      "ä¼łæī¿": 4609,
      "çĻ¾ä½Ļ": 4610,
      "äºīæĸĹ": 4611,
      "ä¸ĭè¾¾": 4612,
      "åĦĴ": 4613,
      "çĶ°åİŁ": 4614,
      "å¤§æĿĳ": 4615,
      "äº²ä¿¡": 4616,
      "å¤ļå®¶": 4617,
      "æĴ¤åĽŀ": 4618,
      "èĪ¹åıª": 4619,
      "é¡½": 4620,
      "å¼ºçĥĪ": 4621,
      "è´µä¹ħ": 4622,
      "åĺīæĺİ": 4623,
      "æ³¨æĦı": 4624,
      "æĹ¥çĽĬ": 4625,
      "ç§Ģä¹ħ": 4626,
      "æ³ª": 4627,
      "å£«åįĴ": 4628,
      "ãģł": 4629,
      "è¿ĳä¾į": 4630,
      "çİ°ä»£": 4631,
      "70": 4632,
      "è¢ĭ": 4633,
      "å¸ħ": 4634,
      "è¯´éģĵ": 4635,
      "çľŁçļĦ": 4636,
      "è°·å·Ŀ": 4637,
      "æ±łçĶ°æģĴåħ´": 4638,
      "åħĥä¿¡": 4639,
      "éĩįæ²»": 4640,
      "åį´æĺ¯": 4641,
      "åģļåĩº": 4642,
      "ç°": 4643,
      "éĩİæĿĳ": 4644,
      "çĽ´è¾ĸ": 4645,
      "åįļå¤ļ": 4646,
      "è°Ĺ": 4647,
      "ä¸īå¥½å®¶": 4648,
      "æĦ¿å¯º": 4649,
      "è±¡å¾ģ": 4650,
      "å¤§åŃ¦": 4651,
      "éķ¿æĪ¿": 4652,
      "åĮ¿": 4653,
      "çŃ¾": 4654,
      "åį³ä½į": 4655,
      "æĬķåĲĳ": 4656,
      "ä¼ĬåĬ¿è´ŀ": 4657,
      "å°¸": 4658,
      "ç§Ģèĥľ": 4659,
      "æĶ¿åºľ": 4660,
      "éĩįæĪĲ": 4661,
      "å·ŀå®¶": 4662,
      "éķ¿çĽĽ": 4663,
      "çľģ": 4664,
      "é¥®": 4665,
      "ä¸Ģæ®µ": 4666,
      "ä¿¡ä»°": 4667,
      "è´§": 4668,
      "åħ«åįĥ": 4669,
      "çĸ¾": 4670,
      "å¤§åŀ£": 4671,
      "è¯Ĺ": 4672,
      "å®Ĺåĥı": 4673,
      "éĹ¨å°ī": 4674,
      "æŁı": 4675,
      "éĹ»è®¯": 4676,
      "çļ®": 4677,
      "å®¶ç³»": 4678,
      "åĩĮ": 4679,
      "æĶ»åħĭ": 4680,
      "å¹¿å²Ľ": 4681,
      "åĪ¤æĸŃ": 4682,
      "ç»Łé¢Ĩ": 4683,
      "æ»ŀ": 4684,
      "éģĹè¿¹": 4685,
      "èµ°åĲĳ": 4686,
      "æµľ": 4687,
      "ä½ľåĩº": 4688,
      "æŃ»äº¡": 4689,
      "è¿ĳçķ¿": 4690,
      "è¿ĺä¿Ĺ": 4691,
      "æĦıæĢĿ": 4692,
      "åĦ¿å²Ľ": 4693,
      "ä¹īæ°ı": 4694,
      "ä»£çĲĨ": 4695,
      "ç§°åĳ¼": 4696,
      "å¤ĦæŃ»": 4697,
      "ç§ĭå±±": 4698,
      "åĨĽäºĭè¡ĮåĬ¨": 4699,
      "æĵį": 4700,
      "çĭ¼": 4701,
      "åĭ¿": 4702,
      "æ¸¡è¿ĩ": 4703,
      "åīĬå¼±": 4704,
      "å®ļä¸º": 4705,
      "ç¡¬": 4706,
      "ä¸»æĮģ": 4707,
      "å¤ļæķ°": 4708,
      "è¾īèĻİ": 4709,
      "ä¸¥éĩį": 4710,
      "æİł": 4711,
      "å¯ĮåŃĲ": 4712,
      "äº«å¾·": 4713,
      "1543": 4714,
      "æ¢¶": 4715,
      "æĴ¤åĨĽ": 4716,
      "æľĿä»ĵä¹īæĻ¯": 4717,
      "çĨĻ": 4718,
      "åĳ¼åºĶ": 4719,
      "ä¸ĩäºº": 4720,
      "åĪĿåĲį": 4721,
      "çĥŁ": 4722,
      "åįģäºĮæĹ¥": 4723,
      "åĤ¬": 4724,
      "5000": 4725,
      "æĹ¶æľº": 4726,
      "å°ıå¼ĵ": 4727,
      "åĮĹæĸ¹": 4728,
      "å®ŀåľ¨": 4729,
      "èĤ©": 4730,
      "ç¼©": 4731,
      "åłĢç§ĢæĶ¿": 4732,
      "å·¡": 4733,
      "çĶŁåīį": 4734,
      "æĬķåħ¥": 4735,
      "å²©æĿĳ": 4736,
      "æ¬§": 4737,
      "äº²æĹı": 4738,
      "ç¨£": 4739,
      "1594": 4740,
      "ä½Ĳä½ĲæĪĲæĶ¿": 4741,
      "ä¿ĥæĪĲ": 4742,
      "èĢ¶ç¨£": 4743,
      "ä»İå±ŀ": 4744,
      "é»ĺ": 4745,
      "åķĨä¸ļ": 4746,
      "éĢĿä¸ĸ": 4747,
      "è§ĤéŁ³å¯º": 4748,
      "åĲĮæĹ¥": 4749,
      "éĽ·": 4750,
      "æľ¨æ´¥": 4751,
      "å¾¡æ®¿": 4752,
      "ä¾ĿéĿł": 4753,
      "åĺīéļĨ": 4754,
      "çŃĸåĪĴ": 4755,
      "ä¸īæĿĳ": 4756,
      "åº·éķ¿": 4757,
      "é«ĺæĶ¿": 4758,
      "é«ĺèµĸ": 4759,
      "ä¿®çĲĨ": 4760,
      "åĳĬç»Ī": 4761,
      "å®¶æĶ¿": 4762,
      "å¤§ä¹±": 4763,
      "å¤§èĨ³": 4764,
      "åĮł": 4765,
      "äºĭåĲİ": 4766,
      "é©¬ä¸Ĭ": 4767,
      "åºĶå¯¹": 4768,
      "åĿĤæľ¬": 4769,
      "æĮĩç¤º": 4770,
      "èĦĳ": 4771,
      "åīįè¿Ľ": 4772,
      "å®«åŁİ": 4773,
      "åīĳæľ¯": 4774,
      "çģ°": 4775,
      "çļĩåŃĲ": 4776,
      "å½Ĵè¿ĺ": 4777,
      "å¾Īå¤§": 4778,
      "ç¬¬ä¸īä»£": 4779,
      "ä¸Ģå®¶": 4780,
      "åı¯æĪĲ": 4781,
      "èĲĦ": 4782,
      "å·±æĸ¹": 4783,
      "èĳ¡èĲĦ": 4784,
      "ä¼ļéĿ¢": 4785,
      "æ¦Ĭ": 4786,
      "äºĮåįģåħ«æĹ¥": 4787,
      "40": 4788,
      "æ³ķåįİ": 4789,
      "éĤ£ä¸ª": 4790,
      "è®¾æľī": 4791,
      "çł´åĿı": 4792,
      "åĲĳç§ĢåĲī": 4793,
      "éĵŃ": 4794,
      "ç«¹ä¸Ń": 4795,
      "æľĿä»ĵæ°ı": 4796,
      "é»ĳçĶ°éķ¿æĶ¿": 4797,
      "çıį": 4798,
      "åĢ¼å¾Ĺ": 4799,
      "äºĮéĺ¶åłĤ": 4800,
      "ä¸Ģåĳĺ": 4801,
      "éķ¿å®ī": 4802,
      "å±±å½¢": 4803,
      "äºĮæľ¬": 4804,
      "çĩĥ": 4805,
      "æľīäºĽ": 4806,
      "èĤĿ": 4807,
      "ç¦ıåİŁ": 4808,
      "å¤©ä¸ĭäºº": 4809,
      "ç¬¬äºĮä»£": 4810,
      "æ¥ļ": 4811,
      "ä¹īè§Ĩ": 4812,
      "åħĭä¸Ĭ": 4813,
      "çĽĶ": 4814,
      "äºĶä¸ĩ": 4815,
      "åŃĺç»Ń": 4816,
      "ä¹³": 4817,
      "ä¹ĭå¦»": 4818,
      "ä¹īæĺĮ": 4819,
      "æĪĲå¹´": 4820,
      "æĹ©éĢĿ": 4821,
      "éĵ¸": 4822,
      "äºĪä»¥": 4823,
      "éĢĥåĽŀ": 4824,
      "è¿İæİ¥": 4825,
      "åĲķ": 4826,
      "æĶ»åįł": 4827,
      "å¼Ģåıĳ": 4828,
      "åıĹé¢Ĩ": 4829,
      "ä¿®å»º": 4830,
      "2000": 4831,
      "ä¸Ģå¤©": 4832,
      "è¾©": 4833,
      "æ±ĩ": 4834,
      "èĲ½åħ¥": 4835,
      "ç§ĺå¯Ĩ": 4836,
      "ç¾©": 4837,
      "å¤ªå¤«": 4838,
      "åĨĽå½¹": 4839,
      "åħ¶éĹ´": 4840,
      "ä¸´ç»Ī": 4841,
      "åĬ«": 4842,
      "ä¼ĬéĽĨ": 4843,
      "äºķæ°ı": 4844,
      "ç¬¬åħŃ": 4845,
      "æĹıäºº": 4846,
      "å°¼åŃĲåĨĽ": 4847,
      "å¤§æ¦Ĥ": 4848,
      "åįģåħ«æĹ¥": 4849,
      "çŁ¿": 4850,
      "æĿ¾äºķ": 4851,
      "äº¬éĥ½å¸Ĥ": 4852,
      "è´¢æĶ¿": 4853,
      "ä»Ļåı°": 4854,
      "çĭ©éĩİ": 4855,
      "åľ¨æŃ¤": 4856,
      "èĳ¡èĲĦçīĻ": 4857,
      "å¸ģ": 4858,
      "è¯´æľį": 4859,
      "å«Į": 4860,
      "æĭľé¢Ĩ": 4861,
      "éķ¿æŀª": 4862,
      "å°ıå·Ŀ": 4863,
      "åıĪåĲį": 4864,
      "1545": 4865,
      "1536": 4866,
      "ä¸§å¤±": 4867,
      "åŃ©åŃĲ": 4868,
      "ä¸²": 4869,
      "ç»ª": 4870,
      "ä¸ĭåİ»": 4871,
      "æıĴ": 4872,
      "è§ģåĪ°": 4873,
      "æĻ´æĶ¿": 4874,
      "åĲĦç§į": 4875,
      "ç©Ĺ": 4876,
      "éĢĲæŃ¥": 4877,
      "æĬµå¾¡": 4878,
      "ä»ĭç»į": 4879,
      "åĪĽä½ľ": 4880,
      "æī®æ¼Ķ": 4881,
      "60": 4882,
      "æĪ¦": 4883,
      "æľīåĪ©": 4884,
      "å¸ľ": 4885,
      "åįģåĽĽæĹ¥": 4886,
      "æĶ»çł´": 4887,
      "æĭ¼": 4888,
      "åı²ç§°": 4889,
      "èĮ¶èĮ¶": 4890,
      "è¿ĳèĩ£": 4891,
      "åĲĪè®¡": 4892,
      "åĽŀçŃĶ": 4893,
      "ä»ĵå®¶": 4894,
      "å»ºè®¾": 4895,
      "éĽªæĸĭ": 4896,
      "éĴĪå¯¹": 4897,
      "ä¹īæ»¡": 4898,
      "ä¸įä½Ĩ": 4899,
      "åĪ¶ä½ľ": 4900,
      "éħįç½®": 4901,
      "æ¬£": 4902,
      "åĮĹä¸Ĭ": 4903,
      "äº²çĶŁ": 4904,
      "åıįæĶ»": 4905,
      "æıĲè®®": 4906,
      "ä¾Ľåħ»": 4907,
      "åŃ¤ç«ĭ": 4908,
      "è¶ħè¿ĩ": 4909,
      "åıĻä»»": 4910,
      "æĿĤè´ºä¼Ĺ": 4911,
      "è·Ŀç¦»": 4912,
      "åĳ½è¿Ĳ": 4913,
      "ä½¿èĬĤ": 4914,
      "åŃĻåŃĲ": 4915,
      "çº·äºī": 4916,
      "ç¢į": 4917,
      "æĶ»éĺ²": 4918,
      "ä¸ľäº¬": 4919,
      "åıĺåĮĸ": 4920,
      "ç»Ŀå¯¹": 4921,
      "åįģä¸ĥæĹ¥": 4922,
      "åľŁå±ĭ": 4923,
      "èĤ¡": 4924,
      "æĿ¾å¹³åħĥåº·": 4925,
      "çĵľ": 4926,
      "å¯Łè§ī": 4927,
      "åŁİéĹ¨": 4928,
      "åįģä¹Ŀ": 4929,
      "æĭĸ": 4930,
      "å¢ŀçĶ°": 4931,
      "ä¸´æĹ¶": 4932,
      "è¯Ħå®ļ": 4933,
      "å¤§æĢĴ": 4934,
      "ä¹īæķĻ": 4935,
      "æīĵè´¥": 4936,
      "1602": 4937,
      "æŃ¼": 4938,
      "è§Ī": 4939,
      "äºĮä¸ĩ": 4940,
      "æĮģæ°ı": 4941,
      "æĶ¶åħ¥": 4942,
      "è°ĭçķ¥": 4943,
      "èĦ¸": 4944,
      "å®¶ä¸»": 4945,
      "æĶ»åıĸ": 4946,
      "çķı": 4947,
      "äº¤æį¢": 4948,
      "äºĮåįģä¸ĥæĹ¥": 4949,
      "è®¼": 4950,
      "çķ·": 4951,
      "å¤ļéĹ»": 4952,
      "å»¶å¾·": 4953,
      "æĬĢæľ¯": 4954,
      "çĶ«": 4955,
      "ä¿¡èµĸ": 4956,
      "å¯¹è±¡": 4957,
      "æĺİæĺ¾": 4958,
      "ç¼´": 4959,
      "å®ĩä½Ĳ": 4960,
      "éļĲå²Ĳ": 4961,
      "1000": 4962,
      "ä¸»ä»İ": 4963,
      "åıĳåħµ": 4964,
      "è¦ģåĨ²": 4965,
      "éĢĢåĩº": 4966,
      "è¿ľèĹ¤": 4967,
      "æĿ¾å¹³å¿ł": 4968,
      "å¤§æĪĺ": 4969,
      "åĽ½çİĭ": 4970,
      "å½ĵæĹ¥": 4971,
      "æĦıåĳ³": 4972,
      "å¾ħéģĩ": 4973,
      "äºĴçĽ¸": 4974,
      "çºµçģ«": 4975,
      "ä¹ĭå¦¹": 4976,
      "æ°ıå®¶çĿ£": 4977,
      "æľ¬é¢Ĩ": 4978,
      "å°ıå¹¡": 4979,
      "ä¸ĥå°¾": 4980,
      "èĩ´ä¹¦": 4981,
      "éĿĴå±±": 4982,
      "å®¶ä¸Ń": 4983,
      "ä¹ĭç¥ĸ": 4984,
      "åŃĲå¥³": 4985,
      "æĪĲçĶ°": 4986,
      "å¹¸çĽĽ": 4987,
      "èĮ¶ä¼ļ": 4988,
      "æħĪ": 4989,
      "åİī": 4990,
      "èµĸéĩį": 4991,
      "ä½Ĳæ¸¡": 4992,
      "æģ³": 4993,
      "æ°ĳä¼Ĺ": 4994,
      "èģļéĽĨ": 4995,
      "æ¦ĬåİŁ": 4996,
      "35": 4997,
      "µçĲ": 4998,
      "å°ıè¯´": 4999,
      "ãģ¡": 5000,
      "çĲµçĲ": 5001,
      "æİ¥åĪ°": 5002,
      "ç»´æĸ°": 5003,
      "è¿ģå±ħ": 5004,
      "ç²¾éĶĲ": 5005,
      "åĲ¦å®ļ": 5006,
      "å¾ĭä»¤": 5007,
      "çĲµçĲ¶": 5008,
      "ä¸Ģä¸ĭ": 5009,
      "æ³ķåº¦": 5010,
      "ç¥ŀä¿Ŀ": 5011,
      "æŁ´åĨĽ": 5012,
      "æĽ´ä¸º": 5013,
      "éģĹåĿĢ": 5014,
      "å®ªå®ŀ": 5015,
      "å¾Ħ": 5016,
      "èµĦæºĲ": 5017,
      "åĬĿéĻį": 5018,
      "åĺīåĲī": 5019,
      "è¿·": 5020,
      "èĢ»": 5021,
      "åīįåİ»": 5022,
      "ä»ĵæ°ı": 5023,
      "æĻ´æĻ¯": 5024,
      "äºĮåįģä¸ĢæĹ¥": 5025,
      "ä¾Ľå¥ī": 5026,
      "èĢ¶ç¨£ä¼ļ": 5027,
      "æĹħ": 5028,
      "æ°ıä¹¡": 5029,
      "åĲįç§°": 5030,
      "çİ©": 5031,
      "ç»Łçİĩ": 5032,
      "éĤ£éĩĮ": 5033,
      "éĺ¿èĭı": 5034,
      "åıĽç¦»": 5035,
      "æ··æĪĺ": 5036,
      "æİĴéĻ¤": 5037,
      "ãģ¿": 5038,
      "çģ«æŀª": 5039,
      "éĢģåĪ°": 5040,
      "å¡ļ": 5041,
      "ç®Ĺæĺ¯": 5042,
      "åĲ¾å¦»": 5043,
      "æĻĭåįĩ": 5044,
      "é¢ĳç¹ģ": 5045,
      "ä¸įè¦ģ": 5046,
      "è¯¦ç»Ĩ": 5047,
      "åįģåħŃæĹ¥": 5048,
      "å®¶æł¼": 5049,
      "ãģĳ": 5050,
      "135": 5051,
      "çªģåħ¥": 5052,
      "æ°ĳéĥ¨": 5053,
      "å°ıçĶ°æ°ı": 5054,
      "ä¸ºæŃ¢": 5055,
      "ä¸»å°Ĩ": 5056,
      "èĥľè´Ł": 5057,
      "æĿ¾åŁİ": 5058,
      "è¶³åĪ©æĮģ": 5059,
      "è¿ŀæŃĮ": 5060,
      "åĦ¿çİī": 5061,
      "éī´è¿ŀ": 5062,
      "é¦Ļè¥¿": 5063,
      "æĵħéķ¿": 5064,
      "èĤĥæ¸ħ": 5065,
      "çĲīçĲĥ": 5066,
      "å½©": 5067,
      "åĬ¿åĬĽèĮĥåĽ´": 5068,
      "ä¸Ńéĩİ": 5069,
      "éª¤": 5070,
      "åįĹåĮĹ": 5071,
      "éĢĥèµ°": 5072,
      "èµ¶åĪ°": 5073,
      "åĨħæµ·": 5074,
      "åıĹåĳ½": 5075,
      "å¢ŀå¼º": 5076,
      "åİĭåĬĽ": 5077,
      "åĿļåĽº": 5078,
      "èĩ´åĬĽäºİ": 5079,
      "æĪ¸": 5080,
      "ä¸Ģè¡Į": 5081,
      "æ°ıæĹı": 5082,
      "å¼Ĳ": 5083,
      "åħµéĥ¨": 5084,
      "çŁ³åŁİ": 5085,
      "ä¿£åŁİ": 5086,
      "è¤": 5087,
      "æ´¼": 5088,
      "åĪ°æĿ¥": 5089,
      "å®ļèµĸ": 5090,
      "éĺµä¸Ń": 5091,
      "æĹłåĬĽ": 5092,
      "æ¸¡æ²³": 5093,
      "åĲİèĢħ": 5094,
      "ä¹īä¿¡": 5095,
      "ãģĪ": 5096,
      "æĿ¾ä¸¸": 5097,
      "å°ĳæķ°": 5098,
      "åĤĢ": 5099,
      "æĢĿæĥ³": 5100,
      "è¡ĮåĨĽ": 5101,
      "éĥ¨ç½²": 5102,
      "ä¼Ĭä¸¹": 5103,
      "çĽ¸æ¯Ķ": 5104,
      "åĬ¨ä¹±": 5105,
      "ä¿Ŀåħ¨": 5106,
      "åĬŁåĬ³": 5107,
      "åĦ¡": 5108,
      "å¿Ĺæĳ©": 5109,
      "èįĴæľ¨": 5110,
      "çĽ¸å½ĵäºİ": 5111,
      "åĲīéĩİ": 5112,
      "åĽĽä¸ĩ": 5113,
      "åĪĨæĶ¯": 5114,
      "åħīå¯º": 5115,
      "æķĪå¿ł": 5116,
      "èĢ³å·Ŀ": 5117,
      "åĤĢåĦ¡": 5118,
      "ä¿¡å¾Ĵ": 5119,
      "åīįéĩİ": 5120,
      "æīĢè¿°": 5121,
      "åħ´ç»ı": 5122,
      "å®«åĨħ": 5123,
      "åĸĿ": 5124,
      "ç§ĢåĲīåľ¨": 5125,
      "ç§°ä½ľ": 5126,
      "èĽ°": 5127,
      "è¯īè®¼": 5128,
      "å°ıå¯º": 5129,
      "æľĿä»ĵå®¶": 5130,
      "éŀį": 5131,
      "ä¸Ģçīĩ": 5132,
      "ä¹ĭéķ¿": 5133,
      "ä¿¡æĪ¿": 5134,
      "åİħ": 5135,
      "çĶ±å¸ĥ": 5136,
      "å®ĺåħµ": 5137,
      "æķ°çĻ¾": 5138,
      "æľīåĨĪåŁİ": 5139,
      "ä¸¤æ¬¡": 5140,
      "èĮ¨": 5141,
      "ãĤĦ": 5142,
      "åıĺå¾Ĺ": 5143,
      "èµĲç»Ļ": 5144,
      "æľ¬åĽ½": 5145,
      "å®Īåį«": 5146,
      "ç§įå®ŀ": 5147,
      "èĴĻ": 5148,
      "æĪĺçº¿": 5149,
      "å½ĵå®¶": 5150,
      "äºķçĶ°": 5151,
      "éģĹèĩ£": 5152,
      "èĭ¦æĪĺ": 5153,
      "å¿łèī¯": 5154,
      "é¼»": 5155,
      "hi": 5156,
      "æ°ıéĤ¦": 5157,
      "æĶ¿åĪĻ": 5158,
      "æĻĤ": 5159,
      "å¹¶ç§°": 5160,
      "å¹³æīĭ": 5161,
      "èĻ¾": 5162,
      "æī¿è¯º": 5163,
      "åįģä¸ĢæĹ¥": 5164,
      "è¡¨éĿ¢": 5165,
      "äºĮåįģåĽĽæĹ¥": 5166,
      "å¤įæĿĤ": 5167,
      "éĤ»è¿ĳ": 5168,
      "èĳ¬äºİ": 5169,
      "åĴĮæºĲæ°ı": 5170,
      "åİŁæĿ¥": 5171,
      "æĹłåŃĲ": 5172,
      "åħ¬éĩĮ": 5173,
      "åĮħåĲ«": 5174,
      "å·¢": 5175,
      "ä¿¡åħĥ": 5176,
      "å®Ĺèĥľ": 5177,
      "å®Ĺçĳŀ": 5178,
      "æ²»éķ¿": 5179,
      "31": 5180,
      "åĿĹ": 5181,
      "1532": 5182,
      "ç²®é£Ł": 5183,
      "æĵħèĩª": 5184,
      "ä¸¢": 5185,
      "ç¥¸": 5186,
      "èµ¤å¤ĩ": 5187,
      "ç¿ĮæĹ¥": 5188,
      "èĴ²æ±ł": 5189,
      "åīĥåıĳ": 5190,
      "åįĵ": 5191,
      "æŃ¤å¤Ħ": 5192,
      "é«ĺçĶ°": 5193,
      "æīĢåı¸": 5194,
      "äºĮåįģä¸īæĹ¥": 5195,
      "è®¾è®¡": 5196,
      "æĢ¥å¿Ļ": 5197,
      "å¯¿ä¸¸": 5198,
      "ä¼į": 5199,
      "æĬĵ": 5200,
      "å¤įä»ĩ": 5201,
      "èµĦæŃ£": 5202,
      "æĹĹå¸ľ": 5203,
      "ä¼ĬéĽĨéĻ¢": 5204,
      "ä¹ĭä»ĭ": 5205,
      "æĪĲä¹¦": 5206,
      "æĮ«": 5207,
      "æĭ¾": 5208,
      "çĽ´å±ŀ": 5209,
      "çĿĢæīĭ": 5210,
      "æĶ¯æµģ": 5211,
      "æĶ¹éĿ©": 5212,
      "å°ģåľ°": 5213,
      "ä½ıæĮģ": 5214,
      "åħ·æķĻ": 5215,
      "å¤Ń": 5216,
      "åĴĮå°ļ": 5217,
      "ä¸»äºº": 5218,
      "åĲĮå¿ĥ": 5219,
      "åı¯çŁ¥": 5220,
      "æĿĳéĩį": 5221,
      "åıªå¥½": 5222,
      "è¿ŀæİ¥": 5223,
      "éĻĢ": 5224,
      "è¶£": 5225,
      "ä¸ĸçķĮ": 5226,
      "å¥ĭåĭĩ": 5227,
      "åĩıå°ģ": 5228,
      "è¸ı": 5229,
      "æĽ²è½®": 5230,
      "å±±éĺ³": 5231,
      "ä¸īå®ħ": 5232,
      "åī¥": 5233,
      "è¿Ľè¨Ģ": 5234,
      "ç§°åı·": 5235,
      "ä»İåĨĽ": 5236,
      "åĵĢ": 5237,
      "æŀĦçŃĳ": 5238,
      "å¡«": 5239,
      "å±ıé£İ": 5240,
      "èĿ": 5241,
      "åĨ¶": 5242,
      "éĺħ": 5243,
      "å¤ĦåĪĳ": 5244,
      "å¹¿æ³Ľ": 5245,
      "é¹¿åĦ¿å²Ľ": 5246,
      "æŃ¦è£ħ": 5247,
      "å¿łä¹ī": 5248,
      "æ²»éĥ¨": 5249,
      "æ»Ŀ": 5250,
      "çĽĽæ°ı": 5251,
      "åħĪæĺ¯": 5252,
      "åıĤæĭľ": 5253,
      "è¡¨è¾¾": 5254,
      "æĬĹäºī": 5255,
      "186": 5256,
      "æĸ©èİ·": 5257,
      "åĲ¬è¯´": 5258,
      "ä¸ºä½ķ": 5259,
      "ä¸Ńå±±": 5260,
      "å°ıä»ĵ": 5261,
      "å¾¡åīį": 5262,
      "åı³äº¬": 5263,
      "æģĲæĢķ": 5264,
      "éĻĪ": 5265,
      "è¢«ç§ĢåĲī": 5266,
      "éļĻ": 5267,
      "åĽĽåŃĲ": 5268,
      "åįĥåĪ©ä¼ĳ": 5269,
      "éĤĳ": 5270,
      "éĢĥèĦ±": 5271,
      "çľĭæĿ¥": 5272,
      "åĩłä¸ª": 5273,
      "æĲľ": 5274,
      "å¹½ç¦ģ": 5275,
      "è¶³ä»¥": 5276,
      "åħ¬åĽŃ": 5277,
      "ä»¤äºº": 5278,
      "èİ·åĩĨ": 5279,
      "åĨĪéĥ¨": 5280,
      "å¢ĵåľ°": 5281,
      "å®¡": 5282,
      "éķ¿æ²»": 5283,
      "æŃ£å®¶": 5284,
      "æ¶Į": 5285,
      "è¾īæĶ¿": 5286,
      "äºĮåįģäºĶæĹ¥": 5287,
      "ä»·åĢ¼": 5288,
      "æ®ĭåħļ": 5289,
      "éŃĶ": 5290,
      "åĵ¥åĵ¥": 5291,
      "âĶģ": 5292,
      "æľīé©¬": 5293,
      "æıĲåıĬ": 5294,
      "å±±ç§ĳ": 5295,
      "ä¸°åĽ½": 5296,
      "æİ¥è¿ŀ": 5297,
      "199": 5298,
      "1544": 5299,
      "æĿĳèĲ½": 5300,
      "ç¬¬äºĮå¹´": 5301,
      "æľ¨æ³½": 5302,
      "çľŁå®Ĺ": 5303,
      "æ¯įå¼Ł": 5304,
      "æĵĴ": 5305,
      "ä¸Ģèĩ´": 5306,
      "ä¹ĭæĸ¹": 5307,
      "éķ¿éĩį": 5308,
      "ç§ĢéļĨ": 5309,
      "å½ĵåĪĿ": 5310,
      "ä¼ĬåĬ¿åĽ½": 5311,
      "ç¥Ńç¥Ģ": 5312,
      "ä¸Ĭä¸ĭ": 5313,
      "ä¸įé¡¾": 5314,
      "ä¸ĭåħĭä¸Ĭ": 5315,
      "éĻµ": 5316,
      "çŁ¶": 5317,
      "åĮĹéĿ¢": 5318,
      "çŃīåĪ°": 5319,
      "ä½Ĳè´º": 5320,
      "ä½Ĳä¼¯": 5321,
      "å¾Ģå¾Ģ": 5322,
      "ç©·": 5323,
      "æıĲæĭĶ": 5324,
      "éĩĳåŃĲ": 5325,
      "éķĩå¹¸": 5326,
      "æ·±åħ¥": 5327,
      "ç¥ĸåħĪ": 5328,
      "æľĿä»ĵæĻ¯": 5329,
      "å¥ĳæľº": 5330,
      "çŃĳå±±æ®¿": 5331,
      "æľŃ": 5332,
      "åºŀ": 5333,
      "ä¿¡æĺĮ": 5334,
      "å°Ĩå®¶çĿ£": 5335,
      "åĩºäºİ": 5336,
      "æħĮ": 5337,
      "å¯ĨåĪĩ": 5338,
      "éĺ¶æ®µ": 5339,
      "é»Ħéĩĳ": 5340,
      "ä¸Ģç³»åĪĹ": 5341,
      "ä¸ĺ": 5342,
      "å²Ĥ": 5343,
      "åľ°å¸¦": 5344,
      "çī¢": 5345,
      "èº«ä¸Ĭ": 5346,
      "èİ·å°ģ": 5347,
      "éĢ¸äºĭ": 5348,
      "ç§©åºı": 5349,
      "ä¹ĭæīĢä»¥": 5350,
      "åĨħåŁİ": 5351,
      "è¦ģå®³": 5352,
      "æĿ¾å°¾": 5353,
      "æ¸ħçĽĽ": 5354,
      "ä¿Ŀè¯ģ": 5355,
      "çĶ²è´º": 5356,
      "åĿĤäºķ": 5357,
      "è½¬åĲĳ": 5358,
      "æĺ¾èĳĹ": 5359,
      "æŀľçĦ¶": 5360,
      "æİ¨è¡Į": 5361,
      "æģ©èµı": 5362,
      "èªīä¸º": 5363,
      "åħµè´¥": 5364,
      "æĪ·æ³½": 5365,
      "è±Ĭ": 5366,
      "éħįåĲĪ": 5367,
      "è¯ģæĺİ": 5368,
      "ä¸Ģä¹ĺ": 5369,
      "æľ¬åĲį": 5370,
      "åĲĮä¸º": 5371,
      "æĿ¡çĽ®": 5372,
      "åı¯è°ĵ": 5373,
      "å¥īåħ¬": 5374,
      "ç½®äºİ": 5375,
      "ä¼ıåħµ": 5376,
      "å¤§ä¸º": 5377,
      "ä¸įäºĨ": 5378,
      "ä¸ĭéĹ´": 5379,
      "æľ¨åŁİ": 5380,
      "å±ŀä¸ĭ": 5381,
      "è½¬ä¸º": 5382,
      "é¥ŃçĶ°": 5383,
      "å¤§äºº": 5384,
      "äººä¼Ĺ": 5385,
      "åľ°åĲį": 5386,
      "æŃ»å®Ī": 5387,
      "å£¤": 5388,
      "åĪĨéħį": 5389,
      "æĭħå½ĵ": 5390,
      "å°ģéĶģ": 5391,
      "çĽĨ": 5392,
      "åĢļ": 5393,
      "1596": 5394,
      "æķ´å¤ĩ": 5395,
      "åįľ": 5396,
      "èĩªå®¶": 5397,
      "ä¼łæĿ¥": 5398,
      "å§ĭç¥ĸ": 5399,
      "çĨĬæľ¬": 5400,
      "å¤§çº¦": 5401,
      "ç¨ĭåº¦": 5402,
      "äººå¿ĥ": 5403,
      "å±±åľ°": 5404,
      "æŃ¤äºº": 5405,
      "èĹ¤æ°ı": 5406,
      "åħ´ç¦ıå¯º": 5407,
      "çī¹å¾ģ": 5408,
      "ä¼¯çĪ¶": 5409,
      "ç²Łå±ĭ": 5410,
      "ä¼¦": 5411,
      "æĹ¥æľŁ": 5412,
      "åıĳçĶ°": 5413,
      "æį®æŃ¤": 5414,
      "åĪ«æīĢ": 5415,
      "ä¾Ŀèµĸ": 5416,
      "çĶ°æ°ıçģŃ": 5417,
      "ä¹ħæĶ¿": 5418,
      "åĪ«åĬ¨": 5419,
      "1538": 5420,
      "æħİ": 5421,
      "åħ°ä¸¸": 5422,
      "å½°": 5423,
      "ç¥¢": 5424,
      "å½¢è±¡": 5425,
      "æ¯ķç«Ł": 5426,
      "æ¿ĳæĪ·åĨħæµ·": 5427,
      "å¤§å¾¡": 5428,
      "ä¿¡æĸ¹": 5429,
      "ä»£æĽ¿": 5430,
      "éĽ¶": 5431,
      "æĿĢåħ¥": 5432,
      "å¥³åŃĲ": 5433,
      "æķ°éĩı": 5434,
      "å¤įå½Ĵ": 5435,
      "ç¹ģèį£": 5436,
      "å¯»æ±Ĥ": 5437,
      "æııç»ĺ": 5438,
      "åľ¨ç§ĢåĲī": 5439,
      "åĽ½å¢ĥ": 5440,
      "è¶³åĪ©ä¹īæĿĲ": 5441,
      "åĨĽå¸Ī": 5442,
      "åİĮ": 5443,
      "ä¹īæĿĲ": 5444,
      "æŃ£å½ĵ": 5445,
      "çĶŁäº§": 5446,
      "èĬ¥": 5447,
      "ç«ŁçĦ¶": 5448,
      "çī©èµĦ": 5449,
      "åŁºäºİ": 5450,
      "çī¹æ®Ĭ": 5451,
      "æ¼«": 5452,
      "ç²¾ç¥ŀ": 5453,
      "æīĺä»ĺ": 5454,
      "ä¸įåĬ¨": 5455,
      "æĪĲéķ¿": 5456,
      "å¿łä¸ĸ": 5457,
      "åĽŀåĽ½": 5458,
      "ç³»ç»Ł": 5459,
      "åıĤéĺµ": 5460,
      "åĽ´åŁİ": 5461,
      "æķ°æŃ£": 5462,
      "èł": 5463,
      "ä¸ĢåŃĹ": 5464,
      "ä¹ĭæĹ¶": 5465,
      "å±±éĺ´": 5466,
      "ç»ıå¸¸": 5467,
      "ç¥ŀå®«": 5468,
      "é¦ĸé¢Ĩ": 5469,
      "æ£ĭ": 5470,
      "ç«¹æ°ı": 5471,
      "æŀģå¤§": 5472,
      "å¸¸éĻĨåĽ½": 5473,
      "åŁĭä¼ı": 5474,
      "è¿ĩäºİ": 5475,
      "èį·": 5476,
      "æµ·éĩİ": 5477,
      "èģĮè´£": 5478,
      "å®ĩåĸľ": 5479,
      "è»": 5480,
      "å¤§ç¤¾": 5481,
      "çķĳ": 5482,
      "è®°ä¸º": 5483,
      "åıĤè§ģ": 5484,
      "å®ĺéĢĶ": 5485,
      "æ·±åİļ": 5486,
      "å¢ŀæı´": 5487,
      "ä¸Ńéĥ¨": 5488,
      "å®Īå®¶": 5489,
      "ä»ĵä¹īæĻ¯": 5490,
      "éģŃåıĹ": 5491,
      "äºĮåįģä¹ĿæĹ¥": 5492,
      "æıĲäº¤": 5493,
      "å¨ĺ": 5494,
      "èĽ°å±ħ": 5495,
      "åŁİå¤ĸ": 5496,
      "å¤§å®«": 5497,
      "ä¸ľå¤§å¯º": 5498,
      "å¼ŁåŃĲ": 5499,
      "åĲĦåĽ½": 5500,
      "èīºæľ¯": 5501,
      "ä¼¤äº¡": 5502,
      "æ²¦ä¸º": 5503,
      "åĲİä»£": 5504,
      "éķ¿å¥³": 5505,
      "å°Ŀ": 5506,
      "åĨĮ": 5507,
      "ä¸Ģäºĭ": 5508,
      "è´Ń": 5509,
      "äº¤éĶĭ": 5510,
      "åĬłèĹ¤åĺīæĺİ": 5511,
      "èĭĹåŃĹ": 5512,
      "ä¸ºä¿¡": 5513,
      "åĲİäºº": 5514,
      "å¤§å°ı": 5515,
      "åĩºèī²": 5516,
      "éģ¥": 5517,
      "æīĢçĶŁ": 5518,
      "æŃ£ç»Ł": 5519,
      "å¹ķæľ«": 5520,
      "åıįå¤į": 5521,
      "çļĩå®¤": 5522,
      "è°£": 5523,
      "èµĸèīº": 5524,
      "çº²æĪĲ": 5525,
      "æĲŀ": 5526,
      "åľŁä½ĲåĽ½": 5527,
      "å¹»": 5528,
      "æĺ¯ä»İ": 5529,
      "å§ĭäºİ": 5530,
      "è§īå¾Ĺ": 5531,
      "å¼Ĺæ´Ľ": 5532,
      "è³": 5533,
      "åħ¶åħĦ": 5534,
      "åĨħéĢļ": 5535,
      "æ¯Ļ": 5536,
      "åİŁä¸º": 5537,
      "è´ºæ°ı": 5538,
      "çľŁå®ŀ": 5539,
      "éĩĩçº³": 5540,
      "çµ": 5541,
      "åīįéĶĭ": 5542,
      "äºĮä»£": 5543,
      "è¿ĩæĿ¥": 5544,
      "éĿ¢ä¸´": 5545,
      "äºĮåįģåħŃæĹ¥": 5546,
      "èį¯å¸Ī": 5547,
      "å¼Ĺæ´Ľä¼Ĭ": 5548,
      "å®ĭ": 5549,
      "åĽ½äº²": 5550,
      "ä¹ĿæĿ¡": 5551,
      "çĽĽéĩį": 5552,
      "åłĢå°¾": 5553,
      "æ²¿æµ·": 5554,
      "ç¨³åĽº": 5555,
      "æķ¦è´º": 5556,
      "æŁ¿å´İ": 5557,
      "æĹ¶æĶ¿": 5558,
      "ç«Ń": 5559,
      "è°¨": 5560,
      "é«ĺæ¬¡": 5561,
      "èĻı": 5562,
      "1537": 5563,
      "ç©¶ç«Ł": 5564,
      "ç®±æł¹": 5565,
      "æª": 5566,
      "ä¸Ģå¤Ħ": 5567,
      "ä¿¡å¹¸": 5568,
      "èĥľæ°¸": 5569,
      "æĻ¯çº²": 5570,
      "è¥¿åĽŃ": 5571,
      "æĶ¶ä¸º": 5572,
      "æĶ¶å¤į": 5573,
      "å¤§åĿĤå¤ıä¹ĭéĺµ": 5574,
      "éĻ¶éļĨæĪ¿": 5575,
      "æ¥¯": 5576,
      "ä¿±": 5577,
      "ä¸Ĭæ³ī": 5578,
      "ä¹īç»§": 5579,
      "ä¸įå®ī": 5580,
      "æĪĲå°±": 5581,
      "æµģäº¡": 5582,
      "èĽ®": 5583,
      "äºİåºĨéķ¿": 5584,
      "æĶ¿èĻİ": 5585,
      "æĬ«": 5586,
      "ä½ľèĢħ": 5587,
      "ä¸Ńå°Ĩ": 5588,
      "éĢĴ": 5589,
      "é«ĺåĿĤ": 5590,
      "ä¸¾åĬ¨": 5591,
      "çİĭåŃĲ": 5592,
      "çĽ®åīį": 5593,
      "è¥¿åĽŃå¯º": 5594,
      "ä¹ĭæīĭ": 5595,
      "å·Ŀå®¶åħī": 5596,
      "å¯¹ä»ĺ": 5597,
      "ãģĺ": 5598,
      "åľĪ": 5599,
      "éĺĶ": 5600,
      "éļ¼": 5601,
      "çŃīçŃī": 5602,
      "å±ķç¤º": 5603,
      "éĴµ": 5604,
      "åºŀå¤§": 5605,
      "ä¸Ģéĥ¨": 5606,
      "åīįå®Ī": 5607,
      "èº²": 5608,
      "è´£ä»»": 5609,
      "çł´è£Ĥ": 5610,
      "åĽ½å¯º": 5611,
      "å°ıåİ¿": 5612,
      "å¿łçĽ´": 5613,
      "æĹłå¥Ī": 5614,
      "æ®ģ": 5615,
      "éĢĢåħµ": 5616,
      "åħ¨åĬĽ": 5617,
      "æµģæµª": 5618,
      "æ·³": 5619,
      "å·¦é©¬": 5620,
      "åĽ´åĽ°": 5621,
      "å¿ħè¦ģ": 5622,
      "çıł": 5623,
      "éĻĲåĪ¶": 5624,
      "æ»ŀçķĻ": 5625,
      "å¯¨": 5626,
      "æĹ¶åĪ»": 5627,
      "äººä¸º": 5628,
      "ãĤģ": 5629,
      "å¶": 5630,
      "ä¸Ńæľī": 5631,
      "ãĤı": 5632,
      "é¾Ļçİĭ": 5633,
      "åŃĺä¿Ŀ": 5634,
      "å¼ĵç®Ń": 5635,
      "ä¹īçĽ´": 5636,
      "äºĮä½į": 5637,
      "åİĨç»ı": 5638,
      "è½¬ä»ķ": 5639,
      "æ¸¯åı£": 5640,
      "éķ¿ç¦Ħ": 5641,
      "è¯¾": 5642,
      "æĬĽ": 5643,
      "é¢ĨåŁŁ": 5644,
      "é«ĺç»ı": 5645,
      "æĸĩæ²»": 5646,
      "å¹ķèĩ£": 5647,
      "åĬ¨èį¡": 5648,
      "ä¼łéĹ»": 5649,
      "å¾¡åĿĬ": 5650,
      "æĶ¹åħĥ": 5651,
      "æ·±åıĹ": 5652,
      "åĪ«åĬ¨éĺŁ": 5653,
      "å®¶åĲį": 5654,
      "ä¸ºåĲį": 5655,
      "äºĮéĥİ": 5656,
      "æľĿèĩ£": 5657,
      "1616": 5658,
      "éĺŁä¼į": 5659,
      "éĺ¿éĥ¨": 5660,
      "ä½łä»¬": 5661,
      "åĩ¶": 5662,
      "äººåĳĺ": 5663,
      "ç§Ģä¿¡": 5664,
      "ä»»å®ĺ": 5665,
      "å¦¥": 5666,
      "å±ħçĦ¶": 5667,
      "æ¶Ĥ": 5668,
      "åĭŁ": 5669,
      "å²©å±ĭ": 5670,
      "ä»ģç§ĳ": 5671,
      "æĸ½è¡Į": 5672,
      "ä¸ºä»Ģä¹Ī": 5673,
      "å¤§å¹ħ": 5674,
      "ä¼°": 5675,
      "æŃ£çº¯": 5676,
      "åĵ²": 5677,
      "è¿½è®¨": 5678,
      "å¤§å¾·": 5679,
      "ä¸ŃéĹ´": 5680,
      "ä¾¦": 5681,
      "è¿Ľåıĳ": 5682,
      "èĪĩ": 5683,
      "æĤŁ": 5684,
      "éł¼": 5685,
      "åº¸": 5686,
      "å¿łæģĴ": 5687,
      "æĥ©": 5688,
      "ä¸¤ä»£": 5689,
      "æ³¢ç½Ĺ": 5690,
      "åĪºæĿĢ": 5691,
      "åĨĽåĬŁ": 5692,
      "å±±éºĵ": 5693,
      "ä¸įå¹¸": 5694,
      "è¿Ļåº§": 5695,
      "å¯ºæĥłçĲ¼": 5696,
      "143": 5697,
      "éģ£ä½¿": 5698,
      "çĻ»ä¸Ĭ": 5699,
      "1605": 5700,
      "åį±éĻ©": 5701,
      "çĽ¸æ¨¡åĽ½": 5702,
      "åįļçī©": 5703,
      "84": 5704,
      "èģĶçĽŁ": 5705,
      "å¹¼å¹´": 5706,
      "æī©å±ķ": 5707,
      "æ¨ªçĶ°": 5708,
      "åª": 5709,
      "è¿ĻæĹ¶åĢĻ": 5710,
      "æŃ»ä¼¤": 5711,
      "è¥¿æĸ¹": 5712,
      "ä¸¤æ´¾": 5713,
      "å¤ĦåĪĨ": 5714,
      "çľŁéĩĮ": 5715,
      "éī´ç§į": 5716,
      "å®£åĳĬ": 5717,
      "æ²¿å²¸": 5718,
      "èĽĩ": 5719,
      "è¸ª": 5720,
      "ä¹īéĺ³": 5721,
      "åĲįåı«": 5722,
      "æĸ¹éĴĪ": 5723,
      "æłı": 5724,
      "èĪħ": 5725,
      "çİĦèķĥ": 5726,
      "çĲĨè§£": 5727,
      "æ®¿åĨĽ": 5728,
      "ä½Ļäºº": 5729,
      "çĽĳæĬ¤": 5730,
      "åºĬ": 5731,
      "ä¸İç§ĢåĲī": 5732,
      "åĩºçīĪ": 5733,
      "ä¸ĭæĹ¬": 5734,
      "éģģ": 5735,
      "ãģ°": 5736,
      "èĩ³å°ĳ": 5737,
      "éĽ¾": 5738,
      "ç¾½æŁ´": 5739,
      "æ¯Ķå¥Ī": 5740,
      "ä¾įæīĢ": 5741,
      "1539": 5742,
      "åĲ¬åĪ°": 5743,
      "æĺİæ²»ç»´æĸ°": 5744,
      "å¯Ŀ": 5745,
      "ä¸įçł´": 5746,
      "æĮ½": 5747,
      "è¥¿çıŃ": 5748,
      "ä¸¤åįĥ": 5749,
      "ç¢İ": 5750,
      "è¥¿çıŃçīĻ": 5751,
      "å¯ºæ°ı": 5752,
      "é«ĺå¸Ī": 5753,
      "æŃ¦çĶ°åħĥ": 5754,
      "ä»Ĭäºķ": 5755,
      "ä¹Ŀå·ŀå²Ľ": 5756,
      "ä¼ĺç§Ģ": 5757,
      "æ»ĭè´º": 5758,
      "ä¹īæĹ¶": 5759,
      "é«ĺåŁº": 5760,
      "å¤ĸæł·": 5761,
      "åħ¬å¼Ģ": 5762,
      "æ»´": 5763,
      "å±¡æ¬¡": 5764,
      "ļå±±": 5765,
      "ä¸įä½ı": 5766,
      "åĩºéĿ¢": 5767,
      "åħĥçº²": 5768,
      "ç»ĵåĲĪ": 5769,
      "æ°´æĪ·": 5770,
      "æĳĦæĶ¿": 5771,
      "å¼Ĥè¯´": 5772,
      "æĦıåĳ³çĿĢ": 5773,
      "åĲİäºİ": 5774,
      "éķ¿æĿŁ": 5775,
      "ä¸įæķĮ": 5776,
      "ä¸įæĦ¿": 5777,
      "åĩºå¸Ń": 5778,
      "æīĢçĶ¨": 5779,
      "éĢļå¾Ģ": 5780,
      "å¤Ħç½®": 5781,
      "èĤī": 5782,
      "éĺ²æŃ¢": 5783,
      "è¿İæĿ¥": 5784,
      "åĳĬçŁ¥": 5785,
      "è¾ŀä¸ĸ": 5786,
      "éķ¿å¹´": 5787,
      "é¢Ĩæ°ĳ": 5788,
      "ãģĿ": 5789,
      "æłĸ": 5790,
      "éĥ½å¸Ĥ": 5791,
      "åħ³ä¸ľåľ°åĮº": 5792,
      "1530": 5793,
      "1533": 5794,
      "1534": 5795,
      "1535": 5796,
      "ä¹īéķĩ": 5797,
      "å¿łå®¶": 5798,
      "æĬ¤éĢģ": 5799,
      "åħ´åħĥ": 5800,
      "éĤ£äºĽ": 5801,
      "ä¹ĭå¿ĥ": 5802,
      "ä¿¡ä¸°": 5803,
      "å±±æ¢¨": 5804,
      "çĽ´çĽĽ": 5805,
      "æĿĳäºķ": 5806,
      "æĴĥ": 5807,
      "è¿ŀç»Ń": 5808,
      "å®ĩæ²»": 5809,
      "çºªå¿µ": 5810,
      "æİ¨ä¸¾": 5811,
      "éľ¸æĿĥ": 5812,
      "åĲı": 5813,
      "å±±æĶ¿éķ¿": 5814,
      "ç§Ģæ²»": 5815,
      "åľ°éľĩ": 5816,
      "æīĢéķ¿": 5817,
      "æĻ¯å®¶": 5818,
      "å±ħé¦Ĩ": 5819,
      "äºĮåįģäºĮæĹ¥": 5820,
      "çĬ¶åĨµ": 5821,
      "å¤§çŁ³": 5822,
      "å¤§èĩ´": 5823,
      "åĽ½ä¹ħ": 5824,
      "å®Ĺæ°ı": 5825,
      "éģĹè¨Ģ": 5826,
      "æĹĭåį³": 5827,
      "æĻ®éģį": 5828,
      "æĹ¥å¤ľ": 5829,
      "èĢĮæĿ¥": 5830,
      "éĢĢå¾Ģ": 5831,
      "ä»ħä»ħ": 5832,
      "åħ¼å®ļ": 5833,
      "å¦¾": 5834,
      "æŀ¢": 5835,
      "åºĦç¹ģ": 5836,
      "èĪŀåı°": 5837,
      "æĹ¥åĲĳåĽ½": 5838,
      "ä¼½": 5839,
      "å·Ŀä¸Ĭ": 5840,
      "æĶ»çģŃ": 5841,
      "ä½įåĪĹ": 5842,
      "1611": 5843,
      "åĿĤä¹ĭæĪĺ": 5844,
      "éħ·": 5845,
      "çľĭåĩº": 5846,
      "æĹ¢çĦ¶": 5847,
      "è°Ĺè¨Ģ": 5848,
      "åįļçī©é¦Ĩ": 5849,
      "85": 5850,
      "éķ¿å¤§": 5851,
      "è´Ŀ": 5852,
      "çłĤ": 5853,
      "è°ĭæ±Ĥ": 5854,
      "ç»Łæ²»èĢħ": 5855,
      "ç¦ħå¯º": 5856,
      "æī¶æĮģ": 5857,
      "å£¬çĶŁ": 5858,
      "åĨ°": 5859,
      "ä¸Ģè¯į": 5860,
      "æĬĳ": 5861,
      "æļĹéĢļ": 5862,
      "è¶ģçĿĢ": 5863,
      "ä¿ĺèĻı": 5864,
      "å¤§ä¹ī": 5865,
      "äºĨè§£": 5866,
      "åĽĽçĶ·": 5867,
      "èĲ©": 5868,
      "æĽ¾ä»»": 5869,
      "åĨĻéģĵ": 5870,
      "åĲİç»§èĢħ": 5871,
      "ä¹ĭåĬŁ": 5872,
      "å¤§æĺİ": 5873,
      "è¢«èªīä¸º": 5874,
      "ä¸ľåįĹ": 5875,
      "å®īèĬ¸": 5876,
      "ç»§èĢĮ": 5877,
      "æŃ¦çĶ°æĸ¹": 5878,
      "å®ŀä¼ĳ": 5879,
      "æİ¨å®ļ": 5880,
      "åī²æį®": 5881,
      "èŁ": 5882,
      "åĽ½åĪĨ": 5883,
      "å°ıè±Ĩ": 5884,
      "å®Ĺæ²»": 5885,
      "å¥³æĢ§": 5886,
      "å¹¿å¯º": 5887,
      "ä»ķç½®": 5888,
      "ç®Ģåįķ": 5889,
      "éĿĻåĨĪåİ¿": 5890,
      "é¢ľ": 5891,
      "å¸½": 5892,
      "æĸĩåŃĹ": 5893,
      "è½¯": 5894,
      "åħĪç¥ĸ": 5895,
      "æķĻèĤ²": 5896,
      "è½¬åıĺ": 5897,
      "æıĲåįĩ": 5898,
      "éĴĵ": 5899,
      "æľĿä»ĵåĨĽ": 5900,
      "1609": 5901,
      "ç¢§": 5902,
      "è¡Ģç¼ĺ": 5903,
      "åº¶åŃĲ": 5904,
      "äº¤å¥½": 5905,
      "çĪ±åŃ£": 5906,
      "å®¹æĺĵ": 5907,
      "åºŁéĻ¤": 5908,
      "å¤§ä½Ľæ®¿": 5909,
      "æĥ¯ä¾ĭ": 5910,
      "é¡½å¼º": 5911,
      "å¤§åįĬ": 5912,
      "ä¿¡åĲĽ": 5913,
      "ç«ĭè¶³": 5914,
      "äºĭä¸ļ": 5915,
      "è¿ĳä»£": 5916,
      "è½¬ç§»": 5917,
      "åĽ°éļ¾": 5918,
      "å§¿æĢģ": 5919,
      "ä¹ĭå®¶": 5920,
      "ä¸įå·²": 5921,
      "é«ĺå¹¿": 5922,
      "å¹³éĩİ": 5923,
      "éĺ²çº¿": 5924,
      "éĩĳæ³½": 5925,
      "æĤĶ": 5926,
      "æ¶Īå¤±": 5927,
      "å·Ŀåı£": 5928,
      "åħĥå¼ĺ": 5929,
      "åīįå¤ķ": 5930,
      "æĸ¹å¹¿å¯º": 5931,
      "æľĿåħ´": 5932,
      "å²ĽæĿĳ": 5933,
      "åı¯ä¿¡": 5934,
      "çĭ±": 5935,
      "åĨ³æĦı": 5936,
      "æķ°å¹´": 5937,
      "è°ĭæĿĢ": 5938,
      "åĭĩå£«": 5939,
      "æĭ¿ä¸ĭ": 5940,
      "ä¿¡åħī": 5941,
      "æµ·è·¯": 5942,
      "åĭī": 5943,
      "æĢ»æĶ»": 5944,
      "æĤ¦": 5945,
      "å¢ŀèĩ³": 5946,
      "èı±": 5947,
      "1531": 5948,
      "æī§æĶ¿": 5949,
      "åĽ°å¢ĥ": 5950,
      "é¢ĩä¸º": 5951,
      "åĲīèī¯æ°ı": 5952,
      "åĤ¬ä¿ĥ": 5953,
      "å¥¢": 5954,
      "åīįè¿°": 5955,
      "å¯¹åĨ³": 5956,
      "é«ĺæ¢¨": 5957,
      "çĦ¦": 5958,
      "å¤ļç§į": 5959,
      "æ¸ħæ´²åŁİ": 5960,
      "éķ¿åħĦ": 5961,
      "ä¸įåłª": 5962,
      "æĿ¥è¶Ĭ": 5963,
      "ä¸ľæĿ¡": 5964,
      "è¶ĬæĿ¥è¶Ĭ": 5965,
      "è·³": 5966,
      "çĭ¬èĩª": 5967,
      "åįıè®®": 5968,
      "1527": 5969,
      "an": 5970,
      "åĩ½": 5971,
      "è¥¿ä¹¡": 5972,
      "å¿ĥä¸Ń": 5973,
      "æºº": 5974,
      "ä¿Ŀéķ¿": 5975,
      "æĳĦåħ³": 5976,
      "èĶļå±±": 5977,
      "äººçĶŁ": 5978,
      "ç§ĢåĮħ": 5979,
      "æĬ¬": 5980,
      "éĹ¹": 5981,
      "é«ĺåº¦": 5982,
      "è¿ĽèĢĮ": 5983,
      "æ¸ħå·ŀ": 5984,
      "åıĸèĥľ": 5985,
      "åĨĪæľ¬": 5986,
      "åħįéĻ¤": 5987,
      "æ¯ıå¹´": 5988,
      "æĦ¤æĢĴ": 5989,
      "è¯¢éĹ®": 5990,
      "åĲĵ": 5991,
      "èĢķ": 5992,
      "æĺİçĻ½": 5993,
      "ä¸ĥæľ¬": 5994,
      "çĸĹ": 5995,
      "çŁŃæļĤ": 5996,
      "èĩ£æľįäºİ": 5997,
      "åĽ½ä¸»": 5998,
      "äººåı£": 5999,
      "ä¹īæĻ´": 6000,
      "æ¸Ķ": 6001,
      "1612": 6002,
      "éĢĢåį´": 6003,
      "å¹¸éļĨ": 6004,
      "å¤§åĿĤåĨ¬ä¹ĭéĺµ": 6005,
      "ç¬¬åĽĽæ¬¡": 6006,
      "æľ½æľ¨": 6007,
      "çŃ¿": 6008,
      "éĹ¨åı¸": 6009,
      "140": 6010,
      "åı·åı¬": 6011,
      "è°ĥè§£": 6012,
      "çŀ¬": 6013,
      "ä¸ĢåŃĺ": 6014,
      "åĮĹè¿ĳæ±Ł": 6015,
      "äºĭåħĪ": 6016,
      "éĢļè¯´": 6017,
      "åı²è¿¹": 6018,
      "äºĮåįģåĽĽ": 6019,
      "éĺ²éķ¿": 6020,
      "æķħèĢĮ": 6021,
      "é¸Łç¾½": 6022,
      "æī¾åĪ°": 6023,
      "èļ": 6024,
      "ä¹īæ²»": 6025,
      "åħĥæ¸ħ": 6026,
      "éĩįä¼¤": 6027,
      "çĶŁçĪ¶": 6028,
      "æįĲ": 6029,
      "èģª": 6030,
      "æĶ¶å½ķ": 6031,
      "èħķ": 6032,
      "åĪĽç«ĭ": 6033,
      "æŁ³æľ¬": 6034,
      "å¹´ä»½": 6035,
      "ä¸ĢæĹ¶æľŁ": 6036,
      "ä¹ĭåĬ¿": 6037,
      "éĩįå®¶": 6038,
      "æĿĥåĬ¿": 6039,
      "åįĬåħµåį«": 6040,
      "å¡Ļ": 6041,
      "1500": 6042,
      "åĳ½åĲį": 6043,
      "åħ´çĽĽ": 6044,
      "æľįä»İ": 6045,
      "çĽŁçº¦": 6046,
      "1606": 6047,
      "æī§æĿĥ": 6048,
      "æĥ¨éĩį": 6049,
      "åĩºç¾½åĽ½": 6050,
      "æŃ¼çģŃ": 6051,
      "åħ¹": 6052,
      "ä¹ĭåħĦ": 6053,
      "ä¹ĭæ¯į": 6054,
      "ä¸Ĭæ°ı": 6055,
      "å¥Ĺ": 6056,
      "è¾Ľ": 6057,
      "èĹī": 6058,
      "åĽĽå¤Ħ": 6059,
      "åĨįåħ´": 6060,
      "åįĹæĿ¡": 6061,
      "éĢĥåĪ°": 6062,
      "çİĭæľĿ": 6063,
      "åģļä¸º": 6064,
      "çĶĺåĪ©": 6065,
      "èĤ¯å®ļ": 6066,
      "è¤Ĵ": 6067,
      "ãĢĪ": 6068,
      "ãĢī": 6069,
      "ä»£ä»£": 6070,
      "å½ĵåľº": 6071,
      "ä¸¤å¤§": 6072,
      "æĸ°çº³": 6073,
      "ä¸°èĩ£æĸ¹": 6074,
      "äº¤çĶ±": 6075,
      "åĲĦä¸ª": 6076,
      "éĺ´è°ĭ": 6077,
      "ä¹Ļ": 6078,
      "å±ł": 6079,
      "åĲīæĶ¿": 6080,
      "çª¥": 6081,
      "æĭ¥æĪ´": 6082,
      "åĨ²åħ¥": 6083,
      "ä¹ĥèĩ³": 6084,
      "æĲŃ": 6085,
      "1523": 6086,
      "éľ¸ä¸»": 6087,
      "åĭ¾ç»ĵ": 6088,
      "å¤§æ´¥": 6089,
      "èĢĢ": 6090,
      "æı½": 6091,
      "æľªæĿ¥": 6092,
      "çĻ»åľº": 6093,
      "1467": 6094,
      "æľĹ": 6095,
      "èĩªçĶ±": 6096,
      "å®īç½®": 6097,
      "çĽĽä¿¡": 6098,
      "æĦıè¯Ĩ": 6099,
      "çł²": 6100,
      "æİ¥ä»»": 6101,
      "è±«": 6102,
      "å«¡éķ¿åŃĲ": 6103,
      "è®¾æĸ½": 6104,
      "åı¬å¼Ģ": 6105,
      "èµŀèµı": 6106,
      "1508": 6107,
      "ä¸Ńä»ĭ": 6108,
      "è¢«æįķ": 6109,
      "æĿ¾æľ¬": 6110,
      "åıĭå¥½": 6111,
      "å®«éĥ¨": 6112,
      "æķ°åįģ": 6113,
      "åĽ¢ç»ĵ": 6114,
      "ç¼ĺæķħ": 6115,
      "å¤§èĹı": 6116,
      "ä¼º": 6117,
      "æĮĸ": 6118,
      "å®īå®ļ": 6119,
      "éªĤ": 6120,
      "æĺĮä¿¡": 6121,
      "ç®¡è¾ĸ": 6122,
      "äºĺ": 6123,
      "åľ¨å®¶": 6124,
      "ä¸ŃæĿ¡": 6125,
      "æĸĩé¾Ł": 6126,
      "æĸĩåŃ¦": 6127,
      "æİ¥ä¸ĭæĿ¥": 6128,
      "åĢŁæŃ¤": 6129,
      "è¡£ä¼Ĺ": 6130,
      "è¯ı": 6131,
      "ç§ĢåĲīæŃ»": 6132,
      "ä¸¤åĲį": 6133,
      "ä¿Ŀéļľ": 6134,
      "åĨ³è£Ĥ": 6135,
      "æİ¨åĬ¨": 6136,
      "æ£®åı¯æĪĲ": 6137,
      "æĥŁæĶ¿": 6138,
      "ä¾ĦåŃĲ": 6139,
      "è¿Ĥ": 6140,
      "èĥĦ": 6141,
      "æŃ£æľ¨": 6142,
      "ä¸ľçħ§": 6143,
      "å®īæ²»": 6144,
      "æĻ¯éļĨ": 6145,
      "ç»ıçķ¥": 6146,
      "æĹłäºĭ": 6147,
      "å·²æľī": 6148,
      "æĿĥéĻĲ": 6149,
      "æº¯": 6150,
      "åĨ²çĶ°": 6151,
      "åĨĻä¿¡": 6152,
      "éĺ´æµģ": 6153,
      "çĽĨåľ°": 6154,
      "ä¿¡å®ļ": 6155,
      "æĪĺèĥľ": 6156,
      "åĽ½å¤§": 6157,
      "é¢Ĩåħµ": 6158,
      "åĲĳä¸ľ": 6159,
      "æŀŃ": 6160,
      "å¾ģæĪĺ": 6161,
      "å¹¿éĹ¨": 6162,
      "æī§æİĮ": 6163,
      "èµ¶æĿ¥": 6164,
      "èĤĿä»ĺ": 6165,
      "å¼ĳ": 6166,
      "æŃ¤åŁİ": 6167,
      "äºĮä¿£åŁİ": 6168,
      "æīĢèĹı": 6169,
      "æ¸ħæ¥ļ": 6170,
      "åıĤè®®": 6171,
      "èĻİæĺĮ": 6172,
      "æĶ¶èĹı": 6173,
      "é¥¥": 6174,
      "ä¿®è¡Į": 6175,
      "å£¬åįĪ": 6176,
      "ãĢħ": 6177,
      "å®¶çº¹": 6178,
      "ä¸Ģéĥİ": 6179,
      "å¤§åĸľ": 6180,
      "ä¹īç»ı": 6181,
      "åĩºåĬ¨": 6182,
      "å®ļå®ŀ": 6183,
      "æİ¥æĶ¶": 6184,
      "è¨Ģç»§": 6185,
      "å·¥äºĭ": 6186,
      "åģľæĪĺ": 6187,
      "å«ģäºĪ": 6188,
      "å£ķæ²Ł": 6189,
      "æ¬¡äºİ": 6190,
      "ä¼ĬèĹ¤": 6191,
      "ç¬ĥ": 6192,
      "1610": 6193,
      "åį«å°ī": 6194,
      "å¥¥å¹³": 6195,
      "åħħåĪĨ": 6196,
      "é¡¿æĹ¶": 6197,
      "79": 6198,
      "å¹´é¾Ħ": 6199,
      "ä¸Ĭæĸ¹": 6200,
      "å°ĨæĿ¥": 6201,
      "æģŃ": 6202,
      "ä¹¦éĻ¢": 6203,
      "åħħå½ĵ": 6204,
      "æ°ıäº²": 6205,
      "éķ¿æ°ı": 6206,
      "è¯«": 6207,
      "åĽłåĬŁ": 6208,
      "æ²³å°»": 6209,
      "åĪĨç¦»": 6210,
      "å®ĺåĨĽ": 6211,
      "äºīè®®": 6212,
      "å°ĳå°Ĩ": 6213,
      "äº®æĶ¿": 6214,
      "æ¨±äºķ": 6215,
      "åį§": 6216,
      "ä¸Ģå®«": 6217,
      "èĥ¶": 6218,
      "åħĥçĽĽ": 6219,
      "èĹıåĮ¿": 6220,
      "é»ĳå·Ŀ": 6221,
      "çī¹æĿĥ": 6222,
      "åĭĺåĬ©": 6223,
      "å¤§åĬŁ": 6224,
      "éķ¿å·ŀ": 6225,
      "åĨĽè®®": 6226,
      "ä¹īæĺİ": 6227,
      "å¤©çĦ¶": 6228,
      "å®īç¥¥": 6229,
      "ç³Ł": 6230,
      "çĶ²çĽ¸": 6231,
      "è´ŀæ²»": 6232,
      "é¦ĸå¸Ń": 6233,
      "å½Ĵåħ¥": 6234,
      "åĽ¾ä¹¦": 6235,
      "çĻ½äºķ": 6236,
      "æ¸Ĳæ¸Ĳ": 6237,
      "æĶ¯éħįæĿĥ": 6238,
      "åģĩåĲį": 6239,
      "ç¥ĩ": 6240,
      "æĺİå¾·": 6241,
      "åŁºåľ°": 6242,
      "æĬµæĮ¡": 6243,
      "åĨ²éĶĭ": 6244,
      "è¯¦æĥħ": 6245,
      "æį¢åıĸ": 6246,
      "åĢ¾åĲĳ": 6247,
      "æ¤İåĲį": 6248,
      "ä¸įç®¡": 6249,
      "è¡Ļ": 6250,
      "æĹłåıĮ": 6251,
      "è®¤å®ļ": 6252,
      "ç¿ģ": 6253,
      "éģĹé¢Ĩ": 6254,
      "1607": 6255,
      "åĭĺåĲĪ": 6256,
      "åľ¨ä½į": 6257,
      "çĶ°å±±": 6258,
      "ä¸īéĩį": 6259,
      "åĽĽäºº": 6260,
      "åĽĽåįĥ": 6261,
      "åıĹå°ģ": 6262,
      "åģ¶": 6263,
      "æĺĮä¸°": 6264,
      "å¤©å®Īéĺģ": 6265,
      "æĮĳæĪĺ": 6266,
      "æĿ¥æı´": 6267,
      "åħ«çĻ¾": 6268,
      "1521": 6269,
      "èĭ±éĽĦ": 6270,
      "çºłçº·": 6271,
      "83": 6272,
      "ä¸Ģæ´¾": 6273,
      "ä¹ĭæľº": 6274,
      "äºİæ°¸ç¦Ħ": 6275,
      "èĢĮäº¡": 6276,
      "ä¸»ä¹ī": 6277,
      "ä¸°å¯Į": 6278,
      "ä¸ĸäºº": 6279,
      "çľŁæĺ¯": 6280,
      "çªģåĩº": 6281,
      "é¹¿ä¹ĭä»ĭ": 6282,
      "å¥ĭåĬĽ": 6283,
      "æ¼Ķåıĺ": 6284,
      "å®łçĪ±": 6285,
      "è»į": 6286,
      "èµ¢": 6287,
      "åľ°çĽĺ": 6288,
      "åİŁåħĪ": 6289,
      "èĥľéĩį": 6290,
      "æ¶©": 6291,
      "èĲ½åŁİ": 6292,
      "åĪĴåĪĨ": 6293,
      "å¼¥ä¸īéĥİ": 6294,
      "è¾ŀåİ»": 6295,
      "åįģä¸īå²ģ": 6296,
      "èĪįå¼ĥ": 6297,
      "çĲµçĲ¶æ¹ĸ": 6298,
      "åĨĽåĬĽ": 6299,
      "åĪĨåī²": 6300,
      "èµ·è¯·æĸĩ": 6301,
      "æĹłçĸĳ": 6302,
      "ç»ŁåĪ¶": 6303,
      "å¤ĦåĨ³": 6304,
      "æĦıå¤ĸ": 6305,
      "è´Łæĭħ": 6306,
      "æ³īåĽ½": 6307,
      "å¹¼åŃĲ": 6308,
      "æł¼å±Ģ": 6309,
      "ç²¾éĢļ": 6310,
      "äºİæ°¸æŃ£": 6311,
      "çĶŁåĳ½": 6312,
      "æĪĳåĨĽ": 6313,
      "èĬ±æĬ¼": 6314,
      "ç®Ģä»ĭ": 6315,
      "å¤§ä¸¾": 6316,
      "å¯ºåĨĽ": 6317,
      "æĸĩæŃ¦": 6318,
      "å®ŀåĪĻ": 6319,
      "åıĬæĹ¶": 6320,
      "èµĸéļĨ": 6321,
      "æĹłè§Ĩ": 6322,
      "å¼ºè¡Į": 6323,
      "æķħæĦı": 6324,
      "é¼İ": 6325,
      "è°¢ç½ª": 6326,
      "æĬļåħ»": 6327,
      "å±±éĹ¨": 6328,
      "åĲįåĪĨ": 6329,
      "é¢Ĺ": 6330,
      "ç«ŀ": 6331,
      "å°ıå²Ľ": 6332,
      "èµĸæĪ¿": 6333,
      "é¹«": 6334,
      "æĴ¤åħµ": 6335,
      "ä¸Īå¤«": 6336,
      "è¿ĤåĽŀ": 6337,
      "éķ¿åĨĪ": 6338,
      "æĬ½": 6339,
      "çºŃ": 6340,
      "æĸ¹æ¡Ī": 6341,
      "ãģ²": 6342,
      "æľ¨éĢł": 6343,
      "å¹¿ä¸º": 6344,
      "éĢĥç¦»": 6345,
      "ç¡®è¯ģ": 6346,
      "æ¼Ĩ": 6347,
      "çº·çºŃ": 6348,
      "è·ŁçĿĢ": 6349,
      "åĲ¬ä»İ": 6350,
      "çĮĽçĥĪ": 6351,
      "åī¯å°Ĩ": 6352,
      "å¯Ĵæ²³": 6353,
      "é³": 6354,
      "æĿ¯": 6355,
      "åľ°çĤ¹": 6356,
      "æ´ª": 6357,
      "åĲīæĻ´": 6358,
      "çĶ±åĪ©": 6359,
      "è¶³åĪ©æĻ´æ°ı": 6360,
      "åı¤çĶ°": 6361,
      "çĹķ": 6362,
      "æĤĦ": 6363,
      "éģĩåĪ°": 6364,
      "å®¿æķĮ": 6365,
      "æ·Ģæ®¿": 6366,
      "å¤¸": 6367,
      "æĶ¿æ°ı": 6368,
      "äºĮåįĥ": 6369,
      "æľĿæĹ¥": 6370,
      "çĽ¸åıį": 6371,
      "æĸ°åŁİ": 6372,
      "éĢĢå®Ī": 6373,
      "è¿ŀè´ŀ": 6374,
      "éģĹäº§": 6375,
      "ä¼ĬäºĪåĽ½": 6376,
      "éķ¿äºİ": 6377,
      "ä¹īä¸°": 6378,
      "æĶ¿åŃĲ": 6379,
      "æĪĲçº²": 6380,
      "åİŁæľī": 6381,
      "ä¸°åĲİåĽ½": 6382,
      "èī°": 6383,
      "åĨįèµ·": 6384,
      "æīĵå¼Ģ": 6385,
      "äºīæī§": 6386,
      "æĶ»éĺ²æĪĺ": 6387,
      "å¶ĭ": 6388,
      "æĸĩä¸Ń": 6389,
      "åĽŀæĿ¥": 6390,
      "å¾¡éĹ¨": 6391,
      "çİĦä»¥": 6392,
      "è¿½æĶ¾": 6393,
      "éķ°ä»ĵåºľ": 6394,
      "1528": 6395,
      "è¡ĢèĦī": 6396,
      "åī¥å¤º": 6397,
      "ç»µ": 6398,
      "ç»§å®¤": 6399,
      "å¤ļä¸ª": 6400,
      "å¤ªåŃĲ": 6401,
      "æµ·è´¼": 6402,
      "çĻ½å·Ŀ": 6403,
      "75": 6404,
      "çĺ": 6405,
      "ä¸Ģå¤ľ": 6406,
      "æľīéĻĲ": 6407,
      "æľ¬å§ĵ": 6408,
      "åĲĮåĥļ": 6409,
      "èĩªæ²»": 6410,
      "éĩįæ¬¡": 6411,
      "ä»»èģĮ": 6412,
      "ç§°èµŀ": 6413,
      "åĭĴ": 6414,
      "è¯¥åĽ½": 6415,
      "ä¸īå¥½ä¹ī": 6416,
      "æ²¼åŁİ": 6417,
      "ä¿¡å¹¿": 6418,
      "æĪĺæ³ķ": 6419,
      "ä¹īæ¾Ħ": 6420,
      "å¤©ç«¥": 6421,
      "å¯ºåŁİ": 6422,
      "èµ·ä¹ī": 6423,
      "åŁºçĿ£å¾Ĵ": 6424,
      "è§¦æĢĴ": 6425,
      "åºĹ": 6426,
      "æĿĳå®Ĺ": 6427,
      "æ³ķçļĩ": 6428,
      "æīĵåĢĴ": 6429,
      "èĩ´ä¿¡": 6430,
      "ç§»èĩ³": 6431,
      "è¿ģå¾Ģ": 6432,
      "1507": 6433,
      "éĤ»åĽ½": 6434,
      "ä¸Ģéĵģ": 6435,
      "å¤§éģĵ": 6436,
      "ä¸įä¸ĭ": 6437,
      "å¥´": 6438,
      "è¾»": 6439,
      "çĶŁä¸ĭ": 6440,
      "ç»§æ¶¦": 6441,
      "èį»": 6442,
      "çĻ½çŁ³": 6443,
      "åı¬è§ģ": 6444,
      "ç¶±": 6445,
      "åľ¨æŃ¤æľŁéĹ´": 6446,
      "åĲİç»Ń": 6447,
      "èĥŀ": 6448,
      "æľīåĬŁ": 6449,
      "åľ°ä¸ĭ": 6450,
      "éĩįè¿Ķ": 6451,
      "çŁ³äºķ": 6452,
      "è¥¿ä¾§": 6453,
      "åĽŀå¸Ī": 6454,
      "åıĸæ¬¡": 6455,
      "åİĨä»»": 6456,
      "å®½æŃ£": 6457,
      "ä¹ĺèĥľ": 6458,
      "åĸĦæĪĺ": 6459,
      "éĢ¼è¿«": 6460,
      "å¦ĤåĲĮ": 6461,
      "ç¨Ģ": 6462,
      "æĺ¾çĦ¶": 6463,
      "éģĹä½ĵ": 6464,
      "å®ªæĺ¾": 6465,
      "åģļæ³ķ": 6466,
      "çĭŃåĽ½": 6467,
      "é¥Ńå¯Į": 6468,
      "1524": 6469,
      "è¿Ŀåıį": 6470,
      "âĶĢ": 6471,
      "åµ": 6472,
      "ä¸ĢæĬĬ": 6473,
      "ç§Ģæ»¡": 6474,
      "å¥¸": 6475,
      "åīįæľĿ": 6476,
      "é«ĺæ¸ħ": 6477,
      "æĥ¶": 6478,
      "æ±ŁåĽ½": 6479,
      "éĢļæĬ¥": 6480,
      "ç»ŁèĻİ": 6481,
      "èĪ°": 6482,
      "ä¸ĥåįĥ": 6483,
      "æİ¥å¾ħ": 6484,
      "æŁ´ç§Ģéķ¿": 6485,
      "ç¼ĸåħ¥": 6486,
      "æ¸©äºķ": 6487,
      "æĢ¨æģ¨": 6488,
      "æľĭ": 6489,
      "åĩī": 6490,
      "å¼¼": 6491,
      "åĩºåŁİ": 6492,
      "æ³¥": 6493,
      "èĩªå¹¼": 6494,
      "æĮŁ": 6495,
      "è¾¾å®ī": 6496,
      "æ¶¨": 6497,
      "å¤±åĪ©": 6498,
      "å¸½åŃĲ": 6499,
      "çĶ°åºĦ": 6500,
      "ä¿¡äº²": 6501,
      "ä¹īå°ļ": 6502,
      "æŃ¦èīº": 6503,
      "èĩªç«ĭ": 6504,
      "åĽĽéĿ¢": 6505,
      "165": 6506,
      "è·¨": 6507,
      "åħĪè¡Į": 6508,
      "è®©ä½į": 6509,
      "ç¼®": 6510,
      "æĥŁä¿¡": 6511,
      "æºĥè´¥": 6512,
      "å®īèĹ¤å®Ī": 6513,
      "æ®īæŃ»": 6514,
      "ç°Ĺ": 6515,
      "ç»¼": 6516,
      "ä¼Ļ": 6517,
      "ä¸Ĭçļĩ": 6518,
      "ä¸Ĭä¹īåħī": 6519,
      "åİŁåĪĻ": 6520,
      "æĸĩåºĵ": 6521,
      "å§ī": 6522,
      "å¹¸éķ¿": 6523,
      "è§ĤåºĶ": 6524,
      "æİĮç®¡": 6525,
      "æī«éĥ¨": 6526,
      "äººæ°ĳ": 6527,
      "è¿Ļä»¶": 6528,
      "äº²è¿ĳ": 6529,
      "çĽ´èĩ£": 6530,
      "æŃ¦çĶ°ä¹ī": 6531,
      "åĪ¶éĢł": 6532,
      "è¾īå¼ĺ": 6533,
      "çķĻåŃĺ": 6534,
      "èĦĩ": 6535,
      "å°ļé¡º": 6536,
      "åįĬåĽ½": 6537,
      "èµıè¯Ĩ": 6538,
      "çº¯å¿ł": 6539,
      "ç´§å¼ł": 6540,
      "çķıæĥ§": 6541,
      "æĹ¶ä»»": 6542,
      "ä»¥åĮĹ": 6543,
      "å¹³æ°ĳ": 6544,
      "ç¥·": 6545,
      "å»¿": 6546,
      "äº¦åı¯": 6547,
      "å¥½å®¶": 6548,
      "ä¼łåħ¥": 6549,
      "çł¥": 6550,
      "æİ¥è§¦": 6551,
      "æķ°åįĥ": 6552,
      "æĶ¾åľ¨": 6553,
      "éķĩå®ŀ": 6554,
      "åĢŁåı£": 6555,
      "åĬŀæ³ķ": 6556,
      "éĸĵ": 6557,
      "æ¬§æ´²": 6558,
      "ä¸ĬåŁİ": 6559,
      "ä»£å½ĵ": 6560,
      "åįĹèĽ®": 6561,
      "äºīåıĸ": 6562,
      "ç²ī": 6563,
      "å®Įå·¥": 6564,
      "1526": 6565,
      "éİ": 6566,
      "æľīæĹ¶": 6567,
      "æĽ¹": 6568,
      "è¥¿åįĹ": 6569,
      "ç¬¬ä¸ĥ": 6570,
      "è¶³åĪ©ä¹īè§Ĩ": 6571,
      "èĳĹä½ľ": 6572,
      "çºªä¼ĬåĽ½": 6573,
      "ä¹ĭåĬĽ": 6574,
      "ç§Ł": 6575,
      "åĽłç´ł": 6576,
      "æĸ°åºĦ": 6577,
      "ä¿Ŀæľī": 6578,
      "å¹¿çº²": 6579,
      "è®¨æŃ»": 6580,
      "åĲĦå¤Ħ": 6581,
      "ä¿®ç¼®": 6582,
      "åĬłæ²»çĶ°": 6583,
      "ä¸»ä»İåħ³ç³»": 6584,
      "73": 6585,
      "å¤§æĿĥ": 6586,
      "å¾³": 6587,
      "è¿ĺè¦ģ": 6588,
      "çħ½": 6589,
      "æķ´ä½ĵ": 6590,
      "è´¯æĸĩ": 6591,
      "åį·åħ¥": 6592,
      "èĳ¬ç¤¼": 6593,
      "åį¡": 6594,
      "è´´": 6595,
      "åĬŁåĭĭ": 6596,
      "çĻ¾äºº": 6597,
      "åİĭè¿«": 6598,
      "åĲİçĽ¾": 6599,
      "çĪ·": 6600,
      "èµĸå¿ł": 6601,
      "åĪĨå¸ĥ": 6602,
      "äº¤ä»£": 6603,
      "æ·»": 6604,
      "é£İæł¼": 6605,
      "åħ·è¶³": 6606,
      "è¿Ĳè¾ĵ": 6607,
      "éĿĴæľ¨": 6608,
      "å®ģå¯º": 6609,
      "å±Īæľį": 6610,
      "ä¾¦å¯Ł": 6611,
      "æĹ¥åħĥ": 6612,
      "ä¹īæŃ¦": 6613,
      "æĶ¿èĥľ": 6614,
      "åħ¶åĲį": 6615,
      "åĲīåŁİ": 6616,
      "ä»ĸäºº": 6617,
      "çĶ±æĿ¥": 6618,
      "æ¡ĵ": 6619,
      "ç½ķ": 6620,
      "åİĨæĿ¥": 6621,
      "1604": 6622,
      "éģ¿éļ¾": 6623,
      "æĤīæķ°": 6624,
      "ä¸Ģå¹¶": 6625,
      "æ³Ħ": 6626,
      "æĹłæķ°": 6627,
      "ä¸¤ç§į": 6628,
      "1613": 6629,
      "åįıåĬĽ": 6630,
      "éĻ¶æ°ı": 6631,
      "æ¤¿": 6632,
      "å¿įåŁİ": 6633,
      "åįķçĭ¬": 6634,
      "æ¡ĳåĲį": 6635,
      "éŃĤ": 6636,
      "èĥ¶çĿĢ": 6637,
      "76": 6638,
      "çº½": 6639,
      "å¿łäºİ": 6640,
      "å®ļå±ħ": 6641,
      "æľĿçĿĢ": 6642,
      "æį·": 6643,
      "æĹłåı¯": 6644,
      "æģķ": 6645,
      "ä¸ĩä½Ļ": 6646,
      "åĸľæ¬¢": 6647,
      "é¹Ī": 6648,
      "89": 6649,
      "ä¹ĭä¸º": 6650,
      "äººæīį": 6651,
      "å®Ĺæ»´": 6652,
      "ç»ĩéĥ¨": 6653,
      "å½ĵå¤©": 6654,
      "å¹³äºķ": 6655,
      "è§ģçĬ¶": 6656,
      "èµĸçº²": 6657,
      "éĺµåīį": 6658,
      "å¿ħçĦ¶": 6659,
      "çĭ¬çī¹": 6660,
      "æīĢåı¸ä»£": 6661,
      "36": 6662,
      "ä¸ºä¹ī": 6663,
      "åŁİäºķ": 6664,
      "å¤§èĥľ": 6665,
      "æµ©": 6666,
      "æıŃ": 6667,
      "ä¼łç»Ļ": 6668,
      "è¿ŀé¾Ļ": 6669,
      "åī²è®©": 6670,
      "æ¡Ĳä¸Ķ": 6671,
      "æĹ¥å¸¸": 6672,
      "ä¸Ńä¸ĸ": 6673,
      "åīįæĸ¹": 6674,
      "åĲĮè¡Į": 6675,
      "çĽ¸äºĴ": 6676,
      "æĹłåĹ£": 6677,
      "åľŁå±ħ": 6678,
      "åħŃåįĥ": 6679,
      "åħ¨çĻ»": 6680,
      "ä¿®å¤į": 6681,
      "è´¤æ²»": 6682,
      "å»¶ä¼¸": 6683,
      "ä¸´æµİ": 6684,
      "çĶµå½±": 6685,
      "æ¬¾å¾ħ": 6686,
      "èĬ¥å·Ŀ": 6687,
      "å®ı": 6688,
      "åŁ¼": 6689,
      "æĹ¶å¹´": 6690,
      "æĹ¶åĪĨ": 6691,
      "ä¸īä¹ĭä¸¸": 6692,
      "åħ¶æ¯į": 6693,
      "å¯¹é©¬": 6694,
      "å½ĵä½ľ": 6695,
      "1620": 6696,
      "çģ¯": 6697,
      "ä¿Ŀä½ı": 6698,
      "æĽ¾åŃĻ": 6699,
      "æİ¥ç®¡": 6700,
      "éĵº": 6701,
      "èĤĸ": 6702,
      "çķĻæľī": 6703,
      "éĢĥèĩ³": 6704,
      "äºĮåįģä¸īå¹´": 6705,
      "æĬĹæĪĺ": 6706,
      "èµĦæł¼": 6707,
      "æĸ¯æ³¢å®¶": 6708,
      "å§Ĳå§Ĳ": 6709,
      "çĶ°éķ¿": 6710,
      "æľīæķĪ": 6711,
      "ç§ĢåĲīåĨĽ": 6712,
      "åı¯æĥľ": 6713,
      "æ´¥å·Ŀ": 6714,
      "çĽĽæĹ¶": 6715,
      "ç»ĵå±Ģ": 6716,
      "äº¤æµģ": 6717,
      "åĵ¨": 6718,
      "åĭĥ": 6719,
      "æĥħåĬ¿": 6720,
      "æ°ĳéĹ´": 6721,
      "åįĬèĹı": 6722,
      "è´¨çĸĳ": 6723,
      "é©»æīİ": 6724,
      "éķ¿éĩİåİ¿": 6725,
      "ç¬¬åĽĽä»£": 6726,
      "æııè¿°": 6727,
      "èŁ¹": 6728,
      "å¹´åı·": 6729,
      "è¡Įäºĭ": 6730,
      "çī²": 6731,
      "å¸Ĥå·Ŀ": 6732,
      "çĶ²èĥĦ": 6733,
      "éĺ²åį«": 6734,
      "æĥ³æ³ķ": 6735,
      "æĲ¬": 6736,
      "éĿłè¿ĳ": 6737,
      "ä¿ĥä½¿": 6738,
      "1493": 6739,
      "æĲºå¸¦": 6740,
      "æİ©æĬ¤": 6741,
      "å®¶ä¼ł": 6742,
      "ä¸Ģå¤§": 6743,
      "åĩ»æĿĢ": 6744,
      "çĽ¸ä¼¼": 6745,
      "çĽ¸åĽ½å¯º": 6746,
      "å®«å´İ": 6747,
      "æĢ»åħµåĬĽ": 6748,
      "å±ĭæķ·": 6749,
      "æĶ¶åħ»": 6750,
      "ç»Łæ²»æĿĥ": 6751,
      "è°±ç³»": 6752,
      "åįģäºĶå²ģ": 6753,
      "å²Ĳéĺľåİ¿": 6754,
      "ç½ĳç»ľ": 6755,
      "éĻªèĩ£": 6756,
      "æŃ§": 6757,
      "éĥ·": 6758,
      "éĥĬ": 6759,
      "æŃ£èµĸ": 6760,
      "è¢«ç§°ä½ľ": 6761,
      "ä¸¤åŁİ": 6762,
      "æ³ķä»¤": 6763,
      "äº¤çķĮ": 6764,
      "èģĶåĲį": 6765,
      "åħ·å¤ĩ": 6766,
      "éĨĴ": 6767,
      "åĽļ": 6768,
      "å®¶éķ¿": 6769,
      "ä¸Ģå°ģ": 6770,
      "è´«": 6771,
      "ä¸īæ³½": 6772,
      "ç«ĸ": 6773,
      "åİŁå®¶": 6774,
      "éĥ¨åĨĽ": 6775,
      "å¤ĸéĥ¨": 6776,
      "æĮģåĽ½": 6777,
      "å¤Ħä»¥": 6778,
      "å¤ªåİŁ": 6779,
      "æĮĩå¯¼": 6780,
      "åłĤåħĦå¼Ł": 6781,
      "åĤ²": 6782,
      "çŁ³è§ģåĽ½": 6783,
      "æİªæĸ½": 6784,
      "çħ½åĬ¨": 6785,
      "45": 6786,
      "ä¹ĭéģĵ": 6787,
      "åĮĹåĽ½": 6788,
      "é«ĺä¿¡": 6789,
      "å®īçĶ°": 6790,
      "ä»İäºĭ": 6791,
      "å»Ĭ": 6792,
      "åĪĨå°ģ": 6793,
      "æŁĶ": 6794,
      "æĹ©å°±": 6795,
      "éĺ¿å¸Ĥ": 6796,
      "ä¹Ŀé¬¼åĺīéļĨ": 6797,
      "400": 6798,
      "å¤§æ±Ł": 6799,
      "è¾¨": 6800,
      "ä¸ľä¾§": 6801,
      "ä¸°å²Ľ": 6802,
      "çĶ·åŃĲ": 6803,
      "è¿ĲçĶ¨": 6804,
      "ç¯ĩ": 6805,
      "ç©¿çĿĢ": 6806,
      "é¤": 6807,
      "ä¸Ńä¸ĸçºª": 6808,
      "ä¹īä»²": 6809,
      "å¹³åŁİ": 6810,
      "èµ·äºĭ": 6811,
      "è¶ĬæĻº": 6812,
      "æīĭèħķ": 6813,
      "ç«¹ä¹ī": 6814,
      "ä¾įå¥³": 6815,
      "é¢ĨåĨĽ": 6816,
      "ä¸¤èĢħ": 6817,
      "æīĭæĮģ": 6818,
      "éĢĢä½į": 6819,
      "æľªæľī": 6820,
      "ç§įåŃĲ": 6821,
      "å¼ºè°ĥ": 6822,
      "æĬ¥å¤į": 6823,
      "ç´«å¹¿éĹ¨": 6824,
      "ä¸Ģæīĭ": 6825,
      "æĪĺçģ«": 6826,
      "æľīæĦı": 6827,
      "åįģå¸Ĥ": 6828,
      "å°ıæŀĹ": 6829,
      "æĦļ": 6830,
      "åĿŁ": 6831,
      "åħ´åĽ½": 6832,
      "æµģè¡Į": 6833,
      "ç§»å¾Ģ": 6834,
      "éļ¶å±ŀäºİ": 6835,
      "é©°æı´": 6836,
      "åĲİéĢĢ": 6837,
      "ä¿¡åĲī": 6838,
      "æ³Ĭ": 6839,
      "æ¯ħ": 6840,
      "å¾·æĶ¿": 6841,
      "åĪĨæķ£": 6842,
      "è¥¿åĮĹ": 6843,
      "é©¬åĮ¹": 6844,
      "èĤĨ": 6845,
      "æľįåĬ¡": 6846,
      "ç¦ıäºķ": 6847,
      "å¿Ĺéģĵ": 6848,
      "æ¸¸æĪı": 6849,
      "å®¶å¿ł": 6850,
      "å¤§çł´": 6851,
      "ä¼Ł": 6852,
      "ä¿¡æĺ¥": 6853,
      "éĩįä¿¡": 6854,
      "é«ĺåı°": 6855,
      "èµĸç»§": 6856,
      "ä»ĬåĲİ": 6857,
      "ç¬¬åįģ": 6858,
      "æµģéĢļ": 6859,
      "èī¯å·Ŀ": 6860,
      "æºĲèĩª": 6861,
      "æĻ®éĢļ": 6862,
      "åĲĬ": 6863,
      "ä¸Ģåı¥": 6864,
      "å¤§æĶ¿": 6865,
      "éķ¿éĢ¸": 6866,
      "åĪ°åºķ": 6867,
      "ãģļ": 6868,
      "æīĢèĩ´": 6869,
      "éĢļäº¤": 6870,
      "å¼ºæĶ»": 6871,
      "æħ¨": 6872,
      "åįķä½į": 6873,
      "åĲŀå¹¶": 6874,
      "å¤§å²Ľ": 6875,
      "æĹ¥æĿ¡": 6876,
      "æŃ¤åĪ»": 6877,
      "ãģ¸": 6878,
      "åħ¥ä¸»": 6879,
      "å¤ļéĩį": 6880,
      "äºĶä»£": 6881,
      "éļĨéĩį": 6882,
      "æĸ°å®«": 6883,
      "çĶ³è¯·": 6884,
      "åĨ·æ³ī": 6885,
      "49": 6886,
      "æĪ°": 6887,
      "åħĥç§Ģ": 6888,
      "æľ¬åľ°": 6889,
      "åĮĹä¼Ĺ": 6890,
      "ä¸¤è·¯": 6891,
      "ç²Ĺ": 6892,
      "åĶ¤": 6893,
      "71": 6894,
      "å®Ľ": 6895,
      "ä¸Ģä»¶": 6896,
      "ä¹ĭåħµ": 6897,
      "å±±ä¸ĭ": 6898,
      "åİŁåĲį": 6899,
      "è¿Ľå±ķ": 6900,
      "æŀĲ": 6901,
      "å¾ĹåĲį": 6902,
      "çīŁ": 6903,
      "å¸Ĥåľº": 6904,
      "ç§įç§į": 6905,
      "è®¿æ°ı": 6906,
      "éģĩå®³": 6907,
      "ä¸Ģä¸ĩäºĶåįĥ": 6908,
      "è¹Ħ": 6909,
      "äº«å¾·ä¹ĭä¹±": 6910,
      "åĲ´": 6911,
      "æĹ¥åħī": 6912,
      "ä»¥ä¸ľ": 6913,
      "åº·èĥ¤": 6914,
      "äº²æĪļ": 6915,
      "ä½Ĩé©¬": 6916,
      "å¹³æĪ·": 6917,
      "äºĭåıĺ": 6918,
      "æķĮåħµ": 6919,
      "æµ·åŁİ": 6920,
      "éĩĳæ£®éķ¿": 6921,
      "ä¹ĺæľº": 6922,
      "ç¤¼ä»ª": 6923,
      "éĻ¶åĨĽ": 6924,
      "é¥°æ¼Ķ": 6925,
      "ä¹³æ¯į": 6926,
      "å±±æ¢¨åİ¿": 6927,
      "42": 6928,
      "ç§¦": 6929,
      "ä¸įæĥ³": 6930,
      "ç§Ģè´ŀ": 6931,
      "åĲīçĶ°åŁİ": 6932,
      "è°Ĭ": 6933,
      "èĩªè¡Į": 6934,
      "éĢļåŃĹ": 6935,
      "è®¤è¯Ĩ": 6936,
      "æĥħå½¢": 6937,
      "æī°ä¹±": 6938,
      "æĩĪ": 6939,
      "éĩľå±±": 6940,
      "ä¸ĢæĹ¶éĹ´": 6941,
      "éķ¿åĿĤ": 6942,
      "è¡Įéķ¿": 6943,
      "å¿łéķ¿": 6944,
      "çĪ¶ä¸º": 6945,
      "æ·±æĦŁ": 6946,
      "å²³ä¹ĭæĪĺ": 6947,
      "æķĪæŀľ": 6948,
      "éŁ³ä¹Ĳ": 6949,
      "äº¬æŀģæ°ı": 6950,
      "æ¯«ä¸į": 6951,
      "æģ³è¯·": 6952,
      "åŁ¹": 6953,
      "ä¿¡è´µ": 6954,
      "å¹¶åĪĹ": 6955,
      "ä¼ļè§ģ": 6956,
      "çĽĽéļĨ": 6957,
      "åıĤèĢĥ": 6958,
      "æİ¥æĽ¿": 6959,
      "æºĲèµĸ": 6960,
      "æİ¨èįĲ": 6961,
      "å¥Ķèµ°": 6962,
      "å®ģå®ģ": 6963,
      "700": 6964,
      "ç»¿": 6965,
      "åŁİéĻ·": 6966,
      "ä¸ŃåĬ¡": 6967,
      "æ²¢": 6968,
      "ä¸»åŁİ": 6969,
      "å®ļæŃ£": 6970,
      "ç»ıå®¶": 6971,
      "æ¸ħéķ¿": 6972,
      "1623": 6973,
      "å£«æĹı": 6974,
      "æĸ°ä»»": 6975,
      "åħ´æĪ¿": 6976,
      "èī¯å¥½": 6977,
      "çĥ¦": 6978,
      "å®ªå¿ł": 6979,
      "åĶ±": 6980,
      "åĿļåĨ³": 6981,
      "åĬĿè°ı": 6982,
      "åĤħ": 6983,
      "å¤ŃæĬĺ": 6984,
      "çŀ¬éĹ´": 6985,
      "çĢ": 6986,
      "å°ĺ": 6987,
      "å¤§å¤§": 6988,
      "åħŃåįģ": 6989,
      "ç¬¬ä¹Ŀ": 6990,
      "å¤Ħç½ļ": 6991,
      "èĬ±åĨĽ": 6992,
      "è½»æĺĵ": 6993,
      "åĨĻä½ľ": 6994,
      "å¯Ĩè°ĭ": 6995,
      "ç»´æĬ¤": 6996,
      "ç«¥åŃĲ": 6997,
      "èĩ¼äºķåŁİ": 6998,
      "ºçī²": 6999,
      "çĴ": 7000,
      "äºŃ": 7001,
      "ä¸Ģç»Ł": 7002,
      "åľ¨ä¸ĸ": 7003,
      "åĩºä¼Ĺ": 7004,
      "æŃ¦åį«": 7005,
      "åĨħä¹¦": 7006,
      "çīºçī²": 7007,
      "åĿł": 7008,
      "ä¸ĥçĻ¾": 7009,
      "æĽ¾ä¹īæĺĮ": 7010,
      "è°·æ°ı": 7011,
      "ä¾§éĿ¢": 7012,
      "åĨ¬åº·": 7013,
      "æĿ¿ä»ĵ": 7014,
      "å·®å¼Ĥ": 7015,
      "åĿªåĨħ": 7016,
      "78": 7017,
      "å¤§é¡»": 7018,
      "ä¸Ńç«ĭ": 7019,
      "ä¸įèĤ¯": 7020,
      "æŃ¦åĲī": 7021,
      "åħ¶æ¬¡": 7022,
      "æ¬º": 7023,
      "æĶ»èĲ½": 7024,
      "é«ĺæ°ı": 7025,
      "å°±ç®Ĺ": 7026,
      "ä¸ľæĸ¹": 7027,
      "äºĭæĢģ": 7028,
      "è§ģä¹ī": 7029,
      "åĢº": 7030,
      "äºĮåįģä¸Ģå¹´": 7031,
      "èĩ´ä½¿": 7032,
      "éĻĨåĨĽ": 7033,
      "è¾ħåĬ©": 7034,
      "è¾ĥä¸º": 7035,
      "é«ĺæ¡¥ç»įè¿Ĳ": 7036,
      "æĹ¨åľ¨": 7037,
      "æ§»åŁİ": 7038,
      "çĽĳæĬ¤äºº": 7039,
      "åĪĬ": 7040,
      "ä¸ĭåįĪ": 7041,
      "åīįéĿ¢": 7042,
      "èĩªä¿¡": 7043,
      "å°ıæłĹ": 7044,
      "åħµå£«": 7045,
      "é©¬å¤´": 7046,
      "æīĭéĩĮ": 7047,
      "è®¨çģŃ": 7048,
      "ç¼´çº³": 7049,
      "ä¹ĭç§°": 7050,
      "å¤§äºĭ": 7051,
      "æŃ¦èĹ¤": 7052,
      "åĿĽ": 7053,
      "åĽĽåĳ¨": 7054,
      "åĬłæ·±": 7055,
      "ä»Ĭå¤©": 7056,
      "åıĸå·Ŀ": 7057,
      "å®¶çĿ£åĲİ": 7058,
      "å°ģå»º": 7059,
      "éī´çĲĨ": 7060,
      "åİĭåĢĴ": 7061,
      "å¿ħå®ļ": 7062,
      "è¯ģæį®": 7063,
      "æŁ´çĶ°èĥľ": 7064,
      "çľ¼è§ģ": 7065,
      "ç»ĵåŁİç§Ģåº·": 7066,
      "åħľ": 7067,
      "å±¯": 7068,
      "ä¹īå¿ł": 7069,
      "1520": 7070,
      "ä¸īçĶ°": 7071,
      "ä»¥å¾Ģ": 7072,
      "æĶ¿å®¶": 7073,
      "ä¹ħçķĻ": 7074,
      "æĿ¾åīį": 7075,
      "è¿ĩä¸ĸ": 7076,
      "åħīæĺİ": 7077,
      "ç¬¬ä¸Ģä¸ª": 7078,
      "åĽŀåºĶ": 7079,
      "åħ¨å¢ĥ": 7080,
      "æµ·å²¸": 7081,
      "æīĵçł´": 7082,
      "å¼Ĥå¸¸": 7083,
      "èĪ¬çļĦ": 7084,
      "åĢŁåĬ©": 7085,
      "çĨĬéĩİ": 7086,
      "ç¦ħç§Ģ": 7087,
      "è¡¥ä»»": 7088,
      "èŃ¦æĪĴ": 7089,
      "72": 7090,
      "å®¾": 7091,
      "æĺı": 7092,
      "ä¸Ģæ°ı": 7093,
      "æĹ¥èĩ³": 7094,
      "ä¸ŃåİŁ": 7095,
      "çİĸ": 7096,
      "åĲĮæĹ¶ä»£": 7097,
      "å¯¹éĺµ": 7098,
      "ä¼łåĪ°": 7099,
      "é¸Ń": 7100,
      "å©Ĩ": 7101,
      "ä¸¥æł¼": 7102,
      "åĺ±": 7103,
      "å®¿èĢģ": 7104,
      "åĤ»": 7105,
      "æĤ£çĹħ": 7106,
      "è´§å¸ģ": 7107,
      "åľĭ": 7108,
      "ä¸ĢæĿ¥": 7109,
      "ä¸Ńåħ´": 7110,
      "æĸ¹æ³ķ": 7111,
      "å¯ºåºĻ": 7112,
      "å¦Ħ": 7113,
      "æ²»å®ī": 7114,
      "ç»ıéªĮ": 7115,
      "åĽŀå¤į": 7116,
      "æĹ§ä¸»": 7117,
      "33": 7118,
      "åįĳ": 7119,
      "ä¿¡è´ŀ": 7120,
      "ä¸ĬåįĪ": 7121,
      "ä¹īéī´": 7122,
      "å°ıè§Ħæ¨¡": 7123,
      "å¿łåĲī": 7124,
      "æľªèİ·": 7125,
      "æĢ»é¢Ĩ": 7126,
      "å°¼å´İ": 7127,
      "é¾Ļå¯º": 7128,
      "åĽºå®ļ": 7129,
      "ç²¾åħµ": 7130,
      "è½®åŁİ": 7131,
      "ä¸įçĶ¨": 7132,
      "ä»¥ç¤º": 7133,
      "æĶ¿ç¹ģ": 7134,
      "å¯¹å²¸": 7135,
      "èĩªåı¤": 7136,
      "è¡ĮåĪĹ": 7137,
      "è®°ä½ľ": 7138,
      "åĲĪè®®": 7139,
      "åľŁçĶ°": 7140,
      "é©¬åį°": 7141,
      "çĮľ": 7142,
      "å¼ķè¯±": 7143,
      "æĵ¢": 7144,
      "1529": 7145,
      "å§Ĳå¦¹": 7146,
      "65": 7147,
      "èĢĮæĪĲ": 7148,
      "éĩįæķ´": 7149,
      "å°ıæĿ¾": 7150,
      "åĮĹä¼ĬåĬ¿": 7151,
      "æ¬¡ä¹ĭ": 7152,
      "æīĢå±ŀ": 7153,
      "ä¸¤æĸ¹": 7154,
      "ä¼łæİĪ": 7155,
      "åįĹéĿ¢": 7156,
      "åĵŃ": 7157,
      "éĶĢ": 7158,
      "åĮĸä¸º": 7159,
      "æ£ļ": 7160,
      "å¸ĥæŃ¦": 7161,
      "é¾Łäºķ": 7162,
      "ç¯¡": 7163,
      "èĢĥè¯ģ": 7164,
      "åĩıå°ĳ": 7165,
      "ç¥Īç¥·": 7166,
      "ç½ķè§ģ": 7167,
      "éķ¿èµĸ": 7168,
      "å±±åĨĪ": 7169,
      "æłĥ": 7170,
      "å®ŀä¹ħ": 7171,
      "çļĩæĹı": 7172,
      "å§ĵåĲį": 7173,
      "è®¾ä¹Ĳ": 7174,
      "æ¼Ĥ": 7175,
      "èĮĥç¤¼": 7176,
      "è£ħé¥°": 7177,
      "å§Ķæīĺ": 7178,
      "èĮĥç¤¼å®ī": 7179,
      "800": 7180,
      "æĪĺåĬĽ": 7181,
      "æŃ¤ç±»": 7182,
      "å¿łåħĥ": 7183,
      "é©¬åĽ½": 7184,
      "ä¸Ģä¸ªæľĪ": 7185,
      "èµ¤å·Ŀ": 7186,
      "åŃ¦å®¶": 7187,
      "ä»ģæľ¨": 7188,
      "æ¬¢è¿İ": 7189,
      "åıł": 7190,
      "ä¹ĭä¸»": 7191,
      "ä¿¡æ¾Ħ": 7192,
      "å¿łéĩį": 7193,
      "æ²³åĽ½": 7194,
      "çĽ¸ä¿¡": 7195,
      "1619": 7196,
      "åħ«å·ŀ": 7197,
      "éĢĢèĩ³": 7198,
      "éĻ¢æĶ¿": 7199,
      "åı¤éĩİåŁİ": 7200,
      "æķ´é¡¿": 7201,
      "æ¾³": 7202,
      "å±ıéļľ": 7203,
      "çĸıè¿ľ": 7204,
      "è«": 7205,
      "ä¸Ģåı£": 7206,
      "åĲİä»»": 7207,
      "åĲİæı´": 7208,
      "å¤§æ£®": 7209,
      "èµĸæŃ¦": 7210,
      "å¹ķåĲİ": 7211,
      "ä¿Ŀç§ĳ": 7212,
      "çĭĹ": 7213,
      "æł¹åŁº": 7214,
      "åĳĺæĺĮ": 7215,
      "è¡Ģç»Ł": 7216,
      "æĭĽåĭŁ": 7217,
      "æłĭæ¢ģ": 7218,
      "ä¸ľçħ§å®«": 7219,
      "ä¹ŀ": 7220,
      "å®¶åºŃ": 7221,
      "ä¹ĭå¤Ħ": 7222,
      "ä¹ĭåºĦ": 7223,
      "çº¶": 7224,
      "åĨħçĶ°": 7225,
      "å®Īä¿¡": 7226,
      "ãģĽ": 7227,
      "ä¸ľéĿ¢": 7228,
      "æĥ«": 7229,
      "éĽĩ": 7230,
      "æĹ¥æľ¬æµ·": 7231,
      "å¾¡æĸĻ": 7232,
      "åĭĿ": 7233,
      "èµĲå§ĵ": 7234,
      "è£ķ": 7235,
      "ä»ķå¥ī": 7236,
      "éĢģç»Ļ": 7237,
      "èıľ": 7238,
      "åı¯èĥ½æĢ§": 7239,
      "ç¬¬ä¸īæ¬¡": 7240,
      "åħ¸åŀĭ": 7241,
      "ç¾İä½ľåĽ½": 7242,
      "æłħæłı": 7243,
      "ä¸ĢæŃ»": 7244,
      "åĨĽäºİ": 7245,
      "æīŃ": 7246,
      "è®½": 7247,
      "éĢ®": 7248,
      "æĶ¿ç»ı": 7249,
      "çŃĭ": 7250,
      "åĲĮåĲį": 7251,
      "å§ĳ": 7252,
      "æĪ·æĶ¿": 7253,
      "ç¥ŀçĪ¶": 7254,
      "ç¹ģéķ¿": 7255,
      "çĸ²æĥ«": 7256,
      "åĭīå¼º": 7257,
      "32": 7258,
      "ä¸Ńå®Ī": 7259,
      "æŃ¦æĸŃ": 7260,
      "å°±è¦ģ": 7261,
      "èº«ä½ĵ": 7262,
      "æ²¡æĥ³åĪ°": 7263,
      "èĹ©æĶ¿": 7264,
      "åı²å®ŀ": 7265,
      "å·¦ç¿¼": 7266,
      "å®ĺåĳĺ": 7267,
      "å¼ķåħ¥": 7268,
      "åĩĮæĻ¨": 7269,
      "å¤§åĬ¿": 7270,
      "éķ¿è°·": 7271,
      "ä»¥è¥¿": 7272,
      "æŃ¦å¤©çļĩ": 7273,
      "åĲīåĪ©": 7274,
      "æ¬¡å¥³": 7275,
      "æ¸ĭ": 7276,
      "åĬłåī§": 7277,
      "æĶ¯ä¸¹": 7278,
      "çľŁå£ģ": 7279,
      "è¯¸è¯´": 7280,
      "å¢ŀæĹ¶": 7281,
      "åĨ²åĩ»": 7282,
      "1608": 7283,
      "åĪļåĪļ": 7284,
      "æ²Ļåĭ¿": 7285,
      "åĲ¸å¼ķ": 7286,
      "81": 7287,
      "å¼Ħ": 7288,
      "åĮĨ": 7289,
      "è¿Ļæīį": 7290,
      "ãģŃ": 7291,
      "é«ĺå±ĭ": 7292,
      "ä¹ħçŃī": 7293,
      "è½°": 7294,
      "æĬ¤åŁİ": 7295,
      "é¥±": 7296,
      "è¡°å¼±": 7297,
      "1506": 7298,
      "ç´§å¯Ĩ": 7299,
      "ä¸ĢåįĬ": 7300,
      "æĹ¥èİ²": 7301,
      "ä¹īå®Ī": 7302,
      "äº²å®¶": 7303,
      "çĶŁåŃĺ": 7304,
      "ä¹Łè®¸": 7305,
      "çĿ¹": 7306,
      "èµ·æºĲ": 7307,
      "1622": 7308,
      "æģ¼": 7309,
      "èĪĨ": 7310,
      "çªģåĽ´": 7311,
      "éģĹåŃ¤": 7312,
      "æķĳåĩº": 7313,
      "1525": 7314,
      "éĻĲäºİ": 7315,
      "æļ´åĬ¨": 7316,
      "å¸ĿåĽ½": 7317,
      "å®ĩä½Ĳç¾İ": 7318,
      "æľ¨æ³½éķ¿æĶ¿": 7319,
      "at": 7320,
      "ä»Ĩ": 7321,
      "çĶ°è¾¹": 7322,
      "åŁİåĿĢ": 7323,
      "ä¸Ĭå±±": 7324,
      "ä¸īå¤§": 7325,
      "å¹³åº·": 7326,
      "æŃ»åĽł": 7327,
      "æ²»æĪ¿": 7328,
      "è·µ": 7329,
      "äº¡åĲİ": 7330,
      "éķĩä¹ħ": 7331,
      "å»¶åħĥ": 7332,
      "è¦ĨçģŃ": 7333,
      "å¤§åŀ£åŁİ": 7334,
      "æĪĺæŀľ": 7335,
      "æ²ĵ": 7336,
      "ä¸īåĪĨ": 7337,
      "ãģ©": 7338,
      "èºħ": 7339,
      "å¿ĥèħ¹": 7340,
      "åŁºæ°ı": 7341,
      "åħ±æľī": 7342,
      "å°ļæľī": 7343,
      "ä»ĭéĶĻ": 7344,
      "æĦŁè°¢": 7345,
      "æ½Ł": 7346,
      "è¿Ń": 7347,
      "åŁİåŁİ": 7348,
      "å¾ª": 7349,
      "æľīä¹Ĳ": 7350,
      "æĶ¿äº²": 7351,
      "å¿łéĤ»": 7352,
      "æ¸ħæĻ¨": 7353,
      "æĮģä¹ħ": 7354,
      "è¶³åĪ©æĶ¿çŁ¥": 7355,
      "åħ´å»º": 7356,
      "åı¤å¿Ĺ": 7357,
      "æ·±å¾Ĺ": 7358,
      "æľ«æ£®åŁİ": 7359,
      "å°ĦæĿĢ": 7360,
      "æĭĽèĩ´": 7361,
      "çĬ¹è±«": 7362,
      "æ²³å°»ç§ĢéļĨ": 7363,
      "å¹´çºª": 7364,
      "æī£": 7365,
      "è¯ĳ": 7366,
      "å¤©èįī": 7367,
      "æĻŁ": 7368,
      "å®Ĺä¿¡": 7369,
      "è¿ĽéĢĢ": 7370,
      "åıĳæİĺ": 7371,
      "æ±Łé©¬": 7372,
      "åĽĽåįģ": 7373,
      "åĳ½åħ¶": 7374,
      "è´ºåŁİ": 7375,
      "åį³åı¯": 7376,
      "åħ´èµ·": 7377,
      "è®©åĩº": 7378,
      "çĻ¾å¹´": 7379,
      "åı¤ä»Ĭ": 7380,
      "äºĮåįģäºĮå¹´": 7381,
      "ä¸ļæŃ£": 7382,
      "éĺ³æĪĲ": 7383,
      "æĮĩæĮ¥å®ĺ": 7384,
      "æłĩåĩĨ": 7385,
      "ç´§æİ¥çĿĢ": 7386,
      "43": 7387,
      "90": 7388,
      "å¹´å°ĳ": 7389,
      "åŁİå¢Ļ": 7390,
      "å¤§çĶ°": 7391,
      "å¤§åľ£": 7392,
      "éķ¿çĽĬ": 7393,
      "ä¸ŃæĹ¬": 7394,
      "æİĢ": 7395,
      "åĽĽæĸ¹": 7396,
      "äº¬éĥ½åºľ": 7397,
      "æĴķ": 7398,
      "è®¨è®º": 7399,
      "åħ¼å¤ĩ": 7400,
      "æĺ¾èµ«": 7401,
      "éĩĳéĵ¶": 7402,
      "çĽ®ä»ĺ": 7403,
      "æ±łçĶ°è¾īæĶ¿": 7404,
      "å¤§å¤ļæķ°": 7405,
      "æ½ľä¼ı": 7406,
      "äºĺçĲĨ": 7407,
      "ä¹ĭåŁİ": 7408,
      "ä¸ĭçº§": 7409,
      "æľ¬èĲ¥": 7410,
      "åĴı": 7411,
      "åħ³èģĶ": 7412,
      "æľĿæ¯Ķå¥Ī": 7413,
      "çĶ¨åħµ": 7414,
      "å±ħæ°ĳ": 7415,
      "ç¼Ŀ": 7416,
      "åįĬå¹´": 7417,
      "æĳĦå®¶": 7418,
      "æ¿ĳå·Ŀ": 7419,
      "ä¸įå¾Ĺå·²": 7420,
      "çĥŃçĶ°": 7421,
      "èµŀå²ĲåĽ½": 7422,
      "çĨŁæĤī": 7423,
      "æ¸ĬæºĲ": 7424,
      "ä¸ĢæŁ³": 7425,
      "åĽ½å®ī": 7426,
      "ä¸»æ°´": 7427,
      "åĨħåºľ": 7428,
      "å¿łæłĭ": 7429,
      "å¤ļå°ĳ": 7430,
      "åĪĨéĴŁ": 7431,
      "ç»ıçĶ±": 7432,
      "ä¼łæĴŃ": 7433,
      "æµ·æĪĺ": 7434,
      "åı²ä¹¦": 7435,
      "æİ¨ç¿»": 7436,
      "ä¹Ĳå¸Ĥ": 7437,
      "æ¿ĢåĮĸ": 7438,
      "åģľçķĻ": 7439,
      "å°¤ä¸º": 7440,
      "é¹¤åĨĪ": 7441,
      "1632": 7442,
      "èĻļæŀĦ": 7443,
      "å¤§å´İæ°ı": 7444,
      "æ±īåŁİ": 7445,
      "æ¾³éĹ¨": 7446,
      "æ²Ļåĭ¿çķ¥": 7447,
      "å¤§éĹ¨": 7448,
      "åĽ½ç«ĭ": 7449,
      "ä¸İåĬĽ": 7450,
      "åĪ©æ²»": 7451,
      "çŃīäºİ": 7452,
      "æİŁ": 7453,
      "æ¸Ĺ": 7454,
      "æĢľ": 7455,
      "å¹³è´º": 7456,
      "äºĭå®ľ": 7457,
      "ä¼Ĭå¥Ī": 7458,
      "ä»ĵæĻ¯": 7459,
      "éªĦ": 7460,
      "ç»ĵå©ļ": 7461,
      "æľªæŀľ": 7462,
      "åľºåĲĪ": 7463,
      "195": 7464,
      "åĲĽä¸»": 7465,
      "æĬ¥ä»ĩ": 7466,
      "å¤§éĺªåºľ": 7467,
      "åĶ¯æľī": 7468,
      "æĹłè®ºå¦Ĥä½ķ": 7469,
      "41": 7470,
      "87": 7471,
      "åĲİç§°": 7472,
      "éķ¿åº·": 7473,
      "ä¹īæķı": 7474,
      "åĪ©æł¹": 7475,
      "åİŁè´ŀ": 7476,
      "å®ĹçŁ©": 7477,
      "åĲĳä¸Ĭ": 7478,
      "åħŃæĿ¡": 7479,
      "æĻ´æľĿ": 7480,
      "åº¦è¿ĩ": 7481,
      "æĺ¾å®¶": 7482,
      "éĢģæĿ¥": 7483,
      "ç§ģä¸ĭ": 7484,
      "æĶ»åŁİæĪĺ": 7485,
      "å¨ĺå®¶": 7486,
      "å¤§æī¹": 7487,
      "å¯¹å¾ħ": 7488,
      "è¿ĽéĢ¼": 7489,
      "æľĿå®ļ": 7490,
      "æĪ·å·Ŀ": 7491,
      "çĤĬ": 7492,
      "æĪĸæĺ¯": 7493,
      "çªĹ": 7494,
      "éĢĥåħ¥": 7495,
      "å²©ä»ĵ": 7496,
      "åĩĨè®¸": 7497,
      "å³¡": 7498,
      "æķ´åĲĪ": 7499,
      "è¯ģå®ŀ": 7500,
      "è®³åĲį": 7501,
      "èĨĿ": 7502,
      "èŃ¦å¤ĩ": 7503,
      "ä¸ĢæıĲ": 7504,
      "ä¸Ģæī¹": 7505,
      "èĩĤ": 7506,
      "ä¸Ĭéĺµ": 7507,
      "æĶ¿ä»¤": 7508,
      "åĲįåŁİ": 7509,
      "çĦ¶åĽł": 7510,
      "åºĨéļĨ": 7511,
      "ç¥ŀå¥Ī": 7512,
      "ãĤĩ": 7513,
      "éĩĮéĿ¢": 7514,
      "ç¦»åİ»": 7515,
      "éº¦": 7516,
      "è°ĭåĪĴ": 7517,
      "æĴ°åĨĻ": 7518,
      "åłĢå°¾åĲīæĻ´": 7519,
      "èĥ¸": 7520,
      "åħ¶å¦»": 7521,
      "ä¸»æµģ": 7522,
      "ä»İä¸Ń": 7523,
      "åıįä¿¡éķ¿": 7524,
      "åħ´è¶£": 7525,
      "åĬŁèĥ½": 7526,
      "æĪĳæĸ¹": 7527,
      "å´İé¦Ĩ": 7528,
      "å¤´çĽĶ": 7529,
      "ç¢Ĺ": 7530,
      "ç¥ŀå¥Īå·Ŀ": 7531,
      "é§": 7532,
      "æĿľ": 7533,
      "æĪĺéĺµ": 7534,
      "éĢ¾": 7535,
      "åīįåĵ¨": 7536,
      "é¢Ĩè¢ĸ": 7537,
      "æ±Łåı£": 7538,
      "è´ºæŃ£èĥľ": 7539,
      "æ¨ĭ": 7540,
      "éĩĳå´İ": 7541,
      "å¤įåİŁ": 7542,
      "è¯¥ä¹¦": 7543,
      "åĩłå¹´": 7544,
      "æ²¼å®ļ": 7545,
      "æ©ĺ": 7546,
      "éĢ®æįķ": 7547,
      "48": 7548,
      "é¨": 7549,
      "æ°ıè§Ħ": 7550,
      "ä¿¡å®ī": 7551,
      "æŃ£çĽ´": 7552,
      "å®īä¸Ń": 7553,
      "æĺİçŁ¥": 7554,
      "åĲĪæµģ": 7555,
      "ç¥ŀåĻ¨": 7556,
      "æľªè§ģ": 7557,
      "120": 7558,
      "è·¯æĺĵ": 7559,
      "åħ³ç³»æģ¶åĮĸ": 7560,
      "æĢģåĬ¿": 7561,
      "æīĢåľ¨åľ°": 7562,
      "ä¼´éļı": 7563,
      "æĬ¤åŁİæ²³": 7564,
      "ä¿¡æĥł": 7565,
      "åŃķ": 7566,
      "æĶ¿åº·": 7567,
      "åī¿": 7568,
      "éĩįéķ¿": 7569,
      "æ²³æµģ": 7570,
      "èĹ¤çĶ°": 7571,
      "èº«åĪĨ": 7572,
      "åĨįä¹Ł": 7573,
      "æµģè¨Ģ": 7574,
      "çĭł": 7575,
      "è·¯ä¸Ĭ": 7576,
      "éī´éĢŁ": 7577,
      "åºŃåĽŃ": 7578,
      "è´¹çĶ¨": 7579,
      "åĴĮæŃĮå±±": 7580,
      "ä½¯": 7581,
      "1517": 7582,
      "ä¸ĭé©¬": 7583,
      "å½ĵä»£": 7584,
      "å¿łè¾ī": 7585,
      "ç»§åĹ£": 7586,
      "äºĶäºº": 7587,
      "å¼Ģå±±": 7588,
      "è¿ĳèĹ¤": 7589,
      "éĢļè¡Į": 7590,
      "éĢļéģĵ": 7591,
      "è¶ĬåŁİ": 7592,
      "æĮģæľī": 7593,
      "ä¼łä¸º": 7594,
      "çŃĳèµ·": 7595,
      "æķ°æĹ¥": 7596,
      "è¶³åĪ©ä¹īæĺİ": 7597,
      "åĮºåĪĨ": 7598,
      "çģ«èį¯": 7599,
      "é¥¿": 7600,
      "åĶ®": 7601,
      "æ¨ªæ¿ĳ": 7602,
      "ä¾ĭåŃĲ": 7603,
      "åĬĿéĺ»": 7604,
      "çĦļçĥ§": 7605,
      "çĶ°æĿĳæ°ı": 7606,
      "èĵĿ": 7607,
      "å°¸ä½ĵ": 7608,
      "ä¸Ľ": 7609,
      "ä¸įå¥½": 7610,
      "åĴĮçº¦": 7611,
      "åĨħå¤ĸ": 7612,
      "å¿łå¿ĥ": 7613,
      "è¿Ľäº¬": 7614,
      "éĽĢ": 7615,
      "åĲĪåĬĽ": 7616,
      "åºĶåħģ": 7617,
      "ä¸ĥåįģ": 7618,
      "æ¯Ķå¦Ĥ": 7619,
      "ä¸¥åİī": 7620,
      "æĲı": 7621,
      "æĭľè°Ĵ": 7622,
      "1504": 7623,
      "ä¸īçĻ¾ä½Ļ": 7624,
      "1336": 7625,
      "ç¥ĪæĦ¿": 7626,
      "èĵĦ": 7627,
      "as": 7628,
      "å¤§æŃ£": 7629,
      "ä¿¡æ¸ħ": 7630,
      "åĽ½æ³ķ": 7631,
      "æŃ£éĩį": 7632,
      "é«ĺå²Ľ": 7633,
      "å®Ĺæ´¾": 7634,
      "åıĳè¡Į": 7635,
      "åĲĳå¯¼": 7636,
      "åĽĽä¸ª": 7637,
      "æĹłä¸į": 7638,
      "æĿĥåĪ©": 7639,
      "éªĹ": 7640,
      "åı³ç¿¼": 7641,
      "åŃ¦æł¡": 7642,
      "åŀ¦": 7643,
      "éĺ¶çº§": 7644,
      "æ²¿çĶ¨": 7645,
      "æľ¬å¤ļå¿ł": 7646,
      "ç´§æĢ¥": 7647,
      "ç§įåŃĲå²Ľ": 7648,
      "ak": 7649,
      "æ«": 7650,
      "1518": 7651,
      "ä¸īæ¬¡": 7652,
      "çº¬": 7653,
      "æĭ¨": 7654,
      "è½¶": 7655,
      "å±ħæīĢ": 7656,
      "æĶ¯æŁ±": 7657,
      "åħĪä¾ĭ": 7658,
      "è¨ĺ": 7659,
      "äºĮåįģä¸ĩ": 7660,
      "æĬĹè¡¡": 7661,
      "æĢ§è´¨": 7662,
      "èĤ¥åīįåĽ½": 7663,
      "æ¿ĢæĢĴ": 7664,
      "åį°åº¦": 7665,
      "éĶĻè¯¯": 7666,
      "è¿ĿèĥĮ": 7667,
      "èĭĹæľ¨": 7668,
      "éĸĢ": 7669,
      "æĳĨèĦ±": 7670,
      "åįĵè¶Ĭ": 7671,
      "è·¯æĺĵæĸ¯": 7672,
      "600": 7673,
      "ç»ĳ": 7674,
      "ä¿¡åĮħ": 7675,
      "å¯Ĥ": 7676,
      "1512": 7677,
      "å½ĵå¤ľ": 7678,
      "å¹ķæĶ¿": 7679,
      "éĥ¡ä»£": 7680,
      "æ°´åŁİ": 7681,
      "èĢģä¸Ń": 7682,
      "å°ģèµı": 7683,
      "èĳµ": 7684,
      "æµħåĪ©": 7685,
      "æ³½åŁİ": 7686,
      "å¤ľæĪĺ": 7687,
      "èħ¾": 7688,
      "è§Ĥå¯Ł": 7689,
      "èĮĥæ»¡": 7690,
      "ä»Ĭå·Ŀæ°ıäº²": 7691,
      "ç¦ħå®Ĺ": 7692,
      "åģ·è¢Ń": 7693,
      "æĹ¥äºİ": 7694,
      "ä¹īåº·": 7695,
      "ä¸įè§ģ": 7696,
      "è°ķ": 7697,
      "åĿ¡": 7698,
      "ä¸ĥå²ģ": 7699,
      "æºª": 7700,
      "è¯¥å¯º": 7701,
      "è¿½æº¯": 7702,
      "å°½åĬĽ": 7703,
      "å¤©ä¸ĭå¸ĥæŃ¦": 7704,
      "ä¼°è®¡": 7705,
      "å®¶éĹ¨": 7706,
      "è¯Ī": 7707,
      "æĭĵ": 7708,
      "çķĶ": 7709,
      "è¿Ľåħµ": 7710,
      "äºĶæĿ¡": 7711,
      "éĿ¢ç§¯": 7712,
      "çİ°è±¡": 7713,
      "æĢ»è®¡": 7714,
      "é¥¶": 7715,
      "éĢģåħ¥": 7716,
      "æ²¿çĿĢ": 7717,
      "å±¡ç«ĭ": 7718,
      "è¶ħè¶Ĭ": 7719,
      "æī¬åĮĹä¼Ĺ": 7720,
      "ç½¢äºĨ": 7721,
      "æŁ¿å´İæĻ¯å®¶": 7722,
      "ä¸Ģéģĵ": 7723,
      "åİĺ": 7724,
      "ä¹īä½ĳ": 7725,
      "æĶ¿åĴĮ": 7726,
      "åĪ©èĥľ": 7727,
      "æĻĥ": 7728,
      "å¹³æ¬¡": 7729,
      "éģĵéĽª": 7730,
      "èº«çĿĢ": 7731,
      "ä¸¤åº¦": 7732,
      "åºĶä¸º": 7733,
      "å´ĸ": 7734,
      "èĹıåħ¥": 7735,
      "åĪ«ç§°": 7736,
      "æĤł": 7737,
      "æŀģåĬĽ": 7738,
      "å®ªæĪ¿": 7739,
      "ä¸ĵéĹ¨": 7740,
      "ä¼Ĭè´ºåĽ½": 7741,
      "è¸¯": 7742,
      "æĹŃ": 7743,
      "ä¹ĭå£«": 7744,
      "ä¹īæĿĳ": 7745,
      "ä¸įè®º": 7746,
      "åĪ©ä¸ī": 7747,
      "åĲīåĨĪ": 7748,
      "è¦ģå¡ŀ": 7749,
      "ä¹ĿæĪ·": 7750,
      "åıĸåŁİ": 7751,
      "æµģæ´¾": 7752,
      "èĻ½ä¸º": 7753,
      "æĶ¶éĽĨ": 7754,
      "å²©ä»ĺ": 7755,
      "å°½å¿ł": 7756,
      "å³¶": 7757,
      "å¼ĥåŁİ": 7758,
      "ä½Ĳä½ĲæĪĲ": 7759,
      "å½¼æŃ¤": 7760,
      "éĵ¸éĢł": 7761,
      "ä¸ĺéĻµ": 7762,
      "è°¨æħİ": 7763,
      "è¿Ī": 7764,
      "ä¿¡æģ¯": 7765,
      "æī¼": 7766,
      "ä¸ĭå±±": 7767,
      "å¤©çĽ®": 7768,
      "æİ¾": 7769,
      "é«ĺçĻ½": 7770,
      "æ²»æī¿": 7771,
      "éĢļçŁ¥": 7772,
      "å¤ĸç¥ĸçĪ¶": 7773,
      "éļĨå®¶": 7774,
      "æµ·éģĵ": 7775,
      "è´ŀæĻ¯": 7776,
      "è§Ĩä½ľ": 7777,
      "ç¤ºä¼Ĺ": 7778,
      "æ£®åħ°ä¸¸": 7779,
      "æŃ¥åħµ": 7780,
      "ä¹ĺèĪ¹": 7781,
      "æĿĤåħµ": 7782,
      "èįĴå·Ŀ": 7783,
      "å£ģçĶ»": 7784,
      "ä¸Ģåıª": 7785,
      "ä¸Ńä»¥": 7786,
      "1511": 7787,
      "äº²æīĭ": 7788,
      "å®īæĬļ": 7789,
      "æįī": 7790,
      "åľŁäºķ": 7791,
      "åħŃä¸ĩ": 7792,
      "çĶ¨ä½ľ": 7793,
      "ç»Īç©¶": 7794,
      "å¥īçº³": 7795,
      "æķ°æ¬¡": 7796,
      "é»ľ": 7797,
      "è¡¨æ¼Ķ": 7798,
      "å½¢åŁİ": 7799,
      "è§īä¹¦": 7800,
      "æŃĮä¼ļ": 7801,
      "åįģåħŃå²ģ": 7802,
      "çīµè¿ŀ": 7803,
      "88": 7804,
      "åĩĿ": 7805,
      "éĥĳ": 7806,
      "æŃ£åĢ¼": 7807,
      "è¡Ķ": 7808,
      "éĩįèĥľ": 7809,
      "æĭ¦": 7810,
      "çĿ¿": 7811,
      "å¤ļäºº": 7812,
      "å¤ļè´º": 7813,
      "æĿ¾åİŁ": 7814,
      "åħ«åįģ": 7815,
      "æĸ°æĶ¿": 7816,
      "ç»Łå¹¸": 7817,
      "åħĪéĺµ": 7818,
      "åģ¿": 7819,
      "æĶ¹çĶ±": 7820,
      "å½Ĵäºİ": 7821,
      "å¸ĥæĸ½": 7822,
      "éĻ¤æŃ¤": 7823,
      "è¿½åħµ": 7824,
      "éĴī": 7825,
      "è¿Ķè¿ĺ": 7826,
      "åĨĽäºĭåĬĽéĩı": 7827,
      "åĥ§åħµ": 7828,
      "æºĥæķ£": 7829,
      "çľŁéĩĮè°·": 7830,
      "ä¸ºå¦»": 7831,
      "ä¿©": 7832,
      "ä¸ĢèĦī": 7833,
      "ä¹ĭè®¡": 7834,
      "ä¿¡è´¤": 7835,
      "ä¸īéĿ¢": 7836,
      "åŃĲå¼Ł": 7837,
      "ä»£ä¹ĭ": 7838,
      "æĪĲèµĸ": 7839,
      "åīįä¹ħ": 7840,
      "æĸ¹ä¾¿": 7841,
      "å°ıè¢ĸ": 7842,
      "æĶ»ä¼Ĳ": 7843,
      "ãģĴ": 7844,
      "åĪĨæŀĲ": 7845,
      "1617": 7846,
      "æī¿èĬ³": 7847,
      "ç»Łè¾ĸ": 7848,
      "ä»¤åħ¶": 7849,
      "çĮĿ": 7850,
      "è¶³åĪ©ä¹īæĮģ": 7851,
      "å½¢æĢģ": 7852,
      "æĴ¤ç¦»": 7853,
      "è¿Ĳä½ľ": 7854,
      "æ²¼æ°ı": 7855,
      "æħ¢æħ¢": 7856,
      "77": 7857,
      "ä¸Ģä»½": 7858,
      "å¤§çģ«": 7859,
      "ä¿¡éĩį": 7860,
      "æĹ¥åŃĲ": 7861,
      "æŃ£å¦Ĥ": 7862,
      "è¡į": 7863,
      "åĨħä¼Ĺ": 7864,
      "éĩįå¿ł": 7865,
      "å¿łèĩ£": 7866,
      "ä¸ľäº¬éĥ½": 7867,
      "éĹ¨ä¸ĭ": 7868,
      "è¥¿è¿Ľ": 7869,
      "åıįåºĶ": 7870,
      "æµ·å¤ĸ": 7871,
      "æıĲé«ĺ": 7872,
      "æ¿ł": 7873,
      "åıĽåĨĽ": 7874,
      "å£°ç§°": 7875,
      "1487": 7876,
      "æĤ¬æ®Ĭ": 7877,
      "åĽłå¹¡åĽ½": 7878,
      "ä¿µ": 7879,
      "ä¿¡æĪĲ": 7880,
      "æĪĲäºº": 7881,
      "è§Ĳ": 7882,
      "å°ıæĹ¶": 7883,
      "æĿ¥å²Ľ": 7884,
      "æĭį": 7885,
      "å¼Ģè®¾": 7886,
      "äº¦æľī": 7887,
      "æľ¨æĿĲ": 7888,
      "ç³Ĭ": 7889,
      "å®ĺèĩ³": 7890,
      "éĢĥè·ĳ": 7891,
      "èĹıäºº": 7892,
      "è§Ĵåº¦": 7893,
      "æĻºåĭĩ": 7894,
      "åįłæľī": 7895,
      "å³»": 7896,
      "ç§»åĬ¨": 7897,
      "çĽĲåĨ¶": 7898,
      "è¯łä¹ħ": 7899,
      "æįķèİ·": 7900,
      "èĶµ": 7901,
      "å·¦äº¬äº®": 7902,
      "éķ¿çŃ±åŁİ": 7903,
      "è¸¯èºħ": 7904,
      "ä¸ĢåĪĢ": 7905,
      "å±Ĭ": 7906,
      "çĽĪ": 7907,
      "æĶ¿å¼ĺ": 7908,
      "æµ´": 7909,
      "å½ĵåį³": 7910,
      "åĽŀåİ»": 7911,
      "éĢłåıį": 7912,
      "ãĥ³": 7913,
      "ç²ķ": 7914,
      "è¿½ç©¶": 7915,
      "è´¤ç§Ģ": 7916,
      "åĺ²": 7917,
      "å°Ŀè¯ķ": 7918,
      "èĤĸåĥı": 7919,
      "63": 7920,
      "åĲİéĿ¢": 7921,
      "å±±è·¯": 7922,
      "æľ¬åºĶ": 7923,
      "è¢«ä¿ĺ": 7924,
      "çŁ£": 7925,
      "è°ľ": 7926,
      "æĿ¥æºĲ": 7927,
      "é«ĺæĹ¶": 7928,
      "æ²³ä¸ľ": 7929,
      "ä¸°ä¹ħ": 7930,
      "éļıçĪ¶": 7931,
      "çĶ¨æĿ¥": 7932,
      "åıĹä¼¤": 7933,
      "å¹¿æ¿ĳ": 7934,
      "è°·åı£": 7935,
      "åĲĦæĸ¹": 7936,
      "å½ĴéĻį": 7937,
      "æł¹éĩİ": 7938,
      "æ·±è°·": 7939,
      "èµ¤äºķ": 7940,
      "å¤«å¦»": 7941,
      "æĶ¯æĮģèĢħ": 7942,
      "æľĿé²ľåįĬå²Ľ": 7943,
      "å¡©": 7944,
      "éĢŁåº¦": 7945,
      "ç¬¬äºĮå¤©": 7946,
      "è¿ģç§»": 7947,
      "1522": 7948,
      "ç»ĺçĶ»": 7949,
      "èªĵä¹¦": 7950,
      "è®Ńç»ĥ": 7951,
      "ä¼ĬåĬ¿è´ŀäº²": 7952,
      "æĹłäºĭä»¤": 7953,
      "62": 7954,
      "å¤§æīĭ": 7955,
      "åĽ½çº²": 7956,
      "æĹ¶å¸¸": 7957,
      "ä¹īå®£": 7958,
      "åĩºéĢĥ": 7959,
      "å¤©åı°": 7960,
      "éĹª": 7961,
      "åĮĹçĶ°": 7962,
      "å®ĹæĹ¶": 7963,
      "è¥¿éĿ¢": 7964,
      "1624": 7965,
      "åĬ¨ä½ľ": 7966,
      "çļĩä½į": 7967,
      "è´ŀéļĨ": 7968,
      "è¿ľå·ŀ": 7969,
      "ç¼ł": 7970,
      "æ¢µ": 7971,
      "è°ĥçķ¥": 7972,
      "è¸ŀ": 7973,
      "çİ¯å¢ĥ": 7974,
      "æĨ¾": 7975,
      "çł¥çŁ³": 7976,
      "ä¸ĭèĲ½": 7977,
      "æľ¬å·ŀ": 7978,
      "æ±°": 7979,
      "åİŁå¸Ĥ": 7980,
      "åħ¥éģĵ": 7981,
      "ç§°éľ¸": 7982,
      "çİ°å®ŀ": 7983,
      "éĢĢè·¯": 7984,
      "åĮºåĪ«": 7985,
      "å²©æĿ¾": 7986,
      "æ¨ªæŃ»": 7987,
      "æ¸¸åĩ»": 7988,
      "è¡¥åħħ": 7989,
      "ä¸īåįĥä½Ļ": 7990,
      "è£ģåĨ³": 7991,
      "çİ¯ç»ķ": 7992,
      "èł¢": 7993,
      "é¡½å¼ºæĬµæĬĹ": 7994,
      "é«ĺçĻ½æĸĭ": 7995,
      "åħĥç§į": 7996,
      "äº²è´ŀ": 7997,
      "éĩİæĪĺ": 7998,
      "å¿łçº²": 7999
    },
    "merges": [
      [
        "ï",
        "¼"
      ],
      [
        "ä",
        "¸"
      ],
      [
        "ï¼",
        "Į"
      ],
      [
        "ã",
        "Ģ"
      ],
      [
        "ä",
        "º"
      ],
      [
        "ç",
        "ļ"
      ],
      [
        "çļ",
        "Ħ"
      ],
      [
        "å",
        "®"
      ],
      [
        "ãĢ",
        "Ĥ"
      ],
      [
        "å",
        "ħ"
      ],
      [
        "å",
        "Ĳ"
      ],
      [
        "ä",
        "¹"
      ],
      [
        "ä",
        "»"
      ],
      [
        "å",
        "¹"
      ],
      [
        "æ",
        "ľ"
      ],
      [
        "å",
        "¤"
      ],
      [
        "å",
        "ı"
      ],
      [
        "ç",
        "Ķ"
      ],
      [
        "æ",
        "Ĺ"
      ],
      [
        "å¹",
        "´"
      ],
      [
        "æ",
        "Ī"
      ],
      [
        "å",
        "ľ"
      ],
      [
        "æ",
        "Ń"
      ],
      [
        "å",
        "Ľ"
      ],
      [
        "å",
        "°"
      ],
      [
        "å",
        "Ī"
      ],
      [
        "å",
        "Ĩ"
      ],
      [
        "è",
        "¿"
      ],
      [
        "ç",
        "»"
      ],
      [
        "æ",
        "Ŀ"
      ],
      [
        "å®",
        "¶"
      ],
      [
        "æ",
        "°"
      ],
      [
        "æ",
        "ĺ"
      ],
      [
        "ä",
        "½"
      ],
      [
        "å",
        "į"
      ],
      [
        "ä¸",
        "º"
      ],
      [
        "ï¼",
        "Ī"
      ],
      [
        "ï¼",
        "ī"
      ],
      [
        "å",
        "Ĭ"
      ],
      [
        "â",
        "Ģ"
      ],
      [
        "æ",
        "Ķ"
      ],
      [
        "ä",
        "¿"
      ],
      [
        "ãĢ",
        "ģ"
      ],
      [
        "å",
        "Ł"
      ],
      [
        "å",
        "·"
      ],
      [
        "æ",
        "ĸ"
      ],
      [
        "ä¸",
        "Ģ"
      ],
      [
        "ä¹",
        "ĭ"
      ],
      [
        "é",
        "ķ"
      ],
      [
        "è",
        "ĩ"
      ],
      [
        "å",
        "º"
      ],
      [
        "åľ",
        "¨"
      ],
      [
        "çĶ",
        "°"
      ],
      [
        "å",
        "±"
      ],
      [
        "åŁ",
        "İ"
      ],
      [
        "åĲ",
        "İ"
      ],
      [
        "å¤",
        "§"
      ],
      [
        "æ°",
        "ı"
      ],
      [
        "ç",
        "§"
      ],
      [
        "éķ",
        "¿"
      ],
      [
        "å",
        "¾"
      ],
      [
        "ä",
        "¼"
      ],
      [
        "ä¿",
        "¡"
      ],
      [
        "å",
        "¯"
      ],
      [
        "æĪ",
        "ĺ"
      ],
      [
        "å",
        "ĩ"
      ],
      [
        "å",
        "Ń"
      ],
      [
        "é",
        "ĩ"
      ],
      [
        "åĨ",
        "Ľ"
      ],
      [
        "åĽ",
        "½"
      ],
      [
        "æĺ",
        "¯"
      ],
      [
        "æ",
        "ī"
      ],
      [
        "å",
        "¼"
      ],
      [
        "é",
        "ĥ"
      ],
      [
        "æĹ",
        "¶"
      ],
      [
        "è",
        "¯"
      ],
      [
        "äº",
        "Ĩ"
      ],
      [
        "è",
        "®"
      ],
      [
        "ä¸",
        "İ"
      ],
      [
        "ç",
        "Ľ"
      ],
      [
        "è",
        "Ģ"
      ],
      [
        "å",
        "İ"
      ],
      [
        "æĹ",
        "¥"
      ],
      [
        "ä¸",
        "Ń"
      ],
      [
        "äº",
        "İ"
      ],
      [
        "è",
        "µ"
      ],
      [
        "é",
        "Ģ"
      ],
      [
        "ä¸",
        "Ĭ"
      ],
      [
        "äº",
        "º"
      ],
      [
        "è",
        "´"
      ],
      [
        "å·",
        "Ŀ"
      ],
      [
        "å±",
        "±"
      ],
      [
        "æľ",
        "Ī"
      ],
      [
        "æ",
        "²"
      ],
      [
        "ä¹",
        "ī"
      ],
      [
        "1",
        "5"
      ],
      [
        "ä¸",
        "ī"
      ],
      [
        "å",
        "½"
      ],
      [
        "è",
        "ĥ"
      ],
      [
        "ä¸",
        "į"
      ],
      [
        "å°",
        "Ĩ"
      ],
      [
        "é",
        "ĺ"
      ],
      [
        "åŃ",
        "Ĳ"
      ],
      [
        "ä»",
        "¥"
      ],
      [
        "å",
        "¿"
      ],
      [
        "ç§",
        "Ģ"
      ],
      [
        "å",
        "Į"
      ],
      [
        "åĩ",
        "º"
      ],
      [
        "æľ",
        "ī"
      ],
      [
        "å",
        "¥"
      ],
      [
        "è",
        "¢"
      ],
      [
        "æŃ",
        "£"
      ],
      [
        "âĢ",
        "ľ"
      ],
      [
        "âĢ",
        "Ŀ"
      ],
      [
        "æŃ",
        "¦"
      ],
      [
        "åħ",
        "ĥ"
      ],
      [
        "ä¸",
        "ĭ"
      ],
      [
        "æĶ",
        "¿"
      ],
      [
        "åĲ",
        "į"
      ],
      [
        "ä»",
        "£"
      ],
      [
        "é",
        "Ļ"
      ],
      [
        "å¤",
        "©"
      ],
      [
        "é",
        "ģ"
      ],
      [
        "æ",
        "Ĭ"
      ],
      [
        "ç",
        "Ń"
      ],
      [
        "å",
        "ī"
      ],
      [
        "æĪ",
        "Ĳ"
      ],
      [
        "é",
        "Ĺ"
      ],
      [
        "æľ",
        "¬"
      ],
      [
        "æ",
        "µ"
      ],
      [
        "è",
        "§"
      ],
      [
        "å",
        "²"
      ],
      [
        "åľ",
        "°"
      ],
      [
        "èĢ",
        "Į"
      ],
      [
        "æ",
        "ķ"
      ],
      [
        "æŃ",
        "¤"
      ],
      [
        "åħ",
        "¶"
      ],
      [
        "é",
        "¢"
      ],
      [
        "åĪ",
        "©"
      ],
      [
        "æ",
        "´"
      ],
      [
        "è¢",
        "«"
      ],
      [
        "æ",
        "Ļ"
      ],
      [
        "å",
        "Ĵ"
      ],
      [
        "è",
        "¡"
      ],
      [
        "å",
        "¸"
      ],
      [
        "èĩ",
        "£"
      ],
      [
        "åĴ",
        "Į"
      ],
      [
        "ç",
        "İ"
      ],
      [
        "é",
        "ļ"
      ],
      [
        "ç",
        "º"
      ],
      [
        "è",
        "¾"
      ],
      [
        "åį",
        "ģ"
      ],
      [
        "ç",
        "Ł"
      ],
      [
        "åī",
        "į"
      ],
      [
        "æ",
        "³"
      ],
      [
        "åĲ",
        "ī"
      ],
      [
        "ä¸",
        "»"
      ],
      [
        "è",
        "¶"
      ],
      [
        "æĸ",
        "¹"
      ],
      [
        "ç",
        "«"
      ],
      [
        "æ",
        "±"
      ],
      [
        "ä",
        "¾"
      ],
      [
        "åĨ",
        "ħ"
      ],
      [
        "é¢",
        "Ĩ"
      ],
      [
        "è",
        "°"
      ],
      [
        "åĲ",
        "Į"
      ],
      [
        "è",
        "Ĺ"
      ],
      [
        "å¯",
        "¹"
      ],
      [
        "å®",
        "Ī"
      ],
      [
        "ä»",
        "ĸ"
      ],
      [
        "èĩ",
        "ª"
      ],
      [
        "å¹",
        "¶"
      ],
      [
        "æ",
        "¬"
      ],
      [
        "æ",
        "¯"
      ],
      [
        "æ",
        "Į"
      ],
      [
        "å",
        "ĳ"
      ],
      [
        "éĩ",
        "į"
      ],
      [
        "åİ",
        "Ł"
      ],
      [
        "åĽ",
        "ł"
      ],
      [
        "è¿",
        "Ļ"
      ],
      [
        "å°",
        "ı"
      ],
      [
        "æĿ",
        "¥"
      ],
      [
        "åĪ",
        "°"
      ],
      [
        "åº",
        "·"
      ],
      [
        "ç",
        "¦"
      ],
      [
        "åħ",
        "µ"
      ],
      [
        "æĶ",
        "»"
      ],
      [
        "åĮ",
        "Ĺ"
      ],
      [
        "ã",
        "ģ"
      ],
      [
        "çŃ",
        "ī"
      ],
      [
        "äº",
        "²"
      ],
      [
        "æ",
        "ĭ"
      ],
      [
        "åĬ",
        "Ľ"
      ],
      [
        "å¯",
        "º"
      ],
      [
        "æ",
        "İ"
      ],
      [
        "çĶ",
        "Ł"
      ],
      [
        "äº",
        "Į"
      ],
      [
        "é",
        "«"
      ],
      [
        "æ¬",
        "¡"
      ],
      [
        "é«",
        "ĺ"
      ],
      [
        "æ",
        "¸"
      ],
      [
        "å®",
        "Ĺ"
      ],
      [
        "ç",
        "Ī"
      ],
      [
        "è¡",
        "Į"
      ],
      [
        "ä½",
        "ľ"
      ],
      [
        "éĥ",
        "¨"
      ],
      [
        "ä¹",
        "Ł"
      ],
      [
        "é",
        "Ŀ"
      ],
      [
        "éĩ",
        "İ"
      ],
      [
        "ç»",
        "ĩ"
      ],
      [
        "å½",
        "ĵ"
      ],
      [
        "ç",
        "ķ"
      ],
      [
        "åħ",
        "¥"
      ],
      [
        "èĥ",
        "ľ"
      ],
      [
        "æ",
        "Ģ"
      ],
      [
        "ä½",
        "Ĩ"
      ],
      [
        "æĸ",
        "ĩ"
      ],
      [
        "åħ",
        "³"
      ],
      [
        "ç",
        "Ŀ"
      ],
      [
        "æī",
        "Ģ"
      ],
      [
        "ç",
        "Ħ"
      ],
      [
        "è",
        "¦"
      ],
      [
        "å¿",
        "ł"
      ],
      [
        "ä¹",
        "ħ"
      ],
      [
        "è¿",
        "Ľ"
      ],
      [
        "æ",
        "ł"
      ],
      [
        "ä»",
        "»"
      ],
      [
        "å¹",
        "³"
      ],
      [
        "ç»ĩ",
        "çĶ°"
      ],
      [
        "åı",
        "ĳ"
      ],
      [
        "å",
        "¦"
      ],
      [
        "æĿ",
        "¡"
      ],
      [
        "å°",
        "±"
      ],
      [
        "è¦",
        "ģ"
      ],
      [
        "ç«",
        "ĭ"
      ],
      [
        "çŁ",
        "³"
      ],
      [
        "åĲ",
        "ĳ"
      ],
      [
        "ä¸",
        "ľ"
      ],
      [
        "å®",
        "ļ"
      ],
      [
        "çĦ",
        "¶"
      ],
      [
        "æ",
        "ı"
      ],
      [
        "èĩ",
        "³"
      ],
      [
        "æľ",
        "Ŀ"
      ],
      [
        "å¾",
        "·"
      ],
      [
        "æ",
        "ŀ"
      ],
      [
        "å²",
        "Ľ"
      ],
      [
        "å",
        "§"
      ],
      [
        "çĶ",
        "±"
      ],
      [
        "å®",
        "ī"
      ],
      [
        "åĬ",
        "¿"
      ],
      [
        "ç»",
        "§"
      ],
      [
        "å¾",
        "Ĺ"
      ],
      [
        "ç§Ģ",
        "åĲī"
      ],
      [
        "äº",
        "ĭ"
      ],
      [
        "çĽ",
        "´"
      ],
      [
        "å¤",
        "ļ"
      ],
      [
        "æ°",
        "¸"
      ],
      [
        "ç",
        "¥"
      ],
      [
        "è",
        "½"
      ],
      [
        "æŃ¦",
        "çĶ°"
      ],
      [
        "ä¿¡",
        "éķ¿"
      ],
      [
        "ä¼",
        "Ĭ"
      ],
      [
        "ç",
        "¬"
      ],
      [
        "æĹ¶",
        "ä»£"
      ],
      [
        "æĺ",
        "İ"
      ],
      [
        "æ",
        "ĥ"
      ],
      [
        "ç",
        "ī"
      ],
      [
        "éĥ",
        "½"
      ],
      [
        "ï¼",
        "ļ"
      ],
      [
        "æ",
        "Ħ"
      ],
      [
        "è¯",
        "´"
      ],
      [
        "é",
        "©"
      ],
      [
        "æŃ",
        "»"
      ],
      [
        "æĻ",
        "¯"
      ],
      [
        "æ²",
        "³"
      ],
      [
        "æĿ",
        "¾"
      ],
      [
        "ä¸",
        "°"
      ],
      [
        "è",
        "Ļ"
      ],
      [
        "ç§",
        "°"
      ],
      [
        "èĥ",
        "½"
      ],
      [
        "ä½",
        "į"
      ],
      [
        "æ",
        "Ľ"
      ],
      [
        "çĪ",
        "¶"
      ],
      [
        "ç",
        "¾"
      ],
      [
        "éģ",
        "ĵ"
      ],
      [
        "å",
        "Ŀ"
      ],
      [
        "ãĢ",
        "ĭ"
      ],
      [
        "ãĢ",
        "Ĭ"
      ],
      [
        "æ±",
        "Ł"
      ],
      [
        "å®",
        "ŀ"
      ],
      [
        "æ",
        "į"
      ],
      [
        "äº",
        "Ķ"
      ],
      [
        "ä»",
        "İ"
      ],
      [
        "å",
        "»"
      ],
      [
        "æ²",
        "»"
      ],
      [
        "åº",
        "ľ"
      ],
      [
        "åĩ",
        "»"
      ],
      [
        "åĽ",
        "Ľ"
      ],
      [
        "åı",
        "¯"
      ],
      [
        "å®¶",
        "åº·"
      ],
      [
        "éĹ",
        "´"
      ],
      [
        "åĬ",
        "ł"
      ],
      [
        "äº",
        "ķ"
      ],
      [
        "å",
        "£"
      ],
      [
        "æ´",
        "¥"
      ],
      [
        "ç",
        "ľ"
      ],
      [
        "åı",
        "Ĭ"
      ],
      [
        "èĹ",
        "¤"
      ],
      [
        "è¶",
        "³"
      ],
      [
        "æĿ",
        "ī"
      ],
      [
        "è®",
        "°"
      ],
      [
        "è§",
        "ģ"
      ],
      [
        "èµ",
        "ĸ"
      ],
      [
        "æľ",
        "Ģ"
      ],
      [
        "è",
        "ī"
      ],
      [
        "ä½",
        "Ĳ"
      ],
      [
        "ä¸",
        "ĸ"
      ],
      [
        "è¿",
        "ĩ"
      ],
      [
        "éĹ",
        "¨"
      ],
      [
        "åĪ",
        "Ĩ"
      ],
      [
        "è",
        "ģ"
      ],
      [
        "å¤©",
        "æŃ£"
      ],
      [
        "å¼",
        "Ģ"
      ],
      [
        "ç",
        "Ļ"
      ],
      [
        "ç»",
        "ı"
      ],
      [
        "è¿",
        "ĳ"
      ],
      [
        "ä»",
        "Ĭ"
      ],
      [
        "è",
        "º"
      ],
      [
        "è",
        "¥"
      ],
      [
        "éĺ",
        "µ"
      ],
      [
        "ï¼",
        "Ľ"
      ],
      [
        "å®¶",
        "èĩ£"
      ],
      [
        "çĽ",
        "¸"
      ],
      [
        "é",
        "Ľ"
      ],
      [
        "ä¸Ĭ",
        "æĿī"
      ],
      [
        "è¥",
        "¿"
      ],
      [
        "ä¼",
        "Ĺ"
      ],
      [
        "èµ",
        "·"
      ],
      [
        "æľ",
        "Ł"
      ],
      [
        "æ¯",
        "Ľ"
      ],
      [
        "èº",
        "«"
      ],
      [
        "éĢ",
        "ļ"
      ],
      [
        "éĿ",
        "¢"
      ],
      [
        "æĿ",
        "ĳ"
      ],
      [
        "ä¸",
        "ª"
      ],
      [
        "åħ",
        "ī"
      ],
      [
        "å¤",
        "ĸ"
      ],
      [
        "åİ",
        "»"
      ],
      [
        "äº",
        "¬"
      ],
      [
        "å¹",
        "ķ"
      ],
      [
        "è¶",
        "Ĭ"
      ],
      [
        "æĹ",
        "ł"
      ],
      [
        "æ¯Ľ",
        "åĪ©"
      ],
      [
        "åĲ",
        "Ī"
      ],
      [
        "ä¸",
        "¤"
      ],
      [
        "æ¸",
        "ħ"
      ],
      [
        "1",
        "6"
      ],
      [
        "è",
        "·"
      ],
      [
        "åĬ",
        "¨"
      ],
      [
        "æĬ",
        "¤"
      ],
      [
        "éĥ",
        "¡"
      ],
      [
        "åĪ",
        "Ļ"
      ],
      [
        "æ³",
        "ķ"
      ],
      [
        "åĳ",
        "½"
      ],
      [
        "å·",
        "²"
      ],
      [
        "æį",
        "®"
      ],
      [
        "éļ",
        "ı"
      ],
      [
        "åľ",
        "Ł"
      ],
      [
        "ç¦",
        "Ħ"
      ],
      [
        "ç",
        "ģ"
      ],
      [
        "æ",
        "Ł"
      ],
      [
        "åħ",
        "Ń"
      ],
      [
        "æī",
        "¿"
      ],
      [
        "åĮĹ",
        "æĿ¡"
      ],
      [
        "æĪ",
        "·"
      ],
      [
        "å¦",
        "Ĥ"
      ],
      [
        "èĢ",
        "ħ"
      ],
      [
        "ä½",
        "¿"
      ],
      [
        "é",
        "¦"
      ],
      [
        "æĮ",
        "ģ"
      ],
      [
        "åı",
        "Ī"
      ],
      [
        "ç¬",
        "¬"
      ],
      [
        "äº",
        "¦"
      ],
      [
        "ä¼",
        "ļ"
      ],
      [
        "æľ",
        "¨"
      ],
      [
        "åħ",
        "«"
      ],
      [
        "åį",
        "«"
      ],
      [
        "åħ",
        "¬"
      ],
      [
        "æĹ",
        "ı"
      ],
      [
        "æ",
        "¡"
      ],
      [
        "å°",
        "¾"
      ],
      [
        "æĪĲ",
        "ä¸º"
      ],
      [
        "åĽ",
        "ŀ"
      ],
      [
        "åº",
        "Ĩ"
      ],
      [
        "ç",
        "®"
      ],
      [
        "æĿ",
        "ĥ"
      ],
      [
        "çĿ",
        "Ģ"
      ],
      [
        "å¹ķ",
        "åºľ"
      ],
      [
        "è",
        "Ĳ"
      ],
      [
        "éĥ",
        "İ"
      ],
      [
        "ä¹",
        "Ŀ"
      ],
      [
        "å¼",
        "Ł"
      ],
      [
        "0",
        "0"
      ],
      [
        "æĪĺ",
        "åĽ½"
      ],
      [
        "æ",
        "ģ"
      ],
      [
        "ä½ľ",
        "ä¸º"
      ],
      [
        "é©",
        "¬"
      ],
      [
        "éļ",
        "Ĩ"
      ],
      [
        "è¾",
        "¾"
      ],
      [
        "å",
        "Ģ"
      ],
      [
        "ä¹",
        "±"
      ],
      [
        "ä»",
        "ĵ"
      ],
      [
        "å¥",
        "½"
      ],
      [
        "å£",
        "«"
      ],
      [
        "ç",
        "¤"
      ],
      [
        "çĶ",
        "¨"
      ],
      [
        "ç",
        "³"
      ],
      [
        "ä¸",
        "ĩ"
      ],
      [
        "ä¹ĭ",
        "æĪĺ"
      ],
      [
        "è",
        "Ĭ"
      ],
      [
        "æĹ¥",
        "æľ¬"
      ],
      [
        "åį",
        "ĥ"
      ],
      [
        "é",
        "ª"
      ],
      [
        "çİ",
        "°"
      ],
      [
        "åı",
        "Ĺ"
      ],
      [
        "åº",
        "Ķ"
      ],
      [
        "ä¼",
        "ł"
      ],
      [
        "æĸ",
        "°"
      ],
      [
        "å±",
        "ħ"
      ],
      [
        "ç»",
        "Ł"
      ],
      [
        "ç",
        "½"
      ],
      [
        "å",
        "ł"
      ],
      [
        "é",
        "Ĥ"
      ],
      [
        "é",
        "¡"
      ],
      [
        "æ",
        "»"
      ],
      [
        "å¾",
        "¡"
      ],
      [
        "è",
        "İ"
      ],
      [
        "ç³",
        "»"
      ],
      [
        "æ´",
        "¾"
      ],
      [
        "é",
        "¾"
      ],
      [
        "åı",
        "į"
      ],
      [
        "è",
        "Ī"
      ],
      [
        "è´",
        "¥"
      ],
      [
        "æĿ",
        "Ģ"
      ],
      [
        "åı",
        "ĸ"
      ],
      [
        "æī",
        "ĭ"
      ],
      [
        "è",
        "Į"
      ],
      [
        "æ",
        "®"
      ],
      [
        "ä»",
        "¤"
      ],
      [
        "çĽ",
        "Ľ"
      ],
      [
        "å¿",
        "ĥ"
      ],
      [
        "å¤§",
        "åĲį"
      ],
      [
        "ç»",
        "ĵ"
      ],
      [
        "æĶ",
        "¯"
      ],
      [
        "ä¸°",
        "èĩ£"
      ],
      [
        "å¤",
        "ĩ"
      ],
      [
        "è",
        "ĭ"
      ],
      [
        "åħ",
        "Ī"
      ],
      [
        "ä¸",
        "ĥ"
      ],
      [
        "äº",
        "¤"
      ],
      [
        "å¾",
        "Ģ"
      ],
      [
        "çİ",
        "ĩ"
      ],
      [
        "ä¹",
        "¦"
      ],
      [
        "åĨ",
        "į"
      ],
      [
        "éĺ",
        "Ł"
      ],
      [
        "åį",
        "Ĺ"
      ],
      [
        "åĪ",
        "¶"
      ],
      [
        "è¿",
        "ĺ"
      ],
      [
        "è´",
        "º"
      ],
      [
        "çĶ",
        "º"
      ],
      [
        "æĻ",
        "´"
      ],
      [
        "åı",
        "ĭ"
      ],
      [
        "åį",
        "³"
      ],
      [
        "âĢ",
        "Ķ"
      ],
      [
        "å",
        "´"
      ],
      [
        "å¥",
        "³"
      ],
      [
        "å¸",
        "Ĥ"
      ],
      [
        "æ",
        "º"
      ],
      [
        "ä¾",
        "¿"
      ],
      [
        "ç¥",
        "ŀ"
      ],
      [
        "è¶³",
        "åĪ©"
      ],
      [
        "éĢ",
        "Ģ"
      ],
      [
        "åħ",
        "´"
      ],
      [
        "æ°",
        "´"
      ],
      [
        "ç»§",
        "æī¿"
      ],
      [
        "çŁ",
        "¥"
      ],
      [
        "åħ",
        "¨"
      ],
      [
        "å",
        "¢"
      ],
      [
        "å¤",
        "Ħ"
      ],
      [
        "åı",
        "Ĥ"
      ],
      [
        "ç»",
        "Ī"
      ],
      [
        "å°Ĩ",
        "åĨĽ"
      ],
      [
        "å»",
        "º"
      ],
      [
        "ç",
        "¨"
      ],
      [
        "çľ",
        "Ł"
      ],
      [
        "ç",
        "Ĳ"
      ],
      [
        "1",
        "4"
      ],
      [
        "ä¿",
        "Ŀ"
      ],
      [
        "èİ",
        "·"
      ],
      [
        "åĬ",
        "Ł"
      ],
      [
        "æĦ",
        "ı"
      ],
      [
        "å·",
        "ŀ"
      ],
      [
        "15",
        "8"
      ],
      [
        "æ",
        "¶"
      ],
      [
        "æĪ",
        "ĳ"
      ],
      [
        "æµ",
        "ģ"
      ],
      [
        "æĽ",
        "¾"
      ],
      [
        "ç",
        "Ĥ"
      ],
      [
        "å®Ī",
        "æĬ¤"
      ],
      [
        "å¥",
        "ī"
      ],
      [
        "ç»ĩçĶ°",
        "ä¿¡éķ¿"
      ],
      [
        "çº",
        "²"
      ],
      [
        "çĿ",
        "£"
      ],
      [
        "ç»",
        "Ļ"
      ],
      [
        "ç»",
        "Ĩ"
      ],
      [
        "æľ",
        "ª"
      ],
      [
        "æµ",
        "ĵ"
      ],
      [
        "ç¾",
        "½"
      ],
      [
        "æ²",
        "¡"
      ],
      [
        "15",
        "7"
      ],
      [
        "æ",
        "·"
      ],
      [
        "ç",
        "ł"
      ],
      [
        "æķ",
        "Į"
      ],
      [
        "å¾",
        "ģ"
      ],
      [
        "å¾·",
        "å·Ŀ"
      ],
      [
        "ã",
        "Ĥ"
      ],
      [
        "æİ",
        "¥"
      ],
      [
        "å",
        "ģ"
      ],
      [
        "å®",
        "¤"
      ],
      [
        "æĹ",
        "©"
      ],
      [
        "åº",
        "¦"
      ],
      [
        "åİ",
        "Ĩ"
      ],
      [
        "çļ",
        "ĩ"
      ],
      [
        "åį",
        "´"
      ],
      [
        "è®",
        "¤"
      ],
      [
        "æĶ",
        "¹"
      ],
      [
        "å§",
        "ĭ"
      ],
      [
        "å®",
        "«"
      ],
      [
        "çĶ",
        "²"
      ],
      [
        "è",
        "į"
      ],
      [
        "ç",
        "ĭ"
      ],
      [
        "äº¬",
        "éĥ½"
      ],
      [
        "å¤",
        "ª"
      ],
      [
        "èĹ",
        "©"
      ],
      [
        "æ°¸",
        "ç¦Ħ"
      ],
      [
        "èĻ",
        "İ"
      ],
      [
        "æµ",
        "·"
      ],
      [
        "éĩ",
        "Į"
      ],
      [
        "ä»",
        "¬"
      ],
      [
        "å¹",
        "¿"
      ],
      [
        "å",
        "ĸ"
      ],
      [
        "åı",
        "²"
      ],
      [
        "çŃ",
        "ĳ"
      ],
      [
        "å·",
        "¦"
      ],
      [
        "éĻ",
        "¢"
      ],
      [
        "åĿ",
        "Ĥ"
      ],
      [
        "åĪ",
        "Ŀ"
      ],
      [
        "ç»",
        "Ń"
      ],
      [
        "æ",
        "Ĵ"
      ],
      [
        "æĭ",
        "ħ"
      ],
      [
        "å®",
        "ĺ"
      ],
      [
        "æķ",
        "Ļ"
      ],
      [
        "é",
        "ĵ"
      ],
      [
        "å¤©",
        "æĸĩ"
      ],
      [
        "å",
        "ĵ"
      ],
      [
        "å¸",
        "¸"
      ],
      [
        "æ",
        "¦"
      ],
      [
        "å",
        "Ħ"
      ],
      [
        "ç»Ĩ",
        "å·Ŀ"
      ],
      [
        "è´",
        "ŀ"
      ],
      [
        "æ³",
        "¢"
      ],
      [
        "è",
        "±"
      ],
      [
        "æı",
        "´"
      ],
      [
        "æŃ¦",
        "å°Ĩ"
      ],
      [
        "ä¸",
        "¸"
      ],
      [
        "15",
        "6"
      ],
      [
        "çī",
        "©"
      ],
      [
        "å·",
        "±"
      ],
      [
        "æĮ",
        "ĩ"
      ],
      [
        "åĬ¿",
        "åĬĽ"
      ],
      [
        "å",
        "«"
      ],
      [
        "çİ",
        "Ħ"
      ],
      [
        "è°",
        "·"
      ],
      [
        "é",
        "Ķ"
      ],
      [
        "å±±",
        "åŁİ"
      ],
      [
        "èī",
        "¯"
      ],
      [
        "å¼",
        "ł"
      ],
      [
        "æī",
        "ĵ"
      ],
      [
        "è",
        "Ĥ"
      ],
      [
        "ç¾",
        "İ"
      ],
      [
        "è¾",
        "ī"
      ],
      [
        "è¿",
        "ľ"
      ],
      [
        "åĬ",
        "©"
      ],
      [
        "èĻ",
        "½"
      ],
      [
        "å²Ľ",
        "æ´¥"
      ],
      [
        "åı",
        "ª"
      ],
      [
        "1",
        "0"
      ],
      [
        "å·Ŀ",
        "å®¶åº·"
      ],
      [
        "æĪĺåĽ½",
        "æĹ¶ä»£"
      ],
      [
        "åľ",
        "º"
      ],
      [
        "æ",
        "¨"
      ],
      [
        "çĲ",
        "Ĩ"
      ],
      [
        "å",
        "ĭ"
      ],
      [
        "æĪ",
        "ĸ"
      ],
      [
        "è®",
        "©"
      ],
      [
        "è¿",
        "ŀ"
      ],
      [
        "çĻ",
        "¾"
      ],
      [
        "åĨ",
        "Ī"
      ],
      [
        "æº",
        "Ĳ"
      ],
      [
        "åĽ",
        "´"
      ],
      [
        "é¢Ĩ",
        "åľ°"
      ],
      [
        "åºĨ",
        "éķ¿"
      ],
      [
        "åĦ",
        "¿"
      ],
      [
        "æ±Ł",
        "æĪ·"
      ],
      [
        "äº",
        "ī"
      ],
      [
        "ç",
        "¼"
      ],
      [
        "æ¦",
        "Ĥ"
      ],
      [
        "é¦",
        "ĸ"
      ],
      [
        "äº",
        "¡"
      ],
      [
        "èģ",
        "Į"
      ],
      [
        "å®¶",
        "çĿ£"
      ],
      [
        "åı",
        "£"
      ],
      [
        "å´",
        "İ"
      ],
      [
        "è¯",
        "¸"
      ],
      [
        "æ»",
        "¡"
      ],
      [
        "ç§",
        "į"
      ],
      [
        "ä»Ĭ",
        "å·Ŀ"
      ],
      [
        "æĪ",
        "¿"
      ],
      [
        "ç",
        "Ĭ"
      ],
      [
        "åħ",
        "»"
      ],
      [
        "äº",
        "Ī"
      ],
      [
        "æ±",
        "Ĥ"
      ],
      [
        "èģ",
        "Ķ"
      ],
      [
        "åı",
        "ĺ"
      ],
      [
        "åı",
        "¤"
      ],
      [
        "åı",
        "³"
      ],
      [
        "æ",
        "ĳ"
      ],
      [
        "é",
        "£"
      ],
      [
        "æĢ",
        "»"
      ],
      [
        "åĨ",
        "³"
      ],
      [
        "1",
        "2"
      ],
      [
        "è·",
        "¯"
      ],
      [
        "èĩª",
        "å·±"
      ],
      [
        "å±",
        "ŀ"
      ],
      [
        "åħ",
        "Ħ"
      ],
      [
        "çĦ¶",
        "èĢĮ"
      ],
      [
        "ç",
        "Į"
      ],
      [
        "çķ",
        "Ļ"
      ],
      [
        "éģ",
        "Ĥ"
      ],
      [
        "å±",
        "ĭ"
      ],
      [
        "æĺ",
        "Į"
      ],
      [
        "å¹",
        "¸"
      ],
      [
        "è",
        "¨"
      ],
      [
        "è½",
        "¬"
      ],
      [
        "è¯",
        "·"
      ],
      [
        "å²",
        "ģ"
      ],
      [
        "èĢ",
        "ģ"
      ],
      [
        "é",
        "ħ"
      ],
      [
        "æķ",
        "°"
      ],
      [
        "å¤",
        "±"
      ],
      [
        "å½ĵ",
        "æĹ¶"
      ],
      [
        "èĲ",
        "½"
      ],
      [
        "æŁ",
        "´"
      ],
      [
        "ç",
        "ª"
      ],
      [
        "ä»",
        "ħ"
      ],
      [
        "å¤",
        "´"
      ],
      [
        "éĢ",
        "ĥ"
      ],
      [
        "é",
        "»"
      ],
      [
        "æĶ",
        "¶"
      ],
      [
        "åĮ",
        "ĸ"
      ],
      [
        "å¼",
        "º"
      ],
      [
        "éĻ",
        "·"
      ],
      [
        "è®",
        "¨"
      ],
      [
        "è½",
        "½"
      ],
      [
        "éģ",
        "Ń"
      ],
      [
        "åĮ",
        "ħ"
      ],
      [
        "æ¦Ĥ",
        "è¦ģ"
      ],
      [
        "1",
        "1"
      ],
      [
        "æ",
        "£"
      ],
      [
        "å¼",
        "ĺ"
      ],
      [
        "ä»",
        "į"
      ],
      [
        "å¼Ģ",
        "å§ĭ"
      ],
      [
        "åĲ",
        "Ħ"
      ],
      [
        "ç®",
        "¡"
      ],
      [
        "ç",
        "¡"
      ],
      [
        "æĭħ",
        "ä»»"
      ],
      [
        "æł",
        "·"
      ],
      [
        "åŁ",
        "º"
      ],
      [
        "å°",
        "ģ"
      ],
      [
        "èĹ",
        "ı"
      ],
      [
        "ä¸",
        "¾"
      ],
      [
        "è¡",
        "¨"
      ],
      [
        "è¶³åĪ©",
        "ä¹ī"
      ],
      [
        "è¨",
        "Ģ"
      ],
      [
        "å°",
        "¼"
      ],
      [
        "å½",
        "¢"
      ],
      [
        "ä¼",
        "Ĳ"
      ],
      [
        "éĻ",
        "į"
      ],
      [
        "çĪ¶",
        "äº²"
      ],
      [
        "1",
        "3"
      ],
      [
        "å½",
        "Ĵ"
      ],
      [
        "åİ",
        "¿"
      ],
      [
        "äºĮ",
        "åįģ"
      ],
      [
        "åħ",
        "¼"
      ],
      [
        "ç",
        "©"
      ],
      [
        "åħ³",
        "ä¸ľ"
      ],
      [
        "æĬ",
        "ķ"
      ],
      [
        "éĺ",
        "²"
      ],
      [
        "é¾",
        "Ļ"
      ],
      [
        "éĤ",
        "£"
      ],
      [
        "åŃ",
        "ĺ"
      ],
      [
        "æı",
        "Ĳ"
      ],
      [
        "è§",
        "Ĩ"
      ],
      [
        "çķ",
        "¥"
      ],
      [
        "èµ",
        "Ĳ"
      ],
      [
        "å®",
        "ĩ"
      ],
      [
        "èĬ",
        "±"
      ],
      [
        "å½",
        "¹"
      ],
      [
        "åĮ",
        "º"
      ],
      [
        "éĢ",
        "ł"
      ],
      [
        "æł",
        "¹"
      ],
      [
        "æĺ",
        "¥"
      ],
      [
        "åı",
        "¦"
      ],
      [
        "åĲĮ",
        "å¹´"
      ],
      [
        "çİ",
        "ĭ"
      ],
      [
        "åİ»",
        "ä¸ĸ"
      ],
      [
        "è",
        "£"
      ],
      [
        "è®",
        "®"
      ],
      [
        "è",
        "ĳ"
      ],
      [
        "åħĥ",
        "å¹´"
      ],
      [
        "15",
        "9"
      ],
      [
        "è¾",
        "¹"
      ],
      [
        "æĺ",
        "¾"
      ],
      [
        "æĶ",
        "¾"
      ],
      [
        "æľ",
        "į"
      ],
      [
        "éĩ",
        "ĳ"
      ],
      [
        "ç",
        "Ĺ"
      ],
      [
        "ä»",
        "ķ"
      ],
      [
        "è®¤",
        "ä¸º"
      ],
      [
        "èĩ",
        "´"
      ],
      [
        "è°",
        "¦"
      ],
      [
        "æĥ",
        "ħ"
      ],
      [
        "æĽ",
        "´"
      ],
      [
        "åĽ",
        "¾"
[...]
