{
  "version": "1.0",
  "truncation": null,
  "padding": null,
  "added_tokens": [
    {
      "id": 0,
      "content": "<|endoftext|>",
      "single_word": false,
      "lstrip": false,
      "rstrip": false,
      "normalized": false,
      "special": true
    },
    {
      "id": 1,
      "content": "<|im_end|>",
      "single_word": false,
      "lstrip": false,
      "rstrip": false,
      "normalized": false,
      "special": true
    },
    {
      "id": 2,
      "content": "<|im_system|>",
      "single_word": false,
      "lstrip": false,
      "rstrip": false,
      "normalized": false,
      "special": true
    },
    {
      "id": 3,
      "content": "<|im_user|>",
      "single_word": false,
      "lstrip": false,
      "rstrip": false,
      "normalized": false,
      "special": true
    },
    {
      "id": 4,
      "content": "<|im_assistant|>",
      "single_word": false,
      "lstrip": false,
      "rstrip": false,
      "normalized": false,
      "special": true
    }
  ],
  "normalizer": null,
  "pre_tokenizer": {
    "type": "Sequence",
    "pretokenizers": [
      {
        "type": "Punctuation",
        "behavior": "Isolated"
      },
      {
        "type": "Split",
        "pattern": {
          "Regex": "[的了在与被和]"
        },
        "behavior": "Isolated",
        "invert": false
      },
      {
        "type": "ByteLevel",
        "add_prefix_space": false,
        "trim_offsets": true,
        "use_regex": true
      }
    ]
  },
  "post_processor": {
    "type": "ByteLevel",
    "add_prefix_space": true,
    "trim_offsets": false,
    "use_regex": true
  },
  "decoder": {
    "type": "ByteLevel",
    "add_prefix_space": true,
    "trim_offsets": true,
    "use_regex": true
  },
  "model": {
    "type": "BPE",
    "dropout": null,
    "unk_token": null,
    "continuing_subword_prefix": null,
    "end_of_word_suffix": null,
    "fuse_unk": false,
    "byte_fallback": false,
    "ignore_merges": false,
    "vocab": {
      "<|endoftext|>": 0,
      "<|im_end|>": 1,
      "<|im_system|>": 2,
      "<|im_user|>": 3,
      "<|im_assistant|>": 4,
      "!": 5,
      "\"": 6,
      "#": 7,
      "%": 8,
      "&": 9,
      "'": 10,
      "(": 11,
      ")": 12,
      "*": 13,
      "+": 14,
      ",": 15,
      "-": 16,
      ".": 17,
      "/": 18,
      "0": 19,
      "1": 20,
      "2": 21,
      "3": 22,
      "4": 23,
      "5": 24,
      "6": 25,
      "7": 26,
      "8": 27,
      "9": 28,
      ":": 29,
      ";": 30,
      "<": 31,
      "=": 32,
      ">": 33,
      "?": 34,
      "@": 35,
      "A": 36,
      "B": 37,
      "C": 38,
      "D": 39,
      "E": 40,
      "F": 41,
      "G": 42,
      "H": 43,
      "I": 44,
      "J": 45,
      "K": 46,
      "L": 47,
      "M": 48,
      "N": 49,
      "O": 50,
      "P": 51,
      "Q": 52,
      "R": 53,
      "S": 54,
      "T": 55,
      "U": 56,
      "V": 57,
      "W": 58,
      "X": 59,
      "Y": 60,
      "Z": 61,
      "[": 62,
      "\\": 63,
      "]": 64,
      "^": 65,
      "_": 66,
      "`": 67,
      "a": 68,
      "b": 69,
      "c": 70,
      "d": 71,
      "e": 72,
      "f": 73,
      "g": 74,
      "h": 75,
      "i": 76,
      "j": 77,
      "k": 78,
      "l": 79,
      "m": 80,
      "n": 81,
      "o": 82,
      "p": 83,
      "q": 84,
      "r": 85,
      "s": 86,
      "t": 87,
      "u": 88,
      "v": 89,
      "w": 90,
      "x": 91,
      "y": 92,
      "z": 93,
      "{": 94,
      "|": 95,
      "}": 96,
      "~": 97,
      "¡": 98,
      "¢": 99,
      "£": 100,
      "¤": 101,
      "¥": 102,
      "¦": 103,
      "§": 104,
      "¨": 105,
      "©": 106,
      "ª": 107,
      "«": 108,
      "¬": 109,
      "®": 110,
      "¯": 111,
      "°": 112,
      "±": 113,
      "²": 114,
      "³": 115,
      "´": 116,
      "µ": 117,
      "¶": 118,
      "·": 119,
      "¸": 120,
      "¹": 121,
      "º": 122,
      "»": 123,
      "¼": 124,
      "½": 125,
      "¾": 126,
      "¿": 127,
      "Â": 128,
      "Ã": 129,
      "Ä": 130,
      "Å": 131,
      "Ç": 132,
      "É": 133,
      "Ê": 134,
      "Ë": 135,
      "Ì": 136,
      "Ð": 137,
      "Ñ": 138,
      "Ò": 139,
      "à": 140,
      "á": 141,
      "â": 142,
      "ã": 143,
      "ä": 144,
      "å": 145,
      "æ": 146,
      "ç": 147,
      "è": 148,
      "é": 149,
      "ê": 150,
      "ë": 151,
      "ì": 152,
      "í": 153,
      "ï": 154,
      "ð": 155,
      "ó": 156,
      "Ĉ": 157,
      "Ċ": 158,
      "Ġ": 159,
      "Ģ": 160,
      "ģ": 161,
      "Ĥ": 162,
      "ĥ": 163,
      "Ħ": 164,
      "ħ": 165,
      "Ĩ": 166,
      "ĩ": 167,
      "Ī": 168,
      "ī": 169,
      "Ĭ": 170,
      "ĭ": 171,
      "Į": 172,
      "į": 173,
      "İ": 174,
      "ı": 175,
      "Ĳ": 176,
      "ĳ": 177,
      "Ĵ": 178,
      "ĵ": 179,
      "Ķ": 180,
      "ķ": 181,
      "ĸ": 182,
      "Ĺ": 183,
      "ĺ": 184,
      "Ļ": 185,
      "ļ": 186,
      "Ľ": 187,
      "ľ": 188,
      "Ŀ": 189,
      "ŀ": 190,
      "Ł": 191,
      "ł": 192,
      "Ń": 193,
      "ï¼": 194,
      "ä¸": 195,
      "ï¼Į": 196,
      "ãĢ": 197,
      "äº": 198,
      "çļ": 199,
      "çļĦ": 200,
      "å®": 201,
      "ãĢĤ": 202,
      "åħ": 203,
      "åĲ": 204,
      "ä¹": 205,
      "ä»": 206,
      "å¹": 207,
      "æľ": 208,
      "å¤": 209,
      "åı": 210,
      "çĶ": 211,
      "æĹ": 212,
      "å¹´": 213,
      "æĪ": 214,
      "åľ": 215,
      "æŃ": 216,
      "åĽ": 217,
      "å°": 218,
      "åĪ": 219,
      "åĨ": 220,
      "è¿": 221,
      "ç»": 222,
      "æĿ": 223,
      "å®¶": 224,
      "æ°": 225,
      "æĺ": 226,
      "ä½": 227,
      "åį": 228,
      "ä¸º": 229,
      "ï¼Ī": 230,
      "ï¼ī": 231,
      "åĬ": 232,
      "âĢ": 233,
      "æĶ": 234,
      "ä¿": 235,
      "ãĢģ": 236,
      "åŁ": 237,
      "å·": 238,
      "ä¸Ģ": 239,
      "ä¹ĭ": 240,
      "æĸ": 241,
      "éķ": 242,
      "èĩ": 243,
      "åº": 244,
      "åľ¨": 245,
      "çĶ°": 246,
      "å±": 247,
      "åŁİ": 248,
      "åĲİ": 249,
      "å¤§": 250,
      "æ°ı": 251,
      "éķ¿": 252,
      "ç§": 253,
      "ä¼": 254,
      "å¾": 255,
      "ä¿¡": 256,
      "æĪĺ": 257,
      "å¯": 258,
      "åĩ": 259,
      "åŃ": 260,
      "åĨĽ": 261,
      "åĽ½": 262,
      "éĩ": 263,
      "æĺ¯": 264,
      "æī": 265,
      "å¼": 266,
      "éĥ": 267,
      "æĹ¶": 268,
      "è¯": 269,
      "äºĨ": 270,
      "è®": 271,
      "ä¸İ": 272,
      "çĽ": 273,
      "èĢ": 274,
      "åİ": 275,
      "æĹ¥": 276,
      "ä¸Ń": 277,
      "äºİ": 278,
      "èµ": 279,
      "éĢ": 280,
      "è´": 281,
      "ä¸Ĭ": 282,
      "äºº": 283,
      "å·Ŀ": 284,
      "å±±": 285,
      "æľĪ": 286,
      "æ²": 287,
      "ä¹ī": 288,
      "15": 289,
      "å½": 290,
      "ä¸ī": 291,
      "èĥ": 292,
      "ä¸į": 293,
      "å°Ĩ": 294,
      "éĺ": 295,
      "åŃĲ": 296,
      "ä»¥": 297,
      "å¿": 298,
      "ç§Ģ": 299,
      "åĮ": 300,
      "åĩº": 301,
      "æľī": 302,
      "å¥": 303,
      "è¢": 304,
      "æŃ£": 305,
      "âĢľ": 306,
      "âĢĿ": 307,
      "æŃ¦": 308,
      "åħĥ": 309,
      "ä¸ĭ": 310,
      "æĶ¿": 311,
      "åĲį": 312,
      "ä»£": 313,
      "éĻ": 314,
      "å¤©": 315,
      "æĬ": 316,
      "éģ": 317,
      "çŃ": 318,
      "éĹ": 319,
      "åī": 320,
      "æĪĲ": 321,
      "æľ¬": 322,
      "è§": 323,
      "æµ": 324,
      "å²": 325,
      "åľ°": 326,
      "èĢĮ": 327,
      "æķ": 328,
      "æŃ¤": 329,
      "åħ¶": 330,
      "é¢": 331,
      "æ´": 332,
      "åĪ©": 333,
      "è¢«": 334,
      "åĴ": 335,
      "å¸": 336,
      "è¡": 337,
      "æĻ": 338,
      "èĩ£": 339,
      "åĴĮ": 340,
      "çİ": 341,
      "ĊĊ": 342,
      "éļ": 343,
      "çº": 344,
      "è¾": 345,
      "æ³": 346,
      "åįģ": 347,
      "çŁ": 348,
      "åīį": 349,
      "åĲī": 350,
      "ä¸»": 351,
      "è¶": 352,
      "æĸ¹": 353,
      "ç«": 354,
      "æ±": 355,
      "é¢Ĩ": 356,
      "åĨħ": 357,
      "è°": 358,
      "ä¾": 359,
      "åĲĮ": 360,
      "èĹ": 361,
      "å¯¹": 362,
      "å®Ī": 363,
      "ä»ĸ": 364,
      "èĩª": 365,
      "å¹¶": 366,
      "æ¯": 367,
      "æ¬": 368,
      "æĮ": 369,
      "åĳ": 370,
      "éĩį": 371,
      "åİŁ": 372,
      "åĽł": 373,
      "è¿Ļ": 374,
      "å°ı": 375,
      "æĿ¥": 376,
      "åĪ°": 377,
      "åº·": 378,
      "ç¦": 379,
      "åħµ": 380,
      "æĶ»": 381,
      "åĮĹ": 382,
      "äº²": 383,
      "çŃī": 384,
      "æĭ": 385,
      "åĬĽ": 386,
      "å¯º": 387,
      "ãģ": 388,
      "æİ": 389,
      "çĶŁ": 390,
      "äºĮ": 391,
      "é«": 392,
      "æ¬¡": 393,
      "é«ĺ": 394,
      "å®Ĺ": 395,
      "æ¸": 396,
      "çĪ": 397,
      "ä¿¡éķ¿": 398,
      "è¡Į": 399,
      "éĥ¨": 400,
      "ä½ľ": 401,
      "ä¹Ł": 402,
      "éĿ": 403,
      "éĩİ": 404,
      "ç»ĩ": 405,
      "å½ĵ": 406,
      "åħ¥": 407,
      "çķ": 408,
      "èĥľ": 409,
      "æĢ": 410,
      "ä½Ĩ": 411,
      "æĸĩ": 412,
      "åħ³": 413,
      "ç»ĩçĶ°": 414,
      "çĿ": 415,
      "æīĢ": 416,
      "çĦ": 417,
      "å¿ł": 418,
      "æł": 419,
      "ä¹ħ": 420,
      "è¿Ľ": 421,
      "è¦": 422,
      "åıĳ": 423,
      "ä»»": 424,
      "å¹³": 425,
      "æĿ¡": 426,
      "å¦": 427,
      "å°±": 428,
      "è¦ģ": 429,
      "ç«ĭ": 430,
      "ä¸ľ": 431,
      "åĲĳ": 432,
      "çŁ³": 433,
      "å®ļ": 434,
      "çĦ¶": 435,
      "æı": 436,
      "å¾·": 437,
      "èĩ³": 438,
      "æŀ": 439,
      "æľĿ": 440,
      "å²Ľ": 441,
      "ç§ĢåĲī": 442,
      "ç»§": 443,
      "å§": 444,
      "çĶ±": 445,
      "åĬ¿": 446,
      "å®ī": 447,
      "å¾Ĺ": 448,
      "äºĭ": 449,
      "æŃ¦çĶ°": 450,
      "çĽ´": 451,
      "ç¥": 452,
      "å¤ļ": 453,
      "è½": 454,
      "æ°¸": 455,
      "ä¼Ĭ": 456,
      "æĹ¶ä»£": 457,
      "ç¬": 458,
      "æĺİ": 459,
      "æĥ": 460,
      "çī": 461,
      "éĥ½": 462,
      "ï¼ļ": 463,
      "é©": 464,
      "æĦ": 465,
      "è¯´": 466,
      "ä¸°": 467,
      "æŃ»": 468,
      "æĻ¯": 469,
      "æ²³": 470,
      "æĿ¾": 471,
      "èĻ": 472,
      "ç§°": 473,
      "èĥ½": 474,
      "ä½į": 475,
      "æĽ": 476,
      "å®ŀ": 477,
      "çĪ¶": 478,
      "éģĵ": 479,
      "åĿ": 480,
      "ãĢĭ": 481,
      "ãĢĬ": 482,
      "æ±Ł": 483,
      "æį": 484,
      "ä»İ": 485,
      "äºĶ": 486,
      "ç¾": 487,
      "åĩ»": 488,
      "æ²»": 489,
      "å»": 490,
      "åºľ": 491,
      "éĹ´": 492,
      "åĽĽ": 493,
      "åı¯": 494,
      "å®¶åº·": 495,
      "åĬł": 496,
      "äºķ": 497,
      "å£": 498,
      "æ´¥": 499,
      "åıĬ": 500,
      "èĹ¤": 501,
      "çľ": 502,
      "èī": 503,
      "è®°": 504,
      "è¶³": 505,
      "èµĸ": 506,
      "æĿī": 507,
      "å®¶èĩ£": 508,
      "è§ģ": 509,
      "å¾·å·Ŀ": 510,
      "æľĢ": 511,
      "ä½Ĳ": 512,
      "ä¸ĸ": 513,
      "éĹ¨": 514,
      "è¿ĩ": 515,
      "ç»ı": 516,
      "åĪĨ": 517,
      "èģ": 518,
      "å¤©æŃ£": 519,
      "å¼Ģ": 520,
      "çĻ": 521,
      "è¿ĳ": 522,
      "ä»Ĭ": 523,
      "ä¸ĬæĿī": 524,
      "éĺµ": 525,
      "èº": 526,
      "ï¼Ľ": 527,
      "¥¿": 528,
      "çĽ¸": 529,
      "è¥¿": 530,
      "éĽ": 531,
      "ä¼Ĺ": 532,
      "èµ·": 533,
      "æľŁ": 534,
      "ä¹ĭæĪĺ": 535,
      "æ¯Ľ": 536,
      "èº«": 537,
      "éĢļ": 538,
      "éĿ¢": 539,
      "æĿĳ": 540,
      "ä¸ª": 541,
      "å¤ĸ": 542,
      "åħī": 543,
      "åİ»": 544,
      "äº¬": 545,
      "å¹ķ": 546,
      "è¶Ĭ": 547,
      "æĹł": 548,
      "æ¯ĽåĪ©": 549,
      "ä¸¤": 550,
      "åĲĪ": 551,
      "æ¸ħ": 552,
      "16": 553,
      "åĬ¨": 554,
      "è·": 555,
      "è±": 556,
      "æĬ¤": 557,
      "åĪĻ": 558,
      "éĥ¡": 559,
      "æ³ķ": 560,
      "æį®": 561,
      "åĳ½": 562,
      "å·²": 563,
      "éļı": 564,
      "ç¦Ħ": 565,
      "æĪ·": 566,
      "åľŁ": 567,
      "çģ": 568,
      "æŁ": 569,
      "åħŃ": 570,
      "åĮĹæĿ¡": 571,
      "æī¿": 572,
      "å¦Ĥ": 573,
      "èĢħ": 574,
      "ä½¿": 575,
      "æĮģ": 576,
      "åıĪ": 577,
      "é¦": 578,
      "ç¬¬": 579,
      "äº¦": 580,
      "ä¼ļ": 581,
      "æľ¨": 582,
      "åħ«": 583,
      "åį«": 584,
      "è¶³åĪ©": 585,
      "åħ¬": 586,
      "æĪĲä¸º": 587,
      "æ¡": 588,
      "æĹı": 589,
      "åºĨ": 590,
      "å°¾": 591,
      "æĿĥ": 592,
      "åĽŀ": 593,
      "çĿĢ": 594,
      "å¹ķåºľ": 595,
      "ç®": 596,
      "èĲ": 597,
      "æĪĺåĽ½": 598,
      "éĥİ": 599,
      "ä¹Ŀ": 600,
      "é©¬": 601,
      "å¼Ł": 602,
      "00": 603,
      "ä½ľä¸º": 604,
      "æģ": 605,
      "è¾¾": 606,
      "ä»ĵ": 607,
      "éļĨ": 608,
      "ä¹±": 609,
      "åĢ": 610,
      "å¥½": 611,
      "å£«": 612,
      "ç¤": 613,
      "çĶ¨": 614,
      "ä¸ĩ": 615,
      "ç³": 616,
      "æĹ¥æľ¬": 617,
      "éª": 618,
      "åįĥ": 619,
      "çİ°": 620,
      "ä¼ł": 621,
      "åºĶ": 622,
      "åıĹ": 623,
      "æĸ°": 624,
      "ç»Ł": 625,
      "å±ħ": 626,
      "èĬ": 627,
      "ç½": 628,
      "é¾": 629,
      "èİ": 630,
      "æ»": 631,
      "éĤ": 632,
      "ç³»": 633,
      "å¾¡": 634,
      "é¡": 635,
      "æ´¾": 636,
      "åł": 637,
      "è´¥": 638,
      "å¤§åĲį": 639,
      "åıį": 640,
      "æĿĢ": 641,
      "èĮ": 642,
      "åıĸ": 643,
      "æīĭ": 644,
      "ä»¤": 645,
      "çĽĽ": 646,
      "æ®": 647,
      "å¿ĥ": 648,
      "ä¸°èĩ£": 649,
      "ç»ĵ": 650,
      "å¤ĩ": 651,
      "æĶ¯": 652,
      "èĭ": 653,
      "åħĪ": 654,
      "èĪ": 655,
      "ä¹¦": 656,
      "ä¸ĥ": 657,
      "äº¤": 658,
      "å¾Ģ": 659,
      "çİĩ": 660,
      "éĺŁ": 661,
      "åĨį": 662,
      "åįĹ": 663,
      "åĪ¶": 664,
      "è¿ĺ": 665,
      "è´º": 666,
      "çĶº": 667,
      "æĻ´": 668,
      "åıĭ": 669,
      "åį³": 670,
      "âĢĶ": 671,
      "å´": 672,
      "å¥³": 673,
      "å¸Ĥ": 674,
      "å±±åŁİ": 675,
      "ä¾¿": 676,
      "ç¥ŀ": 677,
      "åħ´": 678,
      "æº": 679,
      "éĢĢ": 680,
      "å¢": 681,
      "æ°´": 682,
      "ç»§æī¿": 683,
      "å°ĨåĨĽ": 684,
      "å¤Ħ": 685,
      "åħ¨": 686,
      "çŁ¥": 687,
      "ç»Ī": 688,
      "åıĤ": 689,
      "å»º": 690,
      "çľŁ": 691,
      "çĲ": 692,
      "ç¨": 693,
      "14": 694,
      "æ¶": 695,
      "èİ·": 696,
      "ä¿Ŀ": 697,
      "åĬŁ": 698,
      "æĦı": 699,
      "çº²": 700,
      "å®ĪæĬ¤": 701,
      "å·ŀ": 702,
      "158": 703,
      "æĽ¾": 704,
      "æĪĳ": 705,
      "æµģ": 706,
      "ç»ĩçĶ°ä¿¡éķ¿": 707,
      "å¥ī": 708,
      "æµĵ": 709,
      "çĿ£": 710,
      "ç»Ĩ": 711,
      "ç»Ļ": 712,
      "æľª": 713,
      "æ²¡": 714,
      "ç¾½": 715,
      "157": 716,
      "æķĮ": 717,
      "çł": 718,
      "å¾ģ": 719,
      "æ·": 720,
      "çĤ": 721,
      "åİĨ": 722,
      "æİ¥": 723,
      "å®¤": 724,
      "æĹ©": 725,
      "åģ": 726,
      "å®«": 727,
      "ãĤ": 728,
      "åº¦": 729,
      "åį´": 730,
      "è®¤": 731,
      "çļĩ": 732,
      "æĶ¹": 733,
      "äº¬éĥ½": 734,
      "å§ĭ": 735,
      "èį": 736,
      "çĶ²": 737,
      "çĭ": 738,
      "æ°¸ç¦Ħ": 739,
      "å¤ª": 740,
      "å¹¿": 741,
      "èĹ©": 742,
      "éĩĮ": 743,
      "èĻİ": 744,
      "æµ·": 745,
      "ä»¬": 746,
      "åĸ": 747,
      "çŃĳ": 748,
      "åı²": 749,
      "å·¦": 750,
      "éĻ¢": 751,
      "ç»Ń": 752,
      "åĿĤ": 753,
      "åĪĿ": 754,
      "éĵ": 755,
      "æĭħ": 756,
      "å®ĺ": 757,
      "æķĻ": 758,
      "å¤©æĸĩ": 759,
      "åĦ": 760,
      "ç»Ĩå·Ŀ": 761,
      "å¸¸": 762,
      "åĵ": 763,
      "è´ŀ": 764,
      "æ¦": 765,
      "æŃ¦å°Ĩ": 766,
      "æ³¢": 767,
      "æı´": 768,
      "ä¸¸": 769,
      "çī©": 770,
      "156": 771,
      "å·±": 772,
      "è¶³åĪ©ä¹ī": 773,
      "åĬ¿åĬĽ": 774,
      "æĴ": 775,
      "æĮĩ": 776,
      "ä»Ĭå·Ŀ": 777,
      "å«": 778,
      "å®¶çĿ£": 779,
      "éĶ": 780,
      "çİĦ": 781,
      "è°·": 782,
      "èī¯": 783,
      "å¼ł": 784,
      "æīĵ": 785,
      "è¾ī": 786,
      "èĤ": 787,
      "è¿ľ": 788,
      "ç¾İ": 789,
      "å²Ľæ´¥": 790,
      "èĻ½": 791,
      "åĬ©": 792,
      "åıª": 793,
      "10": 794,
      "æĪĺåĽ½æĹ¶ä»£": 795,
      "å¾·å·Ŀå®¶åº·": 796,
      "åľº": 797,
      "åĨĪ": 798,
      "è®©": 799,
      "çĲĨ": 800,
      "é¢Ĩåľ°": 801,
      "åĦ¿": 802,
      "æĪĸ": 803,
      "ç¼": 804,
      "åºĨéķ¿": 805,
      "è¿ŀ": 806,
      "æ±ŁæĪ·": 807,
      "çĻ¾": 808,
      "æºĲ": 809,
      "åĽ´": 810,
      "æ»¡": 811,
      "äºī": 812,
      "èģĮ": 813,
      "æ¦Ĥ": 814,
      "è¯¸": 815,
      "é¦ĸ": 816,
      "äº¡": 817,
      "åı£": 818,
      "ç§į": 819,
      "å´İ": 820,
      "åħ»": 821,
      "æĪ¿": 822,
      "èģĶ": 823,
      "çĬ": 824,
      "åĮĹæĿ¡æ°ı": 825,
      "åıĺ": 826,
      "æ±Ĥ": 827,
      "æ¨": 828,
      "æĢ»": 829,
      "åı³": 830,
      "åı¤": 831,
      "åŁİä¸»": 832,
      "åĨ³": 833,
      "é£": 834,
      "è·¯": 835,
      "12": 836,
      "åĭ": 837,
      "æĳ": 838,
      "èĩªå·±": 839,
      "å±ŀ": 840,
      "åħĦ": 841,
      "çĦ¶èĢĮ": 842,
      "çĮ": 843,
      "çķĻ": 844,
      "éģĤ": 845,
      "å²ģ": 846,
      "å±ĭ": 847,
      "æĺĮ": 848,
      "å¹¸": 849,
      "è½¬": 850,
      "è¯·": 851,
      "éħ": 852,
      "æķ°": 853,
      "èĢģ": 854,
      "å½ĵæĹ¶": 855,
      "å¤±": 856,
      "è±«": 857,
      "å¤´": 858,
      "èĲ½": 859,
      "ä»ħ": 860,
      "æŁ´": 861,
      "éĢĥ": 862,
      "æĶ¶": 863,
      "åį«éĹ¨": 864,
      "å¼º": 865,
      "é»": 866,
      "è®¨": 867,
      "çª": 868,
      "è½½": 869,
      "Ġæ¦Ĥ": 870,
      "åĮĸ": 871,
      "éĻ·": 872,
      "æł·": 873,
      "èĹı": 874,
      "éģŃ": 875,
      "åĮħ": 876,
      "11": 877,
      "å¼ĺ": 878,
      "æ£": 879,
      "Ġæ¦Ĥè¦ģ": 880,
      "ä»į": 881,
      "å¼Ģå§ĭ": 882,
      "ç¡": 883,
      "æĭħä»»": 884,
      "ä¿¡çİĦ": 885,
      "åĲĦ": 886,
      "ç®¡": 887,
      "è¨": 888,
      "ä¸īå¥½": 889,
      "ä¸¾": 890,
      "åİ¿": 891,
      "å°ģ": 892,
      "åŁº": 893,
      "è¡¨": 894,
      "è¨Ģ": 895,
      "å°¼": 896,
      "åħ³ä¸ľ": 897,
      "å½¢": 898,
      "ä¼Ĳ": 899,
      "éĻį": 900,
      "çĪ¶äº²": 901,
      "å½Ĵ": 902,
      "é¾Ļ": 903,
      "13": 904,
      "äºĮåįģ": 905,
      "å¤§åĨħ": 906,
      "åħ¼": 907,
      "å¤§åıĭ": 908,
      "ç©": 909,
      "æĬķ": 910,
      "éĺ²": 911,
      "éĤ£": 912,
      "è§Ĩ": 913,
      "åŃĺ": 914,
      "èµĲ": 915,
      "æıĲ": 916,
      "çķ¥": 917,
      "åĮº": 918,
      "å®ĩ": 919,
      "èĬ±": 920,
      "å½¹": 921,
      "åĲĮå¹´": 922,
      "éĢł": 923,
      "æł¹": 924,
      "æĺ¥": 925,
      "åı¦": 926,
      "çİĭ": 927,
      "åİ»ä¸ĸ": 928,
      "è®®": 929,
      "åħĥå¹´": 930,
      "è¾¹": 931,
      "è£": 932,
      "èĳ": 933,
      "159": 934,
      "æĺ¾": 935,
      "è®¤ä¸º": 936,
      "åĽ¾": 937,
      "æĶ¾": 938,
      "å¤©çļĩ": 939,
      "æľį": 940,
      "ä¹ĭåĲİ": 941,
      "éĩĳ": 942,
      "çĹ": 943,
      "è°¦": 944,
      "ä»ķ": 945,
      "èĩ´": 946,
      "æĥħ": 947,
      "æµħ": 948,
      "æĽ´": 949,
      "æĸĭ": 950,
      "ä½ĵ": 951,
      "éķĩ": 952,
      "ä¹ĭåŃĲ": 953,
      "å¤į": 954,
      "å°ĳ": 955,
      "å¸¦": 956,
      "æĬĹ": 957,
      "å«¡": 958,
      "ç¦ı": 959,
      "è°¦ä¿¡": 960,
      "åĥ": 961,
      "èĭ¥": 962,
      "åĪ«": 963,
      "çģŃ": 964,
      "å¼ı": 965,
      "æ®¿": 966,
      "å¯Į": 967,
      "ç±": 968,
      "æĿ¾å¹³": 969,
      "åĽłä¸º": 970,
      "çĤ¹": 971,
      "çĻ½": 972,
      "æļ": 973,
      "çĥ": 974,
      "ä½Ļ": 975,
      "åĽłæŃ¤": 976,
      "æĪĺæŃ»": 977,
      "ç«¹": 978,
      "å¸ĥ": 979,
      "çĶ·": 980,
      "æ¯į": 981,
      "åĲİæĿ¥": 982,
      "å½ĵä¸»": 983,
      "åı·": 984,
      "ãĥ": 985,
      "å¤º": 986,
      "åºĦ": 987,
      "Â·": 988,
      "æľº": 989,
      "çªģ": 990,
      "è§Ĵ": 991,
      "è¿ĽæĶ»": 992,
      "æ±ł": 993,
      "ç¿": 994,
      "éľ": 995,
      "éĻĨ": 996,
      "äº«": 997,
      "ç¦»": 998,
      "æ²¡æľī": 999,
      "æ¿": 1000,
      "ç¤¾": 1001,
      "å°¼åŃĲ": 1002,
      "155": 1003,
      "å¨": 1004,
      "éĽĨ": 1005,
      "ä¸Ķ": 1006,
      "æĹ§": 1007,
      "è¯Ń": 1008,
      "è´Ł": 1009,
      "è¯¥": 1010,
      "æĸŃ": 1011,
      "æĻº": 1012,
      "åĲĪæĪĺ": 1013,
      "è§£": 1014,
      "çº¦": 1015,
      "ä»½": 1016,
      "æĦ¿": 1017,
      "æĤ": 1018,
      "éº": 1019,
      "æīį": 1020,
      "ä¹¡": 1021,
      "çĽ®": 1022,
      "è¢Ń": 1023,
      "éĺ¿": 1024,
      "æĸ¹éĿ¢": 1025,
      "åħ³ç³»": 1026,
      "çģ«": 1027,
      "å²©": 1028,
      "æĺŃ": 1029,
      "ç²": 1030,
      "æŀģ": 1031,
      "å±ķ": 1032,
      "å§ĵ": 1033,
      "ä¼Ĭè¾¾": 1034,
      "æŀľ": 1035,
      "æŃ¤æĹ¶": 1036,
      "æĬĬ": 1037,
      "ãĢį": 1038,
      "ãĢĮ": 1039,
      "åŃĻ": 1040,
      "é»ĳ": 1041,
      "è´£": 1042,
      "ä¾µ": 1043,
      "çĽŁ": 1044,
      "æŃ¦å£«": 1045,
      "è°ĭ": 1046,
      "éĻ¤": 1047,
      "åŃĿ": 1048,
      "åĲĮæĹ¶": 1049,
      "è®°è½½": 1050,
      "èµĦ": 1051,
      "æ´»": 1052,
      "åħ±": 1053,
      "ç¡®": 1054,
      "éĿŀ": 1055,
      "åĳ¨": 1056,
      "äºĳ": 1057,
      "æĥ³": 1058,
      "ä¸°èĩ£ç§ĢåĲī": 1059,
      "ä¸¹": 1060,
      "éķ°": 1061,
      "æ¯Ķ": 1062,
      "äºĽ": 1063,
      "åıĽ": 1064,
      "åŃĹ": 1065,
      "ä¸īæ²³": 1066,
      "æ°ĳ": 1067,
      "æĢ§": 1068,
      "åĬ¡": 1069,
      "é¹": 1070,
      "æķħ": 1071,
      "æ·±": 1072,
      "19": 1073,
      "æľĿä»ĵ": 1074,
      "éªı": 1075,
      "åĸľ": 1076,
      "è¿½": 1077,
      "çķł": 1078,
      "ä¹ĭä¹±": 1079,
      "äºİæĺ¯": 1080,
      "ä¸īå¹´": 1081,
      "èĦ": 1082,
      "çĬ¶": 1083,
      "çĹħ": 1084,
      "è®¾": 1085,
      "çºª": 1086,
      "ä¸Ģä¸ª": 1087,
      "ä¸Ģæı": 1088,
      "å°½": 1089,
      "ä¸ĢæıĨ": 1090,
      "è®¸": 1091,
      "äºĮå¹´": 1092,
      "ä»¶": 1093,
      "æĸĻ": 1094,
      "é¾Ł": 1095,
      "çľĭ": 1096,
      "18": 1097,
      "é¥": 1098,
      "éļ¾": 1099,
      "çĸ": 1100,
      "å°ļ": 1101,
      "ç¾İæµĵ": 1102,
      "å¥¥": 1103,
      "ç»Ŀ": 1104,
      "å¢ŀ": 1105,
      "ä¸ĢåĲĮ": 1106,
      "ä½Ĩæĺ¯": 1107,
      "æĸĲ": 1108,
      "åħĥå°±": 1109,
      "éĢĲ": 1110,
      "èµ¤": 1111,
      "çł´": 1112,
      "å®¤çĶº": 1113,
      "æĸĹ": 1114,
      "èīº": 1115,
      "è¿Ľåħ¥": 1116,
      "æİ¨": 1117,
      "éĩįèĩ£": 1118,
      "éķ°ä»ĵ": 1119,
      "ä½ı": 1120,
      "æ³½": 1121,
      "éĴ": 1122,
      "è¿ĳæ±Ł": 1123,
      "å¸Ī": 1124,
      "åŃ¦": 1125,
      "ä»¥åıĬ": 1126,
      "å¾Ī": 1127,
      "å®Į": 1128,
      "æĺĵ": 1129,
      "154": 1130,
      "æľĢç»Ī": 1131,
      "ä¸ĩçŁ³": 1132,
      "å°¾å¼ł": 1133,
      "ä¿®": 1134,
      "å°ıçĶ°": 1135,
      "é²": 1136,
      "çĶ²æĸĲ": 1137,
      "åŀ": 1138,
      "åįĬ": 1139,
      "åīįå¾Ģ": 1140,
      "èī²": 1141,
      "è®¡": 1142,
      "ç¾½æŁ´": 1143,
      "å²Ĳ": 1144,
      "å¤§åĿĤ": 1145,
      "åķ": 1146,
      "ä¾į": 1147,
      "ç¤º": 1148,
      "ä¿¡æµĵ": 1149,
      "èĮĤ": 1150,
      "ä¼ĬåĬ¿": 1151,
      "å¿Ĺ": 1152,
      "æµ¦": 1153,
      "èº«ä»½": 1154,
      "å¯¼": 1155,
      "ç§ĭ": 1156,
      "å¼ķ": 1157,
      "å®½": 1158,
      "ä¾Ŀ": 1159,
      "éĻĦ": 1160,
      "éĻħ": 1161,
      "æŃ¤åĲİ": 1162,
      "æ¢": 1163,
      "å°±æĺ¯": 1164,
      "åĽ½äºº": 1165,
      "çĶ±äºİ": 1166,
      "æĴ¤": 1167,
      "éģĹ": 1168,
      "æĶ»åĩ»": 1169,
      "çŃīäºº": 1170,
      "å®īåľŁ": 1171,
      "æ´Ľ": 1172,
      "å¦»": 1173,
      "è´¤": 1174,
      "åĪĢ": 1175,
      "é¡»": 1176,
      "åĩºåħµ": 1177,
      "æĬµ": 1178,
      "éĹ®": 1179,
      "ä¸įè¿ĩ": 1180,
      "å»¶": 1181,
      "ç¹": 1182,
      "ç¹ģ": 1183,
      "æĭ¥": 1184,
      "é¸": 1185,
      "åĲĽ": 1186,
      "åĪĩ": 1187,
      "é£İ": 1188,
      "ä¸ļ": 1189,
      "æ£®": 1190,
      "ç»ĩçĶ°ä¿¡": 1191,
      "ç½®": 1192,
      "è¿Ļä¸Ģ": 1193,
      "åĽ¢": 1194,
      "åħīç§Ģ": 1195,
      "èĪ¹": 1196,
      "ä¼ı": 1197,
      "ç´": 1198,
      "æĹĹ": 1199,
      "éļıåĲİ": 1200,
      "éģ£": 1201,
      "è¶ĬåĲİ": 1202,
      "éĽĦ": 1203,
      "åħ·": 1204,
      "è¿Ķ": 1205,
      "æµħäºķ": 1206,
      "è¿Ľè¡Į": 1207,
      "åħ³åİŁ": 1208,
      "åĳĺ": 1209,
      "é¦Ĩ": 1210,
      "ä¹ĭä¸Ģ": 1211,
      "æĹ¶æľŁ": 1212,
      "å¤«": 1213,
      "æ¡¥": 1214,
      "ä¹Ŀå·ŀ": 1215,
      "ä»ĸä»¬": 1216,
      "20": 1217,
      "ç¥ĸ": 1218,
      "æľĽ": 1219,
      "éªĳ": 1220,
      "åłĤ": 1221,
      "åħ»åŃĲ": 1222,
      "éĹ»": 1223,
      "ï¼Ł": 1224,
      "éķ¿å°¾": 1225,
      "å®ª": 1226,
      "ä»ĭ": 1227,
      "æĸĭèĹ¤": 1228,
      "æ¸¡": 1229,
      "è¿İ": 1230,
      "è¿Ĳ": 1231,
      "éĢģ": 1232,
      "çĽĬ": 1233,
      "åħµåį«": 1234,
      "å±Ģ": 1235,
      "åĳĬ": 1236,
      "ä¾§": 1237,
      "èĥĮ": 1238,
      "èĮ¶": 1239,
      "çŃĸ": 1240,
      "éħį": 1241,
      "è±ª": 1242,
      "æŃ¦çĶ°ä¿¡çİĦ": 1243,
      "æĬ¥": 1244,
      "æ±ŁæĪ·æĹ¶ä»£": 1245,
      "éĵģ": 1246,
      "è½»": 1247,
      "ç«ĭèĬ±": 1248,
      "éļĲ": 1249,
      "åĩĨ": 1250,
      "æĦŁ": 1251,
      "èµ°": 1252,
      "èĤ¥": 1253,
      "çľŁçĶ°": 1254,
      "é²ľ": 1255,
      "åħ¬æĸ¹": 1256,
      "åľ°åĮº": 1257,
      "è´¨": 1258,
      "æ¯ĽåĪ©æ°ı": 1259,
      "åĨ²": 1260,
      "ä»ģ": 1261,
      "å·¦åį«éĹ¨": 1262,
      "åıĮ": 1263,
      "éĩı": 1264,
      "åĩºçĶŁ": 1265,
      "ĠçĶŁ": 1266,
      "ç§°ä¸º": 1267,
      "æĶ¯æĮģ": 1268,
      "éī": 1269,
      "éī´": 1270,
      "åįł": 1271,
      "çķłå±±": 1272,
      "æ¶Ī": 1273,
      "17": 1274,
      "æ¡ĥ": 1275,
      "çº³": 1276,
      "çħ": 1277,
      "æŀª": 1278,
      "ç»Łæ²»": 1279,
      "èı": 1280,
      "æ³ī": 1281,
      "çĶ°åŁİ": 1282,
      "ä¸ĢæĹı": 1283,
      "å¤ľ": 1284,
      "è¯¦": 1285,
      "æĶ¿æĿĥ": 1286,
      "å½ķ": 1287,
      "èħ": 1288,
      "æĸ¯": 1289,
      "æ¨¡": 1290,
      "è§Ĥ": 1291,
      "å¥īè¡Į": 1292,
      "ä¸īæĪĲ": 1293,
      "è¿«": 1294,
      "æľ«": 1295,
      "é¡º": 1296,
      "è´Łè´£": 1297,
      "åĪĹ": 1298,
      "è¶Ĭåīį": 1299,
      "å·²ç»ı": 1300,
      "åĦ¿åŃĲ": 1301,
      "åĵį": 1302,
      "è°±": 1303,
      "ç¿Į": 1304,
      "æŃ¤å¤ĸ": 1305,
      "æľĢåĲİ": 1306,
      "å®£": 1307,
      "å½±": 1308,
      "çº¿": 1309,
      "æĹ¥è¯Ń": 1310,
      "æķ´": 1311,
      "æľĿé²ľ": 1312,
      "å¤§å°Ĩ": 1313,
      "å¾ħ": 1314,
      "çĪ¶åŃĲ": 1315,
      "äººçī©": 1316,
      "ç§»": 1317,
      "çĻ»": 1318,
      "å·¥": 1319,
      "ãĥ»": 1320,
      "è¿ĻäºĽ": 1321,
      "åı¯èĥ½": 1322,
      "åĮħåĽ´": 1323,
      "çİĩé¢Ĩ": 1324,
      "æľĪåįģ": 1325,
      "å©": 1326,
      "å³": 1327,
      "ä¹Ī": 1328,
      "éķ¿æĶ¿": 1329,
      "çī¹": 1330,
      "æŃ¥": 1331,
      "æĺİæĻº": 1332,
      "éĢļè¿ĩ": 1333,
      "ç±³": 1334,
      "åĽĽå¹´": 1335,
      "ä¸¥": 1336,
      "æŃ¦çĶ°æ°ı": 1337,
      "éĩįè¦ģ": 1338,
      "è¾ħ": 1339,
      "æ¾": 1340,
      "ä¹ĭæĪĺä¸Ń": 1341,
      "åłĢ": 1342,
      "åĭĩ": 1343,
      "ä¹Ĳ": 1344,
      "åıĳçĶŁ": 1345,
      "æŃ»åĲİ": 1346,
      "åĩł": 1347,
      "ä¸Ĭæ´Ľ": 1348,
      "å«¡åŃĲ": 1349,
      "ä¸Ĭéĩİ": 1350,
      "å¹¡": 1351,
      "åİĭ": 1352,
      "æŀĹ": 1353,
      "èĥľèµĸ": 1354,
      "åĨĽäºĭ": 1355,
      "åĢĴ": 1356,
      "å¿ħ": 1357,
      "åĳ½ä»¤": 1358,
      "000": 1359,
      "æĳĦ": 1360,
      "éªıæ²³": 1361,
      "åķĨ": 1362,
      "å¤©ä¸ĭ": 1363,
      "ä¹ĭéĹ´": 1364,
      "å°ıçĶ°åİŁ": 1365,
      "é©»": 1366,
      "ä½ķ": 1367,
      "èĲ¥": 1368,
      "çļĨ": 1369,
      "æŃ¢": 1370,
      "ãģ®": 1371,
      "è¿Ļä¸ª": 1372,
      "æĶ¿å®Ĺ": 1373,
      "åı³åį«éĹ¨": 1374,
      "ä¹ĥ": 1375,
      "ä¸ĬæĿīè°¦ä¿¡": 1376,
      "éĶĭ": 1377,
      "è§Ħ": 1378,
      "è°ĥ": 1379,
      "æľ¯": 1380,
      "å®³": 1381,
      "å¨ģ": 1382,
      "åĶ": 1383,
      "çĪ±": 1384,
      "å°Ĭ": 1385,
      "è¾īåħĥ": 1386,
      "æŃ¦çĶ°å®¶": 1387,
      "è¥¿åĨĽ": 1388,
      "çº§": 1389,
      "è®¨ä¼Ĳ": 1390,
      "æ°Ķ": 1391,
      "å¾ģä¼Ĳ": 1392,
      "çĭ¬": 1393,
      "åı¶": 1394,
      "ä¿Ĭ": 1395,
      "æ¡ĥå±±": 1396,
      "æ¼": 1397,
      "é¢Ĩä¸»": 1398,
      "å¹¼": 1399,
      "çĨ": 1400,
      "ç®¡é¢Ĩ": 1401,
      "çĪĨ": 1402,
      "åģļ": 1403,
      "åħµåĬĽ": 1404,
      "åľ°æĸ¹": 1405,
      "æĹ©å·Ŀ": 1406,
      "ä»¥åĲİ": 1407,
      "åįģä¸Ģ": 1408,
      "153": 1409,
      "çħ§": 1410,
      "æ¶¯": 1411,
      "åħ¶ä¸Ń": 1412,
      "åħŃè§Ĵ": 1413,
      "çº·": 1414,
      "éĽª": 1415,
      "æ¡ĥå±±æĹ¶ä»£": 1416,
      "æİ§": 1417,
      "æĮ¥": 1418,
      "ä¸ŃåĽ½": 1419,
      "æŀĦ": 1420,
      "åĨ³å®ļ": 1421,
      "èĳĹ": 1422,
      "çĶļ": 1423,
      "æĸĩä¹¦": 1424,
      "ä¹ĺ": 1425,
      "æ¾Ħ": 1426,
      "å®īåľŁæ¡ĥå±±æĹ¶ä»£": 1427,
      "çĪĨåıĳ": 1428,
      "åīįçĶ°": 1429,
      "äºĶå¹´": 1430,
      "èĥ¤": 1431,
      "å¢ĥ": 1432,
      "æĦ¿å¯º": 1433,
      "é¢ĺ": 1434,
      "åº§": 1435,
      "æī©": 1436,
      "å°ıæĹ©å·Ŀ": 1437,
      "æĬķéĻį": 1438,
      "åĪĴ": 1439,
      "æ°¸æŃ£": 1440,
      "å»·": 1441,
      "åĩºçİ°": 1442,
      "åħį": 1443,
      "æľĪäºĮåįģ": 1444,
      "åĽº": 1445,
      "åıĤåĬł": 1446,
      "éĨ": 1447,
      "è¿¹": 1448,
      "åĢĻ": 1449,
      "èĮĥ": 1450,
      "åħĥé¾Ł": 1451,
      "ä½Ĳç«¹": 1452,
      "è®º": 1453,
      "æİĮ": 1454,
      "è¿°": 1455,
      "æĶ¿æ²»": 1456,
      "æĻ¯èĥľ": 1457,
      "èĻ½çĦ¶": 1458,
      "åĺ": 1459,
      "é»ĳçĶ°": 1460,
      "åİĨåı²": 1461,
      "åĿļ": 1462,
      "ä»»åĳ½": 1463,
      "ç»ĩçĶ°å®¶": 1464,
      "å®īèīº": 1465,
      "åħĦå¼Ł": 1466,
      "æľ¬æĦ¿å¯º": 1467,
      "äº§": 1468,
      "éĥ¨åĪĨ": 1469,
      "ç¤¼": 1470,
      "ä¹īåħĥ": 1471,
      "æĸĩç¦Ħ": 1472,
      "æģ¯": 1473,
      "å¾ĹåĪ°": 1474,
      "ç»Ħ": 1475,
      "åĨµ": 1476,
      "æł¼": 1477,
      "æħ": 1478,
      "æŃ¦çĶ°åĨĽ": 1479,
      "ç¬ł": 1480,
      "æ¿Ģ": 1481,
      "ĠçĶŁæ¶¯": 1482,
      "åı¸": 1483,
      "éĥ¨éĺŁ": 1484,
      "æīĢä»¥": 1485,
      "ä»Ĭå·Ŀæ°ı": 1486,
      "çĭŃ": 1487,
      "æ¸Ĳ": 1488,
      "å¼ĥ": 1489,
      "160": 1490,
      "ä¸ĢåĲĳ": 1491,
      "åı°": 1492,
      "æĪĳéĥ¨": 1493,
      "ä¼¤": 1494,
      "åı¦ä¸Ģ": 1495,
      "èĴ": 1496,
      "å®Ŀ": 1497,
      "å¤©æŃ£åįģ": 1498,
      "é¸Ł": 1499,
      "çĤ®": 1500,
      "ä¹ĭå¥³": 1501,
      "æľĿå»·": 1502,
      "ä¸ĬæĿīå®¶": 1503,
      "å§¬": 1504,
      "å®ĹæĪĳéĥ¨": 1505,
      "ç£": 1506,
      "ç¾½æŁ´ç§ĢåĲī": 1507,
      "åĸĦ": 1508,
      "è®¿": 1509,
      "è·Ł": 1510,
      "è¯´æ³ķ": 1511,
      "å¯¹ç«ĭ": 1512,
      "ä¹Łæĺ¯": 1513,
      "èİ·å¾Ĺ": 1514,
      "åı²æĸĻ": 1515,
      "æ¨ª": 1516,
      "çģŃäº¡": 1517,
      "æĸ½": 1518,
      "åįı": 1519,
      "è¯ģ": 1520,
      "åĨĻ": 1521,
      "æĢģ": 1522,
      "è¯Ŀ": 1523,
      "éĢĶ": 1524,
      "æ³°": 1525,
      "å®¤çĶºå¹ķåºľ": 1526,
      "éĢŁ": 1527,
      "æĺ¯æĪĺåĽ½æĹ¶ä»£": 1528,
      "ä½ľæĪĺ": 1529,
      "æļĹ": 1530,
      "ä½Ľ": 1531,
      "ä¾ĭ": 1532,
      "åĥ§": 1533,
      "æ²¼": 1534,
      "çĮ®": 1535,
      "å®¶æĹı": 1536,
      "èĥľå®¶": 1537,
      "å¯Ĩ": 1538,
      "ä»ķäºİ": 1539,
      "æĶ»æīĵ": 1540,
      "å¼Ĥ": 1541,
      "æĸ©": 1542,
      "éĺª": 1543,
      "åħ¶åŃĲ": 1544,
      "äº¤æĪĺ": 1545,
      "æī§": 1546,
      "éķ¿å®ĹæĪĳéĥ¨": 1547,
      "åľ°ä½į": 1548,
      "èµı": 1549,
      "äº«å¹´": 1550,
      "ç»ĩçĶ°åĨĽ": 1551,
      "æĪĺæĸĹ": 1552,
      "ç»§ç»Ń": 1553,
      "ç¬¬ä¸Ģ": 1554,
      "éĢĿ": 1555,
      "åĬĿ": 1556,
      "å±ħåŁİ": 1557,
      "å±±åĲį": 1558,
      "è§Ĩä¸º": 1559,
      "ä¸ľåĨĽ": 1560,
      "åĹ": 1561,
      "åĽŃ": 1562,
      "æ¿ĳ": 1563,
      "å¼¥": 1564,
      "åĪĽ": 1565,
      "ä¸įè¯¦": 1566,
      "åĢŁ": 1567,
      "åı¬": 1568,
      "æľŁéĹ´": 1569,
      "å¤§åĨĽ": 1570,
      "æķĳ": 1571,
      "å®ħ": 1572,
      "æĪĲåĬŁ": 1573,
      "åĥı": 1574,
      "ç®Ĺ": 1575,
      "éķ¿åŃĲ": 1576,
      "äºĭä»¶": 1577,
      "å²³": 1578,
      "è§ī": 1579,
      "æĹłæ³ķ": 1580,
      "å®¶èĢģ": 1581,
      "åĩºèº«": 1582,
      "éħĴ": 1583,
      "åĨįæ¬¡": 1584,
      "æĢ¥": 1585,
      "åı¯ä»¥": 1586,
      "æĪĺåĲİ": 1587,
      "èĪ¬": 1588,
      "æŁ´çĶ°": 1589,
      "åĲįä¸º": 1590,
      "ä»ĺ": 1591,
      "åıĳåĬ¨": 1592,
      "å±±åĨħ": 1593,
      "ç¨ĭ": 1594,
      "çŁ³çĶ°": 1595,
      "åįĴ": 1596,
      "ä¹ĭåıĺ": 1597,
      "æ¬¡åŃĲ": 1598,
      "æ´¾éģ£": 1599,
      "åĬłè´º": 1600,
      "è°Ī": 1601,
      "æĲ": 1602,
      "åıĮæĸ¹": 1603,
      "åĲīå·Ŀ": 1604,
      "æĶ»éĻ·": 1605,
      "å¼Łå¼Ł": 1606,
      "èª": 1607,
      "åĪ»": 1608,
      "å½±åĵį": 1609,
      "å°ĨåĨĽè¶³åĪ©ä¹ī": 1610,
      "ç§Ģå¿ł": 1611,
      "æĴŃ": 1612,
      "ä¸´": 1613,
      "ä¹İ": 1614,
      "åıĹåĪ°": 1615,
      "æŃĮ": 1616,
      "æ»¨": 1617,
      "è¿ĶåĽŀ": 1618,
      "çķª": 1619,
      "å¡": 1620,
      "å¤§éĺª": 1621,
      "åįģäºĮ": 1622,
      "éĻ¶": 1623,
      "ç»´": 1624,
      "æĴ¤éĢĢ": 1625,
      "å£°": 1626,
      "ä¼¼": 1627,
      "æ®µ": 1628,
      "æĳ©": 1629,
      "å¹³å®ļ": 1630,
      "åį°": 1631,
      "åĹ£": 1632,
      "ç¦ģ": 1633,
      "éĿł": 1634,
      "å¾Ĵ": 1635,
      "åĲĮçĽŁ": 1636,
      "ä½įäºİ": 1637,
      "ä»£å½ĵä¸»": 1638,
      "æı´åĨĽ": 1639,
      "åħĥäº²": 1640,
      "ä¸»åĲĽ": 1641,
      "éĩĩ": 1642,
      "æ²³åĨħ": 1643,
      "ç»Łä¸Ģ": 1644,
      "ä¸»è¦ģ": 1645,
      "èĥ½å¯º": 1646,
      "æ¸¸": 1647,
      "åĲ¬": 1648,
      "è¯·æ±Ĥ": 1649,
      "ç£¨": 1650,
      "åĸľå¤ļ": 1651,
      "å¹´éĹ´": 1652,
      "ä¸ĢçĽ´": 1653,
      "éĢłå¯º": 1654,
      "ä¸ĬæĿīæ°ı": 1655,
      "ä¸įä¹ħ": 1656,
      "çĮĽ": 1657,
      "é¾ĻéĢłå¯º": 1658,
      "æŃ¦çĶ°ä¿¡": 1659,
      "æĿĳä¸Ĭ": 1660,
      "è´µ": 1661,
      "æĺİæĻºåħīç§Ģ": 1662,
      "çĸĳ": 1663,
      "¾ä¸ĭ": 1664,
      "åĬłåħ¥": 1665,
      "éģŃåĪ°": 1666,
      "1582": 1667,
      "ä½ł": 1668,
      "å¯¹æĬĹ": 1669,
      "åĨľ": 1670,
      "æľ¬èĥ½å¯º": 1671,
      "å°Ĩåħ¶": 1672,
      "ä¾Ľ": 1673,
      "éº¾ä¸ĭ": 1674,
      "æµİ": 1675,
      "æ¬²": 1676,
      "ç»ĵæŀľ": 1677,
      "éŁ": 1678,
      "ç¿Įå¹´": 1679,
      "æĳĦæ´¥": 1680,
      "çĶ°æ°ı": 1681,
      "è¿Ļæł·": 1682,
      "è¿ľæ±Ł": 1683,
      "æĪĺäºī": 1684,
      "æŁ³": 1685,
      "è·ĥ": 1686,
      "éļĲå±ħ": 1687,
      "éĵģçĤ®": 1688,
      "èħ¹": 1689,
      "ï¼ģ": 1690,
      "æľĢä¸Ĭ": 1691,
      "æ¯ĽåĪ©åħĥå°±": 1692,
      "æŃ¦èĹı": 1693,
      "å¦¹": 1694,
      "è±ªæĹı": 1695,
      "ç¬łåİŁ": 1696,
      "è¿ģ": 1697,
      "é¥Ń": 1698,
      "æĸ¯æ³¢": 1699,
      "èĴ²": 1700,
      "åħŃå¹´": 1701,
      "æĭ¬": 1702,
      "ç¬¬äºĮ": 1703,
      "éķ¿åºĨ": 1704,
      "çķ¿": 1705,
      "æĿĤ": 1706,
      "åħ±åĲĮ": 1707,
      "éĺ³": 1708,
      "åģľ": 1709,
      "å®ĩåĸľå¤ļ": 1710,
      "é¹¿": 1711,
      "èĹ©ä¸»": 1712,
      "å¾·å·Ŀå®¶": 1713,
      "æĹ¥æľ¬æĪĺåĽ½æĹ¶ä»£": 1714,
      "åħ³åİŁä¹ĭæĪĺ": 1715,
      "åħ³äºİ": 1716,
      "å¥Ī": 1717,
      "éģĩ": 1718,
      "åįĹéĥ¨": 1719,
      "åĨĽéĺŁ": 1720,
      "åĩ»è´¥": 1721,
      "è¦ģæ±Ĥ": 1722,
      "å®¿": 1723,
      "çľ¼": 1724,
      "åħ¶ä»ĸ": 1725,
      "ä¸īäºº": 1726,
      "ç¥ŀç¤¾": 1727,
      "æĹ¶éĹ´": 1728,
      "åĺī": 1729,
      "å®ĩéĥ½": 1730,
      "æİĪ": 1731,
      "èģĶåĨĽ": 1732,
      "å¥ĭ": 1733,
      "æİ§åĪ¶": 1734,
      "ä½¿çĶ¨": 1735,
      "å¥³åĦ¿": 1736,
      "è¯¹": 1737,
      "æĥŁ": 1738,
      "å®ĩéĥ½å®«": 1739,
      "å¿«": 1740,
      "èįĴ": 1741,
      "åĪ¤": 1742,
      "ç©¶": 1743,
      "æ¼Ķ": 1744,
      "æŃ£å¼ı": 1745,
      "å®¹": 1746,
      "ä¹ĭéĺµ": 1747,
      "çī§": 1748,
      "æľ¬å¤ļ": 1749,
      "èį£": 1750,
      "æ°´åĨĽ": 1751,
      "ç¥Ĳ": 1752,
      "æĿŁ": 1753,
      "åĩºéĺµ": 1754,
      "ç»§æī¿å®¶çĿ£": 1755,
      "åĩĨå¤ĩ": 1756,
      "åĮħæĭ¬": 1757,
      "åĵģ": 1758,
      "å²¸": 1759,
      "åħĪéĶĭ": 1760,
      "æĪĺåĽ½å¤§åĲį": 1761,
      "åĪĿæľŁ": 1762,
      "åĻ": 1763,
      "è¶ģ": 1764,
      "æĪĺåĬŁ": 1765,
      "ç§Ģæ¬¡": 1766,
      "ä¼¯": 1767,
      "æĻ¯èĻİ": 1768,
      "è¯Ħ": 1769,
      "152": 1770,
      "è¿ĺæĺ¯": 1771,
      "èµŀ": 1772,
      "å®ĪæĬ¤ä»£": 1773,
      "å¯¼èĩ´": 1774,
      "è±¡": 1775,
      "ä¹ĭéĻħ": 1776,
      "æĻ´ä¿¡": 1777,
      "æĵ": 1778,
      "ä¼ĳ": 1779,
      "èĭ±": 1780,
      "è´¯": 1781,
      "æĸĩåĮĸ": 1782,
      "åįİ": 1783,
      "æĢĴ": 1784,
      "é¦Ļ": 1785,
      "å°Ħ": 1786,
      "å°ıç¬łåİŁ": 1787,
      "ç²¾": 1788,
      "èµ¤æĿ¾": 1789,
      "æ¥": 1790,
      "å±Ĥ": 1791,
      "æĭĴ": 1792,
      "éļĨæĻ¯": 1793,
      "ç¨»": 1794,
      "ä½¿èĢħ": 1795,
      "çĥĪ": 1796,
      "èµ´": 1797,
      "åħ«å¹´": 1798,
      "å®ŀéĻħ": 1799,
      "åı¤æ²³": 1800,
      "åĪ©å®¶": 1801,
      "æķĪ": 1802,
      "æĹ¶åĢĻ": 1803,
      "ä¼ĺ": 1804,
      "äº²èĩª": 1805,
      "æ¯ģ": 1806,
      "ä¸īéĥİ": 1807,
      "æ±łçĶ°": 1808,
      "å¤§åĨħä¹ī": 1809,
      "æĴŃç£¨": 1810,
      "äººè´¨": 1811,
      "ä¸ĥå¹´": 1812,
      "æĻļ": 1813,
      "çº¯": 1814,
      "æĮĩæĮ¥": 1815,
      "æ³·": 1816,
      "å±ķå¼Ģ": 1817,
      "ç¢": 1818,
      "èģĶåĲĪ": 1819,
      "ç¼ĸ": 1820,
      "ç§¯": 1821,
      "æ··": 1822,
      "æł¹æį®": 1823,
      "è¯¹è®¿": 1824,
      "éĢļç§°": 1825,
      "èĬĤ": 1826,
      "èįī": 1827,
      "è¡ĮåĬ¨": 1828,
      "åħļ": 1829,
      "åĬłèĹ¤": 1830,
      "å®½æ°¸": 1831,
      "è¶Ĭä¸Ń": 1832,
      "çĶ±æŃ¤": 1833,
      "1600": 1834,
      "åŃ£": 1835,
      "èĲ¨": 1836,
      "è±Ĩ": 1837,
      "å¦ĤæŃ¤": 1838,
      "çŁ³çĶ°ä¸īæĪĲ": 1839,
      "è´¸": 1840,
      "å¼¹": 1841,
      "å«ģ": 1842,
      "ä¹īæĺŃ": 1843,
      "æ°ıå®¶èĩ£": 1844,
      "æ¤": 1845,
      "èĬ¦": 1846,
      "å®¶ä¸Ń": 1847,
      "çĽĳ": 1848,
      "ç²®": 1849,
      "æºĥ": 1850,
      "æĪĺåľº": 1851,
      "åºķ": 1852,
      "å¹²": 1853,
      "åħĦéķ¿": 1854,
      "æľīä¸Ģ": 1855,
      "ä¹ħç§Ģ": 1856,
      "è®°å½ķ": 1857,
      "éĢī": 1858,
      "çķĮ": 1859,
      "å¼ĵ": 1860,
      "ï¼į": 1861,
      "ä¸Ģåº¦": 1862,
      "å¦Ļ": 1863,
      "éĢ¼": 1864,
      "æ´»è·ĥ": 1865,
      "æį®çĤ¹": 1866,
      "æĭľ": 1867,
      "å¾¡æīĢ": 1868,
      "åĨ¬": 1869,
      "æģ¶": 1870,
      "æ¯ĽåĪ©å®¶": 1871,
      "è¾ĥ": 1872,
      "ä½Ĳä¹ħ": 1873,
      "ä¹Ŀå¹´": 1874,
      "ãģ«": 1875,
      "éĻĦè¿ĳ": 1876,
      "éĺ¶": 1877,
      "åįķ": 1878,
      "æŃ£å®¤": 1879,
      "å¿į": 1880,
      "éĻ·åħ¥": 1881,
      "ç½Ĺ": 1882,
      "çīĩ": 1883,
      "ä¸ĢåĲĳä¸ĢæıĨ": 1884,
      "ä¸Ģèµ·": 1885,
      "æ²¿": 1886,
      "é¢Ĩæľī": 1887,
      "éĺ¿æ³¢": 1888,
      "èĦ±": 1889,
      "çİĩåĨĽ": 1890,
      "è½®": 1891,
      "è£ħ": 1892,
      "çĨĬ": 1893,
      "è°ĵ": 1894,
      "è®³": 1895,
      "æłĩ": 1896,
      "åĿĩ": 1897,
      "ä¹īå¼ĺ": 1898,
      "è¡°": 1899,
      "æĻ´åħĥ": 1900,
      "åĩºäºĳ": 1901,
      "çł¦": 1902,
      "ç¦ıå²Ľ": 1903,
      "åĻ¨": 1904,
      "æ´²": 1905,
      "è´¸æĺĵ": 1906,
      "å¥Ķ": 1907,
      "å±ŀäºİ": 1908,
      "å¥ĩ": 1909,
      "éľĢ": 1910,
      "éĩĮè§ģ": 1911,
      "çŃĶ": 1912,
      "åįĩ": 1913,
      "èĢĥ": 1914,
      "ä¸įæĺ¯": 1915,
      "åİŁæľ¬": 1916,
      "æķĮåĨĽ": 1917,
      "å¼±": 1918,
      "ä¹ĭä¸ĭ": 1919,
      "åºŁ": 1920,
      "ä¸įå¾Ĺ": 1921,
      "éĺ»": 1922,
      "æĶ¯éħį": 1923,
      "ç§Ģèµĸ": 1924,
      "éĩİæ°ı": 1925,
      "ä»Ĭå·Ŀä¹īåħĥ": 1926,
      "åŁŁ": 1927,
      "æĿ¾æ°¸": 1928,
      "23": 1929,
      "ç¨Ļ": 1930,
      "åŀ£": 1931,
      "ä»·": 1932,
      "éĺģ": 1933,
      "æĿĥåĬĽ": 1934,
      "ç±»": 1935,
      "åħ¶åĲİ": 1936,
      "è¡Ģ": 1937,
      "æĬµæĬĹ": 1938,
      "ä¹ĭå½¹": 1939,
      "è´¢": 1940,
      "æ£Ģ": 1941,
      "åĩ»éĢĢ": 1942,
      "æ¹": 1943,
      "åį·": 1944,
      "è¯ķ": 1945,
      "äºĶéĥİ": 1946,
      "æĭ¥æľī": 1947,
      "ç»ĵåŁİ": 1948,
      "åº¶": 1949,
      "åŁİä¸ĭ": 1950,
      "åŁİä¹ĭæĪĺ": 1951,
      "å¨¶": 1952,
      "é«ĺåĽ½": 1953,
      "é£ŀ": 1954,
      "ä¸°åĲİ": 1955,
      "è¯ļ": 1956,
      "åıĶ": 1957,
      "åĲĦåľ°": 1958,
      "é¦ĸçº§": 1959,
      "é¢ĨåĽ½": 1960,
      "ä¹ĭå¼Ł": 1961,
      "æĸĩæĺİ": 1962,
      "å»ºç«ĭ": 1963,
      "æĶ¯æı´": 1964,
      "çĶ»": 1965,
      "æµª": 1966,
      "åıĤæĪĺ": 1967,
      "è¿Ļç§į": 1968,
      "è£Ĥ": 1969,
      "25": 1970,
      "çİī": 1971,
      "å¢ĵ": 1972,
      "æŁ´çĶ°èĥľå®¶": 1973,
      "ä¸ĭä»¤": 1974,
      "èµĸæľĿ": 1975,
      "å¯Ħ": 1976,
      "åį¿": 1977,
      "è¿ĽåĨĽ": 1978,
      "åĤ": 1979,
      "æĺİæ²»": 1980,
      "éĢĲæ¸Ĳ": 1981,
      "æŃ¦çĶ°èĥľèµĸ": 1982,
      "çŃĳåīį": 1983,
      "èĢĮæĺ¯": 1984,
      "æ¬¡éĥİ": 1985,
      "éĹ®é¢ĺ": 1986,
      "ä½Ĳä½Ĳ": 1987,
      "èµĲè±«": 1988,
      "æ³¨": 1989,
      "ä¸¹æ³¢": 1990,
      "å®Įåħ¨": 1991,
      "æľ¬éĺµ": 1992,
      "21": 1993,
      "æīĩ": 1994,
      "åĩºä»ķ": 1995,
      "å°Ĭæ°ı": 1996,
      "æĢĢ": 1997,
      "æį®è¯´": 1998,
      "æŃ¦å®¶": 1999,
      "ç«Ł": 2000,
      "ç¨³": 2001,
      "ç»į": 2002,
      "æİ¥åıĹ": 2003,
      "ä¹Łæľī": 2004,
      "åľŁä½Ĳ": 2005,
      "åģı": 2006,
      "ä»ª": 2007,
      "æķ£": 2008,
      "åı¯è§ģ": 2009,
      "æıĲåĩº": 2010,
      "æĥħåĨµ": 2011,
      "ä¼ıè§ģ": 2012,
      "åĩºå®¶": 2013,
      "å¤±åİ»": 2014,
      "ç©º": 2015,
      "å¾Ĺä»¥": 2016,
      "åĽĽåĽ½": 2017,
      "éĴ±": 2018,
      "èµ¶": 2019,
      "çĥ§": 2020,
      "èľ": 2021,
      "å§»": 2022,
      "éģĵéĽª": 2023,
      "æį¢": 2024,
      "çĶļèĩ³": 2025,
      "å®ĮæĪĲ": 2026,
      "éĻ·èĲ½": 2027,
      "éĿĴ": 2028,
      "èĩ³æ±ŁæĪ·æĹ¶ä»£": 2029,
      "å½¢æĪĲ": 2030,
      "é¬": 2031,
      "22": 2032,
      "å½ĵåľ°": 2033,
      "çĽ´æİ¥": 2034,
      "åı¦ä¸Ģæĸ¹éĿ¢": 2035,
      "éĤ¸": 2036,
      "æİĴ": 2037,
      "ãģĹ": 2038,
      "ç½²": 2039,
      "åįĥä»£": 2040,
      "æľ¬èĥ½å¯ºä¹ĭåıĺ": 2041,
      "æĢĿ": 2042,
      "èĹ¤åİŁ": 2043,
      "ç»Īäºİ": 2044,
      "ç«ĭä¸ĭ": 2045,
      "å¤§åĨħæ°ı": 2046,
      "æµĭ": 2047,
      "éŁ³": 2048,
      "æĹ¢": 2049,
      "ä¹ĭåīį": 2050,
      "åįĥçŁ³": 2051,
      "ç½ª": 2052,
      "åŁİæ±ł": 2053,
      "150": 2054,
      "æ¯įäº²": 2055,
      "æı¡": 2056,
      "ä»Ļ": 2057,
      "å¯¿": 2058,
      "æĭĽ": 2059,
      "æĶ»çķ¥": 2060,
      "å°ıå±±": 2061,
      "éļıçĿĢ": 2062,
      "ä¹ĭä½į": 2063,
      "åŁİåĨħ": 2064,
      "å¿µ": 2065,
      "æ¯ĽåĪ©åĨĽ": 2066,
      "æī©å¼ł": 2067,
      "ä¸įæ»¡": 2068,
      "åĽĽéĥİ": 2069,
      "è¡¨ç¤º": 2070,
      "åºĶä»ģ": 2071,
      "å·¦åı³": 2072,
      "æºĲæ°ı": 2073,
      "çªģçĦ¶": 2074,
      "åħģ": 2075,
      "é¼": 2076,
      "æĹĹæľ¬": 2077,
      "æĿĲ": 2078,
      "åĨįåº¦": 2079,
      "çŁ¢": 2080,
      "æĭ¥ç«ĭ": 2081,
      "éĻĲ": 2082,
      "ç¯": 2083,
      "çŁ³å·Ŀ": 2084,
      "é¬¼": 2085,
      "æł¸": 2086,
      "éºŁ": 2087,
      "ç¬Ķ": 2088,
      "ä¸¹ç¾½": 2089,
      "èĤ¥åĲİ": 2090,
      "çı": 2091,
      "æĬĺ": 2092,
      "èĴ²çĶŁ": 2093,
      "èĬ¦åĲį": 2094,
      "å®ĹèĮĤ": 2095,
      "åį±": 2096,
      "ä¹īåħī": 2097,
      "éĵ¶": 2098,
      "éĺ´": 2099,
      "çĽĲ": 2100,
      "æŃ¤äºĭ": 2101,
      "æĭĴç»Ŀ": 2102,
      "24": 2103,
      "æģ©": 2104,
      "æĪĺå½¹": 2105,
      "åĮĹæĿ¡å®¶": 2106,
      "åĪļ": 2107,
      "çĽ¸æ¨¡": 2108,
      "å¹¶ä¸Ķ": 2109,
      "æ®ĭ": 2110,
      "å¤ªçĶ°": 2111,
      "å¸Į": 2112,
      "åĪĩèħ¹": 2113,
      "ç§ģ": 2114,
      "éģĵä¸ī": 2115,
      "ä¸Ģæĸ¹": 2116,
      "åĨħéĥ¨": 2117,
      "åıĸå¾Ĺ": 2118,
      "æİ¢": 2119,
      "è¿½åĩ»": 2120,
      "å´©": 2121,
      "æĭī": 2122,
      "åħ¶çĪ¶": 2123,
      "ç¦ħ": 2124,
      "æ¸ħæŃ£": 2125,
      "ä»»åĳ½ä¸º": 2126,
      "å©ļ": 2127,
      "åĨħèĹ¤": 2128,
      "è¶³åĪ©ä¹īæĺŃ": 2129,
      "ä¸īæĹ¥": 2130,
      "ãģ¨": 2131,
      "ä¸ĢæĿ¡": 2132,
      "å¤ºåıĸ": 2133,
      "æĥł": 2134,
      "çŃĴ": 2135,
      "æĽ¿": 2136,
      "ä¹īä¹ħ": 2137,
      "æ¶Īæģ¯": 2138,
      "ç¼ĺ": 2139,
      "çłĶ": 2140,
      "èİ·èµĲ": 2141,
      "åĨĪå´İ": 2142,
      "è®¸å¤ļ": 2143,
      "åı«": 2144,
      "è§Ħæ¨¡": 2145,
      "å¸ĥéĺµ": 2146,
      "éĢĥå¾Ģ": 2147,
      "è¾ŀ": 2148,
      "ä¾įå¥ī": 2149,
      "å¹¶éĿŀ": 2150,
      "å°ī": 2151,
      "ä¸ĢéĹ¨": 2152,
      "å®¤çĶºæĹ¶ä»£": 2153,
      "åħħ": 2154,
      "æ´»åĬ¨": 2155,
      "èĭ¦": 2156,
      "æļĤ": 2157,
      "èĽ": 2158,
      "åĲ¦": 2159,
      "è¯Ĩ": 2160,
      "èģļ": 2161,
      "ç»§æī¿äºº": 2162,
      "æģĴ": 2163,
      "æĿĢå®³": 2164,
      "èĥľåĪ©": 2165,
      "ä¸īåįģ": 2166,
      "æ³·å·Ŀ": 2167,
      "åı¦å¤ĸ": 2168,
      "è®¡åĪĴ": 2169,
      "ä¼Ĭä¸ľ": 2170,
      "ç»ıè¿ĩ": 2171,
      "æĿ¿": 2172,
      "28": 2173,
      "åħ¥ä¾µ": 2174,
      "å¤©æĸĩåįģ": 2175,
      "äº¦æľī": 2176,
      "æĶ¿åħĥ": 2177,
      "åıĽä¹±": 2178,
      "ç«Ļ": 2179,
      "åıªæĺ¯": 2180,
      "æ¯ĽåĪ©è¾īåħĥ": 2181,
      "æľªèĥ½": 2182,
      "åĳ¼": 2183,
      "åĳ¨è¾¹": 2184,
      "å°§": 2185,
      "ä¸ĬæĿīæĻ¯èĥľ": 2186,
      "éĢ¸": 2187,
      "åľŁå²Ĳ": 2188,
      "1590": 2189,
      "å²Ľæ´¥å®¶": 2190,
      "åĲİåĮĹæĿ¡æ°ı": 2191,
      "ç¦»å¼Ģ": 2192,
      "æ¯ı": 2193,
      "ä¼Ĭè±Ĩ": 2194,
      "ä¹ĭåĲį": 2195,
      "ç§ĳ": 2196,
      "çĵ": 2197,
      "åĽ½åĨħ": 2198,
      "ä¹ĭåĳ½": 2199,
      "ä¸Ģå¸¦": 2200,
      "åĲĮæł·": 2201,
      "åįĥäºº": 2202,
      "ä¸ĢçĽĬ": 2203,
      "ä¸įæĺİ": 2204,
      "ä¸ĭéĩİ": 2205,
      "éĥ½æĺ¯": 2206,
      "æĪĺä¸Ń": 2207,
      "éĤ»": 2208,
      "èĨ": 2209,
      "ç¥ĸçĪ¶": 2210,
      "è¿Ļæĺ¯": 2211,
      "ä¸ĢæĹ¥": 2212,
      "ä¸Ńå²Ľ": 2213,
      "å¼ĺæ²»": 2214,
      "èĤ¥åīį": 2215,
      "æ½": 2216,
      "ä¾µæĶ»": 2217,
      "åīĳ": 2218,
      "ä¸ĸçºª": 2219,
      "ä»Ĭå·Ŀå®¶": 2220,
      "åĲīçĶ°": 2221,
      "å©¿": 2222,
      "ç®Ń": 2223,
      "åĽ½ä¼Ĺ": 2224,
      "æĹ¥åĲĳ": 2225,
      "ç»ĺ": 2226,
      "åıĳå±ķ": 2227,
      "å¯¹äºİ": 2228,
      "çŁ¥è¡Į": 2229,
      "çĹħéĢĿ": 2230,
      "ä¸ĵ": 2231,
      "ãģŁ": 2232,
      "ãģĦ": 2233,
      "å®ĹéºŁ": 2234,
      "æ¡¶": 2235,
      "åıĳèµ·": 2236,
      "åĿĬ": 2237,
      "äºķä¼Ĭ": 2238,
      "éģ¿": 2239,
      "æĮģç»Ń": 2240,
      "æł¸å¿ĥ": 2241,
      "åħĭ": 2242,
      "æľĢåĪĿ": 2243,
      "ä¸ĢèĪ¬": 2244,
      "ä½įä¸ĭ": 2245,
      "æĶ¹åĲį": 2246,
      "æ±¤": 2247,
      "æĮī": 2248,
      "åħ«æľĪ": 2249,
      "å¸ĮæľĽ": 2250,
      "ä»Ģ": 2251,
      "å®ŀåĬĽ": 2252,
      "æ´¾åĩº": 2253,
      "ç´§": 2254,
      "èĥģ": 2255,
      "å²Ľæ´¥æ°ı": 2256,
      "ç¬¬ä¸ī": 2257,
      "ä¸¾åħµ": 2258,
      "èĩ³å®īåľŁæ¡ĥå±±æĹ¶ä»£": 2259,
      "è¿ĺæľī": 2260,
      "å¸¸éĻĨ": 2261,
      "æĮĩåĩº": 2262,
      "åŃĲåŃĻ": 2263,
      "åħĥæĺ¥": 2264,
      "åĩłä¹İ": 2265,
      "æĹĭ": 2266,
      "ä¼Ĭè´º": 2267,
      "äº¬æŀģ": 2268,
      "æľīåĬĽ": 2269,
      "å¾·å·ĿåĨĽ": 2270,
      "åĽ°": 2271,
      "å¯Ł": 2272,
      "ä»Ģä¹Ī": 2273,
      "ä¼Ĭè¾¾æĶ¿å®Ĺ": 2274,
      "å¤§æ°¸": 2275,
      "äºĶæľĪ": 2276,
      "Ġäººçī©": 2277,
      "ä¼ļæ´¥": 2278,
      "ä¸Ģè¯´": 2279,
      "éĢĶä¸Ń": 2280,
      "æĪĺè´¥": 2281,
      "çķĻä¸ĭ": 2282,
      "è¡¥": 2283,
      "åħ«å¹¡": 2284,
      "åįıåĬ©": 2285,
      "äºĶæĹ¥": 2286,
      "ä¸īæľĪ": 2287,
      "å¤ĸäº¤": 2288,
      "åĩºä»»": 2289,
      "ä¿ĥ": 2290,
      "æµģæĶ¾": 2291,
      "ä¸įåĲĮ": 2292,
      "ä¸ĢæŃ¥": 2293,
      "çłĶç©¶": 2294,
      "ä¸»åĬĽ": 2295,
      "ä¸ĬæĿīå®ª": 2296,
      "è°ĭåıį": 2297,
      "ä¸īäººä¼Ĺ": 2298,
      "æĺİåºĶ": 2299,
      "åĮĹæĿ¡æ°ıåº·": 2300,
      "ç»ıæµİ": 2301,
      "æĺĮå¹¸": 2302,
      "åħ³çĻ½": 2303,
      "æĿĳéĩį": 2304,
      "è¯¸å°Ĩ": 2305,
      "æĬµè¾¾": 2306,
      "åĪĳ": 2307,
      "äºĶåįģ": 2308,
      "éķ¿ç§Ģ": 2309,
      "å¤§åĿĤåŁİ": 2310,
      "é£Ł": 2311,
      "åħĥæľį": 2312,
      "149": 2313,
      "ç«ĭåį³": 2314,
      "çĽ´æĶ¿": 2315,
      "ä½Ĳä¹ħéĹ´": 2316,
      "ç»ĵæĿŁ": 2317,
      "å¤ªéĥİ": 2318,
      "ä¹ĭä¸Ń": 2319,
      "æĻ®": 2320,
      "åħ¸": 2321,
      "åĩı": 2322,
      "èĲ¨æĳ©": 2323,
      "1570": 2324,
      "ä¹ħä¿Ŀ": 2325,
      "å¤ĩä¸Ń": 2326,
      "æīĺ": 2327,
      "åħŃæľĪ": 2328,
      "ä¼łè¯´": 2329,
      "å¤ĩåīį": 2330,
      "ä»¥æĿ¥": 2331,
      "å®ĺä½į": 2332,
      "ç¾¤": 2333,
      "ä¸ĬæĿīåĨĽ": 2334,
      "åĳ¨éĺ²": 2335,
      "åħ¨éĥ¨": 2336,
      "ä¹ĿæľĪ": 2337,
      "æŃ»åİ»": 2338,
      "èĳ¬": 2339,
      "å°¾å¼łåĽ½": 2340,
      "ç»ĩçĶ°æ°ı": 2341,
      "åºµ": 2342,
      "åĪĥ": 2343,
      "åıªæľī": 2344,
      "å£«åħµ": 2345,
      "ä¸¾è¡Į": 2346,
      "çĭŃéĹ´": 2347,
      "åİŁåĽł": 2348,
      "å°Ĩé¢Ĩ": 2349,
      "åħ³ä¸ľç®¡é¢Ĩ": 2350,
      "å®Īå¤ĩ": 2351,
      "å®Ĺå®¶": 2352,
      "å¹¶äºİ": 2353,
      "å¹´ä¸įè¯¦": 2354,
      "ä¸įåı¯": 2355,
      "çŁ³è§ģ": 2356,
      "ä¸įä»ħ": 2357,
      "é©±": 2358,
      "å«¡çĶ·": 2359,
      "å¤ºåĽŀ": 2360,
      "éĿŀå¸¸": 2361,
      "åī²": 2362,
      "ç»§ä»»": 2363,
      "èĩªå°½": 2364,
      "éĺľ": 2365,
      "é¢ģ": 2366,
      "å¸Ń": 2367,
      "è¢Ńåĩ»": 2368,
      "åĪº": 2369,
      "æīĩè°·": 2370,
      "éķ¿æľŁ": 2371,
      "å¾ĹçŁ¥": 2372,
      "éľ¸": 2373,
      "å±¡": 2374,
      "çºªä¼Ĭ": 2375,
      "åıĶçĪ¶": 2376,
      "å½¦": 2377,
      "èĩªæĿĢ": 2378,
      "åī§": 2379,
      "åı¤æ²³åħ¬æĸ¹": 2380,
      "è¾¾æĪĲ": 2381,
      "å±±åı£": 2382,
      "ãĢİ": 2383,
      "åłº": 2384,
      "ä¸ĥæľĪ": 2385,
      "ä¸įèĥ½": 2386,
      "ç¬¼": 2387,
      "åºĵ": 2388,
      "å¹¶æľª": 2389,
      "ãĢı": 2390,
      "åīįæĿ¥": 2391,
      "åįģåĪĨ": 2392,
      "éķĩåİĭ": 2393,
      "ç»³": 2394,
      "é¡¾": 2395,
      "ç¡Ģ": 2396,
      "åİļ": 2397,
      "ä¸¤å®¶": 2398,
      "åĮĹæľĿ": 2399,
      "ãģ¯": 2400,
      "å¤±è´¥": 2401,
      "26": 2402,
      "æľ¬äºº": 2403,
      "å²Ĳéĺľ": 2404,
      "ä¸Ģæł·": 2405,
      "éļĨä¿¡": 2406,
      "æİ¨æµĭ": 2407,
      "åĲİä¸ĸ": 2408,
      "âĢ¦": 2409,
      "çĬ¬": 2410,
      "åĬłä¸Ĭ": 2411,
      "ä¼Ĭè±«": 2412,
      "è¿ħ": 2413,
      "éĻĨå¥¥": 2414,
      "éĨį": 2415,
      "ä»²": 2416,
      "åıĳçİ°": 2417,
      "ä¹īæĻ¯": 2418,
      "è¡£": 2419,
      "1573": 2420,
      "ä¸Ńå¿ĥ": 2421,
      "æ¶ī": 2422,
      "çŃĴäºķ": 2423,
      "å®¶èĩ£åĽ¢": 2424,
      "æ°ıçŃī": 2425,
      "çķ¿åĨħ": 2426,
      "çĽ¸å½ĵ": 2427,
      "éĨĲ": 2428,
      "éĨįéĨĲ": 2429,
      "åĩºå¾ģ": 2430,
      "éĿĻ": 2431,
      "æİĮæı¡": 2432,
      "èľĤ": 2433,
      "èµł": 2434,
      "ç§Ģéķ¿": 2435,
      "å°ıæĹ©å·ĿéļĨæĻ¯": 2436,
      "åĿĲ": 2437,
      "åĽŀåĪ°": 2438,
      "æ¡¶çĭŃéĹ´": 2439,
      "å¤§èĩ£": 2440,
      "è°±ä»£": 2441,
      "åĪ©çĶ¨": 2442,
      "ä½Ļäºº": 2443,
      "è´¡": 2444,
      "è¸": 2445,
      "åĽĽæľĪ": 2446,
      "ç»ıåİĨ": 2447,
      "æģĲ": 2448,
      "æķĮäºº": 2449,
      "å¤·": 2450,
      "æĥĬ": 2451,
      "èªī": 2452,
      "äº²çİĭ": 2453,
      "åŁºç¡Ģ": 2454,
      "èĥ½çĻ»": 2455,
      "è¯ķåĽ¾": 2456,
      "çķĻå®Ī": 2457,
      "åħ¶å®ŀ": 2458,
      "å°¾åŁİ": 2459,
      "æĥ¨": 2460,
      "ä¸°åīį": 2461,
      "å¥¥å·ŀ": 2462,
      "çĽ¸èī¯": 2463,
      "æĽ²": 2464,
      "éķ¿ä¹ħ": 2465,
      "ä¸ĥæĹ¥": 2466,
      "è¾ħä½Ĳ": 2467,
      "é¡»è´º": 2468,
      "ç«¯": 2469,
      "åıįå¯¹": 2470,
      "æĶ¿çŃĸ": 2471,
      "åīįåĲİ": 2472,
      "é«ĺæ¡¥": 2473,
      "å¤§åıĭæ°ı": 2474,
      "è¯ī": 2475,
      "åĩºåıĳ": 2476,
      "ä¸ĭæĢ»": 2477,
      "ä¹ł": 2478,
      "æĪĺäºĭ": 2479,
      "å¹¶ä¸į": 2480,
      "æļ´": 2481,
      "äºĮæĿ¡": 2482,
      "éĩįæĸ°": 2483,
      "çĭ¬ç«ĭ": 2484,
      "å·¨": 2485,
      "å°¤": 2486,
      "åłµ": 2487,
      "äº®": 2488,
      "åĭĺ": 2489,
      "èµ·æĿ¥": 2490,
      "æķĳæı´": 2491,
      "åĩŃ": 2492,
      "è¯¯": 2493,
      "æĶ¹æĺĵ": 2494,
      "å¥ĭæĪĺ": 2495,
      "åĨ¢": 2496,
      "æĿ¡ä»¶": 2497,
      "æĿ¾æ°¸ä¹ħç§Ģ": 2498,
      "èĩªç§°": 2499,
      "åįļ": 2500,
      "27": 2501,
      "åĽłèĢĮ": 2502,
      "æĭĶ": 2503,
      "è¿ĳæ±ŁåĽ½": 2504,
      "äºĴ": 2505,
      "åĶ¯": 2506,
      "ãģ¦": 2507,
      "æĶ»åħ¥": 2508,
      "åºŃ": 2509,
      "å¼ĢåŁİ": 2510,
      "éªıåºľ": 2511,
      "åľ£": 2512,
      "åħ«æĹ¥": 2513,
      "å±±åİ¿": 2514,
      "å¦Ĥæŀľ": 2515,
      "äºĮäºº": 2516,
      "å¤§åıĭå®¶": 2517,
      "ä½İ": 2518,
      "è¶³è½»": 2519,
      "èªĵ": 2520,
      "å¤ı": 2521,
      "è£Ķ": 2522,
      "ç¾İæµĵåĽ½": 2523,
      "æįŁ": 2524,
      "ä¹¦ä¿¡": 2525,
      "çĿ¦": 2526,
      "ãĤĭ": 2527,
      "éĻ©": 2528,
      "åĢ¼": 2529,
      "1578": 2530,
      "åĩºç¾½": 2531,
      "1585": 2532,
      "é¹¤": 2533,
      "å°¼åŃĲæ°ı": 2534,
      "å±±ä¸Ń": 2535,
      "å¤©çİĭ": 2536,
      "èĪį": 2537,
      "èĪŀ": 2538,
      "èıĬ": 2539,
      "åĩºèĩª": 2540,
      "ä»ĩ": 2541,
      "çĽ¾": 2542,
      "30": 2543,
      "å¸®": 2544,
      "å·®": 2545,
      "åŀĭ": 2546,
      "æŁĲ": 2547,
      "å¤Ł": 2548,
      "è¯ł": 2549,
      "åıĻ": 2550,
      "éħĴäºķ": 2551,
      "éĺ²å¾¡": 2552,
      "1575": 2553,
      "åįģä¸Ģå¹´": 2554,
      "åįĹæľĿ": 2555,
      "å±ĭåŁİ": 2556,
      "åĩĢ": 2557,
      "éĺµèĲ¥": 2558,
      "åľĨ": 2559,
      "å°ıéĩİ": 2560,
      "å¤ĩåĲİ": 2561,
      "è¿ħéĢŁ": 2562,
      "åĪ¶åº¦": 2563,
      "éľ²": 2564,
      "åıĬåħ¶": 2565,
      "ä½¿å¾Ĺ": 2566,
      "ä»¥ä¸ĭ": 2567,
      "ãģĭ": 2568,
      "æĿ¾åŁİ": 2569,
      "è®¨åıĸ": 2570,
      "1584": 2571,
      "ç¨»åı¶": 2572,
      "æľ¨ä¸ĭ": 2573,
      "åģıè®³": 2574,
      "ä¸¤ä¸ª": 2575,
      "ä¹ĿæĹ¥": 2576,
      "æŃ£æĺ¯": 2577,
      "éĶħ": 2578,
      "å®ļä¸º": 2579,
      "èĻĳ": 2580,
      "æįķ": 2581,
      "çŁ³å±±": 2582,
      "æ¡Ĥ": 2583,
      "ç¼º": 2584,
      "29": 2585,
      "åĬŀ": 2586,
      "å½»": 2587,
      "ä¿Ĺ": 2588,
      "ä¸°èĩ£æĶ¿æĿĥ": 2589,
      "å»ºçŃĳ": 2590,
      "åīįçĶ°åĪ©å®¶": 2591,
      "åĽĽæĹ¥": 2592,
      "è¯±": 2593,
      "äºīå¤º": 2594,
      "éĽ¨": 2595,
      "æŃ£åĪĻ": 2596,
      "é¢ĨåĨħ": 2597,
      "æĪĲæĶ¿": 2598,
      "è¿Ļæ¬¡": 2599,
      "ãĤĴ": 2600,
      "èŃ": 2601,
      "çģµ": 2602,
      "ä¸īæ²³åĽ½": 2603,
      "åħĪåĲİ": 2604,
      "çīĽ": 2605,
      "è½¬å°ģ": 2606,
      "è¡¨çİ°": 2607,
      "çºµ": 2608,
      "ç®Ģ": 2609,
      "åĲĮæĹı": 2610,
      "éĿ¢å¯¹": 2611,
      "ç½ĳ": 2612,
      "å¤§å¤«": 2613,
      "ä¸°èĩ£å®¶": 2614,
      "æłĭ": 2615,
      "ä¸īæµ¦": 2616,
      "åħ¬å®¶": 2617,
      "åŁİä¸Ń": 2618,
      "æģ¢": 2619,
      "çŃĳåĲİ": 2620,
      "æ¢ħ": 2621,
      "åĲİæľŁ": 2622,
      "èĢĮä¸Ķ": 2623,
      "æĹ©äºĳ": 2624,
      "å¾·å·Ŀç§Ģå¿ł": 2625,
      "éĶĻ": 2626,
      "æľºä¼ļ": 2627,
      "æµħéĩİ": 2628,
      "èŃ¦": 2629,
      "åĲįåŃĹ": 2630,
      "ä¾¿æĺ¯": 2631,
      "æģ¢å¤į": 2632,
      "åįģæľĪ": 2633,
      "åĪĨåĪ«": 2634,
      "ç»ľ": 2635,
      "æĻ´è´¤": 2636,
      "ä¸īå¥½éķ¿åºĨ": 2637,
      "æ´¥åŁİ": 2638,
      "ä»£è¡¨": 2639,
      "äºĮæĹ¥": 2640,
      "1568": 2641,
      "é¢Ħ": 2642,
      "èĩªèº«": 2643,
      "å¤ļæ¬¡": 2644,
      "çīµ": 2645,
      "æĺ¯ä¸Ģ": 2646,
      "åĮĹçķł": 2647,
      "åĶĲ": 2648,
      "é«ĺèĻİ": 2649,
      "1569": 2650,
      "åĨ²çªģ": 2651,
      "åĲİéĨįéĨĲ": 2652,
      "æ±ŁæĪ·å¹ķåºľ": 2653,
      "èĭ¥çĭŃ": 2654,
      "ä¿¡å¿ł": 2655,
      "å¦»åŃĲ": 2656,
      "å°ıçī§": 2657,
      "åĨħä¹±": 2658,
      "æķ·": 2659,
      "ãģª": 2660,
      "å¼ķåıĳ": 2661,
      "è¯Ħä»·": 2662,
      "ç§Ģå®¶": 2663,
      "åĬ³": 2664,
      "ä¹ĭä¸¸": 2665,
      "ä¸įæĸŃ": 2666,
      "ä»£å®ĺ": 2667,
      "åįĪ": 2668,
      "æīĢæľī": 2669,
      "åĪĿä»£": 2670,
      "åħŃæĹ¥": 2671,
      "æŃ£æĪĲ": 2672,
      "1560": 2673,
      "å³Ļ": 2674,
      "ç«¥": 2675,
      "å¯¹æŃ¤": 2676,
      "ç©¿": 2677,
      "çŁŃ": 2678,
      "ç»©": 2679,
      "èıħ": 2680,
      "è·Łéļı": 2681,
      "ä¹ĭåľ°": 2682,
      "åľŁåľ°": 2683,
      "ä¿¡èĻİ": 2684,
      "çĽ¸ç»§": 2685,
      "çĽ¸ä¼ł": 2686,
      "ä¸Ģä¸ĩ": 2687,
      "æĮĤ": 2688,
      "ï¼ı": 2689,
      "ä¹ĭäºĭ": 2690,
      "ç¥Ń": 2691,
      "å³°": 2692,
      "åºĶä»ģä¹ĭä¹±": 2693,
      "æ··ä¹±": 2694,
      "çĦļ": 2695,
      "ä½ĵåĪ¶": 2696,
      "ä¸¤äºº": 2697,
      "èįĴæľ¨": 2698,
      "åŁİåŁİä¸»": 2699,
      "æ¸©": 2700,
      "æ°ıä¹¡": 2701,
      "çĶ²æĸĲåĽ½": 2702,
      "èĸ": 2703,
      "æĢ»å¤§å°Ĩ": 2704,
      "èĳĽ": 2705,
      "ç´ł": 2706,
      "éľĩ": 2707,
      "éķ¿éĩİ": 2708,
      "å¯¹å³Ļ": 2709,
      "åĬĽéĩı": 2710,
      "çĳ": 2711,
      "å±±å´İ": 2712,
      "å®īåłµ": 2713,
      "é»Ħ": 2714,
      "æłĹ": 2715,
      "æĥ£": 2716,
      "å®īèīºåĽ½": 2717,
      "ä¿¡åº·": 2718,
      "æĪĳä»¬": 2719,
      "æĶ¾å¼ĥ": 2720,
      "æŃ£æľĪ": 2721,
      "æľ¨æĽ¾": 2722,
      "èİ²": 2723,
      "148": 2724,
      "æµħäºķéķ¿æĶ¿": 2725,
      "æķ¢": 2726,
      "æ¸ħæ´²": 2727,
      "ä¹Łä¸į": 2728,
      "éķ¿éĹ¨": 2729,
      "ç©´": 2730,
      "ä¸Ģæ¬¡": 2731,
      "163": 2732,
      "æŃ¤æ¬¡": 2733,
      "éĺµäº¡": 2734,
      "èĳĹåĲį": 2735,
      "å¤§åıĭåĨĽ": 2736,
      "æĿ¾å¹³å®¶": 2737,
      "æļĹæĿĢ": 2738,
      "æ¸¯": 2739,
      "ä¸¤åĨĽ": 2740,
      "æĸ¹åĲĳ": 2741,
      "æŁ¥": 2742,
      "åŃ¤": 2743,
      "å®ģ": 2744,
      "äºĭåĬ¡": 2745,
      "åįģå¹´": 2746,
      "ç»ķ": 2747,
      "æ³·å·Ŀä¸ĢçĽĬ": 2748,
      "è´±": 2749,
      "åĲīç»§": 2750,
      "ç»Ĩå·Ŀæ°ı": 2751,
      "çĶ°æĿĳ": 2752,
      "äºĭå®ŀ": 2753,
      "æľĢå¤§": 2754,
      "å¹¼åĲį": 2755,
      "å¤®": 2756,
      "ä¸ŃæĿĳ": 2757,
      "å·Ŀä¸Ńå²Ľ": 2758,
      "çĥŃ": 2759,
      "å¤ªéĺģ": 2760,
      "ä¸Ģèī²": 2761,
      "èµ·åħµ": 2762,
      "çº¹": 2763,
      "è¾ĸ": 2764,
      "ä»İäºĶ": 2765,
      "åİ»ä¸ĸåĲİ": 2766,
      "å¸¦çĿĢ": 2767,
      "åĲĪæĪĺä¸Ń": 2768,
      "200": 2769,
      "åįĥåı¶": 2770,
      "åĲįä¹ī": 2771,
      "å²Ľæ´¥åĨĽ": 2772,
      "ãĢĢ": 2773,
      "è¶ħ": 2774,
      "èį¯": 2775,
      "å¤įåħ´": 2776,
      "æĿĢæŃ»": 2777,
      "å¤©å®Ī": 2778,
      "ç»ĵçĽŁ": 2779,
      "147": 2780,
      "ä¿¡æµĵåĽ½": 2781,
      "çĻ¾å§ĵ": 2782,
      "å¿łèĥľ": 2783,
      "éĤĢ": 2784,
      "æĹ¥è®°": 2785,
      "å§Ĭ": 2786,
      "æ·¡": 2787,
      "æĻļå¹´": 2788,
      "æīĢè°ĵ": 2789,
      "æłĳ": 2790,
      "çº·çº·": 2791,
      "èĥĮåıĽ": 2792,
      "åĲ§": 2793,
      "å¤¹": 2794,
      "æĪĺçķ¥": 2795,
      "æĺ¯æĹ¥æľ¬æĪĺåĽ½æĹ¶ä»£": 2796,
      "æ²¡æĶ¶": 2797,
      "åĳ¢": 2798,
      "æ¤į": 2799,
      "æ£Ģåľ°": 2800,
      "æĶ¿éķ¿": 2801,
      "å®īä¸ľ": 2802,
      "çĽ¸åħ³": 2803,
      "åĮĹéĥ¨": 2804,
      "èĩªåĪĥ": 2805,
      "ç®¡çĲĨ": 2806,
      "ä»£å°ĨåĨĽè¶³åĪ©ä¹ī": 2807,
      "äºĶçĻ¾": 2808,
      "æĭ©": 2809,
      "éĢĥäº¡": 2810,
      "ä¿¡éĽĦ": 2811,
      "åħĥéķ¿": 2812,
      "æľ¬ä¸¸": 2813,
      "æİĪè±«": 2814,
      "æŃ¤æĪĺ": 2815,
      "æľ¬åŁİ": 2816,
      "ä¾µåħ¥": 2817,
      "çŃĳåŁİ": 2818,
      "å¯»": 2819,
      "èĬ³": 2820,
      "äº«ç¦Ħ": 2821,
      "è¿Ľä¸ĢæŃ¥": 2822,
      "è¿ľå±±": 2823,
      "è¯ŀ": 2824,
      "æĸŃç»Ŀ": 2825,
      "ä¼Ĺå¤ļ": 2826,
      "çŁ¥éģĵ": 2827,
      "åĩ»çł´": 2828,
      "æµ¦ä¸Ĭ": 2829,
      "æµªäºº": 2830,
      "äºĮæľĪ": 2831,
      "å·¦è¿ĳ": 2832,
      "åħ¼ç»Ń": 2833,
      "æ¬¡çĶ·": 2834,
      "åŁİä»£": 2835,
      "åĪĻæĺ¯": 2836,
      "ä¿¡éķ¿åħ¬": 2837,
      "éĩĬ": 2838,
      "è£ģ": 2839,
      "åīįæľŁ": 2840,
      "å¯ºéĻ¢": 2841,
      "åı¥": 2842,
      "åĮĹæĿ¡æ°ıæĶ¿": 2843,
      "å¤§è´¥": 2844,
      "ä¸ĬæĢ»": 2845,
      "æĿĤè´º": 2846,
      "æľ±": 2847,
      "è®¤ä¸ºæĺ¯": 2848,
      "åģĩ": 2849,
      "æ°ıåº·": 2850,
      "å¿łæ¬¡": 2851,
      "ä¸įå¾Ĺä¸į": 2852,
      "åĿĢ": 2853,
      "èĹ¤åłĤ": 2854,
      "æĤ¬": 2855,
      "åıĳåĩº": 2856,
      "éļıåį³": 2857,
      "ç¾İä½ľ": 2858,
      "è®²": 2859,
      "å»¶ç»Ń": 2860,
      "ç¯ł": 2861,
      "ä¸Ńå¤®": 2862,
      "æĪĲæ°ı": 2863,
      "åıªèĥ½": 2864,
      "éĴĪ": 2865,
      "åĢŃ": 2866,
      "å°ıçĶ°åİŁåŁİ": 2867,
      "åĽ½å¯º": 2868,
      "å¤§éĩİ": 2869,
      "ä¸¥å²Ľ": 2870,
      "åħ¶å¼Ł": 2871,
      "å¹´åĲİ": 2872,
      "éŀ": 2873,
      "æ¡Ī": 2874,
      "è¡Įéķ¿": 2875,
      "æľ¬åºĦ": 2876,
      "åºĦåĽŃ": 2877,
      "æĹ¥åĲİ": 2878,
      "åĨĽåĬ¿": 2879,
      "ç§Ģç§ĭ": 2880,
      "å¥¹": 2881,
      "ä¸īæľ¨": 2882,
      "æİī": 2883,
      "ç§ĭæľĪ": 2884,
      "æī¹": 2885,
      "1561": 2886,
      "å¿Ļ": 2887,
      "çīĪ": 2888,
      "ç³»åĽ¾": 2889,
      "å°ıè¥¿": 2890,
      "é½": 2891,
      "æĢķ": 2892,
      "æĶ»åĬ¿": 2893,
      "çĭ©": 2894,
      "èĨ³": 2895,
      "å¤§éĩı": 2896,
      "å®¢": 2897,
      "çĶ³": 2898,
      "ãģĨ": 2899,
      "146": 2900,
      "æ¯«": 2901,
      "éķ¿çĶ·": 2902,
      "ä¼´": 2903,
      "çģĮ": 2904,
      "å°ıçĶ°åİŁå¾ģä¼Ĳ": 2905,
      "ä¸»å¼ł": 2906,
      "å®ĪæĬ¤å¤§åĲį": 2907,
      "å¾Īå¿«": 2908,
      "æģ¨": 2909,
      "ç¨İ": 2910,
      "ä¾§è¿ĳ": 2911,
      "ä¹ĭçĪ¶": 2912,
      "æ¨±": 2913,
      "éķ¿ç¯ł": 2914,
      "æĪ·æ¬¡": 2915,
      "åįłé¢Ĩ": 2916,
      "æĺ¥æĹ¥": 2917,
      "å°±ä»»": 2918,
      "ä¸¹ç¾½éķ¿ç§Ģ": 2919,
      "æĹģ": 2920,
      "æķı": 2921,
      "åħĥåº·": 2922,
      "æĬĢ": 2923,
      "åı¯æĺ¯": 2924,
      "ç¡®ç«ĭ": 2925,
      "ä»įçĦ¶": 2926,
      "çĶĺ": 2927,
      "åĨĽè®°": 2928,
      "æĹ¨": 2929,
      "åŁĭ": 2930,
      "é©»å®Ī": 2931,
      "åĽłå¹¡": 2932,
      "ä¼ĺåĬ¿": 2933,
      "æĸ¯æ³¢ä¹ī": 2934,
      "åħĥé¾Łåħĥå¹´": 2935,
      "æ¡ĳ": 2936,
      "ä¼łæķĻ": 2937,
      "æ©": 2938,
      "é±": 2939,
      "é«ĺéĩİ": 2940,
      "ãĤĬ": 2941,
      "è¯į": 2942,
      "è¡Įä¸º": 2943,
      "å¾·å·Ŀæ°ı": 2944,
      "è¿Ł": 2945,
      "ä¿£": 2946,
      "çķ¥åİĨ": 2947,
      "éļ¾ä»¥": 2948,
      "åĩºçĶŁäºİ": 2949,
      "éĢĨ": 2950,
      "å¤§åĨħä¹īéļĨ": 2951,
      "ä¸§": 2952,
      "èµ¦": 2953,
      "çľĭåĪ°": 2954,
      "å®ŀéĻħä¸Ĭ": 2955,
      "é±¼": 2956,
      "è¿ĻæĹ¶": 2957,
      "åĬ¨åĳĺ": 2958,
      "æ¸ħæ°´": 2959,
      "é©±éĢĲ": 2960,
      "çĳŀ": 2961,
      "å¤§ä¹ħä¿Ŀ": 2962,
      "éªļ": 2963,
      "åİŁä¹ĭæĪĺ": 2964,
      "é©¹": 2965,
      "æĹ§é¢Ĩ": 2966,
      "ä¸Ģäºº": 2967,
      "å¾ĭ": 2968,
      "èĩªçĦ¶": 2969,
      "ç§¯æŀģ": 2970,
      "åĬłèĹ¤æ¸ħæŃ£": 2971,
      "1587": 2972,
      "å¯ºç¤¾": 2973,
      "ãģĮ": 2974,
      "æ¶ĪçģŃ": 2975,
      "åįģäºĮæľĪ": 2976,
      "å·Ŀä¹ĭæĪĺ": 2977,
      "æķĮå¯¹": 2978,
      "èĩ¼": 2979,
      "éķ¿ä¹ħæīĭ": 2980,
      "å°»": 2981,
      "å°½ç®¡": 2982,
      "å®ħéĤ¸": 2983,
      "èº«ä¸º": 2984,
      "æĪĺåĽ½æĹ¶æľŁ": 2985,
      "å¤ĦçĲĨ": 2986,
      "æŃ¤åīį": 2987,
      "è¿Ļåľº": 2988,
      "çŁĽ": 2989,
      "åķĨäºº": 2990,
      "éĤ¦": 2991,
      "åī©": 2992,
      "æĶ»ä¸ĭ": 2993,
      "çīĻ": 2994,
      "ç»´æĮģ": 2995,
      "å®¶äºº": 2996,
      "æī¬": 2997,
      "å±ħä½ı": 2998,
      "åºı": 2999,
      "å¹¿å¿ł": 3000,
      "è¾°": 3001,
      "ä¹ĭæĹ¶": 3002,
      "éĵĥ": 3003,
      "ç»ıä¹ħ": 3004,
      "å«ģç»Ļ": 3005,
      "ç¼Ķ": 3006,
      "1592": 3007,
      "åĲİè£Ķ": 3008,
      "é¢ĩ": 3009,
      "ä½Ĩé©¬": 3010,
      "äºķä¸Ĭ": 3011,
      "åī¯": 3012,
      "ä¹īç»§": 3013,
      "éļ¶": 3014,
      "åĮĹéĻĨ": 3015,
      "çĽ´å®¶": 3016,
      "è¥¿åĽ½": 3017,
      "æıĲä¾Ľ": 3018,
      "ä¸ĭæĿ¥": 3019,
      "å§Ĳ": 3020,
      "åħ¬åį¿": 3021,
      "åĲ«": 3022,
      "åĲİèĹ¤": 3023,
      "ä»¥ä¸Ĭ": 3024,
      "1583": 3025,
      "å¹³æ°ı": 3026,
      "å¡Ķ": 3027,
      "çĶ¥": 3028,
      "å¤Ħäºİ": 3029,
      "1580": 3030,
      "åįłæį®": 3031,
      "æĮĳ": 3032,
      "è´¹": 3033,
      "åħ¥éģĵ": 3034,
      "1586": 3035,
      "ä¹Ŀéĥİ": 3036,
      "éĶ®": 3037,
      "ä½Ĳç«¹ä¹ī": 3038,
      "ä¿ĿæĮģ": 3039,
      "çĽ´èĩ³": 3040,
      "ä¸ĬçĶ°": 3041,
      "ä¾§å®¤": 3042,
      "èĻļ": 3043,
      "1581": 3044,
      "åĨ³æĪĺ": 3045,
      "æ³ķåı·": 3046,
      "èĩ£æľį": 3047,
      "æĶ»åŁİ": 3048,
      "ç»ĩçĶ°ä¿¡ç§Ģ": 3049,
      "ç¬¼åŁİ": 3050,
      "çĶŁäºİ": 3051,
      "æĵħ": 3052,
      "æĶ¿åĬ¡": 3053,
      "å°ĳè¾ħ": 3054,
      "å¹³å®ī": 3055,
      "âĢĺ": 3056,
      "âĢĻ": 3057,
      "æĶ¹åĲįä¸º": 3058,
      "å¤§åıĭä¹ī": 3059,
      "æŃ¦çĶ°ä¿¡èĻİ": 3060,
      "ä»İäºĶä½įä¸ĭ": 3061,
      "æ¬¡å¹´": 3062,
      "åĨľæ°ĳ": 3063,
      "çĶ°éķ¿": 3064,
      "æ°´éĩİ": 3065,
      "éŃ": 3066,
      "æī¾": 3067,
      "åħ³éĶ®": 3068,
      "éĩİåŁİ": 3069,
      "æķ´ä¸ª": 3070,
      "åĽ½å®¶": 3071,
      "ä¿ĿæĬ¤": 3072,
      "åĵ¥": 3073,
      "æĬķéĿł": 3074,
      "åīĬ": 3075,
      "çĽ´æ±Ł": 3076,
      "åįģä¸ĢæľĪ": 3077,
      "éļħ": 3078,
      "è¿Ŀ": 3079,
      "æĿ¥è¯´": 3080,
      "éĤ£ä¹Ī": 3081,
      "éķľ": 3082,
      "ä¿¡ç¹ģ": 3083,
      "æŀĦæĪĲ": 3084,
      "ä¸īåįĥ": 3085,
      "æ´ŀ": 3086,
      "å½»åºķ": 3087,
      "åĽ½å®ĪæĬ¤": 3088,
      "è°¢": 3089,
      "é¼ĵ": 3090,
      "æµ·éģĵ": 3091,
      "è°·åŁİ": 3092,
      "ä¹īé¾Ļ": 3093,
      "å½ĵçĦ¶": 3094,
      "å®¶è°±": 3095,
      "åŃĿé«ĺ": 3096,
      "åĲİéĨįéĨĲå¤©çļĩ": 3097,
      "ä¹īéļĨ": 3098,
      "ä»¥æŃ¤": 3099,
      "æľīé©¬": 3100,
      "äºİå¤©æŃ£": 3101,
      "å½ĵå¹´": 3102,
      "æį®å®Ī": 3103,
      "èĦī": 3104,
      "Ġçķ¥åİĨ": 3105,
      "éļĶ": 3106,
      "ä»ĸæĺ¯": 3107,
      "å¼¹æŃ£": 3108,
      "èĥľåħĥ": 3109,
      "ç¬¬åĽĽ": 3110,
      "å¤§è°·": 3111,
      "åĲįåı¤": 3112,
      "ç¿¼": 3113,
      "å¤§å´İ": 3114,
      "å£ģ": 3115,
      "èĤ²": 3116,
      "æķ¬": 3117,
      "å¥īåħ¬": 3118,
      "ç¬ĳ": 3119,
      "èĥĮæĻ¯": 3120,
      "å¤©ç¥ŀ": 3121,
      "éķ°ä»ĵå¹ķåºľ": 3122,
      "åĪ°è¾¾": 3123,
      "ä¼ıè§ģåŁİ": 3124,
      "å·ĿåŁİ": 3125,
      "åıįåĩ»": 3126,
      "çī©è¯Ń": 3127,
      "ç»ĦæĪĲ": 3128,
      "æĽ¾ç»ı": 3129,
      "1615": 3130,
      "çĽŁåıĭ": 3131,
      "ä¸īçĻ¾": 3132,
      "ä¸īæĸ¹": 3133,
      "æ§": 3134,
      "å¥ı": 3135,
      "è¾īå®Ĺ": 3136,
      "ä¿¡åŃĿ": 3137,
      "çĦ¶åĲİ": 3138,
      "å¼ºå¤§": 3139,
      "èĥ½åĬĽ": 3140,
      "æ¿ĢæĪĺ": 3141,
      "ç»įè¿Ĳ": 3142,
      "æŃ¦çĶ°æĻ´ä¿¡": 3143,
      "1614": 3144,
      "éĶħå²Ľ": 3145,
      "ä¿¡éķ¿åħ¬è®°": 3146,
      "èĢĨ": 3147,
      "åĲīèī¯": 3148,
      "æĻ´ä¹ħ": 3149,
      "éº»": 3150,
      "äº§çĶŁ": 3151,
      "ãĤĤ": 3152,
      "éĽĨç»ĵ": 3153,
      "ĠçĶŁå¹³": 3154,
      "æ¾Ħåħĥ": 3155,
      "æĺ¯å®īåľŁæ¡ĥå±±æĹ¶ä»£": 3156,
      "èĢĮè¨Ģ": 3157,
      "çİ¯": 3158,
      "çĽĺ": 3159,
      "å§Ķ": 3160,
      "å¤§åĨħå®¶": 3161,
      "æĬ¼": 3162,
      "åĪĨè£Ĥ": 3163,
      "1579": 3164,
      "ä½Ĳç«¹æ°ı": 3165,
      "åĲīå·Ŀåħĥæĺ¥": 3166,
      "å±¥": 3167,
      "è¯Ľ": 3168,
      "çŃīåľ°": 3169,
      "æ¹ĸ": 3170,
      "ä½ĨåĽł": 3171,
      "çŀ": 3172,
      "çĽ´åĪ°": 3173,
      "æĪĪ": 3174,
      "ä¸ĢåĽ½": 3175,
      "ç§ĢæĶ¿": 3176,
      "æ²³è¶Ĭ": 3177,
      "ä¼¯èĢĨ": 3178,
      "éķ¿å²Ľ": 3179,
      "©åĽº": 3180,
      "æĮģæ°ı": 3181,
      "å·©åĽº": 3182,
      "ä¸Ģå¹´": 3183,
      "æī«": 3184,
      "åĮĹæĿ¡åĨĽ": 3185,
      "éĢīæĭ©": 3186,
      "èĩ³æ±ŁæĪ·æĹ¶ä»£åĪĿæľŁ": 3187,
      "è¿Ļä½į": 3188,
      "è´±å²³": 3189,
      "ä¸ºæĻ¯": 3190,
      "èĩ³ä»Ĭ": 3191,
      "ä¸ºé¦ĸ": 3192,
      "æĺ¯æĹ¥æľ¬": 3193,
      "åıªå¾Ĺ": 3194,
      "èĥ½å¤Ł": 3195,
      "ä¿¸": 3196,
      "åºĶæ°¸": 3197,
      "ä¿®çŃĳ": 3198,
      "ä¹īæĶ¿": 3199,
      "å¿łæĶ¿": 3200,
      "50": 3201,
      "åħ¶ä¸º": 3202,
      "å»ī": 3203,
      "æĸ©æĿĢ": 3204,
      "èµŀå²Ĳ": 3205,
      "æĪĲç«ĭ": 3206,
      "åĬłå¢ŀ": 3207,
      "æľĿä»ĵä¹īæĻ¯": 3208,
      "å®ĥ": 3209,
      "èĢ³": 3210,
      "è¡Ĺ": 3211,
      "çĽ¸é©¬": 3212,
      "å¦Ĥä½ķ": 3213,
      "å¥ĩè¢Ń": 3214,
      "ä»¥åīį": 3215,
      "æİ¥çĿĢ": 3216,
      "å¿ħé¡»": 3217,
      "éĻ¶æĻ´è´¤": 3218,
      "æĭ¿": 3219,
      "1574": 3220,
      "ä¸ºåħ»åŃĲ": 3221,
      "å±ĢåĬ¿": 3222,
      "æ±ī": 3223,
      "ç»ĩçĶ°ä¿¡éĽĦ": 3224,
      "çº³è¨Ģ": 3225,
      "çĽ®æłĩ": 3226,
      "éĥ¨ä¸ĭ": 3227,
      "å®ŀæĿĥ": 3228,
      "ä¸»å®¶": 3229,
      "ä¸įè¶³": 3230,
      "æ²Ł": 3231,
      "åĪĨä¸º": 3232,
      "åĪ«æīĢ": 3233,
      "æ¢ģ": 3234,
      "æ£®éķ¿": 3235,
      "é¦ĸåħĪ": 3236,
      "è§Ĵèī²": 3237,
      "ç¡®è®¤": 3238,
      "ãĤĮ": 3239,
      "1563": 3240,
      "éĹ»åĲį": 3241,
      "1567": 3242,
      "ä¸¹åĲİ": 3243,
      "ä¸īæĿ¡": 3244,
      "ç¦ıå¯º": 3245,
      "æĺ¯ä¸º": 3246,
      "ä¹īæ¸ħ": 3247,
      "ä»¥ä¸º": 3248,
      "è½¦": 3249,
      "è¿ĩç¨ĭ": 3250,
      "åºĩ": 3251,
      "éļĨåħĥ": 3252,
      "åıįèĢĮ": 3253,
      "1571": 3254,
      "éķ¿å®ĹæĪĳéĥ¨åħĥäº²": 3255,
      "æĺŁ": 3256,
      "æĪĺæľ¯": 3257,
      "çĵ¦": 3258,
      "å°ĨåĨĽå®¶": 3259,
      "çķłå±±ä¹ī": 3260,
      "æĲº": 3261,
      "å®ĪåĨĽ": 3262,
      "å¹¶æ²¡æľī": 3263,
      "æĸ°çĶ°": 3264,
      "ä¹īåħ´": 3265,
      "åįģéĥİ": 3266,
      "èĹ¤åŃĿ": 3267,
      "åĲĦèĩª": 3268,
      "ä¼Ĭè¾¾å®¶": 3269,
      "ä¸īåŃĲ": 3270,
      "ãĤī": 3271,
      "æľ¬å®¶": 3272,
      "ç½¢": 3273,
      "1577": 3274,
      "ç¦ıå²ĽæŃ£åĪĻ": 3275,
      "1572": 3276,
      "é¹°": 3277,
      "ç¬¬äºĮæ¬¡": 3278,
      "æ°ıç¬¬": 3279,
      "å®°": 3280,
      "è´¼": 3281,
      "ä¹īè¾ī": 3282,
      "åĩºæĿ¥": 3283,
      "æ²Ļ": 3284,
      "æ¸ħåº·": 3285,
      "é¡¶": 3286,
      "é½Ĳ": 3287,
      "åħ¨åĽ½": 3288,
      "å®ŀæĸ½": 3289,
      "å¥³å©¿": 3290,
      "ç¬¬ä¸Ģæ¬¡": 3291,
      "è´°": 3292,
      "çĶŁæ´»": 3293,
      "æĦŁåĪ°": 3294,
      "ä¸ĬéĩİåĽ½": 3295,
      "æī©å¤§": 3296,
      "ä¹īè´¤": 3297,
      "è¡ĮæĶ¿": 3298,
      "æĿ¥åĪ°": 3299,
      "é¡¿": 3300,
      "é¥°": 3301,
      "ç»Ĩå·ĿæĻ´åħĥ": 3302,
      "åĽ½äººä¼Ĺ": 3303,
      "âĶ": 3304,
      "åĲ¾": 3305,
      "åĨ·": 3306,
      "ç§ĺ": 3307,
      "è¡¡": 3308,
      "éĥ¨å°Ĩ": 3309,
      "æĪĲåĳĺ": 3310,
      "ä¿¡çĽĽ": 3311,
      "åıĪç§°": 3312,
      "ä¼łç»Ł": 3313,
      "åĳ³": 3314,
      "å®´": 3315,
      "èĮĥåĽ´": 3316,
      "å¸Ĳ": 3317,
      "èĩªæŃ¤": 3318,
      "ç¥ŀä¿Ŀ": 3319,
      "åħ¨åĨĽ": 3320,
      "åºĶè¯¥": 3321,
      "å¤§åıĭå®ĹéºŁ": 3322,
      "çī¹åĪ«": 3323,
      "æĺİæľĿ": 3324,
      "æ·Ģ": 3325,
      "å®Īå°Ĩ": 3326,
      "éģĵçģĮ": 3327,
      "æīĭä¸Ń": 3328,
      "ç¤¾ä¼ļ": 3329,
      "ä¸ºçĶ±": 3330,
      "æł¹æľ¬": 3331,
      "è¯»": 3332,
      "éĽħ": 3333,
      "1576": 3334,
      "çŁĽçĽ¾": 3335,
      "ç«ĭåĬŁ": 3336,
      "ç§»å°ģ": 3337,
      "å¹´ä»ħ": 3338,
      "å½¢å¼ı": 3339,
      "è¿«ä½¿": 3340,
      "æĮ¯": 3341,
      "çĪµ": 3342,
      "è°Ĵ": 3343,
      "æī¿è®¤": 3344,
      "æ±ŁæĪ·åŁİ": 3345,
      "å¤«äºº": 3346,
      "èĩ³æŃ¤": 3347,
      "æĿĥå¨ģ": 3348,
      "åįĹåĮĹæľĿ": 3349,
      "éĹ°": 3350,
      "å¯ĮçĶ°åŁİ": 3351,
      "ä¿¡çĽ´": 3352,
      "æį®ç§°": 3353,
      "è¯ŀçĶŁ": 3354,
      "æĹ¥éĩİ": 3355,
      "å¢Ļ": 3356,
      "å¨ģèĥģ": 3357,
      "è®Ń": 3358,
      "å·¥ä½ľ": 3359,
      "ç¿»": 3360,
      "ä¸ĸä»£": 3361,
      "åĬŁç»©": 3362,
      "éĤ£é¡»": 3363,
      "å°¤åħ¶": 3364,
      "åįģäºĶ": 3365,
      "å´Ľ": 3366,
      "ä½ĵç³»": 3367,
      "çľŁçĶ°æĺĮå¹¸": 3368,
      "æŃ¦èĹıåĽ½": 3369,
      "å¤ªå¹³": 3370,
      "å®īåľŁåŁİ": 3371,
      "æĹ§èĩ£": 3372,
      "çĪ±çŁ¥": 3373,
      "ä¸Ģä»£": 3374,
      "åŁºæľ¬": 3375,
      "ç»Ĩå·Ŀé«ĺåĽ½": 3376,
      "éĩĩåıĸ": 3377,
      "å¹´è½»": 3378,
      "çŁ©": 3379,
      "ä¸īåĽ½": 3380,
      "åĨħå®¹": 3381,
      "133": 3382,
      "èľĤé¡»è´º": 3383,
      "æ°ıçº²": 3384,
      "å¹½": 3385,
      "éĿ©": 3386,
      "è§¦": 3387,
      "å¤§å°ĨåĨĽ": 3388,
      "ä¼ª": 3389,
      "åŁºçĿ£": 3390,
      "è®¯": 3391,
      "ç»Ĩå·ĿæĶ¿åħĥ": 3392,
      "è°ĥåģľ": 3393,
      "å§ĭç»Ī": 3394,
      "è½¬èĢĮ": 3395,
      "æĸĭèĹ¤éģĵä¸ī": 3396,
      "æĳĩ": 3397,
      "æĺ¯æĪĺåĽ½æĹ¶ä»£èĩ³å®īåľŁæ¡ĥå±±æĹ¶ä»£": 3398,
      "ä¾ĭå¦Ĥ": 3399,
      "çİĭä¸¸": 3400,
      "æ¿ĢçĥĪ": 3401,
      "æľĪå±±": 3402,
      "æĤ£": 3403,
      "éľĢè¦ģ": 3404,
      "æĪĴ": 3405,
      "æĦ¤": 3406,
      "å°¼åŃĲå®¶": 3407,
      "1555": 3408,
      "åĬ£": 3409,
      "ç±į": 3410,
      "æīįèĥ½": 3411,
      "åĿı": 3412,
      "ä¸ºä¸»": 3413,
      "æ°ıå½ĵä¸»": 3414,
      "åĪĨå®¶": 3415,
      "1564": 3416,
      "å´Ľèµ·": 3417,
      "æµģä¼ł": 3418,
      "å¸Ŀ": 3419,
      "ä¾¯": 3420,
      "è¯º": 3421,
      "æĶ¾éĢĲ": 3422,
      "é©¬åľº": 3423,
      "åĢ¾": 3424,
      "åĪ©ä¼ĳ": 3425,
      "å¯ºåŁİ": 3426,
      "æĪ´": 3427,
      "æĻĭ": 3428,
      "æ¢¨": 3429,
      "åĲİæĸ¹": 3430,
      "1562": 3431,
      "å®¶çĿ£ä¹ĭä½į": 3432,
      "åĲįå°Ĩ": 3433,
      "çĶ²å·ŀ": 3434,
      "éĺµä¸Ń": 3435,
      "å²Ľæ´¥ä¹īå¼ĺ": 3436,
      "æł¹æį®åľ°": 3437,
      "å°ıè¥¿è¡Įéķ¿": 3438,
      "äºĪ": 3439,
      "æĬ¥åĳĬ": 3440,
      "æĢİ": 3441,
      "åº¶æµģ": 3442,
      "çĶ°ä¿¡": 3443,
      "è¦Ĩ": 3444,
      "æĹ¦": 3445,
      "å¤©æĸĩäºĮåįģ": 3446,
      "å¥Īèī¯": 3447,
      "åĳĪ": 3448,
      "ä»£å°ĨåĨĽ": 3449,
      "æĢģåº¦": 3450,
      "ä¼ģ": 3451,
      "è¶³åĪ©å°Ĭæ°ı": 3452,
      "å·¦åį«éĹ¨å°ī": 3453,
      "è·ĳ": 3454,
      "ä¹ĭäºº": 3455,
      "æŃ¤ä¸¾": 3456,
      "çŁ³é«ĺ": 3457,
      "å¾®": 3458,
      "ä¿¸ç¦Ħ": 3459,
      "ä»°": 3460,
      "åıįåıĽ": 3461,
      "åľ°å¤´": 3462,
      "æľĿä»ĵå®¶": 3463,
      "ç»Ħç»ĩ": 3464,
      "ä¸īå¥½ä¸īäººä¼Ĺ": 3465,
      "ä½Ļéªĳ": 3466,
      "éģį": 3467,
      "å½±åĵįåĬĽ": 3468,
      "çĪ¶äº²æĺ¯": 3469,
      "åįģæ²³": 3470,
      "çĽ´ä¹ī": 3471,
      "éªıæ²³åĽ½": 3472,
      "æĢ¨": 3473,
      "è¶ĬåĲİåĽ½": 3474,
      "è¿ĳåį«": 3475,
      "éļıåĨĽ": 3476,
      "èıĬæ±ł": 3477,
      "éļľ": 3478,
      "åı¦æľī": 3479,
      "¡æĹĭ": 3480,
      "ç«ĭèĬ±å®ĹèĮĤ": 3481,
      "æĸ¡æĹĭ": 3482,
      "ç«ĭåĪ»": 3483,
      "å¤§äºķ": 3484,
      "åįģä¸ī": 3485,
      "ä¼Ĭè¾¾æ°ı": 3486,
      "çĹĽ": 3487,
      "æĺł": 3488,
      "åħµåºĵ": 3489,
      "èº«è¾¹": 3490,
      "å¦Ĥä»Ĭ": 3491,
      "åĢĴæĪĪ": 3492,
      "ä¿¡ä»»": 3493,
      "æĤ²": 3494,
      "ä¼ļåĲĪ": 3495,
      "1565": 3496,
      "é¢ĳ": 3497,
      "å£®": 3498,
      "æ³ķåĲį": 3499,
      "é¸Łå±ħ": 3500,
      "å¤§è§Ħæ¨¡": 3501,
      "æ°ıæĶ¿": 3502,
      "æĪĺä¹±": 3503,
      "æĸ¹å¼ı": 3504,
      "æ¬¢": 3505,
      "ä½ľåĵģ": 3506,
      "è§ĤçĤ¹": 3507,
      "èĦ±ç¦»": 3508,
      "å³ł": 3509,
      "ï½": 3510,
      "æĹ¬": 3511,
      "æ²ī": 3512,
      "ç»§ä½į": 3513,
      "è·Ŀ": 3514,
      "å½ĴéĻĦ": 3515,
      "æ¢¦": 3516,
      "è¿İå¨¶": 3517,
      "é«ĺéĩİå±±": 3518,
      "æĶ¿æīĢ": 3519,
      "éĹ¨å¾Ĵ": 3520,
      "éĵĥæľ¨": 3521,
      "åįģäºĮå¹´": 3522,
      "å¾ģå¤·": 3523,
      "æīĵç®Ĺ": 3524,
      "è°ģ": 3525,
      "ãģķ": 3526,
      "æıı": 3527,
      "ç¨Ļå®Ĺ": 3528,
      "ä¸ľè¥¿": 3529,
      "500": 3530,
      "è´¥éĢĢ": 3531,
      "å¼ºåĮĸ": 3532,
      "å±±çĶ°": 3533,
      "ä¸īå¥½å®¶": 3534,
      "å®ĹæķĻ": 3535,
      "å°ĳè´°": 3536,
      "ä»ĭåħ¥": 3537,
      "èĥĮåĲİ": 3538,
      "å¤§åĨħä¹īåħ´": 3539,
      "åİŁæ°ı": 3540,
      "ä¹Łå°±æĺ¯": 3541,
      "éĢłæĪĲ": 3542,
      "ç¼Ķç»ĵ": 3543,
      "ä¹ĭå¤ĸ": 3544,
      "å²Ľæ´¥ä¹īä¹ħ": 3545,
      "éĺ²å®Ī": 3546,
      "æľ«æľŁ": 3547,
      "å°º": 3548,
      "éķ°ä»ĵæĹ¶ä»£": 3549,
      "åħ°": 3550,
      "ä¸ĩäºº": 3551,
      "é¡¹": 3552,
      "å¤§éĺªåŁİ": 3553,
      "å¤§ä½Ľ": 3554,
      "æĺ¯åĲ¦": 3555,
      "åºĩæĬ¤": 3556,
      "ä½ĳ": 3557,
      "èĭĹ": 3558,
      "ä¸ĥéĥİ": 3559,
      "å»ºæŃ¦": 3560,
      "ç»ĩçĶ°ä¿¡å¿ł": 3561,
      "åħģè®¸": 3562,
      "æīĢé¢Ĩ": 3563,
      "ä¹¦çĬ¶": 3564,
      "æĶ¹ä¸º": 3565,
      "çģŃäº¡åĲİ": 3566,
      "çİĩåħµ": 3567,
      "èģĮåĬ¡": 3568,
      "çĬ¯": 3569,
      "çŃ±": 3570,
      "å°ıè·¯": 3571,
      "æĥ§": 3572,
      "èĦļ": 3573,
      "çĨŁ": 3574,
      "ãģ¾": 3575,
      "å»ºéĢł": 3576,
      "èı©": 3577,
      "åł¡": 3578,
      "äº¤æ¶ī": 3579,
      "èģĶæīĭ": 3580,
      "1598": 3581,
      "åı¹": 3582,
      "å¹´å¹¼": 3583,
      "ä¸Ģç§į": 3584,
      "å¯Ĵ": 3585,
      "å¿łåħ´": 3586,
      "ç¥¥": 3587,
      "ç¨³å®ļ": 3588,
      "ä¿¡ç§Ģ": 3589,
      "ä»İæŃ¤": 3590,
      "èį¡": 3591,
      "æĤī": 3592,
      "å®ŀçİ°": 3593,
      "éĥŃ": 3594,
      "ä¼Ĺäºº": 3595,
      "è¯¸å¤§åĲį": 3596,
      "éķ¿å°¾æĻ¯èĻİ": 3597,
      "ä»ªå¼ı": 3598,
      "å¤§å¤ļ": 3599,
      "åīįçº¿": 3600,
      "æľĪå±±å¯ĮçĶ°åŁİ": 3601,
      "æľīäºº": 3602,
      "åħĥå¿ł": 3603,
      "åº·æĶ¿": 3604,
      "æĥħåĨµä¸ĭ": 3605,
      "å¹´ä»£": 3606,
      "ä¸Ģå®ļ": 3607,
      "å¿Į": 3608,
      "çĻ½æ²³": 3609,
      "ä»»ä½ķ": 3610,
      "æĺ¾ç¤º": 3611,
      "çľŁçĶ°å¹¸": 3612,
      "éĩįå»º": 3613,
      "éļıä¹ĭ": 3614,
      "çº³åħ¥": 3615,
      "ä¸įä¼ļ": 3616,
      "å¹¶å°Ĩ": 3617,
      "æ®Ĭ": 3618,
      "çĬ¶æĢģ": 3619,
      "å¯ĩ": 3620,
      "å¿§": 3621,
      "å¤©æŃ£åħĥå¹´": 3622,
      "è´¥åĮĹ": 3623,
      "åĽ´æĶ»": 3624,
      "æļĤæĹ¶": 3625,
      "ä¹īè´ŀ": 3626,
      "çĶŁæ¯į": 3627,
      "ä¸¤åĽ½": 3628,
      "ä¸Ģä½į": 3629,
      "æī¶": 3630,
      "åĮ¹": 3631,
      "æĴĳ": 3632,
      "çīµåĪ¶": 3633,
      "äºķåŁİ": 3634,
      "åį³ä¾¿": 3635,
      "å¹¶æĹł": 3636,
      "æĦıåĽ¾": 3637,
      "å°Ķ": 3638,
      "å®ĺèģĮ": 3639,
      "çªģè¢Ń": 3640,
      "ç´«": 3641,
      "æ¥ł": 3642,
      "åİŁåŁİ": 3643,
      "çİ°åŃĺ": 3644,
      "ç©´å±±": 3645,
      "åĲ¹": 3646,
      "æĶ¿åıĺ": 3647,
      "éª¨": 3648,
      "è¶ĬåīįåĽ½": 3649,
      "çŁ³å±±æľ¬æĦ¿å¯º": 3650,
      "æ¸Ĭ": 3651,
      "åºľä¸Ń": 3652,
      "é¢Ŀ": 3653,
      "è¾ĵ": 3654,
      "è¯´æĺ¯": 3655,
      "åĬłå¼º": 3656,
      "è¶³åĪ©æ°ı": 3657,
      "æĳĦæ´¥åĽ½": 3658,
      "æī°": 3659,
      "ç«ł": 3660,
      "çĬ¹": 3661,
      "åĲĥ": 3662,
      "ä¸īä½į": 3663,
      "åĬ¨åĲĳ": 3664,
      "æĺĮæĻ¯": 3665,
      "æ¸¡è¾¹": 3666,
      "å°¹": 3667,
      "ä¸ĢæĹ¶": 3668,
      "æľĢä¸Ĭä¹īåħī": 3669,
      "æ½ľ": 3670,
      "èĥľä¹ħ": 3671,
      "éĴŁ": 3672,
      "å¤©æŃ£åįģå¹´": 3673,
      "æ³¢å¤ļ": 3674,
      "æķ¦": 3675,
      "è°ı": 3676,
      "å»ºè®®": 3677,
      "é£ŀé©": 3678,
      "æĿİ": 3679,
      "åĽ½åı¸": 3680,
      "ä¸ºä¸Ńå¿ĥ": 3681,
      "ä¸ĢåĲĳå®Ĺ": 3682,
      "ä¸Ī": 3683,
      "åħĨ": 3684,
      "ä¸ľåĽ½": 3685,
      "ç®ķ": 3686,
      "æºĲèµĸæľĿ": 3687,
      "å¤¹åĩ»": 3688,
      "ä¸ĢçĶŁ": 3689,
      "æĭ¢": 3690,
      "å´ĩ": 3691,
      "é¡ºåºĨ": 3692,
      "ä¸°èĩ£ç§Ģèµĸ": 3693,
      "èįĴæľ¨æĿĳéĩį": 3694,
      "æĺĶ": 3695,
      "éĻįä¼ı": 3696,
      "ä¿¡çº²": 3697,
      "åĢį": 3698,
      "å¤§èĢģ": 3699,
      "å£«æ°Ķ": 3700,
      "å®½æĶ¿": 3701,
      "éªĳåħµ": 3702,
      "æŃ¦èĢħ": 3703,
      "ãģį": 3704,
      "åıįæĬĹ": 3705,
      "æ¸¸ä½Ĳ": 3706,
      "åĨĪå´İåŁİ": 3707,
      "é«ĺåŁİ": 3708,
      "éĥ¡å±±åŁİ": 3709,
      "èĮ¶éģĵ": 3710,
      "é£ŀé©Ĵ": 3711,
      "ä¸ºæŃ¤": 3712,
      "å£¬": 3713,
      "å¾¡å®¶äºº": 3714,
      "å¤ªåĪĢ": 3715,
      "çĹħæŃ»": 3716,
      "å¸®åĬ©": 3717,
      "ä¸Ģåľº": 3718,
      "åħ¶ä½Ļ": 3719,
      "èĩ³äºİ": 3720,
      "æ²¡èĲ½": 3721,
      "åįĬå²Ľ": 3722,
      "æİ¢é¢ĺ": 3723,
      "ãģ§": 3724,
      "æ²³åİŁ": 3725,
      "éķ°ä»ĵåħ¬æĸ¹": 3726,
      "åīįçĶ°åĪ©": 3727,
      "ç¦ģæŃ¢": 3728,
      "èĪŁ": 3729,
      "åĢĴåĲĳ": 3730,
      "èµ¦åħį": 3731,
      "ä¹ı": 3732,
      "çĶ°ä¸Ń": 3733,
      "çĽĸ": 3734,
      "ä¼ļè®®": 3735,
      "åĩºåŁİ": 3736,
      "æµħäºķå®¶": 3737,
      "ä¸įåĨį": 3738,
      "æ©¹": 3739,
      "ç½ļ": 3740,
      "çľŁæŃ£": 3741,
      "å¤ıä¹ĭéĺµ": 3742,
      "åįģåħŃ": 3743,
      "ç«ĭä¸ĭæĪĺåĬŁ": 3744,
      "æ´Ĺ": 3745,
      "ä¸»å¯¼": 3746,
      "å¹³åİŁ": 3747,
      "æĥľ": 3748,
      "åį±æľº": 3749,
      "å¾ģå¤·å¤§å°ĨåĨĽ": 3750,
      "æľ¬éĺŁ": 3751,
      "ä½įç½®": 3752,
      "åįĴå¹´ä¸įè¯¦": 3753,
      "åĩºåĩ»": 3754,
      "æ¯ķ": 3755,
      "é«ĺå±±": 3756,
      "å½¢åĬ¿": 3757,
      "éĩĩçĶ¨": 3758,
      "æĳĨ": 3759,
      "æ¸¡æµ·": 3760,
      "æĬļ": 3761,
      "å¹¶ä»¥": 3762,
      "æľĿä»ĵæ°ı": 3763,
      "æ´»è·ĥäºİ": 3764,
      "ä½ľçĶ¨": 3765,
      "å²Ľæ´¥å¿ł": 3766,
      "ä¸ĢéĿ¢": 3767,
      "æĿ¾å¹³å¿ł": 3768,
      "çªģåĩ»": 3769,
      "åħ«éĥİ": 3770,
      "äºĭæĥħ": 3771,
      "è§ģäºİ": 3772,
      "éĵł": 3773,
      "æĶ¾çģ«": 3774,
      "è¿ľæ±ŁåĽ½": 3775,
      "ä»¿": 3776,
      "éĺµåľ°": 3777,
      "é¾Ħ": 3778,
      "ä½Ĳä½ĲæĪĲæĶ¿": 3779,
      "ä¸īçĶ·": 3780,
      "èĭı": 3781,
      "å®īæİĴ": 3782,
      "è´µæĹı": 3783,
      "åĮ»": 3784,
      "æı´åĬ©": 3785,
      "èģĶç»ľ": 3786,
      "å±ĭæķ·": 3787,
      "æħ¢": 3788,
      "èĶ": 3789,
      "éĺ³åĨĽ": 3790,
      "éģĵè·¯": 3791,
      "äº¤éĢļ": 3792,
      "ä¸įå°ĳ": 3793,
      "å½Ĵå±ŀ": 3794,
      "åĲįåı¤å±ĭ": 3795,
      "å±ı": 3796,
      "äºİæŃ¤": 3797,
      "å¥īåĳ½": 3798,
      "åĨĪåŁİ": 3799,
      "æĹ¥åĨĽ": 3800,
      "è¾Ī": 3801,
      "æĿ¥èĩª": 3802,
      "åıĳæĮ¥": 3803,
      "æĹłè®º": 3804,
      "åł¤": 3805,
      "ä¸°èĩ£æ°ı": 3806,
      "ä½ĵçİ°": 3807,
      "æķķ": 3808,
      "çº¸": 3809,
      "ä¹īä¿¡": 3810,
      "è¢ĸ": 3811,
      "å´©æºĥ": 3812,
      "å®ł": 3813,
      "æľ¬æĿ¥": 3814,
      "ç¥Ī": 3815,
      "145": 3816,
      "éĶĲ": 3817,
      "éķĩå®Ī": 3818,
      "å¿Ĺè´º": 3819,
      "åĵįåºĶ": 3820,
      "æŃ¦åĭĩ": 3821,
      "é¢ĨåľŁ": 3822,
      "ãģı": 3823,
      "æĶ¯åŁİ": 3824,
      "æĬ±": 3825,
      "æİª": 3826,
      "çĶŁå¹´ä¸įè¯¦": 3827,
      "é¸Łåıĸ": 3828,
      "å°ıå§ĵ": 3829,
      "åıĳå¸ĥ": 3830,
      "ä¸ľåĮĹ": 3831,
      "å¦Ĥæ°´": 3832,
      "å½ĴåĽ½": 3833,
      "å±¥åİĨ": 3834,
      "é¦ĸæ¬¡": 3835,
      "ç«¹ä¸Ń": 3836,
      "åĪĹä¸º": 3837,
      "åłĢè¶Ĭ": 3838,
      "æľ±åį°": 3839,
      "éªļåĬ¨": 3840,
      "åĩºæĪĺ": 3841,
      "è¿İåĩ»": 3842,
      "èīĺ": 3843,
      "åķĬ": 3844,
      "å¤ľè¢Ń": 3845,
      "éģŃéģĩ": 3846,
      "èŀ": 3847,
      "ç»Ĩå·Ŀå®¶": 3848,
      "æ°ıä¸ĢæĹı": 3849,
      "é©°": 3850,
      "å®ŀä¸º": 3851,
      "æĸĭèĹ¤åĪ©": 3852,
      "ä¸įåĪ©": 3853,
      "æ»ĭ": 3854,
      "1566": 3855,
      "è¶ģæľº": 3856,
      "æĪĺåľºä¸Ĭ": 3857,
      "çĶŁå¹³": 3858,
      "ä¸Ńå·Ŀ": 3859,
      "çĲĨçĶ±": 3860,
      "èĢĥèĻĳ": 3861,
      "èĸĦ": 3862,
      "ä¸ºåħ¶": 3863,
      "ä¹ĭè¯´": 3864,
      "åį³ä½¿": 3865,
      "å¼ķèµ·": 3866,
      "éķ¿æ²»": 3867,
      "èĹ©å£«": 3868,
      "åħ·ä½ĵ": 3869,
      "ç«ĭèĬ±å®¶": 3870,
      "å²Ń": 3871,
      "æįŁå¤±": 3872,
      "å±±æľ¬": 3873,
      "ä»İèĢĮ": 3874,
      "ä¸ºæį®çĤ¹": 3875,
      "ä¸ºä¿¡": 3876,
      "æĺ¾å®ļ": 3877,
      "ä¸°èĩ£åĨĽ": 3878,
      "æĻ´å®Ĺ": 3879,
      "è¯·æĸĩ": 3880,
      "å½¼": 3881,
      "1588": 3882,
      "çĶµ": 3883,
      "ä¸ŃæľŁ": 3884,
      "ä½Ĳä¹ħéĹ´ä¿¡çĽĽ": 3885,
      "æĻ¨": 3886,
      "æĮ¡": 3887,
      "å®ĪæĬ¤èģĮ": 3888,
      "çĻ¾äºº": 3889,
      "çĪ±çŁ¥åİ¿": 3890,
      "å®Ĺåħ¨": 3891,
      "å²ĽåŁİ": 3892,
      "èµ·åĪĿ": 3893,
      "ä½Ĳä½Ĳæľ¨": 3894,
      "å¥ĸ": 3895,
      "æ³Ľ": 3896,
      "åŁİä¸ĭçĶº": 3897,
      "èĢĮåĲİ": 3898,
      "é«ĺè¿ľ": 3899,
      "æĦŁçĬ¶": 3900,
      "åķĨè®®": 3901,
      "ä¼¼ä¹İ": 3902,
      "ä»¥å¤ĸ": 3903,
      "è®°è¿°": 3904,
      "èķ": 3905,
      "éķ¿è°·": 3906,
      "å´İåŁİ": 3907,
      "âĢķ": 3908,
      "æ°ıå®¶": 3909,
      "èº«äº¡": 3910,
      "é¡ºåĪ©": 3911,
      "æĸ¥": 3912,
      "çĲĥ": 3913,
      "1556": 3914,
      "å±Ī": 3915,
      "ä¸įçŁ¥": 3916,
      "å®īèĹ¤": 3917,
      "1591": 3918,
      "1558": 3919,
      "å°ıå¹¡": 3920,
      "éķ¿äºķ": 3921,
      "ä¸Ĭçļĩ": 3922,
      "ä¹īå°§": 3923,
      "çķłå±±æ°ı": 3924,
      "300": 3925,
      "èĢĮæĿ¥": 3926,
      "èµ·è¯·æĸĩ": 3927,
      "æĤ¨": 3928,
      "å±±åĲįæ°ı": 3929,
      "å¤©çİĭå¯º": 3930,
      "æĹ©å¹´": 3931,
      "åĭ¤": 3932,
      "ä¹ĭäºī": 3933,
      "æŃ£ä¿¡": 3934,
      "é«ĺå¤©ç¥ŀ": 3935,
      "çĽ¸å¯¹": 3936,
      "åħŃè§Ĵæ°ı": 3937,
      "æ´ĭ": 3938,
      "åıĸä»£": 3939,
      "é¢ģå¸ĥ": 3940,
      "æľīçĿĢ": 3941,
      "ä¸ľæµ·éģĵ": 3942,
      "å®ĩåĸľå¤ļç§Ģå®¶": 3943,
      "åįĸ": 3944,
      "äºİæ°¸ç¦Ħ": 3945,
      "ä¾£": 3946,
      "åĽŀå½Ĵ": 3947,
      "ç¼ĵ": 3948,
      "æ±Ĥæı´": 3949,
      "è®¾ç½®": 3950,
      "æĿµ": 3951,
      "éĹ²": 3952,
      "ä¸īå¥½æ°ı": 3953,
      "ä¹Į": 3954,
      "æ´¥è½»": 3955,
      "æĶ¹å§ĵ": 3956,
      "å®ĪåŁİ": 3957,
      "æ·¡è·¯": 3958,
      "ä¸ĢåĲį": 3959,
      "å¥ł": 3960,
      "éļĪ": 3961,
      "ä»»åĬ¡": 3962,
      "ä¸ªäºº": 3963,
      "æŁĵ": 3964,
      "ä¸ĬæĿīå®ªæĶ¿": 3965,
      "éķ¿æ»¨": 3966,
      "èģĶç³»": 3967,
      "åĬª": 3968,
      "æį®ä¼ł": 3969,
      "ç²Ł": 3970,
      "å¿įèĢħ": 3971,
      "ï½ŀ": 3972,
      "æĩ": 3973,
      "æģ°": 3974,
      "è¶³åĪ©ä¹īæĶ¿": 3975,
      "éĥ¨å°ĳè¾ħ": 3976,
      "éªĮ": 3977,
      "çĮ¿": 3978,
      "æĺ¾å¦Ĥ": 3979,
      "æľ¬å¤ļå¿łèĥľ": 3980,
      "è¹": 3981,
      "æ°¸äº«": 3982,
      "åı³è¿ĳ": 3983,
      "ä¹ĭä¹±ä¸Ń": 3984,
      "åºĦåĨħ": 3985,
      "å±±åĨħä¸ĬæĿīå®¶": 3986,
      "éķ¿ä¹ħæīĭä¹ĭæĪĺ": 3987,
      "çıŃ": 3988,
      "ä¿ĺ": 3989,
      "å¤©ä¸»": 3990,
      "æĬ¢": 3991,
      "æİ¨è¿Ľ": 3992,
      "æģĴåħ´": 3993,
      "éĤĢè¯·": 3994,
      "æľĢé«ĺ": 3995,
      "è¾¾åĪ°": 3996,
      "1554": 3997,
      "é¾ĻéĢłå¯ºéļĨä¿¡": 3998,
      "èĩ³æ±ŁæĪ·æĹ¶ä»£åīįæľŁ": 3999,
      "åħŃè§Ĵå®¶": 4000,
      "æļĹä¸Ń": 4001,
      "ä¹ĭæĦı": 4002,
      "éĻª": 4003,
      "åłª": 4004,
      "æīĵåĩ»": 4005,
      "åºĨéķ¿ä¹ĭå½¹": 4006,
      "æºĲä¹ī": 4007,
      "ãģĬ": 4008,
      "çĶ²éĺ³åĨĽ": 4009,
      "è¡¨æĺİ": 4010,
      "åı¬éĽĨ": 4011,
      "çĶ²éĺ³åĨĽéī´": 4012,
      "åĲĮæĦı": 4013,
      "æĶ¯æĴĳ": 4014,
      "ä½ĽæķĻ": 4015,
      "èĹ¤åłĤé«ĺèĻİ": 4016,
      "åı¡": 4017,
      "æ¡Ĳ": 4018,
      "æĹ©å·²": 4019,
      "èĤ¯": 4020,
      "ä¹ĥæĺ¯": 4021,
      "å®ľ": 4022,
      "éĹŃ": 4023,
      "çģ¾": 4024,
      "åºĨéķ¿åįģ": 4025,
      "ç±³æ³½": 4026,
      "ä»Ĭå·Ŀæ°ıçľŁ": 4027,
      "å·¨å¤§": 4028,
      "éĻįæľį": 4029,
      "äºĶåįĥ": 4030,
      "åįİæĹı": 4031,
      "èĵ": 4032,
      "åħµç²®": 4033,
      "çĶ²åºľ": 4034,
      "æŀģä¸º": 4035,
      "ä¸Ŀ": 4036,
      "ç§Ģåº·": 4037,
      "çĽĽäº²": 4038,
      "åı¯èĥ½æĺ¯": 4039,
      "åĥ§ä¾£": 4040,
      "åıįæĺł": 4041,
      "å°ıæĹ©å·Ŀç§Ģç§ĭ": 4042,
      "å¤©éĩİ": 4043,
      "åīĥ": 4044,
      "åľŁè±ª": 4045,
      "çĶ¨äºİ": 4046,
      "æĬķå¥Ķ": 4047,
      "æĹ¥åİ»ä¸ĸ": 4048,
      "äº¤ç»Ļ": 4049,
      "éļĨæĪ¿": 4050,
      "éķ¿å°¾æĻ¯": 4051,
      "å±ĢéĿ¢": 4052,
      "å¿łè¯ļ": 4053,
      "æĽ°": 4054,
      "è¯¸ä¾¯": 4055,
      "èģĶå§»": 4056,
      "æĶ¶åĪ°": 4057,
      "1559": 4058,
      "åĲ¯": 4059,
      "æ²¹": 4060,
      "å±ħäºİ": 4061,
      "äººæķ°": 4062,
      "æŀĿ": 4063,
      "å®¶çĿ£çĶ±": 4064,
      "æ¹¾": 4065,
      "ä»Ĭå·ĿåĨĽ": 4066,
      "éĺ²å¤ĩ": 4067,
      "éĽĨåĽ¢": 4068,
      "æģ¶åĮĸ": 4069,
      "æĿĳä¸Ĭä¹īæ¸ħ": 4070,
      "çºĤ": 4071,
      "å·¦äº¬": 4072,
      "å²©åŁİ": 4073,
      "é»ĳçĶ°éķ¿æĶ¿": 4074,
      "ç«ĭåľº": 4075,
      "å·Ŀæ°ı": 4076,
      "åĮĹæĿ¡æ°ıçº²": 4077,
      "å¤§åĿĤä¹ĭéĺµ": 4078,
      "ãģĻ": 4079,
      "éĿ¢åīį": 4080,
      "ä½¿åħ¶": 4081,
      "çĮª": 4082,
      "ç³»è°±": 4083,
      "çĻ»éĻĨ": 4084,
      "åħµé©¬": 4085,
      "ä¸ľéĥ¨": 4086,
      "äºĭè¿¹": 4087,
      "æī¿æĭħ": 4088,
      "åħ¥åŁİ": 4089,
      "æĥ¯": 4090,
      "åĨĽåĽ¢": 4091,
      "æľ¬èº«": 4092,
      "å¯ĮçĶ°": 4093,
      "é¸£": 4094,
      "å§»äº²": 4095,
      "çŁ³åŀ£": 4096,
      "åįĹä¸ĭ": 4097,
      "å¯¡": 4098,
      "ç»ıèĲ¥": 4099,
      "æĦıè§ģ": 4100,
      "æĪĺåĽ½æĹ¶ä»£æŃ¦å°Ĩ": 4101,
      "ç´¢": 4102,
      "æĸ¯æ³¢æ°ı": 4103,
      "èµĭ": 4104,
      "çĭĤ": 4105,
      "1595": 4106,
      "åĿļå®Ī": 4107,
      "å¤§éļħ": 4108,
      "è§Ħå®ļ": 4109,
      "è¶ĭ": 4110,
      "å¹¿å®¶": 4111,
      "å¼ĢæĪĺ": 4112,
      "å°ļæľª": 4113,
      "çĶ°éĥ¡": 4114,
      "éĢĤ": 4115,
      "çŁ³åŁİ": 4116,
      "å»¶åİĨ": 4117,
      "æŁĦ": 4118,
      "å±±åŁİä¸»": 4119,
      "1542": 4120,
      "éĩįçĶ¨": 4121,
      "164": 4122,
      "åľ°å½¢": 4123,
      "å¾ģè®¨": 4124,
      "èįĲ": 4125,
      "æİĮæİ§": 4126,
      "æ´¥å·Ŀ": 4127,
      "å·ŀå®¶": 4128,
      "ç»Ļè±«": 4129,
      "ä¾Ħ": 4130,
      "æ¬¾": 4131,
      "ä»ĵåŁİ": 4132,
      "çīĮ": 4133,
      "åħīå¯º": 4134,
      "ä¾ĿéĻĦ": 4135,
      "åīįéĩİ": 4136,
      "å®īæĪ¿": 4137,
      "åħ»å¥³": 4138,
      "1551": 4139,
      "æ¯Ķåı¡": 4140,
      "å¾·å¯º": 4141,
      "åħ·æľī": 4142,
      "ç½Ĺé©¬": 4143,
      "è®°ä¸º": 4144,
      "æī§äºĭ": 4145,
      "è¿ģèĩ³": 4146,
      "æ£®éķ¿åı¯": 4147,
      "æĿ°": 4148,
      "èĥ¡": 4149,
      "å°Ĩå£«": 4150,
      "åľ°çĲĨ": 4151,
      "è¡°èĲ½": 4152,
      "æĶ¿æĻ¯": 4153,
      "æ³ķå¸Ī": 4154,
      "çİ°ä»Ĭ": 4155,
      "éģ¿åħį": 4156,
      "é©¾": 4157,
      "ä¹Ŀé¬¼": 4158,
      "è¿ľå¾ģ": 4159,
      "ç¦ıåİŁ": 4160,
      "åĭĩçĮĽ": 4161,
      "è¯ĽæĿĢ": 4162,
      "100": 4163,
      "åĲĹ": 4164,
      "ä¹ĭæŃ»": 4165,
      "åŃ©": 4166,
      "æŃ£éĿ¢": 4167,
      "æľ¬æį®": 4168,
      "éĶģ": 4169,
      "åĮºåŁŁ": 4170,
      "é¢ģåıĳ": 4171,
      "èĳĽè¥¿": 4172,
      "èı©æıĲ": 4173,
      "Ġå±¥åİĨ": 4174,
      "åĲĮä¸º": 4175,
      "æĸĩç¦Ħä¹ĭå½¹": 4176,
      "æĪª": 4177,
      "æŃ£èĥľ": 4178,
      "æīĭä¸ĭ": 4179,
      "å¥¥ç¾½": 4180,
      "å¢ŀåĬł": 4181,
      "ä¸»åħ¬": 4182,
      "1557": 4183,
      "ãĤĪ": 4184,
      "ä¼ģåĽ¾": 4185,
      "åĪĽå»º": 4186,
      "å®ŀè´¨": 4187,
      "å°¼åŃĲåĨĽ": 4188,
      "èµĦæĸĻ": 4189,
      "æľĿä»ĵæĻ¯": 4190,
      "èĳĹç§°": 4191,
      "äºĭå®ŀä¸Ĭ": 4192,
      "å±ħå£«": 4193,
      "æİ¥è¿ĳ": 4194,
      "å®¶ä¸ļ": 4195,
      "åĲįéĹ¨": 4196,
      "å¾Īå¤ļ": 4197,
      "ä¼łæķĻå£«": 4198,
      "åĽłåħ¶": 4199,
      "å§ĵæ°ı": 4200,
      "è¿ĩåİ»": 4201,
      "è§ĤéŁ³": 4202,
      "å®£å¸ĥ": 4203,
      "æĴŃç£¨åĽ½": 4204,
      "çĥ§æ¯ģ": 4205,
      "ä¸įåĪ°": 4206,
      "éĻ¢æ®¿": 4207,
      "è®©è±«": 4208,
      "é»ĳçĶ°åŃĿé«ĺ": 4209,
      "æŁ³çĶŁ": 4210,
      "ãģĤ": 4211,
      "æ²³éĩİ": 4212,
      "è®©ç»Ļ": 4213,
      "åįĴäºİ": 4214,
      "åĩºäºĳåĽ½": 4215,
      "å¥īåħ¬ä¼Ĺ": 4216,
      "å±±åİ¿æĺĮæĻ¯": 4217,
      "ä¸Ĭäº¬": 4218,
      "ä»İåĽĽ": 4219,
      "ä¸°èĩ£ç§Ģæ¬¡": 4220,
      "åĥļ": 4221,
      "å°Ħåĩ»": 4222,
      "å¹´èĩ³": 4223,
      "ãģĵ": 4224,
      "æľĢæĹ©": 4225,
      "æľ¬å±±": 4226,
      "éĩįå¤§": 4227,
      "éĺ¶å±Ĥ": 4228,
      "åİ©": 4229,
      "æĴ°": 4230,
      "ä¸ĢèģĮ": 4231,
      "æľīæīĢ": 4232,
      "éĥ¡åĨħ": 4233,
      "ç»Ĩå·ĿèĹ¤åŃĿ": 4234,
      "1548": 4235,
      "è°ĪåĪ¤": 4236,
      "ä¸ĢäºĽ": 4237,
      "åĪ©çĽĬ": 4238,
      "è¥¿éĥ¨": 4239,
      "ä¹Ŀå·ŀå¾ģä¼Ĳ": 4240,
      "ä¸ĢçĻ¾": 4241,
      "å¯¹é©¬": 4242,
      "å±ķçİ°": 4243,
      "ä¸ĭéĩİåĽ½": 4244,
      "äºĮä¹ĭä¸¸": 4245,
      "æµ·ä¸Ĭ": 4246,
      "è¶³åĪ©ä¹īè¾ī": 4247,
      "å¤§ä¹ħä¿Ŀå¿ł": 4248,
      "ç§Ģçº²": 4249,
      "æĺİç¡®": 4250,
      "ç»Ĩå·Ŀèĥľåħĥ": 4251,
      "åĦ¿çİī": 4252,
      "é¾Ļåħ´": 4253,
      "åŃĿæĻ¯": 4254,
      "åĬĽäºİ": 4255,
      "è¿ĳå¹´": 4256,
      "æĪ·çĶ°": 4257,
      "å¢¨": 4258,
      "æĪĺæĸĹä¸Ń": 4259,
      "äºļ": 4260,
      "å¯¹æĸ¹": 4261,
      "åĳ¨éĺ²åĽ½": 4262,
      "æī®": 4263,
      "ä¸īä¸ª": 4264,
      "ä¾įä»İ": 4265,
      "çĦļæ¯ģ": 4266,
      "åĲĪä½ľ": 4267,
      "åĵª": 4268,
      "åĬĿè¯´": 4269,
      "çĨĬè°·": 4270,
      "æł¹æĿ¥": 4271,
      "è¿ĻéĩĮ": 4272,
      "éĢĲåĩº": 4273,
      "æ¯Ķåı¡å±±": 4274,
      "è²": 4275,
      "çĽ´èĮĤ": 4276,
      "åĪ¶å®ļ": 4277,
      "çĲ¼": 4278,
      "åĩºå¥Ķ": 4279,
      "ä¸ºå¦»": 4280,
      "ä¸Ĭè¿°": 4281,
      "æ¬¡æĹ¥": 4282,
      "å»»": 4283,
      "æķħäºĭ": 4284,
      "åŃ¦èĢħ": 4285,
      "è°Ĵè§ģ": 4286,
      "éĩįæĶ¿": 4287,
      "æĿ¾å¹³æ°ı": 4288,
      "1541": 4289,
      "ä¸įå¦Ĥ": 4290,
      "1589": 4291,
      "æĸĩç¦Ħåħĥå¹´": 4292,
      "éĿĻåĨĪ": 4293,
      "å¹ħ": 4294,
      "èĢĮå·²": 4295,
      "çĶ°åİŁ": 4296,
      "ç±»ä¼¼": 4297,
      "æĪĸè®¸": 4298,
      "è½¬æĪĺ": 4299,
      "å»¶åİĨå¯º": 4300,
      "åĽĽåįģ": 4301,
      "éļıä»İ": 4302,
      "è¿ŀæŃĮ": 4303,
      "åħ¼ä»»": 4304,
      "1550": 4305,
      "è¿½éļı": 4306,
      "åĮħåĽ´ç½ĳ": 4307,
      "å¤§éĥ¨åĪĨ": 4308,
      "åĨĪå±±": 4309,
      "æĢİä¹Ī": 4310,
      "æĪı": 4311,
      "åĲĮæľĪ": 4312,
      "å¯¹åºĶ": 4313,
      "åħ³åİŁä¹ĭæĪĺä¸Ń": 4314,
      "åĢŃå¯ĩ": 4315,
      "3000": 4316,
      "æĥ³åĪ°": 4317,
      "åŀĴ": 4318,
      "çŃĳç´«": 4319,
      "æĽ´æĺ¯": 4320,
      "ä¸Ģçķª": 4321,
      "åĲįæĬ¤": 4322,
      "å¤ªæĶ¿": 4323,
      "æĥ³è¦ģ": 4324,
      "ä¸¤ä½į": 4325,
      "1593": 4326,
      "å·¥ç¨ĭ": 4327,
      "æŃ£å¹³": 4328,
      "äº¬çķ¿": 4329,
      "çİĩåħĪ": 4330,
      "æ¯«æĹł": 4331,
      "æ¥łæľ¨": 4332,
      "ä¸ĢæĹ¦": 4333,
      "çĽĹ": 4334,
      "æŃ¦åĻ¨": 4335,
      "çºł": 4336,
      "åĽ´ç»ķ": 4337,
      "ä¸ĬæľĪ": 4338,
      "åĨħæĶ¿": 4339,
      "å¯Įå£«": 4340,
      "éĩĮè§ģæ°ı": 4341,
      "æīİ": 4342,
      "æŃ£äº²": 4343,
      "æµ®": 4344,
      "çĽĽæĶ¿": 4345,
      "å°¼åŃĲç»ıä¹ħ": 4346,
      "å¦¹å¦¹": 4347,
      "ä»Ĺ": 4348,
      "ç»ĥ": 4349,
      "ä¹ĭå¦»": 4350,
      "éĢı": 4351,
      "çº¢": 4352,
      "ç¥Ŀ": 4353,
      "è¾¹å¢ĥ": 4354,
      "çŃĸåıį": 4355,
      "å®ĩéĥ½å®«æ°ı": 4356,
      "ä¸Ģéĥ¨åĪĨ": 4357,
      "èĢ¶": 4358,
      "ç»ĵæĪĲ": 4359,
      "åĪĿéĺµ": 4360,
      "éķ¿çŃ±": 4361,
      "å¥ĳ": 4362,
      "ä¸»åĬ¨": 4363,
      "éĢļå¸¸": 4364,
      "åıĺæĪĲ": 4365,
      "åİŁä¸º": 4366,
      "æŀļ": 4367,
      "åĽ¾è°ĭ": 4368,
      "æľįéĥ¨": 4369,
      "è§£éĩĬ": 4370,
      "ç®±": 4371,
      "è¯¥åľ°": 4372,
      "éļ¶å±ŀ": 4373,
      "ä¸ģ": 4374,
      "ä¸Ģä¸¾": 4375,
      "æĿ¾æµ¦": 4376,
      "æ´¥çĶ°": 4377,
      "å®¶èĩ£ä»¬": 4378,
      "è®¸åı¯": 4379,
      "å¢ĥåĨħ": 4380,
      "æĶ¿ç§Ģ": 4381,
      "1553": 4382,
      "æī§è¡Į": 4383,
      "æ¯Ĵ": 4384,
      "ä¸ĸè¢Ń": 4385,
      "çªģçł´": 4386,
      "ç¡®ä¿Ŀ": 4387,
      "è®¾ç«ĭ": 4388,
      "ä¹ĭèģĮ": 4389,
      "åİĨä»£": 4390,
      "æıĲåĪ°": 4391,
      "åĩĢåľŁ": 4392,
      "åįģæĹ¶": 4393,
      "æīĭæ®µ": 4394,
      "çģ«ç»³": 4395,
      "çĸ²": 4396,
      "ä¾Ŀæį®": 4397,
      "éĻĨå¥¥åĽ½": 4398,
      "ç¢ĳ": 4399,
      "ä¼ĬåĬ¿è´ŀ": 4400,
      "ä¹īæ»¡": 4401,
      "æĿ¥çľĭ": 4402,
      "è¯¸åĽ½": 4403,
      "åĨ³å¿ĥ": 4404,
      "çĮĽæĶ»": 4405,
      "åĨ¬ä¹ĭéĺµ": 4406,
      "è²Į": 4407,
      "æĸĩçĮ®": 4408,
      "èİ·èĥľ": 4409,
      "åĩĳ": 4410,
      "äº¬åħĨ": 4411,
      "éĺ»æŃ¢": 4412,
      "èŀį": 4413,
      "å¥łå®ļ": 4414,
      "äººé©¬": 4415,
      "æľīåĲį": 4416,
      "æĿ¾äºķ": 4417,
      "åı·ç§°": 4418,
      "éĺ¿å¼¥": 4419,
      "ç¹ģéķ¿": 4420,
      "åĽºå®Ī": 4421,
      "åĩŃåĢŁ": 4422,
      "å¤§è°·åĲīç»§": 4423,
      "æĬĦ": 4424,
      "æŀ¶": 4425,
      "å¤ļå¹´": 4426,
      "æĻ´æ°ı": 4427,
      "å¤§è¾ħ": 4428,
      "æİĺ": 4429,
      "çĮİ": 4430,
      "è¡°éĢĢ": 4431,
      "èĴ²çĶŁæ°ıä¹¡": 4432,
      "åŁºçĿ£æķĻ": 4433,
      "å¤©ä¸»æķĻ": 4434,
      "ç§Ģèĥľ": 4435,
      "å·´": 4436,
      "ãģ¤": 4437,
      "è´Łä¼¤": 4438,
      "çºªå·ŀ": 4439,
      "åħ³åİŁä¹ĭæĪĺåĲİ": 4440,
      "ä¸Ģè¾¹": 4441,
      "åĲİç»§": 4442,
      "æŃ¤åĲĮæĹ¶": 4443,
      "å°±æŃ¤": 4444,
      "è¿ŀç½²": 4445,
      "ä¼ĬåĬ¿åĽ½": 4446,
      "çŃĸçķ¥": 4447,
      "æĻ®è¯·": 4448,
      "éĢĢåĽŀ": 4449,
      "å®¿èĢģ": 4450,
      "ä¸½": 4451,
      "åĲŀ": 4452,
      "èĹ¤åĲī": 4453,
      "æ¶¦": 4454,
      "çĶ²è´º": 4455,
      "1552": 4456,
      "çĮ®ä¸Ĭ": 4457,
      "èµıèµĲ": 4458,
      "åĶ¯ä¸Ģ": 4459,
      "ä¹°": 4460,
      "æ²»çĲĨ": 4461,
      "è¿ĩç»§": 4462,
      "è¡Ĺéģĵ": 4463,
      "çĩ": 4464,
      "å¦Ĥä¸ĭ": 4465,
      "å°¼åŃĲæĻ´ä¹ħ": 4466,
      "åĩ¡": 4467,
      "ä¸īä¸ĩ": 4468,
      "åħĥä¿¡": 4469,
      "çº¦å®ļ": 4470,
      "æ¡¶çĭŃéĹ´ä¹ĭæĪĺ": 4471,
      "å®į": 4472,
      "å¤§å®Ŀ": 4473,
      "çŃ¿": 4474,
      "æ±ŁåŁİ": 4475,
      "æ´¾åħµ": 4476,
      "æĶ¹åıĺ": 4477,
      "å«¡æµģ": 4478,
      "ä¾µçķ¥": 4479,
      "åĹ£åŃĲ": 4480,
      "äºķä¼ĬçĽ´æĶ¿": 4481,
      "å¯¹æīĭ": 4482,
      "éļıè¡Į": 4483,
      "åħĪåīį": 4484,
      "æ¤İ": 4485,
      "è¿ĩç¨ĭä¸Ń": 4486,
      "å¤ķ": 4487,
      "æĶ¿çŁ¥": 4488,
      "åĬłä¹ĭ": 4489,
      "éĽĨä¸Ń": 4490,
      "å²©æĿĳ": 4491,
      "æĢ§åĳ½": 4492,
      "åĨł": 4493,
      "ç¬¦": 4494,
      "è¿ĳä¸ĸ": 4495,
      "æŁ±": 4496,
      "åį³å°Ĩ": 4497,
      "è¯¸åŁİ": 4498,
      "éĵľ": 4499,
      "å©ļå§»": 4500,
      "æ§»": 4501,
      "åŃĲåĹ£": 4502,
      "ç§Ģåħĥ": 4503,
      "èĥľæĪĲ": 4504,
      "144": 4505,
      "å²ģæĹ¶": 4506,
      "ä¿¡åıĭ": 4507,
      "çĶŁé©¹": 4508,
      "æłħ": 4509,
      "ä¸ľå±±": 4510,
      "æĺİåĨĽ": 4511,
      "åĿª": 4512,
      "ä¸¾åĬŀ": 4513,
      "ç§ĭå±±": 4514,
      "ä»ĸä»¥": 4515,
      "æĿ¾çĶ°": 4516,
      "åºĨéķ¿äºĶå¹´": 4517,
      "åŀĤ": 4518,
      "æ²¼çĶ°": 4519,
      "åľŁå²Ĳèµĸ": 4520,
      "ä¹ĭå¤Ħ": 4521,
      "å±±ä¸Ĭ": 4522,
      "æĽ´åĬł": 4523,
      "ä¹ĭåŃĲåĩºçĶŁ": 4524,
      "ä¾ĿæĹ§": 4525,
      "æĭīæĭ¢": 4526,
      "çŃĳå±±": 4527,
      "å²ĲéĺľåŁİ": 4528,
      "ä¼łè¾¾": 4529,
      "ç¼ĸçºĤ": 4530,
      "èĳ¬äºİ": 4531,
      "ä¹ĭä¸Ĭ": 4532,
      "åŁİåł¡": 4533,
      "æĺ¯ä¸ª": 4534,
      "åŃ¦ä¹ł": 4535,
      "1546": 4536,
      "èķĥ": 4537,
      "èĳ¡": 4538,
      "æĿ¾å¹³åħĥåº·": 4539,
      "ä¾ĿçĦ¶": 4540,
      "å¤ĸçĶ¥": 4541,
      "å¾¡åīį": 4542,
      "åĳĬç»Ī": 4543,
      "æ¿ĳæĪ·": 4544,
      "åħŃéĥİ": 4545,
      "ç½®äºİ": 4546,
      "åĬ£åĬ¿": 4547,
      "80": 4548,
      "Ġç»ıåİĨ": 4549,
      "ä¸Ģåº§": 4550,
      "è¿Ļä¹Ī": 4551,
      "åĲĳä¿¡éķ¿": 4552,
      "ç¥ŀæĪ·": 4553,
      "èģĮä½į": 4554,
      "å¸¦æĿ¥": 4555,
      "åĲ¬éĹ»": 4556,
      "åİŁçĶ°": 4557,
      "åı¤ä»£": 4558,
      "åĭ¾": 4559,
      "ç§©": 4560,
      "äººä»¬": 4561,
      "å¯¹å¤ĸ": 4562,
      "äºĮéĺ¶": 4563,
      "æīĢçĶŁ": 4564,
      "å½Ĵé¡º": 4565,
      "éķ¿å´İ": 4566,
      "åĬłå°ģ": 4567,
      "è´¡çĮ®": 4568,
      "æĺĶæĹ¥": 4569,
      "èĢĮæŃ»": 4570,
      "æĭĨ": 4571,
      "åģ¥": 4572,
      "è§£åĨ³": 4573,
      "éķ¿å°¾ä¸ºæĻ¯": 4574,
      "æ±łçĶ°æģĴåħ´": 4575,
      "å¢ĵæīĢ": 4576,
      "æĢĢçĸĳ": 4577,
      "æ³¢å¤ļéĩİ": 4578,
      "å¯¸": 4579,
      "åħµæ³ķ": 4580,
      "è´¥èµ°": 4581,
      "åĨįåħ´": 4582,
      "å¸¦é¢Ĩ": 4583,
      "å¥¥å¹³": 4584,
      "éķ¿å°¾æ°ı": 4585,
      "æ¯ĽåĪ©æ°ıå®¶èĩ£": 4586,
      "åģľæŃ¢": 4587,
      "èıħæ²¼": 4588,
      "ä¹ĭåĬ©": 4589,
      "éķ¿äº«": 4590,
      "åĨħè®": 4591,
      "å°ıè°·åŁİ": 4592,
      "å¾¡é¦Ĩ": 4593,
      "åĳ¨åĽ´": 4594,
      "å¹³å®īæĹ¶ä»£": 4595,
      "åºĻ": 4596,
      "1599": 4597,
      "1549": 4598,
      "èĤ¥åīįåĽ½": 4599,
      "âĨ": 4600,
      "ä¸įæķĮ": 4601,
      "åĲīå¼ĺ": 4602,
      "åħ»çĪ¶": 4603,
      "ç«ĭèĬ±å±±åŁİ": 4604,
      "æĥ¨è´¥": 4605,
      "åīĥåıĳ": 4606,
      "ä¸īå®¶": 4607,
      "å®īå®ħ": 4608,
      "èİ«": 4609,
      "åģ·": 4610,
      "ãĤĵ": 4611,
      "è§£éĻ¤": 4612,
      "éºĵ": 4613,
      "å¼Ĥæ¯į": 4614,
      "åī©ä¸ĭ": 4615,
      "åŁİéĥŃ": 4616,
      "éģµ": 4617,
      "æĦĪ": 4618,
      "æľĢä¸º": 4619,
      "ãģ£": 4620,
      "æ¯Ķè¾ĥ": 4621,
      "åĨħè®§": 4622,
      "åĪĪ": 4623,
      "åįģåĽĽ": 4624,
      "æłĩå¿Ĺ": 4625,
      "ä¸įæķ¢": 4626,
      "å¿ĺ": 4627,
      "çĶŁä¸ĭ": 4628,
      "åħ«å¹¡å®«": 4629,
      "ä¸Ģè·¯": 4630,
      "æŃ¦åĬŁ": 4631,
      "åİĭåĪ¶": 4632,
      "å¡ŀ": 4633,
      "å¼ĢåĪĽ": 4634,
      "çĽ¸æ¨¡åĽ½": 4635,
      "æĿĤè´ºä¼Ĺ": 4636,
      "é«ĺå¤©ç¥ŀåŁİ": 4637,
      "äºĮçĻ¾": 4638,
      "åħ¬åħĥ": 4639,
      "è¾īèĻİ": 4640,
      "çĮĽå°Ĩ": 4641,
      "ä¸Ģä¸°": 4642,
      "æ°ıä¸º": 4643,
      "å¼Ĺ": 4644,
      "æĶ¿å¼ĺ": 4645,
      "åĮĹä¹Ŀå·ŀ": 4646,
      "çłį": 4647,
      "æĦ¿æĦı": 4648,
      "åĲİæĪĲä¸º": 4649,
      "èĪľ": 4650,
      "ä¿ĿçķĻ": 4651,
      "æĸĹäºī": 4652,
      "éªĳé©¬": 4653,
      "çŃĶåºĶ": 4654,
      "æľ±åį°çĬ¶": 4655,
      "åŁºæ¬¡": 4656,
      "æ°ıæĺ¯": 4657,
      "æľīåħ³": 4658,
      "ç¥¢": 4659,
      "å¾·å·Ŀå¹ķåºľ": 4660,
      "ç»ĵæŀĦ": 4661,
      "åĪ«åĲį": 4662,
      "1547": 4663,
      "ä¸īä»£": 4664,
      "åĸĬ": 4665,
      "èĬ¦åĲįçĽĽ": 4666,
      "æ½®": 4667,
      "åŁİåħµ": 4668,
      "æĺ¯åĽłä¸º": 4669,
      "è®¢": 4670,
      "èµ«": 4671,
      "å¿½": 4672,
      "å§¿": 4673,
      "æĺİçŁ³": 4674,
      "å£ķ": 4675,
      "èĤĥ": 4676,
      "èħ°": 4677,
      "ä»ĻçŁ³": 4678,
      "ä½©": 4679,
      "å®ŀè¡Į": 4680,
      "å¾·å·Ŀæĸ¹": 4681,
      "ç®ķè½®": 4682,
      "è®¤åı¯": 4683,
      "çĶ²æĸĲæŃ¦çĶ°æ°ı": 4684,
      "æīĳ": 4685,
      "çŃīå¾ħ": 4686,
      "éĩİå¿ĥ": 4687,
      "çĵ¦è§£": 4688,
      "å½ĵä¸Ń": 4689,
      "å¹ķåºľå°ĨåĨĽ": 4690,
      "æĦıä¹ī": 4691,
      "åį´åĽł": 4692,
      "æĹĹä¸ĭ": 4693,
      "æ²³åĨħåĽ½": 4694,
      "è¿Ľé©»": 4695,
      "åıªè¦ģ": 4696,
      "æºĲäºİ": 4697,
      "è¯¸å¤ļ": 4698,
      "å§¬è·¯": 4699,
      "å¤ªçĶ°èµĦ": 4700,
      "ä¹ĭåŃĻ": 4701,
      "ä»ĬæĹ¥": 4702,
      "åĬ¨æĳĩ": 4703,
      "åıĹå°ģ": 4704,
      "åİĨåı²ä¸Ĭ": 4705,
      "æĥłçĲ¼": 4706,
      "âĨĴ": 4707,
      "åĲ¸": 4708,
      "éĩįä¿®": 4709,
      "çĶŁåįĴå¹´ä¸įè¯¦": 4710,
      "æĹıäºº": 4711,
      "åħ¨éĿ¢": 4712,
      "è·¯çº¿": 4713,
      "ä¸°åĲİåĽ½": 4714,
      "ç¬Ķå¤´": 4715,
      "ä½Ĳç«¹ä¹īéĩį": 4716,
      "ç¨į": 4717,
      "éĻĨç»Ń": 4718,
      "åĨľä¸ļ": 4719,
      "ä¸ĭæĢ»åĽ½": 4720,
      "å·§": 4721,
      "åĨħåºĶ": 4722,
      "è®©ä»ĸ": 4723,
      "ç¨»åı¶å±±åŁİ": 4724,
      "è¯¢": 4725,
      "å¤±åĬ¿": 4726,
      "åĥ§äºº": 4727,
      "ä¸ĢæĶ¯": 4728,
      "æ°ıçľŁ": 4729,
      "å¾¡æ®¿": 4730,
      "æĹ©æľŁ": 4731,
      "åĪĩæĸŃ": 4732,
      "é«ĺæĿ¾åŁİ": 4733,
      "æŁ¿": 4734,
      "è¶Ĭè¿ĩ": 4735,
      "æĹłäºº": 4736,
      "åĿļæĮģ": 4737,
      "è´µä¹ħ": 4738,
      "æĸĩåĮĸè´¢": 4739,
      "æ¥¼": 4740,
      "èģļä¹Ĳ": 4741,
      "ç§Ģä¹ħ": 4742,
      "æł¡": 4743,
      "ç³»åĪĹ": 4744,
      "æ®ī": 4745,
      "139": 4746,
      "å®¶ç³»": 4747,
      "åº·éķ¿": 4748,
      "ç¥Ģ": 4749,
      "åıĸåĲį": 4750,
      "åĭĭ": 4751,
      "æ®¿ä¸ĭ": 4752,
      "ç´¯": 4753,
      "ç§»å±ħ": 4754,
      "æĸ©é¦ĸ": 4755,
      "éħĴäºķå¿łæ¬¡": 4756,
      "å°Ĩå®¶çĿ£": 4757,
      "ä½ĲèĹ¤": 4758,
      "æ¶©": 4759,
      "æķĮæĸ¹": 4760,
      "è´ŀèĥľ": 4761,
      "åĨĪéĥ¨": 4762,
      "å²³çĪ¶": 4763,
      "å¸¸éĻĨåĽ½": 4764,
      "åĲīè§ģ": 4765,
      "åĪĻä»¥": 4766,
      "åĪĻçĶ±": 4767,
      "æ²¦": 4768,
      "ä¹īæķĻ": 4769,
      "èĥĨ": 4770,
      "åįģä¸ĥ": 4771,
      "ä¿ĿåŃĺ": 4772,
      "ä¸ŀ": 4773,
      "å¹³æĪĲ": 4774,
      "åĬłæ²»": 4775,
      "ä¹±ä¸ĸ": 4776,
      "å¾ģæĶ¶": 4777,
      "136": 4778,
      "1603": 4779,
      "æŁ³å·Ŀ": 4780,
      "äº¬åħĨå®¶": 4781,
      "æĻĵ": 4782,
      "äº¬éĥ½å¸Ĥ": 4783,
      "åĦ¿å²Ľ": 4784,
      "å°ĳå¹´": 4785,
      "éķ¿å®ĹæĪĳéĥ¨æ°ı": 4786,
      "åĪĿä»£èĹ©ä¸»": 4787,
      "åĬ±": 4788,
      "èĢĹ": 4789,
      "ç¬¬äºĶ": 4790,
      "ç«¹åįĥä»£": 4791,
      "æľĿä»ĵåĨĽ": 4792,
      "æµħéĩİéķ¿æĶ¿": 4793,
      "ä¸Ģåįĥ": 4794,
      "çĶ°å±±": 4795,
      "ä¼¸": 4796,
      "éĩĳå±±": 4797,
      "åŃ¦çķĮ": 4798,
      "ç»ĵåŁİæ°ı": 4799,
      "æ²³è¶ĬåŁİ": 4800,
      "ä¸ĢæĪĺ": 4801,
      "åĬªåĬĽ": 4802,
      "èĹ¤åĲīéĥİ": 4803,
      "æĪļ": 4804,
      "å¤§åŀ£": 4805,
      "åĩ»æºĥ": 4806,
      "åĮĹæĿ¡æĹ©äºĳ": 4807,
      "æľĪåįģäºĶæĹ¥": 4808,
      "èĩ¼æĿµ": 4809,
      "éĵłçĶ²": 4810,
      "ä½³": 4811,
      "æ´¼": 4812,
      "å°ıå¼ĵ": 4813,
      "æĬ¤åį«": 4814,
      "çĽ´æ±Łåħ¼ç»Ń": 4815,
      "æŃ¦åĬĽ": 4816,
      "å¦ĩ": 4817,
      "å®īåĽ½å¯º": 4818,
      "è¶Ĭä¸ŃåĽ½": 4819,
      "åıĽåıĺ": 4820,
      "å¤§æĿĳ": 4821,
      "è¾±": 4822,
      "æĮº": 4823,
      "äºĶå¤§èĢģ": 4824,
      "èĪª": 4825,
      "å¾ģæľį": 4826,
      "éĢģå¾Ģ": 4827,
      "æĿ¿åŀ£": 4828,
      "å±±éĺ´": 4829,
      "èµĸéĩį": 4830,
      "æĽ¾ä»»": 4831,
      "æľºæŀĦ": 4832,
      "ç¡®å®ŀ": 4833,
      "æħ°": 4834,
      "æĮīçħ§": 4835,
      "è¡¥ç»Ļ": 4836,
      "çģ«ç»³æŀª": 4837,
      "ä¹ĭåĨħ": 4838,
      "éĩįè§Ĩ": 4839,
      "å®īåħ¨": 4840,
      "æ³ķåįİ": 4841,
      "èĢģèĩ£": 4842,
      "çĽ´è¾ĸ": 4843,
      "æĭħå¿ĥ": 4844,
      "éĤ£æł·": 4845,
      "æĥħæĬ¥": 4846,
      "äºĮæĿ¡åŁİ": 4847,
      "äºİåĲĮå¹´": 4848,
      "ä¸Ĭäºº": 4849,
      "æĭŁ": 4850,
      "æĢª": 4851,
      "å±±åŁİåĽ½": 4852,
      "æĪĸèĢħ": 4853,
      "æĢ§æł¼": 4854,
      "è°ĥæŁ¥": 4855,
      "ä¹ĭéķ¿": 4856,
      "åĽ½åĪĨ": 4857,
      "æĸ°åıĳ": 4858,
      "å¾ĢæĿ¥": 4859,
      "1597": 4860,
      "çĽĳè§Ĩ": 4861,
      "æľ½": 4862,
      "ä¸Ģæĸ¹éĿ¢": 4863,
      "éķ¿æĪ¿": 4864,
      "ä¸įåıĬ": 4865,
      "è½©": 4866,
      "è¯´æĺİ": 4867,
      "ç¼ºä¹ı": 4868,
      "äºİäº¬éĥ½": 4869,
      "ä¸īæĿĳ": 4870,
      "éĩįæ²»": 4871,
      "æľ¬èĥ½å¯ºä¹ĭåıĺåĲİ": 4872,
      "éķ¿éĩį": 4873,
      "éĩľ": 4874,
      "æ¸ħç§Ģ": 4875,
      "æķĮéĺµ": 4876,
      "éĢ¼è¿ĳ": 4877,
      "æĪĺåĨµ": 4878,
      "æ³ª": 4879,
      "é¢Ĩå¯¼": 4880,
      "å®ĹæĻ¯": 4881,
      "å¹³æģ¯": 4882,
      "çİ°ä»£": 4883,
      "çĲī": 4884,
      "å¹´è´¡": 4885,
      "åĲİåĮĹæĿ¡": 4886,
      "å¤§æ´¥": 4887,
      "çŃ¹": 4888,
      "åĲĮä¸Ģ": 4889,
      "æİ©": 4890,
      "åįĹæĸ¹": 4891,
      "èĪ¹åıª": 4892,
      "1601": 4893,
      "æĽ²è½®": 4894,
      "äºİå¤©æĸĩ": 4895,
      "æĶ¹ç§°": 4896,
      "åĿĤæľ¬": 4897,
      "ç«ĭèĬ±éģĵéĽª": 4898,
      "äº¬æŀģé«ĺ": 4899,
      "æŃ¤å½¹": 4900,
      "ç¡®å®ļ": 4901,
      "1540": 4902,
      "æ¸©æ³ī": 4903,
      "åĨĴ": 4904,
      "ä¸ĭè¾¾": 4905,
      "åĬłä»¥": 4906,
      "éĢ¢": 4907,
      "ä»İå±ŀ": 4908,
      "ä½Ĳéĩİ": 4909,
      "äº¤åĩº": 4910,
      "ç»Ĩå·Ŀå¿łåħ´": 4911,
      "è¿İæĪĺ": 4912,
      "å°¸": 4913,
      "è°Ĺ": 4914,
      "é¡½": 4915,
      "åĦĴ": 4916,
      "äº«å¾·": 4917,
      "ä¼łæī¿": 4918,
      "æĮĩå®ļ": 4919,
      "äºīæĸĹ": 4920,
      "Ġäººçī©çĶŁå¹³": 4921,
      "å¤§å®¶": 4922,
      "æ³īå¯º": 4923,
      "æ³¨æĦı": 4924,
      "åŁİå¸Ĥ": 4925,
      "è¿ĳä¾į": 4926,
      "åį³ä½į": 4927,
      "æĴ¤åĽŀ": 4928,
      "æĹ¥çĽĬ": 4929,
      "çŃ¾": 4930,
      "å¸ħ": 4931,
      "è¶³åĪ©æĪĲæ°ı": 4932,
      "è¿ĺä¿Ĺ": 4933,
      "åĪĿåĲį": 4934,
      "æĬķåĲĳ": 4935,
      "è±¡å¾ģ": 4936,
      "70": 4937,
      "åĲİåıĪ": 4938,
      "ä¹īæ°ı": 4939,
      "è¢ĭ": 4940,
      "çĽ¸åĲĮ": 4941,
      "å£«åįĴ": 4942,
      "å°ıç¬łåİŁæ°ı": 4943,
      "ç°": 4944,
      "ä¸ĢæľĪ": 4945,
      "å®Ĺåĥı": 4946,
      "ä¼ĬéĤ£": 4947,
      "éĢĥåĩº": 4948,
      "å¼ºçĥĪ": 4949,
      "åĺīæĺİ": 4950,
      "å¹ķåºľåĨĽ": 4951,
      "ä¸īå¥½ä¹īç»§": 4952,
      "ç©Ĺ": 4953,
      "åįļå¤ļ": 4954,
      "ä¸Ģä¹ĺ": 4955,
      "ä¹ĭç¥ĸ": 4956,
      "äº²çİĩ": 4957,
      "è¿ľèĹ¤": 4958,
      "ç§įå®ŀ": 4959,
      "åĽ½äººé¢Ĩä¸»": 4960,
      "åĲīçĶ°éĥ¡å±±åŁİ": 4961,
      "ä¹ĭå¦¹": 4962,
      "å¤§åŃ¦": 4963,
      "åĮ¿": 4964,
      "å¤ļè´º": 4965,
      "è¯´éģĵ": 4966,
      "æĿ¾å±±åŁİ": 4967,
      "å¤§åĨħåĨĽ": 4968,
      "æµħäºķæ°ı": 4969,
      "è¯Ĺ": 4970,
      "è´§": 4971,
      "çĶŁåīį": 4972,
      "é¥®": 4973,
      "å°ıç¬łåİŁéķ¿": 4974,
      "é«ĺèµĸ": 4975,
      "ä½ľåĩº": 4976,
      "è¾īæĶ¿": 4977,
      "éģĹè¿¹": 4978,
      "åĳ¼åºĶ": 4979,
      "æĶ»åħĭ": 4980,
      "çĸ¾": 4981,
      "ä¿¡ä¹ĭ": 4982,
      "ç»ĩçĶ°æĸ¹": 4983,
      "æŁı": 4984,
      "è¯¥åŁİ": 4985,
      "éĹ»è®¯": 4986,
      "æĸĭèĹ¤æ°ı": 4987,
      "èµ°åĲĳ": 4988,
      "åı³åį«éĹ¨å°ī": 4989,
      "åĩĮ": 4990,
      "çľģ": 4991,
      "æ»ŀ": 4992,
      "é¾ĻéĢłå¯ºæ°ı": 4993,
      "åĪ¤æĸŃ": 4994,
      "ä¸ĢåĪĩ": 4995,
      "æĪĺå±Ģ": 4996,
      "åı¯æĪĲ": 4997,
      "åºĶå¯¹": 4998,
      "å·¦é©¬": 4999,
      "ä¹īç»Ł": 5000,
      "åľ°åŁŁ": 5001,
      "æĦıæĢĿ": 5002,
      "åŃĺç»Ń": 5003,
      "åĨĽäºĭè¡ĮåĬ¨": 5004,
      "ä¸¹æ³¢åĽ½": 5005,
      "åŁİæĹ¶": 5006,
      "ãģł": 5007,
      "éĢĥåĽŀ": 5008,
      "çĥŁ": 5009,
      "å¤ĩåĲİåĽ½": 5010,
      "å¤§å¯º": 5011,
      "ä¸ŃæĿ¡": 5012,
      "ç§°åĳ¼": 5013,
      "çĭ¼": 5014,
      "åĭ¿": 5015,
      "æ¸¡è¿ĩ": 5016,
      "åĨĽå½¹": 5017,
      "å¤ĦæŃ»": 5018,
      "ç¦ıåĨĪ": 5019,
      "åłĢç§ĢæĶ¿": 5020,
      "åķĨä¸ļ": 5021,
      "ç®Ĺæĺ¯": 5022,
      "æĵį": 5023,
      "çŃĴäºķé¡ºåºĨ": 5024,
      "å¤ļæķ°": 5025,
      "é»ĺ": 5026,
      "ç¡¬": 5027,
      "ä¸¥éĩį": 5028,
      "åĲİåĽł": 5029,
      "ä¹īæĺĮ": 5030,
      "åĲĮæĹ¥": 5031,
      "äº²æĹı": 5032,
      "æİł": 5033,
      "å¯ĮåŃĲ": 5034,
      "1543": 5035,
      "æĴ¤åĨĽ": 5036,
      "çĨĻ": 5037,
      "åĤ¬": 5038,
      "æĺ¯å®¤çĶºæĹ¶ä»£": 5039,
      "åĮĹæĸ¹": 5040,
      "é©¬ä¸Ĭ": 5041,
      "æ¢¶": 5042,
      "åģļåĩº": 5043,
      "ç»§ä»»å®¶çĿ£": 5044,
      "å¤§éĩİæ²»": 5045,
      "5000": 5046,
      "å¤§èĨ³": 5047,
      "éķ¿æŀª": 5048,
      "ä¸Ńä¸ĸ": 5049,
      "æĶ¿åºľ": 5050,
      "äºĭåĲİ": 5051,
      "ç»Łé¢Ĩ": 5052,
      "è´¥äºİ": 5053,
      "ç¼©": 5054,
      "éĢĥèĩ³": 5055,
      "åīĬå¼±": 5056,
      "å·¡": 5057,
      "ä¹īè§Ĩ": 5058,
      "æ¬§": 5059,
      "é«ĺæĶ¿": 5060,
      "åıĪåĽł": 5061,
      "ä¸ĩå¤§åĨĽ": 5062,
      "æ´¾äºº": 5063,
      "ç¨£": 5064,
      "èĤ©": 5065,
      "èĢ¶ç¨£": 5066,
      "ä¿¡ä»°": 5067,
      "ä¸ĬæĿīæľĿ": 5068,
      "1594": 5069,
      "æ¤İåĲį": 5070,
      "å¤§ä¹±": 5071,
      "è¿ĳçķ¿": 5072,
      "æĬķåħ¥": 5073,
      "ä¿ĥæĪĲ": 5074,
      "å®ļèµĸ": 5075,
      "éĽ·": 5076,
      "ä¾ĿéĿł": 5077,
      "åĺīéļĨ": 5078,
      "å¤ªå¹³è®°": 5079,
      "ä»£çĲĨ": 5080,
      "é©¬å»»": 5081,
      "å¤ªå¤«": 5082,
      "å®¶æł¼": 5083,
      "ä¼ļéĿ¢": 5084,
      "çŃĸåĪĴ": 5085,
      "çļ®": 5086,
      "ä¿®çĲĨ": 5087,
      "ä¸ĢéĹ¨ä¼Ĺ": 5088,
      "å¤§æĢĴ": 5089,
      "åĮł": 5090,
      "å¹ķæľ«": 5091,
      "ç§įè¯´æ³ķ": 5092,
      "å½Ĵè¿ĺ": 5093,
      "ç½²åĲį": 5094,
      "åīĳæľ¯": 5095,
      "å°ıéĩİå¯º": 5096,
      "èı©æıĲå¯º": 5097,
      "äºĮéĺ¶åłĤ": 5098,
      "åŁİåĲİ": 5099,
      "ä¹Łæ²¡æľī": 5100,
      "éĵŃ": 5101,
      "å·±æĸ¹": 5102,
      "æĮĩç¤º": 5103,
      "èĦĳ": 5104,
      "çł´åĿı": 5105,
      "éī´è¿ŀ": 5106,
      "å¤©ä¸ĭäºº": 5107,
      "åĲķ": 5108,
      "åĽ½åºľ": 5109,
      "å°ıå¯º": 5110,
      "çģ°": 5111,
      "çļĩåŃĲ": 5112,
      "éķ°ä»ĵåºľ": 5113,
      "çī§éĩİ": 5114,
      "åħĭä¸Ĭ": 5115,
      "å®įæĪ·": 5116,
      "äºĮæľ¬": 5117,
      "æĻ¯çº²": 5118,
      "æĹ¥æľ¬åı²": 5119,
      "èĮ¶ä¼ļ": 5120,
      "åłĢè¶Ĭåħ¬æĸ¹": 5121,
      "å¤§å®Ŀå¯º": 5122,
      "æŃ»äº¡": 5123,
      "ä½Ĳæ¸¡": 5124,
      "èĲĦ": 5125,
      "ä¹ĿæĪ·": 5126,
      "åį³ä¸º": 5127,
      "æ¦Ĭ": 5128,
      "å¾Īå¤§": 5129,
      "ç²Łå±ĭ": 5130,
      "ä»İåĽĽä½įä¸ĭ": 5131,
      "èĳ¡èĲĦ": 5132,
      "40": 5133,
      "æľ¨åŁİ": 5134,
      "ä¹īçĽ´": 5135,
      "äºĶå¥īè¡Į": 5136,
      "åıĹé¢Ĩ": 5137,
      "æ°¸ç¦Ħåħĥå¹´": 5138,
      "èĩ´ä¹¦": 5139,
      "çıį": 5140,
      "åıĻä»»": 5141,
      "å®½æĶ¿éĩįä¿®": 5142,
      "äºİå¤§": 5143,
      "åĢ¼å¾Ĺ": 5144,
      "ä¸Ńæľī": 5145,
      "å¯¹åħ¶": 5146,
      "åĮĹä¿¡æµĵ": 5147,
      "äº²ä¿¡": 5148,
      "æĿ¾ä¸¸": 5149,
      "èĤĿ": 5150,
      "éļĲå²Ĳ": 5151,
      "å¯¿ä¸¸": 5152,
      "åĮĹè¿ĳæ±Ł": 5153,
      "ä¼Ĭæĸ¯": 5154,
      "ä¸Ķåħĥ": 5155,
      "éĽªæĸĭ": 5156,
      "æ¥ļ": 5157,
      "çĩĥ": 5158,
      "å¤§çº³è¨Ģ": 5159,
      "æ°ıçĽ´": 5160,
      "å±±å½¢": 5161,
      "çŁ¶": 5162,
      "æ±ĩ": 5163,
      "éĵ¸": 5164,
      "è¯¸å®¶è°±": 5165,
      "èĲ½åħ¥": 5166,
      "çĶ°éĩį": 5167,
      "åīįè¿Ľ": 5168,
      "èİ·å°ģ": 5169,
      "æĹ©éĢĿ": 5170,
      "å®ĩåĸľå¤ļçĽ´å®¶": 5171,
      "å¤ªæĶ¿å¤§èĩ£": 5172,
      "ä¹³": 5173,
      "æŃ¤åľ°": 5174,
      "æĿ¾å¹³å¹¿å¿ł": 5175,
      "è¿İæİ¥": 5176,
      "åħŃè§Ĵä¹īè´¤": 5177,
      "é¾ĻéĢłå¯ºå®¶": 5178,
      "æĭľé¢Ĩ": 5179,
      "è¾©": 5180,
      "æĶ»åįł": 5181,
      "éĢģåĪ°": 5182,
      "èĬ¦åĲįæ°ı": 5183,
      "éĢ¸è¯Ŀ": 5184,
      "å®½æĶ¿éĩįä¿®è¯¸å®¶è°±": 5185,
      "2000": 5186,
      "å¤§æ¦Ĥ": 5187,
      "åįģåħ«": 5188,
      "åĮĹä¸Ĭ": 5189,
      "ä¿®å»º": 5190,
      "éĢĿä¸ĸ": 5191,
      "æīĩè°·ä¸ĬæĿīå®¶": 5192,
      "ç§ĺå¯Ĩ": 5193,
      "çĽĶ": 5194,
      "åħ¶éĹ´": 5195,
      "è´¢æĶ¿": 5196,
      "ä¸ºäºº": 5197,
      "æĹ¶æľº": 5198,
      "è§Ī": 5199,
      "æľ¨æĿĳ": 5200,
      "æĹ¥æľ¬æĪĺåĽ½": 5201,
      "ä¸´ç»Ī": 5202,
      "éķ¿ç¯łä¹ĭæĪĺ": 5203,
      "åĬ«": 5204,
      "ä¸Ńçº³è¨Ģ": 5205,
      "å¸ģ": 5206,
      "ä¼ĬéĽĨ": 5207,
      "ä½¿èĬĤ": 5208,
      "åıĪåĲį": 5209,
      "å»ºè®¾": 5210,
      "ä¼ĬéĽĨéĻ¢": 5211,
      "çŁ¿": 5212,
      "å¼Ģåıĳ": 5213,
      "çľŁçĶ°ä¿¡ç¹ģ": 5214,
      "åĩıå°ģ": 5215,
      "äºİåºĨéķ¿": 5216,
      "åı²ç§°": 5217,
      "é¦Ļè¥¿": 5218,
      "ä»Ļåı°": 5219,
      "å¤ĩä¸ŃåĽ½": 5220,
      "å«Į": 5221,
      "èĮ¶èĮ¶": 5222,
      "è°±ä»£å®¶èĩ£": 5223,
      "èĳ¡èĲĦçīĻ": 5224,
      "è¯´æľį": 5225,
      "éĤ£ä¸ª": 5226,
      "1545": 5227,
      "å»¶å¾·": 5228,
      "1536": 5229,
      "ä¸§å¤±": 5230,
      "åŃ©åŃĲ": 5231,
      "æĶ»çł´": 5232,
      "äºķæ°ı": 5233,
      "éĢĥåĪ°": 5234,
      "éĢĲæŃ¥": 5235,
      "æĬµå¾¡": 5236,
      "ä»ĭç»į": 5237,
      "ä¾Ľåħ»": 5238,
      "ä¸²": 5239,
      "ç»ª": 5240,
      "å¸ľ": 5241,
      "åĲĳç§ĢåĲī": 5242,
      "è¿ĳèĩ£": 5243,
      "éķ¿è°·å·Ŀ": 5244,
      "èģļä¹Ĳç¬¬": 5245,
      "60": 5246,
      "åĲĪè®¡": 5247,
      "ç¢į": 5248,
      "ä¸īæľ¨åŁİ": 5249,
      "æĨ": 5250,
      "æĭ¼": 5251,
      "åĽŀçŃĶ": 5252,
      "æıĲè®®": 5253,
      "ä»ħæľī": 5254,
      "è®¾æľī": 5255,
      "å¯Łè§ī": 5256,
      "å¼ĢåŁİæĬķéĻį": 5257,
      "è¶ħè¿ĩ": 5258,
      "ä¸įä½Ĩ": 5259,
      "ä¸»æĮģ": 5260,
      "æ¬£": 5261,
      "ä¸ľäº¬": 5262,
      "ç»Īç»ĵ": 5263,
      "ç§ĭçĶ°": 5264,
      "çº·äºī": 5265,
      "æī®æ¼Ķ": 5266,
      "å±±ç§ĳ": 5267,
      "æıĴ": 5268,
      "çĸİ": 5269,
      "ä¸´æĹ¶": 5270,
      "åŃ¤ç«ĭ": 5271,
      "åĪ¶ä½ľ": 5272,
      "å®«åĨħ": 5273,
      "éģĤä»¥": 5274,
      "è·Ŀç¦»": 5275,
      "äº¤æį¢": 5276,
      "å¹¸çĽĽ": 5277,
      "åŃĻåŃĲ": 5278,
      "åĪĽä½ľ": 5279,
      "æĹ¥åĲĳåĽ½": 5280,
      "æŃ¤è¯´": 5281,
      "åħ¶åħĦ": 5282,
      "ä¸»ä»İ": 5283,
      "å°ıè¯´": 5284,
      "å°ıä»ĵ": 5285,
      "æĶ»éĺ²": 5286,
      "äº²çĶŁ": 5287,
      "ç»Ŀå¯¹": 5288,
      "çĵľ": 5289,
      "åİħ": 5290,
      "ä¸ĬçĶ°åŁİ": 5291,
      "æĭĸ": 5292,
      "åıĳåħµ": 5293,
      "è¦ģåĨ²": 5294,
      "åĳ½è¿Ĳ": 5295,
      "åľŁå±ĭ": 5296,
      "èĦ¸": 5297,
      "è¯Ħå®ļ": 5298,
      "è®¼": 5299,
      "èĤ¡": 5300,
      "è°ĭçķ¥": 5301,
      "ç¾½æŁ´åĨĽ": 5302,
      "1602": 5303,
      "åı²æĸĻä¸Ń": 5304,
      "æŃ¼": 5305,
      "å¯¹è±¡": 5306,
      "æĶ»åıĸ": 5307,
      "æĻ´æĶ¿": 5308,
      "æīĵè´¥": 5309,
      "æĶ¶åħ¥": 5310,
      "ä¸ĭåİ»": 5311,
      "çķı": 5312,
      "å¤ļéĹ»": 5313,
      "å®ĩä½Ĳ": 5314,
      "éķ¿å°¾å®¶": 5315,
      "çºµçģ«": 5316,
      "æ¦ĬåİŁ": 5317,
      "éĩįæ¬¡": 5318,
      "çķ·": 5319,
      "è§ģåĪ°": 5320,
      "æģ³": 5321,
      "ç¼´": 5322,
      "åıĺåĮĸ": 5323,
      "éĵģçĤ®éĺŁ": 5324,
      "æĬĢæľ¯": 5325,
      "åįĹåĮĹæľĿæĹ¶ä»£": 5326,
      "çĶ«": 5327,
      "æľīåĪ©": 5328,
      "åħ«ä»£": 5329,
      "åıįæĶ»": 5330,
      "1000": 5331,
      "åĨħéĢļ": 5332,
      "é«ĺæĿ¾": 5333,
      "å®«åŁİ": 5334,
      "æ°ĳä¼Ĺ": 5335,
      "æ³½åŁİ": 5336,
      "æ£®åŁİ": 5337,
      "é¦Ļå·Ŀ": 5338,
      "æİ¥åĪ°": 5339,
      "æĽ´ä¸º": 5340,
      "éĺ¿èĭı": 5341,
      "ç»´æĸ°": 5342,
      "ç²¾éĶĲ": 5343,
      "æ¯įäº²æĺ¯": 5344,
      "å¾ĭä»¤": 5345,
      "èĢ»": 5346,
      "èĢĮéĿŀ": 5347,
      "å½ĵæĹ¥": 5348,
      "æĹ¥æľ¬äºº": 5349,
      "æĦıåĳ³": 5350,
      "æĪĺåĽ½æĹ¶ä»£èĩ³å®īåľŁæ¡ĥå±±æĹ¶ä»£": 5351,
      "åĲĦç§į": 5352,
      "å¾ħéģĩ": 5353,
      "ä¸Ģåĳĺ": 5354,
      "ä¹īæĹ¶": 5355,
      "ä¸įåĬ¨": 5356,
      "éĥ¨å¤§è¾ħ": 5357,
      "æĺİæĺ¾": 5358,
      "ä»İåĨĽ": 5359,
      "åħĪæĺ¯": 5360,
      "å²³åŁİ": 5361,
      "èģļéĽĨ": 5362,
      "éĴĪå¯¹": 5363,
      "é¢ĳç¹ģ": 5364,
      "åİī": 5365,
      "å¤ļäºº": 5366,
      "å¤©æŃ£ä¸īå¹´": 5367,
      "æ³ķåº¦": 5368,
      "ç»Łçİĩ": 5369,
      "åį´æĺ¯": 5370,
      "åĬĿéĻį": 5371,
      "æĻĭåįĩ": 5372,
      "èĢ¶ç¨£ä¼ļ": 5373,
      "µçĲ": 5374,
      "å¾Ħ": 5375,
      "ä¹īéĩį": 5376,
      "åħĥçº²": 5377,
      "çĲµçĲ": 5378,
      "éģĹåĿĢ": 5379,
      "æħĪ": 5380,
      "è¿ģå±ħ": 5381,
      "çĲµçĲ¶": 5382,
      "ä¸»å°Ĩ": 5383,
      "åıĽç¦»": 5384,
      "å¼ĺæ²»åħĥå¹´": 5385,
      "è¿·": 5386,
      "åīįåİ»": 5387,
      "èµĦæºĲ": 5388,
      "åĺīåĲī": 5389,
      "èµ¶åĪ°": 5390,
      "35": 5391,
      "ä¸Ģä¸ĭ": 5392,
      "éķ¿å®ī": 5393,
      "å¤©æŃ£åħŃå¹´": 5394,
      "æĻ´æĻ¯": 5395,
      "åħ´ç»ı": 5396,
      "æİĴéĻ¤": 5397,
      "ä¸ĢèĪ¬è®¤ä¸º": 5398,
      "çľŁçĶ°å¹¸æĿĳ": 5399,
      "æĹħ": 5400,
      "æľīäºĽ": 5401,
      "èĥľè´Ł": 5402,
      "æ¯ĽåĪ©æĸ¹": 5403,
      "æ°¸ç¦Ħä¸īå¹´": 5404,
      "èĩ´åĬĽäºİ": 5405,
      "ç§»èĩ³": 5406,
      "ä¾Ľå¥ī": 5407,
      "çŃĳåīįåĽ½": 5408,
      "éĿĴå±±": 5409,
      "çŁ³è§ģåĽ½": 5410,
      "ä¸ºåħĪéĶĭ": 5411,
      "åĽĽå¤©çİĭ": 5412,
      "å¼¹æŃ£å¿ł": 5413,
      "åĲ¾å¦»": 5414,
      "çİ©": 5415,
      "æĪĺæŃ»åĲİ": 5416,
      "çģ«æŀª": 5417,
      "è¯¦ç»Ĩ": 5418,
      "ä¸įä¹ħåĲİ": 5419,
      "äºĴçĽ¸": 5420,
      "çĭ©éĩİ": 5421,
      "èĤĥæ¸ħ": 5422,
      "ä¿¡èµĸ": 5423,
      "å¹¶ç§°": 5424,
      "æĹłåĬĽ": 5425,
      "ç¬¬åħŃ": 5426,
      "éª¤": 5427,
      "éĢĢå¾Ģ": 5428,
      "135": 5429,
      "éĤ£éĩĮ": 5430,
      "éķĩå¹¸": 5431,
      "å°ĨåĨĽè¶³åĪ©ä¹īè¾ī": 5432,
      "æĪĺå½¹ä¸Ń": 5433,
      "ä¹īéķĩ": 5434,
      "å¹¶æĪĲä¸º": 5435,
      "ãģ¡": 5436,
      "åĬ¨ä¹±": 5437,
      "ä¼ļæĪĺ": 5438,
      "åĲ¦å®ļ": 5439,
      "çĲīçĲĥ": 5440,
      "çĶ±å¸ĥ": 5441,
      "è¶³åĪ©æĮģæ°ı": 5442,
      "èİ·åĩĨ": 5443,
      "çªģåħ¥": 5444,
      "å°ıå±±çĶ°": 5445,
      "å®¶æĶ¿": 5446,
      "ä¸ºæŃ¢": 5447,
      "å½©": 5448,
      "éĢĥèµ°": 5449,
      "å¢ŀå¼º": 5450,
      "åĿļåĽº": 5451,
      "ä¸ºæł¸å¿ĥ": 5452,
      "ä¸įåı¯èĥ½": 5453,
      "è¡ĮåĨĽ": 5454,
      "çĽ¸æ¯Ķ": 5455,
      "åıĹåĳ½": 5456,
      "åĬ¿åĬĽèĮĥåĽ´": 5457,
      "å°ĳæķ°": 5458,
      "åİĭåĬĽ": 5459,
      "è±«ä»¥": 5460,
      "æľĪåįģä¸īæĹ¥": 5461,
      "å¤©æŃ£åįģåħ«å¹´": 5462,
      "å±±åĲįå®Ĺåħ¨": 5463,
      "ä¸Ģè¡Į": 5464,
      "äººä¼Ĺ": 5465,
      "å®Ĺèĥľ": 5466,
      "åįĹåĮĹ": 5467,
      "æ°¸ç¦ĦåįģäºĮå¹´": 5468,
      "åıĺä¸º": 5469,
      "æ¾Ħä¹ĭ": 5470,
      "è¯´æ³ķè®¤ä¸º": 5471,
      "åĤĢ": 5472,
      "ä¸ºæĿ¡ä»¶": 5473,
      "å·¢": 5474,
      "åĪ°æĿ¥": 5475,
      "éĥ¨ç½²": 5476,
      "åĦ¡": 5477,
      "æ¡¥åŁİ": 5478,
      "è§īå¯º": 5479,
      "æĢĿæĥ³": 5480,
      "èĹ¤åİŁæ°ı": 5481,
      "èĽ°": 5482,
      "ä¿¡æĺĮ": 5483,
      "ä¸įè¦ģ": 5484,
      "ä¼Ĭä¸¹": 5485,
      "åĨįåĬłä¸Ĭ": 5486,
      "ä¿Ŀåħ¨": 5487,
      "å¿Ĺæĳ©": 5488,
      "æķĪå¿ł": 5489,
      "è¯īè®¼": 5490,
      "æĺ¥æĹ¥å±±åŁİ": 5491,
      "åĤĢåĦ¡": 5492,
      "ç§°ä½ľ": 5493,
      "åıĺå¾Ĺ": 5494,
      "æ¸¡æ²³": 5495,
      "åĩºèº«äºİ": 5496,
      "éĺ¿æ³¢åĽ½": 5497,
      "é¸ŁåıĸåŁİ": 5498,
      "æīĢè¿°": 5499,
      "ä¸°åĽ½": 5500,
      "èĻ¾": 5501,
      "çĽ¸åĲĮçĽŁ": 5502,
      "åĬŁåĬ³": 5503,
      "åĸĿ": 5504,
      "è¤": 5505,
      "ä¹ĭä»ĭ": 5506,
      "åĪĨæĶ¯": 5507,
      "åħ·æķĻ": 5508,
      "èĤ¥åĲİåĽ½": 5509,
      "æ¿ĳæĪ·åĨħ": 5510,
      "åŃĲå¥³": 5511,
      "ä¸¤æ¬¡": 5512,
      "éĢĢåĩº": 5513,
      "å®¶ä¹ħ": 5514,
      "éĩİæĿĳ": 5515,
      "å¹³æīĭ": 5516,
      "æīįæĺ¯": 5517,
      "æĵħéķ¿": 5518,
      "å¤§ä¸º": 5519,
      "å°ıæĿ¾": 5520,
      "æīĢåı¸": 5521,
      "èĩªå·±åĪĻ": 5522,
      "æĳĦåħ³": 5523,
      "é¥Ńå¯Į": 5524,
      "éªıåºľåŁİ": 5525,
      "éŀį": 5526,
      "çĽ´ä¹ĭ": 5527,
      "çĿĢæīĭ": 5528,
      "èĮ¨": 5529,
      "èĴĻ": 5530,
      "éĵ¶å±±": 5531,
      "éĤ»è¿ĳ": 5532,
      "ä¿¡å¾Ĵ": 5533,
      "å®Īåį«": 5534,
      "ãģ¿": 5535,
      "åĽĽåŃĲ": 5536,
      "èĬ³è´º": 5537,
      "å®¶åĲį": 5538,
      "ä¸Ĭæ³ī": 5539,
      "çĽ´çĽĽ": 5540,
      "èµĲç»Ļ": 5541,
      "éģĹèĩ£": 5542,
      "æģ©èµı": 5543,
      "å±ıé£İ": 5544,
      "åĲİè§ģ": 5545,
      "å¤§äºº": 5546,
      "åħµè´¥": 5547,
      "ãģĪ": 5548,
      "ãģĳ": 5549,
      "åĮħåĲ«": 5550,
      "å¤įæĿĤ": 5551,
      "æľĪåįģä¹ĿæĹ¥": 5552,
      "æ»¨æĿ¾åŁİ": 5553,
      "çĽ¸å½ĵäºİ": 5554,
      "æ¸ħæ´²åŁİ": 5555,
      "ä¸ĭéĹ´": 5556,
      "åĲīéĩİ": 5557,
      "æī¿è¯º": 5558,
      "æ°¸ç¦Ħåįģä¸Ģå¹´": 5559,
      "å®ĺéĢĶ": 5560,
      "æľĪäºĮåįģæĹ¥": 5561,
      "é¼»": 5562,
      "ç½Ĺé©¬åĮĸ": 5563,
      "hi": 5564,
      "åĲİèĢħ": 5565,
      "ä¿¡æĪ¿": 5566,
      "é«ĺåŁº": 5567,
      "å®Ĺçĳŀ": 5568,
      "å¾·æĶ¿": 5569,
      "ä¸ĬæĿīå®ļ": 5570,
      "æĹłåŃĲ": 5571,
      "åıĪæľī": 5572,
      "æľ¨æ³½": 5573,
      "ä¿¡èĥľ": 5574,
      "åİŁæĿ¥": 5575,
      "æµ·éĩİ": 5576,
      "è¡¨éĿ¢": 5577,
      "èµ¤æĿ¾æ°ı": 5578,
      "ä¸īæĸ¹åİŁ": 5579,
      "ä¹ĭæĸ¹": 5580,
      "æĪĲä¹¦": 5581,
      "æĿ¡çĽ®": 5582,
      "éĢĢèĩ³": 5583,
      "ä½ıæĮģ": 5584,
      "èĴ²æ±ł": 5585,
      "ä½Ĳä¹ħéĥ¡": 5586,
      "èªīä¸º": 5587,
      "çŃĳå±±æ®¿": 5588,
      "31": 5589,
      "ä¹īæĻ´": 5590,
      "åĿĹ": 5591,
      "åħ¬éĩĮ": 5592,
      "åĮĹæĿ¡æ°ıçĽ´": 5593,
      "æķ°æŃ£": 5594,
      "1532": 5595,
      "ç²®é£Ł": 5596,
      "æķ¦è´º": 5597,
      "æĪĺçº¿": 5598,
      "å±±éĺ³": 5599,
      "èĹ©åĪĿä»£èĹ©ä¸»": 5600,
      "åĲİæĿ¥æĪĲä¸º": 5601,
      "ä¸¢": 5602,
      "ä¿¡åħĥ": 5603,
      "è¾¨": 5604,
      "ç¥¸": 5605,
      "è¶³ä»¥": 5606,
      "èī¯äº²çİĭ": 5607,
      "æ¯įè¡£": 5608,
      "èµ¤å¤ĩ": 5609,
      "éķ¿å®ĹæĪĳéĥ¨å®¶": 5610,
      "åĲĮå¿ĥ": 5611,
      "çĽ´å±ŀ": 5612,
      "ä¹ĿæĿ¡": 5613,
      "åįĹæĿ¡": 5614,
      "æĶ¹éĿ©": 5615,
      "æĢ¥å¿Ļ": 5616,
      "æĲľ": 5617,
      "éĻ¶éļĨæĪ¿": 5618,
      "æĵħèĩª": 5619,
      "å®¶å®°": 5620,
      "åįĵ": 5621,
      "ä¸Ĭä¸ĭ": 5622,
      "æĬĵ": 5623,
      "ä¸ªæľĪ": 5624,
      "å¤įä»ĩ": 5625,
      "ä¾įæīĢ": 5626,
      "ç»ĩçĶ°ä¿¡åŃĿ": 5627,
      "æĹĹå¸ľ": 5628,
      "ç¿ĮæĹ¥": 5629,
      "å¥ĭåĭĩ": 5630,
      "ä¸ĢåŃĹ": 5631,
      "æ°ıäº²": 5632,
      "ç§ĢéļĨ": 5633,
      "æĮ«": 5634,
      "ä½Ĳè´º": 5635,
      "åħ´ç¦ıå¯º": 5636,
      "åıªå¥½": 5637,
      "ä»Ĭå·Ŀæ°ıäº²": 5638,
      "è§ĤçĤ¹è®¤ä¸º": 5639,
      "å®¡": 5640,
      "å¤Ń": 5641,
      "ä¼į": 5642,
      "ä¸Ńè®°è½½": 5643,
      "å°ĨçĽĳ": 5644,
      "éĺħ": 5645,
      "è¶£": 5646,
      "å¯¹ä»ĸ": 5647,
      "å°ıå·Ŀ": 5648,
      "æĭ¾": 5649,
      "è¿Ľè¨Ģ": 5650,
      "åħ¬åĽŃ": 5651,
      "å¹¿æ³Ľ": 5652,
      "è¡¨è¾¾": 5653,
      "è®¾è®¡": 5654,
      "æľĪåįģäºĮæĹ¥": 5655,
      "æľĢä¸Ĭæ°ı": 5656,
      "éĻĢ": 5657,
      "æĶ¯æµģ": 5658,
      "ãĤĦ": 5659,
      "å®½æŃ£": 5660,
      "æĸĭèĹ¤å®¶": 5661,
      "çºªä¼ĬåĽ½": 5662,
      "è¸ı": 5663,
      "åĲįåı¤å±ĭå¸Ĥ": 5664,
      "æŃ£äº²çĶº": 5665,
      "ä¸īå®ħ": 5666,
      "æŃ¦è£ħ": 5667,
      "åī¥": 5668,
      "æľ¬é¢Ĩ": 5669,
      "ä¸ĸçķĮ": 5670,
      "æĪ·æ³½": 5671,
      "å¤ĦåĪĳ": 5672,
      "åĵĢ": 5673,
      "åı³äº¬": 5674,
      "å¡«": 5675,
      "åĩºç¾½åĽ½": 5676,
      "éķ¿éĹ¨åĽ½": 5677,
      "ä¸Ģå®¶": 5678,
      "å¤§æĪĺ": 5679,
      "å·Ŀä¸Ĭ": 5680,
      "ä¹īå¿ł": 5681,
      "åħĥæ¸ħ": 5682,
      "ä¹ħæĶ¿": 5683,
      "ç§°åı·": 5684,
      "åıĤæĭľ": 5685,
      "çľŁå®Ĺ": 5686,
      "çĪ¶äº²ä¸º": 5687,
      "åį¿è®°": 5688,
      "åĨ¶": 5689,
      "éĻĪ": 5690,
      "éĢĥèĦ±": 5691,
      "æĬĹäºī": 5692,
      "çľĭæĿ¥": 5693,
      "186": 5694,
      "æĸ©èİ·": 5695,
      "éķ¿èµĸ": 5696,
      "åĩºäºİ": 5697,
      "æĮĩå®ļä¸º": 5698,
      "æĸĭèĹ¤ä¹īé¾Ļ": 5699,
      "åĲ¬è¯´": 5700,
      "æ®ĭåħļ": 5701,
      "æģĲæĢķ": 5702,
      "ä¸ĬæľĪåŁİ": 5703,
      "ä¸Ńå±±": 5704,
      "ä¹īç¥Ĳ": 5705,
      "ä¸ĭåħĭä¸Ĭ": 5706,
      "éļĻ": 5707,
      "æŃ»äºİ": 5708,
      "ä¸¤ä¸ĩ": 5709,
      "æ¶Į": 5710,
      "è½¬æĬķ": 5711,
      "å¹½ç¦ģ": 5712,
      "Ġå¤§": 5713,
      "æŃ£å®¶": 5714,
      "åľ°å¸¦": 5715,
      "ä½Ĩä»ĸ": 5716,
      "åĪĨåĽ½": 5717,
      "åįĥåĪ©ä¼ĳ": 5718,
      "éĤĳ": 5719,
      "ä¹īæĿĲ": 5720,
      "åı¯çŁ¥": 5721,
      "ä»¤äºº": 5722,
      "æİ¥è¿ŀ": 5723,
      "å®ĺåħµåį«": 5724,
      "æıĲåıĬ": 5725,
      "å¤§åĿĤå¤ıä¹ĭéĺµ": 5726,
      "ä»·åĢ¼": 5727,
      "éŃĶ": 5728,
      "åĵ¥åĵ¥": 5729,
      "âĶģ": 5730,
      "å¥ĳæľº": 5731,
      "ç¬¬äºĮå¹´": 5732,
      "æ°¸ç¦ĦåĽĽå¹´": 5733,
      "åĿĤäºķ": 5734,
      "é¸Łç¾½": 5735,
      "ä¿¡è¡Į": 5736,
      "åĽ½çİĭ": 5737,
      "ä¸įé¡¾": 5738,
      "ä¸»äºº": 5739,
      "å½ĵåĪĿ": 5740,
      "è¥¿ä¸Ĭéĩİ": 5741,
      "æĿĳèĲ½": 5742,
      "ç¥ŀå®«": 5743,
      "ç©·": 5744,
      "åŃĺä¿Ŀ": 5745,
      "1544": 5746,
      "å¤©æŃ£åįģä¸īå¹´": 5747,
      "å¤©æŃ£åįģäºĮå¹´": 5748,
      "å²Ľæ´¥å®¶ä¹ħ": 5749,
      "å¤§åıĭä¹īéķĩ": 5750,
      "ä¸ºä½ķ": 5751,
      "å®Īå®¶": 5752,
      "æ¸ħçĽĽ": 5753,
      "å®¶çĿ£ç»§æī¿": 5754,
      "è¯ģæĺİ": 5755,
      "é¹¿åĦ¿å²Ľ": 5756,
      "æĵĴ": 5757,
      "é»Ħéĩĳ": 5758,
      "ä¸Ģæ®µ": 5759,
      "ä»¥åħ¶": 5760,
      "åĮĹéĿ¢": 5761,
      "éĩĳåŃĲ": 5762,
      "199": 5763,
      "å°ıçĶ°æ°ı": 5764,
      "æ´Ľä¼Ĭæĸ¯": 5765,
      "éħįç½®": 5766,
      "èĭ¦æĪĺ": 5767,
      "ç¥Ńç¥Ģ": 5768,
      "èĤĿä»ĺ": 5769,
      "ãŃ": 5770,
      "å®¶ä¸»": 5771,
      "ä¹ĭå®¶": 5772,
      "éĻµ": 5773,
      "çŃīåĪ°": 5774,
      "çī¢": 5775,
      "ä½Ĳä¼¯": 5776,
      "å¾Ģå¾Ģ": 5777,
      "æıĲæĭĶ": 5778,
      "æĺ¾èĳĹ": 5779,
      "æ°¸æŃ£åįģ": 5780,
      "åħĥé¾Łä¸īå¹´": 5781,
      "å¤ĩåīįåĽ½": 5782,
      "åīįçĶ°åĪ©éķ¿": 5783,
      "ãŃ´": 5784,
      "èĿ": 5785,
      "æľŃ": 5786,
      "ä¹ĭåħĦ": 5787,
      "æľ¬åĲį": 5788,
      "èº«ä¸Ĭ": 5789,
      "åıįå¤į": 5790,
      "å¹¿å²Ľ": 5791,
      "å±ŀä¸ĭ": 5792,
      "æĸĭèĹ¤é¾Ļåħ´": 5793,
      "çķłå±±å®¶": 5794,
      "æħĮ": 5795,
      "å±±åĨħä¸ĬæĿīæ°ı": 5796,
      "ä¸ĺ": 5797,
      "åºŀ": 5798,
      "æĺ¯ä¸Ģä¸ª": 5799,
      "å²Ĥ": 5800,
      "è¦ģå®³": 5801,
      "ä½ľä¸ºäººè´¨": 5802,
      "ä¿Ŀè¯ģ": 5803,
      "è½¬åĲĳ": 5804,
      "æ·±åħ¥": 5805,
      "æİ¨è¡Į": 5806,
      "å¯ĨåĪĩ": 5807,
      "éĢ¸äºĭ": 5808,
      "ç§©åºı": 5809,
      "ä¹īå°±": 5810,
      "åįĬåħµåį«": 5811,
      "éħįåĲĪ": 5812,
      "éĺ¶æ®µ": 5813,
      "å¤ªçĶ°éģĵçģĮ": 5814,
      "ä¹ĭæīĢä»¥": 5815,
      "èĹıäºº": 5816,
      "ä¼ıåħµ": 5817,
      "æŀĦçŃĳ": 5818,
      "æĺ¯ä»¥": 5819,
      "å±±ä¹ĭæĪĺ": 5820,
      "å°ģéĶģ": 5821,
      "æŀľçĦ¶": 5822,
      "å£¤": 5823,
      "ä¸ĩçŁ³é¢Ĩåľ°": 5824,
      "ç§°åħ¶": 5825,
      "å°ģåľ°": 5826,
      "æľĪåįģæĹ¥": 5827,
      "æī©å¼łåĬ¿åĬĽ": 5828,
      "çķłå±±ä¹īå°±": 5829,
      "èĻ¾å¤·": 5830,
      "ä¹īéķ¿": 5831,
      "æĶ¿åĪĻ": 5832,
      "æŃ¤æĪĺä¸Ń": 5833,
      "åĪĨéħį": 5834,
      "åĢļ": 5835,
      "ä¼łæĿ¥": 5836,
      "å§ĭç¥ĸ": 5837,
      "1596": 5838,
      "ä¾Ŀèµĸ": 5839,
      "åįľ": 5840,
      "ä¿¡æĸ¹": 5841,
      "çĽĨ": 5842,
      "å±±åľ°": 5843,
      "åıĤéĺµ": 5844,
      "éģĤäºİ": 5845,
      "å¤įå½Ĵ": 5846,
      "æķ´å¤ĩ": 5847,
      "ç¨ĭåº¦": 5848,
      "æķĪåĬĽ": 5849,
      "ä¼¦": 5850,
      "äººå¿ĥ": 5851,
      "æĿĢåħ¥": 5852,
      "èį¯å¸Ī": 5853,
      "æłĩå¿ĹçĿĢ": 5854,
      "å¤§çº¦": 5855,
      "ç§ĢåĮħ": 5856,
      "å¿łä¹ī": 5857,
      "æĭħå½ĵ": 5858,
      "è¿ŀæİ¥": 5859,
      "çī¹å¾ģ": 5860,
      "ä¼¯çĪ¶": 5861,
      "ä¸ºäººè´¨": 5862,
      "çº²æĪĲ": 5863,
      "å½¢è±¡": 5864,
      "åĪ«åĬ¨": 5865,
      "æīĺä»ĺ": 5866,
      "å½°": 5867,
      "ä¸įå®ī": 5868,
      "1538": 5869,
      "å«ģè±«": 5870,
      "æııç»ĺ": 5871,
      "åħ°ä¸¸": 5872,
      "åİĮ": 5873,
      "æĹ¥æľŁ": 5874,
      "æĿ¥å²Ľ": 5875,
      "æŃ»å®Ī": 5876,
      "æ»¨æĿ¾": 5877,
      "ä¼Ĭä¸ľæ°ı": 5878,
      "å¯»æ±Ĥ": 5879,
      "æ¯ķç«Ł": 5880,
      "éĽ¶": 5881,
      "è½¬ä¸º": 5882,
      "ç¹ģèį£": 5883,
      "åħ³åİŁåĲĪæĪĺ": 5884,
      "å®¶çº¹": 5885,
      "æŃ£å½ĵ": 5886,
      "èīºæľ¯": 5887,
      "æľĪåįģåħ«æĹ¥": 5888,
      "ãģĹãģ¦": 5889,
      "ç§ĭæľĪç§įå®ŀ": 5890,
      "èĬ¥": 5891,
      "çī©èµĦ": 5892,
      "æķ°éĩı": 5893,
      "å¥īè¡Įäºº": 5894,
      "ç«ŁçĦ¶": 5895,
      "èĭĹåŃĹ": 5896,
      "ä¹ĭæīĭ": 5897,
      "ä¹īç¨Ļ": 5898,
      "æŃ¤äºº": 5899,
      "åı¯è°ĵ": 5900,
      "å¥³åŃĲ": 5901,
      "æ£ĭ": 5902,
      "æħİ": 5903,
      "ä¸Ģèĩ´": 5904,
      "åĲįç§°": 5905,
      "çĶŁäº§": 5906,
      "éĥ½æľī": 5907,
      "æ¼«": 5908,
      "æ¿ĳæĪ·åĨħæµ·": 5909,
      "å¤§ç¤¾": 5910,
      "åĽ½äº²": 5911,
      "æ´¾å¾Ģ": 5912,
      "åıĤè§ģ": 5913,
      "å¨ĺ": 5914,
      "ç²¾ç¥ŀ": 5915,
      "ä¸Ģçīĩ": 5916,
      "æĪĺåīį": 5917,
      "å°ıåİ¿": 5918,
      "æĶ»çģŃ": 5919,
      "ä½ľèĢħ": 5920,
      "åĳ½åħ¶": 5921,
      "èį·": 5922,
      "åĨĪæľ¬": 5923,
      "èĢģä¸Ń": 5924,
      "åŁĭä¼ı": 5925,
      "çķĳ": 5926,
      "åĽŀåĽ½": 5927,
      "ä»įæľī": 5928,
      "æ·±åİļ": 5929,
      "çī¹æ®Ĭ": 5930,
      "æľĪäºĮåįģåħ«æĹ¥": 5931,
      "ä¼¤äº¡": 5932,
      "æ²¦ä¸º": 5933,
      "å°Ŀ": 5934,
      "åĨĮ": 5935,
      "å¤§å®«": 5936,
      "è´Ń": 5937,
      "å½ĵå®¶": 5938,
      "çļĩå®¤": 5939,
      "éĴµ": 5940,
      "çľŁçĶ°å®¶": 5941,
      "æŃ¤å¤Ħ": 5942,
      "éĹ¨åı¸": 5943,
      "ç»ıå¸¸": 5944,
      "åħŃåįģ": 5945,
      "åıĪæĺ¯": 5946,
      "äº¤éĶĭ": 5947,
      "çľŁå®ŀ": 5948,
      "è¶³åĪ©ä¹īæĿĲ": 5949,
      "æŀģå¤§": 5950,
      "å¿ħè¦ģ": 5951,
      "åŁİå°Ĩ": 5952,
      "ä¿¡å¹¸": 5953,
      "è°£": 5954,
      "ä¸ľå¤§å¯º": 5955,
      "ä¼Ĭè¾¾è¾īå®Ĺ": 5956,
      "åĲįä¹īä¸Ĭ": 5957,
      "ä»£æĽ¿": 5958,
      "è¿ĩæĿ¥": 5959,
      "çĽĽéĩį": 5960,
      "ä¸Ģäºĭ": 5961,
      "åĩºèī²": 5962,
      "éģ¥": 5963,
      "è¶³åĪ©ä¹īæ»¡": 5964,
      "åĽŃå¯º": 5965,
      "ä¿£åŁİ": 5966,
      "åĨĽåĬŁ": 5967,
      "åĨĽå¸Ī": 5968,
      "æŃ£ç»Ł": 5969,
      "æĪĲéķ¿": 5970,
      "å¹³å®¶": 5971,
      "å¤ĸæł·": 5972,
      "ä¸īå¥½åħĥéķ¿": 5973,
      "å¢ŀæı´": 5974,
      "éĩĩçº³": 5975,
      "æī«éĥ¨": 5976,
      "ä¸Ńéĥ¨": 5977,
      "è°¨": 5978,
      "æ¯Ļ": 5979,
      "ä½ĨçĶ±äºİ": 5980,
      "ä»Ĭäºķ": 5981,
      "æľ¨æ´¥å·Ŀ": 5982,
      "åłĢå°¾": 5983,
      "æĲŀ": 5984,
      "å°ĨåĨĽè¶³åĪ©ä¹īæĺŃ": 5985,
      "çīĩæ¡Ĳ": 5986,
      "ç¨³åĽº": 5987,
      "åĲįæĬ¤å±ĭåŁİ": 5988,
      "å¹»": 5989,
      "ä¹īä¸°": 5990,
      "å°Ĩèĩªå·±": 5991,
      "åħĥå¼ĺ": 5992,
      "æľ¬æŀª": 5993,
      "é«ĺç»ı": 5994,
      "ä¸ĬæĿīæĻ¯èĻİ": 5995,
      "ä»ģç§ĳ": 5996,
      "è§īå¾Ĺ": 5997,
      "æŁ¿å´İ": 5998,
      "åľ°åĲį": 5999,
      "èĥľæ°¸": 6000,
      "å¢ŀçĶ°éķ¿": 6001,
      "åľŁä½ĲåĽ½": 6002,
      "éķ¿å¥³": 6003,
      "è¿Ļæ®µ": 6004,
      "ç³»ç»Ł": 6005,
      "éĤ£åı¤": 6006,
      "æıĲäº¤": 6007,
      "åĬłèĹ¤åĺīæĺİ": 6008,
      "ä¸įçł´": 6009,
      "æĶ¿èĻİ": 6010,
      "èĻı": 6011,
      "ä¸°èĩ£æĸ¹": 6012,
      "åĽ´åŁİ": 6013,
      "èģĮè´£": 6014,
      "æĶ¶å¤į": 6015,
      "ç®±æł¹": 6016,
      "å®ĭ": 6017,
      "æĺ¯æ´»è·ĥäºİ": 6018,
      "éĢĴ": 6019,
      "ç«Ń": 6020,
      "å®«éĥ¨": 6021,
      "é¦ĸé¢Ĩ": 6022,
      "1537": 6023,
      "æľĪäºĮåįģä¸ĥæĹ¥": 6024,
      "ç©¶ç«Ł": 6025,
      "åľŁå²Ĳæ°ı": 6026,
      "ĠåİĨåı²": 6027,
      "å¤§å°ı": 6028,
      "ä¹īæ¾Ħ": 6029,
      "èĢĮä¸į": 6030,
      "å¹¶åĲĳ": 6031,
      "è½¬ä»ķ": 6032,
      "éģŃåıĹ": 6033,
      "æľĪåįģåĽĽæĹ¥": 6034,
      "æ¥¯": 6035,
      "çĽ¸èī¯æ°ı": 6036,
      "éĶħå²ĽçĽ´èĮĤ": 6037,
      "ä¿±": 6038,
      "è¯¾": 6039,
      "åīįéĶĭ": 6040,
      "ä¸¤åįĥ": 6041,
      "åıĪåħµåį«": 6042,
      "æ®ģ": 6043,
      "æµģäº¡": 6044,
      "æľĪåįģä¸ĥæĹ¥": 6045,
      "èĽ®": 6046,
      "ç»ĵæĿŁåĲİ": 6047,
      "éĺĶ": 6048,
      "æĬ«": 6049,
      "èĩªå®¶": 6050,
      "æ²³éĩİæ°ı": 6051,
      "å¾¡åĿĬ": 6052,
      "éĩĮè§ģä¹īå°§": 6053,
      "å¢ŀçĶ°éķ¿çĽĽ": 6054,
      "åľĪ": 6055,
      "åĲİäºº": 6056,
      "éķ¿ç¦Ħ": 6057,
      "å¹¶ä¸įæĺ¯": 6058,
      "é«ĺåĿĤ": 6059,
      "ä»İå±ŀäºİ": 6060,
      "è¥¿åĽŃå¯º": 6061,
      "å¹ķèĩ£": 6062,
      "æį®æŃ¤": 6063,
      "å±ħé¦Ĩ": 6064,
      "æ°¸ç¦Ħä¸ĥå¹´": 6065,
      "åŁºäºİ": 6066,
      "çİĭåŃĲ": 6067,
      "æľĪäºĮåįģä¸ĢæĹ¥": 6068,
      "å®īåĽ½å¯ºæĥłçĲ¼": 6069,
      "å¯¹ä»ĺ": 6070,
      "éĿ¢ä¸´": 6071,
      "çī©é¦Ĩ": 6072,
      "ç¥ĸåħĪ": 6073,
      "è¿Ļä¸ªæĹ¶åĢĻ": 6074,
      "æ²¿æµ·": 6075,
      "å¼Ĺæ´Ľä¼Ĭæĸ¯": 6076,
      "Ġåĩºèĩª": 6077,
      "éļ¼": 6078,
      "ä»ĸåıĪ": 6079,
      "å¯ºåĨħ": 6080,
      "è¿ĩäºİ": 6081,
      "åĮĹæĿ¡é«ĺ": 6082,
      "èĻ½ä¸º": 6083,
      "è´£ä»»": 6084,
      "åħĥé¾ŁäºĮå¹´": 6085,
      "åĬłåħ¥è¥¿åĨĽ": 6086,
      "åĨĽä¸Ń": 6087,
      "ä¹īå°ļ": 6088,
      "æŃ£çº¯": 6089,
      "æĸĩæ²»": 6090,
      "ä»»å®ĺ": 6091,
      "èº²": 6092,
      "æĹłå¥Ī": 6093,
      "æĸ°å®«": 6094,
      "åĽ´åĽ°": 6095,
      "çĽ®åīį": 6096,
      "çł´è£Ĥ": 6097,
      "æ²³å°»": 6098,
      "éĢĢåħµ": 6099,
      "æµģæµª": 6100,
      "æ·³": 6101,
      "åħŃè§Ĵé«ĺèµĸ": 6102,
      "éĻĲåĪ¶": 6103,
      "çıł": 6104,
      "åĲİèĹ¤åŁºæ¬¡": 6105,
      "ç§Ģæ²»": 6106,
      "ä¹Łå°±": 6107,
      "å®ŀä¼ĳ": 6108,
      "åħ¨åĬĽ": 6109,
      "æ¶Ĥ": 6110,
      "ç»Ĩå·Ŀæ¾Ħåħĥ": 6111,
      "å®ªæĶ¿": 6112,
      "å¼ĵç®Ń": 6113,
      "ä¸ºåĲį": 6114,
      "å¯¨": 6115,
      "ä¹īéĺ³": 6116,
      "é¢ĨåŁŁ": 6117,
      "æĿ¥æĶ»": 6118,
      "ãģĺ": 6119,
      "ä¹¦ä¸Ń": 6120,
      "åİĨç»ı": 6121,
      "ãĤģ": 6122,
      "æĽ´å¤ļ": 6123,
      "è¿½è®¨": 6124,
      "æĶ¯æĮģä¸ĭ": 6125,
      "æ»ŀçķĻ": 6126,
      "ä¹ĭå¿ĥ": 6127,
      "æĬĽ": 6128,
      "ä¹ŁåĽłæŃ¤": 6129,
      "ä»¤åħ¶": 6130,
      "å±ķç¤º": 6131,
      "åĪ«åĬ¨éĺŁ": 6132,
      "è¿Ľåıĳ": 6133,
      "åĬ¨èį¡": 6134,
      "ä¸¾åĬ¨": 6135,
      "æľĪäºĮåįģåĽĽæĹ¥": 6136,
      "ä½łä»¬": 6137,
      "æ¸¯åı£": 6138,
      "åĲİäºİ": 6139,
      "åĩ¶": 6140,
      "äºĮéĥİ": 6141,
      "å¤©æŃ£ä¹Ŀå¹´": 6142,
      "1616": 6143,
      "è®©åĩº": 6144,
      "æĿ¾å¹³æ¸ħåº·": 6145,
      "éĺ¿éĥ¨": 6146,
      "åĲ¬åĪ°": 6147,
      "ç¢İ": 6148,
      "åĪºæĿĢ": 6149,
      "åŁİå¤ĸ": 6150,
      "åĽ½ä¹ħ": 6151,
      "å·Ŀä¹ĭæĪĺä¸Ń": 6152,
      "äºĮä½į": 6153,
      "å¦¥": 6154,
      "æľĿèĩ£": 6155,
      "å±ħçĦ¶": 6156,
      "æ³¢ç½Ĺ": 6157,
      "çİĦèķĥ": 6158,
      "åĭŁ": 6159,
      "åĮĸä¸º": 6160,
      "äºĮåįģåĽĽ": 6161,
      "åºŀå¤§": 6162,
      "éķ¿æĿŁ": 6163,
      "ä¼°": 6164,
      "ç§Ģä¿¡": 6165,
      "çŃīçŃī": 6166,
      "è¶³åĪ©å°ĨåĨĽå®¶": 6167,
      "äº¤å¥½": 6168,
      "åĵ²": 6169,
      "åĨ°": 6170,
      "åº¸": 6171,
      "æŃ£æľ¨": 6172,
      "ä¾¦": 6173,
      "é«ĺå¸Ī": 6174,
      "ä¼łéĹ»": 6175,
      "æĤŁ": 6176,
      "çĻ»ä¸Ĭ": 6177,
      "æĪĺäºīä¸Ń": 6178,
      "æīĩè°·ä¸ĬæĿīæ°ı": 6179,
      "é«ĺæ¡¥ç»įè¿Ĳ": 6180,
      "äºĮæľ¬æĿ¾": 6181,
      "å¤§å¹ħ": 6182,
      "æĹ¶æĶ¿": 6183,
      "å¹³è´º": 6184,
      "åĲĳå®¶åº·": 6185,
      "æĥ©": 6186,
      "æ®¿åĨĽ": 6187,
      "ä¸įè¿ĩæĺ¯": 6188,
      "åħŃè§Ĵå®ļèµĸ": 6189,
      "æĿĳä¸Ĭæ°ı": 6190,
      "åį±éĻ©": 6191,
      "åª": 6192,
      "è¿Ļåº§": 6193,
      "143": 6194,
      "æ£®åı¯æĪĲ": 6195,
      "éī´ç§į": 6196,
      "å¹¼å¹´": 6197,
      "1605": 6198,
      "84": 6199,
      "å¤§æ²³åĨħ": 6200,
      "æ°ıæĹı": 6201,
      "æĹ¶åĪ»": 6202,
      "æľ¬åĽ½": 6203,
      "å¹¶å°Ĩåħ¶": 6204,
      "è¿ĻæĹ¶åĢĻ": 6205,
      "ä¸ĬæĿīæĸ¹": 6206,
      "ä¸¤æ´¾": 6207,
      "çľŁéĩĮ": 6208,
      "æķ°åįģ": 6209,
      "æĸ½è¡Į": 6210,
      "å¾·å·Ŀå®¶åħī": 6211,
      "æ²¿å²¸": 6212,
      "å©¿åħ»åŃĲ": 6213,
      "è¸ª": 6214,
      "å£¬çĶŁ": 6215,
      "ä¸ŃéĹ´": 6216,
      "éĽ¾": 6217,
      "ä¹ĭæĪĺåĲİ": 6218,
      "æ·±åıĹ": 6219,
      "æľĪåįģä¸ĢæĹ¥": 6220,
      "æĺİæ²»ç»´æĸ°": 6221,
      "èĽĩ": 6222,
      "æłı": 6223,
      "æłĸ": 6224,
      "æĻ¯å®¶": 6225,
      "éĢļè¯´": 6226,
      "èĪħ": 6227,
      "ãĤı": 6228,
      "èģĶçĽŁ": 6229,
      "æļĹéĢļ": 6230,
      "å¼Ĥè¯´": 6231,
      "åĢŁæŃ¤": 6232,
      "åĲīå·Ŀå¹¿å®¶": 6233,
      "çī¹åĪ«æĺ¯": 6234,
      "éļ¼äºº": 6235,
      "å¯Ŀ": 6236,
      "åĩºçīĪ": 6237,
      "ä¸ĭæĹ¬": 6238,
      "ä¸ľåįĹ": 6239,
      "æľĿæ¯Ķ": 6240,
      "è¥¿æĸ¹": 6241,
      "å¾¡åĨħ": 6242,
      "æ°´æĪ·": 6243,
      "æ°¸ç¦ĦåħŃå¹´": 6244,
      "1539": 6245,
      "çĽĳæĬ¤": 6246,
      "åıĳèµ·æĶ»åĩ»": 6247,
      "äºķä¼ĬçĽ´": 6248,
      "æľĿæ¯Ķå¥Ī": 6249,
      "åºĬ": 6250,
      "éķ¿å¹´": 6251,
      "éģģ": 6252,
      "æĮ½": 6253,
      "éĥ½å¸Ĥ": 6254,
      "æŃ»ä¼¤": 6255,
      "è¥¿çıŃ": 6256,
      "éĺŁä¼į": 6257,
      "å¤ĦåĪĨ": 6258,
      "å±¡æ¬¡": 6259,
      "ä¼Ĭè±«åĽ½": 6260,
      "æ»ĭè´º": 6261,
      "åĽ½åºľåı°": 6262,
      "è¥¿çıŃçīĻ": 6263,
      "ä¹ĭåĬŁ": 6264,
      "ä¸įå¹¸": 6265,
      "çĲĨè§£": 6266,
      "æľĪäºĮåįģäºĶæĹ¥": 6267,
      "å®¤çĶºå¹ķåºľç¬¬": 6268,
      "ä¼ĺç§Ģ": 6269,
      "ä¸°åīįåĽ½": 6270,
      "åįļçī©é¦Ĩ": 6271,
      "ä¿¡å®ļ": 6272,
      "åĩºéĿ¢": 6273,
      "å®Ĺæ²»": 6274,
      "ä½Ĩåħ¶": 6275,
      "ä¸¤å¹´": 6276,
      "æ»´": 6277,
      "ç»ĵåĲĪ": 6278,
      "å²©å±ĭåŁİ": 6279,
      "çºªå¿µ": 6280,
      "æ²¼çĶ°åŁİ": 6281,
      "åĬłè´ºåĽ½": 6282,
      "æ±łçĶ°è¾īæĶ¿": 6283,
      "åĩºå¸Ń": 6284,
      "åľ°éľĩ": 6285,
      "åĮĹæĿ¡æĸ¹": 6286,
      "äº¦ä¸º": 6287,
      "è¶³åĪ©ä¹īç¨Ļ": 6288,
      "éĺ²æŃ¢": 6289,
      "è¿İæĿ¥": 6290,
      "æľĪåįģåħŃæĹ¥": 6291,
      "æĳĦæĶ¿": 6292,
      "æī©å±ķ": 6293,
      "å¾¡é¦Ĩä¹ĭä¹±": 6294,
      "æĦıåĳ³çĿĢ": 6295,
      "çĲµçĲ¶æ¹ĸ": 6296,
      "æĸ¹éĴĪ": 6297,
      "æīĢçĶ¨": 6298,
      "éĢļå¾Ģ": 6299,
      "åħŃæ³¢ç½Ĺ": 6300,
      "å¼ŁåŃĲ": 6301,
      "åħ´åħĥ": 6302,
      "èĤī": 6303,
      "è¿ŀç»Ń": 6304,
      "è¾ŀä¸ĸ": 6305,
      "æĪĺè´¥åĲİ": 6306,
      "éľ¸æĿĥ": 6307,
      "éĵĥæľ¨éĩį": 6308,
      "ä¹ĭæ¯į": 6309,
      "ä¸įä½ı": 6310,
      "æĪĲå°±": 6311,
      "æĸ¹å¹¿": 6312,
      "é¢Ĩæ°ĳ": 6313,
      "ãģ°": 6314,
      "äº¦äºİ": 6315,
      "åħ¬å¼Ģ": 6316,
      "æĶ¹åħĥ": 6317,
      "è¨Ģç»§": 6318,
      "åħ³ä¸ľåľ°åĮº": 6319,
      "åħ¼å®ļ": 6320,
      "çĬ¶åĨµ": 6321,
      "æİ¨ä¸¾": 6322,
      "1530": 6323,
      "1533": 6324,
      "1534": 6325,
      "1535": 6326,
      "å¤©æŃ£åįģåĽĽå¹´": 6327,
      "æ¡ĳåĲį": 6328,
      "çĶ°å®¶": 6329,
      "ä¸Ńéĩİ": 6330,
      "ä»£å®¶çĿ£": 6331,
      "åĽĽçĶ·": 6332,
      "èĹ¤æ°ı": 6333,
      "éĤ£äºĽ": 6334,
      "æŃ£äº²çĶºå¤©çļĩ": 6335,
      "ä¸Ģè¯į": 6336,
      "å¤§æĺİ": 6337,
      "æŃ¦çĶ°æĸ¹": 6338,
      "å¤Ħç½®": 6339,
      "å®ĩæ²»": 6340,
      "çĨĬæľ¬": 6341,
      "èĲ¨æĳ©åĽ½": 6342,
      "åĲı": 6343,
      "ä¸ºä»Ģä¹Ī": 6344,
      "äººåĳĺ": 6345,
      "èĩ³å°ĳ": 6346,
      "æĬ¤éĢģ": 6347,
      "ä¸ĥå°¾åŁİ": 6348,
      "å¹¸æĿĳ": 6349,
      "é»ĳå·Ŀ": 6350,
      "éģĹè¨Ģ": 6351,
      "åĳĬçŁ¥": 6352,
      "å¤§å±ħå£«": 6353,
      "ä»ĸè¿ĺ": 6354,
      "ç»Ļä»ĸ": 6355,
      "æ®¿åĲİ": 6356,
      "åĩłä¸ª": 6357,
      "æĻ®éģį": 6358,
      "å¤§èĩ´": 6359,
      "åĪ©éķ¿": 6360,
      "å®Īå°±": 6361,
      "æŀ¢": 6362,
      "çĪ±åŃ£": 6363,
      "æľĪäºĮåįģä¸īæĹ¥": 6364,
      "è´Ŀ": 6365,
      "å±±æ¢¨": 6366,
      "å±±éºĵ": 6367,
      "æľīåĨĪåŁİ": 6368,
      "ãģĿ": 6369,
      "äºĮåįĥ": 6370,
      "å¦¾": 6371,
      "ä½įåĪĹ": 6372,
      "å¤§åĿĤåĨ¬ä¹ĭéĺµ": 6373,
      "ä¸Ģè¯´ä¸º": 6374,
      "è°Ĺè¨Ģ": 6375,
      "ä¸Ģå®«": 6376,
      "åĲİä»£": 6377,
      "å°Ĩä»ĸ": 6378,
      "è¥¿ä¹¡": 6379,
      "éĢļäº¤": 6380,
      "1611": 6381,
      "åĲĦåĽ½": 6382,
      "è°ĭæ±Ĥ": 6383,
      "çľĭåĩº": 6384,
      "èĪŀåı°": 6385,
      "æľ¬åºĦç¹ģéķ¿": 6386,
      "85": 6387,
      "ä¸ĢåŃĺ": 6388,
      "éķ¿åħĦ": 6389,
      "ä¼½": 6390,
      "å°ıè±Ĩ": 6391,
      "ä¿¡éķ¿åĮħåĽ´ç½ĳ": 6392,
      "ç»§æī¿å®¶ä¸ļ": 6393,
      "éħ·": 6394,
      "ä»ħä»ħ": 6395,
      "æľ¬å¤ļæŃ£ä¿¡": 6396,
      "æĹ¢çĦ¶": 6397,
      "æī¶æĮģ": 6398,
      "ä¿ĺèĻı": 6399,
      "åħ¹": 6400,
      "ä¸ºæĢ»å¤§å°Ĩ": 6401,
      "æĶ¿å®ŀ": 6402,
      "æĬĳ": 6403,
      "é¢ľ": 6404,
      "ä¸ľæĿ¡": 6405,
      "æĹłäºĭ": 6406,
      "çłĤ": 6407,
      "å²ģä¹ħ": 6408,
      "åīįçĶ°å®¶": 6409,
      "åĨĻéģĵ": 6410,
      "è¶ģçĿĢ": 6411,
      "åī²æį®": 6412,
      "ä¿¡åĲĽ": 6413,
      "ä¸ĭåĲĳ": 6414,
      "æ¬¡å·Ŀä¸Ńå²Ľ": 6415,
      "é«ĺçĶ°": 6416,
      "é«ĺæ¢¨": 6417,
      "ä¸ľéĥ¡": 6418,
      "çĽ´èĩ£": 6419,
      "èģª": 6420,
      "çĽĽæĹ¶": 6421,
      "ä¸ĥæľ¬æŀª": 6422,
      "èµ¤æĿ¾å®¶": 6423,
      "åįĥåı¶æ°ı": 6424,
      "éĿĻåĨĪåİ¿": 6425,
      "æĿ¥æı´": 6426,
      "æĸĩåŃĹ": 6427,
      "æīĢèĹı": 6428,
      "è½¯": 6429,
      "ä¸¤ä»£": 6430,
      "èĲ©": 6431,
      "å°¼åŃĲèĥľä¹ħ": 6432,
      "éĴĵ": 6433,
      "ç»Łæ²»èĢħ": 6434,
      "çīĩä»ĵ": 6435,
      "è¡Ģç¼ĺ": 6436,
      "è¯ĨåĪ°": 6437,
      "æª": 6438,
      "ä¹ĭé¦ĸ": 6439,
      "å¤§ä¹ī": 6440,
      "ä¹īæ²»": 6441,
      "åĽłçĪ¶äº²": 6442,
      "éĥ½ä¸į": 6443,
      "æĿĳäºķ": 6444,
      "è¶³åĪ©ä¹īè§Ĩ": 6445,
      "ä¸īå¥½åĨĽ": 6446,
      "å¤§åĨħæĶ¿å¼ĺ": 6447,
      "éĺ²éķ¿": 6448,
      "ä»ķç½®": 6449,
      "ç®Ģåįķ": 6450,
      "å¤§ä½Ľæ®¿": 6451,
      "é¡½å¼º": 6452,
      "çľŁéĩĮè°·": 6453,
      "äºĮä¸ĩ": 6454,
      "å¤©æŃ£äºĶå¹´": 6455,
      "åħĪç¥ĸ": 6456,
      "æľĿä»ĵåŃĿæĻ¯": 6457,
      "1609": 6458,
      "ç¢§": 6459,
      "åº¶åŃĲ": 6460,
      "é¢ĩä¸º": 6461,
      "æĸ¹å¹¿å¯º": 6462,
      "å¤§åįĬ": 6463,
      "åĽ½ä¸»": 6464,
      "ä»£ä»£": 6465,
      "æĪĲçº²": 6466,
      "è¿ĳä»£": 6467,
      "çĭ±": 6468,
      "æķĻèĤ²": 6469,
      "åĨ³æĦı": 6470,
      "éĺ²çº¿": 6471,
      "å®¹æĺĵ": 6472,
      "åºŁéĻ¤": 6473,
      "åĽ°éļ¾": 6474,
      "çĶ²å·ŀå¾ģä¼Ĳ": 6475,
      "å¯Ĵæ²³": 6476,
      "æĥ¯ä¾ĭ": 6477,
      "äºĭä¸ļ": 6478,
      "å§ĭäºİ": 6479,
      "æıĲåįĩ": 6480,
      "éķĩå®ŀ": 6481,
      "çķłå±±æĶ¿éķ¿": 6482,
      "ç¬¬äºĮä»£": 6483,
      "ä¸įå·²": 6484,
      "ä»ĸå°Ĩ": 6485,
      "è¶ĬæĿ¥": 6486,
      "ä¸¤å¤§": 6487,
      "æĶ¶å½ķ": 6488,
      "æĤĶ": 6489,
      "è°ĭæĿĢ": 6490,
      "åĽ°å¢ĥ": 6491,
      "èĶļ": 6492,
      "åŁİéĻ·èĲ½": 6493,
      "èµĸçº²": 6494,
      "æµ·è·¯": 6495,
      "æ¶Īå¤±": 6496,
      "åĭĩå£«": 6497,
      "çĭ¬èĩª": 6498,
      "åįıè®®": 6499,
      "æĭ¿ä¸ĭ": 6500,
      "åĤ¬ä¿ĥ": 6501,
      "æŃ¤æľŁéĹ´": 6502,
      "éĩİçĶ°": 6503,
      "çĦ¦": 6504,
      "è¥¿ä¸īæ²³": 6505,
      "çĽĽä¿¡": 6506,
      "è¶³åĪ©ä¹īæĻ´": 6507,
      "åĭī": 6508,
      "æĤ¦": 6509,
      "é¹«": 6510,
      "èı±": 6511,
      "1531": 6512,
      "æŁ³æľ¬": 6513,
      "å¤ªéĺģè®°": 6514,
      "å°ĳè´°æ°ı": 6515,
      "èŁ": 6516,
      "å¤§èĹı": 6517,
      "å¥¢": 6518,
      "å¸½": 6519,
      "åº·èĥ¤": 6520,
      "äºĶåįĥäºº": 6521,
      "æ¯ĽåĪ©éļĨåħĥ": 6522,
      "æľ¨æĿĳéĩį": 6523,
      "ç»ŁèĻİ": 6524,
      "äºĮåįģå¹´": 6525,
      "æķħèĢĮ": 6526,
      "å°ļé¡º": 6527,
      "æ¯ıå¹´": 6528,
      "äº¬æŀģæ°ı": 6529,
      "å¤§æŃ£": 6530,
      "ä¹īæĺİ": 6531,
      "è¿Ļå°±æĺ¯": 6532,
      "è·³": 6533,
      "å¥³æĢ§": 6534,
      "é¥ŃçĶ°": 6535,
      "æĹĭåį³": 6536,
      "è¿ľå±±æ°ı": 6537,
      "å§¿æĢģ": 6538,
      "å°ıå¼ĵåħ¬æĸ¹": 6539,
      "è¶ĬæĿ¥è¶Ĭ": 6540,
      "an": 6541,
      "æŀŃ": 6542,
      "ä»İä¸īä½į": 6543,
      "äºĶåįĥçŁ³": 6544,
      "æºº": 6545,
      "æķĮå°Ĩ": 6546,
      "æ°¸ç¦Ħåįģå¹´": 6547,
      "ä¼Ĭè¾¾ç¨Ļå®Ĺ": 6548,
      "å®£åĳĬ": 6549,
      "1527": 6550,
      "ä¼Ĭè±ĨåĽ½": 6551,
      "è¯¢éĹ®": 6552,
      "ä¸ºæŃ£å®¤": 6553,
      "éķ¿è¾¾": 6554,
      "åĩ½": 6555,
      "ä¸įåłª": 6556,
      "æĬ¬": 6557,
      "éĹ¹": 6558,
      "æŃ¦çĶ°åħĥ": 6559,
      "åı¯ä¿¡": 6560,
      "æ¸ħå·ŀ": 6561,
      "è¯¸è¯´": 6562,
      "çĸĹ": 6563,
      "éģ£ä½¿": 6564,
      "åħįéĻ¤": 6565,
      "äºĮæĿ¡å¾¡æīĢ": 6566,
      "ç¥ŀä¿Ŀéķ¿": 6567,
      "æĦ¤æĢĴ": 6568,
      "åĲĵ": 6569,
      "èĢķ": 6570,
      "åīįå¤ķ": 6571,
      "é«ĺåº¦": 6572,
      "æ¸Ķ": 6573,
      "è¿ĽèĢĮ": 6574,
      "å²ĽåİŁ": 6575,
      "æĿĥåĬ¿": 6576,
      "åı²è¿¹": 6577,
      "ç§»åĪ°": 6578,
      "è°ĥè§£": 6579,
      "æī§æĶ¿": 6580,
      "æĹ¥éĩİå¯ĮåŃĲ": 6581,
      "ä¸Ńå·Ŀæ¸ħç§Ģ": 6582,
      "èļ": 6583,
      "å®¶å½ĵä¸»": 6584,
      "å¤§çŁ³": 6585,
      "ä¸įæĦ¿": 6586,
      "åīįè¿°": 6587,
      "1612": 6588,
      "éĢĢåį´": 6589,
      "åŁºæ°ı": 6590,
      "çĻ½äºķ": 6591,
      "åı·åı¬": 6592,
      "æī§æĿĥ": 6593,
      "æī¾åĪ°": 6594,
      "åŁİéĹ¨": 6595,
      "å±±å¸Ĥ": 6596,
      "å¹³éĩİ": 6597,
      "140": 6598,
      "çª¥": 6599,
      "å¤©ç«¥": 6600,
      "ä»ĸæĽ¾": 6601,
      "éĩįä¼¤": 6602,
      "æįĲ": 6603,
      "åºľåĨħ": 6604,
      "åĽĽäºº": 6605,
      "å¤©æŃ£ä¸ĥå¹´": 6606,
      "æĸ°çº³": 6607,
      "å¾¡éĹ¨": 6608,
      "è¿Ļä¸Ģæ¬¡": 6609,
      "æ±ŁæĪ·æĹ¶ä»£åĪĿæľŁ": 6610,
      "èħķ": 6611,
      "æĺ¯æĪĺåĽ½æĹ¶ä»£èĩ³æ±ŁæĪ·æĹ¶ä»£åĪĿæľŁ": 6612,
      "çŀ¬": 6613,
      "åĪ«æīĢéķ¿æ²»": 6614,
      "åĲİç»§èĢħ": 6615,
      "æľ½æľ¨": 6616,
      "èĽ°å±ħ": 6617,
      "å®¶åħī": 6618,
      "æĪĺèĥľ": 6619,
      "ä¸Ńå°Ĩ": 6620,
      "çĶŁçĪ¶": 6621,
      "éĺ´æµģ": 6622,
      "çŁŃæļĤ": 6623,
      "ä¹ĭåĬ¿": 6624,
      "ç»ĩéĥ¨": 6625,
      "åĪĽç«ĭ": 6626,
      "å¡Ļ": 6627,
      "æĥ¨éĩį": 6628,
      "çĶĺåĪ©": 6629,
      "å°¤åħ¶æĺ¯": 6630,
      "ä¸Ģå¤©": 6631,
      "1500": 6632,
      "å½ĵåľº": 6633,
      "ç»§èĢĮ": 6634,
      "åĽĽå¤Ħ": 6635,
      "è¶³åĪ©æĻ´æ°ı": 6636,
      "å¿ĥä¸Ń": 6637,
      "æĺĮä¿¡": 6638,
      "æĭ¥æĪ´": 6639,
      "1606": 6640,
      "ç¬¬ä¸īåŃĲ": 6641,
      "æĺ¯å®īåľŁæ¡ĥå±±æĹ¶ä»£èĩ³æ±ŁæĪ·æĹ¶ä»£åīįæľŁ": 6642,
      "æŃ¼çģŃ": 6643,
      "å¤§å¾·å¯º": 6644,
      "åĨĽè®®": 6645,
      "æĺ¯çĶ±": 6646,
      "è¾Ľ": 6647,
      "åĲīæĶ¿": 6648,
      "èĥľéĩį": 6649,
      "äºĭåħĪ": 6650,
      "åıĬåħ¶åŃĲ": 6651,
      "å¤©æŃ£äºĮå¹´": 6652,
      "äº¦ä»¥": 6653,
      "åıĸèĥľ": 6654,
      "äº¤çĶ±": 6655,
      "æĢ»æĶ»": 6656,
      "åĬłè´ºä¸ĢåĲĳä¸ĢæıĨ": 6657,
      "ä¹¦ä¿¡ä¸Ń": 6658,
      "èĤ¯å®ļ": 6659,
      "è¤Ĵ": 6660,
      "éķ¿æķĻ": 6661,
      "å¥Ĺ": 6662,
      "çĶŁæ¶¯": 6663,
      "éĥ½æ²¡æľī": 6664,
      "æİ¥ä»»": 6665,
      "å¹¿éĹ¨": 6666,
      "åĲĦä¸ª": 6667,
      "ç®¡è¾ĸ": 6668,
      "çİĭæľĿ": 6669,
      "å²©ä»ĵ": 6670,
      "è®¾æĸ½": 6671,
      "çĻ»åľº": 6672,
      "æĥŁæĶ¿": 6673,
      "èĩ£æľįäºİ": 6674,
      "åĭ¾ç»ĵ": 6675,
      "ãĢĪ": 6676,
      "ãĢī": 6677,
      "ä¹Ļ": 6678,
      "å¹´ä»½": 6679,
      "å±ł": 6680,
      "èĢĢ": 6681,
      "æĸĩåºĵ": 6682,
      "åĽĽéĥ¡": 6683,
      "ä¸¤åĲį": 6684,
      "æľªæĿ¥": 6685,
      "åħ»åĹ£åŃĲ": 6686,
      "ä¸ŃåĽ½åľ°æĸ¹": 6687,
      "1523": 6688,
      "é¸Łå±ħåħĥå¿ł": 6689,
      "æīĢåı¸ä»£": 6690,
      "ä¹īè¯ł": 6691,
      "èµĸæĪ¿": 6692,
      "åħ´çĽĽ": 6693,
      "å«¡éķ¿åŃĲ": 6694,
      "åĨ²åħ¥": 6695,
      "åĨĻä¿¡": 6696,
      "åı¬å¼Ģ": 6697,
      "æĲŃ": 6698,
      "èµŀèµı": 6699,
      "éĺ´è°ĭ": 6700,
      "1467": 6701,
      "æľĹ": 6702,
      "å®Ĺæ°ı": 6703,
      "æĸĩé¾Ł": 6704,
      "æı½": 6705,
      "å®īæ²»": 6706,
      "æº¯": 6707,
      "çł²": 6708,
      "æľįä»İ": 6709,
      "ä¹ĥèĩ³": 6710,
      "1508": 6711,
      "éľ¸ä¸»": 6712,
      "ä»¥æŃ¤ä¸º": 6713,
      "æľ¨æ³½éķ¿æĶ¿": 6714,
      "âĶģâĶģ": 6715,
      "éķ¿æĿŁæŃ£å®¶": 6716,
      "ä¸ľçħ§": 6717,
      "éªĤ": 6718,
      "åıĭå¥½": 6719,
      "æİ¨åĬ¨": 6720,
      "åĨ²çĶ°": 6721,
      "æ³īåĽ½": 6722,
      "æľĢä¸Ĭå®¶": 6723,
      "å¤©å®Īéĺģ": 6724,
      "äºĺ": 6725,
      "ä¿¡äº²": 6726,
      "ä¸ĬæĿ¡": 6727,
      "ä¹īå®Ī": 6728,
      "èĩªçĶ±": 6729,
      "æĸĩåŃ¦": 6730,
      "åħ«åįĥ": 6731,
      "æ°¸ç¦Ħåħ«å¹´": 6732,
      "è¿½æĶ¾": 6733,
      "ç¾½æŁ´ç§Ģéķ¿": 6734,
      "é¥ŃçĽĽ": 6735,
      "ç¼ĸåħ¥": 6736,
      "æ¯įè¡£ä¼Ĺ": 6737,
      "ä¹ĭæľº": 6738,
      "å¤§åĸľ": 6739,
      "ä¼º": 6740,
      "è¯ı": 6741,
      "æĮĸ": 6742,
      "ç»ıçķ¥": 6743,
      "æİ¥ä¸ĭæĿ¥": 6744,
      "æľĪäºĮåįģåħŃæĹ¥": 6745,
      "æī§æİĮ": 6746,
      "æĸ¯æ³¢å®¶": 6747,
      "å¤§åıĭä¹īç»Ł": 6748,
      "åįģæ²³åŃĺä¿Ŀ": 6749,
      "ä»ĻçŁ³ç§Ģä¹ħ": 6750,
      "æ®īæŃ»": 6751,
      "äººçĶŁ": 6752,
      "èĥĦ": 6753,
      "æľ¬å§ĵ": 6754,
      "æŃ¤åŁİ": 6755,
      "é¢Ĩåħµ": 6756,
      "åĽłåĬŁ": 6757,
      "åıĤè®®": 6758,
      "ä¿Ŀéļľ": 6759,
      "æ°¸ç¦ĦäºĶå¹´": 6760,
      "åĨ³è£Ĥ": 6761,
      "ä¹Ŀå·ŀå²Ľ": 6762,
      "æ¨±äºķ": 6763,
      "ä¾ĦåŃĲ": 6764,
      "è¿Ĥ": 6765,
      "å¤§åĬŁ": 6766,
      "ä¼ĬèĹ¤": 6767,
      "ç¬ĥ": 6768,
      "æĿĥéĻĲ": 6769,
      "æ°¸ç¦Ħå¹´éĹ´": 6770,
      "æµ·è´¼": 6771,
      "è¯¸å®¶": 6772,
      "æĺĮä¸°": 6773,
      "æ··æĪĺ": 6774,
      "ç¼ĺæķħ": 6775,
      "äº®æĶ¿": 6776,
      "éķ¿å°¾æĻ¯æĺ¥": 6777,
      "å¹´é¾Ħ": 6778,
      "ä¸ºåĲİ": 6779,
      "å¤§æ²³": 6780,
      "å¤§å¾¡æīĢ": 6781,
      "æĪĲå®ŀ": 6782,
      "åħ¶åĲį": 6783,
      "æĺİå¾·": 6784,
      "èµĸä¹ĭ": 6785,
      "æ²¡èĥ½": 6786,
      "ä»ģäº²çİĭ": 6787,
      "è¯´æ³ķç§°": 6788,
      "æ¯«ä¸į": 6789,
      "åĩĢåľŁçľŁå®Ĺ": 6790,
      "ä¸Ģéĥİ": 6791,
      "å¼ĳ": 6792,
      "åĲįåı«": 6793,
      "æ¸ħæ¥ļ": 6794,
      "èĻİæĺĮ": 6795,
      "é¥¥": 6796,
      "åĽ¢ç»ĵ": 6797,
      "å·¥äºĭ": 6798,
      "é¹¿ä¹ĭä»ĭ": 6799,
      "åĭĺåĬ©": 6800,
      "å£¬åįĪ": 6801,
      "ä¹Ŀé¬¼åĺīéļĨ": 6802,
      "å£ķæ²Ł": 6803,
      "ãĢħ": 6804,
      "éķ¿å·ŀ": 6805,
      "è¯«": 6806,
      "ä¸Ńä»ĭ": 6807,
      "ä¹īå®£": 6808,
      "åĩºåĬ¨": 6809,
      "èµ¶æĿ¥": 6810,
      "é¡¿æĹ¶": 6811,
      "çĽĨåľ°": 6812,
      "åĲİæĶ¹åĲį": 6813,
      "æľ¬æĺ¯": 6814,
      "è¿Ļä¹Ł": 6815,
      "1610": 6816,
      "æĶ¶èĹı": 6817,
      "è®¨æŃ»": 6818,
      "ä¿®è¡Į": 6819,
      "å¼ĥåŁİ": 6820,
      "é¸£æµ·": 6821,
      "åį§": 6822,
      "æĺ¯æĮĩ": 6823,
      "ä¹īæŃ¦": 6824,
      "åħĥçĽĽ": 6825,
      "å¯¹åĨ³": 6826,
      "å°±ä¼ļ": 6827,
      "åı¦ä¸Ģä¸ª": 6828,
      "å°ĳå°Ĩ": 6829,
      "æĶ¯éħįæĿĥ": 6830,
      "åħħåĪĨ": 6831,
      "ä¼ĬéĤ£éĥ¡": 6832,
      "åĲīæĻ´": 6833,
      "åĲĮæ¯į": 6834,
      "å¯¹ä¿¡éķ¿": 6835,
      "ä»ĸä¸º": 6836,
      "ä¹Łå¼Ģå§ĭ": 6837,
      "åĪĨç¦»": 6838,
      "æĹłåıĮ": 6839,
      "æģŃ": 6840,
      "æĽ¾æł¹": 6841,
      "å®ĺåĨĽ": 6842,
      "è´ŀæ²»": 6843,
      "äºīè®®": 6844,
      "åŁºåľ°": 6845,
      "åħ³ä¸ľåħ¬æĸ¹": 6846,
      "å½Ĵåħ¥": 6847,
      "æ¯įäº²ä¸º": 6848,
      "è´±å²³ä¹ĭæĪĺ": 6849,
      "ä¸ĢçĤ¹": 6850,
      "èĥ¶": 6851,
      "å°ĨæĿ¥": 6852,
      "æĻ¯éļĨ": 6853,
      "æĿ¾å°¾": 6854,
      "è¥¿ä¸Ĭ": 6855,
      "å·²æĺ¯": 6856,
      "æİ¥æĶ¶": 6857,
      "ä»įä»¥": 6858,
      "åĽ¾ä¹¦": 6859,
      "åĪ«å½ĵ": 6860,
      "è¯¦æĥħ": 6861,
      "çī¹æĿĥ": 6862,
      "æ¸Ĳæ¸Ĳ": 6863,
      "åħ³åİŁä¹ĭæĪĺæĹ¶": 6864,
      "ä½Ĳä¹ħéĹ´çĽĽæĶ¿": 6865,
      "å§»äº²åħ³ç³»": 6866,
      "å°ıåİ¿éĥ¡": 6867,
      "79": 6868,
      "åįģä½Ļ": 6869,
      "å®īç¥¥": 6870,
      "èµĸéļĨ": 6871,
      "åĪĨåħµ": 6872,
      "ç³Ł": 6873,
      "æ¨ªçĶ°": 6874,
      "åĭĺåĲĪ": 6875,
      "ä¸ĬæĢ»åĽ½": 6876,
      "åģĩåĲį": 6877,
      "æ»ĭè´ºåİ¿": 6878,
      "å¤©çĦ¶": 6879,
      "åĮĹä¹ĭ": 6880,
      "çĶ±åĪ©": 6881,
      "ç¥ĩ": 6882,
      "èĹıåĮ¿": 6883,
      "æĬµæĮ¡": 6884,
      "åĨ²éĶĭ": 6885,
      "æ¶Īæģ¯åĲİ": 6886,
      "å¯Ĵæ²³æ±Ł": 6887,
      "èĢĮäº¡": 6888,
      "è¡Ļ": 6889,
      "å°±è¿Ļæł·": 6890,
      "å®īå®ļ": 6891,
      "æĿ¾æľ¬": 6892,
      "èĲ½åŁİ": 6893,
      "åħµåį«å°ī": 6894,
      "1607": 6895,
      "æį¢åıĸ": 6896,
      "åħħå½ĵ": 6897,
      "å°ıéĩİéķĩå¹¸": 6898,
      "çºłçº·": 6899,
      "éķ¿åĨĪ": 6900,
      "ä¹īç»ı": 6901,
      "ä¸°å¯Į": 6902,
      "å¤©æŃ£åįģä¸Ģå¹´": 6903,
      "æĿĳå®Ĺ": 6904,
      "æĹłçĸĳ": 6905,
      "é©¬åį°": 6906,
      "ä¹¦éĻ¢": 6907,
      "æľªè§ģ": 6908,
      "æµ·æ´¥åŁİ": 6909,
      "ç¿ģ": 6910,
      "çŁ³å·Ŀæķ°æŃ£": 6911,
      "åĲīèī¯æ°ı": 6912,
      "åľ°çĽĺ": 6913,
      "ç«ŀ": 6914,
      "æĶ»èĲ½": 6915,
      "æĮģåĽ½": 6916,
      "æľ¨éĢł": 6917,
      "å¼¥ä¸īéĥİ": 6918,
      "åĢŁåı£": 6919,
      "å¥ĭåĬĽ": 6920,
      "1521": 6921,
      "ç²¾éĢļ": 6922,
      "83": 6923,
      "åĲİç§°": 6924,
      "èµ¢": 6925,
      "å±±éĹ¨": 6926,
      "ä¸īæ³½": 6927,
      "ç«ĭä¸º": 6928,
      "åĲĳå¹ķåºľ": 6929,
      "å¤ĦåĨ³": 6930,
      "åģ¶": 6931,
      "è´Łæĭħ": 6932,
      "æł¼å±Ģ": 6933,
      "è¾ŀåİ»": 6934,
      "å®łçĪ±": 6935,
      "ä¸īéĩį": 6936,
      "æĺİçĻ½": 6937,
      "å·²æľī": 6938,
      "ç»ŁåĪ¶": 6939,
      "æĦıå¤ĸ": 6940,
      "å¼ºè¡Į": 6941,
      "éĤ£å°±æĺ¯": 6942,
      "å±±åĨħä¸Ģä¸°": 6943,
      "åģľæĪĺ": 6944,
      "å¢ĵåľ°": 6945,
      "æĬļåħ»": 6946,
      "æŃ¦èīº": 6947,
      "ä¸ĸäºº": 6948,
      "ä¸¤å¹´åĲİ": 6949,
      "åįĹè¿ĳæ±Ł": 6950,
      "çľŁæĺ¯": 6951,
      "èĬ±æĬ¼": 6952,
      "éģĹé¢Ĩ": 6953,
      "è§ĤåºĶ": 6954,
      "å¹¼åŃĲ": 6955,
      "èĭ±éĽĦ": 6956,
      "èĪįå¼ĥ": 6957,
      "åĢ¾åĲĳ": 6958,
      "å¤§æīĭ": 6959,
      "å¤§ä¸¾": 6960,
      "åĲįåĪĨ": 6961,
      "æĿ¥è¢Ń": 6962,
      "å¹³äºķ": 6963,
      "æľĿæĹ¥": 6964,
      "ä¹Ŀå²ģ": 6965,
      "æ°¸ç¦Ħä¹Ŀå¹´": 6966,
      "æĢ»é¢Ĩ": 6967,
      "çº·çº": 6968,
      "æľĪäºĮåįģä¹ĿæĹ¥": 6969,
      "ç®Ģä»ĭ": 6970,
      "å§Ĭå·Ŀ": 6971,
      "ç»µ": 6972,
      "éķ¿éĩİæ°ı": 6973,
      "ä¿¡åĲī": 6974,
      "é¢Ĺ": 6975,
      "éĩįæĪĲ": 6976,
      "æĸĩæŃ¦": 6977,
      "ç§ĢåĲīæŃ»åĲİ": 6978,
      "æ³ķçļĩ": 6979,
      "å¹¸éķ¿": 6980,
      "ç¡®è¯ģ": 6981,
      "æķħæĦı": 6982,
      "è¡ĢèĦī": 6983,
      "åī¯å°Ĩ": 6984,
      "è°¢ç½ª": 6985,
      "å¶": 6986,
      "æĿ¯": 6987,
      "åľ°çĤ¹": 6988,
      "æĻ¯æĺ¥": 6989,
      "åĪĨåī²": 6990,
      "æĹłè§Ĩ": 6991,
      "åıĸæ¬¡": 6992,
      "æĪĳåĨĽ": 6993,
      "ä»¶äºĭ": 6994,
      "æĴ¤åħµ": 6995,
      "è¿¹éĥ¨": 6996,
      "è·ŁçĿĢ": 6997,
      "çĽĲè°·": 6998,
      "è½¬å°ģèĩ³": 6999,
      "æĮĳæĪĺ": 7000,
      "ä¸Īå¤«": 7001,
      "è¿ĩç»§ç»Ļ": 7002,
      "çº·çºŃ": 7003,
      "ä¸Ģç³»åĪĹ": 7004,
      "ä¸ĭèµĲ": 7005,
      "æĶ¿åŃĲ": 7006,
      "æĬ½": 7007,
      "ä¹ŁæĽ¾": 7008,
      "å®īçĶ°": 7009,
      "æĿīåİŁ": 7010,
      "éĢĢå®Ī": 7011,
      "éĢĥç¦»": 7012,
      "æ¼Ĩ": 7013,
      "åĥ§åħµ": 7014,
      "çĮĽçĥĪ": 7015,
      "å®¿æķĮ": 7016,
      "æľ¨ä¸ĭèĹ¤åĲīéĥİ": 7017,
      "å¤¸": 7018,
      "ä¸Ģå¤Ħ": 7019,
      "ä¸Ģéĵģ": 7020,
      "éķ¿éĢ¸": 7021,
      "ä¸įç®¡": 7022,
      "æľīåĬŁ": 7023,
      "æ´ª": 7024,
      "å¤©æŃ£åĽĽå¹´": 7025,
      "å¤©æŃ£åħ«å¹´": 7026,
      "è¥¿ä¾§": 7027,
      "å¾ģæĪĺ": 7028,
      "çĹķ": 7029,
      "æĤĦ": 7030,
      "éģĩåĪ°": 7031,
      "é¼İ": 7032,
      "æ¸©äºķ": 7033,
      "æĸ°çĶ°ä¹īè´ŀ": 7034,
      "æ·Ģæ®¿": 7035,
      "çĶ±å¸ĥæĥŁ": 7036,
      "ä¿¡åħī": 7037,
      "æĹ¶å¹´": 7038,
      "ç§Ģæ»¡": 7039,
      "åİŁåħĪ": 7040,
      "èī°": 7041,
      "åĽŀæĿ¥": 7042,
      "è¿ŀè´ŀ": 7043,
      "é¦ĸå¸Ń": 7044,
      "æķ°çĻ¾": 7045,
      "éģĹäº§": 7046,
      "è¿ģå¾Ģ": 7047,
      "å°ıå±±çĶ°ä¿¡": 7048,
      "èĬ¦åĲįå®¶": 7049,
      "ç¦ħå¯º": 7050,
      "æ°ıä¹ĭ": 7051,
      "è¾¾å®ī": 7052,
      "åĨįèµ·": 7053,
      "ä¾¿ä»¥": 7054,
      "äºīæī§": 7055,
      "æ¨ªå±±åŁİ": 7056,
      "åĲ¬ä»İ": 7057,
      "åī¥å¤º": 7058,
      "å¶ĭ": 7059,
      "æĸ¹æ¡Ī": 7060,
      "åĲĮåĥļ": 7061,
      "å¤ļä¸ª": 7062,
      "çĽ¸åıį": 7063,
      "ä¸īæ²³å®Ī": 7064,
      "1528": 7065,
      "æľ¨ä¸ĭç§ĢåĲī": 7066,
      "æĶ¿æ°ı": 7067,
      "ç»ĩçĶ°æĶ¿æĿĥ": 7068,
      "å²Ľå·¦è¿ĳ": 7069,
      "ä¸ĬæĿīæĪ¿": 7070,
      "ä¸ĬæĿīæĺ¾å®ļ": 7071,
      "è¥¿åįĹ": 7072,
      "åİĨä»»": 7073,
      "å¤ªåŃĲ": 7074,
      "éĩįè¦ģæĸĩåĮĸè´¢": 7075,
      "ä¸ĢæĿ¡å®¶": 7076,
      "èĽİ": 7077,
      "è§¦æĢĴ": 7078,
      "75": 7079,
      "ç»¼": 7080,
      "ç»¿": 7081,
      "ä¹ĭè¯·": 7082,
      "èĩªæ²»": 7083,
      "çĶŁåĳ½": 7084,
      "ç»§å®¤": 7085,
      "ç»§æ¶¦": 7086,
      "åĽĽä¸ĩ": 7087,
      "åĭĴ": 7088,
      "åħ·è¶³": 7089,
      "ä¹ĺèĥľ": 7090,
      "è´¯æĸĩ": 7091,
      "æĸĩæĺİåįģ": 7092,
      "å¾Īå¿«å°±": 7093,
      "åĨ²çĶ°çķ·": 7094,
      "çĺ": 7095,
      "åĩī": 7096,
      "æľīéĻĲ": 7097,
      "æľ¬ä¸º": 7098,
      "ç«ĭæĪĺåĬŁ": 7099,
      "åıĬæĹ¶": 7100,
      "æīĵåĢĴ": 7101,
      "è¿Ļä¸Ģå¹´": 7102,
      "è¿Ļä¸ĢæĹ¶æľŁ": 7103,
      "æĹ¥æľ¬æĪĺåĽ½æĹ¶ä»£æŃ¦å°Ĩ": 7104,
      "ãģĹãģŁ": 7105,
      "åŁºçĿ£å¾Ĵ": 7106,
      "ä¹ĭéģĵ": 7107,
      "æ°ıçħ§": 7108,
      "æĹ¥æł¹": 7109,
      "å¤©æŃ£å£¬åįĪ": 7110,
      "åĽŀå¸Ī": 7111,
      "ç»Ĩå·Ŀäº¬åħĨå®¶": 7112,
      "è¾īå¼ĺ": 7113,
      "éĢģåĩº": 7114,
      "åı¬è§ģ": 7115,
      "1507": 7116,
      "å¹´å¯Ħ": 7117,
      "åºĹ": 7118,
      "å¥´": 7119,
      "è¾»": 7120,
      "ä»»èģĮ": 7121,
      "ä¼łä¸º": 7122,
      "å®ĪæĬ¤å®¶": 7123,
      "èį»": 7124,
      "éģĹä½ĵ": 7125,
      "è¿Ļä¸ĢçĤ¹": 7126,
      "å¤©æŃ£åįģäºĶå¹´": 7127,
      "å®ĩåĸľå¤ļå®¶": 7128,
      "éĤ»åĽ½": 7129,
      "ä¸ĭéĹ´èµĸ": 7130,
      "ä¿¡è´µ": 7131,
      "ä¸ĬæĿĳ": 7132,
      "èĥŀ": 7133,
      "æĶ¿èĥľ": 7134,
      "ç¨Ģ": 7135,
      "åģļæ³ķ": 7136,
      "åĸĦæĪĺ": 7137,
      "å®ĩåĸľå¤ļæ°ı": 7138,
      "éĢ¼è¿«": 7139,
      "çĽĲåĨ¶": 7140,
      "è¿Ŀåıį": 7141,
      "å¾·å·ĿèģĶåĨĽ": 7142,
      "ä¸°èĩ£ç§Ģéķ¿": 7143,
      "èĪ°": 7144,
      "æ¶¨": 7145,
      "éģĤå°Ĩ": 7146,
      "æľĪäºĮåįģäºĮæĹ¥": 7147,
      "1524": 7148,
      "çº¯å¿ł": 7149,
      "çŁ¥è¡Įåľ°": 7150,
      "æľ¨æĽ¾ä¹īæĺĮ": 7151,
      "âĶĢ": 7152,
      "å¤§éĩİæ²»éķ¿": 7153,
      "ä¸Ģä¸ĩçŁ³": 7154,
      "ä¼Ļ": 7155,
      "ä¸įä¸ĭ": 7156,
      "å¥¸": 7157,
      "åİŁæľī": 7158,
      "æĥ¶": 7159,
      "èµ·ä¹ī": 7160,
      "éĢļæĬ¥": 7161,
      "æİ¥å¾ħ": 7162,
      "ç¼®": 7163,
      "æĺ¾çĦ¶": 7164,
      "ç»ĵåŁİç§Ģåº·": 7165,
      "æĢ¨æģ¨": 7166,
      "æľĭ": 7167,
      "æĺ¯ä»ĸ": 7168,
      "å¼¼": 7169,
      "éĩįè¿Ķ": 7170,
      "å°ıå²Ľ": 7171,
      "è¿Ľèĩ³": 7172,
      "ä¸ľä¸īæ²³": 7173,
      "ä¼łåħ¥": 7174,
      "å¹¿çº²": 7175,
      "è®©ä½į": 7176,
      "å¤±åĪ©": 7177,
      "çĽŁçº¦": 7178,
      "é¹Ī": 7179,
      "çķıæĥ§": 7180,
      "ä¹ĭä¸º": 7181,
      "ä¸ŃåĬ¡": 7182,
      "ä¸Ĭå±±": 7183,
      "äººåı£": 7184,
      "æ³¥": 7185,
      "æĮŁ": 7186,
      "ä¹Łä¼ļ": 7187,
      "165": 7188,
      "åħĪè¡Į": 7189,
      "åħ´æĪ¿": 7190,
      "å¯ĮãŃ´": 7191,
      "æİĮç®¡": 7192,
      "èµıè¯Ĩ": 7193,
      "åĦ¿çİīå°±": 7194,
      "ç°Ĺ": 7195,
      "èį¯å¸Īå¯º": 7196,
      "èĽİå´İ": 7197,
      "å¹´åı·": 7198,
      "æŃ¤ä¹ĥ": 7199,
      "ç§ĢåĲīåĨĽ": 7200,
      "æĹłåı¯": 7201,
      "çªģåĩº": 7202,
      "å¤§åĨħä¹īéķ¿": 7203,
      "ç´§å¼ł": 7204,
      "åĬŀæ³ķ": 7205,
      "äºĺçĲĨ": 7206,
      "æĹ¥å¤ľ": 7207,
      "åľ°ä¸ĭ": 7208,
      "èĩªå¹¼": 7209,
      "å§ī": 7210,
      "ç¥·": 7211,
      "å¤©æŃ£å¹´éĹ´": 7212,
      "è·¨": 7213,
      "åľŁå±ħ": 7214,
      "åĪ¶éĢł": 7215,
      "çķĻåŃĺ": 7216,
      "è´¤æ²»": 7217,
      "åĽĽåĽ½å¾ģä¼Ĳ": 7218,
      "çŁ¶éĩİ": 7219,
      "åµ": 7220,
      "æĪĺæ³ķ": 7221,
      "åĨĽåĬĽ": 7222,
      "äº²è¿ĳ": 7223,
      "æĿ¾åīį": 7224,
      "æ±Łé©¬": 7225,
      "å»¿": 7226,
      "çł¥": 7227,
      "æİ¥è§¦": 7228,
      "èĦĩ": 7229,
      "æķ´ä½ĵ": 7230,
      "åģļä¸º": 7231,
      "åįıåĬĽ": 7232,
      "åįĴå¹´": 7233,
      "æ¬§æ´²": 7234,
      "ä¸Ĭæĸ¹": 7235,
      "èĢĮæĪĲä¸º": 7236,
      "é«ĺå±ĭåŁİ": 7237,
      "åħ³å®¿": 7238,
      "èµĸå¿ł": 7239,
      "åħ«çĻ¾": 7240,
      "åįĹèĽ®": 7241,
      "å¤Ħä»¥": 7242,
      "äºīåıĸ": 7243,
      "å®Įå·¥": 7244,
      "ä¿®ç¼®": 7245,
      "åĭĩå°Ĩ": 7246,
      "åįĹéĥ¨æ°ı": 7247,
      "1526": 7248,
      "å¤§èĥľ": 7249,
      "åħ¶æ¯į": 7250,
      "ä»ĸä¹Ł": 7251,
      "æĽ¹": 7252,
      "å¸Ĥå·Ŀ": 7253,
      "æĹ©å°±": 7254,
      "åĲĦå¤Ħ": 7255,
      "åįĬèĹı": 7256,
      "ä¸ļæŃ£": 7257,
      "åİĭè¿«": 7258,
      "èĳ¬ç¤¼": 7259,
      "å²Ĳéĺľåİ¿": 7260,
      "å¸½åŃĲ": 7261,
      "ä¸Ģæ´¾": 7262,
      "ä¹ĭåĬĽ": 7263,
      "çĶ°è¾¹": 7264,
      "è´´": 7265,
      "å¹³æ°ĳ": 7266,
      "åĪĨå¸ĥ": 7267,
      "æĸ°åºĦ": 7268,
      "ä»ķå¥ī": 7269,
      "çĻ½å·Ŀ": 7270,
      "ç²ī": 7271,
      "èĳĹä½ľ": 7272,
      "æºĥè´¥": 7273,
      "æĺ¯å®īåľŁæ¡ĥå±±æĹ¶ä»£èĩ³æ±ŁæĪ·æĹ¶ä»£åĪĿæľŁ": 7274,
      "è§ĤéŁ³å¯ºåŁİ": 7275,
      "73": 7276,
      "åŁ¼": 7277,
      "ä¸Ģå¤ľ": 7278,
      "å¤§æĿĥ": 7279,
      "éķ¿æ°ı": 7280,
      "ç§Ł": 7281,
      "å±±èĹ©": 7282,
      "åĽłç´ł": 7283,
      "æºĲèµĸ": 7284,
      "åı£ä¹ĭæĪĺ": 7285,
      "çħ½": 7286,
      "éļ¶å±ŀäºİ": 7287,
      "å®īèĹ¤å®Īå°±": 7288,
      "åĬłæ²»çĶ°": 7289,
      "ä¸»ä»İåħ³ç³»": 7290,
      "é³": 7291,
      "åį¡": 7292,
      "ä¸Ģå¹¶": 7293,
      "ä¹ĭåŁİ": 7294,
      "æĹ¶ä»»": 7295,
      "å±±ä¸ĭ": 7296,
      "ä¸īåįĥäºº": 7297,
      "é«ĺä¿¡": 7298,
      "åĩ»æĿĢ": 7299,
      "å±±åŁİä¹ĭæĪĺ": 7300,
      "æĽ¾åŃĻ": 7301,
      "è¶³åĪ©ä¹īæĺİ": 7302,
      "æĪ¿æĢ»": 7303,
      "åı¤æ²³åŁİ": 7304,
      "åį·åħ¥": 7305,
      "å¸ĥéĺµäºİ": 7306,
      "éķ¿éĩİåİ¿": 7307,
      "éĻªèĩ£": 7308,
      "å²©æĿĳåŁİ": 7309,
      "æĹ¶åĪĨ": 7310,
      "çº½": 7311,
      "æ³Ħ": 7312,
      "åĮĹä¿¡": 7313,
      "çĪ·": 7314,
      "åħ¥åĹ£": 7315,
      "ä¼ĬäºĪ": 7316,
      "è¶ĬæĻº": 7317,
      "åħ«çİĭåŃĲ": 7318,
      "ä¸ĥåįģ": 7319,
      "åħ¨çĻ»": 7320,
      "æľªæľī": 7321,
      "æ·»": 7322,
      "æĶ¶ä¸º": 7323,
      "ä¸īå¥½ä¹ĭéķ¿": 7324,
      "è¿Ĳè¾ĵ": 7325,
      "é»ĳçĶ°å®¶": 7326,
      "å±Īæľį": 7327,
      "ä¾¦å¯Ł": 7328,
      "è¿Ļä¸¤": 7329,
      "åĮĹåĽ½": 7330,
      "ä¸ľä¾§": 7331,
      "çĶ±æĿ¥": 7332,
      "ç§°èµŀ": 7333,
      "èĢħä¸º": 7334,
      "æ¡ĵ": 7335,
      "ç½ķ": 7336,
      "äº¤ä»£": 7337,
      "åıªåī©ä¸ĭ": 7338,
      "æĺİæĻºåĨĽ": 7339,
      "1604": 7340,
      "å®ģå¯º": 7341,
      "æĤīæķ°": 7342,
      "åŁİäºķ": 7343,
      "å®Ĺæ»´": 7344,
      "éĩİçĶ°åŁİ": 7345,
      "è¦ģåľ°": 7346,
      "ä¸ľç¾İæµĵ": 7347,
      "æĹłæķ°": 7348,
      "1613": 7349,
      "æīĭæĮģ": 7350,
      "åİĨæĿ¥": 7351,
      "æ°ĳéĹ´": 7352,
      "æĳ©éĥ¡": 7353,
      "æ¤¿": 7354,
      "éģ¿éļ¾": 7355,
      "çŃ¿åİŁ": 7356,
      "èĥ¶çĿĢ": 7357,
      "åĲİä¸įä¹ħ": 7358,
      "ä¹īçº²": 7359,
      "ä¹īå¹¿": 7360,
      "æľĿçĿĢ": 7361,
      "æį·": 7362,
      "èµĸç»§": 7363,
      "æĹłåĹ£": 7364,
      "æģķ": 7365,
      "èµĦæł¼": 7366,
      "é£İæł¼": 7367,
      "çĭ¬çī¹": 7368,
      "ä¸´æµİ": 7369,
      "åħ±åĲĮæŀĦæĪĲ": 7370,
      "76": 7371,
      "89": 7372,
      "æŃ£èµĸ": 7373,
      "ãģ²": 7374,
      "ä½Ĩåį´": 7375,
      "æıŃ": 7376,
      "èĩ³æĪĺåĽ½æĹ¶ä»£": 7377,
      "è§ģçĬ¶": 7378,
      "çĽ¸äºĴ": 7379,
      "åĮĹæĿ¡çº²æĪĲ": 7380,
      "åħĪéĺµ": 7381,
      "è¿ŀé¾Ļ": 7382,
      "æĥħåĬ¿": 7383,
      "å»¶ä¼¸": 7384,
      "é©»æīİ": 7385,
      "éĿĴæľ¨": 7386,
      "å±±ä¸Ńå¹¸çĽĽ": 7387,
      "æĥ£é¢Ĩ": 7388,
      "36": 7389,
      "ä¸ºæł¹æį®åľ°": 7390,
      "å¤§éģĵ": 7391,
      "ä¸īä¹ĭä¸¸": 7392,
      "æľīæĹ¶": 7393,
      "æµ©": 7394,
      "åįģå¸Ĥ": 7395,
      "ç«ĸ": 7396,
      "åĲĮè¡Į": 7397,
      "æīĢè½½": 7398,
      "ä¸ĬæĿīè¾īèĻİ": 7399,
      "éĵº": 7400,
      "åı£åŁİ": 7401,
      "éĺ²åį«": 7402,
      "åĸľæ¬¢": 7403,
      "ä¿®å¤į": 7404,
      "åįķçĭ¬": 7405,
      "çĨĬéĩİ": 7406,
      "éŃĤ": 7407,
      "ä»£è®°": 7408,
      "å¹¶åĪĹ": 7409,
      "æ¬¡äºİ": 7410,
      "çŁ³äºķ": 7411,
      "ç»ĵå±Ģ": 7412,
      "çİĦä»¥": 7413,
      "éĵģçł²": 7414,
      "ç»Łæ²»æĿĥ": 7415,
      "ä¸ŃæĿĳä¸Ģ": 7416,
      "å§Ĳå§Ĳ": 7417,
      "çĶµå½±": 7418,
      "æ¬¾å¾ħ": 7419,
      "çīĩæ¡Ĳä¸Ķåħĥ": 7420,
      "å®ı": 7421,
      "æľīæķĪ": 7422,
      "èĩ£ä»İ": 7423,
      "è¿Ļæīį": 7424,
      "ä¸°å²Ľ": 7425,
      "èµ·äºĭ": 7426,
      "1620": 7427,
      "çģ¯": 7428,
      "æĪĲä¸ºåħ¶": 7429,
      "ä¿Ŀä½ı": 7430,
      "æİ¥ç®¡": 7431,
      "æĮĩå¯¼": 7432,
      "èĤĸ": 7433,
      "éĩĳæ³½": 7434,
      "åħ±æľī": 7435,
      "é¾Łäºķ": 7436,
      "å¿Ĺéģĵ": 7437,
      "å¿ħçĦ¶": 7438,
      "æĸĩä¹¦ä¸Ń": 7439,
      "ç½ĳç»ľ": 7440,
      "ç©¿çĿĢ": 7441,
      "åĮĹä¼ĬåĬ¿": 7442,
      "å½ĵä½ľ": 7443,
      "çĽ¸ä¼¼": 7444,
      "è¿ĺè¦ģ": 7445,
      "çĶ²èĥĦ": 7446,
      "å¤©æĸĩå¹´éĹ´": 7447,
      "åĵ¨": 7448,
      "åĭĥ": 7449,
      "åĲĦå¤§åĲį": 7450,
      "çŃīäººä¸ĢåĲĮ": 7451,
      "è¶ĬåĲİå®ĪæĬ¤": 7452,
      "åħ·å¤ĩ": 7453,
      "å®ĺä½įä¸º": 7454,
      "ä¸īæĸ¹åİŁä¹ĭæĪĺ": 7455,
      "æİ©æĬ¤": 7456,
      "èŁ¹": 7457,
      "ä¸ĢæŁ³": 7458,
      "åĽ½è¡Ļ": 7459,
      "çŃīä¸ĢåĲĮ": 7460,
      "çī²": 7461,
      "æ¯ĽåĪ©æ°´åĨĽ": 7462,
      "åıĹèµĲ": 7463,
      "æķĮåħµ": 7464,
      "èģĶåĲį": 7465,
      "é¾Ļçİĭä¸¸": 7466,
      "å®ĩå¤ļ": 7467,
      "æĥ³æ³ķ": 7468,
      "ä½Ĳç«¹å®¶": 7469,
      "æĲ¬": 7470,
      "é¥Ńå°¾": 7471,
      "1493": 7472,
      "æĿ¿åŀ£ä¿¡æĸ¹": 7473,
      "å¤§çł´": 7474,
      "è´«": 7475,
      "å°ıæłĹ": 7476,
      "åı¯æĥľ": 7477,
      "çĽ¸åĽ½å¯º": 7478,
      "åıĪå°Ĩ": 7479,
      "æºĲèĩª": 7480,
      "æĢ»åħµåĬĽ": 7481,
      "æµħäºķåĨĽ": 7482,
      "éķ¿å®ĹæĪĳéĥ¨çĽĽäº²": 7483,
      "éĿłè¿ĳ": 7484,
      "éļıåĨĽåıĤåĬł": 7485,
      "æııè¿°": 7486,
      "ç®ķè½®åŁİ": 7487,
      "æŃ§": 7488,
      "ä¸ĢæĬĬ": 7489,
      "ä¹ĭä¸¾": 7490,
      "éĥĬ": 7491,
      "è¡Įäºĭ": 7492,
      "ä¸ľæµ·": 7493,
      "éĢļåŃĹ": 7494,
      "å¤ĸéĥ¨": 7495,
      "äº¤çķĮ": 7496,
      "å¼ºè°ĥ": 7497,
      "æĬĹæĪĺ": 7498,
      "å§Ĭå°ıè·¯": 7499,
      "ç¾İä½ľåĽ½": 7500,
      "çŃĳç´«å¹¿éĹ¨": 7501,
      "å°ıè±ĨåĿĤ": 7502,
      "åĽļ": 7503,
      "å®¶å¿ł": 7504,
      "ä¹ĭè·¯": 7505,
      "éķ¿å¤§": 7506,
      "æĹ¥æĿ¡": 7507,
      "æ³ķä»¤": 7508,
      "ä¼łç»Ļ": 7509,
      "æīĭåıĸ": 7510,
      "å¤ªåİŁ": 7511,
      "ç»Ĩå·ĿæĮģ": 7512,
      "æĭħä»»åħĪéĶĭ": 7513,
      "åłĤåħĦå¼Ł": 7514,
      "çľŁçĶ°ä¸¸": 7515,
      "ç§»å¾Ģ": 7516,
      "éĨĴ": 7517,
      "åĤ²": 7518,
      "è¡¥ä»»": 7519,
      "æİªæĸ½": 7520,
      "çħ½åĬ¨": 7521,
      "45": 7522,
      "åĲ´": 7523,
      "ä¹ĭåħµ": 7524,
      "æĹ¥å¸¸": 7525,
      "åħĥç§Ģ": 7526,
      "æĪĲå¹´": 7527,
      "èĢĮæĪĲ": 7528,
      "åĿŁ": 7529,
      "å»Ĭ": 7530,
      "æ¯ĽåĪ©èĥľæ°¸": 7531,
      "æŁĶ": 7532,
      "ç§įåŃĲ": 7533,
      "éĺ¿å¸Ĥ": 7534,
      "åĬłåħ¥ä¸ľåĨĽ": 7535,
      "400": 7536,
      "å¤§æ±Ł": 7537,
      "éķ¿èī¯": 7538,
      "ä¸ĬåİŁ": 7539,
      "å±±æ°ı": 7540,
      "èĢĮåĩº": 7541,
      "åĮĹä¼Ĺ": 7542,
      "éĥ½ä¼ļ": 7543,
      "è¥¿å°¾": 7544,
      "æĬ¥å¤į": 7545,
      "ç¯ĩ": 7546,
      "èĭ¥çĭŃåĽ½": 7547,
      "å¼Ĥæ¯įå¼Ł": 7548,
      "èĮ¶èĮ¶ä¸¸": 7549,
      "æĺ¯æ´»è·ĥäºİæĪĺåĽ½æĹ¶ä»£èĩ³å®īåľŁæ¡ĥå±±æĹ¶ä»£": 7550,
      "«èĤ¥": 7551,
      "ä¸ºæķĮ": 7552,
      "æĪĺçģ«": 7553,
      "ä¸Ńä¸ĸçºª": 7554,
      "ä¸įå¤ļ": 7555,
      "å¤©èįī": 7556,
      "å°ıæŀĹ": 7557,
      "æŃ¦çĶ°ä¹īä¿¡": 7558,
      "æĺİå¯º": 7559,
      "å®ŀä¹ħ": 7560,
      "å¦ĤåĲĮ": 7561,
      "æīĭèħķ": 7562,
      "äº¤æµģ": 7563,
      "éĢĢä½į": 7564,
      "ä¿Ŀæľī": 7565,
      "çĶ·åŃĲ": 7566,
      "è¯¥åĽ½": 7567,
      "è¶Ĭåīįå®Ī": 7568,
      "æŀĹå¯º": 7569,
      "ç§Ģå°±": 7570,
      "ç§Ģè´ŀ": 7571,
      "ä»ĸäºº": 7572,
      "åĪĨæķ£": 7573,
      "è¥¿åĮĹ": 7574,
      "è¶³åĪ©å®¶": 7575,
      "æĸ°åŁİ": 7576,
      "è®¾ä¹Ĳ": 7577,
      "ä¾įå¥³": 7578,
      "åįķä½į": 7579,
      "æŃ£å®¤ä¸º": 7580,
      "ä¿ĥä½¿": 7581,
      "ä¸Ģä¹ĺè°·": 7582,
      "å°ıç¬łåİŁéķ¿æĹ¶": 7583,
      "åĲīçĶ°åŁİ": 7584,
      "åĨħçĶ°": 7585,
      "ä»ĸå¯¹": 7586,
      "é«ĺåı°": 7587,
      "å¾ĹåĲį": 7588,
      "æĦļ": 7589,
      "åĪĨå°ģ": 7590,
      "åĪĻæľī": 7591,
      "ä¸ĥçĻ¾": 7592,
      "ä¾¿å°Ĩ": 7593,
      "æµģè¡Į": 7594,
      "æľįåĬ¡": 7595,
      "é©°æı´": 7596,
      "å¤ªçĶ°èµĦæŃ£": 7597,
      "åĲĬ": 7598,
      "ä¼Ł": 7599,
      "ä¹īä»²": 7600,
      "ä¸įåĩº": 7601,
      "æĶ¿å®¶": 7602,
      "æ³Ĭ": 7603,
      "æ¯ħ": 7604,
      "æ¯ĽåĪ©ç§Ģåħĥ": 7605,
      "å¿ĥå¯º": 7606,
      "èĤĨ": 7607,
      "å±ĭå½¢": 7608,
      "éĩĳæ£®éķ¿": 7609,
      "éĻ¶åĨĽ": 7610,
      "æĿĳä¸Ĭæ°´åĨĽ": 7611,
      "èľĤå±ĭ": 7612,
      "èİ²å¦Ĥ": 7613,
      "æ¤İåĲįåº·èĥ¤": 7614,
      "å±±æ¢¨åİ¿": 7615,
      "éķ¿åº·": 7616,
      "ä»İäºĭ": 7617,
      "ä¼Ĭè¾¾åĨĽ": 7618,
      "ä»ģæľ¨": 7619,
      "è°±ç³»": 7620,
      "ä¹ĥç¾İ": 7621,
      "æħ¨": 7622,
      "æ¸¸æĪı": 7623,
      "é¾ĻéĢłå¯ºåĨĽ": 7624,
      "åĲįåı¤å±ĭåŁİ": 7625,
      "æ²³éĩİéĢļ": 7626,
      "ãģ£ãģŁ": 7627,
      "å¤§å¤§": 7628,
      "éķ¿åĿĤ": 7629,
      "åĪ°åºķ": 7630,
      "åħ¥ä¸»": 7631,
      "å¹³æĪ·": 7632,
      "è®°ä½ľ": 7633,
      "ä¾įå¤§å°Ĩ": 7634,
      "æĿ¿ä»ĵ": 7635,
      "æĻ®éĢļ": 7636,
      "çĬ¬å±±åŁİ": 7637,
      "åĲŀå¹¶": 7638,
      "æĸ°å®«åħļ": 7639,
      "æĪĺæĹ¶": 7640,
      "æľīæĦı": 7641,
      "è°Ĭ": 7642,
      "å¿łéĩį": 7643,
      "å®ļæŃ£": 7644,
      "ä»ĬåĲİ": 7645,
      "ä¸¤èĢħ": 7646,
      "æ¸ħéķ¿": 7647,
      "ä¼ļè§ģ": 7648,
      "åĽŀå¤į": 7649,
      "å®ĺèĩ³": 7650,
      "åĶ¤": 7651,
      "å°ıæĹ©å·Ŀæ°ı": 7652,
      "åĲīå·Ŀæ°ı": 7653,
      "çĶ³è¯·": 7654,
      "ä¼ĬéĽĨéĻ¢å¿ł": 7655,
      "49": 7656,
      "éĩįä¿¡": 7657,
      "äºĮä¿£åŁİ": 7658,
      "ä½Ĩä¹Ł": 7659,
      "æīĢèĩ´": 7660,
      "çĪ¶ä¸º": 7661,
      "å²Ľæ´¥è´µä¹ħ": 7662,
      "æķ°å¹´": 7663,
      "ç²Ĺ": 7664,
      "ä¹ĺæľº": 7665,
      "æĪ·æ¬¡éī´è¿ŀ": 7666,
      "åĨ·æ³ī": 7667,
      "ç§»å°ģèĩ³": 7668,
      "æī°ä¹±": 7669,
      "å¤§åŀ£åŁİ": 7670,
      "71": 7671,
      "å®Ľ": 7672,
      "æŃ¦åį«": 7673,
      "åľ°ä¾į": 7674,
      "åīįæĸ¹": 7675,
      "ãģ¸": 7676,
      "ä¹Łéĥ½": 7677,
      "æŀĲ": 7678,
      "çīŁ": 7679,
      "é©¬åĮ¹": 7680,
      "çķĻæľī": 7681,
      "èĩ´ä¿¡": 7682,
      "æ·±æĦŁ": 7683,
      "ç«ĭèĬ±åĨĽ": 7684,
      "æ²¼åŁİ": 7685,
      "æ´¾éģ£ä½¿èĢħ": 7686,
      "éģĩå®³": 7687,
      "è¹Ħ": 7688,
      "æģ³è¯·": 7689,
      "èĢĮéĹ»åĲį": 7690,
      "èĩªè¡Į": 7691,
      "è¿Ļä¹Łæĺ¯": 7692,
      "è¿Ľå±ķ": 7693,
      "äºĭåıĺ": 7694,
      "ä¸¤è·¯": 7695,
      "æĸ°ä»»": 7696,
      "å¸Ĥåľº": 7697,
      "åıĤèĢĥ": 7698,
      "æµģéĢļ": 7699,
      "éŁ³ä¹Ĳ": 7700,
      "é¥°æ¼Ķ": 7701,
      "ä¹³æ¯į": 7702,
      "åĲİåįĬ": 7703,
      "ç§¦": 7704,
      "äººæ°ĳ": 7705,
      "æŃ¦èĹ¤": 7706,
      "æŃ¤åĪ»": 7707,
      "ãģļ": 7708,
      "ç»ıå®¶": 7709,
      "æĹ¥æľ¬æµ·": 7710,
      "æĶ¶åħ»": 7711,
      "ç¦ıäºķ": 7712,
      "ç»Łä¸ĢæĹ¥æľ¬": 7713,
      "æĲºå¸¦": 7714,
      "ç©´å±±ä¿¡åĲĽ": 7715,
      "é«ĺå±±åı³è¿ĳ": 7716,
      "æĩĪ": 7717,
      "å°ĺ": 7718,
      "ä¹ĭç§°": 7719,
      "ä¸»æ°´": 7720,
      "è¶³åĪ©æĶ¿çŁ¥": 7721,
      "æİ¥æĽ¿": 7722,
      "æĥħå½¢": 7723,
      "éķĩä¹ħ": 7724,
      "çĥ¦": 7725,
      "æİ¨èįĲ": 7726,
      "è´¨çĸĳ": 7727,
      "ç¤¼ä»ª": 7728,
      "éķ¿å®ĹæĪĳéĥ¨åĨĽ": 7729,
      "çľ¼è§ģ": 7730,
      "ä½Ĳç«¹ä¹īå®£": 7731,
      "åĿªåĨħ": 7732,
      "ç¼´çº³": 7733,
      "42": 7734,
      "ºçī²": 7735,
      "åŁ¹": 7736,
      "æĶ¿ç¹ģ": 7737,
      "ä»£ä¹ĭ": 7738,
      "æľ¬åľ°": 7739,
      "ä»ĸä½ľä¸º": 7740,
      "äº²æĪļ": 7741,
      "å½ĵå¤©": 7742,
      "çīºçī²": 7743,
      "äºĶäºº": 7744,
      "åĢº": 7745,
      "å¤§åıĭäº²": 7746,
      "åĲĮæĹ¶ä¹Ł": 7747,
      "é¾Łå±±": 7748,
      "é¥«èĤ¥": 7749,
      "èĮ¶äºº": 7750,
      "åħ¶åŃĲåŃĻ": 7751,
      "åĬĿè°ı": 7752,
      "åı¯ä»¥è¯´": 7753,
      "ç»´æĬ¤": 7754,
      "å¥Ķèµ°": 7755,
      "ä¸¹ç¾½éķ¿éĩį": 7756,
      "åĪĳéĥ¨": 7757,
      "å·®å¼Ĥ": 7758,
      "å®ģå®ģ": 7759,
      "åĮĹä¹ĭåºĦ": 7760,
      "éĩĳæ£®éķ¿è¿ĳ": 7761,
      "700": 7762,
      "åĽ½æ¸ħ": 7763,
      "é¢ĨåĨĽ": 7764,
      "å®Ĺä¸¥": 7765,
      "æŃ»åīį": 7766,
      "åĿł": 7767,
      "1623": 7768,
      "æīĵå¾Ĺ": 7769,
      "åºĨéķ¿ä¸īå¹´": 7770,
      "å¤´äºº": 7771,
      "å¼ºæĶ»": 7772,
      "ä¾§éĿ¢": 7773,
      "åĶ±": 7774,
      "é»ĳçĶ°å®ĺåħµåį«": 7775,
      "åĿļåĨ³": 7776,
      "åĨĻä½ľ": 7777,
      "åĤħ": 7778,
      "å¤ĩä¸Ńå®Ī": 7779,
      "å¿Ĺè´ºäº²": 7780,
      "ä¹Įå¸½åŃĲ": 7781,
      "æ¦ĬåİŁåº·æĶ¿": 7782,
      "å¤ŃæĬĺ": 7783,
      "çŀ¬éĹ´": 7784,
      "åıł": 7785,
      "ä¸Ģæīĭ": 7786,
      "ä»¥å¾Ģ": 7787,
      "æŃ¦åĲī": 7788,
      "åİŁåĪĻ": 7789,
      "å¤Ħç½ļ": 7790,
      "è¶³åĪ©ä¹īæķĻ": 7791,
      "èī¯å¥½": 7792,
      "æīĵçł´": 7793,
      "è®¨çģŃ": 7794,
      "æ·±å¾Ĺ": 7795,
      "è½»æĺĵ": 7796,
      "åĢŁåĬ©": 7797,
      "æŃ¦å®¶æĶ¿æĿĥ": 7798,
      "ç«¥åŃĲ": 7799,
      "éĤ£é¡»æ°ı": 7800,
      "å¾¡åĨħä¹¦": 7801,
      "äºŃ": 7802,
      "åĲİä¹ĭ": 7803,
      "å¤§æ£®": 7804,
      "å¹¶æĭħä»»": 7805,
      "äºĭæĢģ": 7806,
      "åĬłæ·±": 7807,
      "ä¸īæ²³ä¸ĢåĲĳä¸ĢæıĨ": 7808,
      "æŁ´çĶ°èĥľ": 7809,
      "æľ¬å¤ļå¿ł": 7810,
      "åĨ¬åº·": 7811,
      "è°±ä»£éĩįèĩ£": 7812,
      "çĶ°æĿĳæ°ı": 7813,
      "è¿ĤåĽŀ": 7814,
      "78": 7815,
      "ä¸Ģç»Ł": 7816,
      "ä¸ĢæĹ¶éĹ´": 7817,
      "æĹ¥åħī": 7818,
      "å¤©æ»¡": 7819,
      "æ¬º": 7820,
      "å°ıè§Ħæ¨¡": 7821,
      "è¿ĩä¸ĸ": 7822,
      "ä¼łåĪ°": 7823,
      "éĻ¢æĶ¿": 7824,
      "çĽ®ä»ĺ": 7825,
      "çĽĳæĬ¤äºº": 7826,
      "åĪĬ": 7827,
      "å¤§äºĭ": 7828,
      "ä¿¡ä¸Ń": 7829,
      "åĲĮæĹ¶ä»£": 7830,
      "åĲĮä¸Ģäºº": 7831,
      "ç»ĩçĶ°å®¶èĩ£": 7832,
      "å®īä¸Ń": 7833,
      "æĪ·åŁİ": 7834,
      "åĽŀåºĶ": 7835,
      "æĽ¾æĪĳ": 7836,
      "éī´çĲĨ": 7837,
      "æ³īå®Ī": 7838,
      "è¾ħåĬ©": 7839,
      "å±±åĨħå®¶": 7840,
      "ä¸īæµ¦æ°ı": 7841,
      "ä¸īåĽ½åĲĮçĽŁ": 7842,
      "åįģä¸īå²ģ": 7843,
      "èıħæ²¼å®ļ": 7844,
      "å®¾": 7845,
      "æĹ¥èĩ³": 7846,
      "åīįéĿ¢": 7847,
      "è¡Įå¹¸": 7848,
      "å°±æľī": 7849,
      "åĿĽ": 7850,
      "åĽĽåĳ¨": 7851,
      "åħ«åįģ": 7852,
      "è¶³åĪ©çĽ´ä¹ī": 7853,
      "æĽ¾ä¸º": 7854,
      "åİĭåĢĴ": 7855,
      "å¿ħå®ļ": 7856,
      "å¼Ĥå¸¸": 7857,
      "æķĪæŀľ": 7858,
      "å°ıå±±æ°ı": 7859,
      "çŃĳåĲİåĽ½": 7860,
      "çĥŃçĶ°": 7861,
      "åħľ": 7862,
      "ä¸ĢæĿ¥": 7863,
      "ä¸Ģéĥ¨": 7864,
      "ä¸Ģå°ģ": 7865,
      "å±¯": 7866,
      "ä¿¡è´ŀ": 7867,
      "ä¿¡æĺ¥": 7868,
      "1520": 7869,
      "æĶ¿äº²": 7870,
      "åīįä¸Ģå¹´": 7871,
      "åĽłçĹħ": 7872,
      "å®ŀåĪĻ": 7873,
      "æīĭéĩĮ": 7874,
      "åħ¨å¢ĥ": 7875,
      "äº¬éĥ½æīĢåı¸ä»£": 7876,
      "è¿ĲçĶ¨": 7877,
      "è¿ĻäºĽäºº": 7878,
      "è¯ģæį®": 7879,
      "è¾ĥä¸º": 7880,
      "ç¦ħç§Ģ": 7881,
      "èŃ¦æĪĴ": 7882,
      "72": 7883,
      "çĴ": 7884,
      "æĺı": 7885,
      "çİĸ": 7886,
      "åİŁå±ŀ": 7887,
      "ä¸ľéĿ¢": 7888,
      "åĽĽåįĥ": 7889,
      "éĥ¡å±±": 7890,
      "å°¼å´İ": 7891,
      "é¸Ń": 7892,
      "å¥īè¡Įä¼Ĺ": 7893,
      "å©Ĩ": 7894,
      "åĺ±": 7895,
      "åĤ»": 7896,
      "åľŁå²Ĳèµĸèīº": 7897,
      "è´§å¸ģ": 7898,
      "é¥Ńå¯ĮèĻİæĺĮ": 7899,
      "ä¸ĬåįĪ": 7900,
      "æľīå¤ļ": 7901,
      "å¦Ħ": 7902,
      "å¤ļæľī": 7903,
      "ç»ıéªĮ": 7904,
      "ä»Ĭå¤©": 7905,
      "å¹ķåĲİ": 7906,
      "ç¬¬ä¸Ģä¸ª": 7907,
      "æĸ°éĺ´æµģ": 7908,
      "è¶³åĪ©ä¹īå°ļ": 7909,
      "é¾Ļå¯º": 7910,
      "æ°ĳéĥ¨": 7911,
      "å¢ŀæĹ¶": 7912,
      "åĳĺæĺĮ": 7913,
      "ä¸¥æł¼": 7914,
      "å¯Ĩè°ĭ": 7915,
      "éĻ¶æ°ı": 7916,
      "æĤ£çĹħ": 7917,
      "èĢĥèĻĳåĪ°": 7918,
      "éĤ£åı¤éĩİåŁİ": 7919,
      "ç½ķè§ģ": 7920,
      "33": 7921,
      "åįĳ": 7922,
      "ä¸ºå¤§å°Ĩ": 7923,
      "ä¹ĭä¸»": 7924,
      "å¤§æī¹": 7925,
      "è¯ĳ": 7926,
      "åħ¶é¢Ĩåľ°": 7927,
      "çº¶": 7928,
      "åħŃåįĥ": 7929,
      "ä¼łæİĪ": 7930,
      "ç»Łå¹¸": 7931,
      "æµ·å²¸": 7932,
      "ç§įç§į": 7933,
      "åı³å¤§èĩ£": 7934,
      "å°ģå»º": 7935,
      "èĩ´ä½¿": 7936,
      "å¸ĥæŃ¦": 7937,
      "ç¤¼å®ī": 7938,
      "ç²¾åħµ": 7939,
      "å¤©æĸĩåįģå¹´": 7940,
      "éķ¿ç¯łåŁİ": 7941,
      "åĨĽè®°çī©": 7942,
      "æ¬¢è¿İ": 7943,
      "æł¹æĿ¥å¯º": 7944,
      "å¤§æ´¥åŁİ": 7945,
      "éķ¿åı¯": 7946,
      "ä»¥ç¤º": 7947,
      "æŃ£éĩį": 7948,
      "ä¸»åŁİ": 7949,
      "æ¬¡å¥³": 7950,
      "èĥľæŃ£": 7951,
      "åĽĽéĿ¢": 7952,
      "ä»ĬçĪ±çŁ¥åİ¿": 7953,
      "è¥¿è¿Ľ": 7954,
      "åĲĪè®®": 7955,
      "åį´æľª": 7956,
      "èĹ©æĶ¿": 7957,
      "çĮľ": 7958,
      "ä¸īå¥½åº·éķ¿": 7959,
      "å²©æ§»": 7960,
      "ä¸Ģä¸ªæľĪ": 7961,
      "å¼ķè¯±": 7962,
      "1529": 7963,
      "æĵ¢": 7964,
      "èĢĥè¯ģ": 7965,
      "ä¼Ĭè±Ĩå®Ī": 7966,
      "å§Ĳå¦¹": 7967,
      "è·ĳåĪ°": 7968,
      "ç¥Īç¥·": 7969,
      "å®ŀè´¨ä¸Ĭ": 7970,
      "éĩľå±±": 7971,
      "65": 7972,
      "éĩįæķ´": 7973,
      "åħµå£«": 7974,
      "è¡ĮåĪĹ": 7975,
      "æīĢå±ŀ": 7976,
      "äºķçĶ°": 7977,
      "ä¸¤åŁİ": 7978,
      "åįĹéĿ¢": 7979,
      "å¤ªåĲĪ": 7980,
      "åĵŃ": 7981,
      "æ£ļ": 7982,
      "ä¼Ĭè¾¾æĻ´å®Ĺ": 7983,
      "ç¯¡": 7984,
      "åĩıå°ĳ": 7985,
      "å§Ķæīĺ": 7986,
      "åĪĨè£Ĥä¸º": 7987,
      "ä¹ĿæĪ·æĶ¿å®ŀ": 7988,
      "åĲīåŁİ": 7989,
      "å¯¹éĺµ": 7990,
      "å¯¹å²¸": 7991,
      "æłĥ": 7992,
      "æĶ¯ä¸¹": 7993,
      "åĬŁåĭĭ": 7994,
      "éĶĢ": 7995,
      "åĮĹæĿ¡æ°ıçħ§": 7996,
      "åı¤æĸĩä¹¦": 7997,
      "æ¼Ĥ": 7998,
      "èĮĥç¤¼å®ī": 7999,
      "800": 8000,
      "ä¹īåº·": 8001,
      "æľīä¹Ĳ": 8002,
      "æľ¬èĲ¥": 8003,
      "å¿łåħĥ": 8004,
      "æ²»å®ī": 8005,
      "èº«ä½ĵ": 8006,
      "ä¸¤æĸ¹": 8007,
      "æĬ¤åŁİ": 8008,
      "åĪĻä¸º": 8009,
      "æĪ·å·Ŀ": 8010,
      "éļĨéĩį": 8011,
      "å¾¡æĸĻ": 8012,
      "è¿Ľåħ¥äº¬éĥ½": 8013,
      "åĽ½äººä¸ĢæıĨ": 8014,
      "éĢģèĩ³": 8015,
      "æķ´é¡¿": 8016,
      "åĸĦåħīå¯º": 8017,
      "åĲĮçĽŁåħ³ç³»": 8018,
      "å°ĦæĿĢ": 8019,
      "å¿įåŁİ": 8020,
      "è£ħé¥°": 8021,
      "åħ¶çĪ¶ä¸º": 8022,
      "è¡¨çİ°æ´»è·ĥ": 8023,
      "æłĭæ¢ģ": 8024,
      "ç¬¬åĽĽæ¬¡å·Ŀä¸Ńå²Ľ": 8025,
      "æ²³å°»ç§ĢéļĨ": 8026,
      "Ġäºº": 8027,
      "åĽ½å¢ĥ": 8028,
      "ä¸ĬåŁİ": 8029,
      "å±±åĨĪ": 8030,
      "ä¸įç¨³": 8031,
      "ä¸ĭåįĪ": 8032,
      "æĶ¿ç»ı": 8033,
      "èĩªç«ĭ": 8034,
      "åİŁåĲį": 8035,
      "1619": 8036,
      "åħ«å·ŀ": 8037,
      "çļĩæĹı": 8038,
      "å²©æĿ¾": 8039,
      "èµ¤å·Ŀ": 8040,
      "åŃ¦å®¶": 8041,
      "æ¾³": 8042,
      "åŁ¼çİī": 8043,
      "ä¸ºåĥ§": 8044,
      "ä¸Ģå¼Ģå§ĭ": 8045,
      "åĲİéĢĢ": 8046,
      "å¤§å®ģå¯º": 8047,
      "åĪ©æł¹": 8048,
      "ä¿Ŀç§ĳ": 8049,
      "çĭĹ": 8050,
      "è½¬åıĺ": 8051,
      "åı¯èĥ½æĢ§": 8052,
      "ä½Ĳç«¹ä¹īæĺŃ": 8053,
      "å®Ŀæ»¡": 8054,
      "æĭĽåĭŁ": 8055,
      "ç´§å¯Ĩ": 8056,
      "åħ¸åŀĭ": 8057,
      "å±ıéļľ": 8058,
      "æłħæłı": 8059,
      "æ¡ĵæŃ¦": 8060,
      "ä¹ŀ": 8061,
      "ä»Ĩ": 8062,
      "æĪĺåĬĽ": 8063,
      "ä¹īéī´": 8064,
      "æľ¬åºĶ": 8065,
      "æĸ¹æ³ķ": 8066,
      "åĨħå¤§èĩ£": 8067,
      "å¯¹æĪĺ": 8068,
      "æĥ«": 8069,
      "ä½įä¸Ĭ": 8070,
      "æł¹åŁº": 8071,
      "è£ķ": 8072,
      "æĺ¾å®¶": 8073,
      "éģĹåŃ¤": 8074,
      "èıľ": 8075,
      "è¯¹è®¿æ°ı": 8076,
      "è¡Ģç»Ł": 8077,
      "äºĶçĻ¾äºº": 8078,
      "å®ĩä½Ĳç¾İ": 8079,
      "ä¸ľçħ§å®«": 8080,
      "çĶ°åĮĹ": 8081,
      "åŁİéĻ·": 8082,
      "å¤§é«ĺåŁİ": 8083,
      "æīŃ": 8084,
      "éĢ®": 8085,
      "ä¸īå¥īè¡Į": 8086,
      "åĩºä¼Ĺ": 8087,
      "çŃĭ": 8088,
      "åĲĮåĲį": 8089,
      "å¹³åŁİ": 8090,
      "å§ĳ": 8091,
      "çĽ¸ä¿¡": 8092,
      "éĽĩ": 8093,
      "åıįä¿¡éķ¿": 8094,
      "åį´ä¸į": 8095,
      "åı²å®ŀ": 8096,
      "è¶³åĪ©ä¹īæ¾Ħ": 8097,
      "æĹ§ä¸»": 8098,
      "é¥±": 8099,
      "ç¾İæµĵä¸īäººä¼Ĺ": 8100,
      "éĺ³æĪĲ": 8101,
      "ä¸ĢæĿ¡æ°ı": 8102,
      "è¸¯": 8103,
      "æ²Ļåĭ¿": 8104,
      "çĸ²æĥ«": 8105,
      "æ²Ļåĭ¿çķ¥": 8106,
      "æĹ¥èİ²": 8107,
      "æŃ¦æĸŃ": 8108,
      "æĪĳæĸ¹": 8109,
      "æ²¡æĥ³åĪ°": 8110,
      "å·¦ç¿¼": 8111,
      "æĿ¾å¹³åº·": 8112,
      "ä»ĺåŁİ": 8113,
      "éĻ·åħ¥æ··ä¹±": 8114,
      "äº¬æŀģå®¶": 8115,
      "åºĶè¯¥æĺ¯": 8116,
      "èľĤé¡»è´ºæŃ£èĥľ": 8117,
      "èĬ¦åĲįçĽĽæ°ı": 8118,
      "åĩĮæĻ¨": 8119,
      "è¸¯èº": 8120,
      "32": 8121,
      "å¹´å°ĳ": 8122,
      "ä¸ºå±ħåŁİ": 8123,
      "ä¸Ģåı¥": 8124,
      "æĺ¯ä¸į": 8125,
      "ä¹īæĿĳ": 8126,
      "ä¸īæ³ķå¸Ī": 8127,
      "ãģĽ": 8128,
      "é«ĺæ§»": 8129,
      "çĽ´æŃ£": 8130,
      "è½°": 8131,
      "ç¬¬ä¸ĥ": 8132,
      "æģ¼": 8133,
      "èĪĨ": 8134,
      "çľŁå£ģ": 8135,
      "å®ĺåĳĺ": 8136,
      "éķĩæĪ¿": 8137,
      "é¾Łå±±åŁİ": 8138,
      "1608": 8139,
      "æķĳåĩº": 8140,
      "åĪļåĪļ": 8141,
      "è¿ĳåį«åīį": 8142,
      "åĲ¸å¼ķ": 8143,
      "éĴµå½¢": 8144,
      "81": 8145,
      "åĲİç»Ń": 8146,
      "å¤§åĬ¿": 8147,
      "å¼Ħ": 8148,
      "åĮĨ": 8149,
      "åĲīåĪ©": 8150,
      "èĩªåı¤": 8151,
      "åıĳæİĺ": 8152,
      "åħīéĻ¢": 8153,
      "æīĵå¼Ģ": 8154,
      "åħ¼è§ģ": 8155,
      "ä¸īæ²³çī©è¯Ń": 8156,
      "ä¹Ŀå·ŀæİ¢é¢ĺ": 8157,
      "å®ªå®ŀ": 8158,
      "åĨ²åĩ»": 8159,
      "æ¬¡åŃĲåĩºçĶŁ": 8160,
      "è¯¹è®¿èµĸéĩį": 8161,
      "è¡°å¼±": 8162,
      "1506": 8163,
      "æļ´åĬ¨": 8164,
      "çĽ¸ä¼łä¸º": 8165,
      "æī¬åĮĹä¼Ĺ": 8166,
      "å¸ĿåĽ½": 8167,
      "åłĢå°¾åĲīæĻ´": 8168,
      "åĭīå¼º": 8169,
      "è®½": 8170,
      "æŃ¤ç±»": 8171,
      "å¯ºåºĻ": 8172,
      "çĿ¹": 8173,
      "å¹³æ¬¡": 8174,
      "åĬłåī§": 8175,
      "èµĸèīº": 8176,
      "1622": 8177,
      "è·µ": 8178,
      "åıĪä»¥": 8179,
      "å£«æĹı": 8180,
      "ç¥ŀçĪ¶": 8181,
      "èĻ½æľī": 8182,
      "çªģåĽ´": 8183,
      "1525": 8184,
      "æĮĩæĮ¥å®ĺ": 8185,
      "åĪĩèħ¹èĩªå°½": 8186,
      "åĨĪå´İå¸Ĥ": 8187,
      "ä¸Ģèī²ä¹ī": 8188,
      "è¦ĨçģŃ": 8189,
      "at": 8190,
      "è¿Ń": 8191,
      "ä¸Ńæī®æ¼Ķ": 8192,
      "æŃ£çº²": 8193,
      "åĴı": 8194,
      "æ¸Ĺ": 8195,
      "éĹ¨ä¸ĭ": 8196,
      "åĪĨä¹ĭä¸Ģ": 8197,
      "äº¦æĽ¾": 8198,
      "èĹ©èĹ©ä¸»": 8199,
      "å¯Įå±±åŁİ": 8200,
      "å¼ķåħ¥": 8201,
      "æĦŁè°¢": 8202,
      "æĳĦå®¶": 8203,
      "æĺİæ²»æĹ¶ä»£": 8204,
      "ä¸ĬæĿīå®ªå®ŀ": 8205,
      "åĩºç¾½å®Ī": 8206,
      "æ¸ĬæºĲ": 8207,
      "å±±æľ¬åĭĺåĬ©": 8208,
      "ĠéĢ¸äºĭ": 8209,
      "å®¶åºŃ": 8210,
      "ä¸ºä½¿èĢħ": 8211,
      "éķ¿çĽĬ": 8212,
      "å¾ª": 8213,
      "æ²ĵ": 8214,
      "èĢĮåİ»": 8215,
      "ä¹ŁæĪĲä¸º": 8216,
      "ä½Ĩä»į": 8217,
      "ä¹ħçķĻ": 8218,
      "åħīä¸¥": 8219,
      "éļıçĪ¶": 8220,
      "çĶ¨åħµ": 8221,
      "åħ´å¯º": 8222,
      "åħ¨æĹ¥æľ¬": 8223,
      "æĺ¾èµ«": 8224,
      "åīįå¾Ģäº¬éĥ½": 8225,
      "æ½Ł": 8226,
      "æ°´éĩİèĥľæĪĲ": 8227,
      "çĬ¹è±«": 8228,
      "åºĨéķ¿åįģä¹Ŀå¹´": 8229,
      "çº¶æĹ¨": 8230,
      "ä¸ĢæŃ»": 8231,
      "å¤§éĹ¨": 8232,
      "äººæīį": 8233,
      "åĨħåºľ": 8234,
      "ãģ©": 8235,
      "è¿ĽéĢĢ": 8236,
      "èµ·æºĲ": 8237,
      "æ¸ħæĻ¨": 8238,
      "éĥ¡ä»£": 8239,
      "æºª": 8240,
      "å´İé¦Ĩ": 8241,
      "åı¤å¿Ĺ": 8242,
      "éĢĥåħ¥": 8243,
      "ä¹Ĳå¸Ĥ": 8244,
      "æłĩåĩĨ": 8245,
      "æĭĽèĩ´": 8246,
      "å¤§åıĭä¹īéī´": 8247,
      "ä¼¯èĢĨåĽ½": 8248,
      "å¢Ļå£ģ": 8249,
      "æ½ľä¼ı": 8250,
      "é«ĺè¿ľåŁİ": 8251,
      "éĹ¨åı¸åŁİ": 8252,
      "è¸¯èºħ": 8253,
      "ä¸ĢæıĲ": 8254,
      "æī£": 8255,
      "ä¸īéĥ¡": 8256,
      "æĻŁ": 8257,
      "éĩįéķ¿": 8258,
      "ãģŃ": 8259,
      "é«ĺå²Ľ": 8260,
      "åĪĨéĴŁ": 8261,
      "å¿ĥèħ¹": 8262,
      "è¿ľå·ŀ": 8263,
      "è®¨è®º": 8264,
      "èĭ¥æ±Ł": 8265,
      "éļ¾æ³¢": 8266,
      "ä»ĭéĶĻ": 8267,
      "å¯Ħè¿Ľ": 8268,
      "éĻĲäºİ": 8269,
      "ç´§æİ¥çĿĢ": 8270,
      "æµ¦ä¸Ĭå®ĹæĻ¯": 8271,
      "å¤§å¤ļæķ°": 8272,
      "å¤§ä¹ħä¿Ŀå¿łä¸ĸ": 8273,
      "çĶ«åºµ": 8274,
      "43": 8275,
      "90": 8276,
      "èł": 8277,
      "ä¸ŃæĹ¬": 8278,
      "äººéĥ½": 8279,
      "ä»£èĹ©ä¸»": 8280,
      "åħ¶å¦»": 8281,
      "æİĢ": 8282,
      "æŃ»åĽł": 8283,
      "ç»ıçĶ±": 8284,
      "ç¬¬åįģ": 8285,
      "æĻ´æľĿ": 8286,
      "åħ´å»º": 8287,
      "æĴķ": 8288,
      "æĪĸæĺ¯": 8289,
      "åı³é©¬": 8290,
      "åı¤ä»Ĭ": 8291,
      "è·¯ä¸Ĭ": 8292,
      "åħ¼å¤ĩ": 8293,
      "éĩĳå´İ": 8294,
      "å¤©æŃ£åįģåħŃå¹´": 8295,
      "ä¸īåįĥçŁ³": 8296,
      "å°ıè°·": 8297,
      "æĢľ": 8298,
      "è¿ĽéĢ¼": 8299,
      "è¥¿ä¹ĭä¸¸": 8300,
      "åºĨéļĨ": 8301,
      "éļĨå®¶": 8302,
      "å±ħæ°ĳ": 8303,
      "åį³åı¯": 8304,
      "æ°¸ç¦ĦäºĮå¹´": 8305,
      "é¢Ĩåľ°åĨħ": 8306,
      "ç¼Ŀ": 8307,
      "æ»¡ç¥Ĳ": 8308,
      "éĢģæĿ¥": 8309,
      "çĽ¸èī¯ä¹īéĺ³": 8310,
      "å°¤ä¸º": 8311,
      "èªĵä¹¦": 8312,
      "åĮĹçķłå®¶": 8313,
      "çĨŁæĤī": 8314,
      "å®¶ä¼ł": 8315,
      "ä¸įçĶ¨": 8316,
      "å®Ĺä¿¡": 8317,
      "ä¼łæĴŃ": 8318,
      "ç»ĵå©ļ": 8319,
      "è¿ĺæľīä¸Ģ": 8320,
      "åħ´èµ·": 8321,
      "åº¦è¿ĩ": 8322,
      "æİ¨ç¿»": 8323,
      "å³¡": 8324,
      "æ¿ĢåĮĸ": 8325,
      "ä¸įå¾Ĺå·²": 8326,
      "å¼ĺæ²»ä¸īå¹´": 8327,
      "1632": 8328,
      "åĽłå¹¡åĽ½": 8329,
      "æĹłè®ºå¦Ĥä½ķ": 8330,
      "æ¾³éĹ¨": 8331,
      "ä¹ĭä½Ļ": 8332,
      "ä¸ĭçº§": 8333,
      "åīįåįĬ": 8334,
      "æİŁ": 8335,
      "ä¼Ĭå¥Ī": 8336,
      "ä¸ĬæĿīæĶ¿èĻİ": 8337,
      "èº«åĪĨ": 8338,
      "åħŃæĿ¡": 8339,
      "æĮģä¹ħ": 8340,
      "éªĦ": 8341,
      "å®¶çĿ£ä¹ĭäºī": 8342,
      "åĲĪæĪĺåĲİ": 8343,
      "æĬ¥ä»ĩ": 8344,
      "åľ°æĸ¹è±ªæĹı": 8345,
      "é¹¤åĨĪ": 8346,
      "èŃ¦å¤ĩ": 8347,
      "åĲ¾å¦»éķľ": 8348,
      "æľ¨æĿĳéĩįæĪĲ": 8349,
      "å¤ªåİŁéĽªæĸĭ": 8350,
      "41": 8351,
      "87": 8352,
      "åĲİä»»": 8353,
      "éķ¿äº²": 8354,
      "çŃīäºİ": 8355,
      "ä¹ħéĢļ": 8356,
      "å®ļå±ħ": 8357,
      "è¿ĳä¹ł": 8358,
      "çªĹ": 8359,
      "ç¦»åİ»": 8360,
      "å§ĵåĲį": 8361,
      "195": 8362,
      "æľĽæľĪ": 8363,
      "è®¨ä¼ĲåĨĽ": 8364,
      "æ¨ªæ¿ĳ": 8365,
      "åģľçķĻ": 8366,
      "å¦Ļçº¯": 8367,
      "ä¼ļæ´¥å¾ģä¼Ĳ": 8368,
      "æ¢¶åİŁ": 8369,
      "å¤§é¡»è´º": 8370,
      "æĺ¯ä¿¡éķ¿": 8371,
      "æĺ¯ä»İ": 8372,
      "ä¸įèĤ¯": 8373,
      "å®ĹçŁ©": 8374,
      "å½ĵå¤ľ": 8375,
      "ä¹ħç±³": 8376,
      "åĲĳè¥¿": 8377,
      "æĿĥåĪ©": 8378,
      "å±±åŁİå®Ī": 8379,
      "æľªæŀľ": 8380,
      "çĤĬ": 8381,
      "è¶³åĪ©ä¹īæ°ı": 8382,
      "éĩĳå±±åŁİ": 8383,
      "åĽºå®ļ": 8384,
      "èĨĿ": 8385,
      "å¤ĩä¸Ńé«ĺæĿ¾åŁİ": 8386,
      "åī²è®©": 8387,
      "ä¸Ģèī²æ°ı": 8388,
      "ä½Ĩé©¬åĽ½": 8389,
      "èĻļæŀĦ": 8390,
      "æĴ°åĨĻ": 8391,
      "åĲįæĬ¤å±ĭ": 8392,
      "å¤ļéĹ»éĻ¢": 8393,
      "å¨ĺå®¶": 8394,
      "ä¸´æµİå®Ĺ": 8395,
      "ä¸Ģå¤§": 8396,
      "ä¸Ģåı£": 8397,
      "èĩĤ": 8398,
      "ä¸īå¤§": 8399,
      "å¯¹å¾ħ": 8400,
      "çĶŁåŃĺ": 8401,
      "ä¸°ä¹ħ": 8402,
      "ç¥ŀå¥Ī": 8403,
      "å®«å´İ": 8404,
      "ãĤĩ": 8405,
      "å¹¿æ¿ĳ": 8406,
      "çŃĳèµ·": 8407,
      "è´ŀåºĨ": 8408,
      "å¤´çĽĶ": 8409,
      "è°ĭåĪĴ": 8410,
      "åįĬåĽ½": 8411,
      "ä¼ĬåĬ¿æ°ı": 8412,
      "åĲĽä¸»": 8413,
      "éī´éĢŁ": 8414,
      "æķ´åĲĪ": 8415,
      "å°ıæĹ©å·Ŀå®¶": 8416,
      "èĵĿ": 8417,
      "å§¬è·¯åŁİ": 8418,
      "æĹ¥æł¹éĩİ": 8419,
      "èĥ¸": 8420,
      "å°Ĩä¼ļ": 8421,
      "æĶ¿åº·": 8422,
      "äºĭå®ľ": 8423,
      "åħ´è¶£": 8424,
      "åı²ä¸Ĭ": 8425,
      "éº¦": 8426,
      "åħ³ç³»æģ¶åĮĸ": 8427,
      "å»¶åħĥ": 8428,
      "éĢģç»Ļ": 8429,
      "ç¢Ĺ": 8430,
      "å³°åŁİ": 8431,
      "æ¸ħæ°´å®Ĺæ²»": 8432,
      "è´¹çĶ¨": 8433,
      "æ¶©å·Ŀ": 8434,
      "äº«å¾·ä¹ĭä¹±": 8435,
      "ä¸ĬæĿīå®ļå®ŀ": 8436,
      "æĿľ": 8437,
      "å¤§åľ£": 8438,
      "ä¿¡æĥł": 8439,
      "éĢ¾": 8440,
      "åīįå°ĨåĨĽ": 8441,
      "åĮĹä¹¡": 8442,
      "é«ĺæ°ı": 8443,
      "èĥľéķ¿": 8444,
      "å¤ļéĥ¡": 8445,
      "æľĢå¼º": 8446,
      "å¼Ģå±±": 8447,
      "åĲĪæµģ": 8448,
      "éĥ¡ä¸Ĭ": 8449,
      "æ¨ĭ": 8450,
      "çļĨä¸º": 8451,
      "è§īä¹¦": 8452,
      "åħ¶å®ŀæĺ¯": 8453,
      "åºŃåĽŃ": 8454,
      "æ©ĺ": 8455,
      "å°¸ä½ĵ": 8456,
      "éĢ®æįķ": 8457,
      "éĺ³æĪĲå¤©çļĩ": 8458,
      "æŃ¦æĸŃæ´¾": 8459,
      "ç¥ŀå¥Īå·Ŀ": 8460,
      "48": 8461,
      "åĲİçĶ±": 8462,
      "ä¸Ĭéĺµ": 8463,
      "ä¸ĭé©¬": 8464,
      "åīįåĵ¨": 8465,
      "é¢Ĩè¢ĸ": 8466,
      "å¿łçº²": 8467,
      "åĲĳæľĿå»·": 8468,
      "è®°åħ¶": 8469,
      "å®¶èĩ£ä¸Ń": 8470,
      "ç¥ŀåĻ¨": 8471,
      "æµģæ´¾": 8472,
      "å·¦å¤§èĩ£": 8473,
      "è·¯æĺĵ": 8474,
      "120": 8475,
      "æµħåĪ©": 8476,
      "è°ĥçķ¥": 8477,
      "å¤§éĺªåºľ": 8478,
      "è¯¹æĸ¹": 8479,
      "èµĲè±«åģıè®³": 8480,
      "å§Ĭå·Ŀä¹ĭæĪĺ": 8481,
      "ä¸Ľ": 8482,
      "åŃķ": 8483,
      "ä¹īç»´": 8484,
      "å¤©çĽ®": 8485,
      "åī¿": 8486,
      "çº¬": 8487,
      "åħ¥åľ°": 8488,
      "æīĢè¨Ģ": 8489,
      "è½¶": 8490,
      "æĺİçŁ¥": 8491,
      "æ²³æµģ": 8492,
      "åºľåŁİ": 8493,
      "åĽĽæĸ¹": 8494,
      "éĢļéģĵ": 8495,
      "æµģè¨Ģ": 8496,
      "çĭł": 8497,
      "ç»Ńåħī": 8498,
      "å¤įåİŁ": 8499,
      "å°½å¿ł": 8500,
      "ä¸ĢåĲĮæĪĺæŃ»": 8501,
      "éķ¿å°¾æĻ´æĻ¯": 8502,
      "åīįçĶ°çİĦä»¥": 8503,
      "æĢģåĬ¿": 8504,
      "å®ĩåĸľå¤ļåĨĽ": 8505,
      "ç§ģä¸ĭ": 8506,
      "æĺİåºĶæĶ¿åıĺ": 8507,
      "èµŀå²ĲåĽ½": 8508,
      "è½¬æĪĺåĲĦåľ°": 8509,
      "ç§įåŃĲå²Ľ": 8510,
      "é¥¿": 8511,
      "ä½£": 8512,
      "ä½¯": 8513,
      "å¤§çģ«": 8514,
      "æĪĺæŀľ": 8515,
      "ä¸Ńç«ĭ": 8516,
      "1517": 8517,
      "éĩįèĥľ": 8518,
      "åħ¥äº¬": 8519,
      "å°±è¦ģ": 8520,
      "çĦ¶åĽł": 8521,
      "èĥ½å²Ľ": 8522,
      "éĢļè¡Į": 8523,
      "æľªèİ·": 8524,
      "å¤ªçĶ°æ°ı": 8525,
      "å¸¦åĪĢ": 8526,
      "æ¯Ķå¦Ĥ": 8527,
      "åŃ¦æł¡": 8528,
      "èĮĥæ»¡": 8529,
      "è¯ģå®ŀ": 8530,
      "åĬĿéĺ»": 8531,
      "æĭľè°Ĵ": 8532,
      "ä¼Ĭä¸ľç¥Ĳ": 8533,
      "çĦļçĥ§": 8534,
      "é±¼æ´¥åŁİ": 8535,
      "éķ¿å²Ľä¸ĢåĲĳä¸ĢæıĨ": 8536,
      "åįģæ²³ä¸ĢåŃĺ": 8537,
      "åĮĹæĿ¡é«ĺå¹¿": 8538,
      "Ġå¹´": 8539,
      "ĦĻ": 8540,
      "ä¹ĭè®¡": 8541,
      "ä¹īèĥ¤": 8542,
      "åĪ©èĥľ": 8543,
      "äºĮå®«": 8544,
      "æĸĩä¸Ń": 8545,
      "åĲĳå¯¼": 8546,
      "çĶ±èī¯": 8547,
      "èĹ¤çĶ°": 8548,
      "éĽĢ": 8549,
      "åĪĻç§°": 8550,
      "éªĹ": 8551,
      "äº¬éĥ½åºľ": 8552,
      "å²©æīĭ": 8553,
      "åłĤæ´ŀ": 8554,
      "ä¾ĭåŃĲ": 8555,
      "å±±åĲįå®¶": 8556,
      "æĲı": 8557,
      "åĲīå·Ŀå®¶": 8558,
      "åįĹéĥ¨å®¶": 8559,
      "1504": 8560,
      "ç´§æĢ¥": 8561,
      "ä¼Ĭè´ºå®Ī": 8562,
      "åĶ¯æľī": 8563,
      "æĸ¯æ³¢ä¹īå»ī": 8564,
      "è¿ĿèĥĮ": 8565,
      "1336": 8566,
      "ç¥ĪæĦ¿": 8567,
      "èĵĦ": 8568,
      "å·¦äº¬å¤§å¤«": 8569,
      "æĬ¤åŁİæ²³": 8570,
      "as": 8571,
      "ä¹īä½ĳ": 8572,
      "è°ķ": 8573,
      "æĭ¨": 8574,
      "ä½ĨæľĢç»Ī": 8575,
      "å¾·éĻ¢": 8576,
      "éĿ¢ç§¯": 8577,
      "å¹ķæĶ¿": 8578,
      "åĲĪåĬĽ": 8579,
      "éĥ¡åı¸": 8580,
      "ç¬¬ä¹Ŀ": 8581,
      "åºĶåħģ": 8582,
      "åĬŁèĥ½": 8583,
      "åı³ç¿¼": 8584,
      "æĬĹè¡¡": 8585,
      "åŀ¦": 8586,
      "é¦ĨæŀĹ": 8587,
      "ä¸¥åİī": 8588,
      "æŃ¦çĶ°ä¿¡ä¸°": 8589,
      "éĺ¶çº§": 8590,
      "ç¦ħå®Ĺ": 8591,
      "æĳĨèĦ±": 8592,
      "ak": 8593,
      "åĽ½çº²": 8594,
      "1518": 8595,
      "ä¹Łè®¸": 8596,
      "å¿łåĲī": 8597,
      "å¿łå¿ĥ": 8598,
      "ç»§åĹ£": 8599,
      "å®īç½®": 8600,
      "äºĶæĿ¡": 8601,
      "æ´¥çĶ°ä¿¡": 8602,
      "èº«çĿĢ": 8603,
      "äº¦ä¸į": 8604,
      "æĶ¯æŁ±": 8605,
      "åħĪä¾ĭ": 8606,
      "æĽ¾åĲĳ": 8607,
      "è®¤å®ļ": 8608,
      "éĩĳéĵ¶": 8609,
      "åĲĪæĪĺæĹ¶": 8610,
      "æĢ§è´¨": 8611,
      "éķ¿å°¾æĶ¿æĻ¯": 8612,
      "éªıæ²³å®Ī": 8613,
      "æ¿ĢæĢĴ": 8614,
      "åĬłè´ºèĹ©": 8615,
      "åį°åº¦": 8616,
      "èµ¤æĿ¾æĶ¿åĪĻ": 8617,
      "æ²¿çĶ¨": 8618,
      "éĶĻè¯¯": 8619,
      "å±±å´İä¹ĭæĪĺ": 8620,
      "éķ¿æ»¨åŁİ": 8621,
      "ä¼ĬåĬ¿è´ŀäº²": 8622,
      "è·¯æĺĵæĸ¯": 8623,
      "600": 8624,
      "å¹´çºª": 8625,
      "ç»ĳ": 8626,
      "æ°ıéĤ¦": 8627,
      "å¯Ĥ": 8628,
      "ä¸Ńåħ´": 8629,
      "1512": 8630,
      "æŃ£çĽ´": 8631,
      "é«ĺçĻ½": 8632,
      "åıĳè¡Į": 8633,
      "å¤ļèī¯": 8634,
      "äºĶä¸ĩ": 8635,
      "æĹłä¸į": 8636,
      "ä¸¤åº¦": 8637,
      "æĹ¥æľ¬æĪĺåĽ½æĹ¶æľŁ": 8638,
      "å¥īçº³": 8639,
      "å¤©æĸĩä¹ĭä¹±": 8640,
      "åĮĹæĿ¡æ°ıéĤ¦": 8641,
      "èĳµ": 8642,
      "èĭ¥æĺ¯": 8643,
      "çģ«èį¯": 8644,
      "éĢģåħ¥": 8645,
      "èħ¾": 8646,
      "è§Ĥå¯Ł": 8647,
      "åĶ®": 8648,
      "ç»ĺçĶ»": 8649,
      "æĸ¯æ³¢ä¹īæķı": 8650,
      "çĶ°åİŁäº²": 8651,
      "åģ·è¢Ń": 8652,
      "åįĵè¶Ĭ": 8653,
      "ä¹ĭå¢ĵ": 8654,
      "åŁİå¢Ļ": 8655,
      "è¯Ī": 8656,
      "æĹ¥äºİ": 8657,
      "å±±çł¦": 8658,
      "æĪĲå¹´åĲİ": 8659,
      "çŃīå°Ĩ": 8660,
      "ç»ĩçĶ°æ°ıå®¶èĩ£": 8661,
      "å¿łèī¯": 8662,
      "è¿Ľåħµ": 8663,
      "åĿ¡": 8664,
      "æľĢåīįçº¿": 8665,
      "æ³ķä¸»": 8666,
      "çĶ¨ä½ľ": 8667,
      "è®©äºº": 8668,
      "çĻ¾çŁ³": 8669,
      "è¿½æº¯": 8670,
      "ä¸ĢæıĨåĨĽ": 8671,
      "é¥¶": 8672,
      "å¤©ä¸ĭå¸ĥæŃ¦": 8673,
      "å¼ĺæ²»äºĮå¹´": 8674,
      "ãģķãĤĮ": 8675,
      "ä¼°è®¡": 8676,
      "é«ĺçĻ½æĸĭ": 8677,
      "çĶ°æĥŁæĶ¿": 8678,
      "åİĺ": 8679,
      "ä¸īæ¬¡": 8680,
      "ä¸įä¸Ģ": 8681,
      "åħĥçĽ´": 8682,
      "æĭĵ": 8683,
      "çķĶ": 8684,
      "äºķéĥ¡": 8685,
      "è¶ĬçĽ¸åĲĮçĽŁ": 8686,
      "ä¸¤éĥ¡": 8687,
      "æĸ°æĶ¿": 8688,
      "å±ħæīĢ": 8689,
      "è´ŀæĻ¯": 8690,
      "å°ģèµı": 8691,
      "åĮºåĪĨ": 8692,
      "åĪ«ç§°": 8693,
      "è¯¥å¯º": 8694,
      "å°ļæľī": 8695,
      "èī²éĥ¨": 8696,
      "å®ªæĺ¾": 8697,
      "éĢģåİ»": 8698,
      "åĨĽäºĭåĬĽéĩı": 8699,
      "ä¸ĵéĹ¨": 8700,
      "å½¦æł¹": 8701,
      "è¶³è½»å¤§å°Ĩ": 8702,
      "èĬ¥å·Ŀ": 8703,
      "æŁ¿å´İæĻ¯å®¶": 8704,
      "æĪĲèµĸ": 8705,
      "æĻĥ": 8706,
      "çĶ±åħ¶": 8707,
      "åĮĹæĿ¡æĹ¶": 8708,
      "çİ°è±¡": 8709,
      "å´ĸ": 8710,
      "åģ¿": 8711,
      "èµĲå§ĵ": 8712,
      "æŀģåĬĽ": 8713,
      "å°½åĬĽ": 8714,
      "æ²¿çĿĢ": 8715,
      "è®³åĲį": 8716,
      "ç¨»åı¶ä¸Ģéĵģ": 8717,
      "ç»Ĩå·Ŀæ°ıçº²": 8718,
      "å¹³æīĭæĶ¿ç§Ģ": 8719,
      "å¤§ä¹īåĲįåĪĨ": 8720,
      "æĹŃ": 8721,
      "ä¸įè®º": 8722,
      "æľīåı¯èĥ½": 8723,
      "æłī": 8724,
      "è¦ģå¡ŀ": 8725,
      "èĥ½ä¹Ĳ": 8726,
      "äº¦åı¯": 8727,
      "è´ŀä¿Ĭ": 8728,
      "ç¾İæľ¯": 8729,
      "æĢ»è®¡": 8730,
      "æĶ¶éĽĨ": 8731,
      "ä¸°èĩ£ç§ĢåĲīåıĳåĬ¨": 8732,
      "æµģæĶ¾èĩ³": 8733,
      "éĵ¸éĢł": 8734,
      "ä¸ĺéĻµ": 8735,
      "è°¨æħİ": 8736,
      "ä¿¡è´µå±±åŁİ": 8737,
      "è¿Ī": 8738,
      "æī¼": 8739,
      "æĹ¥åħĥ": 8740,
      "å±±å®¶": 8741,
      "äº²åĲī": 8742,
      "æĭ¦": 8743,
      "æİ¾": 8744,
      "æ²»æī¿": 8745,
      "æĪĺåĽ½ä¹±ä¸ĸ": 8746,
      "æĽ´å¤§": 8747,
      "æĤł": 8748,
      "æ£®åħ°ä¸¸": 8749,
      "æŃ¥åħµ": 8750,
      "æĿĤåħµ": 8751,
      "ç¬¬ä¸īæ¬¡": 8752,
      "å°ıçī§éķ¿ä¹ħæīĭä¹ĭæĪĺ": 8753,
      "çľŁçĶ°å¹¸éļĨ": 8754,
      "å¤§éģĵå¯º": 8755,
      "ä¸ĢåįĬ": 8756,
      "ä¹ĭå£«": 8757,
      "ä¿¡æģ¯": 8758,
      "éĥĳ": 8759,
      "1511": 8760,
      "èĹī": 8761,
      "çĶŁå¹´": 8762,
      "å®īæĬļ": 8763,
      "æįī": 8764,
      "éĢļçŁ¥": 8765,
      "æĮģæľī": 8766,
      "æ´¾æĿ¥": 8767,
      "ä¸°èĩ£å§ĵ": 8768,
      "ç»Īç©¶": 8769,
      "é»ľ": 8770,
      "è¡¨æ¼Ķ": 8771,
      "å½Ĵäºİ": 8772,
      "å¤§åĨħè¾īå¼ĺ": 8773,
      "è§Ĩä½ľ": 8774,
      "æĻºåĭĩ": 8775,
      "ä¸ĢæıĨä¼Ĺ": 8776,
      "ç¤ºä¼Ĺ": 8777,
      "çľŁçĶ°æ°ı": 8778,
      "åĪĴåĪĨ": 8779,
      "åıĳåĬ¨åıĽä¹±": 8780,
      "åºĶä»ģåħĥå¹´": 8781,
      "çīµè¿ŀ": 8782,
      "æµ¦ä¸Ĭæ°ı": 8783,
      "å·¦è¿ĳåį«": 8784,
      "æ±īåŁİ": 8785,
      "æ¥łæľ¨æŃ£æĪĲ": 8786,
      "å®«éĥ¨ç»§æ¶¦": 8787,
      "88": 8788,
      "ä¸ºä¹ĭ": 8789,
      "å¤§å²Ľ": 8790,
      "åĩĿ": 8791,
      "åŃĲæľī": 8792,
      "åĩºä»ķäºİ": 8793,
      "æŃ£å¦Ĥ": 8794,
      "è¡Ķ": 8795,
      "åĲīåĨĪ": 8796,
      "å°ıè¢ĸ": 8797,
      "åħµéĥ¨": 8798,
      "æĶ»ä¼Ĳ": 8799,
      "çĿ¿": 8800,
      "ä½¿çķª": 8801,
      "çĶ¨äºº": 8802,
      "å¤Ħèİ·èµĲ": 8803,
      "æĶ¹çĶ±": 8804,
      "çĻ¾å¹´": 8805,
      "å½¢æĢģ": 8806,
      "è¯¥ä¹¦": 8807,
      "æĬĬä»ĸ": 8808,
      "éĻ¤æŃ¤": 8809,
      "èµ¤äºķ": 8810,
      "éĴī": 8811,
      "å¾Īåı¯èĥ½": 8812,
      "å®½æĸĩ": 8813,
      "æĴ¤ç¦»": 8814,
      "å®īèīºæŃ¦çĶ°æ°ı": 8815,
      "æºĥæķ£": 8816,
      "ä¸ĢæĿ¡åħ¼å®ļ": 8817,
      "çĸİè¿ľ": 8818,
      "æĹłäºĭä»¤": 8819,
      "è¸¯èºħå´İé¦Ĩ": 8820,
      "ä¿©": 8821,
      "å¤§é¦Ĩ": 8822,
      "æĺ¯ç»ĩçĶ°ä¿¡éķ¿": 8823,
      "æŃ£åĢ¼": 8824,
      "è¡į": 8825,
      "ä»İä¸Ń": 8826,
      "1617": 8827,
      "æī¿èĬ³": 8828,
      "çĶ¨æĿ¥": 8829,
      "åıĹä¼¤": 8830,
      "ç»Łè¾ĸ": 8831,
      "æ°´æĶ»": 8832,
      "å¹¿èī¯": 8833,
      "ç¼ł": 8834,
      "çĮĿ": 8835,
      "ä»įåŃĺ": 8836,
      "åĲĦæĸ¹": 8837,
      "è¨Ģä¹ĭ": 8838,
      "å¸ĥæĸ½": 8839,
      "è¿½åħµ": 8840,
      "è¿Ķè¿ĺ": 8841,
      "è¯łä¹ħ": 8842,
      "æĮĤå·ĿåŁİ": 8843,
      "çĶ°éķ¿ç¹ģ": 8844,
      "é©¬åľºä¿¡æĪ¿": 8845,
      "æħ¢æħ¢": 8846,
      "ç«¹ä¸Ńéĩį": 8847,
      "å½¼æŃ¤": 8848,
      "æł¹æĿ¥ä¼Ĺ": 8849,
      "ãģ£ãģ¦": 8850,
      "å¾ĭä»¤åĪ¶": 8851,
      "77": 8852,
      "ä¸ºä»ĸ": 8853,
      "ä¸Ģå¿ĥ": 8854,
      "å°ıæĹ¶": 8855,
      "åĮĹçĶ°": 8856,
      "æīĢæĿĢ": 8857,
      "åĪĨæŀĲ": 8858,
      "åľŁä¸ĢæıĨ": 8859,
      "äº¦ä½ľ": 8860,
      "æľ¨æĿĲ": 8861,
      "åºĶä¸º": 8862,
      "è´ŀæ¸ħ": 8863,
      "è´ŀéļĨ": 8864,
      "æķ°æ¬¡": 8865,
      "åĽ¾å±ıé£İ": 8866,
      "ä¸įè¿ĩåĽłä¸º": 8867,
      "è¯ģå¦Ĥ": 8868,
      "é¹¿å²Ľ": 8869,
      "èģļèĲ½": 8870,
      "è¸ŀ": 8871,
      "æįķèİ·": 8872,
      "1487": 8873,
      "è¶ħè¶Ĭ": 8874,
      "æĤ¬æ®Ĭ": 8875,
      "å¤©æĸĩäºĮåįģä¸īå¹´": 8876,
      "å·¦äº¬äº®": 8877,
      "ä¿µ": 8878,
      "æĪĲäºº": 8879,
      "è§Ĳ": 8880,
      "éĩįå¿ł": 8881,
      "åĮĹåħ³ä¸ľ": 8882,
      "æĭį": 8883,
      "ä¸ľäº¬éĥ½": 8884,
      "å·²æĪĲä¸º": 8885,
      "ç³Ĭ": 8886,
      "åıįåºĶ": 8887,
      "ä¸ĥå²ģ": 8888,
      "å¼Ģå§ĭåĲĳ": 8889,
      "æıĲé«ĺ": 8890,
      "æĪĺæŃ»äºİ": 8891,
      "æ¿ł": 8892,
      "å²©å´İ": 8893,
      "è¿½ç©¶": 8894,
      "èĮ¶åĻ¨": 8895,
      "æľĿé²ľåįĬå²Ľ": 8896,
      "ç§»åĬ¨": 8897,
      "ç§»é©»": 8898,
      "å³»": 8899,
      "æŀĹç§Ģè´ŀ": 8900,
      "å¤©æĸĩåįģåħ«å¹´": 8901,
      "ä¼Ĭè´ºåĽ½": 8902,
      "æ¸ħæ´²ä¼ļè®®": 8903,
      "è§ĤéŁ³å¯º": 8904,
      "Ġåħ³äºİ": 8905,
      "å±Ĭ": 8906,
      "éķ¿åĪĢ": 8907,
      "çĽĪ": 8908,
      "ä¸įçŁ¥éģĵ": 8909,
      "æľ¬å·ŀ": 8910,
      "æµ´": 8911,
      "åħ³èģĶ": 8912,
      "å¿łèĩ£": 8913,
      "å®ļçº²": 8914,
      "åľŁäºķ": 8915,
      "ä¸ĥåįĥ": 8916,
      "åį´æ²¡æľī": 8917,
      "å½ĴéĻį": 8918,
      "è§Ĵåº¦": 8919,
      "ç²ķ": 8920,
      "è´¤ç§Ģ": 8921,
      "è¿Ĳä½ľ": 8922,
      "æĶ¯æĮģèĢħ": 8923,
      "ä¹ĺèĪ¹": 8924,
      "æľ¬å¤ļæŃ£çº¯": 8925,
      "æĶ»éĺ²æĪĺ": 8926,
      "å°Ŀè¯ķ": 8927,
      "é¡½å¼ºæĬµæĬĹ": 8928,
      "èĤĸåĥı": 8929,
      "åĽ½ç«ĭ": 8930,
      "æĹ¶å¸¸": 8931,
      "ä¸īéĿ¢": 8932,
      "åħĥç§į": 8933,
      "ä¸ĭå±±": 8934,
      "å¤©åı°": 8935,
      "æĪĲä¹ĭ": 8936,
      "çŁ£": 8937,
      "è°ľ": 8938,
      "è¿Ļä»¶äºĭ": 8939,
      "è¿Ľäº¬": 8940,
      "ä¸ľæĸ¹": 8941,
      "å¤ļä¸º": 8942,
      "æĺİéĻ¢": 8943,
      "æī¿ä¹ħ": 8944,
      "åĽŀæĬ¥": 8945,
      "çĶºå¥īè¡Į": 8946,
      "éĩĮéĿ¢": 8947,
      "éĢĥè·ĳ": 8948,
      "åĮºåĪ«": 8949,
      "å²©åĽ½": 8950,
      "æ´Ľä¸Ń": 8951,
      "èĮ¶å®¤": 8952,
      "æŃ¥è¡Į": 8953,
      "éĢŁåº¦": 8954,
      "1522": 8955,
      "å¦Ļå¿ĥå¯º": 8956,
      "åĨħèĹ¤æĺĮä¸°": 8957,
      "å¤©æĸĩåįģäºĶå¹´": 8958,
      "éĢ¸è§ģ": 8959,
      "è¡¥åħħ": 8960,
      "èĥ½çĻ»åĽ½": 8961,
      "å®īä¸ľçĪ±åŃ£": 8962,
      "èĢ³å·Ŀä¹ĭæĪĺ": 8963,
      "è®Ńç»ĥ": 8964,
      "å¹½æĸĭ": 8965,
      "æĶ¿æīĢæī§äºĭ": 8966,
      "63": 8967,
      "æĹ¥åŃĲ": 8968,
      "ä¸įæĪĺ": 8969,
      "ä¸įèµ·": 8970,
      "ä¸įåĲ¬": 8971,
      "éĹª": 8972,
      "èĢĮéģŃ": 8973,
      "ä¿¡éķ¿å°Ĩ": 8974,
      "å£¹": 8975,
      "å¼Ģè®¾": 8976,
      "1624": 8977,
      "åľŁçĶ°": 8978,
      "äº¦éļıä¹ĭ": 8979,
      "éĥİåħļ": 8980,
      "æĸ°å»º": 8981,
      "çļĩä½į": 8982,
      "æµ·å¤ĸ": 8983,
      "å¢ŀèĩ³": 8984,
      "æ¢µ": 8985,
      "æľ«æ£®åŁİ": 8986,
      "åĨĻä¸ĭ": 8987,
      "æ¿ĳå·Ŀ": 8988,
      "æ¸¸åĩ»": 8989,
      "å¤©æĸĩåįģä¹Ŀå¹´": 8990,
      "åħĥæľįåĲİ": 8991,
      "éħĴäºķå¿ł": 8992,
      "çīĪåĽ¾": 8993,
      "å¤§ä¹ħä¿Ŀéķ¿å®ī": 8994,
      "çİ¯å¢ĥ": 8995,
      "æ¸¸ä½Ĳéķ¿æķĻ": 8996,
      "åİ©æ¡¥åŁİ": 8997,
      "ä¸ģçĽ®": 8998,
      "æĨ¾": 8999,
      "è¡¨éĿ¢ä¸Ĭ": 9000,
      "é«ĺå¸ĪçĽ´": 9001,
      "åĪ©æł¹å·Ŀ": 9002,
      "62": 9003,
      "Ġ4": 9004,
      "åĲİçĻ½æ²³": 9005,
      "æĹ¥ç½®": 9006,
      "ä¸īå²ģ": 9007,
      "æŃ£åĪ©": 9008,
      "è¾Ĺ": 9009,
      "å¹³å²©": 9010,
      "æĽĿ": 9011,
      "åĬłèĮĤ": 9012,
      "å¾·å·Ŀä¿¡åº·": 9013,
      "éĹ¨åīį": 9014,
      "æĪĲä¸ºæµªäºº": 9015,
      "æ¡§": 9016,
      "åĽŀåİ»": 9017,
      "çİ°å®ŀ": 9018,
      "èĹıåħ¥åľ°": 9019,
      "ä¹ĭåŃĲè¯ŀçĶŁ": 9020,
      "åĽłä¸ºä»ĸ": 9021,
      "åıĽåĨĽ": 9022,
      "å¤«å¦»": 9023,
      "æŃ¦çĶ°æ°ıçģŃäº¡åĲİ": 9024,
      "å£°ç§°": 9025,
      "ç¬¬äºĮå¤©": 9026,
      "çŃĳåīįå®Ī": 9027,
      "éĻ·èĲ½åĲİ": 9028,
      "è°±ä»£å¤§åĲį": 9029,
      "çİ¯ç»ķ": 9030,
      "å¤§éļħåĽ½": 9031,
      "æĭĨæ¯ģ": 9032,
      "ç°ĹçĶ°": 9033,
      "èł¢": 9034,
      "Ġ9": 9035,
      "æĪĺéĺµ": 9036,
      "å±±é¡¶": 9037,
      "æĶ¿èµĸ": 9038,
      "åħ¶å®¶æĹı": 9039,
      "æ±°": 9040,
      "åĲĮå±ŀ": 9041,
      "æĿ¥æºĲ": 9042,
      "ãģĴ": 9043,
      "å½ĵåį³": 9044,
      "è½¿": 9045,
      "æĿ¾ä¸ĭ": 9046,
      "å®ĺæĸ¹": 9047,
      "ä»Ĭå·Ŀæĸ¹": 9048,
      "åľºæīĢ": 9049,
      "æºĲå¹³": 9050,
      "éģĤæĪĲ": 9051,
      "éĢłåıį": 9052,
      "å«¡åŃĻ": 9053,
      "çĽ®å½ķ": 9054,
      "æĬĬå®Ī": 9055,
      "åĸľè¿ŀ": 9056,
      "éĹ®æ³¨": 9057,
      "èĲ¥éĢł": 9058,
      "ç£Ķ": 9059,
      "åįıè°ĥ": 9060,
      "è¿ĶåĽŀäº¬éĥ½": 9061,
      "ç¦ħå®ļ": 9062,
      "å¤©æĸĩåįģä¸ĥå¹´": 9063,
      "æµħéĩİéķ¿": 9064,
      "è£ģåĨ³": 9065,
      "èĤ²æľī": 9066,
      "å°ĸ": 9067,
      "å®¶äº²": 9068,
      "ä¹īèĥľ": 9069,
      "å®ĹæĹ¶": 9070,
      "å°±ç®Ĺ": 9071,
      "ç«ĭæľī": 9072,
      "åĲĳç»ĩçĶ°ä¿¡éķ¿": 9073,
      "å®ļæ¬¡": 9074,
      "ç§°éľ¸": 9075,
      "è¿ĳèĹ¤": 9076,
      "æĮģä¸°": 9077,
      "æĸ°ä¹Ŀéĥİ": 9078,
      "æ´¾ä½¿èĢħ": 9079,
      "èİ·åıĸ": 9080,
      "å®ĺåĥļ": 9081,
      "åĵī": 9082,
      "åĪĢåīĳ": 9083,
      "æľĿé²ľåĩºåħµ": 9084,
      "åħįäºİ": 9085,
      "åĺ²": 9086,
      "æ±¤æµħ": 9087,
      "ä¿ĥè¿Ľ": 9088,
      "æ´Ĺç¤¼": 9089,
      "éĺ¿å¼¥éĻĢ": 9090,
      "äº¬æŀģé«ĺæ¬¡": 9091,
      "ä»Ļåı°èĹ©": 9092,
      "æİĢèµ·": 9093,
      "æĪĲçĶ°": 9094,
      "è¿ĻæĶ¯": 9095,
      "é«ĺæľ¨": 9096,
      "è¿Ľåĩ»": 9097,
      "çľ·": 9098,
      "éĺµå±ĭ": 9099,
      "è¥¿éĿ¢": 9100,
      "åħ«å²ģ": 9101,
      "æ´¾å®¶èĩ£": 9102,
      "çİĩå¤§åĨĽ": 9103,
      "åı·ä»¤": 9104,
      "ãĥ³": 9105,
      "éĻĨè·¯": 9106,
      "é²ĳ": 9107,
      "å·¥èĹ¤": 9108,
      "å¤©æŃ£åįģä¸ĥå¹´": 9109,
      "å¥³åĦ¿å«ģç»Ļ": 9110,
      "åį±æĢ¥": 9111,
      "åıĻä»İäºĶä½įä¸ĭ": 9112,
      "å®½æĶ¿è°±": 9113,
      "é©¬å»»ä¼Ĺ": 9114,
      "ä¸ºèĩªå·±": 9115,
      "ä¸ĢåĪĢ": 9116,
      "è¾Ł": 9117,
      "ä¸¤éĿ¢": 9118,
      "æ»¥": 9119,
      "çĤ¼": 9120,
      "çĶ²çĽ¸": 9121,
      "ä¸¸æł¹": 9122,
      "è¯¸ä½į": 9123,
      "åĨ³çŃĸ": 9124,
      "èĲ½åĲĪ": 9125,
      "åŃ¦éĹ®": 9126,
      "éī´è½½": 9127,
      "å¨ģä¿¡": 9128,
      "çķĻå®Īå±ħ": 9129,
      "å»¶ç»Ńèĩ³": 9130,
      "èıĬæ±łæ°ı": 9131,
      "ãģĻãĤĭ": 9132,
      "æĳĦåħ³å®¶": 9133,
      "è¤Ĵå¥ĸ": 9134,
      "å¹´æĹ¶": 9135,
      "åĽĬ": 9136,
      "ç§Ģè¡Į": 9137,
      "åħµåĨľ": 9138,
      "é«ĺä¸½": 9139,
      "å®īåĢį": 9140,
      "çŁ¥åĲį": 9141,
      "åĨ³æĸŃ": 9142,
      "çĮ´": 9143,
      "éģĤçĶ±": 9144,
      "ä»ħæ¬¡äºİ": 9145,
      "èµ¤å°¾": 9146,
      "èµ¤åĿĤ": 9147,
      "åĲĽèĩ£": 9148,
      "åĩĨè®¸": 9149,
      "æĦŁåĬ¨": 9150,
      "è¯¹è®¿éĥ¡": 9151,
      "æ¯ĴæĿĢ": 9152,
      "æ³ķåįİå®Ĺ": 9153,
      "æĬĽå¼ĥ": 9154,
      "èµ¢å¾Ĺ": 9155,
      "8000": 9156,
      "ä¸ĢèĦī": 9157,
      "åĨĽçĽĳ": 9158,
      "ä¹īæĮģ": 9159,
      "ä¹īæķı": 9160,
      "1513": 9161,
      "èĩªä»İ": 9162,
      "å¯ºé¢Ĩ": 9163,
      "é©³": 9164,
      "éģĵèªī": 9165,
      "çĶ²çĽ¸åĲĮçĽŁ": 9166,
      "å¤©æĸĩåįģä¸Ģå¹´": 9167,
      "è¿ŀåĲĮ": 9168,
      "çģ«çģ¾": 9169,
      "çĸĭ": 9170,
      "æ£®å¿łæĶ¿": 9171,
      "å¤ľè¯Ŀ": 9172,
      "å¤©æŃ£åįģä¹Ŀå¹´": 9173,
      "è®¿éĹ®": 9174,
      "çŁ¢å²Ľ": 9175,
      "çŁ³è§ģéĵ¶å±±": 9176,
      "å±¡ç«ĭæĪĺåĬŁ": 9177,
      "æµħéĩİå¹¸éķ¿": 9178,
      "éŀĨ": 9179,
      "å¤©æĸĩäºĮåįģä¸Ģå¹´": 9180,
      "æĿ¾å¹³å¿łåĲī": 9181,
      "è¶ĭäºİ": 9182,
      "ç¥ŀå¥Īå·Ŀåİ¿": 9183,
      "è¾Ĺè½¬": 9184,
      "åĲİéĿ¢": 9185,
      "åĲİæı´": 9186,
      "éĥģ": 9187,
      "å±±è·¯": 9188,
      "1516": 9189,
      "èĢĮéĢĥ": 9190,
      "èĩªè£ģ": 9191,
      "é«ĺæ¸ħ": 9192,
      "æĿ¾å±±": 9193,
      "ç¾ŀ": 9194,
[...]
