{
  "version": "1.0",
  "truncation": null,
  "padding": null,
  "added_tokens": [
    {
      "id": 0,
      "content": "<|endoftext|>",
      "single_word": false,
      "lstrip": false,
      "rstrip": false,
      "normalized": false,
      "special": true
    },
    {
      "id": 1,
      "content": "<|im_end|>",
      "single_word": false,
      "lstrip": false,
      "rstrip": false,
      "normalized": false,
      "special": true
    },
    {
      "id": 2,
      "content": "<|im_system|>",
      "single_word": false,
      "lstrip": false,
      "rstrip": false,
      "normalized": false,
      "special": true
    },
    {
      "id": 3,
      "content": "<|im_user|>",
      "single_word": false,
      "lstrip": false,
      "rstrip": false,
      "normalized": false,
      "special": true
    },
    {
      "id": 4,
      "content": "<|im_assistant|>",
      "single_word": false,
      "lstrip": false,
      "rstrip": false,
      "normalized": false,
      "special": true
    },
    {
      "id": 7996,
      "content": "\n\n",
      "single_word": false,
      "lstrip": false,
      "rstrip": false,
      "normalized": true,
      "special": false
    },
    {
      "id": 7997,
      "content": "  ",
      "single_word": false,
      "lstrip": false,
      "rstrip": false,
      "normalized": true,
      "special": false
    },
    {
      "id": 7998,
      "content": "   ",
      "single_word": false,
      "lstrip": false,
      "rstrip": false,
      "normalized": true,
      "special": false
    },
    {
      "id": 7999,
      "content": "    ",
      "single_word": false,
      "lstrip": false,
      "rstrip": false,
      "normalized": true,
      "special": false
    }
  ],
  "normalizer": null,
  "pre_tokenizer": {
    "type": "Sequence",
    "pretokenizers": [
      {
        "type": "Split",
        "pattern": {
          "Regex": "\u001f"
        },
        "behavior": "Removed",
        "invert": false
      },
      {
        "type": "ByteLevel",
        "add_prefix_space": false,
        "trim_offsets": true,
        "use_regex": true
      }
    ]
  },
  "post_processor": {
    "type": "ByteLevel",
    "add_prefix_space": true,
    "trim_offsets": false,
    "use_regex": true
  },
  "decoder": {
    "type": "ByteLevel",
    "add_prefix_space": true,
    "trim_offsets": true,
    "use_regex": true
  },
  "model": {
    "type": "BPE",
    "dropout": null,
    "unk_token": null,
    "continuing_subword_prefix": null,
    "end_of_word_suffix": null,
    "fuse_unk": false,
    "byte_fallback": false,
    "ignore_merges": false,
    "vocab": {
      "<|endoftext|>": 0,
      "<|im_end|>": 1,
      "<|im_system|>": 2,
      "<|im_user|>": 3,
      "<|im_assistant|>": 4,
      "!": 5,
      "\"": 6,
      "#": 7,
      "$": 8,
      "%": 9,
      "&": 10,
      "'": 11,
      "(": 12,
      ")": 13,
      "*": 14,
      "+": 15,
      ",": 16,
      "-": 17,
      ".": 18,
      "/": 19,
      "0": 20,
      "1": 21,
      "2": 22,
      "3": 23,
      "4": 24,
      "5": 25,
      "6": 26,
      "7": 27,
      "8": 28,
      "9": 29,
      ":": 30,
      ";": 31,
      "<": 32,
      "=": 33,
      ">": 34,
      "?": 35,
      "@": 36,
      "A": 37,
      "B": 38,
      "C": 39,
      "D": 40,
      "E": 41,
      "F": 42,
      "G": 43,
      "H": 44,
      "I": 45,
      "J": 46,
      "K": 47,
      "L": 48,
      "M": 49,
      "N": 50,
      "O": 51,
      "P": 52,
      "Q": 53,
      "R": 54,
      "S": 55,
      "T": 56,
      "U": 57,
      "V": 58,
      "W": 59,
      "X": 60,
      "Y": 61,
      "Z": 62,
      "[": 63,
      "\\": 64,
      "]": 65,
      "^": 66,
      "_": 67,
      "`": 68,
      "a": 69,
      "b": 70,
      "c": 71,
      "d": 72,
      "e": 73,
      "f": 74,
      "g": 75,
      "h": 76,
      "i": 77,
      "j": 78,
      "k": 79,
      "l": 80,
      "m": 81,
      "n": 82,
      "o": 83,
      "p": 84,
      "q": 85,
      "r": 86,
      "s": 87,
      "t": 88,
      "u": 89,
      "v": 90,
      "w": 91,
      "x": 92,
      "y": 93,
      "z": 94,
      "{": 95,
      "|": 96,
      "}": 97,
      "~": 98,
      "¡": 99,
      "¢": 100,
      "£": 101,
      "¤": 102,
      "¥": 103,
      "¦": 104,
      "§": 105,
      "¨": 106,
      "©": 107,
      "ª": 108,
      "«": 109,
      "¬": 110,
      "®": 111,
      "¯": 112,
      "°": 113,
      "±": 114,
      "²": 115,
      "³": 116,
      "´": 117,
      "µ": 118,
      "¶": 119,
      "·": 120,
      "¸": 121,
      "¹": 122,
      "º": 123,
      "»": 124,
      "¼": 125,
      "½": 126,
      "¾": 127,
      "¿": 128,
      "À": 129,
      "Á": 130,
      "Â": 131,
      "Ã": 132,
      "Ä": 133,
      "Å": 134,
      "Æ": 135,
      "Ç": 136,
      "È": 137,
      "É": 138,
      "Ê": 139,
      "Ë": 140,
      "Ì": 141,
      "Í": 142,
      "Î": 143,
      "Ï": 144,
      "Ð": 145,
      "Ñ": 146,
      "Ò": 147,
      "Ó": 148,
      "Ô": 149,
      "Õ": 150,
      "Ö": 151,
      "×": 152,
      "Ø": 153,
      "Ù": 154,
      "Ú": 155,
      "Û": 156,
      "Ü": 157,
      "Ý": 158,
      "Þ": 159,
      "ß": 160,
      "à": 161,
      "á": 162,
      "â": 163,
      "ã": 164,
      "ä": 165,
      "å": 166,
      "æ": 167,
      "ç": 168,
      "è": 169,
      "é": 170,
      "ê": 171,
      "ë": 172,
      "ì": 173,
      "í": 174,
      "î": 175,
      "ï": 176,
      "ð": 177,
      "ñ": 178,
      "ò": 179,
      "ó": 180,
      "ô": 181,
      "õ": 182,
      "ö": 183,
      "÷": 184,
      "ø": 185,
      "ù": 186,
      "ú": 187,
      "û": 188,
      "ü": 189,
      "ý": 190,
      "þ": 191,
      "ÿ": 192,
      "Ā": 193,
      "ā": 194,
      "Ă": 195,
      "ă": 196,
      "Ą": 197,
      "ą": 198,
      "Ć": 199,
      "ć": 200,
      "Ĉ": 201,
      "ĉ": 202,
      "Ċ": 203,
      "ċ": 204,
      "Č": 205,
      "č": 206,
      "Ď": 207,
      "ď": 208,
      "Đ": 209,
      "đ": 210,
      "Ē": 211,
      "ē": 212,
      "Ĕ": 213,
      "ĕ": 214,
      "Ė": 215,
      "ė": 216,
      "Ę": 217,
      "ę": 218,
      "Ě": 219,
      "ě": 220,
      "Ĝ": 221,
      "ĝ": 222,
      "Ğ": 223,
      "ğ": 224,
      "Ġ": 225,
      "ġ": 226,
      "Ģ": 227,
      "ģ": 228,
      "Ĥ": 229,
      "ĥ": 230,
      "Ħ": 231,
      "ħ": 232,
      "Ĩ": 233,
      "ĩ": 234,
      "Ī": 235,
      "ī": 236,
      "Ĭ": 237,
      "ĭ": 238,
      "Į": 239,
      "į": 240,
      "İ": 241,
      "ı": 242,
      "Ĳ": 243,
      "ĳ": 244,
      "Ĵ": 245,
      "ĵ": 246,
      "Ķ": 247,
      "ķ": 248,
      "ĸ": 249,
      "Ĺ": 250,
      "ĺ": 251,
      "Ļ": 252,
      "ļ": 253,
      "Ľ": 254,
      "ľ": 255,
      "Ŀ": 256,
      "ŀ": 257,
      "Ł": 258,
      "ł": 259,
      "Ń": 260,
      "ï¼": 261,
      "ä¸": 262,
      "ï¼Į": 263,
      "ãĢ": 264,
      "äº": 265,
      "çļ": 266,
      "çļĦ": 267,
      "å®": 268,
      "ãĢĤ": 269,
      "åħ": 270,
      "åĲ": 271,
      "ä¹": 272,
      "ä»": 273,
      "å¹": 274,
      "æľ": 275,
      "å¤": 276,
      "åı": 277,
      "çĶ": 278,
      "æĹ": 279,
      "å¹´": 280,
      "æĪ": 281,
      "åľ": 282,
      "æŃ": 283,
      "åĽ": 284,
      "å°": 285,
      "åĪ": 286,
      "åĨ": 287,
      "è¿": 288,
      "ç»": 289,
      "æĿ": 290,
      "å®¶": 291,
      "æ°": 292,
      "æĺ": 293,
      "ä½": 294,
      "åį": 295,
      "ä¸º": 296,
      "ï¼Ī": 297,
      "ï¼ī": 298,
      "åĬ": 299,
      "âĢ": 300,
      "æĶ": 301,
      "ä¿": 302,
      "ãĢģ": 303,
      "åŁ": 304,
      "å·": 305,
      "ä¸Ģ": 306,
      "ä¹ĭ": 307,
      "æĸ": 308,
      "éķ": 309,
      "èĩ": 310,
      "åº": 311,
      "åľ¨": 312,
      "çĶ°": 313,
      "å±": 314,
      "åŁİ": 315,
      "åĲİ": 316,
      "å¤§": 317,
      "æ°ı": 318,
      "éķ¿": 319,
      "ç§": 320,
      "ä¼": 321,
      "å¾": 322,
      "ä¿¡": 323,
      "æĪĺ": 324,
      "å¯": 325,
      "åĩ": 326,
      "åŃ": 327,
      "åĨĽ": 328,
      "åĽ½": 329,
      "éĩ": 330,
      "æĺ¯": 331,
      "æī": 332,
      "å¼": 333,
      "éĥ": 334,
      "æĹ¶": 335,
      "è¯": 336,
      "äºĨ": 337,
      "è®": 338,
      "ä¸İ": 339,
      "çĽ": 340,
      "èĢ": 341,
      "åİ": 342,
      "æĹ¥": 343,
      "ä¸Ń": 344,
      "äºİ": 345,
      "èµ": 346,
      "éĢ": 347,
      "è´": 348,
      "ä¸Ĭ": 349,
      "äºº": 350,
      "å·Ŀ": 351,
      "å±±": 352,
      "æľĪ": 353,
      "æ²": 354,
      "ä¹ī": 355,
      "15": 356,
      "å½": 357,
      "ä¸ī": 358,
      "èĥ": 359,
      "ä¸į": 360,
      "å°Ĩ": 361,
      "éĺ": 362,
      "åŃĲ": 363,
      "ä»¥": 364,
      "å¿": 365,
      "ç§Ģ": 366,
      "åĮ": 367,
      "åĩº": 368,
      "æľī": 369,
      "å¥": 370,
      "è¢": 371,
      "æŃ£": 372,
      "âĢľ": 373,
      "âĢĿ": 374,
      "æŃ¦": 375,
      "åħĥ": 376,
      "ä¸ĭ": 377,
      "æĶ¿": 378,
      "åĲį": 379,
      "ä»£": 380,
      "éĻ": 381,
      "å¤©": 382,
      "æĬ": 383,
      "éģ": 384,
      "éĹ": 385,
      "çŃ": 386,
      "åī": 387,
      "æĪĲ": 388,
      "æľ¬": 389,
      "è§": 390,
      "æµ": 391,
      "å²": 392,
      "åľ°": 393,
      "èĢĮ": 394,
      "æķ": 395,
      "æŃ¤": 396,
      "åħ¶": 397,
      "é¢": 398,
      "æ´": 399,
      "åĪ©": 400,
      "è¢«": 401,
      "åĴ": 402,
      "å¸": 403,
      "è¡": 404,
      "æĻ": 405,
      "**": 406,
      "##": 407,
      "èĩ£": 408,
      "åĴĮ": 409,
      "çİ": 410,
      "éļ": 411,
      "çº": 412,
      "è¾": 413,
      "æ³": 414,
      "åįģ": 415,
      "çŁ": 416,
      "åīį": 417,
      "åĲī": 418,
      "ä¸»": 419,
      "è¶": 420,
      "æĸ¹": 421,
      "ç«": 422,
      "æ±": 423,
      "é¢Ĩ": 424,
      "åĨħ": 425,
      "è°": 426,
      "ä¾": 427,
      "åĲĮ": 428,
      "èĹ": 429,
      "å¯¹": 430,
      "å®Ī": 431,
      "ä»ĸ": 432,
      "èĩª": 433,
      "å¹¶": 434,
      "æ¯": 435,
      "æ¬": 436,
      "æĮ": 437,
      "åĳ": 438,
      "éĩį": 439,
      "åİŁ": 440,
      "åĽł": 441,
      "è¿Ļ": 442,
      "å°ı": 443,
      "æĿ¥": 444,
      "åĪ°": 445,
      "åº·": 446,
      "ç¦": 447,
      "åħµ": 448,
      "æĶ»": 449,
      "åĮĹ": 450,
      "äº²": 451,
      "çŃī": 452,
      "æĭ": 453,
      "åĬĽ": 454,
      "å¯º": 455,
      "ãģ": 456,
      "æİ": 457,
      "çĶŁ": 458,
      "äºĮ": 459,
      "é«": 460,
      "æ¬¡": 461,
      "é«ĺ": 462,
      "å®Ĺ": 463,
      "æ¸": 464,
      "çĪ": 465,
      "ä¿¡éķ¿": 466,
      "è¡Į": 467,
      "éĥ¨": 468,
      "ä½ľ": 469,
      "ä¹Ł": 470,
      "éĿ": 471,
      "éĩİ": 472,
      "ç»ĩ": 473,
      "å½ĵ": 474,
      "åħ¥": 475,
      "çķ": 476,
      "èĥľ": 477,
      "æĢ": 478,
      "ä½Ĩ": 479,
      "æĸĩ": 480,
      "åħ³": 481,
      "ç»ĩçĶ°": 482,
      "çĿ": 483,
      "æīĢ": 484,
      "çĦ": 485,
      "å¿ł": 486,
      "æł": 487,
      "ä¹ħ": 488,
      "è¿Ľ": 489,
      "è¦": 490,
      "åıĳ": 491,
      "ä»»": 492,
      "å¹³": 493,
      "æĿ¡": 494,
      "å¦": 495,
      "å°±": 496,
      "è¦ģ": 497,
      "ç«ĭ": 498,
      "ä¸ľ": 499,
      "åĲĳ": 500,
      "çŁ³": 501,
      "å®ļ": 502,
      "çĦ¶": 503,
      "æı": 504,
      "å¾·": 505,
      "èĩ³": 506,
      "æŀ": 507,
      "æľĿ": 508,
      "å²Ľ": 509,
      "ç§ĢåĲī": 510,
      "ç»§": 511,
      "å§": 512,
      "çĶ±": 513,
      "åĬ¿": 514,
      "å®ī": 515,
      "å¾Ĺ": 516,
      "äºĭ": 517,
      "æŃ¦çĶ°": 518,
      "çĽ´": 519,
      "ç¥": 520,
      "å¤ļ": 521,
      "è½": 522,
      "æ°¸": 523,
      "ä¼Ĭ": 524,
      "æĹ¶ä»£": 525,
      "ç¬": 526,
      "æĺİ": 527,
      "æĥ": 528,
      "çī": 529,
      "éĥ½": 530,
      "ï¼ļ": 531,
      "é©": 532,
      "æĦ": 533,
      "è¯´": 534,
      "ä¸°": 535,
      "æŃ»": 536,
      "æĻ¯": 537,
      "æ²³": 538,
      "æĿ¾": 539,
      "èĻ": 540,
      "ç§°": 541,
      "èĥ½": 542,
      "ä½į": 543,
      "æĽ": 544,
      "å®ŀ": 545,
      "çĪ¶": 546,
      "éģĵ": 547,
      "åĿ": 548,
      "ãĢĭ": 549,
      "ãĢĬ": 550,
      "æ±Ł": 551,
      "æį": 552,
      "ä»İ": 553,
      "äºĶ": 554,
      "ç¾": 555,
      "åĩ»": 556,
      "æ²»": 557,
      "å»": 558,
      "åºľ": 559,
      "éĹ´": 560,
      "åĽĽ": 561,
      "åı¯": 562,
      "å®¶åº·": 563,
      "åĬł": 564,
      "äºķ": 565,
      "å£": 566,
      "æ´¥": 567,
      "åıĬ": 568,
      "èĹ¤": 569,
      "çľ": 570,
      "èī": 571,
      "è®°": 572,
      "è¶³": 573,
      "èµĸ": 574,
      "æĿī": 575,
      "å®¶èĩ£": 576,
      "è§ģ": 577,
      "å¾·å·Ŀ": 578,
      "æľĢ": 579,
      "ä½Ĳ": 580,
      "ä¸ĸ": 581,
      "éĹ¨": 582,
      "è¿ĩ": 583,
      "ç»ı": 584,
      "åĪĨ": 585,
      "èģ": 586,
      "å¼Ģ": 587,
      "å¤©æŃ£": 588,
      "çĻ": 589,
      "è¿ĳ": 590,
      "ä»Ĭ": 591,
      "ä¸ĬæĿī": 592,
      "éĺµ": 593,
      "èº": 594,
      "ï¼Ľ": 595,
      "¥¿": 596,
      "çĽ¸": 597,
      "è¥¿": 598,
      "éĽ": 599,
      "ä¼Ĺ": 600,
      "èµ·": 601,
      "æľŁ": 602,
      "æ¯Ľ": 603,
      "ä¹ĭæĪĺ": 604,
      "èº«": 605,
      "éĢļ": 606,
      "éĿ¢": 607,
      "æĿĳ": 608,
      "ä¸ª": 609,
      "å¤ĸ": 610,
      "åħī": 611,
      "åİ»": 612,
      "äº¬": 613,
      "å¹ķ": 614,
      "è¶Ĭ": 615,
      "æĹł": 616,
      "æ¯ĽåĪ©": 617,
      "ä¸¤": 618,
      "åĲĪ": 619,
      "æ¸ħ": 620,
      "16": 621,
      "åĬ¨": 622,
      "è·": 623,
      "è±": 624,
      "æĬ¤": 625,
      "åĪĻ": 626,
      "éĥ¡": 627,
      "æ³ķ": 628,
      "æį®": 629,
      "åĳ½": 630,
      "å·²": 631,
      "éļı": 632,
      "ç¦Ħ": 633,
      "æĪ·": 634,
      "åľŁ": 635,
      "çģ": 636,
      "æŁ": 637,
      "åħŃ": 638,
      "åĮĹæĿ¡": 639,
      "æī¿": 640,
      "å¦Ĥ": 641,
      "èĢħ": 642,
      "ä½¿": 643,
      "æĮģ": 644,
      "åıĪ": 645,
      "é¦": 646,
      "ç¬¬": 647,
      "äº¦": 648,
      "ä¼ļ": 649,
      "æľ¨": 650,
      "åħ«": 651,
      "åį«": 652,
      "åħ¬": 653,
      "æ¡": 654,
      "æĹı": 655,
      "åºĨ": 656,
      "å°¾": 657,
      "æĿĥ": 658,
      "æĪĲä¸º": 659,
      "åĽŀ": 660,
      "çĿĢ": 661,
      "å¹ķåºľ": 662,
      "ç®": 663,
      "èĲ": 664,
      "æĪĺåĽ½": 665,
      "éĥİ": 666,
      "ä¹Ŀ": 667,
      "é©¬": 668,
      "å¼Ł": 669,
      "00": 670,
      "ä½ľä¸º": 671,
      "æģ": 672,
      "è¾¾": 673,
      "ä»ĵ": 674,
      "éļĨ": 675,
      "ä¹±": 676,
      "è¶³åĪ©": 677,
      "åĢ": 678,
      "å¥½": 679,
      "å£«": 680,
      "ç¤": 681,
      "çĶ¨": 682,
      "ä¸ĩ": 683,
      "ç³": 684,
      "æĹ¥æľ¬": 685,
      "éª": 686,
      "åįĥ": 687,
      "çİ°": 688,
      "ä¼ł": 689,
      "åºĶ": 690,
      "åıĹ": 691,
      "æĸ°": 692,
      "ç»Ł": 693,
      "å±ħ": 694,
      "èĬ": 695,
      "ç½": 696,
      "é¾": 697,
      "èİ": 698,
      "æ»": 699,
      "éĤ": 700,
      "ç³»": 701,
      "å¾¡": 702,
      "é¡": 703,
      "æ´¾": 704,
      "åł": 705,
      "è´¥": 706,
      "å¤§åĲį": 707,
      "åıį": 708,
      "æĿĢ": 709,
      "èĮ": 710,
      "åıĸ": 711,
      "æīĭ": 712,
      "ä»¤": 713,
      "çĽĽ": 714,
      "æ®": 715,
      "å¿ĥ": 716,
      "ä¸°èĩ£": 717,
      "ç»ĵ": 718,
      "å¤ĩ": 719,
      "æĶ¯": 720,
      "èĭ": 721,
      "åħĪ": 722,
      "èĪ": 723,
      "ä¹¦": 724,
      "ä¸ĥ": 725,
      "äº¤": 726,
      "å¾Ģ": 727,
      "çİĩ": 728,
      "éĺŁ": 729,
      "åĨį": 730,
      "åįĹ": 731,
      "åĪ¶": 732,
      "è¿ĺ": 733,
      "è´º": 734,
      "çĶº": 735,
      "æĻ´": 736,
      "åıĭ": 737,
      "åį³": 738,
      "âĢĶ": 739,
      "å´": 740,
      "å¥³": 741,
      "å¸Ĥ": 742,
      "ä¾¿": 743,
      "ç¥ŀ": 744,
      "åħ´": 745,
      "æº": 746,
      "éĢĢ": 747,
      "å¢": 748,
      "æ°´": 749,
      "ç»§æī¿": 750,
      "å¤Ħ": 751,
      "åħ¨": 752,
      "çŁ¥": 753,
      "å°ĨåĨĽ": 754,
      "ç»Ī": 755,
      "åıĤ": 756,
      "å»º": 757,
      "çľŁ": 758,
      "çĲ": 759,
      "ç¨": 760,
      "æ¶": 761,
      "èİ·": 762,
      "14": 763,
      "ä¿Ŀ": 764,
      "åĬŁ": 765,
      "æĦı": 766,
      "çº²": 767,
      "å·ŀ": 768,
      "å®ĪæĬ¤": 769,
      "158": 770,
      "æĽ¾": 771,
      "æĪĳ": 772,
      "æµģ": 773,
      "ç»ĩçĶ°ä¿¡éķ¿": 774,
      "å¥ī": 775,
      "æµĵ": 776,
      "çĿ£": 777,
      "ç»Ĩ": 778,
      "ç»Ļ": 779,
      "æľª": 780,
      "æ²¡": 781,
      "ç¾½": 782,
      "157": 783,
      "æķĮ": 784,
      "çł": 785,
      "å¾ģ": 786,
      "æ·": 787,
      "çĤ": 788,
      "åİĨ": 789,
      "æİ¥": 790,
      "å®¤": 791,
      "æĹ©": 792,
      "åģ": 793,
      "å®«": 794,
      "ãĤ": 795,
      "åº¦": 796,
      "åį´": 797,
      "è®¤": 798,
      "çļĩ": 799,
      "æĶ¹": 800,
      "äº¬éĥ½": 801,
      "å§ĭ": 802,
      "èį": 803,
      "çĶ²": 804,
      "çĭ": 805,
      "æ°¸ç¦Ħ": 806,
      "å¤ª": 807,
      "å¹¿": 808,
      "èĹ©": 809,
      "éĩĮ": 810,
      "èĻİ": 811,
      "æµ·": 812,
      "ä»¬": 813,
      "åĸ": 814,
      "çŃĳ": 815,
      "åı²": 816,
      "å·¦": 817,
      "éĻ¢": 818,
      "ç»Ń": 819,
      "åĿĤ": 820,
      "åĪĿ": 821,
      "éĵ": 822,
      "æĭħ": 823,
      "å®ĺ": 824,
      "æķĻ": 825,
      "å¤©æĸĩ": 826,
      "åĦ": 827,
      "ç»Ĩå·Ŀ": 828,
      "å¸¸": 829,
      "åĵ": 830,
      "è´ŀ": 831,
      "æ¦": 832,
      "###": 833,
      "æŃ¦å°Ĩ": 834,
      "æ³¢": 835,
      "æı´": 836,
      "ä¸¸": 837,
      "çī©": 838,
      "å·±": 839,
      "156": 840,
      "æĴ": 841,
      "åĬ¿åĬĽ": 842,
      "æĮĩ": 843,
      "ä»Ĭå·Ŀ": 844,
      "å«": 845,
      "å®¶çĿ£": 846,
      "éĶ": 847,
      "çİĦ": 848,
      "è°·": 849,
      "å±±åŁİ": 850,
      "èī¯": 851,
      "å¼ł": 852,
      "æīĵ": 853,
      "è¶³åĪ©ä¹ī": 854,
      "è¾ī": 855,
      "èĤ": 856,
      "è¿ľ": 857,
      "ç¾İ": 858,
      "å²Ľæ´¥": 859,
      "èĻ½": 860,
      "åĬ©": 861,
      "åıª": 862,
      "10": 863,
      "æĪĺåĽ½æĹ¶ä»£": 864,
      "å¾·å·Ŀå®¶åº·": 865,
      "åľº": 866,
      "åĨĪ": 867,
      "è®©": 868,
      "çĲĨ": 869,
      "åĦ¿": 870,
      "æĪĸ": 871,
      "ç¼": 872,
      "é¢Ĩåľ°": 873,
      "åºĨéķ¿": 874,
      "è¿ŀ": 875,
      "æ±ŁæĪ·": 876,
      "çĻ¾": 877,
      "æºĲ": 878,
      "åĽ´": 879,
      "æ»¡": 880,
      "äºī": 881,
      "èģĮ": 882,
      "æ¦Ĥ": 883,
      "è¯¸": 884,
      "é¦ĸ": 885,
      "äº¡": 886,
      "åı£": 887,
      "ç§į": 888,
      "å´İ": 889,
      "åħ»": 890,
      "æĪ¿": 891,
      "èģĶ": 892,
      "çĬ": 893,
      "åıĺ": 894,
      "æ±Ĥ": 895,
      "æ¨": 896,
      "åı³": 897,
      "åı¤": 898,
      "æĢ»": 899,
      "åĨ³": 900,
      "é£": 901,
      "è·¯": 902,
      "åĭ": 903,
      "æĳ": 904,
      "èĩªå·±": 905,
      "å±ŀ": 906,
      "åħĦ": 907,
      "12": 908,
      "çĦ¶èĢĮ": 909,
      "çĮ": 910,
      "çķĻ": 911,
      "éģĤ": 912,
      "å²ģ": 913,
      "å±ĭ": 914,
      "æĺĮ": 915,
      "å¹¸": 916,
      "è½¬": 917,
      "è¯·": 918,
      "éħ": 919,
      "æķ°": 920,
      "èĢģ": 921,
      "å¤±": 922,
      "å½ĵæĹ¶": 923,
      "è±«": 924,
      "å¤´": 925,
      "èĲ½": 926,
      "ä»ħ": 927,
      "æŁ´": 928,
      "éĢĥ": 929,
      "æĶ¶": 930,
      "å¼º": 931,
      "é»": 932,
      "è®¨": 933,
      "çª": 934,
      "è½½": 935,
      "åĮĸ": 936,
      "éĻ·": 937,
      "æł·": 938,
      "èĹı": 939,
      "éģŃ": 940,
      "åĮħ": 941,
      "æ¦Ĥè¦ģ": 942,
      "å¼ĺ": 943,
      "æ£": 944,
      "ä»į": 945,
      "å¼Ģå§ĭ": 946,
      "ç¡": 947,
      "æĭħä»»": 948,
      "ä¿¡çİĦ": 949,
      "11": 950,
      "åĲĦ": 951,
      "ç®¡": 952,
      "è¨": 953,
      "ä¸īå¥½": 954,
      "ä¸¾": 955,
      "åİ¿": 956,
      "å°ģ": 957,
      "åŁº": 958,
      "è¡¨": 959,
      "è¨Ģ": 960,
      "å°¼": 961,
      "åħ³ä¸ľ": 962,
      "å½¢": 963,
      "ä¼Ĳ": 964,
      "éĻį": 965,
      "å½Ĵ": 966,
      "çĪ¶äº²": 967,
      "é¾Ļ": 968,
      "äºĮåįģ": 969,
      "åħ¼": 970,
      "å¤§åĨħ": 971,
      "å¤§åıĭ": 972,
      "13": 973,
      "ç©": 974,
      "æĬķ": 975,
      "éĺ²": 976,
      "éĤ£": 977,
      "è§Ĩ": 978,
      "åŃĺ": 979,
      "èµĲ": 980,
      "æıĲ": 981,
      "çķ¥": 982,
      "åĮº": 983,
      "å®ĩ": 984,
      "èĬ±": 985,
      "å½¹": 986,
      "éĢł": 987,
      "æł¹": 988,
      "æĺ¥": 989,
      "åı¦": 990,
      "åĲĮå¹´": 991,
      "çİĭ": 992,
      "åİ»ä¸ĸ": 993,
      "è®®": 994,
      "è¾¹": 995,
      "è£": 996,
      "èĳ": 997,
      "åħĥå¹´": 998,
      "159": 999,
      "æĺ¾": 1000,
      "åĽ¾": 1001,
      "æĶ¾": 1002,
      "å¤©çļĩ": 1003,
      "æľį": 1004,
      "éĩĳ": 1005,
      "çĹ": 1006,
      "è®¤ä¸º": 1007,
      "è°¦": 1008,
      "ä»ķ": 1009,
      "ä¹ĭåĲİ": 1010,
      "èĩ´": 1011,
      "æĥħ": 1012,
      "æµħ": 1013,
      "æĽ´": 1014,
      "æĸĭ": 1015,
      "ä½ĵ": 1016,
      "éķĩ": 1017,
      "å¤į": 1018,
      "å°ĳ": 1019,
      "å¸¦": 1020,
      "æĬĹ": 1021,
      "å«¡": 1022,
      "ç¦ı": 1023,
      "åĥ": 1024,
      "èĭ¥": 1025,
      "åĪ«": 1026,
      "çģŃ": 1027,
      "å¼ı": 1028,
      "æ®¿": 1029,
      "å¯Į": 1030,
      "è°¦ä¿¡": 1031,
      "ç±": 1032,
      "æĿ¾å¹³": 1033,
      "åĽłä¸º": 1034,
      "çĤ¹": 1035,
      "çĻ½": 1036,
      "æļ": 1037,
      "çĥ": 1038,
      "ä½Ļ": 1039,
      "åĽłæŃ¤": 1040,
      "ç«¹": 1041,
      "å¸ĥ": 1042,
      "çĶ·": 1043,
      "æĪĺæŃ»": 1044,
      "æ¯į": 1045,
      "ä¹ĭåŃĲ": 1046,
      "åı·": 1047,
      "ãĥ": 1048,
      "åĲİæĿ¥": 1049,
      "å¤º": 1050,
      "åºĦ": 1051,
      "Â·": 1052,
      "æľº": 1053,
      "çªģ": 1054,
      "è§Ĵ": 1055,
      "æ±ł": 1056,
      "ç¿": 1057,
      "éľ": 1058,
      "è¿ĽæĶ»": 1059,
      "éĻĨ": 1060,
      "äº«": 1061,
      "ç¦»": 1062,
      "æ²¡æľī": 1063,
      "æ¿": 1064,
      "ç¤¾": 1065,
      "å°¼åŃĲ": 1066,
      "155": 1067,
      "å¨": 1068,
      "éĽĨ": 1069,
      "ä¸Ķ": 1070,
      "æĹ§": 1071,
      "è¯Ń": 1072,
      "è´Ł": 1073,
      "è¯¥": 1074,
      "æĸŃ": 1075,
      "æĻº": 1076,
      "åĲĪæĪĺ": 1077,
      "è§£": 1078,
      "çº¦": 1079,
      "ä»½": 1080,
      "æĦ¿": 1081,
      "æĤ": 1082,
      "éº": 1083,
      "æīį": 1084,
      "ä¹¡": 1085,
      "çĽ®": 1086,
      "è¢Ń": 1087,
      "éĺ¿": 1088,
      "æĸ¹éĿ¢": 1089,
      "åħ³ç³»": 1090,
      "çģ«": 1091,
      "å²©": 1092,
      "æĺŃ": 1093,
      "ç²": 1094,
      "æŀģ": 1095,
      "å±ķ": 1096,
      "å§ĵ": 1097,
      "ä¼Ĭè¾¾": 1098,
      "æŀľ": 1099,
      "æĬĬ": 1100,
      "ãĢį": 1101,
      "ãĢĮ": 1102,
      "åŃĻ": 1103,
      "é»ĳ": 1104,
      "è´£": 1105,
      "ä¾µ": 1106,
      "çĽŁ": 1107,
      "æŃ¦å£«": 1108,
      "æŃ¤æĹ¶": 1109,
      "è°ĭ": 1110,
      "éĻ¤": 1111,
      "åŃĿ": 1112,
      "è®°è½½": 1113,
      "èµĦ": 1114,
      "æ´»": 1115,
      "åħ±": 1116,
      "ç¡®": 1117,
      "éĿŀ": 1118,
      "åĳ¨": 1119,
      "äºĳ": 1120,
      "æĥ³": 1121,
      "ä¸°èĩ£ç§ĢåĲī": 1122,
      "ä¸¹": 1123,
      "éķ°": 1124,
      "æ¯Ķ": 1125,
      "äºĽ": 1126,
      "åıĽ": 1127,
      "åŃĹ": 1128,
      "ä¸īæ²³": 1129,
      "æ°ĳ": 1130,
      "æĢ§": 1131,
      "åĬ¡": 1132,
      "é¹": 1133,
      "æķħ": 1134,
      "åĲĮæĹ¶": 1135,
      "æ·±": 1136,
      "éªı": 1137,
      "æľĿä»ĵ": 1138,
      "åĸľ": 1139,
      "19": 1140,
      "è¿½": 1141,
      "çķł": 1142,
      "èĦ": 1143,
      "çĬ¶": 1144,
      "çĹħ": 1145,
      "è®¾": 1146,
      "çºª": 1147,
      "ä¸Ģä¸ª": 1148,
      "æıĨ": 1149,
      "ä¸īå¹´": 1150,
      "å°½": 1151,
      "å½ĵä¸»": 1152,
      "è®¸": 1153,
      "äºİæĺ¯": 1154,
      "ä¸ĢæıĨ": 1155,
      "äºĮå¹´": 1156,
      "ä»¶": 1157,
      "æĸĻ": 1158,
      "é¾Ł": 1159,
      "çľĭ": 1160,
      "18": 1161,
      "é¥": 1162,
      "éļ¾": 1163,
      "çĸ": 1164,
      "å°ļ": 1165,
      "ç¾İæµĵ": 1166,
      "å¥¥": 1167,
      "ç»Ŀ": 1168,
      "ä¹ĭä¹±": 1169,
      "å¢ŀ": 1170,
      "æĸĲ": 1171,
      "ä½Ĩæĺ¯": 1172,
      "éĢĲ": 1173,
      "èµ¤": 1174,
      "ä¸ĢåĲĮ": 1175,
      "çł´": 1176,
      "å®¤çĶº": 1177,
      "æĸĹ": 1178,
      "èīº": 1179,
      "è¿Ľåħ¥": 1180,
      "æİ¨": 1181,
      "éĩįèĩ£": 1182,
      "éķ°ä»ĵ": 1183,
      "ä½ı": 1184,
      "æ³½": 1185,
      "éĴ": 1186,
      "è¿ĳæ±Ł": 1187,
      "å¸Ī": 1188,
      "åŃ¦": 1189,
      "å¾Ī": 1190,
      "ä»¥åıĬ": 1191,
      "å®Į": 1192,
      "æĺĵ": 1193,
      "154": 1194,
      "æľĢç»Ī": 1195,
      "ä¿®": 1196,
      "ä¸ĩçŁ³": 1197,
      "é²": 1198,
      "çĶ²æĸĲ": 1199,
      "åŀ": 1200,
      "åįĬ": 1201,
      "èī²": 1202,
      "å°¾å¼ł": 1203,
      "è®¡": 1204,
      "åīįå¾Ģ": 1205,
      "å²Ĳ": 1206,
      "åķ": 1207,
      "ä¾į": 1208,
      "å°ıçĶ°": 1209,
      "ç¤º": 1210,
      "ä¿¡æµĵ": 1211,
      "èĮĤ": 1212,
      "å¤§åĿĤ": 1213,
      "ä¼ĬåĬ¿": 1214,
      "å¿Ĺ": 1215,
      "æµ¦": 1216,
      "èº«ä»½": 1217,
      "å¯¼": 1218,
      "ç§ĭ": 1219,
      "å¼ķ": 1220,
      "å®½": 1221,
      "ä¾Ŀ": 1222,
      "éĻĦ": 1223,
      "éĻħ": 1224,
      "æŃ¤åĲİ": 1225,
      "çĶ±äºİ": 1226,
      "æ¢": 1227,
      "å°±æĺ¯": 1228,
      "æĴ¤": 1229,
      "éģĹ": 1230,
      "æĶ»åĩ»": 1231,
      "å®īåľŁ": 1232,
      "æ´Ľ": 1233,
      "æĹ¶æľŁ": 1234,
      "å¦»": 1235,
      "è´¤": 1236,
      "åĪĢ": 1237,
      "é¡»": 1238,
      "æĬµ": 1239,
      "éĹ®": 1240,
      "åĩºåħµ": 1241,
      "ä¸įè¿ĩ": 1242,
      "å»¶": 1243,
      "ç¹": 1244,
      "ç¹ģ": 1245,
      "æĭ¥": 1246,
      "é¸": 1247,
      "åĲĽ": 1248,
      "åĪĩ": 1249,
      "é£İ": 1250,
      "ä¸ļ": 1251,
      "æ£®": 1252,
      "ç½®": 1253,
      "åĽ¢": 1254,
      "èĪ¹": 1255,
      "ä¼ı": 1256,
      "ç´": 1257,
      "æĹĹ": 1258,
      "éģ£": 1259,
      "è¶ĬåĲİ": 1260,
      "éĽĦ": 1261,
      "åħ·": 1262,
      "éļıåĲİ": 1263,
      "è¿Ķ": 1264,
      "æµħäºķ": 1265,
      "è¿Ľè¡Į": 1266,
      "åħīç§Ģ": 1267,
      "åĳĺ": 1268,
      "é¦Ĩ": 1269,
      "å¤«": 1270,
      "æ¡¥": 1271,
      "ä¹Ŀå·ŀ": 1272,
      "ä»ĸä»¬": 1273,
      "20": 1274,
      "ç¥ĸ": 1275,
      "æľĽ": 1276,
      "éªĳ": 1277,
      "åłĤ": 1278,
      "ä¹ĭä¸Ģ": 1279,
      "åĽ½äºº": 1280,
      "éĹ»": 1281,
      "åħ³åİŁ": 1282,
      "åħ»åŃĲ": 1283,
      "ï¼Ł": 1284,
      "éķ¿å°¾": 1285,
      "å®ª": 1286,
      "ä»ĭ": 1287,
      "æĸĭèĹ¤": 1288,
      "æ¸¡": 1289,
      "è¿İ": 1290,
      "è¿Ĳ": 1291,
      "éĢģ": 1292,
      "åŁİä¸»": 1293,
      "çĽĬ": 1294,
      "å±Ģ": 1295,
      "ä¸ºäºĨ": 1296,
      "åĳĬ": 1297,
      "ä¾§": 1298,
      "èĥĮ": 1299,
      "èĮ¶": 1300,
      "çŃĸ": 1301,
      "éħį": 1302,
      "åį«éĹ¨": 1303,
      "è±ª": 1304,
      "æŃ¦çĶ°ä¿¡çİĦ": 1305,
      "æĬ¥": 1306,
      "éĵģ": 1307,
      "è½»": 1308,
      "ç«ĭèĬ±": 1309,
      "éļĲ": 1310,
      "åĩĨ": 1311,
      "æĦŁ": 1312,
      "èµ°": 1313,
      "èĤ¥": 1314,
      "çľŁçĶ°": 1315,
      "é²ľ": 1316,
      "åħ¬æĸ¹": 1317,
      "è´¨": 1318,
      "åľ°åĮº": 1319,
      "åĨ²": 1320,
      "ä»ģ": 1321,
      "å·¦åį«éĹ¨": 1322,
      "åıĮ": 1323,
      "éĩı": 1324,
      "æĶ¯æĮģ": 1325,
      "éī": 1326,
      "éī´": 1327,
      "åįł": 1328,
      "çķłå±±": 1329,
      "æ¶Ī": 1330,
      "æ¡ĥ": 1331,
      "çº³": 1332,
      "17": 1333,
      "çħ": 1334,
      "æŀª": 1335,
      "èı": 1336,
      "ç»Łæ²»": 1337,
      "æ³ī": 1338,
      "å¤ľ": 1339,
      "è¯¦": 1340,
      "å½ķ": 1341,
      "ä¸īæĪĲ": 1342,
      "èħ": 1343,
      "æĶ¿æĿĥ": 1344,
      "æĸ¯": 1345,
      "æ¨¡": 1346,
      "è§Ĥ": 1347,
      "è¿«": 1348,
      "å¥īè¡Į": 1349,
      "æľ«": 1350,
      "é¡º": 1351,
      "è´Łè´£": 1352,
      "åĪĹ": 1353,
      "è¶Ĭåīį": 1354,
      "å·²ç»ı": 1355,
      "åĦ¿åŃĲ": 1356,
      "åĵį": 1357,
      "è°±": 1358,
      "ç¿Į": 1359,
      "æŃ¤å¤ĸ": 1360,
      "å®£": 1361,
      "æľĢåĲİ": 1362,
      "å½±": 1363,
      "çº¿": 1364,
      "æĹ¥è¯Ń": 1365,
      "æķ´": 1366,
      "æľĿé²ľ": 1367,
      "äººçī©": 1368,
      "å¾ħ": 1369,
      "çĪ¶åŃĲ": 1370,
      "ç§»": 1371,
      "å¤§å°Ĩ": 1372,
      "çĻ»": 1373,
      "å·¥": 1374,
      "ãĥ»": 1375,
      "è¿ĻäºĽ": 1376,
      "åı¯èĥ½": 1377,
      "åĮħåĽ´": 1378,
      "çİĩé¢Ĩ": 1379,
      "å©": 1380,
      "å³": 1381,
      "ç§°ä¸º": 1382,
      "ä¹Ī": 1383,
      "çī¹": 1384,
      "æŃ¥": 1385,
      "æĺİæĻº": 1386,
      "ç±³": 1387,
      "éĢļè¿ĩ": 1388,
      "ä¸¥": 1389,
      "éĩįè¦ģ": 1390,
      "åĽĽå¹´": 1391,
      "è¾ħ": 1392,
      "æ¾": 1393,
      "åłĢ": 1394,
      "åĭĩ": 1395,
      "ç¾½æŁ´": 1396,
      "ä¹Ĳ": 1397,
      "åıĳçĶŁ": 1398,
      "åĩł": 1399,
      "ä¸Ĭæ´Ľ": 1400,
      "ä¸Ĭéĩİ": 1401,
      "å«¡åŃĲ": 1402,
      "å¹¡": 1403,
      "éķ¿æĶ¿": 1404,
      "åİĭ": 1405,
      "åĨĽäºĭ": 1406,
      "æŀĹ": 1407,
      "åįģä¸Ģ": 1408,
      "åĢĴ": 1409,
      "å¿ħ": 1410,
      "åĳ½ä»¤": 1411,
      "000": 1412,
      "æĳĦ": 1413,
      "éªıæ²³": 1414,
      "åķĨ": 1415,
      "ä¹ĭéĹ´": 1416,
      "å°ıçĶ°åİŁ": 1417,
      "é©»": 1418,
      "ä½ķ": 1419,
      "èĲ¥": 1420,
      "çļĨ": 1421,
      "å¤©ä¸ĭ": 1422,
      "èĥľèµĸ": 1423,
      "æŃ¢": 1424,
      "ãģ®": 1425,
      "è¿Ļä¸ª": 1426,
      "ä¸ĬæĿīè°¦ä¿¡": 1427,
      "ä¹ĥ": 1428,
      "åıĤä¸İ": 1429,
      "éĶĭ": 1430,
      "è§Ħ": 1431,
      "åĮĹæĿ¡æ°ı": 1432,
      "åı³åį«": 1433,
      "è°ĥ": 1434,
      "æľ¯": 1435,
      "å®³": 1436,
      "å¨ģ": 1437,
      "åĶ": 1438,
      "æĶ¿å®Ĺ": 1439,
      "çĪ±": 1440,
      "å°Ĭ": 1441,
      "çº§": 1442,
      "è®¨ä¼Ĳ": 1443,
      "æ°Ķ": 1444,
      "å¾ģä¼Ĳ": 1445,
      "çĭ¬": 1446,
      "åı¶": 1447,
      "ä¿Ĭ": 1448,
      "è¾īåħĥ": 1449,
      "æ¼": 1450,
      "æ¡ĥå±±": 1451,
      "å¹¼": 1452,
      "çĨ": 1453,
      "è¥¿åĨĽ": 1454,
      "çĪĨ": 1455,
      "ç®¡é¢Ĩ": 1456,
      "åģļ": 1457,
      "é¢Ĩä¸»": 1458,
      "åħµåĬĽ": 1459,
      "æĹ©å·Ŀ": 1460,
      "åľ°æĸ¹": 1461,
      "153": 1462,
      "çħ§": 1463,
      "æ¶¯": 1464,
      "åħŃè§Ĵ": 1465,
      "çĶŁæ¶¯": 1466,
      "çº·": 1467,
      "éĽª": 1468,
      "åħ¶ä¸Ń": 1469,
      "ä»¥åĲİ": 1470,
      "æ¡ĥå±±æĹ¶ä»£": 1471,
      "æİ§": 1472,
      "æĮ¥": 1473,
      "æŀĦ": 1474,
      "åĨ³å®ļ": 1475,
      "èĳĹ": 1476,
      "çĶļ": 1477,
      "ä¹ĺ": 1478,
      "åīįçĶ°": 1479,
      "æ¾Ħ": 1480,
      "å®īåľŁæ¡ĥå±±æĹ¶ä»£": 1481,
      "æĸĩä¹¦": 1482,
      "çĪĨåıĳ": 1483,
      "èĥ¤": 1484,
      "äºĶå¹´": 1485,
      "å¢ĥ": 1486,
      "é¢ĺ": 1487,
      "åº§": 1488,
      "æī©": 1489,
      "å°ıæĹ©å·Ŀ": 1490,
      "æĬķéĻį": 1491,
      "åĪĴ": 1492,
      "æ°¸æŃ£": 1493,
      "å»·": 1494,
      "åħį": 1495,
      "åĩºçİ°": 1496,
      "åĽº": 1497,
      "åıĤåĬł": 1498,
      "éĨ": 1499,
      "è¿¹": 1500,
      "åĢĻ": 1501,
      "èĮĥ": 1502,
      "ä½Ĳç«¹": 1503,
      "è®º": 1504,
      "æİĮ": 1505,
      "è¿°": 1506,
      "æĦ¿å¯º": 1507,
      "èĻ½çĦ¶": 1508,
      "åĺ": 1509,
      "æĶ¿æ²»": 1510,
      "åİĨåı²": 1511,
      "åĿļ": 1512,
      "æľ¬æĦ¿å¯º": 1513,
      "å®īèīº": 1514,
      "åħĦå¼Ł": 1515,
      "ä»»åĳ½": 1516,
      "åħµåį«": 1517,
      "äº§": 1518,
      "ç¤¼": 1519,
      "æģ¯": 1520,
      "ç»Ħ": 1521,
      "åĨµ": 1522,
      "å¾ĹåĪ°": 1523,
      "æł¼": 1524,
      "æĸĩç¦Ħ": 1525,
      "æīĢä»¥": 1526,
      "æħ": 1527,
      "ç¬ł": 1528,
      "æ¿Ģ": 1529,
      "åı¸": 1530,
      "æĻ¯èĥľ": 1531,
      "çĭŃ": 1532,
      "æ¸Ĳ": 1533,
      "å¼ĥ": 1534,
      "160": 1535,
      "ä¸ĢåĲĳ": 1536,
      "åı°": 1537,
      "éĥ¨éĺŁ": 1538,
      "ä¼¤": 1539,
      "èĴ": 1540,
      "å®Ŀ": 1541,
      "é¸Ł": 1542,
      "ä¸ĢæĹı": 1543,
      "çĤ®": 1544,
      "æľĿå»·": 1545,
      "åĩºçĶŁ": 1546,
      "å§¬": 1547,
      "ç£": 1548,
      "ç¾½æŁ´ç§ĢåĲī": 1549,
      "åĸĦ": 1550,
      "éĥ¨åĪĨ": 1551,
      "è®¿": 1552,
      "è·Ł": 1553,
      "ç»ĩçĶ°ä¿¡": 1554,
      "è¯´æ³ķ": 1555,
      "æĪĳéĥ¨": 1556,
      "èİ·å¾Ĺ": 1557,
      "åįģäºĮ": 1558,
      "æ¨ª": 1559,
      "åı²æĸĻ": 1560,
      "çģŃäº¡": 1561,
      "æĸ½": 1562,
      "åįı": 1563,
      "è¯ģ": 1564,
      "åĨĻ": 1565,
      "å®¶æĹı": 1566,
      "æĢģ": 1567,
      "è¯Ŀ": 1568,
      "éĢĶ": 1569,
      "æ³°": 1570,
      "å¯¹ç«ĭ": 1571,
      "éĢŁ": 1572,
      "æļĹ": 1573,
      "éķ¿å®Ĺ": 1574,
      "ä½Ľ": 1575,
      "ä¾ĭ": 1576,
      "åĥ§": 1577,
      "æ²¼": 1578,
      "ä½ľæĪĺ": 1579,
      "çĮ®": 1580,
      "å¯Ĩ": 1581,
      "ä¹īåħĥ": 1582,
      "é»ĳçĶ°": 1583,
      "æĶ»æīĵ": 1584,
      "å¼Ĥ": 1585,
      "æĸ©": 1586,
      "éĺª": 1587,
      "èĥľå®¶": 1588,
      "éķ¿å®ĹæĪĳéĥ¨": 1589,
      "æī§": 1590,
      "èµı": 1591,
      "æĪĺæĸĹ": 1592,
      "äº¤æĪĺ": 1593,
      "ç»§ç»Ń": 1594,
      "äº«å¹´": 1595,
      "éĢĿ": 1596,
      "åĬĿ": 1597,
      "å±±åĲį": 1598,
      "ç¬¬ä¸Ģ": 1599,
      "åĹ": 1600,
      "è§Ĩä¸º": 1601,
      "åĽŃ": 1602,
      "æ¿ĳ": 1603,
      "å¼¥": 1604,
      "åĪĽ": 1605,
      "ä¸įè¯¦": 1606,
      "åĢŁ": 1607,
      "åı¬": 1608,
      "æľŁéĹ´": 1609,
      "å¤§åĴĮ": 1610,
      "æķĳ": 1611,
      "å®ħ": 1612,
      "æĪĲåĬŁ": 1613,
      "åĥı": 1614,
      "ç®Ĺ": 1615,
      "äºĭä»¶": 1616,
      "å®¶èĢģ": 1617,
      "å²³": 1618,
      "è§ī": 1619,
      "æĹłæ³ķ": 1620,
      "åľ°ä½į": 1621,
      "åĩºèº«": 1622,
      "éħĴ": 1623,
      "åĨįæ¬¡": 1624,
      "å¤§åĨĽ": 1625,
      "éķ¿åŃĲ": 1626,
      "æĢ¥": 1627,
      "åı¯ä»¥": 1628,
      "èĪ¬": 1629,
      "ä»ĺ": 1630,
      "æŁ´çĶ°": 1631,
      "ç¨ĭ": 1632,
      "åıĳåĬ¨": 1633,
      "ä½įäºİ": 1634,
      "åįĴ": 1635,
      "å±±åĨħ": 1636,
      "è°Ī": 1637,
      "æ´¾éģ£": 1638,
      "æĲ": 1639,
      "åıĮæĸ¹": 1640,
      "åĲīå·Ŀ": 1641,
      "å¼Łå¼Ł": 1642,
      "ä»ķäºİ": 1643,
      "èª": 1644,
      "æĶ»éĻ·": 1645,
      "åĪ»": 1646,
      "åħĥé¾Ł": 1647,
      "å½±åĵį": 1648,
      "çŁ³çĶ°": 1649,
      "åĬłè´º": 1650,
      "æĴŃ": 1651,
      "ä¸´": 1652,
      "ä¹İ": 1653,
      "ä¸ľåĨĽ": 1654,
      "æŃĮ": 1655,
      "æ»¨": 1656,
      "ç§Ģå¿ł": 1657,
      "çķª": 1658,
      "å¡": 1659,
      "è¿ĶåĽŀ": 1660,
      "å¤§éĺª": 1661,
      "éĻ¶": 1662,
      "ç»´": 1663,
      "æ¬¡åŃĲ": 1664,
      "å£°": 1665,
      "è¶Ĭä¸Ń": 1666,
      "æĴ¤éĢĢ": 1667,
      "ä¼¼": 1668,
      "æ®µ": 1669,
      "æĳ©": 1670,
      "ä¹ĭåıĺ": 1671,
      "å¹³å®ļ": 1672,
      "åį°": 1673,
      "åĲĮçĽŁ": 1674,
      "åĹ£": 1675,
      "ç¦ģ": 1676,
      "éĿł": 1677,
      "å¾Ĵ": 1678,
      "å±ħåŁİ": 1679,
      "åıĹåĪ°": 1680,
      "æľ¬èĥ½": 1681,
      "éĩĩ": 1682,
      "ä¸»è¦ģ": 1683,
      "æı´åĨĽ": 1684,
      "æ²³åĨħ": 1685,
      "æľ¬èĥ½å¯º": 1686,
      "ä¸ĢçĽ´": 1687,
      "æ¸¸": 1688,
      "åĲ¬": 1689,
      "ç£¨": 1690,
      "ç»Łä¸Ģ": 1691,
      "è¯·æ±Ĥ": 1692,
      "ä¸ŃåĽ½": 1693,
      "åĸľå¤ļ": 1694,
      "é¾ĻéĢł": 1695,
      "çĮĽ": 1696,
      "é¾ĻéĢłå¯º": 1697,
      "ä¸įä¹ħ": 1698,
      "è´µ": 1699,
      "æĺİæĻºåħīç§Ģ": 1700,
      "æĪĺåĲİ": 1701,
      "çĸĳ": 1702,
      "åĬłåħ¥": 1703,
      "éģŃåĪ°": 1704,
      "1582": 1705,
      "ä½ł": 1706,
      "åĨľ": 1707,
      "¾ä¸ĭ": 1708,
      "å¯¹æĬĹ": 1709,
      "ä¾Ľ": 1710,
      "éº¾ä¸ĭ": 1711,
      "æµİ": 1712,
      "æ¬²": 1713,
      "ç»ĵæŀľ": 1714,
      "ç¿Įå¹´": 1715,
      "éŁ": 1716,
      "æĳĦæ´¥": 1717,
      "è¿Ļæł·": 1718,
      "éļĲå±ħ": 1719,
      "è¿ľæ±Ł": 1720,
      "å¹´éĹ´": 1721,
      "æĪĺäºī": 1722,
      "åĨĽéĺŁ": 1723,
      "æŁ³": 1724,
      "è·ĥ": 1725,
      "èħ¹": 1726,
      "ï¼ģ": 1727,
      "åħĥå°±": 1728,
      "æ¯ĽåĪ©åħĥå°±": 1729,
      "æŃ¦èĹı": 1730,
      "å¦¹": 1731,
      "æľĢä¸Ĭ": 1732,
      "è±ªæĹı": 1733,
      "è¿ģ": 1734,
      "é¥Ń": 1735,
      "æĸ¯æ³¢": 1736,
      "èĴ²": 1737,
      "åħŃå¹´": 1738,
      "ç¬¬äºĮ": 1739,
      "æĭ¬": 1740,
      "çķ¿": 1741,
      "æĿĤ": 1742,
      "åħ±åĲĮ": 1743,
      "éĺ³": 1744,
      "éķ¿åºĨ": 1745,
      "åģľ": 1746,
      "åĪ©å®¶": 1747,
      "å®ĩåĸľå¤ļ": 1748,
      "æĶ¹åĲį": 1749,
      "é¹¿": 1750,
      "åħ³äºİ": 1751,
      "æĹ¶éĹ´": 1752,
      "å¥Ī": 1753,
      "åįĹéĥ¨": 1754,
      "ä¸»åĲĽ": 1755,
      "éģĩ": 1756,
      "è¦ģæ±Ĥ": 1757,
      "å®¿": 1758,
      "çľ¼": 1759,
      "åĩ»è´¥": 1760,
      "æĿĳä¸Ĭ": 1761,
      "åĺī": 1762,
      "èģĶåĨĽ": 1763,
      "æİĪ": 1764,
      "ç¥ŀç¤¾": 1765,
      "å®ĩéĥ½": 1766,
      "å¥ĭ": 1767,
      "æİ§åĪ¶": 1768,
      "è¯¹": 1769,
      "æĥŁ": 1770,
      "ä½¿çĶ¨": 1771,
      "å®ĩéĥ½å®«": 1772,
      "å¿«": 1773,
      "å¥³åĦ¿": 1774,
      "èįĴ": 1775,
      "åĪ¤": 1776,
      "ç©¶": 1777,
      "æ¼Ķ": 1778,
      "æŃ£å¼ı": 1779,
      "å®¹": 1780,
      "çī§": 1781,
      "èį£": 1782,
      "åħ«æľĪ": 1783,
      "ç¥Ĳ": 1784,
      "æĿŁ": 1785,
      "åĩĨå¤ĩ": 1786,
      "éĵģçĤ®": 1787,
      "æ°´åĨĽ": 1788,
      "åĮħæĭ¬": 1789,
      "åĵģ": 1790,
      "å²¸": 1791,
      "æĪĺåĽ½å¤§åĲį": 1792,
      "åħĥäº²": 1793,
      "åħĪéĶĭ": 1794,
      "åĪĿæľŁ": 1795,
      "åĻ": 1796,
      "è¶ģ": 1797,
      "ä¼¯": 1798,
      "æĪĺåĬŁ": 1799,
      "è¯Ħ": 1800,
      "152": 1801,
      "åħ¶åŃĲ": 1802,
      "åŃĺåľ¨": 1803,
      "ä¸Ģæĸ¹éĿ¢": 1804,
      "è¿ĺæĺ¯": 1805,
      "ä¹ĭéĺµ": 1806,
      "èµŀ": 1807,
      "å®ĪæĬ¤ä»£": 1808,
      "å¯¼èĩ´": 1809,
      "è±¡": 1810,
      "åĩºéĺµ": 1811,
      "å°ıç¬ł": 1812,
      "æĻ¯èĻİ": 1813,
      "ä¹ĭéĻħ": 1814,
      "ç¯": 1815,
      "æĵ": 1816,
      "ä¼ĳ": 1817,
      "åħ¶ä»ĸ": 1818,
      "èĭ±": 1819,
      "è´¯": 1820,
      "æĸĩåĮĸ": 1821,
      "åįİ": 1822,
      "æĢĴ": 1823,
      "é¦Ļ": 1824,
      "åįģå¹´": 1825,
      "ä¸īäºº": 1826,
      "å°Ħ": 1827,
      "å°ıç¬łåİŁ": 1828,
      "ç²¾": 1829,
      "èµ¤æĿ¾": 1830,
      "æ¥": 1831,
      "å±Ĥ": 1832,
      "æĭĴ": 1833,
      "ç§Ģæ¬¡": 1834,
      "ç¨»": 1835,
      "åħ«å¹´": 1836,
      "çĥĪ": 1837,
      "èµ´": 1838,
      "éĢļç§°": 1839,
      "æĻ´ä¿¡": 1840,
      "éļĨæĻ¯": 1841,
      "å®ŀéĻħ": 1842,
      "åı¤æ²³": 1843,
      "çŁ³çĶ°ä¸īæĪĲ": 1844,
      "æķĪ": 1845,
      "æĹ¶åĢĻ": 1846,
      "äº²èĩª": 1847,
      "ä½¿èĢħ": 1848,
      "çĶ°åŁİ": 1849,
      "ä¼ĺ": 1850,
      "ä¹ĿæľĪ": 1851,
      "æ¯ģ": 1852,
      "æĴŃç£¨": 1853,
      "ä¸ĥå¹´": 1854,
      "æĻļ": 1855,
      "çº¯": 1856,
      "æĮĩæĮ¥": 1857,
      "æ³·": 1858,
      "ç¢": 1859,
      "ç¼ĸ": 1860,
      "èģĶåĲĪ": 1861,
      "å±ķå¼Ģ": 1862,
      "ç§¯": 1863,
      "æ··": 1864,
      "æł¹æį®": 1865,
      "èĬĤ": 1866,
      "äººè´¨": 1867,
      "èįī": 1868,
      "è¡ĮåĬ¨": 1869,
      "ä¸īæľĪ": 1870,
      "ä¸īéĥİ": 1871,
      "åħļ": 1872,
      "åĬłèĹ¤": 1873,
      "åħŃæľĪ": 1874,
      "1600": 1875,
      "äºĶæľĪ": 1876,
      "åŃ£": 1877,
      "èĲ¨": 1878,
      "è±Ĩ": 1879,
      "å¦ĤæŃ¤": 1880,
      "è´¸": 1881,
      "å¼¹": 1882,
      "å«ģ": 1883,
      "åħĦéķ¿": 1884,
      "ä¸ĥæľĪ": 1885,
      "çĶ±æŃ¤": 1886,
      "æ¤": 1887,
      "èĬ¦": 1888,
      "çĽĳ": 1889,
      "ç²®": 1890,
      "è¶³åĪ©ä¹īæĺŃ": 1891,
      "æĪĺåľº": 1892,
      "æºĥ": 1893,
      "åºķ": 1894,
      "å¹²": 1895,
      "è®°å½ķ": 1896,
      "ä¹ħç§Ģ": 1897,
      "éĢī": 1898,
      "çķĮ": 1899,
      "ä¸Ģåº¦": 1900,
      "å¼ĵ": 1901,
      "ï¼į": 1902,
      "å¦Ļ": 1903,
      "éĢ¼": 1904,
      "æ´»è·ĥ": 1905,
      "æį®çĤ¹": 1906,
      "æĭľ": 1907,
      "åĨ¬": 1908,
      "æģ¶": 1909,
      "è¾ĥ": 1910,
      "ä¹Ŀå¹´": 1911,
      "ãģ«": 1912,
      "éĻĦè¿ĳ": 1913,
      "éĺ¶": 1914,
      "åįķ": 1915,
      "å¿į": 1916,
      "éĻ·åħ¥": 1917,
      "ä½Ĳä¹ħ": 1918,
      "ç½Ĺ": 1919,
      "çīĩ": 1920,
      "æŃ£å®¤": 1921,
      "å¤ªçĶ°": 1922,
      "ä¸ĢåĲĳä¸ĢæıĨ": 1923,
      "ä¹īå¼ĺ": 1924,
      "ä¸Ģèµ·": 1925,
      "æ²¿": 1926,
      "èĦ±": 1927,
      "éĺ¿æ³¢": 1928,
      "åİŁæľ¬": 1929,
      "åĩºä»ķ": 1930,
      "è½®": 1931,
      "è£ħ": 1932,
      "ä¿¡èĻİ": 1933,
      "çĨĬ": 1934,
      "è°ĵ": 1935,
      "è®³": 1936,
      "æłĩ": 1937,
      "é¢Ĩæľī": 1938,
      "åĿĩ": 1939,
      "æĭ¥æľī": 1940,
      "è¡°": 1941,
      "åĩºäºĳ": 1942,
      "çł¦": 1943,
      "åĽĽæľĪ": 1944,
      "ç¦ıå²Ľ": 1945,
      "åĻ¨": 1946,
      "æ´²": 1947,
      "è´¸æĺĵ": 1948,
      "å¥Ķ": 1949,
      "å¥ĩ": 1950,
      "éľĢ": 1951,
      "çŃĶ": 1952,
      "åįĩ": 1953,
      "éĩĮè§ģ": 1954,
      "èĢĥ": 1955,
      "æķĮåĨĽ": 1956,
      "å¼±": 1957,
      "ä»Ĭå·Ŀä¹īåħĥ": 1958,
      "åºŁ": 1959,
      "éĺ»": 1960,
      "æĶ¯éħį": 1961,
      "åŁŁ": 1962,
      "æĻ´åħĥ": 1963,
      "ç¨Ļ": 1964,
      "æ±łçĶ°": 1965,
      "ä¸įæĺ¯": 1966,
      "æĿĥåĬĽ": 1967,
      "åŀ£": 1968,
      "ä¸įå¾Ĺ": 1969,
      "ä»·": 1970,
      "éĺģ": 1971,
      "ç§Ģèµĸ": 1972,
      "ç±»": 1973,
      "ä¹ĭä¸ĭ": 1974,
      "å±ŀäºİ": 1975,
      "è¡Ģ": 1976,
      "æĬµæĬĹ": 1977,
      "è´¢": 1978,
      "æ£Ģ": 1979,
      "æ¹": 1980,
      "åį·": 1981,
      "ä¹ĭå½¹": 1982,
      "åĩ»éĢĢ": 1983,
      "è¯ķ": 1984,
      "23": 1985,
      "ç»ĵåŁİ": 1986,
      "åº¶": 1987,
      "äºĶéĥİ": 1988,
      "å¨¶": 1989,
      "æľ¬å¤ļ": 1990,
      "é£ŀ": 1991,
      "ä¸°åĲİ": 1992,
      "è¯ļ": 1993,
      "åıĶ": 1994,
      "æĶ¯æı´": 1995,
      "é¦ĸçº§": 1996,
      "åıĤæĪĺ": 1997,
      "åĲĦåľ°": 1998,
      "æĸĩæĺİ": 1999,
      "å»ºç«ĭ": 2000,
      "çĶ»": 2001,
      "æµª": 2002,
      "è£Ĥ": 2003,
      "çİī": 2004,
      "å¢ĵ": 2005,
      "æŁ´çĶ°èĥľå®¶": 2006,
      "ä¸ĭä»¤": 2007,
      "å¯Ħ": 2008,
      "è¿Ļç§į": 2009,
      "åį¿": 2010,
      "ä¹īéļĨ": 2011,
      "åĤ": 2012,
      "éĢĲæ¸Ĳ": 2013,
      "æŃ¦çĶ°èĥľèµĸ": 2014,
      "æĺİæ²»": 2015,
      "è¿ĽåĨĽ": 2016,
      "å¤ĩä¸Ń": 2017,
      "çŃĳåīį": 2018,
      "25": 2019,
      "éĹ®é¢ĺ": 2020,
      "ä½Ĳä½Ĳ": 2021,
      "æ³¨": 2022,
      "ä¸¹æ³¢": 2023,
      "æĿ¾æ°¸": 2024,
      "å®Įåħ¨": 2025,
      "æīĩ": 2026,
      "æĢĢ": 2027,
      "å°Ĭæ°ı": 2028,
      "ç«Ł": 2029,
      "æį®è¯´": 2030,
      "ç¨³": 2031,
      "ç»į": 2032,
      "èµĸæľĿ": 2033,
      "é¢ĨåĽ½": 2034,
      "åľŁä½Ĳ": 2035,
      "21": 2036,
      "åŃĲåŃĻ": 2037,
      "åģı": 2038,
      "æ¬¡éĥİ": 2039,
      "ä»ª": 2040,
      "æķ£": 2041,
      "æİ¥åıĹ": 2042,
      "æıĲåĩº": 2043,
      "çĶŁäºİ": 2044,
      "æĥħåĨµ": 2045,
      "ä¼ıè§ģ": 2046,
      "å¤±åİ»": 2047,
      "æľ¬èĥ½å¯ºä¹ĭåıĺ": 2048,
      "åĽĽåĽ½": 2049,
      "ç©º": 2050,
      "éĴ±": 2051,
      "èµ¶": 2052,
      "çĥ§": 2053,
      "èĢĮæĺ¯": 2054,
      "é«ĺåĽ½": 2055,
      "è¿Ļä¸Ģ": 2056,
      "èľ": 2057,
      "å§»": 2058,
      "éģĵéĽª": 2059,
      "å®ĮæĪĲ": 2060,
      "æį¢": 2061,
      "çĶļèĩ³": 2062,
      "éĻ·èĲ½": 2063,
      "çĽ´æİ¥": 2064,
      "å½¢æĪĲ": 2065,
      "éĿĴ": 2066,
      "ä¼Ĭä¸ľ": 2067,
      "é¬": 2068,
      "åı¦ä¸Ģæĸ¹éĿ¢": 2069,
      "éĤ¸": 2070,
      "æİĴ": 2071,
      "å¾Ĺä»¥": 2072,
      "ãģĹ": 2073,
      "åĨħéĥ¨": 2074,
      "ç½²": 2075,
      "æĢĿ": 2076,
      "æľ¬éĺµ": 2077,
      "èĹ¤åİŁ": 2078,
      "ç»Īäºİ": 2079,
      "å½ĵåľ°": 2080,
      "åŁİæ±ł": 2081,
      "æµĭ": 2082,
      "22": 2083,
      "éŁ³": 2084,
      "æĹ¢": 2085,
      "ç½ª": 2086,
      "150": 2087,
      "ç«ĭä¸ĭ": 2088,
      "æı¡": 2089,
      "æ¯įäº²": 2090,
      "ä»Ļ": 2091,
      "ä¹ĭåīį": 2092,
      "å¯¿": 2093,
      "æĭĽ": 2094,
      "æĶ»çķ¥": 2095,
      "å·¦åı³": 2096,
      "åıĬåħ¶": 2097,
      "ä¸Ģæĸ¹": 2098,
      "åı¯è§ģ": 2099,
      "ä¹ĭä½į": 2100,
      "å¿µ": 2101,
      "æī©å¼ł": 2102,
      "ä¸ĢæĿ¡": 2103,
      "è¡¨ç¤º": 2104,
      "çªģçĦ¶": 2105,
      "åħģ": 2106,
      "å°ıå±±": 2107,
      "é¼": 2108,
      "æĿĲ": 2109,
      "åĨįåº¦": 2110,
      "æºĲæ°ı": 2111,
      "çŁ¢": 2112,
      "éĻĲ": 2113,
      "åºĶä»ģ": 2114,
      "è¿ĺæľī": 2115,
      "çŁ³å·Ŀ": 2116,
      "é¬¼": 2117,
      "æł¸": 2118,
      "éºŁ": 2119,
      "ç¬Ķ": 2120,
      "èĤ¥åĲİ": 2121,
      "èĬ¦åĲį": 2122,
      "çı": 2123,
      "æĬĺ": 2124,
      "åħ¶åĲİ": 2125,
      "èĴ²çĶŁ": 2126,
      "åį±": 2127,
      "èĹ©ä¸»": 2128,
      "å®ĹèĮĤ": 2129,
      "éĵ¶": 2130,
      "éļıçĿĢ": 2131,
      "éĺ´": 2132,
      "æĪĺå½¹": 2133,
      "çĽĲ": 2134,
      "æĭĴç»Ŀ": 2135,
      "æŃ¤äºĭ": 2136,
      "æģ©": 2137,
      "åĪļ": 2138,
      "å®½æ°¸": 2139,
      "çĽ¸æ¨¡": 2140,
      "æŃ¦å®¶": 2141,
      "å¹¶ä¸Ķ": 2142,
      "æ®ĭ": 2143,
      "å¸Į": 2144,
      "è¿½åĩ»": 2145,
      "ç§ģ": 2146,
      "åıĸå¾Ĺ": 2147,
      "æİ¢": 2148,
      "24": 2149,
      "ä¸įæ»¡": 2150,
      "åĽĽéĥİ": 2151,
      "å´©": 2152,
      "æĭī": 2153,
      "åĪĩèħ¹": 2154,
      "ç¦ħ": 2155,
      "åĩºå®¶": 2156,
      "å©ļ": 2157,
      "æŃ»åĲİ": 2158,
      "ä¸¹ç¾½": 2159,
      "ä¹ĭå¼Ł": 2160,
      "ãģ¨": 2161,
      "å¤ºåıĸ": 2162,
      "æĥł": 2163,
      "çŃĴ": 2164,
      "æĽ¿": 2165,
      "åįĥä»£": 2166,
      "åĨħèĹ¤": 2167,
      "æ¶Īæģ¯": 2168,
      "ç¼ĺ": 2169,
      "çłĶ": 2170,
      "åĨĪå´İ": 2171,
      "åı«": 2172,
      "è®¸å¤ļ": 2173,
      "è§Ħæ¨¡": 2174,
      "éĢĥå¾Ģ": 2175,
      "è¾ŀ": 2176,
      "å¸ĥéĺµ": 2177,
      "ä¾įå¥ī": 2178,
      "å°ī": 2179,
      "å¹¶éĿŀ": 2180,
      "ä¸ĢéĹ¨": 2181,
      "åħ¶çĪ¶": 2182,
      "åħħ": 2183,
      "æ´»åĬ¨": 2184,
      "åįģæľĪ": 2185,
      "èĭ¦": 2186,
      "æļĤ": 2187,
      "èĽ": 2188,
      "åĲ¦": 2189,
      "è¯Ĩ": 2190,
      "èģļ": 2191,
      "æ¸ħæŃ£": 2192,
      "ä¹īåħ´": 2193,
      "æģĴ": 2194,
      "ä¹īæĺŃ": 2195,
      "æĿĢå®³": 2196,
      "èĥľåĪ©": 2197,
      "æ³·å·Ŀ": 2198,
      "åı¦å¤ĸ": 2199,
      "è®¡åĪĴ": 2200,
      "æĿ¿": 2201,
      "ç»ıè¿ĩ": 2202,
      "æĭ¥ç«ĭ": 2203,
      "åħ¥ä¾µ": 2204,
      "ç»§æī¿äºº": 2205,
      "åįģä¸ī": 2206,
      "åıĽä¹±": 2207,
      "ç«Ļ": 2208,
      "æ¯ĽåĪ©è¾īåħĥ": 2209,
      "ä¸Ģå¸¦": 2210,
      "åıªæĺ¯": 2211,
      "åĳ¼": 2212,
      "å°§": 2213,
      "28": 2214,
      "åĳ¨è¾¹": 2215,
      "ä¹īåħī": 2216,
      "ä¸ĬæĿīæĻ¯èĥľ": 2217,
      "éĢ¸": 2218,
      "åľŁå²Ĳ": 2219,
      "1590": 2220,
      "æ¯ı": 2221,
      "ä¼Ĭè±Ĩ": 2222,
      "ç§ĳ": 2223,
      "çĵ": 2224,
      "æĪĺè´¥": 2225,
      "ç¦»å¼Ģ": 2226,
      "æĶ¿åħĥ": 2227,
      "åĲĮæł·": 2228,
      "ç¥ĸçĪ¶": 2229,
      "ä¸ĭéĩİ": 2230,
      "éĤ»": 2231,
      "æľªèĥ½": 2232,
      "èĨ": 2233,
      "çĶŁå¹³": 2234,
      "å¼ĺæ²»": 2235,
      "èĤ¥åīį": 2236,
      "æ½": 2237,
      "ä¸Ńå²Ľ": 2238,
      "åīĳ": 2239,
      "è¢«è¿«": 2240,
      "ä¸ĸçºª": 2241,
      "å©¿": 2242,
      "ç¯ł": 2243,
      "ä¸ĢçĽĬ": 2244,
      "ç¬¬ä¸ī": 2245,
      "ç®Ń": 2246,
      "ç»ĺ": 2247,
      "åıĳå±ķ": 2248,
      "æĹ¥åĲĳ": 2249,
      "ä¸ĵ": 2250,
      "ãģŁ": 2251,
      "ãģĦ": 2252,
      "äºķä¼Ĭ": 2253,
      "æ¡¶": 2254,
      "çŁ¥è¡Į": 2255,
      "å®ĹéºŁ": 2256,
      "åĿĬ": 2257,
      "éģ¿": 2258,
      "æĮģç»Ń": 2259,
      "æł¸å¿ĥ": 2260,
      "ä¸ĢèĪ¬": 2261,
      "åħĭ": 2262,
      "æľĢåĪĿ": 2263,
      "ä¹ĭåĳ½": 2264,
      "åıĳèµ·": 2265,
      "çĹħéĢĿ": 2266,
      "æĹĹæľ¬": 2267,
      "æ±¤": 2268,
      "æĮī": 2269,
      "æ´¾åĩº": 2270,
      "å¸ĮæľĽ": 2271,
      "ä»Ģ": 2272,
      "ä¸Ģæ¬¡": 2273,
      "å®ŀåĬĽ": 2274,
      "ç´§": 2275,
      "èĥģ": 2276,
      "æĮĩåĩº": 2277,
      "çİĩåĨĽ": 2278,
      "åįģäºĶ": 2279,
      "ä¸¾åħµ": 2280,
      "å¸¸éĻĨ": 2281,
      "ä¼Ĭè´º": 2282,
      "åĩłä¹İ": 2283,
      "æĹĭ": 2284,
      "åĲīçĶ°": 2285,
      "äº¬æŀģ": 2286,
      "åĽ°": 2287,
      "å¯Ł": 2288,
      "ä»Ģä¹Ī": 2289,
      "åħĥæĺ¥": 2290,
      "å¤§åĿĤåŁİ": 2291,
      "åıªæľī": 2292,
      "ä¼Ĭè¾¾æĶ¿å®Ĺ": 2293,
      "æľīåĬĽ": 2294,
      "ä¸Ģè¯´": 2295,
      "ä¾µæĶ»": 2296,
      "è¡¥": 2297,
      "ä¸»åĬĽ": 2298,
      "åħ«å¹¡": 2299,
      "åįıåĬ©": 2300,
      "ä¸ĢæŃ¥": 2301,
      "ä¿ĥ": 2302,
      "å¤§æ°¸": 2303,
      "åĮĹæĿ¡æ°ıåº·": 2304,
      "çłĶç©¶": 2305,
      "ä¸īäººä¼Ĺ": 2306,
      "æµģæĶ¾": 2307,
      "å°Ĩé¢Ĩ": 2308,
      "ç»ıæµİ": 2309,
      "çķĻä¸ĭ": 2310,
      "åĽ½ä¼Ĺ": 2311,
      "åħ³çĻ½": 2312,
      "å¤ĸäº¤": 2313,
      "åĪĳ": 2314,
      "ä¹īä¹ħ": 2315,
      "æĬµè¾¾": 2316,
      "é£Ł": 2317,
      "149": 2318,
      "åĩºä»»": 2319,
      "ä½Ĳä¹ħéĹ´": 2320,
      "ç«ĭåį³": 2321,
      "ä¸įåĲĮ": 2322,
      "ç»ĵæĿŁ": 2323,
      "å¤ªéĥİ": 2324,
      "æĻ®": 2325,
      "åħ¸": 2326,
      "åĩı": 2327,
      "æĺİåºĶ": 2328,
      "1570": 2329,
      "å¯¹äºİ": 2330,
      "åħ¨éĥ¨": 2331,
      "æĺĮå¹¸": 2332,
      "èĲ¨æĳ©": 2333,
      "æīĺ": 2334,
      "å¤ĩåīį": 2335,
      "å®ĺä½į": 2336,
      "ç¾¤": 2337,
      "ä¼łè¯´": 2338,
      "å£«åħµ": 2339,
      "ä»¥æĿ¥": 2340,
      "ä¹ĭåĲį": 2341,
      "ä¹ĭä¸Ń": 2342,
      "èĳ¬": 2343,
      "ä¼ļæ´¥": 2344,
      "æľ¨æĿĳ": 2345,
      "éķ¿ç§Ģ": 2346,
      "åĳ¨éĺ²": 2347,
      "åºµ": 2348,
      "åĪĥ": 2349,
      "åİŁåĽł": 2350,
      "æŃ»åİ»": 2351,
      "ä¸¾è¡Į": 2352,
      "çĭŃéĹ´": 2353,
      "çŁ³è§ģ": 2354,
      "è°ĭåıį": 2355,
      "éĢĶä¸Ń": 2356,
      "ä¸įä»ħ": 2357,
      "é©±": 2358,
      "å¤ºåĽŀ": 2359,
      "éĿŀå¸¸": 2360,
      "åī²": 2361,
      "èĩªå°½": 2362,
      "éĺľ": 2363,
      "å®Īå¤ĩ": 2364,
      "é¢ģ": 2365,
      "å¸Ń": 2366,
      "ä¹ħä¿Ŀ": 2367,
      "ç»§ä»»": 2368,
      "åĪº": 2369,
      "éķ¿æľŁ": 2370,
      "è¢Ńåĩ»": 2371,
      "çºªä¼Ĭ": 2372,
      "æŃ¤æĪĺ": 2373,
      "å¹¶æľª": 2374,
      "éľ¸": 2375,
      "å±¡": 2376,
      "ä¸ĬçĶ°": 2377,
      "åıĶçĪ¶": 2378,
      "å½¦": 2379,
      "äºĮæľĪ": 2380,
      "çĽ´æĶ¿": 2381,
      "åįģåĪĨ": 2382,
      "å¾ĹçŁ¥": 2383,
      "èİ·èµĲ": 2384,
      "åī§": 2385,
      "åįģäºĮæľĪ": 2386,
      "ãĢİ": 2387,
      "åłº": 2388,
      "èĩªæĿĢ": 2389,
      "è¾¾æĪĲ": 2390,
      "ç¬¼": 2391,
      "åºĵ": 2392,
      "ãĢı": 2393,
      "éķ¿éĩİ": 2394,
      "ä¸¤å®¶": 2395,
      "é¡¾": 2396,
      "éķĩåİĭ": 2397,
      "ç»³": 2398,
      "ç¡Ģ": 2399,
      "ä¸īåįĥ": 2400,
      "ä¸įæĺİ": 2401,
      "åİļ": 2402,
      "ä¸Ģæł·": 2403,
      "ãģ¯": 2404,
      "å¤±è´¥": 2405,
      "åĲİä¸ĸ": 2406,
      "å²Ĳéĺľ": 2407,
      "ä¸įèĥ½": 2408,
      "åīįæĿ¥": 2409,
      "âĢ¦": 2410,
      "çĬ¬": 2411,
      "æ´¥åŁİ": 2412,
      "æİ¨æµĭ": 2413,
      "è¿ħ": 2414,
      "éĻĨå¥¥": 2415,
      "ä¸Ńå¿ĥ": 2416,
      "éĨį": 2417,
      "ä»²": 2418,
      "åĬłä¸Ĭ": 2419,
      "ä¼Ĭè±«": 2420,
      "åıĳçİ°": 2421,
      "åĮĹæľĿ": 2422,
      "26": 2423,
      "è¡£": 2424,
      "å±±åı£": 2425,
      "çĽ¸å½ĵ": 2426,
      "æ¶ī": 2427,
      "1573": 2428,
      "çŃĴäºķ": 2429,
      "éĨĲ": 2430,
      "éĨįéĨĲ": 2431,
      "éĿĻ": 2432,
      "æİĮæı¡": 2433,
      "èľĤ": 2434,
      "èµł": 2435,
      "æľ¬äºº": 2436,
      "åįģä¸ĢæľĪ": 2437,
      "ä¹īæĻ¯": 2438,
      "å°ıæĹ©å·ĿéļĨæĻ¯": 2439,
      "çķ¿åĨħ": 2440,
      "éķ¿ä¹ħ": 2441,
      "åĿĲ": 2442,
      "æ¡¶çĭŃéĹ´": 2443,
      "å¤§èĩ£": 2444,
      "åĩºå¾ģ": 2445,
      "æŃ£æľĪ": 2446,
      "å¥ĭæĪĺ": 2447,
      "åĪ©çĶ¨": 2448,
      "éļĨä¿¡": 2449,
      "è´¡": 2450,
      "è¸": 2451,
      "ç»ıåİĨ": 2452,
      "æģĲ": 2453,
      "ä¸įåı¯": 2454,
      "ä»£å½ĵä¸»": 2455,
      "æķĮäºº": 2456,
      "å¤·": 2457,
      "æĥĬ": 2458,
      "èªī": 2459,
      "åŁºç¡Ģ": 2460,
      "å®Ĺå®¶": 2461,
      "çķĻå®Ī": 2462,
      "èĥ½çĻ»": 2463,
      "è¯ķåĽ¾": 2464,
      "ä¸°åīį": 2465,
      "æĥ¨": 2466,
      "åħ¶å®ŀ": 2467,
      "æĽ²": 2468,
      "è¾ħä½Ĳ": 2469,
      "åıįå¯¹": 2470,
      "ç§Ģéķ¿": 2471,
      "ç«¯": 2472,
      "çİ°åľ¨": 2473,
      "ä¸ĭæĢ»": 2474,
      "æĶ¿çŃĸ": 2475,
      "å¥¥å·ŀ": 2476,
      "èµ·æĿ¥": 2477,
      "åŁİä¸ĭ": 2478,
      "è¯ī": 2479,
      "åĩºåıĳ": 2480,
      "ä¹ł": 2481,
      "ä¹ĭå¥³": 2482,
      "é«ĺæ¡¥": 2483,
      "äºĮæĿ¡": 2484,
      "æļ´": 2485,
      "ä¸ĥæĹ¥": 2486,
      "æĪĺäºĭ": 2487,
      "å·¨": 2488,
      "å°¤": 2489,
      "éĩįæĸ°": 2490,
      "åłµ": 2491,
      "çĭ¬ç«ĭ": 2492,
      "äº®": 2493,
      "åĭĺ": 2494,
      "åĩŃ": 2495,
      "è¯¯": 2496,
      "æĿ¡ä»¶": 2497,
      "æķĳæı´": 2498,
      "åĨ¢": 2499,
      "æĿ¾æ°¸ä¹ħç§Ģ": 2500,
      "åĽŀåĪ°": 2501,
      "æĶ¹æĺĵ": 2502,
      "åįļ": 2503,
      "äº²çİĭ": 2504,
      "æĭĶ": 2505,
      "äºĴ": 2506,
      "åĶ¯": 2507,
      "åįģäºĮå¹´": 2508,
      "èĩªç§°": 2509,
      "åĽłèĢĮ": 2510,
      "äºĶä½į": 2511,
      "ãģ¦": 2512,
      "åºŃ": 2513,
      "éªıåºľ": 2514,
      "åľ£": 2515,
      "æĶ»åħ¥": 2516,
      "å¦Ĥæŀľ": 2517,
      "27": 2518,
      "å±±åİ¿": 2519,
      "ä½İ": 2520,
      "èªĵ": 2521,
      "å¤ı": 2522,
      "è£Ķ": 2523,
      "æįŁ": 2524,
      "çĿ¦": 2525,
      "ãĤĭ": 2526,
      "éĻ©": 2527,
      "äºĮäºº": 2528,
      "åĢ¼": 2529,
      "1585": 2530,
      "é¹¤": 2531,
      "####": 2532,
      "ä¹¦ä¿¡": 2533,
      "1578": 2534,
      "åĴĮæ³ī": 2535,
      "åįģåħŃ": 2536,
      "çĽ¾": 2537,
      "èĪį": 2538,
      "èĪŀ": 2539,
      "èıĬ": 2540,
      "ä»ĩ": 2541,
      "30": 2542,
      "å¤©çİĭ": 2543,
      "å¸®": 2544,
      "è¶³è½»": 2545,
      "å·®": 2546,
      "åŀĭ": 2547,
      "æŁĲ": 2548,
      "å¤Ł": 2549,
      "è¯ł": 2550,
      "åıĻ": 2551,
      "éĺ²å¾¡": 2552,
      "éħĴäºķ": 2553,
      "1575": 2554,
      "åįģä¸Ģå¹´": 2555,
      "éĺµèĲ¥": 2556,
      "åĩĢ": 2557,
      "åįĹæľĿ": 2558,
      "åľĨ": 2559,
      "å¤ĩåĲİ": 2560,
      "åĩºèĩª": 2561,
      "éĻ¤äºĨ": 2562,
      "è¿ħéĢŁ": 2563,
      "åĪ¶åº¦": 2564,
      "éľ²": 2565,
      "å°ıéĩİ": 2566,
      "ãģĭ": 2567,
      "ä½¿å¾Ĺ": 2568,
      "1584": 2569,
      "ç¨»åı¶": 2570,
      "åĪĿä»£": 2571,
      "ä¸ĢæĹ¥": 2572,
      "ä¸¤ä¸ª": 2573,
      "èµĲè±«": 2574,
      "åģıè®³": 2575,
      "æŃ£æĺ¯": 2576,
      "éĶħ": 2577,
      "èĻĳ": 2578,
      "æįķ": 2579,
      "äºĶåįģ": 2580,
      "çĽ¸èī¯": 2581,
      "è®¨åıĸ": 2582,
      "æ¡Ĥ": 2583,
      "ç¼º": 2584,
      "æľ¨ä¸ĭ": 2585,
      "åĬŀ": 2586,
      "å½»": 2587,
      "å±±ä¸Ń": 2588,
      "åīįåĲİ": 2589,
      "å»ºçŃĳ": 2590,
      "ä¿Ĺ": 2591,
      "æīĢåľ¨": 2592,
      "ä¸°èĩ£æĶ¿æĿĥ": 2593,
      "åīįçĶ°åĪ©å®¶": 2594,
      "äºĶåįĥ": 2595,
      "äºīå¤º": 2596,
      "è¯±": 2597,
      "éĽ¨": 2598,
      "æŃ£åĪĻ": 2599,
      "è¿Ļæ¬¡": 2600,
      "åħĪåĲİ": 2601,
      "åħ«æĹ¥": 2602,
      "ãĤĴ": 2603,
      "29": 2604,
      "åĴĮçĶ°": 2605,
      "å¼ĢåŁİ": 2606,
      "èŃ": 2607,
      "çģµ": 2608,
      "çīĽ": 2609,
      "åħ¬å®¶": 2610,
      "çŁ³å±±": 2611,
      "çºµ": 2612,
      "ç®Ģ": 2613,
      "è¡¨çİ°": 2614,
      "ä¸Ģä¸ĩ": 2615,
      "åĲİæľŁ": 2616,
      "ç½ĳ": 2617,
      "åĲįä¹ī": 2618,
      "æłĭ": 2619,
      "ä¸īæµ¦": 2620,
      "æģ¢": 2621,
      "çŃĳåĲİ": 2622,
      "æ¢ħ": 2623,
      "èĢĮä¸Ķ": 2624,
      "åĲĮæĹı": 2625,
      "æĪĲæĶ¿": 2626,
      "å¾·å·Ŀç§Ģå¿ł": 2627,
      "éĶĻ": 2628,
      "æľºä¼ļ": 2629,
      "èŃ¦": 2630,
      "åĲįåŃĹ": 2631,
      "å¤§å¤«": 2632,
      "åĽĽæĹ¥": 2633,
      "åĪĨåĪ«": 2634,
      "æģ¢å¤į": 2635,
      "åĨħä¹±": 2636,
      "ç»ľ": 2637,
      "ä»£è¡¨": 2638,
      "æĥ£": 2639,
      "ä¸įæĸŃ": 2640,
      "ä¸īå¥½éķ¿åºĨ": 2641,
      "é¢Ħ": 2642,
      "èĩªèº«": 2643,
      "å¤ļæ¬¡": 2644,
      "çīµ": 2645,
      "æĻ´è´¤": 2646,
      "åĶĲ": 2647,
      "ä¸Ģå¹´": 2648,
      "1568": 2649,
      "1569": 2650,
      "å¼ķåıĳ": 2651,
      "åĨ²çªģ": 2652,
      "èĭ¥çĭŃ": 2653,
      "å¦»åŃĲ": 2654,
      "ä¿¡åº·": 2655,
      "æķ·": 2656,
      "åĲįä¸º": 2657,
      "ãģª": 2658,
      "è¯Ħä»·": 2659,
      "åĬ³": 2660,
      "ä»¥ä¸ĭ": 2661,
      "åįĪ": 2662,
      "ä¹ĿæĹ¥": 2663,
      "ç§Ģå®¶": 2664,
      "ä¸Ģä½į": 2665,
      "1560": 2666,
      "å³Ļ": 2667,
      "ç«¥": 2668,
      "å¾·å·Ŀæ°ı": 2669,
      "ç©¿": 2670,
      "è·Łéļı": 2671,
      "çŁŃ": 2672,
      "æīĢæľī": 2673,
      "ç»©": 2674,
      "é«ĺèĻİ": 2675,
      "çĽ¸ç»§": 2676,
      "èıħ": 2677,
      "è°±ä»£": 2678,
      "å¹¼åĲį": 2679,
      "åıĳåĩº": 2680,
      "å°ıçī§": 2681,
      "åľŁåľ°": 2682,
      "æĮĤ": 2683,
      "éĿ¢å¯¹": 2684,
      "ï¼ı": 2685,
      "åħĥæľį": 2686,
      "ç¥Ń": 2687,
      "å³°": 2688,
      "åºĶä»ģä¹ĭä¹±": 2689,
      "çĽ¸ä¼ł": 2690,
      "æ··ä¹±": 2691,
      "çĦļ": 2692,
      "åĬĽéĩı": 2693,
      "æ¸©": 2694,
      "ä¸īåįģ": 2695,
      "èĸ": 2696,
      "æĢ»å¤§å°Ĩ": 2697,
      "ä½ĵåĪ¶": 2698,
      "å¯¹å³Ļ": 2699,
      "èĳĽ": 2700,
      "ç´ł": 2701,
      "éľĩ": 2702,
      "çĳ": 2703,
      "ä¿¡å¿ł": 2704,
      "å±±å´İ": 2705,
      "é»Ħ": 2706,
      "æłĹ": 2707,
      "æŃ¤æ¬¡": 2708,
      "æĹ©äºĳ": 2709,
      "æĪĳä»¬": 2710,
      "æĶ¾å¼ĥ": 2711,
      "åĩºç¾½": 2712,
      "èİ²": 2713,
      "148": 2714,
      "ä¸Ģèī²": 2715,
      "ä¹ĭä¸¸": 2716,
      "æµħäºķéķ¿æĶ¿": 2717,
      "æķ¢": 2718,
      "æ¸ħæ´²": 2719,
      "æŃ£æĪĲ": 2720,
      "ç©´": 2721,
      "éĺµäº¡": 2722,
      "163": 2723,
      "èĳĹåĲį": 2724,
      "éķ¿éĹ¨": 2725,
      "æĸ¹åĲĳ": 2726,
      "å¯¹æŃ¤": 2727,
      "æļĹæĿĢ": 2728,
      "æ¸¯": 2729,
      "è¶³åĪ©ä¹īè¾ī": 2730,
      "ä¸Ģç§į": 2731,
      "åĴĮçĿ¦": 2732,
      "æŁ¥": 2733,
      "åŃ¤": 2734,
      "æĿĢæŃ»": 2735,
      "å®ģ": 2736,
      "äºĭå®ŀ": 2737,
      "äºĭåĬ¡": 2738,
      "ç»ķ": 2739,
      "æ³·å·Ŀä¸ĢçĽĬ": 2740,
      "è´±": 2741,
      "å¤®": 2742,
      "å·Ŀä¸Ńå²Ľ": 2743,
      "çĥŃ": 2744,
      "ä¸¤åĨĽ": 2745,
      "çº¹": 2746,
      "è¾ĸ": 2747,
      "ä¾¿æĺ¯": 2748,
      "é¢ĨåĨħ": 2749,
      "è¿Ļæĺ¯": 2750,
      "200": 2751,
      "æĪĺçķ¥": 2752,
      "åįĥåı¶": 2753,
      "ãĢĢ": 2754,
      "è¶ħ": 2755,
      "èį¯": 2756,
      "147": 2757,
      "å¤įåħ´": 2758,
      "çĻ¾å§ĵ": 2759,
      "ä¸īæĹ¥": 2760,
      "èµ·åħµ": 2761,
      "éĤĢ": 2762,
      "å¤ªéĺģ": 2763,
      "æĹ¥è®°": 2764,
      "å§Ĭ": 2765,
      "æ·¡": 2766,
      "æĻļå¹´": 2767,
      "æīĢè°ĵ": 2768,
      "æłĳ": 2769,
      "çº·çº·": 2770,
      "èĥĮåıĽ": 2771,
      "åĲ§": 2772,
      "å¤¹": 2773,
      "åĳ¢": 2774,
      "å¿łèĥľ": 2775,
      "çĽ¸åħ³": 2776,
      "æ¤į": 2777,
      "åĲīç»§": 2778,
      "æ²¡æĶ¶": 2779,
      "åĮĹéĥ¨": 2780,
      "ä¿¡ç¹ģ": 2781,
      "äºĶçĻ¾": 2782,
      "ç®¡çĲĨ": 2783,
      "æĭ©": 2784,
      "éĢĥäº¡": 2785,
      "æµħéĩİ": 2786,
      "ä¸¤äºº": 2787,
      "èĩªåĪĥ": 2788,
      "æľĢå¤§": 2789,
      "éĥ¡å±±": 2790,
      "ä¾µåħ¥": 2791,
      "åĲİè£Ķ": 2792,
      "å¯»": 2793,
      "èĬ³": 2794,
      "è¿ľå±±": 2795,
      "è¿Ľä¸ĢæŃ¥": 2796,
      "è¯ŀ": 2797,
      "æĸŃç»Ŀ": 2798,
      "åĩ»çł´": 2799,
      "çŁ¥éģĵ": 2800,
      "æ£Ģåľ°": 2801,
      "åĮĹæĿ¡æ°ıæĶ¿": 2802,
      "è®®åĴĮ": 2803,
      "åħ¼ç»Ń": 2804,
      "éĩĬ": 2805,
      "ç»ĵçĽŁ": 2806,
      "è£ģ": 2807,
      "åı¥": 2808,
      "ç¾İä½ľ": 2809,
      "å¤©å®Ī": 2810,
      "åīįæľŁ": 2811,
      "æĿĤè´º": 2812,
      "æľ±": 2813,
      "ä¸Ńå¤®": 2814,
      "ä¸įå¾Ĺä¸į": 2815,
      "ä¸ĬæĢ»": 2816,
      "å®īä¸ľ": 2817,
      "åģĩ": 2818,
      "åįłé¢Ĩ": 2819,
      "åĿĢ": 2820,
      "æĤ¬": 2821,
      "é¡»è´º": 2822,
      "éļıåį³": 2823,
      "åŁİä»£": 2824,
      "è®²": 2825,
      "å»¶ç»Ń": 2826,
      "å¤§éĩİ": 2827,
      "ä¿¡éĽĦ": 2828,
      "æµªäºº": 2829,
      "éĴĪ": 2830,
      "èĹ¤åłĤ": 2831,
      "åĢŃ": 2832,
      "çŃĳåŁİ": 2833,
      "äº«ç¦Ħ": 2834,
      "åĴĮè§£": 2835,
      "ä¸¥å²Ľ": 2836,
      "åħĥéķ¿": 2837,
      "æĪĲæ°ı": 2838,
      "éŀ": 2839,
      "å¤§è´¥": 2840,
      "æ¡Ī": 2841,
      "åıªèĥ½": 2842,
      "æ¿ĢæĪĺ": 2843,
      "åºĦåĽŃ": 2844,
      "å¥¹": 2845,
      "è¡Įéķ¿": 2846,
      "å¿łæ¬¡": 2847,
      "ä¸īæľ¨": 2848,
      "æİī": 2849,
      "æī¹": 2850,
      "1561": 2851,
      "å¿Ļ": 2852,
      "çīĪ": 2853,
      "é½": 2854,
      "æŃ¤åīį": 2855,
      "æĢķ": 2856,
      "å°ıè¥¿": 2857,
      "çĭ©": 2858,
      "èĨ³": 2859,
      "æĶ»åĬ¿": 2860,
      "å¤§éĩı": 2861,
      "ç§Ģç§ĭ": 2862,
      "å®¢": 2863,
      "çĶ³": 2864,
      "ãģĨ": 2865,
      "æ¯«": 2866,
      "146": 2867,
      "ä¼´": 2868,
      "çģĮ": 2869,
      "æ¬¡çĶ·": 2870,
      "å°ıçĶ°åİŁå¾ģä¼Ĳ": 2871,
      "ä¸»å¼ł": 2872,
      "è½¬å°ģ": 2873,
      "æģ¨": 2874,
      "ç¨İ": 2875,
      "åı¯æĺ¯": 2876,
      "æ¨±": 2877,
      "å¾Īå¿«": 2878,
      "ä»£å®ĺ": 2879,
      "å°±ä»»": 2880,
      "å®īåłµ": 2881,
      "å¯ºéĻ¢": 2882,
      "ä¾§è¿ĳ": 2883,
      "ä¸¹ç¾½éķ¿ç§Ģ": 2884,
      "æĹģ": 2885,
      "å®¶è°±": 2886,
      "æľ¬åŁİ": 2887,
      "æķı": 2888,
      "ç¡®ç«ĭ": 2889,
      "æĬĢ": 2890,
      "é©»å®Ī": 2891,
      "ä»įçĦ¶": 2892,
      "çĶĺ": 2893,
      "æĹ¨": 2894,
      "åŁĭ": 2895,
      "åĽłå¹¡": 2896,
      "åĨ³æĪĺ": 2897,
      "éļ¾ä»¥": 2898,
      "ä¼ĺåĬ¿": 2899,
      "æĸ°çĶ°": 2900,
      "åı¤å±ĭ": 2901,
      "æĺ¥æĹ¥": 2902,
      "é«ĺéĩİ": 2903,
      "æ¡ĳ": 2904,
      "æ©": 2905,
      "é±": 2906,
      "ãĤĬ": 2907,
      "ä¼łæķĻ": 2908,
      "è¯į": 2909,
      "è¿Ł": 2910,
      "ä¿£": 2911,
      "ä»Ĭå·Ŀæ°ı": 2912,
      "å¤§åĨħä¹īéļĨ": 2913,
      "çķ¥åİĨ": 2914,
      "éĢĨ": 2915,
      "ä¸§": 2916,
      "èµ¦": 2917,
      "åĬ¨åĳĺ": 2918,
      "å®ŀéĻħä¸Ĭ": 2919,
      "é±¼": 2920,
      "çľĭåĪ°": 2921,
      "æ°´éĩİ": 2922,
      "é©±éĢĲ": 2923,
      "çĳŀ": 2924,
      "å¤§ä¹ħä¿Ŀ": 2925,
      "æĶ¿éķ¿": 2926,
      "èĩªçĦ¶": 2927,
      "éªļ": 2928,
      "é©¹": 2929,
      "å¾ĭ": 2930,
      "ç§¯æŀģ": 2931,
      "åĬłèĹ¤æ¸ħæŃ£": 2932,
      "1587": 2933,
      "è¿ĻæĹ¶": 2934,
      "ãģĮ": 2935,
      "æ¶ĪçģŃ": 2936,
      "æ°ıåº·": 2937,
      "æ¸ħæ°´": 2938,
      "èĩ¼": 2939,
      "éķ¿ä¹ħæīĭ": 2940,
      "è¡Įä¸º": 2941,
      "å°»": 2942,
      "å°½ç®¡": 2943,
      "å®ħéĤ¸": 2944,
      "æİĪè±«": 2945,
      "åħ¬è®°": 2946,
      "åħĥåº·": 2947,
      "å¤ĦçĲĨ": 2948,
      "çŁĽ": 2949,
      "è¿Ļåľº": 2950,
      "éĤ¦": 2951,
      "åī©": 2952,
      "çīĻ": 2953,
      "åĪĨè£Ĥ": 2954,
      "ç»´æĮģ": 2955,
      "æī¬": 2956,
      "åºı": 2957,
      "è¾°": 2958,
      "å±ħä½ı": 2959,
      "å®ªæĶ¿": 2960,
      "éĵĥ": 2961,
      "åķĨäºº": 2962,
      "çĽ´èĩ³": 2963,
      "æķĮå¯¹": 2964,
      "ç¼Ķ": 2965,
      "é¢ĩ": 2966,
      "1592": 2967,
      "åī¯": 2968,
      "è¿ĳåį«": 2969,
      "éļ¶": 2970,
      "ç»ıä¹ħ": 2971,
      "ä½Ĩé©¬": 2972,
      "å§Ĳ": 2973,
      "å¹¿å¿ł": 2974,
      "åĲ«": 2975,
      "åĨĽåĬ¿": 2976,
      "çĽ´å®¶": 2977,
      "1583": 2978,
      "åĲİèĹ¤": 2979,
      "åħ¬åį¿": 2980,
      "æıĲä¾Ľ": 2981,
      "å¡Ķ": 2982,
      "ä¸ĭæĿ¥": 2983,
      "çĶ¥": 2984,
      "å¤Ħäºİ": 2985,
      "1580": 2986,
      "åįłæį®": 2987,
      "èĩ£æľį": 2988,
      "æĮĳ": 2989,
      "è´¹": 2990,
      "1586": 2991,
      "éĶ®": 2992,
      "å®¶äºº": 2993,
      "ä¿ĿæĮģ": 2994,
      "ä¾§å®¤": 2995,
      "ä»¥ä¸Ĭ": 2996,
      "èĻļ": 2997,
      "1581": 2998,
      "ç»ĩçĶ°ä¿¡ç§Ģ": 2999,
      "æĶ»åŁİ": 3000,
      "æĵħ": 3001,
      "æĶ¿åĬ¡": 3002,
      "åĽ½å®¶": 3003,
      "çĶ°æ°ı": 3004,
      "âĢĺ": 3005,
      "âĢĻ": 3006,
      "æŃ¦çĶ°ä¿¡èĻİ": 3007,
      "æī¾": 3008,
      "å¹³å®ī": 3009,
      "åĨľæ°ĳ": 3010,
      "éŃ": 3011,
      "åħ³éĶ®": 3012,
      "ä¿ĿæĬ¤": 3013,
      "æķ´ä¸ª": 3014,
      "åĲİéĨįéĨĲ": 3015,
      "åĵ¥": 3016,
      "æĬķéĿł": 3017,
      "åĲİéĨįéĨĲå¤©çļĩ": 3018,
      "åīĬ": 3019,
      "æ¬¡å¹´": 3020,
      "çĽ´æ±Ł": 3021,
      "æµ¦ä¸Ĭ": 3022,
      "éļħ": 3023,
      "èº«ä¸º": 3024,
      "è¿Ŀ": 3025,
      "éĤ£ä¹Ī": 3026,
      "ä¸Ģä»£": 3027,
      "éķľ": 3028,
      "æ´ŀ": 3029,
      "å½»åºķ": 3030,
      "è°¢": 3031,
      "äºķä¸Ĭ": 3032,
      "é¼ĵ": 3033,
      "å½ĵçĦ¶": 3034,
      "æŀĦæĪĲ": 3035,
      "å¤§è°·": 3036,
      "æĪ·æ¬¡": 3037,
      "æľīé©¬": 3038,
      "èĦī": 3039,
      "éļĶ": 3040,
      "æ³ķåı·": 3041,
      "æ°ıä¹¡": 3042,
      "å½ĵå¹´": 3043,
      "å¼ºå¤§": 3044,
      "ä¸īæĸ¹": 3045,
      "æĿ¥è¯´": 3046,
      "è¥¿åĽ½": 3047,
      "æį®å®Ī": 3048,
      "ç¬¬åĽĽ": 3049,
      "ç¿¼": 3050,
      "å¤§å´İ": 3051,
      "å£ģ": 3052,
      "èĤ²": 3053,
      "ç§ĭæľĪ": 3054,
      "æķ¬": 3055,
      "åıįèĢĮ": 3056,
      "åŃĿé«ĺ": 3057,
      "ä»¥æŃ¤": 3058,
      "ç¬ĳ": 3059,
      "å¥īåħ¬": 3060,
      "æĹ¥éĩİ": 3061,
      "èĥľåħĥ": 3062,
      "ç¡®è®¤": 3063,
      "èĥĮæĻ¯": 3064,
      "ç»ĦæĪĲ": 3065,
      "çĽŁåıĭ": 3066,
      "åĪ°è¾¾": 3067,
      "åıįåĩ»": 3068,
      "ä¿®çŃĳ": 3069,
      "ä¹Ŀéĥİ": 3070,
      "åĮĹéĻĨ": 3071,
      "èĥ½å¤Ł": 3072,
      "æĽ¾ç»ı": 3073,
      "çļĦè¯Ŀ": 3074,
      "æ§": 3075,
      "ä¸Ģå®ļ": 3076,
      "ä¸īçĻ¾": 3077,
      "å¥ı": 3078,
      "å¤©ç¥ŀ": 3079,
      "äºĶæĹ¥": 3080,
      "äº§çĶŁ": 3081,
      "æŃ¦çĶ°æĻ´ä¿¡": 3082,
      "èĥ½åĬĽ": 3083,
      "å«ģç»Ļ": 3084,
      "æĹ¥åĲİ": 3085,
      "ä¿¡éķ¿åħ¬è®°": 3086,
      "æ²³éĩİ": 3087,
      "éĶħå²Ľ": 3088,
      "èĢĨ": 3089,
      "çĦ¶åĲİ": 3090,
      "1614": 3091,
      "éĽĨç»ĵ": 3092,
      "éº»": 3093,
      "1615": 3094,
      "ãĤĤ": 3095,
      "è¶³åĪ©ä¹īæĶ¿": 3096,
      "çİ¯": 3097,
      "çĽĺ": 3098,
      "å§Ķ": 3099,
      "æĬ¼": 3100,
      "1579": 3101,
      "ä¿¡çĽ´": 3102,
      "åĲīå·Ŀåħĥæĺ¥": 3103,
      "è¯ŀçĶŁ": 3104,
      "å±¥": 3105,
      "è¯Ľ": 3106,
      "ä¸īåĽ½": 3107,
      "èĢĮè¨Ģ": 3108,
      "æ¹ĸ": 3109,
      "ä¸ĢåĽ½": 3110,
      "æŃ£åľ¨": 3111,
      "åıªå¾Ĺ": 3112,
      "æľ¬ä¸¸": 3113,
      "æ²¼çĶ°": 3114,
      "çŀ": 3115,
      "æī¿è®¤": 3116,
      "æĪĪ": 3117,
      "æ²³è¶Ĭ": 3118,
      "ä¼¯èĢĨ": 3119,
      "çĽ´åĪ°": 3120,
      "éķ¿å²Ľ": 3121,
      "©åĽº": 3122,
      "å·©åĽº": 3123,
      "æī«": 3124,
      "éĢīæĭ©": 3125,
      "ç§ĢæĶ¿": 3126,
      "åĲįåı¤å±ĭ": 3127,
      "æĻ´ä¹ħ": 3128,
      "è¿Ļä½į": 3129,
      "æ±ŁæĪ·åŁİ": 3130,
      "ä¿¸": 3131,
      "è¾īå®Ĺ": 3132,
      "ä¸įè¶³": 3133,
      "ä¸įä¼ļ": 3134,
      "æĪĲç«ĭ": 3135,
      "50": 3136,
      "é«ĺæĿ¾": 3137,
      "ä¹īéĩį": 3138,
      "å»ī": 3139,
      "èµŀå²Ĳ": 3140,
      "å¥ĩè¢Ń": 3141,
      "æľĿä»ĵä¹īæĻ¯": 3142,
      "å®ĥ": 3143,
      "èĢ³": 3144,
      "è¡Ĺ": 3145,
      "ä¸ºé¦ĸ": 3146,
      "èĩ³ä»Ĭ": 3147,
      "å¦Ĥä½ķ": 3148,
      "å®¶å½ĵ": 3149,
      "å¿ħé¡»": 3150,
      "éĻ¶æĻ´è´¤": 3151,
      "æĭ¿": 3152,
      "è´±å²³": 3153,
      "1574": 3154,
      "å±ĢåĬ¿": 3155,
      "æ±ī": 3156,
      "ç»ĩçĶ°ä¿¡éĽĦ": 3157,
      "çĽ®æłĩ": 3158,
      "çº³è¨Ģ": 3159,
      "å®ŀæĿĥ": 3160,
      "æ²Ł": 3161,
      "ä¹īé¾Ļ": 3162,
      "ä»¥åīį": 3163,
      "æ¢ģ": 3164,
      "é¦ĸåħĪ": 3165,
      "æĶ»ä¸ĭ": 3166,
      "å°ĳè¾ħ": 3167,
      "è§Ĵèī²": 3168,
      "æĪĺæľ¯": 3169,
      "æ¾Ħåħĥ": 3170,
      "ä¸ľæµ·": 3171,
      "ãĤĮ": 3172,
      "1563": 3173,
      "éĹ»åĲį": 3174,
      "ä¸¹åĲİ": 3175,
      "1567": 3176,
      "éļĨåħĥ": 3177,
      "æ£®éķ¿": 3178,
      "è½¦": 3179,
      "è¿ĩç¨ĭ": 3180,
      "åºĩ": 3181,
      "1571": 3182,
      "çī©è¯Ń": 3183,
      "éķ¿å®ĹæĪĳéĥ¨åħĥäº²": 3184,
      "æĺŁ": 3185,
      "æİ¥çĿĢ": 3186,
      "çĵ¦": 3187,
      "å¿łæĶ¿": 3188,
      "æĲº": 3189,
      "ä¹ĭåľ°": 3190,
      "åħ¨åĽ½": 3191,
      "å®ĪåĨĽ": 3192,
      "åĲĦèĩª": 3193,
      "éĥ¨ä¸ĭ": 3194,
      "ãĤī": 3195,
      "ç½¢": 3196,
      "å¥³å©¿": 3197,
      "1577": 3198,
      "ç¦ıå²ĽæŃ£åĪĻ": 3199,
      "ä¸īåŃĲ": 3200,
      "1572": 3201,
      "é¹°": 3202,
      "ç¬¬äºĮæ¬¡": 3203,
      "èĹ¤åŃĿ": 3204,
      "å·¦è¿ĳ": 3205,
      "å®°": 3206,
      "è´¼": 3207,
      "ä»¥ä¸º": 3208,
      "æľīäºº": 3209,
      "æĸ©æĿĢ": 3210,
      "åįģéĥİ": 3211,
      "æ²Ļ": 3212,
      "é¡¶": 3213,
      "é½Ĳ": 3214,
      "å®ŀæĸ½": 3215,
      "ç»Ĩå·ĿæĻ´åħĥ": 3216,
      "æ¸ħåº·": 3217,
      "ç¬¬ä¸Ģæ¬¡": 3218,
      "çĽ¸é©¬": 3219,
      "è´°": 3220,
      "æĿ¥åĪ°": 3221,
      "çĶŁæ´»": 3222,
      "è¡ĮæĶ¿": 3223,
      "æī©å¤§": 3224,
      "åĽ½äººä¼Ĺ": 3225,
      "é¡¿": 3226,
      "é¥°": 3227,
      "èĩªæŃ¤": 3228,
      "ä¼łç»Ł": 3229,
      "âĶ": 3230,
      "åĲ¾": 3231,
      "åĨ·": 3232,
      "ç§ĺ": 3233,
      "è¡¡": 3234,
      "æĪĲåĳĺ": 3235,
      "å¤§å°ĨåĨĽ": 3236,
      "åĩºæĿ¥": 3237,
      "åĳ³": 3238,
      "å®´": 3239,
      "ä¹īè¾ī": 3240,
      "èĮĥåĽ´": 3241,
      "æľ¬åºĦ": 3242,
      "åºĶè¯¥": 3243,
      "å¸Ĳ": 3244,
      "åºĶæ°¸": 3245,
      "åħ¨åĨĽ": 3246,
      "åĲīèī¯": 3247,
      "å¤§åıĭå®ĹéºŁ": 3248,
      "ç»įè¿Ĳ": 3249,
      "ç¥ŀä¿Ŀ": 3250,
      "çī¹åĪ«": 3251,
      "ä¸Ģåľº": 3252,
      "åıĪç§°": 3253,
      "æ·Ģ": 3254,
      "æĺİæľĿ": 3255,
      "æł¹æľ¬": 3256,
      "å¤«äºº": 3257,
      "ç¤¾ä¼ļ": 3258,
      "çŁĽçĽ¾": 3259,
      "åĨĪå´İåŁİ": 3260,
      "æĦŁåĪ°": 3261,
      "è¯»": 3262,
      "ä¹īè´¤": 3263,
      "éĽħ": 3264,
      "ä¿¡åŃĿ": 3265,
      "1576": 3266,
      "è¿«ä½¿": 3267,
      "ä¸īæĿ¡": 3268,
      "å½¢å¼ı": 3269,
      "ç§»å°ģ": 3270,
      "ä¸İåħ¶": 3271,
      "æĮ¯": 3272,
      "çĪµ": 3273,
      "é¸Łå±ħ": 3274,
      "è°Ĵ": 3275,
      "æ³ķåĲį": 3276,
      "å±±çĶ°": 3277,
      "åħ¶å¼Ł": 3278,
      "ä¿¡çĽĽ": 3279,
      "æľ¬å®¶": 3280,
      "æĿĥå¨ģ": 3281,
      "åįĹåĮĹæľĿ": 3282,
      "ä¸ºæĻ¯": 3283,
      "çĶ°å®¶": 3284,
      "åŁİåĨħ": 3285,
      "ä¹īç»§": 3286,
      "éĹ°": 3287,
      "èĩ³æŃ¤": 3288,
      "åıįåıĽ": 3289,
      "åĬŁç»©": 3290,
      "ä¸ĸä»£": 3291,
      "ä¹īæ¸ħ": 3292,
      "æīĭä¸Ń": 3293,
      "å°¤åħ¶": 3294,
      "ä¸ŃæĿĳ": 3295,
      "ä¹īç»Ł": 3296,
      "å¢Ļ": 3297,
      "å·¥ä½ľ": 3298,
      "å¨ģèĥģ": 3299,
      "è®Ń": 3300,
      "æį®ç§°": 3301,
      "æĮĩå®ļ": 3302,
      "åŁºæľ¬": 3303,
      "ç¿»": 3304,
      "åĽ½å¯º": 3305,
      "éĥ¨å°Ĩ": 3306,
      "å¹´è½»": 3307,
      "çĶ°æĿĳ": 3308,
      "å´Ľ": 3309,
      "çľŁçĶ°æĺĮå¹¸": 3310,
      "ä¹īæĶ¿": 3311,
      "å¤ªå¹³": 3312,
      "ç»Ĩå·ĿæĶ¿åħĥ": 3313,
      "ç«ĭåĬŁ": 3314,
      "ç¦ıå¯º": 3315,
      "çĽ®çļĦ": 3316,
      "åį³ä¾¿": 3317,
      "éĤ£é¡»": 3318,
      "ç»Ĩå·Ŀé«ĺåĽ½": 3319,
      "éĩĩåıĸ": 3320,
      "åįģä¸īå¹´": 3321,
      "çŁ©": 3322,
      "æĹ§èĩ£": 3323,
      "çĪ±çŁ¥": 3324,
      "ä½ĵç³»": 3325,
      "åĨħå®¹": 3326,
      "åĨĽè®°": 3327,
      "133": 3328,
      "èľĤé¡»è´º": 3329,
      "å¹½": 3330,
      "åĲİæĸ¹": 3331,
      "éĿ©": 3332,
      "è§¦": 3333,
      "ä¼ª": 3334,
      "éģĵä¸ī": 3335,
      "åŁºçĿ£": 3336,
      "æĹ§é¢Ĩ": 3337,
      "è®¯": 3338,
      "å¹³æ°ı": 3339,
      "å§ĭç»Ī": 3340,
      "æĸĭèĹ¤éģĵä¸ī": 3341,
      "è°ĥåģľ": 3342,
      "æīĩè°·": 3343,
      "æĳĩ": 3344,
      "æĺŃåĴĮ": 3345,
      "çĶ°éķ¿": 3346,
      "åįģåħ«å¹´": 3347,
      "æ¿ĢçĥĪ": 3348,
      "ä¸ľè¥¿": 3349,
      "ä¾ĭå¦Ĥ": 3350,
      "æĤ£": 3351,
      "æĪĴ": 3352,
      "æĦ¤": 3353,
      "1555": 3354,
      "éľĢè¦ģ": 3355,
      "åĬ£": 3356,
      "ç±į": 3357,
      "åĿı": 3358,
      "è½¬èĢĮ": 3359,
      "å´Ľèµ·": 3360,
      "åįĥçŁ³": 3361,
      "å¸Ŀ": 3362,
      "åįģåĽĽå¹´": 3363,
      "ä¾¯": 3364,
      "1564": 3365,
      "è¯º": 3366,
      "æĮģæ°ı": 3367,
      "æĶ¾éĢĲ": 3368,
      "æīįèĥ½": 3369,
      "åĢ¾": 3370,
      "æµģä¼ł": 3371,
      "æĪ´": 3372,
      "æĻĭ": 3373,
      "æ¢¨": 3374,
      "åĪ©ä¼ĳ": 3375,
      "äºĮæĹ¥": 3376,
      "å¤§è§Ħæ¨¡": 3377,
      "1562": 3378,
      "å²Ľæ´¥ä¹īå¼ĺ": 3379,
      "æł¹æį®åľ°": 3380,
      "å°ıè¥¿è¡Įéķ¿": 3381,
      "äºĪ": 3382,
      "ä¿¡ä»»": 3383,
      "æĺ¯åĲ¦": 3384,
      "æĢİ": 3385,
      "è¦Ĩ": 3386,
      "ç¼Ķç»ĵ": 3387,
      "æĹ¦": 3388,
      "é©¬åľº": 3389,
      "æŃ¤ä¸¾": 3390,
      "åĳĪ": 3391,
      "æĬ¥åĳĬ": 3392,
      "å¥Īèī¯": 3393,
      "åĪĨå®¶": 3394,
      "å±±å¯Į": 3395,
      "è¶³åĪ©å°Ĭæ°ı": 3396,
      "ä¼ģ": 3397,
      "è·ĳ": 3398,
      "æĢģåº¦": 3399,
      "å¾®": 3400,
      "ä¿¸ç¦Ħ": 3401,
      "ä»°": 3402,
      "å®ĺèģĮ": 3403,
      "ç»Ħç»ĩ": 3404,
      "åĲįå°Ĩ": 3405,
      "éģį": 3406,
      "å½±åĵįåĬĽ": 3407,
      "åĴĮè®®": 3408,
      "åįģæ²³": 3409,
      "æ´¥çĶ°": 3410,
      "ä¸Ģäºº": 3411,
      "æĢ¨": 3412,
      "èıĬæ±ł": 3413,
      "éļľ": 3414,
      "¡æĹĭ": 3415,
      "å¤§äºķ": 3416,
      "çĹħæŃ»": 3417,
      "ç«ĭèĬ±å®ĹèĮĤ": 3418,
      "æĸ¡æĹĭ": 3419,
      "ç«ĭåĪ»": 3420,
      "éļıåĨĽ": 3421,
      "èº«è¾¹": 3422,
      "çĹĽ": 3423,
      "æĺł": 3424,
      "æĪĺä¹±": 3425,
      "åĢĴæĪĪ": 3426,
      "æĤ²": 3427,
      "é¢ĳ": 3428,
      "æĸ¹å¼ı": 3429,
      "å£®": 3430,
      "ç»§ä½į": 3431,
      "åĪĨä¸º": 3432,
      "1565": 3433,
      "èĦ±ç¦»": 3434,
      "æ¬¢": 3435,
      "ä½ľåĵģ": 3436,
      "è§ĤçĤ¹": 3437,
      "åĴĮæŃĮ": 3438,
      "åħµåºĵ": 3439,
      "å¦Ĥä»Ĭ": 3440,
      "å³ł": 3441,
      "ï½": 3442,
      "æĹ¬": 3443,
      "æ²ī": 3444,
      "è·Ŀ": 3445,
      "å½ĴéĻĦ": 3446,
      "æ¢¦": 3447,
      "è¿İå¨¶": 3448,
      "è´¥éĢĢ": 3449,
      "éĺ²å®Ī": 3450,
      "ä»ĭåħ¥": 3451,
      "åĽ½åĨħ": 3452,
      "çĽ´ä¹ī": 3453,
      "äº¤æ¶ī": 3454,
      "éĵĥæľ¨": 3455,
      "ä»»ä½ķ": 3456,
      "æıı": 3457,
      "åĽĽä½į": 3458,
      "æīĵç®Ĺ": 3459,
      "åı¦æľī": 3460,
      "è°ģ": 3461,
      "ãģķ": 3462,
      "åĽ´æĶ»": 3463,
      "500": 3464,
      "éļıä¹ĭ": 3465,
      "å¼ºåĮĸ": 3466,
      "ä¸ĢåĲį": 3467,
      "ä¼ļåĲĪ": 3468,
      "ä¸ºä¸»": 3469,
      "å¤§åĨħä¹īåħ´": 3470,
      "å°ĳè´°": 3471,
      "åľ°å¤´": 3472,
      "ä¸°èĩ£æ°ı": 3473,
      "å²Ľæ´¥ä¹īä¹ħ": 3474,
      "èĥĮåĲİ": 3475,
      "æľ«æľŁ": 3476,
      "å°º": 3477,
      "åħ°": 3478,
      "é¡¹": 3479,
      "å¾ģå¤·": 3480,
      "æĶ¹ä¸º": 3481,
      "åħŃæĹ¥": 3482,
      "åħģè®¸": 3483,
      "åºĩæĬ¤": 3484,
      "ä½ĳ": 3485,
      "èĭĹ": 3486,
      "ç»ĩçĶ°ä¿¡å¿ł": 3487,
      "å»ºéĢł": 3488,
      "å»ºæŃ¦": 3489,
      "é«ĺåŁİ": 3490,
      "è´¥åĮĹ": 3491,
      "èģĮåĬ¡": 3492,
      "çĬ¯": 3493,
      "çŃ±": 3494,
      "æĥ§": 3495,
      "èĦļ": 3496,
      "çĨŁ": 3497,
      "ãģ¾": 3498,
      "éĢłæĪĲ": 3499,
      "èı©": 3500,
      "ç¬¼åŁİ": 3501,
      "ä¹ĭå¤ĸ": 3502,
      "å®ŀçİ°": 3503,
      "åł¡": 3504,
      "å¤§ä½Ľ": 3505,
      "ä¼Ĺäºº": 3506,
      "1598": 3507,
      "ç¨³å®ļ": 3508,
      "åı¹": 3509,
      "å¯Ĵ": 3510,
      "ç¥¥": 3511,
      "åīįçº¿": 3512,
      "èį¡": 3513,
      "èģĶæīĭ": 3514,
      "æĤī": 3515,
      "åĲĮä¸Ģ": 3516,
      "éĥŃ": 3517,
      "åħ¶ä¸º": 3518,
      "åĬłå¢ŀ": 3519,
      "éķ¿å°¾æĻ¯èĻİ": 3520,
      "ä»ªå¼ı": 3521,
      "æ°ıçº²": 3522,
      "å®ĹæķĻ": 3523,
      "å¿łåħ´": 3524,
      "çĽ¸å¯¹": 3525,
      "æĺ¯åĽłä¸º": 3526,
      "å¿Į": 3527,
      "åįģäºĶå¹´": 3528,
      "æĺ¾ç¤º": 3529,
      "å¹´ä»£": 3530,
      "åŁİåŁİä¸»": 3531,
      "å¤§å¤ļ": 3532,
      "çĶŁæ¯į": 3533,
      "å°ıè·¯": 3534,
      "çĬ¶æĢģ": 3535,
      "éĩįå»º": 3536,
      "æ®Ĭ": 3537,
      "æļĤæĹ¶": 3538,
      "çķĻåľ¨": 3539,
      "å¯ĩ": 3540,
      "å¿§": 3541,
      "çº³åħ¥": 3542,
      "çĶ²å·ŀ": 3543,
      "æī¶": 3544,
      "åĮ¹": 3545,
      "æĴĳ": 3546,
      "æ»¨æĿ¾": 3547,
      "åħ¶ä½Ļ": 3548,
      "éªĳåħµ": 3549,
      "çīµåĪ¶": 3550,
      "å¯ºç¤¾": 3551,
      "ä»İæŃ¤": 3552,
      "å°Ķ": 3553,
      "çªģè¢Ń": 3554,
      "ç´«": 3555,
      "æĦıåĽ¾": 3556,
      "æ¥ł": 3557,
      "ä¸ĢéĿ¢": 3558,
      "ä¹īè´ŀ": 3559,
      "å¾ģå¤·å¤§å°ĨåĨĽ": 3560,
      "åĲ¹": 3561,
      "æĶ¿åıĺ": 3562,
      "åº·æĶ¿": 3563,
      "éª¨": 3564,
      "çĻ½æ²³": 3565,
      "ä¿¡ç§Ģ": 3566,
      "æ¸Ĭ": 3567,
      "çİ°åŃĺ": 3568,
      "åħĥå¿ł": 3569,
      "é¢Ŀ": 3570,
      "è¾ĵ": 3571,
      "éĹ¨å¾Ĵ": 3572,
      "æī°": 3573,
      "ç«ł": 3574,
      "çĬ¹": 3575,
      "åĲĥ": 3576,
      "ä¸īä½į": 3577,
      "æĺĮæĻ¯": 3578,
      "æ¸¡è¾¹": 3579,
      "ä¸ĢæĹ¶": 3580,
      "å°¹": 3581,
      "å®¶ä¹ħ": 3582,
      "æľ¬éĺŁ": 3583,
      "ä¸ĥéĥİ": 3584,
      "æľĢä¸Ĭä¹īåħī": 3585,
      "æ½ľ": 3586,
      "ä¸ĢçĶŁ": 3587,
      "éĴŁ": 3588,
      "ä¸ĢåĲĳå®Ĺ": 3589,
      "å»ºè®®": 3590,
      "åŁİæĹ¶": 3591,
      "æ°ıæĶ¿": 3592,
      "ä¸įåĨį": 3593,
      "æķ¦": 3594,
      "è°ı": 3595,
      "åĬłå¼º": 3596,
      "å¤¹åĩ»": 3597,
      "æĿİ": 3598,
      "æĺİç¡®": 3599,
      "ä¸Ī": 3600,
      "åħĨ": 3601,
      "æĪ·çĶ°": 3602,
      "ç®ķ": 3603,
      "æºĲèµĸæľĿ": 3604,
      "åľ¨äºİ": 3605,
      "ä¸»å¯¼": 3606,
      "å°ıè°·": 3607,
      "æĭ¢": 3608,
      "å´ĩ": 3609,
      "ä¸°èĩ£ç§Ģèµĸ": 3610,
      "èįĴæľ¨æĿĳ": 3611,
      "èįĴæľ¨æĿĳéĩį": 3612,
      "æĺĶ": 3613,
      "é¡ºåºĨ": 3614,
      "è¶³åĪ©æ°ı": 3615,
      "åĢį": 3616,
      "èĩ³äºİ": 3617,
      "åıįæĬĹ": 3618,
      "ãģį": 3619,
      "æ³¢å¤ļ": 3620,
      "å®½æĶ¿": 3621,
      "é©Ĵ": 3622,
      "æŃ¦èĢħ": 3623,
      "éĻįä¼ı": 3624,
      "å£¬": 3625,
      "å¾¡å®¶äºº": 3626,
      "å¸®åĬ©": 3627,
      "ä¹¦çĬ¶": 3628,
      "çľŁæŃ£": 3629,
      "ä¿¡çº²": 3630,
      "åįĬå²Ľ": 3631,
      "æ¸¸ä½Ĳ": 3632,
      "ãģ§": 3633,
      "ç¦ģæŃ¢": 3634,
      "å¹´å¹¼": 3635,
      "ä½įç½®": 3636,
      "èĪŁ": 3637,
      "æİ¢é¢ĺ": 3638,
      "èµ¦åħį": 3639,
      "ä¹ı": 3640,
      "çĽĸ": 3641,
      "ä¸Ģåº§": 3642,
      "çİĩåħµ": 3643,
      "æ©¹": 3644,
      "ä¸įå°ĳ": 3645,
      "å¹³åİŁ": 3646,
      "è§ģäºİ": 3647,
      "ç½ļ": 3648,
      "å¹¸æĿĳ": 3649,
      "ä¼ļè®®": 3650,
      "å½¢åĬ¿": 3651,
      "æ´Ĺ": 3652,
      "æĥľ": 3653,
      "åį±æľº": 3654,
      "èĥľä¹ħ": 3655,
      "ä¸Ģåįĥ": 3656,
      "åĩºåĩ»": 3657,
      "æ¯ķ": 3658,
      "ä½Ĳä½ĲæĪĲæĶ¿": 3659,
      "åĽ½åı¸": 3660,
      "æĳĨ": 3661,
      "éĩĩçĶ¨": 3662,
      "æĬļ": 3663,
      "äº¤éĢļ": 3664,
      "ä¸ºæŃ¤": 3665,
      "çªģåĩ»": 3666,
      "é¢ĨåľŁ": 3667,
      "ä½ľçĶ¨": 3668,
      "éĺµåľ°": 3669,
      "éĵł": 3670,
      "ä»¿": 3671,
      "é¾Ħ": 3672,
      "å®īæİĴ": 3673,
      "èĭı": 3674,
      "æ¸¡æµ·": 3675,
      "è´µæĹı": 3676,
      "åĮ»": 3677,
      "äºĭæĥħ": 3678,
      "ç³»åĽ¾": 3679,
      "æı´åĬ©": 3680,
      "èģĶç»ľ": 3681,
      "æħ¢": 3682,
      "èĶ": 3683,
      "å¤ªåĪĢ": 3684,
      "åĬ¨åĲĳ": 3685,
      "å½Ĵå±ŀ": 3686,
      "æĶ¾çģ«": 3687,
      "å±ı": 3688,
      "æĹ¥åĨĽ": 3689,
      "ä¹īéķĩ": 3690,
      "è¾Ī": 3691,
      "åıĳæĮ¥": 3692,
      "æĹłè®º": 3693,
      "åł¤": 3694,
      "é¦ĸæ¬¡": 3695,
      "åº¶æµģ": 3696,
      "åİĨä»£": 3697,
      "ä½ĵçİ°": 3698,
      "æķķ": 3699,
      "çº¸": 3700,
      "è¢ĸ": 3701,
      "å´©æºĥ": 3702,
      "ä¿¡åıĭ": 3703,
      "ä¹īå°§": 3704,
      "å¥īåĳ½": 3705,
      "å®ł": 3706,
      "ç¥Ī": 3707,
      "é©°": 3708,
      "éĶĲ": 3709,
      "åĵįåºĶ": 3710,
      "æľ¬æĿ¥": 3711,
      "ãģı": 3712,
      "145": 3713,
      "æĬ±": 3714,
      "æĿ¥èĩª": 3715,
      "æİª": 3716,
      "éģĵè·¯": 3717,
      "é¸Łåıĸ": 3718,
      "åŁİä¸ĭçĶº": 3719,
      "åĴĮè°Ī": 3720,
      "åıĳå¸ĥ": 3721,
      "ä¸Ńå·Ŀ": 3722,
      "å¤©éĩİ": 3723,
      "å±¥åİĨ": 3724,
      "ä¸ľåĽ½": 3725,
      "å¤ľè¢Ń": 3726,
      "æ°ıå®¶": 3727,
      "å½ĴåĽ½": 3728,
      "éªļåĬ¨": 3729,
      "è¿İåĩ»": 3730,
      "èīĺ": 3731,
      "åķĬ": 3732,
      "ä¸įåĪ©": 3733,
      "éģŃéģĩ": 3734,
      "èŀ": 3735,
      "åħ«éĥİ": 3736,
      "ä¸ĢäºĽ": 3737,
      "éķĩå®Ī": 3738,
      "æ»ĭ": 3739,
      "1566": 3740,
      "åĪĹä¸º": 3741,
      "è¶ģæľº": 3742,
      "çĶ²éĺ³": 3743,
      "åłĢè¶Ĭ": 3744,
      "åĨĽéī´": 3745,
      "çĲĨçĶ±": 3746,
      "åĪ«æīĢ": 3747,
      "åħ·ä½ĵ": 3748,
      "èĢĥèĻĳ": 3749,
      "èĸĦ": 3750,
      "ä¸ľåĮĹ": 3751,
      "çŁ³é«ĺ": 3752,
      "å¼ķèµ·": 3753,
      "é«ĺå±±": 3754,
      "åį³ä½¿": 3755,
      "å²Ń": 3756,
      "æįŁå¤±": 3757,
      "å±±æľ¬": 3758,
      "ä¸Ģè¾¹": 3759,
      "å½¼": 3760,
      "ä»İèĢĮ": 3761,
      "1588": 3762,
      "å¤ıä¹ĭéĺµ": 3763,
      "æ³¢å¤ļéĩİ": 3764,
      "çĶµ": 3765,
      "ä¸įçŁ¥": 3766,
      "åĪ©éķ¿": 3767,
      "åįģä¹Ŀå¹´": 3768,
      "åĲĮæĦı": 3769,
      "ä½Ĳä¹ħéĹ´ä¿¡çĽĽ": 3770,
      "éķ¿æ²»": 3771,
      "ä¸ŃæľŁ": 3772,
      "æŃ¦åĭĩ": 3773,
      "æĻ¨": 3774,
      "æĮ¡": 3775,
      "çĪ±çŁ¥åİ¿": 3776,
      "ä¸ĢæĪĺ": 3777,
      "å¦Ĥæ°´": 3778,
      "ä½Ĳä½Ĳæľ¨": 3779,
      "å¥ĸ": 3780,
      "æ³Ľ": 3781,
      "å¤©çİĭå¯º": 3782,
      "é«ĺè¿ľ": 3783,
      "èµ·åĪĿ": 3784,
      "èĮ¶éģĵ": 3785,
      "åķĨè®®": 3786,
      "ä¼¼ä¹İ": 3787,
      "å®ŀä¸º": 3788,
      "è®°è¿°": 3789,
      "èķ": 3790,
      "å®ĪåŁİ": 3791,
      "âĢķ": 3792,
      "é¡ºåĪ©": 3793,
      "åĲĮæľĪ": 3794,
      "èº«äº¡": 3795,
      "åĨĪåŁİ": 3796,
      "ä¸ľæµ·éģĵ": 3797,
      "æĸ¥": 3798,
      "ä¸īä»£": 3799,
      "åĩºæĪĺ": 3800,
      "çĲĥ": 3801,
      "å±Ī": 3802,
      "å®īèĹ¤": 3803,
      "æ²³åİŁ": 3804,
      "1591": 3805,
      "1556": 3806,
      "1558": 3807,
      "300": 3808,
      "äººé©¬": 3809,
      "é«ĺå¤©ç¥ŀ": 3810,
      "çĶ°ä¸Ń": 3811,
      "å¤§èĢģ": 3812,
      "ä¸ĬæĿīå®ªæĶ¿": 3813,
      "æĤ¨": 3814,
      "åįģåħŃå¹´": 3815,
      "åĨĽåĽ¢": 3816,
      "æĶ¯åŁİ": 3817,
      "æ±Ĥæı´": 3818,
      "åĭ¤": 3819,
      "æĦŁçĬ¶": 3820,
      "ä¹ĥæĺ¯": 3821,
      "æŁ³å·Ŀ": 3822,
      "æľīçĿĢ": 3823,
      "éĩİçĶ°": 3824,
      "åıĸä»£": 3825,
      "å®¶åħī": 3826,
      "ä¹īä¿¡": 3827,
      "æ´ĭ": 3828,
      "éķ¿è°·": 3829,
      "å®ĩåĸľå¤ļç§Ģå®¶": 3830,
      "é¢ģå¸ĥ": 3831,
      "æ°¸äº«": 3832,
      "åĽŀå½Ĵ": 3833,
      "åįĸ": 3834,
      "ä¾£": 3835,
      "æĹ©å¹´": 3836,
      "ç¼ĵ": 3837,
      "è®¾ç½®": 3838,
      "æĿµ": 3839,
      "éĹ²": 3840,
      "èĹ©å£«": 3841,
      "ä¹Į": 3842,
      "ä¸ĢçĻ¾": 3843,
      "å®Ĺåħ¨": 3844,
      "æĺ¾å®ļ": 3845,
      "æ·¡è·¯": 3846,
      "å¥ł": 3847,
      "æŃ£ä¿¡": 3848,
      "éļĪ": 3849,
      "ä»»åĬ¡": 3850,
      "æŁĵ": 3851,
      "æ²¡èĲ½": 3852,
      "èģĶç³»": 3853,
      "æľ¬å¤ļå¿łèĥľ": 3854,
      "åĬª": 3855,
      "ç²Ł": 3856,
      "ï½ŀ": 3857,
      "æĩ": 3858,
      "æģ°": 3859,
      "éªĮ": 3860,
      "çĮ¿": 3861,
      "è¹": 3862,
      "ä½Ĳéĩİ": 3863,
      "å£«æ°Ķ": 3864,
      "äººä»¬": 3865,
      "æİ¨è¿Ľ": 3866,
      "çıŃ": 3867,
      "ä¿ĺ": 3868,
      "ä¸ĢæĶ¯": 3869,
      "æĬ¢": 3870,
      "åħ«ä»£": 3871,
      "å¼¹æŃ£": 3872,
      "éĤĢè¯·": 3873,
      "è¾¾åĪ°": 3874,
      "é¾ĻéĢłå¯ºéļĨä¿¡": 3875,
      "æĶ¹å§ĵ": 3876,
      "æīĵåĩ»": 3877,
      "1554": 3878,
      "å¿įèĢħ": 3879,
      "æģĴåħ´": 3880,
      "ä»¥å¤ĸ": 3881,
      "éĻª": 3882,
      "åłª": 3883,
      "åºĨéķ¿ä¹ĭå½¹": 3884,
      "ä¸īæĸ¹åİŁ": 3885,
      "å¤©ä¸»": 3886,
      "ãģĬ": 3887,
      "æ´¥å·Ŀ": 3888,
      "è¡¨æĺİ": 3889,
      "ä½ĽæķĻ": 3890,
      "åı¬éĽĨ": 3891,
      "èĢĮåĲİ": 3892,
      "èĹ¤åłĤé«ĺèĻİ": 3893,
      "åı¡": 3894,
      "å°Ĩå£«": 3895,
      "æľĢé«ĺ": 3896,
      "æ¡Ĳ": 3897,
      "æĶ¯æĴĳ": 3898,
      "æĹ©å·²": 3899,
      "èĤ¯": 3900,
      "å·¨å¤§": 3901,
      "å®ľ": 3902,
      "éĹŃ": 3903,
      "çģ¾": 3904,
      "ä»Ĭå·Ŀæ°ıçľŁ": 3905,
      "ä¹ĭçĪ¶": 3906,
      "éĻįæľį": 3907,
      "æŀģä¸º": 3908,
      "ç±³æ³½": 3909,
      "ä¹ĭäºī": 3910,
      "çĶ²åºľ": 3911,
      "èĵ": 3912,
      "æľ¬èº«": 3913,
      "ä¸Ŀ": 3914,
      "åĥ§ä¾£": 3915,
      "åıįæĺł": 3916,
      "å°ıæĹ©å·Ŀç§Ģç§ĭ": 3917,
      "ç«ĭåľº": 3918,
      "æį®ä¼ł": 3919,
      "éĺ²å¤ĩ": 3920,
      "å±ĢéĿ¢": 3921,
      "æļĹä¸Ń": 3922,
      "ç§Ģåº·": 3923,
      "åīĥ": 3924,
      "æĬķå¥Ķ": 3925,
      "æĿ¾çĶ°": 3926,
      "åľŁè±ª": 3927,
      "è§Ħå®ļ": 3928,
      "åįİæĹı": 3929,
      "åħ·æľī": 3930,
      "ä¹īéķ¿": 3931,
      "æĽ°": 3932,
      "è¯¸ä¾¯": 3933,
      "èģĶå§»": 3934,
      "çĮĽæĶ»": 3935,
      "1559": 3936,
      "æĿĳä¸Ĭä¹īæ¸ħ": 3937,
      "åĲ¯": 3938,
      "æ²¹": 3939,
      "å¿łè¯ļ": 3940,
      "æŀĿ": 3941,
      "æ¹¾": 3942,
      "éĽĨåĽ¢": 3943,
      "äºĭè¿¹": 3944,
      "çºĤ": 3945,
      "éļĨæĪ¿": 3946,
      "é»ĳçĶ°éķ¿æĶ¿": 3947,
      "æģ¶åĮĸ": 3948,
      "å·¦äº¬": 3949,
      "åĮĹæĿ¡æ°ıçº²": 3950,
      "å¤§åĿĤä¹ĭéĺµ": 3951,
      "ãģĻ": 3952,
      "éĿ¢åīį": 3953,
      "çĮª": 3954,
      "åįģä¸ĥå¹´": 3955,
      "ä¸ľéĥ¨": 3956,
      "æī¿æĭħ": 3957,
      "çĻ»éĻĨ": 3958,
      "ä¹ĭæĦı": 3959,
      "åĪ©çĽĬ": 3960,
      "æĥ¯": 3961,
      "ç³»è°±": 3962,
      "çĽĽäº²": 3963,
      "å°ļæľª": 3964,
      "åħµé©¬": 3965,
      "åħµç²®": 3966,
      "é¸£": 3967,
      "å§»äº²": 3968,
      "ä¸Ģçķª": 3969,
      "ç»ıèĲ¥": 3970,
      "æĶ¶åĪ°": 3971,
      "æĦıè§ģ": 3972,
      "åĿļå®Ī": 3973,
      "ä¸Ģéĥ¨åĪĨ": 3974,
      "å¯¡": 3975,
      "æľīæīĢ": 3976,
      "æŃ£éĿ¢": 3977,
      "åİŁçĶ°": 3978,
      "å¾ģè®¨": 3979,
      "ç´¢": 3980,
      "ç©´å±±": 3981,
      "èµĭ": 3982,
      "ä¸ĩäºº": 3983,
      "æĻ´å®Ĺ": 3984,
      "çĭĤ": 3985,
      "å¤§éļħ": 3986,
      "å®¶ä¸ļ": 3987,
      "è¶ĭ": 3988,
      "å¹¿å®¶": 3989,
      "1595": 3990,
      "åľ°å½¢": 3991,
      "å§ĵæ°ı": 3992,
      "éĢĤ": 3993,
      "ä¸»åħ¬": 3994,
      "æŁĦ": 3995,
      "1542": 3996,
      "å»¶åİĨ": 3997,
      "æ£®éķ¿åı¯": 3998,
      "èįĲ": 3999,
      "æİĮæİ§": 4000,
      "ä¾Ħ": 4001,
      "æ¬¾": 4002,
      "çŁ³åŀ£": 4003,
      "164": 4004,
      "çīĮ": 4005,
      "å¼ĢæĪĺ": 4006,
      "ä¸¤å¹´": 4007,
      "ä¾ĿéĻĦ": 4008,
      "å®īæĪ¿": 4009,
      "åįĥäºº": 4010,
      "æ±ŁåŁİ": 4011,
      "åħ»å¥³": 4012,
      "1551": 4013,
      "ç½Ĺé©¬": 4014,
      "ä¸īä¸ª": 4015,
      "åľ°çĲĨ": 4016,
      "æī§äºĭ": 4017,
      "æĿ°": 4018,
      "äººæķ°": 4019,
      "èĥ¡": 4020,
      "è¡°èĲ½": 4021,
      "èı©æıĲ": 4022,
      "éĩįçĶ¨": 4023,
      "åĮºåŁŁ": 4024,
      "éģ¿åħį": 4025,
      "é¢ģåıĳ": 4026,
      "éķ¿äºķ": 4027,
      "é©¾": 4028,
      "ä¹Ŀé¬¼": 4029,
      "åĭĩçĮĽ": 4030,
      "è¯ĽæĿĢ": 4031,
      "100": 4032,
      "åĲĹ": 4033,
      "åŃ©": 4034,
      "éĶģ": 4035,
      "è¯¸åĽ½": 4036,
      "äºĭå®ŀä¸Ĭ": 4037,
      "äº¤ç»Ļ": 4038,
      "å¢ŀåĬł": 4039,
      "æĸĩç¦Ħä¹ĭå½¹": 4040,
      "æĪª": 4041,
      "ä¸»åĬ¨": 4042,
      "1557": 4043,
      "çİ°ä»Ĭ": 4044,
      "ãĤĪ": 4045,
      "æĽ´æĺ¯": 4046,
      "åĪĽå»º": 4047,
      "ä¼ģåĽ¾": 4048,
      "å®ŀè´¨": 4049,
      "åĦ¿çİī": 4050,
      "å¥¥ç¾½": 4051,
      "è¿ģèĩ³": 4052,
      "éķ¿æ»¨": 4053,
      "èµĦæĸĻ": 4054,
      "èĳĹç§°": 4055,
      "ä¸ĢæľĪ": 4056,
      "å±ħå£«": 4057,
      "è¿ľå¾ģ": 4058,
      "å®£å¸ĥ": 4059,
      "ä¼łæķĻå£«": 4060,
      "å¥īåħ¬ä¼Ĺ": 4061,
      "æĶ¿æĻ¯": 4062,
      "æİ¥è¿ĳ": 4063,
      "åĽ¾è°ĭ": 4064,
      "æīĭä¸ĭ": 4065,
      "è§ĤéŁ³": 4066,
      "å¯¹æĸ¹": 4067,
      "åįĹä¸ĭ": 4068,
      "é»ĳçĶ°åŃĿé«ĺ": 4069,
      "æŁ³çĶŁ": 4070,
      "çĥ§æ¯ģ": 4071,
      "ãģĤ": 4072,
      "è¿ĩåİ»": 4073,
      "è¶³åĪ©ä¹īæĻ´": 4074,
      "æľ¬æį®": 4075,
      "å±±åİ¿æĺĮæĻ¯": 4076,
      "å¯¹é©¬": 4077,
      "åİŁåŁİ": 4078,
      "ä¸°èĩ£ç§Ģæ¬¡": 4079,
      "åĥļ": 4080,
      "ãģĵ": 4081,
      "å¤ļå¹´": 4082,
      "ç»Ĩå·Ŀèĥľåħĥ": 4083,
      "åı³è¿ĳ": 4084,
      "ä¸įåĪ°": 4085,
      "éĢĲåĩº": 4086,
      "çī§éĩİ": 4087,
      "å°Ħåĩ»": 4088,
      "åİ©": 4089,
      "è¥¿éĥ¨": 4090,
      "æĴ°": 4091,
      "å±ķçİ°": 4092,
      "éĺ¶å±Ĥ": 4093,
      "ç»Ĩå·ĿèĹ¤åŃĿ": 4094,
      "è°ĪåĪ¤": 4095,
      "æŃ£èĥľ": 4096,
      "ä¹Ŀå·ŀå¾ģä¼Ĳ": 4097,
      "ä¸įæķ¢": 4098,
      "ä¸Ĭäº¬": 4099,
      "éĩįå¤§": 4100,
      "æºĲä¹ī": 4101,
      "1548": 4102,
      "åŃĲåĹ£": 4103,
      "çĶŁåįĴ": 4104,
      "æľĢæĹ©": 4105,
      "è¿ĳå¹´": 4106,
      "å¢¨": 4107,
      "åŃĿæĻ¯": 4108,
      "äºļ": 4109,
      "ä¸Ĭè¿°": 4110,
      "é¾Ļåħ´": 4111,
      "å¾Īå¤ļ": 4112,
      "æī®": 4113,
      "åĲĪä½ľ": 4114,
      "åĪ¶å®ļ": 4115,
      "ä¾įä»İ": 4116,
      "ä¸įå¦Ĥ": 4117,
      "æīĢé¢Ĩ": 4118,
      "åĵª": 4119,
      "æ¯Ķåı¡": 4120,
      "æ¯Ķåı¡å±±": 4121,
      "åĴĮå±±": 4122,
      "æ³ķå¸Ī": 4123,
      "è¿½éļı": 4124,
      "çĦļæ¯ģ": 4125,
      "ä¸ĢèģĮ": 4126,
      "åĲįéĹ¨": 4127,
      "è²": 4128,
      "äºĮä¹ĭä¸¸": 4129,
      "çĽ´èĮĤ": 4130,
      "ä½ĲåĴĮå±±": 4131,
      "çĲ¼": 4132,
      "æķħäºĭ": 4133,
      "åįģåĽĽ": 4134,
      "æ¬¡æĹ¥": 4135,
      "éļıä»İ": 4136,
      "éĿĻåĨĪ": 4137,
      "å»»": 4138,
      "æµ·ä¸Ĭ": 4139,
      "åĬĿè¯´": 4140,
      "è°Ĵè§ģ": 4141,
      "ä¸ĢçĤ¹": 4142,
      "ä¸ĬæľĪ": 4143,
      "ç§Ģçº²": 4144,
      "1541": 4145,
      "åİŁæ°ı": 4146,
      "å¹ħ": 4147,
      "åĩºå¥Ķ": 4148,
      "èĢĮå·²": 4149,
      "1589": 4150,
      "æĪĸè®¸": 4151,
      "ç±»ä¼¼": 4152,
      "å»¶åİĨå¯º": 4153,
      "äºĮçĻ¾": 4154,
      "åħ¼ä»»": 4155,
      "1550": 4156,
      "å¤§éĥ¨åĪĨ": 4157,
      "åĨħæĶ¿": 4158,
      "åĮħåĽ´ç½ĳ": 4159,
      "ç¨»åı¶å±±": 4160,
      "æĢİä¹Ī": 4161,
      "æĪı": 4162,
      "å¯¹åºĶ": 4163,
      "å¹¶äºİ": 4164,
      "å¤ªæĶ¿": 4165,
      "æł¹æĿ¥": 4166,
      "åĢŃå¯ĩ": 4167,
      "3000": 4168,
      "äº¬çķ¿": 4169,
      "åŀĴ": 4170,
      "ä¸Ģè·¯": 4171,
      "åŁİä¸º": 4172,
      "ä¸ĢæĹ¦": 4173,
      "åĲİç»§": 4174,
      "éĩįæĶ¿": 4175,
      "ä¸¤ä½į": 4176,
      "åºĦåĨħ": 4177,
      "å·¥ç¨ĭ": 4178,
      "1593": 4179,
      "å¯Įå£«": 4180,
      "çĨĬè°·": 4181,
      "æ¥łæľ¨": 4182,
      "çĽĹ": 4183,
      "æŃ¦åĻ¨": 4184,
      "çºł": 4185,
      "çĽĽæĶ¿": 4186,
      "è¿ĻéĩĮ": 4187,
      "åĨĪå±±": 4188,
      "åĽ´ç»ķ": 4189,
      "çŃĸåıį": 4190,
      "åįģäºĶæĹ¥": 4191,
      "æīİ": 4192,
      "æµ®": 4193,
      "çİĩåħĪ": 4194,
      "å°¼åŃĲç»ıä¹ħ": 4195,
      "å¦¹å¦¹": 4196,
      "æ¯«æĹł": 4197,
      "ä»Ĺ": 4198,
      "å¹´ä»ħ": 4199,
      "ç»ĥ": 4200,
      "ä¸Ģä¸¾": 4201,
      "ä¸ĢåĪĩ": 4202,
      "éĢı": 4203,
      "çº¢": 4204,
      "ç¥Ŀ": 4205,
      "è¾¹å¢ĥ": 4206,
      "æľįéĥ¨": 4207,
      "å²©åŁİ": 4208,
      "èĢ¶": 4209,
      "æŃ¤å½¹": 4210,
      "ç»ĵæĪĲ": 4211,
      "å¥ĳ": 4212,
      "åĴĮå¹³": 4213,
      "æĻ¯æĺ¥": 4214,
      "éĢļå¸¸": 4215,
      "èµıèµĲ": 4216,
      "æī§è¡Į": 4217,
      "æŀļ": 4218,
      "åĪ«åĲį": 4219,
      "è§£éĩĬ": 4220,
      "éļ¶å±ŀ": 4221,
      "ç®±": 4222,
      "ä¸ģ": 4223,
      "ä¸ĸè¢Ń": 4224,
      "å¢ĥåĨħ": 4225,
      "åįĥä½Ļ": 4226,
      "1553": 4227,
      "ç¡®ä¿Ŀ": 4228,
      "åŁİåł¡": 4229,
      "æľ¬å±±": 4230,
      "æ¯Ĵ": 4231,
      "çªģçł´": 4232,
      "è®¾ç«ĭ": 4233,
      "ä¾Ŀæį®": 4234,
      "æŃ£å¹³": 4235,
      "æĿ¾æµ¦": 4236,
      "æ²»çĲĨ": 4237,
      "èİ·èĥľ": 4238,
      "æıĲåĪ°": 4239,
      "åı·ç§°": 4240,
      "çģ«ç»³": 4241,
      "è®¸åı¯": 4242,
      "åĶ¯ä¸Ģ": 4243,
      "åľ¨åĨħ": 4244,
      "ä¸İæŃ¤": 4245,
      "æīĭæ®µ": 4246,
      "éĢĢåĽŀ": 4247,
      "åıĺæĪĲ": 4248,
      "çĸ²": 4249,
      "æĻ´æ°ı": 4250,
      "ç¢ĳ": 4251,
      "åĩĢåľŁ": 4252,
      "çĶ¨äºİ": 4253,
      "æĶ¿æīĢ": 4254,
      "äº¬åħĨ": 4255,
      "èģĮä½į": 4256,
      "åĽºå®Ī": 4257,
      "è²Į": 4258,
      "ä¸īä¸ĩ": 4259,
      "æŃ£äº²": 4260,
      "æĸĩçĮ®": 4261,
      "æĿ¾äºķ": 4262,
      "åĨ³å¿ĥ": 4263,
      "åĩĳ": 4264,
      "éĺ»æŃ¢": 4265,
      "èŀį": 4266,
      "å¥łå®ļ": 4267,
      "èĹ¤åĲī": 4268,
      "æĥ³è¦ģ": 4269,
      "åĩŃåĢŁ": 4270,
      "å¤§è°·åĲīç»§": 4271,
      "æĬĦ": 4272,
      "æŀ¶": 4273,
      "éĺ¿å¼¥": 4274,
      "æİĺ": 4275,
      "çĮİ": 4276,
      "è¡°éĢĢ": 4277,
      "åŁºçĿ£æķĻ": 4278,
      "å¤©ä¸»æķĻ": 4279,
      "åĬłä¹ĭ": 4280,
      "è½¬æĪĺ": 4281,
      "å·´": 4282,
      "ãģ¤": 4283,
      "è¶³åĪ©ä¹īæ»¡": 4284,
      "è´Łä¼¤": 4285,
      "èĳĽè¥¿": 4286,
      "å°ıå§ĵ": 4287,
      "çºªå·ŀ": 4288,
      "çŃĸçķ¥": 4289,
      "è¯¥åľ°": 4290,
      "ä¸½": 4291,
      "åĲŀ": 4292,
      "å¯¹æīĭ": 4293,
      "å°±æŃ¤": 4294,
      "æ¶¦": 4295,
      "çĶ²è´º": 4296,
      "åĪĿéĺµ": 4297,
      "è¿ŀç½²": 4298,
      "1552": 4299,
      "ä¹°": 4300,
      "çĶ°ä¿¡": 4301,
      "ç¹ģéķ¿": 4302,
      "çĩ": 4303,
      "æĶ¹åıĺ": 4304,
      "å°¼åŃĲæĻ´ä¹ħ": 4305,
      "è¡Ĺéģĵ": 4306,
      "åĩ¡": 4307,
      "å¯¹å¤ĸ": 4308,
      "ä¾µçķ¥": 4309,
      "äºķä¼ĬçĽ´æĶ¿": 4310,
      "å®į": 4311,
      "åħµæ³ķ": 4312,
      "å¿Ĺè´º": 4313,
      "æĻ®è¯·": 4314,
      "ç§Ģåħĥ": 4315,
      "æĽ´åĬł": 4316,
      "çº¦å®ļ": 4317,
      "ç§ĭå±±": 4318,
      "æ¤İ": 4319,
      "å¤ķ": 4320,
      "æĢ§åĳ½": 4321,
      "å§Ĭå·Ŀ": 4322,
      "åĨł": 4323,
      "æĶ¿ç§Ģ": 4324,
      "ç¬¦": 4325,
      "æŁ±": 4326,
      "å¦Ĥä¸ĭ": 4327,
      "éĽĨä¸Ń": 4328,
      "åŁİéĥŃ": 4329,
      "éĵľ": 4330,
      "å©ļå§»": 4331,
      "æ§»": 4332,
      "è¿ĳä¸ĸ": 4333,
      "åħĪåīį": 4334,
      "144": 4335,
      "çĮ®ä¸Ĭ": 4336,
      "ä¸İæŃ¤åĲĮæĹ¶": 4337,
      "å¤ĸçĶ¥": 4338,
      "æ´¾åħµ": 4339,
      "ä¸¾åĬŀ": 4340,
      "åĨ¬ä¹ĭéĺµ": 4341,
      "æłħ": 4342,
      "åĿª": 4343,
      "åĹ£åŃĲ": 4344,
      "å¤§å®Ŀ": 4345,
      "åįģä¸ĥ": 4346,
      "éĢĥåĩº": 4347,
      "æĥ³åĪ°": 4348,
      "ä¸»å®¶": 4349,
      "éļıè¡Į": 4350,
      "ä¼łè¾¾": 4351,
      "åŀĤ": 4352,
      "ä¾ĿæĹ§": 4353,
      "æ¿ĳæĪ·": 4354,
      "æĭīæĭ¢": 4355,
      "éķ¿çŃ±": 4356,
      "ä¿¡èĥľ": 4357,
      "å¸¦é¢Ĩ": 4358,
      "åĽ½åºľ": 4359,
      "åį³å°Ĩ": 4360,
      "åı¤ä»£": 4361,
      "åį°çĬ¶": 4362,
      "ç¼ĸçºĤ": 4363,
      "åī©ä¸ĭ": 4364,
      "è®©ç»Ļ": 4365,
      "åŃ¦ä¹ł": 4366,
      "ä¾ĿçĦ¶": 4367,
      "èķĥ": 4368,
      "éķ¿å´İ": 4369,
      "å±±åŁİåĽ½": 4370,
      "èĳ¡": 4371,
      "æĿ¾å¹³åħĥåº·": 4372,
      "ç§ĭçĶ°": 4373,
      "åħŃéĥİ": 4374,
      "åĬ£åĬ¿": 4375,
      "80": 4376,
      "è¿Ļä¹Ī": 4377,
      "å°ıç¬łåİŁæ°ı": 4378,
      "è¿ĩç»§": 4379,
      "åĭ¾": 4380,
      "æĺ¾å¦Ĥ": 4381,
      "1546": 4382,
      "ç§©": 4383,
      "æĶ¿çŁ¥": 4384,
      "äºĮéĺ¶": 4385,
      "ä¸ªäºº": 4386,
      "å½Ĵé¡º": 4387,
      "å¸¦æĿ¥": 4388,
      "è´¡çĮ®": 4389,
      "æĺĶæĹ¥": 4390,
      "åįģæĹ¥": 4391,
      "ä¸ľå±±": 4392,
      "è§£åĨ³": 4393,
      "ä¹ĭä¸Ĭ": 4394,
      "æĭĨ": 4395,
      "æ´¥è½»": 4396,
      "ç¥ŀæĪ·": 4397,
      "åģ¥": 4398,
      "åĲ¬éĹ»": 4399,
      "æ±łçĶ°æģĴåħ´": 4400,
      "æĢĢçĸĳ": 4401,
      "ä¹ĭèģĮ": 4402,
      "éķ¿äº«": 4403,
      "å¯¸": 4404,
      "çŃĳå±±": 4405,
      "åĳ¨åĽ´": 4406,
      "åģľæŃ¢": 4407,
      "åĨħè®": 4408,
      "åĬłå°ģ": 4409,
      "åºĻ": 4410,
      "çĶŁé©¹": 4411,
      "1599": 4412,
      "1549": 4413,
      "âĨ": 4414,
      "å±±ä¸Ĭ": 4415,
      "ä¿ĿçķĻ": 4416,
      "æĥ¨è´¥": 4417,
      "å®īå®ħ": 4418,
      "ç¬¬äºĶ": 4419,
      "èİ«": 4420,
      "åģ·": 4421,
      "ãĤĵ": 4422,
      "æĶ¹ç§°": 4423,
      "èĩ´åĬĽ": 4424,
      "è§£éĻ¤": 4425,
      "æĦ¿æĦı": 4426,
      "éºĵ": 4427,
      "åĨħè®§": 4428,
      "å¤§è¾ħ": 4429,
      "éģµ": 4430,
      "æĦĪ": 4431,
      "ãģ£": 4432,
      "æľĢä¸º": 4433,
      "åħ»çĪ¶": 4434,
      "æ¯Ķè¾ĥ": 4435,
      "åįģä¸īæĹ¥": 4436,
      "åĪĪ": 4437,
      "å¤§å¯º": 4438,
      "æľīåĲį": 4439,
      "æŃ¦åĬŁ": 4440,
      "åĲīå¼ĺ": 4441,
      "æłĩå¿Ĺ": 4442,
      "å¿ĺ": 4443,
      "æĺİåĨĽ": 4444,
      "ä»ĬæĹ¥": 4445,
      "æºĲäºİ": 4446,
      "åİĭåĪ¶": 4447,
      "å¡ŀ": 4448,
      "å¾¡é¦Ĩ": 4449,
      "åŃ¦èĢħ": 4450,
      "åħ¬åħĥ": 4451,
      "åħ¨éĿ¢": 4452,
      "çĮĽå°Ĩ": 4453,
      "ä¹ĭåĬ©": 4454,
      "ä¿¡è¡Į": 4455,
      "å¼Ĺ": 4456,
      "åįģåħ«": 4457,
      "å±ħäºİ": 4458,
      "çłį": 4459,
      "å°ıä»ĵ": 4460,
      "èĪľ": 4461,
      "æĸĹäºī": 4462,
      "çŃĶåºĶ": 4463,
      "éĩİå¿ĥ": 4464,
      "ç¥¢": 4465,
      "è´¥èµ°": 4466,
      "1547": 4467,
      "å®ŀè¡Į": 4468,
      "ç»ĵæŀĦ": 4469,
      "æĦıä¹ī": 4470,
      "åĸĬ": 4471,
      "å°ıç¬łåİŁéķ¿": 4472,
      "æ½®": 4473,
      "å®¶ä¸Ń": 4474,
      "è®¢": 4475,
      "èµ«": 4476,
      "å¿½": 4477,
      "å§¿": 4478,
      "å£ķ": 4479,
      "èĤĥ": 4480,
      "èħ°": 4481,
      "ä»ĻçŁ³": 4482,
      "ä½©": 4483,
      "äº²çİĩ": 4484,
      "è·¯çº¿": 4485,
      "åŁºæ¬¡": 4486,
      "å«¡æµģ": 4487,
      "ç®ķè½®": 4488,
      "ä¸Ģä¸°": 4489,
      "å¼ĢåĪĽ": 4490,
      "éªĳé©¬": 4491,
      "åŁİåħµ": 4492,
      "æīĳ": 4493,
      "åįģæĹ¶": 4494,
      "æĹ©æľŁ": 4495,
      "çĵ¦è§£": 4496,
      "æĶ¿å¼ĺ": 4497,
      "æĿ¥çľĭ": 4498,
      "çŃīå¾ħ": 4499,
      "åĬ¨æĳĩ": 4500,
      "æķĮéĺµ": 4501,
      "è®¤åı¯": 4502,
      "åıªè¦ģ": 4503,
      "è¯¸å¤ļ": 4504,
      "æĹĹä¸ĭ": 4505,
      "ä¸Ģç³»": 4506,
      "ä¹ĭäºĭ": 4507,
      "åĮĹä¹Ŀå·ŀ": 4508,
      "è¿Ľé©»": 4509,
      "ä½Ĳç«¹ä¹īéĩį": 4510,
      "âĨĴ": 4511,
      "åĲ¸": 4512,
      "ç»Īç»ĵ": 4513,
      "ç¦ıåĨĪ": 4514,
      "ç§»å±ħ": 4515,
      "éĩįä¿®": 4516,
      "ç¨į": 4517,
      "äºĮåįģå¹´": 4518,
      "éĻĨç»Ń": 4519,
      "åĨľä¸ļ": 4520,
      "é¦Ļå·Ŀ": 4521,
      "æĥłçĲ¼": 4522,
      "å·§": 4523,
      "åįģä½Ļ": 4524,
      "è¯¢": 4525,
      "å¤±åĬ¿": 4526,
      "åĪĩæĸŃ": 4527,
      "æŁ¿": 4528,
      "åĥ§äºº": 4529,
      "ç¬Ķå¤´": 4530,
      "åĿļæĮģ": 4531,
      "æ¥¼": 4532,
      "åĨħåºĶ": 4533,
      "å½ĵä¸Ń": 4534,
      "æł¡": 4535,
      "ä½ĲèĹ¤": 4536,
      "æĹłäºº": 4537,
      "åıĸåĲį": 4538,
      "æ®ī": 4539,
      "ä¿ĿåŃĺ": 4540,
      "è¯·æĸĩ": 4541,
      "ç¥Ģ": 4542,
      "åĭĭ": 4543,
      "äºĮåįģæĹ¥": 4544,
      "ç´¯": 4545,
      "æĸ©é¦ĸ": 4546,
      "åĪĳéĥ¨": 4547,
      "éħĴäºķå¿łæ¬¡": 4548,
      "èĹ¤åĲīéĥİ": 4549,
      "åŁİä¸Ń": 4550,
      "æ¶©": 4551,
      "æķĮæĸ¹": 4552,
      "å²³çĪ¶": 4553,
      "ä¸īå®¶": 4554,
      "æ²¦": 4555,
      "ä¹īæ°ı": 4556,
      "èĥĨ": 4557,
      "å²©å±ĭ": 4558,
      "ç¡®å®ļ": 4559,
      "ä¸ŀ": 4560,
      "å¹³æĪĲ": 4561,
      "æĬ¤åį«": 4562,
      "æĻĵ": 4563,
      "å¾ģæĶ¶": 4564,
      "åĬ±": 4565,
      "èĢĹ": 4566,
      "ä¹īè¯ł": 4567,
      "æŃ¤åľ°": 4568,
      "åĩ»æºĥ": 4569,
      "ä¹±ä¸ĸ": 4570,
      "æµ·éĩİ": 4571,
      "ç«¹åįĥä»£": 4572,
      "æµħéĩİéķ¿æĶ¿": 4573,
      "åĬªåĬĽ": 4574,
      "ä¼¸": 4575,
      "åįģä¹ĿæĹ¥": 4576,
      "åĲīè§ģ": 4577,
      "è¯´æĺİ": 4578,
      "æķĪåĬĽ": 4579,
      "æĪĺå±Ģ": 4580,
      "ä¸įåľ¨": 4581,
      "èĥľæĪĲ": 4582,
      "åŃ¦çķĮ": 4583,
      "æĪļ": 4584,
      "åĮĹæĿ¡æĹ©äºĳ": 4585,
      "æĥħæĬ¥": 4586,
      "åıĽåıĺ": 4587,
      "1603": 4588,
      "èĩ¼æĿµ": 4589,
      "éĵłçĶ²": 4590,
      "ä½³": 4591,
      "æľīåħ³": 4592,
      "æ´¼": 4593,
      "å°ıå¼ĵ": 4594,
      "è´ŀèĥľ": 4595,
      "æľºæŀĦ": 4596,
      "ç¡®å®ŀ": 4597,
      "çĽ´æ±Łåħ¼ç»Ń": 4598,
      "åº·éķ¿": 4599,
      "å¦ĩ": 4600,
      "å§¬è·¯": 4601,
      "æĪĺåĨµ": 4602,
      "ç§Ģä¹ħ": 4603,
      "æŃ¦åĬĽ": 4604,
      "è¾±": 4605,
      "æĮº": 4606,
      "äºĶå¤§èĢģ": 4607,
      "åĬłæ²»": 4608,
      "èĪª": 4609,
      "å¾ģæľį": 4610,
      "æĿ¿åŀ£": 4611,
      "åĲīçĶ°éĥ¡å±±": 4612,
      "éĩįè§Ĩ": 4613,
      "æħ°": 4614,
      "æĮīçħ§": 4615,
      "è¡¥ç»Ļ": 4616,
      "è¶Ĭè¿ĩ": 4617,
      "æ¸ħç§Ģ": 4618,
      "éĩĳå±±": 4619,
      "å°ĳå¹´": 4620,
      "å®īåħ¨": 4621,
      "çĽ´è¾ĸ": 4622,
      "æĭħå¿ĥ": 4623,
      "çĽĳè§Ĩ": 4624,
      "ä¸īæĿĳ": 4625,
      "é¢Ĩå¯¼": 4626,
      "æĭŁ": 4627,
      "æĢª": 4628,
      "äº¤åĩº": 4629,
      "æĪĸèĢħ": 4630,
      "æĬķåĲĳ": 4631,
      "æĢ§æł¼": 4632,
      "è°ĥæŁ¥": 4633,
      "åĪĿä»£èĹ©": 4634,
      "éĤ£æł·": 4635,
      "1597": 4636,
      "èģļä¹Ĳ": 4637,
      "æľ½": 4638,
      "è½©": 4639,
      "ç½²åĲį": 4640,
      "ç¼ºä¹ı": 4641,
      "ä¹ĭåĨħ": 4642,
      "ä¸įåıĬ": 4643,
      "æ¸ħåĴĮ": 4644,
      "ä¼ļæĪĺ": 4645,
      "å¾ĢæĿ¥": 4646,
      "éĩľ": 4647,
      "åįĹæĸ¹": 4648,
      "éĢ¼è¿ĳ": 4649,
      "139": 4650,
      "è¿İæĪĺ": 4651,
      "éĢģå¾Ģ": 4652,
      "æ°ıçħ§": 4653,
      "åħĥä¿¡": 4654,
      "åĲįæĬ¤": 4655,
      "æ³ª": 4656,
      "å¹³æģ¯": 4657,
      "çĽ¸åĲĮ": 4658,
      "çİ°ä»£": 4659,
      "çĲī": 4660,
      "èĢģèĩ£": 4661,
      "çŃ¹": 4662,
      "åľ°åŁŁ": 4663,
      "æİ©": 4664,
      "å®ĹæĻ¯": 4665,
      "è¯¥åŁİ": 4666,
      "1601": 4667,
      "ä¼łæī¿": 4668,
      "ç«ĭèĬ±éģĵéĽª": 4669,
      "ä¸ĭè¾¾": 4670,
      "æĺİçŁ³": 4671,
      "äºīæĸĹ": 4672,
      "1540": 4673,
      "æ¸©æ³ī": 4674,
      "åĨĴ": 4675,
      "åĬłä»¥": 4676,
      "èĪ¹åıª": 4677,
      "éĢ¢": 4678,
      "ç»Ĩå·Ŀå¿łåħ´": 4679,
      "çĻ¾ä½Ļ": 4680,
      "å¼ºçĥĪ": 4681,
      "æ¨ªå±±": 4682,
      "å°¸": 4683,
      "è°Ĺ": 4684,
      "é¡½": 4685,
      "åĦĴ": 4686,
      "æĴ¤åĽŀ": 4687,
      "åĨįåħ´": 4688,
      "åĦ¿å²Ľ": 4689,
      "æ³¨æĦı": 4690,
      "å¤§å®¶": 4691,
      "å¤§æĿĳ": 4692,
      "è´µä¹ħ": 4693,
      "åĺīæĺİ": 4694,
      "åŁİå¸Ĥ": 4695,
      "è¶³åĪ©æĪĲæ°ı": 4696,
      "å£«åįĴ": 4697,
      "åį³ä½į": 4698,
      "æĹ¥çĽĬ": 4699,
      "çŃ¾": 4700,
      "å¸ħ": 4701,
      "è±¡å¾ģ": 4702,
      "70": 4703,
      "å¤§åŃ¦": 4704,
      "è¢ĭ": 4705,
      "éĩįæ²»": 4706,
      "å®Ĺåĥı": 4707,
      "è¯´éģĵ": 4708,
      "è¿ĳä¾į": 4709,
      "åį´æĺ¯": 4710,
      "ç°": 4711,
      "éĹ¨å°ī": 4712,
      "åģļåĩº": 4713,
      "è¾īèĻİ": 4714,
      "ä¸īå¥½ä¹īç»§": 4715,
      "ç©Ĺ": 4716,
      "åįļå¤ļ": 4717,
      "ä¹ħä¹ĭ": 4718,
      "åĮ¿": 4719,
      "æĶ¿åºľ": 4720,
      "å²©ä»ĵ": 4721,
      "è¯Ĺ": 4722,
      "è´§": 4723,
      "ç§Ģèĥľ": 4724,
      "é«ĺèµĸ": 4725,
      "å¹¿å²Ľ": 4726,
      "é¥®": 4727,
      "å¤§åŀ£": 4728,
      "éĩįæĪĲ": 4729,
      "å¯ĮçĶ°": 4730,
      "éģĹè¿¹": 4731,
      "åħ«åįĥ": 4732,
      "çĸ¾": 4733,
      "ä¸Ģæ®µ": 4734,
      "ä¿¡ä»°": 4735,
      "æĶ»åħĭ": 4736,
      "æŁı": 4737,
      "éĹ»è®¯": 4738,
      "èµ°åĲĳ": 4739,
      "åĪ¤æĸŃ": 4740,
      "åĳ¼åºĶ": 4741,
      "éķ¿æĪ¿": 4742,
      "åĩĮ": 4743,
      "çľģ": 4744,
      "æ»ŀ": 4745,
      "è¶³åĪ©ä¹īç¨Ļ": 4746,
      "136": 4747,
      "å¤§å®Ŀå¯º": 4748,
      "å¾¡æ®¿": 4749,
      "è¿ĺä¿Ĺ": 4750,
      "ç§°åĳ¼": 4751,
      "å¤ĦæŃ»": 4752,
      "æĦıæĢĿ": 4753,
      "åĨĽäºĭè¡ĮåĬ¨": 4754,
      "ãģł": 4755,
      "ä½ľåĩº": 4756,
      "å®ļä¸º": 4757,
      "æŃ»äº¡": 4758,
      "çĥŁ": 4759,
      "è¿ĳçķ¿": 4760,
      "ç»Łé¢Ĩ": 4761,
      "çĭ¼": 4762,
      "åĭ¿": 4763,
      "æ¸¡è¿ĩ": 4764,
      "çŃĴäºķé¡ºåºĨ": 4765,
      "å®¶ç³»": 4766,
      "ä»£çĲĨ": 4767,
      "å¤ļæķ°": 4768,
      "è¾īæĶ¿": 4769,
      "äº«å¾·": 4770,
      "åłĢç§ĢæĶ¿": 4771,
      "åķĨä¸ļ": 4772,
      "æĵį": 4773,
      "ä¸»æĮģ": 4774,
      "åı¯æĪĲ": 4775,
      "é»ĺ": 4776,
      "ç¡¬": 4777,
      "é»ĳå·Ŀ": 4778,
      "ä¸¥éĩį": 4779,
      "æİł": 4780,
      "åĪĿåĲį": 4781,
      "å¯ĮåŃĲ": 4782,
      "1543": 4783,
      "æĴ¤åĨĽ": 4784,
      "çĨĻ": 4785,
      "åįģäºĮæĹ¥": 4786,
      "åĤ¬": 4787,
      "è§ĤéŁ³å¯º": 4788,
      "çĶŁåīį": 4789,
      "å²©æĿĳ": 4790,
      "æ¢¶": 4791,
      "5000": 4792,
      "æĹ¶æľº": 4793,
      "åĮĹæĸ¹": 4794,
      "å®ŀåľ¨": 4795,
      "ç¼©": 4796,
      "åīĬå¼±": 4797,
      "èı©æıĲå¯º": 4798,
      "å·¡": 4799,
      "ä¹īå®£": 4800,
      "æ¬§": 4801,
      "äº²æĹı": 4802,
      "ç¨£": 4803,
      "èĤ©": 4804,
      "æĬķåħ¥": 4805,
      "èĢ¶ç¨£": 4806,
      "ä¸Ģä¹ĺ": 4807,
      "æĻ¯çº²": 4808,
      "ä¿ĥæĪĲ": 4809,
      "æĺ¥æĹ¥å±±": 4810,
      "äº²ä¿¡": 4811,
      "1594": 4812,
      "éĢĿä¸ĸ": 4813,
      "å¤§èĨ³": 4814,
      "éĺµä¸Ń": 4815,
      "éĽ·": 4816,
      "ä¾ĿéĿł": 4817,
      "çŃĸåĪĴ": 4818,
      "åĺīéļĨ": 4819,
      "å¤§ä¹±": 4820,
      "å°ıå¯º": 4821,
      "å¹³äºķ": 4822,
      "åºĶå¯¹": 4823,
      "åĳĬç»Ī": 4824,
      "çļ®": 4825,
      "åĲĮæĹ¥": 4826,
      "é«ĺæĶ¿": 4827,
      "äºĭåĲİ": 4828,
      "åĿĤæľ¬": 4829,
      "ä¿®çĲĨ": 4830,
      "å°ıéĩİå¯º": 4831,
      "åĮł": 4832,
      "å®«åŁİ": 4833,
      "å½Ĵè¿ĺ": 4834,
      "äºĮéĺ¶åłĤ": 4835,
      "çļĩåŃĲ": 4836,
      "éĵŃ": 4837,
      "æĮĩç¤º": 4838,
      "ç«¹ä¸Ń": 4839,
      "èĦĳ": 4840,
      "çł´åĿı": 4841,
      "åīĳæľ¯": 4842,
      "åĲķ": 4843,
      "æ³ķåįİ": 4844,
      "çģ°": 4845,
      "å¾Īå¤§": 4846,
      "ç¬¬ä¸īä»£": 4847,
      "ä¹īæĺĮ": 4848,
      "äºĶå¥īè¡Į": 4849,
      "å·±æĸ¹": 4850,
      "äºĮæľ¬": 4851,
      "ä½Ĳæ¸¡": 4852,
      "ä¼ļéĿ¢": 4853,
      "èĲĦ": 4854,
      "æ¦Ĭ": 4855,
      "äºĮåįģåħ«æĹ¥": 4856,
      "åħĭä¸Ĭ": 4857,
      "èĳ¡èĲĦ": 4858,
      "40": 4859,
      "ä¸Ģåĳĺ": 4860,
      "ä¹ĭå¦»": 4861,
      "èµĸèīº": 4862,
      "è¶³åĪ©ä¹īæĿĲ": 4863,
      "éĢĥåĽŀ": 4864,
      "éĤ£ä¸ª": 4865,
      "è®¾æľī": 4866,
      "çıį": 4867,
      "ä¸ĭåħĭä¸Ĭ": 4868,
      "åŃĺç»Ń": 4869,
      "ç¦ıåİŁ": 4870,
      "åĢ¼å¾Ĺ": 4871,
      "ä¹īæ»¡": 4872,
      "èĤĿ": 4873,
      "éļĲå²Ĳ": 4874,
      "å®ĩåĸľå¤ļçĽ´å®¶": 4875,
      "å¤§çº³è¨Ģ": 4876,
      "åīįéĩİ": 4877,
      "åīįè¿Ľ": 4878,
      "ä¼Ĭæĸ¯": 4879,
      "ä»İå±ŀ": 4880,
      "å¤©ä¸ĭäºº": 4881,
      "æ¥ļ": 4882,
      "çĩĥ": 4883,
      "å±±å½¢": 4884,
      "ä¹īè§Ĩ": 4885,
      "æľīäºĽ": 4886,
      "çŁ¶": 4887,
      "æ±ĩ": 4888,
      "éĵ¸": 4889,
      "ç¬¬äºĮä»£": 4890,
      "æĪĲå¹´": 4891,
      "å¤ªå¤«": 4892,
      "å¤ªæĶ¿å¤§èĩ£": 4893,
      "ä¹³": 4894,
      "åıĹé¢Ĩ": 4895,
      "æĹ©éĢĿ": 4896,
      "æĿ¾å¹³å¹¿å¿ł": 4897,
      "è¿İæİ¥": 4898,
      "åħŃè§Ĵä¹īè´¤": 4899,
      "éķ¿è°·å·Ŀ": 4900,
      "å®¶æĶ¿": 4901,
      "å¤§æĢĴ": 4902,
      "ä¹īæķĻ": 4903,
      "è¾©": 4904,
      "æĶ»åįł": 4905,
      "é©¬ä¸Ĭ": 4906,
      "ä¿®å»º": 4907,
      "2000": 4908,
      "ä¸Ģå¤©": 4909,
      "å¼Ģåıĳ": 4910,
      "èĲ½åħ¥": 4911,
      "æĭľé¢Ĩ": 4912,
      "ç§ĺå¯Ĩ": 4913,
      "åĨĽå½¹": 4914,
      "çĽĶ": 4915,
      "åħ¶éĹ´": 4916,
      "ä¸¤ä¸ĩ": 4917,
      "è´¢æĶ¿": 4918,
      "è§Ī": 4919,
      "å°ıå·Ŀ": 4920,
      "ä¸´ç»Ī": 4921,
      "åĬ«": 4922,
      "å¸ģ": 4923,
      "ä¼ĬéĽĨ": 4924,
      "å¤§æ¦Ĥ": 4925,
      "çŁ¿": 4926,
      "è¿ľèĹ¤": 4927,
      "çľŁçĶ°ä¿¡ç¹ģ": 4928,
      "ä¾Ľåħ»": 4929,
      "--": 4930,
      "åľ¨æŃ¤": 4931,
      "çĶ°å±±": 4932,
      "åįģåħ«æĹ¥": 4933,
      "é«ĺçĶ°": 4934,
      "è¯´æľį": 4935,
      "ç¬¬åħŃ": 4936,
      "æĹıäºº": 4937,
      "åĪ¶ä½ľ": 4938,
      "èĩ´ä¹¦": 4939,
      "å»¶å¾·": 4940,
      "åĪĽä½ľ": 4941,
      "åıĻä»»": 4942,
      "çĭ©éĩİ": 4943,
      "ä¹ĭç¥ĸ": 4944,
      "åıĪåĲį": 4945,
      "ä¸ĥå°¾": 4946,
      "å»ºè®¾": 4947,
      "å«Į": 4948,
      "ä»Ļåı°": 4949,
      "èĳ¡èĲĦçīĻ": 4950,
      "åı²ç§°": 4951,
      "1536": 4952,
      "ä¸§å¤±": 4953,
      "åŃ©åŃĲ": 4954,
      "éķ¿æŀª": 4955,
      "åĲĦç§į": 4956,
      "éĢĲæŃ¥": 4957,
      "æĬµå¾¡": 4958,
      "ä»ĭç»į": 4959,
      "ä¸²": 4960,
      "ç»ª": 4961,
      "ä¸ĭåİ»": 4962,
      "å¸ľ": 4963,
      "æıĴ": 4964,
      "ä½¿èĬĤ": 4965,
      "æĻ´æĶ¿": 4966,
      "1545": 4967,
      "éĽªæĸĭ": 4968,
      "60": 4969,
      "ä¸Ģå®¶": 4970,
      "æľīåĪ©": 4971,
      "æĶ»çł´": 4972,
      "äº²çĶŁ": 4973,
      "è§ģåĪ°": 4974,
      "è¿ĳèĩ£": 4975,
      "åĲĪè®¡": 4976,
      "å¾¡æīĢ": 4977,
      "èĮ¶èĮ¶": 4978,
      "ç¢į": 4979,
      "è¶ħè¿ĩ": 4980,
      "æĨ": 4981,
      "åįģåĽĽæĹ¥": 4982,
      "æĭ¼": 4983,
      "åĽŀçŃĶ": 4984,
      "æıĲè®®": 4985,
      "å®¶ä¸»": 4986,
      "ä¸įä½Ĩ": 4987,
      "ä¸ľäº¬": 4988,
      "éħįç½®": 4989,
      "éĴĪå¯¹": 4990,
      "æ¬£": 4991,
      "åıįæĶ»": 4992,
      "çº·äºī": 4993,
      "åŃ¤ç«ĭ": 4994,
      "è·Ŀç¦»": 4995,
      "æī®æ¼Ķ": 4996,
      "éķ¿å®ī": 4997,
      "åĳ½è¿Ĳ": 4998,
      "åıĺåĮĸ": 4999,
      "çĸİ": 5000,
      "è¯Ħå®ļ": 5001,
      "å¯Łè§ī": 5002,
      "ä¹ĭå¦¹": 5003,
      "ä¿¡èµĸ": 5004,
      "å°ıè¯´": 5005,
      "åĮĹä¸Ĭ": 5006,
      "çİĭä¸¸": 5007,
      "åŃĻåŃĲ": 5008,
      "ç»Ŀå¯¹": 5009,
      "ä¸´æĹ¶": 5010,
      "æĶ»éĺ²": 5011,
      "èµĸéĩį": 5012,
      "åħīå¯º": 5013,
      "äº¤æį¢": 5014,
      "åŁİéĹ¨": 5015,
      "åįģä¹Ŀ": 5016,
      "è¯¸åŁİ": 5017,
      "çĵľ": 5018,
      "çĶ°åİŁ": 5019,
      "åİħ": 5020,
      "åįģä¸ĥæĹ¥": 5021,
      "æĭĸ": 5022,
      "åľŁå±ĭ": 5023,
      "èĦ¸": 5024,
      "è®¼": 5025,
      "ä¸»ä»İ": 5026,
      "å¯¹è±¡": 5027,
      "æīĵè´¥": 5028,
      "èĤ¡": 5029,
      "æĶ¶åħ¥": 5030,
      "è°ĭçķ¥": 5031,
      "æŃ¼": 5032,
      "1602": 5033,
      "æĶ»åıĸ": 5034,
      "çķı": 5035,
      "å¤ļéĹ»": 5036,
      "åĨĪéĥ¨": 5037,
      "äºĮåįģä¸ĥæĹ¥": 5038,
      "çķ·": 5039,
      "åıĳåħµ": 5040,
      "æģ³": 5041,
      "ç¼´": 5042,
      "å®ĩä½Ĳ": 5043,
      "æ°ĳéĥ¨": 5044,
      "çºµçģ«": 5045,
      "æĬĢæľ¯": 5046,
      "çĶ«": 5047,
      "å¤§æĪĺ": 5048,
      "è¦ģåĨ²": 5049,
      "æĺİæĺ¾": 5050,
      "1000": 5051,
      "åĽ½çİĭ": 5052,
      "ä¹īéī´": 5053,
      "æĦıåĳ³": 5054,
      "å¹¸çĽĽ": 5055,
      "å®ªå®ŀ": 5056,
      "åīĥåıĳ": 5057,
      "å¾¡é¦Ĩä¹ĭä¹±": 5058,
      "æĪĲçĶ°": 5059,
      "éĢĢåĩº": 5060,
      "æ°ĳä¼Ĺ": 5061,
      "èĮ¶ä¼ļ": 5062,
      "å¾ħéģĩ": 5063,
      "ç»´æĸ°": 5064,
      "ç²¾éĶĲ": 5065,
      "èĢ»": 5066,
      "ä¸Ńéĩİ": 5067,
      "è¿ģå±ħ": 5068,
      "äºĴçĽ¸": 5069,
      "åŃĲå¥³": 5070,
      "æŁ´åĨĽ": 5071,
      "èģļéĽĨ": 5072,
      "é¢ĳç¹ģ": 5073,
      "åİī": 5074,
      "å½ĵæĹ¥": 5075,
      "å®ļèµĸ": 5076,
      "ç»Łçİĩ": 5077,
      "åĬĿéĻį": 5078,
      "æ¦ĬåİŁ": 5079,
      "µçĲ": 5080,
      "å¾Ħ": 5081,
      "çĲµçĲ": 5082,
      "å·ŀå®¶": 5083,
      "æİ¥åĪ°": 5084,
      "æĽ´ä¸º": 5085,
      "éģĹåĿĢ": 5086,
      "æħĪ": 5087,
      "åĲ¦å®ļ": 5088,
      "çĲµçĲ¶": 5089,
      "å®¶æł¼": 5090,
      "ä¸Ģä¸ĭ": 5091,
      "æ³ķåº¦": 5092,
      "éĺ¿èĭı": 5093,
      "åıĽç¦»": 5094,
      "æĻĭåįĩ": 5095,
      "å¼¹æŃ£å¿ł": 5096,
      "è¿·": 5097,
      "æĽ¾ä»»": 5098,
      "èµĦæºĲ": 5099,
      "åĺīåĲī": 5100,
      "èĢ¶ç¨£ä¼ļ": 5101,
      "æĻ´æĻ¯": 5102,
      "å®«åĨħ": 5103,
      "çľŁçĶ°å¹¸æĿĳ": 5104,
      "è¯¦ç»Ĩ": 5105,
      "ä¾Ľå¥ī": 5106,
      "é¦Ļè¥¿": 5107,
      "æ··æĪĺ": 5108,
      "æİĴéĻ¤": 5109,
      "æĹħ": 5110,
      "åīįåİ»": 5111,
      "åĽĽå¤©çİĭ": 5112,
      "éĤ£éĩĮ": 5113,
      "éĢģåĪ°": 5114,
      "ç®Ĺæĺ¯": 5115,
      "éĿĴå±±": 5116,
      "åĲ¾å¦»": 5117,
      "ä¸įè¦ģ": 5118,
      "æľ¬é¢Ĩ": 5119,
      "çİ©": 5120,
      "èĥľè´Ł": 5121,
      "åĬ¨ä¹±": 5122,
      "å°ıçĶ°æ°ı": 5123,
      "èĤĥæ¸ħ": 5124,
      "åĲįç§°": 5125,
      "æĿ¥å²Ľ": 5126,
      "éª¤": 5127,
      "çªģåħ¥": 5128,
      "çģ«æŀª": 5129,
      "èĩ´åĬĽäºİ": 5130,
      "ä¸ºæŃ¢": 5131,
      "æľ¬åĽ½": 5132,
      "ãģ¡": 5133,
      "è¶³åĪ©æĮģæ°ı": 5134,
      "èİ·å°ģ": 5135,
      "äºĮåįģä¸ĢæĹ¥": 5136,
      "æĵħéķ¿": 5137,
      "çĲīçĲĥ": 5138,
      "ä¸»å°Ĩ": 5139,
      "åįĹåĮĹ": 5140,
      "å¢ŀå¼º": 5141,
      "åįģåħŃæĹ¥": 5142,
      "å½©": 5143,
      "åĨħæµ·": 5144,
      "æĿ¾åŁİ": 5145,
      "æĹłåĬĽ": 5146,
      "è¿ŀæŃĮ": 5147,
      "éĢĥèµ°": 5148,
      "åİĭåĬĽ": 5149,
      "åĿļåĽº": 5150,
      "èµ¶åĪ°": 5151,
      "å°ıå¹¡": 5152,
      "åıĹåĳ½": 5153,
      "åĬ¿åĬĽèĮĥåĽ´": 5154,
      "ä¸Ģè¡Į": 5155,
      "æ°ıæĹı": 5156,
      "éī´è¿ŀ": 5157,
      "å±±åĲįå®Ĺåħ¨": 5158,
      "åĲİèĢħ": 5159,
      "åħµéĥ¨": 5160,
      "ä¸¤åĽ½": 5161,
      "åħ´ç»ı": 5162,
      "çľŁçļĦ": 5163,
      "åĤĢ": 5164,
      "ä¿£åŁİ": 5165,
      "å·¢": 5166,
      "è¡ĮåĨĽ": 5167,
      "éĥ¨ç½²": 5168,
      "åĦ¡": 5169,
      "å°ĳæķ°": 5170,
      "èĽ°": 5171,
      "çĽ¸å½ĵäºİ": 5172,
      "å¾ĭä»¤": 5173,
      "åĪ°æĿ¥": 5174,
      "ä¼Ĭä¸¹": 5175,
      "æĿ¾ä¸¸": 5176,
      "ç§°ä½ľ": 5177,
      "ä¿Ŀåħ¨": 5178,
      "åĬŁåĬ³": 5179,
      "å¿Ĺæĳ©": 5180,
      "æķĪå¿ł": 5181,
      "æĢĿæĥ³": 5182,
      "è¯īè®¼": 5183,
      "åĤĢåĦ¡": 5184,
      "å¹³å®¶": 5185,
      "çĽ¸æ¯Ķ": 5186,
      "æ¸¡æ²³": 5187,
      "èĢ³å·Ŀ": 5188,
      "æīĢè¿°": 5189,
      "èĻ¾": 5190,
      "åĪĨæĶ¯": 5191,
      "åĸĿ": 5192,
      "ç§įå®ŀ": 5193,
      "è¤": 5194,
      "çĶ±å¸ĥ": 5195,
      "åıĺå¾Ĺ": 5196,
      "135": 5197,
      "èįĴæľ¨": 5198,
      "ä¿¡å¾Ĵ": 5199,
      "åĲīéĩİ": 5200,
      "ä¸¤æ¬¡": 5201,
      "åĮĹæĿ¡æ°ıçĽ´": 5202,
      "ä¸Ģçīĩ": 5203,
      "ä¿¡åħĥ": 5204,
      "ä¿¡æĪ¿": 5205,
      "æĪĺçº¿": 5206,
      "æķ°çĻ¾": 5207,
      "éĩİæĿĳ": 5208,
      "èµĲç»Ļ": 5209,
      "èĭ¦æĪĺ": 5210,
      "éŀį": 5211,
      "æľīåĨĪåŁİ": 5212,
      "å®Īåį«": 5213,
      "èĮ¨": 5214,
      "èĴĻ": 5215,
      "éĤ»è¿ĳ": 5216,
      "èĳ¬äºİ": 5217,
      "ãģ¿": 5218,
      "å®Ĺèĥľ": 5219,
      "åĿĤäºķ": 5220,
      "éģĹèĩ£": 5221,
      "å±ıé£İ": 5222,
      "æ°ıéĤ¦": 5223,
      "ä¹īçĽ´": 5224,
      "å¹¶ç§°": 5225,
      "ãģĪ": 5226,
      "ãģĳ": 5227,
      "æīĢåı¸": 5228,
      "ä»Ĭäºķ": 5229,
      "åĮħåĲ«": 5230,
      "å¤įæĿĤ": 5231,
      "æŃ¤å¤Ħ": 5232,
      "å¿łèī¯": 5233,
      "å¹³æīĭ": 5234,
      "æī¿è¯º": 5235,
      "143": 5236,
      "åħ·æķĻ": 5237,
      "é¼»": 5238,
      "ä¼ĬéĽĨéĻ¢": 5239,
      "hi": 5240,
      "å®Ĺçĳŀ": 5241,
      "æĿ¾å±±": 5242,
      "ä»İåĨĽ": 5243,
      "æ²»éķ¿": 5244,
      "æĹłåŃĲ": 5245,
      "è¡¨éĿ¢": 5246,
      "äºĮåįģåĽĽæĹ¥": 5247,
      "åİŁæĿ¥": 5248,
      "åħ¬éĩĮ": 5249,
      "åįģä¸ĢæĹ¥": 5250,
      "æĽ²è½®": 5251,
      "èµ¤å¤ĩ": 5252,
      "çŃĳå±±æ®¿": 5253,
      "åĿĹ": 5254,
      "çĻ½äºķ": 5255,
      "1532": 5256,
      "æŀĦçŃĳ": 5257,
      "é¹¿åĦ¿å²Ľ": 5258,
      "ç²®é£Ł": 5259,
      "æĵħèĩª": 5260,
      "ä¸°åĽ½": 5261,
      "åĩıå°ģ": 5262,
      "ä¸¢": 5263,
      "å¤§ä¸º": 5264,
      "å±±éĺ³": 5265,
      "è¾¨": 5266,
      "å¿łåĲī": 5267,
      "çĽ´å±ŀ": 5268,
      "ç¥¸": 5269,
      "çľŁå®Ĺ": 5270,
      "ç¿ĮæĹ¥": 5271,
      "å¯¿ä¸¸": 5272,
      "ä»Ĭå·Ŀæ°ıäº²": 5273,
      "éķ¿éĩį": 5274,
      "æĶ¹éĿ©": 5275,
      "äºĮåįģä¸īæĹ¥": 5276,
      "èµĦæŃ£": 5277,
      "æĢ¥å¿Ļ": 5278,
      "æĲľ": 5279,
      "éĻ¶éļĨæĪ¿": 5280,
      "èĴ²æ±ł": 5281,
      "åįĵ": 5282,
      "ä¹ĭä»ĭ": 5283,
      "æĬĵ": 5284,
      "æĪĲä¹¦": 5285,
      "çĿĢæīĭ": 5286,
      "å¤įä»ĩ": 5287,
      "æĹĹå¸ľ": 5288,
      "ç»ĩçĶ°ä¿¡åŃĿ": 5289,
      "ä¹īæķı": 5290,
      "ä¸ĭéĹ´": 5291,
      "æĮ«": 5292,
      "æĭ¾": 5293,
      "ä½Ĳè´º": 5294,
      "æľ¨æ³½": 5295,
      "å°ģåľ°": 5296,
      "è®¾è®¡": 5297,
      "ä½ıæĮģ": 5298,
      "å¥ĭåĭĩ": 5299,
      "å®¡": 5300,
      "å¤Ń": 5301,
      "ä¼į": 5302,
      "éĺħ": 5303,
      "æŃ¦è£ħ": 5304,
      "åĴĮå°ļ": 5305,
      "ä¸»äºº": 5306,
      "è¶£": 5307,
      "æ²»éĥ¨": 5308,
      "åĽĽåŃĲ": 5309,
      "æľ¨æĽ¾": 5310,
      "åħ¬åĽŃ": 5311,
      "ä¸ĩä½Ļ": 5312,
      "æĶ¯æµģ": 5313,
      "å¤ĦåĪĳ": 5314,
      "å¹¿æ³Ľ": 5315,
      "åıªå¥½": 5316,
      "è¿ŀæİ¥": 5317,
      "è¡¨è¾¾": 5318,
      "éĻĢ": 5319,
      "åĲĮå¿ĥ": 5320,
      "å¿łä¹ī": 5321,
      "è¿Ľè¨Ģ": 5322,
      "åı¯çŁ¥": 5323,
      "ä¸ĸçķĮ": 5324,
      "æĿĳéĩį": 5325,
      "ãĤĦ": 5326,
      "è¸ı": 5327,
      "ä¿¡å®ļ": 5328,
      "å±±ç§ĳ": 5329,
      "ä¸īå®ħ": 5330,
      "åī¥": 5331,
      "åĵĢ": 5332,
      "å¡«": 5333,
      "åĲ¬è¯´": 5334,
      "ç§°åı·": 5335,
      "å¾¡åīį": 5336,
      "çĽĽæ°ı": 5337,
      "åıĤæĭľ": 5338,
      "èİ·åĩĨ": 5339,
      "åı³äº¬": 5340,
      "æĬĹäºī": 5341,
      "éĵ¶å±±": 5342,
      "ä¸Ģä¹ĺè°·": 5343,
      "åĨ¶": 5344,
      "ä¸ºä½ķ": 5345,
      "éĻĪ": 5346,
      "åħĪæĺ¯": 5347,
      "éĢĥèĦ±": 5348,
      "186": 5349,
      "æĸ©èİ·": 5350,
      "æĪ·æ³½": 5351,
      "æĸĭèĹ¤ä¹īé¾Ļ": 5352,
      "åĩłä¸ª": 5353,
      "å¢ĵåľ°": 5354,
      "æģĲæĢķ": 5355,
      "æŃ£å®¶": 5356,
      "éļĻ": 5357,
      "åĨħéĢļ": 5358,
      "ä»¤äºº": 5359,
      "æ¶Į": 5360,
      "å¹½ç¦ģ": 5361,
      "è¶³ä»¥": 5362,
      "åįĥåĪ©ä¼ĳ": 5363,
      "éĤĳ": 5364,
      "çľĭæĿ¥": 5365,
      "æ®ĭåħļ": 5366,
      "å®ĺåħµåį«": 5367,
      "æıĲåıĬ": 5368,
      "ä»·åĢ¼": 5369,
      "éŃĶ": 5370,
      "åĵ¥åĵ¥": 5371,
      "âĶģ": 5372,
      "å¥ĳæľº": 5373,
      "äºĮåįģäºĶæĹ¥": 5374,
      "å¤§äºº": 5375,
      "æİ¥è¿ŀ": 5376,
      "å²Ľæ´¥å®¶ä¹ħ": 5377,
      "å¤§åıĭä¹īéķĩ": 5378,
      "ç©·": 5379,
      "éķĩå¹¸": 5380,
      "1544": 5381,
      "èªīä¸º": 5382,
      "åĩºäºİ": 5383,
      "åħµè´¥": 5384,
      "æĿ¡çĽ®": 5385,
      "æĿĳèĲ½": 5386,
      "ç¬¬äºĮå¹´": 5387,
      "å¾Ģå¾Ģ": 5388,
      "æ¯įå¼Ł": 5389,
      "é¥ŃçĶ°": 5390,
      "æĵĴ": 5391,
      "é»Ħéĩĳ": 5392,
      "ä¹ĭæĸ¹": 5393,
      "åĮĹéĿ¢": 5394,
      "å½ĵåĪĿ": 5395,
      "199": 5396,
      "æ´Ľä¼Ĭæĸ¯": 5397,
      "ç¥ĸåħĪ": 5398,
      "åīįçĶ°åĪ©éķ¿": 5399,
      "ç¥Ńç¥Ģ": 5400,
      "ãŃ": 5401,
      "ä¸Ģèĩ´": 5402,
      "åĽ½å¢ĥ": 5403,
      "ä¹īå°±": 5404,
      "ä¸įé¡¾": 5405,
      "ç§ĢéļĨ": 5406,
      "éĻµ": 5407,
      "çŃīåĪ°": 5408,
      "çī¢": 5409,
      "ä½Ĳä¼¯": 5410,
      "åıįå¤į": 5411,
      "æıĲæĭĶ": 5412,
      "æĺ¾èĳĹ": 5413,
      "éĩĳåŃĲ": 5414,
      "æ¯įè¡£": 5415,
      "æ·±åħ¥": 5416,
      "è¯ģæĺİ": 5417,
      "ä¸Ģç³»åĪĹ": 5418,
      "ãŃ´": 5419,
      "èĿ": 5420,
      "æľŃ": 5421,
      "ä¿¡æĺĮ": 5422,
      "ä¸Ĭä¸ĭ": 5423,
      "è½¬åĲĳ": 5424,
      "æİ¨è¡Į": 5425,
      "ç½®äºİ": 5426,
      "æĸĭèĹ¤é¾Ļåħ´": 5427,
      "æħĮ": 5428,
      "ä¸ĺ": 5429,
      "åºŀ": 5430,
      "æĶ¿åĪĻ": 5431,
      "å²Ĥ": 5432,
      "åľ°å¸¦": 5433,
      "ä¿Ŀè¯ģ": 5434,
      "åŃĺä¿Ŀ": 5435,
      "å¯ĨåĪĩ": 5436,
      "éĢ¸äºĭ": 5437,
      "ç§©åºı": 5438,
      "ä¹ĭæīĢä»¥": 5439,
      "ä¸Ńå±±": 5440,
      "è¦ģå®³": 5441,
      "æĿ¾å°¾": 5442,
      "éģĵçģĮ": 5443,
      "æ¸ħçĽĽ": 5444,
      "ç¥ŀå®«": 5445,
      "æŀľçĦ¶": 5446,
      "çķłå±±ä¹īå°±": 5447,
      "éĺ¶æ®µ": 5448,
      "å¤ªçĶ°éģĵçģĮ": 5449,
      "æģ©èµı": 5450,
      "åħ¶åħĦ": 5451,
      "åı¯è°ĵ": 5452,
      "è½¬ä¸º": 5453,
      "å°ģéĶģ": 5454,
      "éħįåĲĪ": 5455,
      "ä¿¡åħī": 5456,
      "æľ¬åĲį": 5457,
      "ä¼ıåħµ": 5458,
      "ä¸įäºĨ": 5459,
      "æŃ»å®Ī": 5460,
      "å£¤": 5461,
      "æĭħå½ĵ": 5462,
      "ä¾Ŀèµĸ": 5463,
      "åĪĨéħį": 5464,
      "æľ¨åŁİ": 5465,
      "ä¼łæĿ¥": 5466,
      "æķ°æŃ£": 5467,
      "åĬłè´ºåĽ½": 5468,
      "çĨĬæľ¬": 5469,
      "åľ°åĲį": 5470,
      "åĢļ": 5471,
      "åħ´ç¦ıå¯º": 5472,
      "å±ŀä¸ĭ": 5473,
      "æķ´å¤ĩ": 5474,
      "ç²Łå±ĭ": 5475,
      "åįľ": 5476,
      "çĽĨ": 5477,
      "èº«ä¸Ĭ": 5478,
      "å§ĭç¥ĸ": 5479,
      "è±«ä»¥": 5480,
      "ç¨ĭåº¦": 5481,
      "å¤§çº¦": 5482,
      "ä¼¦": 5483,
      "äººå¿ĥ": 5484,
      "æį®æŃ¤": 5485,
      "1596": 5486,
      "èį¯å¸Ī": 5487,
      "æ¿ĳæĪ·åĨħæµ·": 5488,
      "ä¿¡æĸ¹": 5489,
      "æŃ¤äºº": 5490,
      "çĽ´çĽĽ": 5491,
      "çī¹å¾ģ": 5492,
      "ä¼¯çĪ¶": 5493,
      "å®¶å¿ł": 5494,
      "æĹ¥æľŁ": 5495,
      "äººä¼Ĺ": 5496,
      "ä¹ħæĶ¿": 5497,
      "å½¢è±¡": 5498,
      "åĪ«åĬ¨": 5499,
      "æīĺä»ĺ": 5500,
      "å±±éĺ´": 5501,
      "å½°": 5502,
      "ä¸įåĬ¨": 5503,
      "å¯»æ±Ĥ": 5504,
      "åħ°ä¸¸": 5505,
      "åİĮ": 5506,
      "ä¹īå¿ł": 5507,
      "å¤įå½Ĵ": 5508,
      "1538": 5509,
      "æııç»ĺ": 5510,
      "æ¯ķç«Ł": 5511,
      "åĨĽå¸Ī": 5512,
      "éĽ¶": 5513,
      "æĿĢåħ¥": 5514,
      "æķ°éĩı": 5515,
      "ç¹ģèį£": 5516,
      "å±±åľ°": 5517,
      "ä¹īæĿĲ": 5518,
      "æŃ£å½ĵ": 5519,
      "ä»£æĽ¿": 5520,
      "èīºæľ¯": 5521,
      "çĶŁäº§": 5522,
      "èĬ¥": 5523,
      "å¥³åŃĲ": 5524,
      "åıĤéĺµ": 5525,
      "çī©èµĦ": 5526,
      "åĽ´åŁİ": 5527,
      "ç«ŁçĦ¶": 5528,
      "..": 5529,
      "å®Īå®¶": 5530,
      "è¿ĩäºİ": 5531,
      "ç³»ç»Ł": 5532,
      "æ£ĭ": 5533,
      "åŁºäºİ": 5534,
      "æħİ": 5535,
      "ç²¾ç¥ŀ": 5536,
      "åİ©æ¡¥": 5537,
      "å¿łä¸ĸ": 5538,
      "åĽŀåĽ½": 5539,
      "é¦ĸé¢Ĩ": 5540,
      "è½¬ä»ķ": 5541,
      "æ¼«": 5542,
      "èĽ°å±ħ": 5543,
      "ä¸ĢåŃĹ": 5544,
      "èĹ¤æ°ı": 5545,
      "åıĤè§ģ": 5546,
      "èģĮè´£": 5547,
      "æĶ¶ä¸º": 5548,
      "å¨ĺ": 5549,
      "å¢ŀæı´": 5550,
      "åŁĭä¼ı": 5551,
      "èį·": 5552,
      "æĪĲéķ¿": 5553,
      "çķĳ": 5554,
      "æŀģå¤§": 5555,
      "æ·±åİļ": 5556,
      "çī¹æ®Ĭ": 5557,
      "ä¼¤äº¡": 5558,
      "æ²¦ä¸º": 5559,
      "å°Ŀ": 5560,
      "åĨĮ": 5561,
      "åĲİä»£": 5562,
      "å¤§ç¤¾": 5563,
      "è´Ń": 5564,
      "åħĥçº²": 5565,
      "çļĩå®¤": 5566,
      "éģŃåıĹ": 5567,
      "äºĮåįģä¹ĿæĹ¥": 5568,
      "æıĲäº¤": 5569,
      "éĴµ": 5570,
      "31": 5571,
      "å¤§å®«": 5572,
      "å¼ŁåŃĲ": 5573,
      "äº¤éĶĭ": 5574,
      "çľŁå®ŀ": 5575,
      "åĲĦåĽ½": 5576,
      "æĮĤå·Ŀ": 5577,
      "ä¸Ńéĥ¨": 5578,
      "è°£": 5579,
      "ç»ıå¸¸": 5580,
      "ä¼Ĭè¾¾è¾īå®Ĺ": 5581,
      "åĬłèĹ¤åĺīæĺİ": 5582,
      "æŁ¿å´İ": 5583,
      "åĽ½äº²": 5584,
      "ä¸Ńæľī": 5585,
      "åĩºèī²": 5586,
      "éģ¥": 5587,
      "å°ıåİ¿": 5588,
      "å¹ķæľ«": 5589,
      "ä¸Ģäºĭ": 5590,
      "å¤§å°ı": 5591,
      "æŃ£ç»Ł": 5592,
      "çº²æĪĲ": 5593,
      "å§ĭäºİ": 5594,
      "ä¸īå¥½åħĥéķ¿": 5595,
      "éĩĩçº³": 5596,
      "èĭĹåŃĹ": 5597,
      "éķ¿å¥³": 5598,
      "è°¨": 5599,
      "æ¯Ļ": 5600,
      "æĲŀ": 5601,
      "ç¨³åĽº": 5602,
      "å¹»": 5603,
      "ä¹īä¸°": 5604,
      "ä¹īå»ī": 5605,
      "æīĢçĶŁ": 5606,
      "ä¸ĬæĿīæĻ¯èĻİ": 5607,
      "è§īå¾Ĺ": 5608,
      "äºĮåįģåħŃæĹ¥": 5609,
      "åīįéĶĭ": 5610,
      "èĩªå®¶": 5611,
      "äºĮä»£": 5612,
      "è¿ĩæĿ¥": 5613,
      "ä¹ĿæĿ¡": 5614,
      "æĹ¶æĶ¿": 5615,
      "èĻı": 5616,
      "éĿ¢ä¸´": 5617,
      "å¤ĸæł·": 5618,
      "çĽĽéĩį": 5619,
      "å®ĺéĢĶ": 5620,
      "è°·åŁİ": 5621,
      "å¤§åĿĤå¤ıä¹ĭéĺµ": 5622,
      "åłĢå°¾": 5623,
      "å®ĭ": 5624,
      "ä¸Ģå¤Ħ": 5625,
      "ä¹ĭæīĭ": 5626,
      "æĺ¯ä»İ": 5627,
      "ä¸Ńå°Ĩ": 5628,
      "éĢĴ": 5629,
      "ç«Ń": 5630,
      "èĥľæ°¸": 5631,
      "è´ŀäº²": 5632,
      "æĶ¶å¤į": 5633,
      "1537": 5634,
      "ç©¶ç«Ł": 5635,
      "ç®±æł¹": 5636,
      "å®¶åĲį": 5637,
      "ä¸Ĭæ³ī": 5638,
      "ä¸ľå¤§å¯º": 5639,
      "è¥¿åĽŃ": 5640,
      "å·¦é©¬": 5641,
      "æ¥¯": 5642,
      "åĲİèĹ¤åŁºæ¬¡": 5643,
      "éĶħå²ĽçĽ´èĮĤ": 5644,
      "ä¿±": 5645,
      "åŁİå¤ĸ": 5646,
      "æĪĺåīį": 5647,
      "è¯¾": 5648,
      "é«ĺæ¬¡": 5649,
      "é«ĺç»ı": 5650,
      "æ®ģ": 5651,
      "æµģäº¡": 5652,
      "èĽ®": 5653,
      "æķ¦è´º": 5654,
      "åĲİäºİ": 5655,
      "ä¿¡å¹¸": 5656,
      "ä¸ŃéĹ´": 5657,
      "ä¸įå®ī": 5658,
      "éĺĶ": 5659,
      "æĶ¿èĻİ": 5660,
      "æĬ«": 5661,
      "ä½ľèĢħ": 5662,
      "è®°ä¸º": 5663,
      "å¾¡åĿĬ": 5664,
      "ä¸¾åĬ¨": 5665,
      "çĽ®åīį": 5666,
      "å¢ŀçĶ°éķ¿": 5667,
      "æ²¿æµ·": 5668,
      "éĩĮè§ģä¹īå°§": 5669,
      "å¢ŀçĶ°éķ¿çĽĽ": 5670,
      "åľĪ": 5671,
      "å¤§æ²³åĨħ": 5672,
      "å®īåĽ½å¯º": 5673,
      "çİĭåŃĲ": 5674,
      "è¥¿åĽŃå¯º": 5675,
      "å®īåĽ½å¯ºæĥłçĲ¼": 5676,
      "å¯¹ä»ĺ": 5677,
      "å¼Ĺæ´Ľä¼Ĭæĸ¯": 5678,
      "éķ¿ç¦Ħ": 5679,
      "éļ¼": 5680,
      "çŃīçŃī": 5681,
      "è´£ä»»": 5682,
      "ä¸Ģéĥ¨": 5683,
      "æĹ¶åĪ»": 5684,
      "èº²": 5685,
      "æĹłå¥Ī": 5686,
      "åĽ´åĽ°": 5687,
      "çł´è£Ĥ": 5688,
      "å¿ħè¦ģ": 5689,
      "åºŀå¤§": 5690,
      "éĢĢåħµ": 5691,
      "åħ¨åĬĽ": 5692,
      "æµģæµª": 5693,
      "æ·³": 5694,
      "ç»Ĩå·Ŀæ¾Ħåħĥ": 5695,
      "åħŃè§Ĵé«ĺèµĸ": 5696,
      "éĻĲåĪ¶": 5697,
      "çıł": 5698,
      "æ»ŀçķĻ": 5699,
      "äººä¸º": 5700,
      "ä¹īæĹ¶": 5701,
      "å¿łçĽ´": 5702,
      "ä¼łéĹ»": 5703,
      "æ¶Ĥ": 5704,
      "åĲİäºº": 5705,
      "ä¿¡ä¸°": 5706,
      "å¯¨": 5707,
      "é¢ĨåŁŁ": 5708,
      "ãģĺ": 5709,
      "éĢĢå¾Ģ": 5710,
      "åİĨç»ı": 5711,
      "ãĤģ": 5712,
      "è¿½è®¨": 5713,
      "å¼ĵç®Ń": 5714,
      "æĬĽ": 5715,
      "æĪĲå°±": 5716,
      "äºĮä½į": 5717,
      "å¹ķèĩ£": 5718,
      "åĬ¨èį¡": 5719,
      "å±ķç¤º": 5720,
      "ä¼Ĭè±«åĽ½": 5721,
      "åĽ½åºľåı°": 5722,
      "åĪ«åĬ¨éĺŁ": 5723,
      "æŃ£çº¯": 5724,
      "æĸĩæ²»": 5725,
      "è¿Ľåıĳ": 5726,
      "æĶ¹åħĥ": 5727,
      "æ·±åıĹ": 5728,
      "ä½łä»¬": 5729,
      "æ¸¯åı£": 5730,
      "å¤§å¾·": 5731,
      "åĩ¶": 5732,
      "äºĮéĥİ": 5733,
      "é«ĺå±ĭ": 5734,
      "ä»»å®ĺ": 5735,
      "æľĿèĩ£": 5736,
      "1616": 5737,
      "æĿ¾å¹³æ¸ħåº·": 5738,
      "éĺ¿éĥ¨": 5739,
      "ç¢İ": 5740,
      "ä¸ºåĲį": 5741,
      "å¦¥": 5742,
      "ä¸¤ä»£": 5743,
      "å±ħçĦ¶": 5744,
      "åĭŁ": 5745,
      "ä¸ºä»Ģä¹Ī": 5746,
      "å¤§å¹ħ": 5747,
      "ä¼°": 5748,
      "åĽ½åĪĨ": 5749,
      "äººåĳĺ": 5750,
      "éĺŁä¼į": 5751,
      "åĵ²": 5752,
      "æ³¢ç½Ĺ": 5753,
      "æĸ½è¡Į": 5754,
      "åĪºæĿĢ": 5755,
      "åĨ°": 5756,
      "åº¸": 5757,
      "éķ¿æĿŁ": 5758,
      "ä¾¦": 5759,
      "å¿łæģĴ": 5760,
      "å¤ĦåĪĨ": 5761,
      "äºĮåįģåĽĽ": 5762,
      "æĤŁ": 5763,
      "æ£®åı¯æĪĲ": 5764,
      "é«ĺæ¡¥ç»įè¿Ĳ": 5765,
      "æĥ©": 5766,
      "çİĦèķĥ": 5767,
      "ä»ģç§ĳ": 5768,
      "åħŃè§Ĵå®ļèµĸ": 5769,
      "åį±éĻ©": 5770,
      "åª": 5771,
      "ä¹īéĺ³": 5772,
      "ä¸įå¹¸": 5773,
      "ç§Ģä¿¡": 5774,
      "è¿Ļåº§": 5775,
      "æŃ»ä¼¤": 5776,
      "éģ£ä½¿": 5777,
      "åĨĽåĬŁ": 5778,
      "æĸ¹éĴĪ": 5779,
      "è¿ĻæĹ¶åĢĻ": 5780,
      "å¾·å·Ŀå®¶åħī": 5781,
      "ä¸¤æ´¾": 5782,
      "è®©åĩº": 5783,
      "çīĩæ¡Ĳ": 5784,
      "æ²¿å²¸": 5785,
      "è¸ª": 5786,
      "åįļçī©": 5787,
      "æĶ»çģŃ": 5788,
      "è¥¿æĸ¹": 5789,
      "éĽ¾": 5790,
      "çľŁéĩĮ": 5791,
      "æ®¿åĨĽ": 5792,
      "éī´ç§į": 5793,
      "å®£åĳĬ": 5794,
      "å¹¼å¹´": 5795,
      "å¼Ĥè¯´": 5796,
      "åĲ¬åĪ°": 5797,
      "æĺİæ²»ç»´æĸ°": 5798,
      "èĽĩ": 5799,
      "é«ĺå¸Ī": 5800,
      "æłı": 5801,
      "æłĸ": 5802,
      "ä¸¤åįĥ": 5803,
      "èĪħ": 5804,
      "ãĤı": 5805,
      "çĲĨè§£": 5806,
      "èģĶçĽŁ": 5807,
      "ä½Ļäºº": 5808,
      "åĢŁæŃ¤": 5809,
      "åĲīå·Ŀå¹¿å®¶": 5810,
      "çĽĳæĬ¤": 5811,
      "å¯Ŀ": 5812,
      "ä¸įçł´": 5813,
      "åĩºçīĪ": 5814,
      "ä¸ĭæĹ¬": 5815,
      "æľĿæ¯Ķ": 5816,
      "åıĹå°ģ": 5817,
      "å¤Ħç½®": 5818,
      "çĻ»ä¸Ĭ": 5819,
      "1539": 5820,
      "1605": 5821,
      "æ¨ªçĶ°": 5822,
      "æľĿæ¯Ķå¥Ī": 5823,
      "åºĬ": 5824,
      "éģģ": 5825,
      "æĮ½": 5826,
      "è¥¿çıŃ": 5827,
      "ä¸ĥæľ¬": 5828,
      "æ°´æĪ·": 5829,
      "è¶³åĪ©ä¹īè§Ĩ": 5830,
      "æ±łçĶ°è¾īæĶ¿": 5831,
      "å±¡æ¬¡": 5832,
      "æ»ĭè´º": 5833,
      "è¥¿çıŃçīĻ": 5834,
      "84": 5835,
      "æĻ¯å®¶": 5836,
      "æĳĦæĶ¿": 5837,
      "ä¼ĺç§Ģ": 5838,
      "åįļçī©é¦Ĩ": 5839,
      "èĢĮæĿ¥": 5840,
      "èĩ³å°ĳ": 5841,
      "éĹ¨åı¸": 5842,
      "æĬ¤éĢģ": 5843,
      "åħ¬å¼Ģ": 5844,
      "æ»´": 5845,
      "ç»ĵåĲĪ": 5846,
      "ä¾įæīĢ": 5847,
      "æī©å±ķ": 5848,
      "ä¸įä½ı": 5849,
      "åĩºéĿ¢": 5850,
      "é«ĺåŁº": 5851,
      "éĢļå¾Ģ": 5852,
      "æĦıåĳ³çĿĢ": 5853,
      "ä¸įæĦ¿": 5854,
      "åĩºå¸Ń": 5855,
      "é¢Ĩæ°ĳ": 5856,
      "é«ĺåĿĤ": 5857,
      "å½ĵå®¶": 5858,
      "éĥ½å¸Ĥ": 5859,
      "èĤī": 5860,
      "è¿ŀç»Ń": 5861,
      "è¿İæĿ¥": 5862,
      "è¾ŀä¸ĸ": 5863,
      "éľ¸æĿĥ": 5864,
      "ãģ°": 5865,
      "æīĢçĶ¨": 5866,
      "å±ħé¦Ĩ": 5867,
      "åħ´åħĥ": 5868,
      "å±±åŁİä¹ĭæĪĺ": 5869,
      "éĺ²æŃ¢": 5870,
      "çĬ¶åĨµ": 5871,
      "çºªå¿µ": 5872,
      "åĳĬçŁ¥": 5873,
      "1530": 5874,
      "1533": 5875,
      "1534": 5876,
      "1535": 5877,
      "åĽ½ä¹ħ": 5878,
      "æĿĳäºķ": 5879,
      "å¹¿å¯º": 5880,
      "éĤ£äºĽ": 5881,
      "æİ¨ä¸¾": 5882,
      "æļĹéĢļ": 5883,
      "å£¬çĶŁ": 5884,
      "ç§Ģæ²»": 5885,
      "å®ĩæ²»": 5886,
      "åĲı": 5887,
      "ä¹ĭå¿ĥ": 5888,
      "å®Ĺæ°ı": 5889,
      "äº¤å¥½": 5890,
      "åı¤éĩİ": 5891,
      "äºĮåįģäºĮæĹ¥": 5892,
      "éĤ£åı¤éĩİ": 5893,
      "éģĹè¨Ģ": 5894,
      "åĲİç»§èĢħ": 5895,
      "å±±æ¢¨": 5896,
      "åĲįåı«": 5897,
      "åľ°éľĩ": 5898,
      "éĩĳæ³½": 5899,
      "æĹĭåį³": 5900,
      "æĻ®éģį": 5901,
      "ä¹ĭæĹ¶": 5902,
      "å¤§èĩ´": 5903,
      "éķ¿åħĦ": 5904,
      "ä¸ľåįĹ": 5905,
      "æŀ¢": 5906,
      "æķ°åįģ": 5907,
      "ä»ħä»ħ": 5908,
      "åħ¼å®ļ": 5909,
      "ä¹ĭåħĦ": 5910,
      "æĹ¥å¤ľ": 5911,
      "è´Ŀ": 5912,
      "ãģĿ": 5913,
      "ä¿¡éķ¿åĮħåĽ´ç½ĳ": 5914,
      "å¦¾": 5915,
      "å®ŀä¼ĳ": 5916,
      "çľĭåĩº": 5917,
      "è°Ĺè¨Ģ": 5918,
      "å¤§ä¹ī": 5919,
      "ä½įåĪĹ": 5920,
      "è°ĭæ±Ĥ": 5921,
      "æĳĦåħ³": 5922,
      "æľ¬å¤ļæŃ£ä¿¡": 5923,
      "æĹ¢çĦ¶": 5924,
      "æľ¬åºĦç¹ģéķ¿": 5925,
      "35": 5926,
      "å¤§çŁ³": 5927,
      "ä¼½": 5928,
      "æĸ¹å¹¿å¯º": 5929,
      "é«ĺå¹¿": 5930,
      "éħ·": 5931,
      "å°¼å´İ": 5932,
      "éĩĳå´İ": 5933,
      "é¸Łç¾½": 5934,
      "ç¦ħå¯º": 5935,
      "èĪŀåı°": 5936,
      "æī¶æĮģ": 5937,
      "ä¿ĺèĻı": 5938,
      "åħ¹": 5939,
      "ä¹ĭåĬŁ": 5940,
      "å±±éºĵ": 5941,
      "æĬĳ": 5942,
      "é¢ľ": 5943,
      "è¢«èªīä¸º": 5944,
      "ç»§èĢĮ": 5945,
      "çłĤ": 5946,
      "çĪ±åŃ£": 5947,
      "åĨĻéģĵ": 5948,
      "è¶ģçĿĢ": 5949,
      "åī²æį®": 5950,
      "å¤§ä½Ľæ®¿": 5951,
      "85": 5952,
      "ä¸Ģè¯į": 5953,
      "äºĨè§£": 5954,
      "åĽĽçĶ·": 5955,
      "èģª": 5956,
      "1611": 5957,
      "éĿĻåĨĪåİ¿": 5958,
      "å¤§æĺİ": 5959,
      "ä¸įæķĮ": 5960,
      "äºĭä¸ļ": 5961,
      "è½¯": 5962,
      "æĿ¾ä»ĵ": 5963,
      "èĲ©": 5964,
      "å°¼åŃĲèĥľä¹ħ": 5965,
      "æİ¨å®ļ": 5966,
      "éĴĵ": 5967,
      "ç»Łæ²»èĢħ": 5968,
      "è¡Ģç¼ĺ": 5969,
      "æª": 5970,
      "éķ¿å¹´": 5971,
      "å°ıè±Ĩ": 5972,
      "å®Ĺæ²»": 5973,
      "æĸĩåŃĹ": 5974,
      "å¹³éĩİ": 5975,
      "æľĿåħ´": 5976,
      "å¥³æĢ§": 5977,
      "å¤§åĨħæĶ¿å¼ĺ": 5978,
      "ä»ķç½®": 5979,
      "ç®Ģåįķ": 5980,
      "é¡½å¼º": 5981,
      "è¿ĳä»£": 5982,
      "åħĪç¥ĸ": 5983,
      "æķĻèĤ²": 5984,
      "è½¬åıĺ": 5985,
      "è½¬ç§»": 5986,
      "æľĿä»ĵåŃĿæĻ¯": 5987,
      "1609": 5988,
      "ç¢§": 5989,
      "åº¶åŃĲ": 5990,
      "åĲīèī¯æ°ı": 5991,
      "å¤§æ²³": 5992,
      "åıĳçĶ°": 5993,
      "æ¯ĽåĪ©éļĨåħĥ": 5994,
      "çĭ±": 5995,
      "éĺ²çº¿": 5996,
      "å®¹æĺĵ": 5997,
      "åºŁéĻ¤": 5998,
      "åĽ°éļ¾": 5999,
      "çĶ²å·ŀå¾ģä¼Ĳ": 6000,
      "æĥ¯ä¾ĭ": 6001,
      "å¤§åįĬ": 6002,
      "ä¿¡åĲĽ": 6003,
      "åĨ³æĦı": 6004,
      "æıĲåįĩ": 6005,
      "çķłå±±æĶ¿éķ¿": 6006,
      "æ¯ıå¹´": 6007,
      "é¢ĩä¸º": 6008,
      "ä¸įå·²": 6009,
      "æĶ¶å½ķ": 6010,
      "æĤĶ": 6011,
      "è°ĭæĿĢ": 6012,
      "èĶļ": 6013,
      "åīįå¤ķ": 6014,
      "é«ĺæ¢¨": 6015,
      "å¿łè¾ī": 6016,
      "è¥¿ä¹¡": 6017,
      "æµ·è·¯": 6018,
      "æķ°å¹´": 6019,
      "å¢ŀèĩ³": 6020,
      "æ¶Īå¤±": 6021,
      "åĭĩå£«": 6022,
      "çĭ¬èĩª": 6023,
      "æĭ¿ä¸ĭ": 6024,
      "åĤ¬ä¿ĥ": 6025,
      "ç§ĢåĮħ": 6026,
      "åħĥå¼ĺ": 6027,
      "å¯¹åĨ³": 6028,
      "çĦ¦": 6029,
      "æĻ¯éļĨ": 6030,
      "åı¯ä¿¡": 6031,
      "å®«éĥ¨": 6032,
      "åĭī": 6033,
      "æĤ¦": 6034,
      "é¹«": 6035,
      "èı±": 6036,
      "1531": 6037,
      "åįıè®®": 6038,
      "æī§æĶ¿": 6039,
      "åĽ°å¢ĥ": 6040,
      "æ¸©äºķ": 6041,
      "èŁ": 6042,
      "å¥¢": 6043,
      "å¸½": 6044,
      "åīįè¿°": 6045,
      "æ¨±äºķ": 6046,
      "ä¸Ńå·Ŀæ¸ħç§Ģ": 6047,
      "å§¿æĢģ": 6048,
      "å¤§èĹı": 6049,
      "ä¸įåłª": 6050,
      "ä¸»ä¹ī": 6051,
      "åĲĮä¸º": 6052,
      "æĿ¥è¶Ĭ": 6053,
      "è¿ĽèĢĮ": 6054,
      "ä¸ľæĿ¡": 6055,
      "å¤ļç§į": 6056,
      "è¶ĬæĿ¥è¶Ĭ": 6057,
      "è·³": 6058,
      "åĨĪæľ¬": 6059,
      "éĺ²éķ¿": 6060,
      "èĩ¼äºķ": 6061,
      "an": 6062,
      "æŀŃ": 6063,
      "åıĸèĥľ": 6064,
      "å¿ĥä¸Ń": 6065,
      "æºº": 6066,
      "ä¼Ĭè¾¾ç¨Ļ": 6067,
      "1527": 6068,
      "èĩ£æľįäºİ": 6069,
      "ä¼Ĭè¾¾ç¨Ļå®Ĺ": 6070,
      "åĩ½": 6071,
      "äººçĶŁ": 6072,
      "æĬ¬": 6073,
      "éĹ¹": 6074,
      "é«ĺåº¦": 6075,
      "æ¸ħå·ŀ": 6076,
      "çĸĹ": 6077,
      "å¤§åĿĤåĨ¬ä¹ĭéĺµ": 6078,
      "åħįéĻ¤": 6079,
      "ç¥ŀä¿Ŀéķ¿": 6080,
      "æĦ¤æĢĴ": 6081,
      "è¯¢éĹ®": 6082,
      "åĲĵ": 6083,
      "ä¿¡åĲī": 6084,
      "èĢķ": 6085,
      "æ¸Ķ": 6086,
      "æĺİçĻ½": 6087,
      "éĢĢåį´": 6088,
      "åı²è¿¹": 6089,
      "è°ĥè§£": 6090,
      "æĹ¥éĩİå¯ĮåŃĲ": 6091,
      "èļ": 6092,
      "ä¸ºä¿¡": 6093,
      "ä¹īæ²»": 6094,
      "åħĥæ¸ħ": 6095,
      "çĽ´èĩ£": 6096,
      "å¹¸éļĨ": 6097,
      "åı·åı¬": 6098,
      "åĪĽç«ĭ": 6099,
      "çŁŃæļĤ": 6100,
      "ç¬¬åĽĽæ¬¡": 6101,
      "æľ½æľ¨": 6102,
      "äººåı£": 6103,
      "ä¹īæĻ´": 6104,
      "éĢļè¯´": 6105,
      "1612": 6106,
      "140": 6107,
      "çª¥": 6108,
      "ä¸ĢåŃĺ": 6109,
      "éĩįä¼¤": 6110,
      "äºĭåħĪ": 6111,
      "æįĲ": 6112,
      "æĸ°çº³": 6113,
      "æĢ»æĶ»": 6114,
      "åĽ¾ä¹¦": 6115,
      "æķħèĢĮ": 6116,
      "åįĬåħµåį«": 6117,
      "èħķ": 6118,
      "æī§æĿĥ": 6119,
      "æī¾åĪ°": 6120,
      "çŀ¬": 6121,
      "åĪ«æīĢéķ¿æ²»": 6122,
      "å®¶çº¹": 6123,
      "ä¸ĢæĹ¶æľŁ": 6124,
      "çĶŁçĪ¶": 6125,
      "æĿĥåĬ¿": 6126,
      "å¤§åıĭä¹īç»Ł": 6127,
      "å¹´ä»½": 6128,
      "ä¹ĭåĬ¿": 6129,
      "éĩįå®¶": 6130,
      "åħ´çĽĽ": 6131,
      "å¡Ļ": 6132,
      "æĥ¨éĩį": 6133,
      "çĶĺåĪ©": 6134,
      "å¤§å¾¡æīĢ": 6135,
      "1500": 6136,
      "å½ĵåľº": 6137,
      "åĽĽå¤Ħ": 6138,
      "åĳ½åĲį": 6139,
      "æľįä»İ": 6140,
      "çĻ½å·Ŀ": 6141,
      "çĽŁçº¦": 6142,
      "è®¾æĸ½": 6143,
      "æŃ¼çģŃ": 6144,
      "ä¹ĭæ¯į": 6145,
      "è¾Ľ": 6146,
      "åĨ²åħ¥": 6147,
      "æľ«æ£®": 6148,
      "åģļä¸º": 6149,
      "èĤ¯å®ļ": 6150,
      "è¤Ĵ": 6151,
      "ä¸īæ³½": 6152,
      "å¥Ĺ": 6153,
      "åĲīæĶ¿": 6154,
      "æı½": 6155,
      "äº¤çĶ±": 6156,
      "åįĹæĿ¡": 6157,
      "æİ¥ä»»": 6158,
      "åĲĦä¸ª": 6159,
      "ç®¡è¾ĸ": 6160,
      "çİĭæľĿ": 6161,
      "æĭ¥æĪ´": 6162,
      "çĻ»åľº": 6163,
      "éĺ´è°ĭ": 6164,
      "åĭ¾ç»ĵ": 6165,
      "ãĢĪ": 6166,
      "ãĢī": 6167,
      "ä¹Ļ": 6168,
      "å±ł": 6169,
      "èĢĢ": 6170,
      "å·Ŀä¸Ĭ": 6171,
      "æĸĩåºĵ": 6172,
      "å®īç½®": 6173,
      "1606": 6174,
      "åı¬å¼Ģ": 6175,
      "æŁ³æľ¬": 6176,
      "1523": 6177,
      "èµŀèµı": 6178,
      "é¸Łå±ħåħĥå¿ł": 6179,
      "åĩĢåľŁçľŁå®Ĺ": 6180,
      "æīĢåı¸ä»£": 6181,
      "åŁİäºķ": 6182,
      "æ°ıçĽ´": 6183,
      "ä»£ä»£": 6184,
      "çĽĽä¿¡": 6185,
      "æľªæĿ¥": 6186,
      "å«¡éķ¿åŃĲ": 6187,
      "ä¹ĥèĩ³": 6188,
      "æĲŃ": 6189,
      "1467": 6190,
      "æľĹ": 6191,
      "æº¯": 6192,
      "æĦıè¯Ĩ": 6193,
      "çł²": 6194,
      "å¾ģæĪĺ": 6195,
      "è¨Ģç»§": 6196,
      "éľ¸ä¸»": 6197,
      "æľ¨æ³½éķ¿æĶ¿": 6198,
      "éķ¿æĿŁæŃ£å®¶": 6199,
      "ä¸Ńä»ĭ": 6200,
      "è¢«æįķ": 6201,
      "èĩªçĶ±": 6202,
      "æĸĩåŃ¦": 6203,
      "éªĤ": 6204,
      "åıĭå¥½": 6205,
      "å°ļé¡º": 6206,
      "å¥¥å¹³": 6207,
      "æİ¨åĬ¨": 6208,
      "åĨ²çĶ°": 6209,
      "å¿įåŁİ": 6210,
      "äºĺ": 6211,
      "å¹´é¾Ħ": 6212,
      "æ°ıäº²": 6213,
      "ä¿¡å¹¿": 6214,
      "æŃ£æľ¨": 6215,
      "æĸĩé¾Ł": 6216,
      "å®īå®ļ": 6217,
      "æĿ¾æľ¬": 6218,
      "ä¸¤åĲį": 6219,
      "å¹¿éĹ¨": 6220,
      "åĽ¢ç»ĵ": 6221,
      "ä¹Ŀå·ŀå²Ľ": 6222,
      "ç¾½æŁ´ç§Ģéķ¿": 6223,
      "1508": 6224,
      "éĺ´æµģ": 6225,
      "ç¼ĺæķħ": 6226,
      "åįģæ²³åŃĺä¿Ŀ": 6227,
      "æ¯įè¡£ä¼Ĺ": 6228,
      "ä¼º": 6229,
      "è¯ı": 6230,
      "æĮĸ": 6231,
      "æīĢèĹı": 6232,
      "ä¸ľçħ§": 6233,
      "ç»ıçķ¥": 6234,
      "æĹłäºĭ": 6235,
      "æİ¥ä¸ĭæĿ¥": 6236,
      "æĺĮä¿¡": 6237,
      "æī§æİĮ": 6238,
      "ä»ĻçŁ³ç§Ģä¹ħ": 6239,
      "èĥĦ": 6240,
      "å®ļå®ŀ": 6241,
      "æĺİå¾·": 6242,
      "åıĤè®®": 6243,
      "ä¿Ŀéļľ": 6244,
      "åĨ³è£Ĥ": 6245,
      "å®ªæĺ¾": 6246,
      "æĥŁæĶ¿": 6247,
      "åģĩåĲį": 6248,
      "ä¾ĦåŃĲ": 6249,
      "æ¶©å·Ŀ": 6250,
      "è¿Ĥ": 6251,
      "ä¸Ģå®«": 6252,
      "å®īæ²»": 6253,
      "ç¬ĥ": 6254,
      "ä¸¤å¤§": 6255,
      "å·²æľī": 6256,
      "æĿĥéĻĲ": 6257,
      "è´ºæ°ı": 6258,
      "æĺĮä¸°": 6259,
      "éķ¿å°¾æĻ¯æĺ¥": 6260,
      "åĨĻä¿¡": 6261,
      "èĤĿä»ĺ": 6262,
      "é¢Ĩåħµ": 6263,
      "æİ¥æĶ¶": 6264,
      "åģľæĪĺ": 6265,
      "ç¼ĸåħ¥": 6266,
      "èµ¶æĿ¥": 6267,
      "çĽĨåľ°": 6268,
      "ä¸Ģéĥİ": 6269,
      "éķ¿æ°ı": 6270,
      "å¼ĳ": 6271,
      "åĩºåĬ¨": 6272,
      "æŃ¤åŁİ": 6273,
      "æ¸ħæ¥ļ": 6274,
      "åį«å°ī": 6275,
      "èĻİæĺĮ": 6276,
      "æĶ¶èĹı": 6277,
      "é¥¥": 6278,
      "ä¿®è¡Į": 6279,
      "å·¥äºĭ": 6280,
      "åĩºç¾½åĽ½": 6281,
      "å£¬åįĪ": 6282,
      "é¸£æµ·": 6283,
      "ä¹Ŀé¬¼åĺīéļĨ": 6284,
      "ãĢħ": 6285,
      "æĪĺèĥľ": 6286,
      "è¯«": 6287,
      "ä¹īç»ı": 6288,
      "åħ¥éģĵ": 6289,
      "é¡¿æĹ¶": 6290,
      "å£ķæ²Ł": 6291,
      "å¤§åĸľ": 6292,
      "éķ¿å·ŀ": 6293,
      "åĨĽåĬĽ": 6294,
      "åĨĽè®®": 6295,
      "ä¸ŃæĿ¡": 6296,
      "å°ĨæĿ¥": 6297,
      "åħħå½ĵ": 6298,
      "åį§": 6299,
      "ä¹īæĺİ": 6300,
      "æĿ¥æı´": 6301,
      "äºĮä¿£åŁİ": 6302,
      "èµĸæĪ¿": 6303,
      "åĪĨç¦»": 6304,
      "1610": 6305,
      "çĶ²çĽ¸": 6306,
      "å°ĳå°Ĩ": 6307,
      "æĶ¯éħįæĿĥ": 6308,
      "åħħåĪĨ": 6309,
      "ä½Ĳä¹ħéĹ´çĽĽæĶ¿": 6310,
      "æĪĲçº²": 6311,
      "ä¼ĬèĹ¤": 6312,
      "æģŃ": 6313,
      "å®ĺåĨĽ": 6314,
      "äºīè®®": 6315,
      "å±ĭåŁİ": 6316,
      "å½Ĵåħ¥": 6317,
      "äº®æĶ¿": 6318,
      "èĥ¶": 6319,
      "åħĥçĽĽ": 6320,
      "æĹłåıĮ": 6321,
      "ä¹¦éĻ¢": 6322,
      "è´ŀæ²»": 6323,
      "èĹıåĮ¿": 6324,
      "éģĹé¢Ĩ": 6325,
      "è¯¦æĥħ": 6326,
      "çī¹æĿĥ": 6327,
      "æ¸Ĳæ¸Ĳ": 6328,
      "åĭĺåĬ©": 6329,
      "åľ¨ä½į": 6330,
      "å¤§åĬŁ": 6331,
      "å¤©çĦ¶": 6332,
      "åĽłåĬŁ": 6333,
      "å®īç¥¥": 6334,
      "ç³Ł": 6335,
      "è®¤å®ļ": 6336,
      "é¦ĸå¸Ń": 6337,
      "åŁºåľ°": 6338,
      "çŁ³å·Ŀæķ°æŃ£": 6339,
      "åĢ¾åĲĳ": 6340,
      "ä¹ĭæľº": 6341,
      "ä¿¡äº²": 6342,
      "äºİæ°¸æŃ£": 6343,
      "ç¥ĩ": 6344,
      "æ²³å°»": 6345,
      "åĽĽäºº": 6346,
      "èµĸéļĨ": 6347,
      "èµ·è¯·æĸĩ": 6348,
      "èĲ½åŁİ": 6349,
      "èµ¤äºķ": 6350,
      "æĬµæĮ¡": 6351,
      "åĨ²éĶĭ": 6352,
      "æį¢åıĸ": 6353,
      "79": 6354,
      "ä¸įç®¡": 6355,
      "è¡Ļ": 6356,
      "å¥ĭåĬĽ": 6357,
      "åĭĺåĲĪ": 6358,
      "æĮĳæĪĺ": 6359,
      "çºłçº·": 6360,
      "æ¤İåĲį": 6361,
      "æĪĺä¸Ń": 6362,
      "ä¸īéĩį": 6363,
      "å°ıå²Ľ": 6364,
      "æ¬¡äºİ": 6365,
      "èĥľéĩį": 6366,
      "ä¸°å¯Į": 6367,
      "åĽĽåįĥ": 6368,
      "è¥¿å°¾": 6369,
      "ç¿ģ": 6370,
      "å²©å´İ": 6371,
      "åįģä¸īå²ģ": 6372,
      "å¤©å®Īéĺģ": 6373,
      "ä¸Ģæ´¾": 6374,
      "ä¸Ĭæĸ¹": 6375,
      "åľ°çĽĺ": 6376,
      "ç«ŀ": 6377,
      "åħ«çĻ¾": 6378,
      "å®½æŃ£": 6379,
      "1607": 6380,
      "å¼¥ä¸īéĥİ": 6381,
      "åĢŁåı£": 6382,
      "é¹¿ä¹ĭä»ĭ": 6383,
      "èµ¢": 6384,
      "èĢĮäº¡": 6385,
      "ä¸ĸäºº": 6386,
      "æĹłçĸĳ": 6387,
      "åģ¶": 6388,
      "çªģåĩº": 6389,
      "è´Łæĭħ": 6390,
      "åĪĴåĪĨ": 6391,
      "æł¼å±Ģ": 6392,
      "å±±åĨħä¸Ģä¸°": 6393,
      "è¾ŀåİ»": 6394,
      "èĪįå¼ĥ": 6395,
      "å®łçĪ±": 6396,
      "éķ¿åĨĪ": 6397,
      "åİŁåħĪ": 6398,
      "å®ŀåĪĻ": 6399,
      "ç»ŁåĪ¶": 6400,
      "å¼ºè¡Į": 6401,
      "æĬļåħ»": 6402,
      "æŃ¦èīº": 6403,
      "åĽĽä¸ĩ": 6404,
      "åĪĨåī²": 6405,
      "å¤ĦåĨ³": 6406,
      "æĦıå¤ĸ": 6407,
      "èĬ±æĬ¼": 6408,
      "å¹¼åŃĲ": 6409,
      "èĭ±éĽĦ": 6410,
      "ç²¾éĢļ": 6411,
      "çĲµçĲ¶æ¹ĸ": 6412,
      "ä¸Ĭçļĩ": 6413,
      "åľ°çĤ¹": 6414,
      "çĶŁåĳ½": 6415,
      "æĹłè§Ĩ": 6416,
      "çľŁæĺ¯": 6417,
      "æĪĳåĨĽ": 6418,
      "1521": 6419,
      "ç®Ģä»ĭ": 6420,
      "ç»µ": 6421,
      "å¤§ä¸¾": 6422,
      "é¢Ĺ": 6423,
      "æĸĩæŃ¦": 6424,
      "åıĬæĹ¶": 6425,
      "å±ĭæķ·": 6426,
      "éķĩå®ŀ": 6427,
      "ç¡®è¯ģ": 6428,
      "æķħæĦı": 6429,
      "æ¼Ķåıĺ": 6430,
      "çĨĬéĩİ": 6431,
      "å°ıå±±çĶ°ä¿¡": 6432,
      "è°¢ç½ª": 6433,
      "å¶": 6434,
      "æĿ¯": 6435,
      "æĪĲå®ŀ": 6436,
      "çºŃ": 6437,
      "äºĮä¸ĩ": 6438,
      "å¹¿ä¸º": 6439,
      "æĴ¤åħµ": 6440,
      "çº·çºŃ": 6441,
      "å®¿æķĮ": 6442,
      "æī«éĥ¨": 6443,
      "ä¸Īå¤«": 6444,
      "è¿ĤåĽŀ": 6445,
      "83": 6446,
      "åĨĽäºİ": 6447,
      "ä¹īçº²": 6448,
      "åĲįåĪĨ": 6449,
      "æĬ½": 6450,
      "æĸ¹æ¡Ī": 6451,
      "åĨħçĶ°": 6452,
      "çĶ±åĪ©": 6453,
      "æľ¨éĢł": 6454,
      "éĢĥç¦»": 6455,
      "æ¼Ĩ": 6456,
      "è·ŁçĿĢ": 6457,
      "åĲ¬ä»İ": 6458,
      "çĮĽçĥĪ": 6459,
      "é¥Ńå¯Į": 6460,
      "æľ¨ä¸ĭèĹ¤åĲīéĥİ": 6461,
      "åī¯å°Ĩ": 6462,
      "å¤¸": 6463,
      "ä¹ĭéķ¿": 6464,
      "ä¹ĭæŃ»": 6465,
      "æ´ª": 6466,
      "åĲīæĻ´": 6467,
      "äºĮåįĥ": 6468,
      "è¥¿ä¾§": 6469,
      "å¾¡éĹ¨": 6470,
      "åı¤çĶ°": 6471,
      "çĹķ": 6472,
      "æĤĦ": 6473,
      "éģĩåĪ°": 6474,
      "é¼İ": 6475,
      "æ·Ģæ®¿": 6476,
      "æĶ¿æ°ı": 6477,
      "æľĿæĹ¥": 6478,
      "èī°": 6479,
      "åĨįèµ·": 6480,
      "éĢĢå®Ī": 6481,
      "æµ·è´¼": 6482,
      "è¿ŀè´ŀ": 6483,
      "äºīæī§": 6484,
      "éģĹäº§": 6485,
      "æ²¼åŁİ": 6486,
      "è¡ĢèĦī": 6487,
      "å¯Ĵæ²³": 6488,
      "åĲĮåĥļ": 6489,
      "ä»»èģĮ": 6490,
      "æīĵå¼Ģ": 6491,
      "è¿½æĶ¾": 6492,
      "æĶ»éĺ²æĪĺ": 6493,
      "åī¥å¤º": 6494,
      "å¶ĭ": 6495,
      "ç»ĩéĥ¨": 6496,
      "æĸĩä¸Ń": 6497,
      "å²Ľå·¦è¿ĳ": 6498,
      "çĽ¸åıį": 6499,
      "åĽŀæĿ¥": 6500,
      "æĸ°åŁİ": 6501,
      "åİĨä»»": 6502,
      "1528": 6503,
      "æľ¨ä¸ĭç§ĢåĲī": 6504,
      "ä¸Ģéĵģ": 6505,
      "æĶ¿åŃĲ": 6506,
      "æľ¬å§ĵ": 6507,
      "å¤ļä¸ª": 6508,
      "è¶³åĪ©æĻ´æ°ı": 6509,
      "å¤ªåŃĲ": 6510,
      "è¿ģå¾Ģ": 6511,
      "èĽİ": 6512,
      "è§¦æĢĴ": 6513,
      "çŁ¶éĩİ": 6514,
      "ç»¼": 6515,
      "ç»¿": 6516,
      "ä¸Ģå¤ľ": 6517,
      "åĲİç»Ń": 6518,
      "éķ¿èµĸ": 6519,
      "æľīéĻĲ": 6520,
      "èĩªæ²»": 6521,
      "éĩįæ¬¡": 6522,
      "ç»§å®¤": 6523,
      "ç»§æ¶¦": 6524,
      "ç§°èµŀ": 6525,
      "æĿĳå®Ĺ": 6526,
      "åĭĴ": 6527,
      "è¯¥åĽ½": 6528,
      "çĺ": 6529,
      "åĩī": 6530,
      "ä¹īæ¾Ħ": 6531,
      "æľīåĬŁ": 6532,
      "èµ·ä¹ī": 6533,
      "åıĸæ¬¡": 6534,
      "ç§»èĩ³": 6535,
      "ä¹ĺèĥľ": 6536,
      "åı¬è§ģ": 6537,
      "éĤ»åĽ½": 6538,
      "åŁºçĿ£å¾Ĵ": 6539,
      "æĹ¶å¹´": 6540,
      "å¤©ç«¥": 6541,
      "æĮģåĽ½": 6542,
      "æīĵåĢĴ": 6543,
      "1507": 6544,
      "åºĹ": 6545,
      "å¤§éģĵ": 6546,
      "æĪĺæ³ķ": 6547,
      "ä¸įä¸ĭ": 6548,
      "å¥´": 6549,
      "è¾»": 6550,
      "æ³ķçļĩ": 6551,
      "åĽŀå¸Ī": 6552,
      "èį»": 6553,
      "éģĹä½ĵ": 6554,
      "åľ¨æŃ¤æľŁéĹ´": 6555,
      "75": 6556,
      "æ°ıè¾ī": 6557,
      "ä¿¡è´µ": 6558,
      "èĥŀ": 6559,
      "éĩįè¿Ķ": 6560,
      "ç»ŁèĻİ": 6561,
      "ç¨Ģ": 6562,
      "çĻ½çŁ³": 6563,
      "è§ĤåºĶ": 6564,
      "éĢ¼è¿«": 6565,
      "è¿Ŀåıį": 6566,
      "å®¶ä¼ł": 6567,
      "ä¹īå°ļ": 6568,
      "ç§Ģæ»¡": 6569,
      "åľ°ä¸ĭ": 6570,
      "åĮĹçĶ°": 6571,
      "éĢļæĬ¥": 6572,
      "å¦ĤåĲĮ": 6573,
      "ä¸°èĩ£ç§Ģéķ¿": 6574,
      "èĪ°": 6575,
      "æ¶¨": 6576,
      "æĺ¾çĦ¶": 6577,
      "åģļæ³ķ": 6578,
      "åĸĦæĪĺ": 6579,
      "1524": 6580,
      "âĶĢ": 6581,
      "æľ¨æĽ¾ä¹īæĺĮ": 6582,
      "ä¸ĢæĬĬ": 6583,
      "å¤§æ´¥": 6584,
      "ä¼Ļ": 6585,
      "å±±éĹ¨": 6586,
      "å¥¸": 6587,
      "åİŁæľī": 6588,
      "éĥ¨æ°ı": 6589,
      "æĥ¶": 6590,
      "ä¸ĥåįĥ": 6591,
      "æİ¥å¾ħ": 6592,
      "ç¼®": 6593,
      "ç»ĵåŁİç§Ģåº·": 6594,
      "æĢ¨æģ¨": 6595,
      "èĽİå´İ": 6596,
      "æľĭ": 6597,
      "å¼¼": 6598,
      "å±±æ°ı": 6599,
      "èĩªå¹¼": 6600,
      "åİŁåĪĻ": 6601,
      "çŁ³äºķ": 6602,
      "è¾¾å®ī": 6603,
      "å¹¿çº²": 6604,
      "è®©ä½į": 6605,
      "å¤±åĪ©": 6606,
      "é¹Ī": 6607,
      "æ£®åŁİ": 6608,
      "æºĥè´¥": 6609,
      "çķıæĥ§": 6610,
      "çĶ°è¾¹": 6611,
      "æ³¥": 6612,
      "æĮŁ": 6613,
      "äº²è¿ĳ": 6614,
      "åĽĽéĿ¢": 6615,
      "ä¼łåħ¥": 6616,
      "åħĪè¡Į": 6617,
      "è¾īå¼ĺ": 6618,
      "å¹¸éķ¿": 6619,
      "æİĮç®¡": 6620,
      "èµıè¯Ĩ": 6621,
      "æĥŁä¿¡": 6622,
      "æ®īæŃ»": 6623,
      "ç°Ĺ": 6624,
      "è¿Ļä»¶": 6625,
      "é«ĺæ¸ħ": 6626,
      "é¾Łå±±": 6627,
      "çº¯å¿ł": 6628,
      "ç´§å¼ł": 6629,
      "åĬŀæ³ķ": 6630,
      "ä¹īå®Ī": 6631,
      "æĶ¿èĥľ": 6632,
      "å§ī": 6633,
      "ç¥·": 6634,
      "165": 6635,
      "è·¨": 6636,
      "äº¦åı¯": 6637,
      "åĪ¶éĢł": 6638,
      "çķĻåŃĺ": 6639,
      "åįĬåĽ½": 6640,
      "åĽĽåĽ½å¾ģä¼Ĳ": 6641,
      "åµ": 6642,
      "æĹ¶ä»»": 6643,
      "å°ıè¯¸": 6644,
      "å»¿": 6645,
      "èµĸå¿ł": 6646,
      "çł¥": 6647,
      "æİ¥è§¦": 6648,
      "è¶³åĪ©ä¹īæĺİ": 6649,
      "äºīåıĸ": 6650,
      "æķ°åįĥ": 6651,
      "æĶ¾åľ¨": 6652,
      "èĦĩ": 6653,
      "æķ´ä½ĵ": 6654,
      "æ¬§æ´²": 6655,
      "ä¸ĬåŁİ": 6656,
      "èĩªç«ĭ": 6657,
      "åĪĨå¸ĥ": 6658,
      "è¥¿åįĹ": 6659,
      "ä¿Ŀæľī": 6660,
      "åĲĦå¤Ħ": 6661,
      "å®Įå·¥": 6662,
      "ä¿®ç¼®": 6663,
      "1526": 6664,
      "äººæ°ĳ": 6665,
      "åĩºåŁİ": 6666,
      "æĽ¹": 6667,
      "åįĹèĽ®": 6668,
      "åİĭè¿«": 6669,
      "èĳĹä½ľ": 6670,
      "åįıåĬĽ": 6671,
      "è´¯æĸĩ": 6672,
      "èĳ¬ç¤¼": 6673,
      "å¸½åŃĲ": 6674,
      "ä¹ĭåĬĽ": 6675,
      "å¤§æĿĥ": 6676,
      "è´´": 6677,
      "å®Īå°±": 6678,
      "å¹³æ°ĳ": 6679,
      "ä¸°å²Ľ": 6680,
      "ç¬¬ä¸ĥ": 6681,
      "æĸ°åºĦ": 6682,
      "ç²ī": 6683,
      "éĻ¶æ°ı": 6684,
      "å®ģå¯º": 6685,
      "å®īèĹ¤å®Īå°±": 6686,
      "åĬłæ²»çĶ°": 6687,
      "ä¸»ä»İåħ³ç³»": 6688,
      "ä¸ºä¹ī": 6689,
      "åŁ¼": 6690,
      "åĲİçĽ¾": 6691,
      "ç§Ł": 6692,
      "æľīæĹ¶": 6693,
      "åĽłç´ł": 6694,
      "è¿ĺè¦ģ": 6695,
      "åĬŁåĭĭ": 6696,
      "çħ½": 6697,
      "é³": 6698,
      "åį¡": 6699,
      "é«ĺä¿¡": 6700,
      "æĽ¾åŃĻ": 6701,
      "è´¤æ²»": 6702,
      "åħ·è¶³": 6703,
      "åį·åħ¥": 6704,
      "ä¸Ģå¹¶": 6705,
      "çº½": 6706,
      "æ³Ħ": 6707,
      "çĪ·": 6708,
      "çĶ±æĿ¥": 6709,
      "ä¼ĬäºĪ": 6710,
      "æ·»": 6711,
      "åİĨæĿ¥": 6712,
      "è¿Ĳè¾ĵ": 6713,
      "éĿĴæľ¨": 6714,
      "éļ¶å±ŀäºİ": 6715,
      "å±Īæľį": 6716,
      "ä¾¦å¯Ł": 6717,
      "ä¹ĭä¸º": 6718,
      "æĹ¥åħĥ": 6719,
      "åħ¶åĲį": 6720,
      "ä»ĸäºº": 6721,
      "ä¸ľä¾§": 6722,
      "èµĸçº²": 6723,
      "åħŃåįģ": 6724,
      "æ¡ĵ": 6725,
      "ç½ķ": 6726,
      "äº¤ä»£": 6727,
      "ä¸Ķåħĥ": 6728,
      "æ¡ĳåĲį": 6729,
      "æĤīæķ°": 6730,
      "ä¹īæŃ¦": 6731,
      "åħ¶æ¯į": 6732,
      "çĶŁä¸ĭ": 6733,
      "æıŃ": 6734,
      "æĹłåı¯": 6735,
      "æĹłæķ°": 6736,
      "ä¸¤ç§į": 6737,
      "1613": 6738,
      "çĻ¾äºº": 6739,
      "æ¤¿": 6740,
      "åįķçĭ¬": 6741,
      "éģ¿éļ¾": 6742,
      "èĬ¥å·Ŀ": 6743,
      "èĥ¶çĿĢ": 6744,
      "å®ļå±ħ": 6745,
      "æľĿçĿĢ": 6746,
      "æį·": 6747,
      "è§ģçĬ¶": 6748,
      "æģķ": 6749,
      "è®¨æŃ»": 6750,
      "èĩ´ä¿¡": 6751,
      "èµĦæł¼": 6752,
      "åĸľæ¬¢": 6753,
      "é£İæł¼": 6754,
      "çĭ¬çī¹": 6755,
      "ä¸´æµİ": 6756,
      "ä¿¡è´µå±±": 6757,
      "å¤§èĥľ": 6758,
      "ä¸ŃåĬ¡": 6759,
      "äººæīį": 6760,
      "åħĥæĺİ": 6761,
      "ãģ²": 6762,
      "å®Ĺæ»´": 6763,
      "çĽ¸äºĴ": 6764,
      "ä¸¤èĢħ": 6765,
      "å®«å´İ": 6766,
      "è¿ŀé¾Ļ": 6767,
      "å»¶ä¼¸": 6768,
      "å¿ħçĦ¶": 6769,
      "é©»æīİ": 6770,
      "åī²è®©": 6771,
      "å±±ä¸Ńå¹¸çĽĽ": 6772,
      "73": 6773,
      "76": 6774,
      "æĹ¶åĪĨ": 6775,
      "æµ©": 6776,
      "ç«ĸ": 6777,
      "ä¸ĬæĿīè¾īèĻİ": 6778,
      "åħŃåįĥ": 6779,
      "ä¼łç»Ļ": 6780,
      "éĵº": 6781,
      "éĺ²åį«": 6782,
      "æĥħåĬ¿": 6783,
      "ä¿®å¤į": 6784,
      "éŃĤ": 6785,
      "89": 6786,
      "å¹´åı·": 6787,
      "å®¶éķ¿": 6788,
      "ä¸īä¹ĭä¸¸": 6789,
      "æŃ£èµĸ": 6790,
      "åĲĮè¡Į": 6791,
      "å½ĵä½ľ": 6792,
      "äºĶä¸ĩ": 6793,
      "æĹłåĹ£": 6794,
      "åľŁå±ħ": 6795,
      "ç»ĵå±Ģ": 6796,
      "äº¤æµģ": 6797,
      "å¤Ħä»¥": 6798,
      "åħ¨çĻ»": 6799,
      "çİĦä»¥": 6800,
      "çķĻæľī": 6801,
      "æĬĹæĪĺ": 6802,
      "è°±ç³»": 6803,
      "1604": 6804,
      "çĶµå½±": 6805,
      "æ¬¾å¾ħ": 6806,
      "çīĩæ¡Ĳä¸Ķåħĥ": 6807,
      "å®ı": 6808,
      "ä¿¡ç»³": 6809,
      "1620": 6810,
      "çģ¯": 6811,
      "æĸ°å®«": 6812,
      "ä¿Ŀä½ı": 6813,
      "æİ¥ç®¡": 6814,
      "æĮĩå¯¼": 6815,
      "èĤĸ": 6816,
      "äºĮåįģä¸īå¹´": 6817,
      "åįĬèĹı": 6818,
      "è´¨çĸĳ": 6819,
      "çļĨå·Ŀ": 6820,
      "ç½ĳç»ľ": 6821,
      "å§Ĳå§Ĳ": 6822,
      "åı¯æĥľ": 6823,
      "çĽ¸ä¼¼": 6824,
      "çĶ²èĥĦ": 6825,
      "åĵ¨": 6826,
      "åĭĥ": 6827,
      "æ°ĳéĹ´": 6828,
      "ç»Łæ²»æĿĥ": 6829,
      "é¥Ńå°¾": 6830,
      "ç¬¬åĽĽä»£": 6831,
      "æĲºå¸¦": 6832,
      "æİ©æĬ¤": 6833,
      "èŁ¹": 6834,
      "æľīæķĪ": 6835,
      "è¢«ç§°ä½ľ": 6836,
      "åĲīåŁİ": 6837,
      "æīĢè½½": 6838,
      "çī²": 6839,
      "èģĶåĲį": 6840,
      "é¾Ļçİĭä¸¸": 6841,
      "æĥ³æ³ķ": 6842,
      "åħ·å¤ĩ": 6843,
      "æĲ¬": 6844,
      "åįģäºĶå²ģ": 6845,
      "ä¿ĥä½¿": 6846,
      "1493": 6847,
      "æııè¿°": 6848,
      "è´«": 6849,
      "è¡Įäºĭ": 6850,
      "åĩ»æĿĢ": 6851,
      "åºľåŁİ": 6852,
      "çĽ¸åĽ½å¯º": 6853,
      "æĢ»åħµåĬĽ": 6854,
      "éķ¿å®ĹæĪĳéĥ¨çĽĽäº²": 6855,
      "éĿłè¿ĳ": 6856,
      "éĻªèĩ£": 6857,
      "æŃ§": 6858,
      "éĥĬ": 6859,
      "ä»İäºĭ": 6860,
      "å¤ĸéĥ¨": 6861,
      "ä¸¤åŁİ": 6862,
      "æ³ķä»¤": 6863,
      "äº¤çķĮ": 6864,
      "æĶ¶åħ»": 6865,
      "å§Ĭå°ıè·¯": 6866,
      "åĽļ": 6867,
      "ä¸Ģå¤§": 6868,
      "ä¸Ģå°ģ": 6869,
      "ä¹ĭéģĵ": 6870,
      "é¢ĨåĨĽ": 6871,
      "å¤ªåİŁ": 6872,
      "å¼ºè°ĥ": 6873,
      "åłĤåħĦå¼Ł": 6874,
      "éĨĴ": 6875,
      "åĤ²": 6876,
      "æİªæĸ½": 6877,
      "çħ½åĬ¨": 6878,
      "åĲ´": 6879,
      "åĲİéĢĢ": 6880,
      "å¤§çł´": 6881,
      "ä¿¡æĺ¥": 6882,
      "æĹ¥å¸¸": 6883,
      "ä¸Ńä¸ĸ": 6884,
      "ä¸Ńä¸ĸçºª": 6885,
      "åĮĹåĽ½": 6886,
      "å¾·æĶ¿": 6887,
      "å®īçĶ°": 6888,
      "åĿŁ": 6889,
      "å»Ĭ": 6890,
      "åĪĨå°ģ": 6891,
      "æŁĶ": 6892,
      "å¸Ĥå·Ŀ": 6893,
      "æĹ©å°±": 6894,
      "èī¯å·Ŀ": 6895,
      "ç§įåŃĲ": 6896,
      "éĺ¿å¸Ĥ": 6897,
      "è®¿æ°ı": 6898,
      "ç´«å¹¿éĹ¨": 6899,
      "400": 6900,
      "åħĥç§Ģ": 6901,
      "æīĭèħķ": 6902,
      "çĶ·åŃĲ": 6903,
      "è¿ĲçĶ¨": 6904,
      "æĬ¥å¤į": 6905,
      "ç¯ĩ": 6906,
      "ç©¿çĿĢ": 6907,
      "èĮ¶èĮ¶ä¸¸": 6908,
      "å¤§æ±Ł": 6909,
      "æŃ¦çĶ°ä¹īä¿¡": 6910,
      "èµĸç»§": 6911,
      "éĺµåīį": 6912,
      "èµ·äºĭ": 6913,
      "æľªæľī": 6914,
      "ä¾įå¥³": 6915,
      "ç§Ģè´ŀ": 6916,
      "è¿Ļæīį": 6917,
      "åĪĨæķ£": 6918,
      "é©¬åĮ¹": 6919,
      "æīĭæĮģ": 6920,
      "åħ´æĪ¿": 6921,
      "éĢĢä½į": 6922,
      "æµģè¡Į": 6923,
      "ç§»å¾Ģ": 6924,
      "åįķä½į": 6925,
      "é©°æı´": 6926,
      "ä¸Ģæīĭ": 6927,
      "å¤§å²Ľ": 6928,
      "éķ¿å¤§": 6929,
      "éķ¿åĿĤ": 6930,
      "æĪĺçģ«": 6931,
      "ä¹īä»²": 6932,
      "æľīæĦı": 6933,
      "åįģå¸Ĥ": 6934,
      "å°ıæŀĹ": 6935,
      "åĮĹä¿¡": 6936,
      "æĦļ": 6937,
      "ä»ĬåĲİ": 6938,
      "è¥¿åĮĹ": 6939,
      "æºĲèĩª": 6940,
      "æľįåĬ¡": 6941,
      "ç¦ıäºķ": 6942,
      "é¾Łäºķ": 6943,
      "å±±æ¢¨åİ¿": 6944,
      "åĲĬ": 6945,
      "ä¼Ł": 6946,
      "æ³Ĭ": 6947,
      "æ¯ħ": 6948,
      "åİŁåĲį": 6949,
      "å½ĵå¤©": 6950,
      "å¹³åŁİ": 6951,
      "èĤĨ": 6952,
      "å¿Ĺéģĵ": 6953,
      "æĹ¥æĿ¡": 6954,
      "é«ĺå²Ľ": 6955,
      "é«ĺåı°": 6956,
      "è¶ĬæĻº": 6957,
      "æµģéĢļ": 6958,
      "æħ¨": 6959,
      "æ¸¸æĪı": 6960,
      "ä¸Ģåı¥": 6961,
      "ä¹ĭåħµ": 6962,
      "åĪ°åºķ": 6963,
      "æīĢèĩ´": 6964,
      "éĢļäº¤": 6965,
      "éĢĥèĩ³": 6966,
      "å¼ºæĶ»": 6967,
      "æĻ®éĢļ": 6968,
      "åĲŀå¹¶": 6969,
      "ä¹ĭå®¶": 6970,
      "å¤§æĶ¿": 6971,
      "æľ¬åľ°": 6972,
      "æŃ¤åĪ»": 6973,
      "åīįæĸ¹": 6974,
      "è°Ĭ": 6975,
      "åĮĹä¼Ĺ": 6976,
      "åħ¥ä¸»": 6977,
      "å¿łäºİ": 6978,
      "å¹³æĪ·": 6979,
      "å¾ĹåĲį": 6980,
      "å¤ļéĩį": 6981,
      "äºĶä»£": 6982,
      "éĢļåŃĹ": 6983,
      "ç¬¬åįģ": 6984,
      "æķĮåħµ": 6985,
      "åĶ¤": 6986,
      "çĶ³è¯·": 6987,
      "éĩįä¿¡": 6988,
      "ä¸¤è·¯": 6989,
      "æ¸ħéķ¿": 6990,
      "å¸Ĥåľº": 6991,
      "ç²Ĺ": 6992,
      "ä¹ĺæľº": 6993,
      "åĨ·æ³ī": 6994,
      "æī°ä¹±": 6995,
      "45": 6996,
      "å®Ľ": 6997,
      "ä¸Ģä»¶": 6998,
      "éķ¿éĢ¸": 6999,
      "æŃ¦åį«": 7000,
      "åĲīçĶ°åŁİ": 7001,
      "åº·èĥ¤": 7002,
      "ãģ¸": 7003,
      "è¿Ľå±ķ": 7004,
      "æŀĲ": 7005,
      "çīŁ": 7006,
      "çĪ¶ä¸º": 7007,
      "ç§įç§į": 7008,
      "éĩĳæ£®éķ¿": 7009,
      "éģĩå®³": 7010,
      "ä¸Ģä¸ĩäºĶåįĥ": 7011,
      "è¹Ħ": 7012,
      "äº«å¾·ä¹ĭä¹±": 7013,
      "åľ¨å®¶": 7014,
      "æĹ¥åħī": 7015,
      "æĶ»èĲ½": 7016,
      "çŁ³åŁİ": 7017,
      "äºĭåıĺ": 7018,
      "é©¬åį°": 7019,
      "æĸ°ä»»": 7020,
      "åıĤèĢĥ": 7021,
      "è°·æ°ı": 7022,
      "éĻ¶åĨĽ": 7023,
      "éŁ³ä¹Ĳ": 7024,
      "æĿ¿ä»ĵ": 7025,
      "é¥°æ¼Ķ": 7026,
      "ä¹³æ¯į": 7027,
      "æģ³è¯·": 7028,
      "ç§¦": 7029,
      "ä¸įæĥ³": 7030,
      "èĩªè¡Į": 7031,
      "å¹¶åĪĹ": 7032,
      "äº²æĪļ": 7033,
      "ãģļ": 7034,
      "å¿łéķ¿": 7035,
      "çĽ´åŃĿ": 7036,
      "ä¼ļè§ģ": 7037,
      "æĢ»é¢Ĩ": 7038,
      "é¾Ļå¯º": 7039,
      "æĩĪ": 7040,
      "å°ĺ": 7041,
      "ä¸ĢæĹ¶éĹ´": 7042,
      "å¤§å¤§": 7043,
      "åĽŀå¤į": 7044,
      "è®¤è¯Ĩ": 7045,
      "æĥħå½¢": 7046,
      "çĥ¦": 7047,
      "æ·±æĦŁ": 7048,
      "é¥«": 7049,
      "æİ¨èįĲ": 7050,
      "ç¤¼ä»ª": 7051,
      "è¡¥ä»»": 7052,
      "æ¯«ä¸į": 7053,
      "36": 7054,
      "ºçī²": 7055,
      "åŁ¹": 7056,
      "å®ļæŃ£": 7057,
      "äºĭæĢģ": 7058,
      "çīºçī²": 7059,
      "ç»ıå®¶": 7060,
      "åĢº": 7061,
      "çĽĽéļĨ": 7062,
      "å¤Ħç½ļ": 7063,
      "å®ªå¿ł": 7064,
      "åĬĿè°ı": 7065,
      "ç»´æĬ¤": 7066,
      "æķĪæŀľ": 7067,
      "å¥Ķèµ°": 7068,
      "å·®å¼Ĥ": 7069,
      "å®ģå®ģ": 7070,
      "700": 7071,
      "ä¸Ģç»Ł": 7072,
      "ä¸»åŁİ": 7073,
      "åĿł": 7074,
      "åĽĽåįģ": 7075,
      "å£«æĹı": 7076,
      "æİ¥æĽ¿": 7077,
      "åĶ±": 7078,
      "åĿļåĨ³": 7079,
      "å¯Ĩè°ĭ": 7080,
      "åĤħ": 7081,
      "å¤ŃæĬĺ": 7082,
      "çŀ¬éĹ´": 7083,
      "71": 7084,
      "åıł": 7085,
      "å¤§äºĭ": 7086,
      "å¤§é¡»": 7087,
      "åĩºä¼Ĺ": 7088,
      "åĨħä¹¦": 7089,
      "ç¬¬ä¹Ŀ": 7090,
      "éļĨéĩį": 7091,
      "èī¯å¥½": 7092,
      "ä¾§éĿ¢": 7093,
      "è½»æĺĵ": 7094,
      "ä»ģæľ¨": 7095,
      "åĨĻä½ľ": 7096,
      "åĢŁåĬ©": 7097,
      "çľ¼è§ģ": 7098,
      "ç«¥åŃĲ": 7099,
      "49": 7100,
      "äºŃ": 7101,
      "ä¹ĭåºĦ": 7102,
      "å°ıæłĹ": 7103,
      "é«ĺæ°ı": 7104,
      "ä¸ĥçĻ¾": 7105,
      "åĨ¬åº·": 7106,
      "åĿªåĨħ": 7107,
      "åľ¨ä¸ĸ": 7108,
      "åŁİéĻ·": 7109,
      "æ°ıåıĬ": 7110,
      "ä¸įèĤ¯": 7111,
      "åħ¶æ¬¡": 7112,
      "å¯¹éĺµ": 7113,
      "æ¬º": 7114,
      "å°±ç®Ĺ": 7115,
      "æĪ·æĶ¿": 7116,
      "äºĮåįģä¸Ģå¹´": 7117,
      "èĩ´ä½¿": 7118,
      "è®¾ä¹Ĳ": 7119,
      "ç¼´çº³": 7120,
      "çĽĳæĬ¤äºº": 7121,
      "78": 7122,
      "åĪĬ": 7123,
      "ä¹ĭç§°": 7124,
      "ä¿¡è´ŀ": 7125,
      "å±±åĨĪ": 7126,
      "æŃ¦åĲī": 7127,
      "ä¸ĭåįĪ": 7128,
      "åĲĮæĹ¶ä»£": 7129,
      "åİŁä¸º": 7130,
      "åħµå£«": 7131,
      "è®¨çģŃ": 7132,
      "éĻĨåĨĽ": 7133,
      "è¾ħåĬ©": 7134,
      "çĥŃçĶ°": 7135,
      "å®¾": 7136,
      "ä»¥å¾Ģ": 7137,
      "æŃ¦èĹ¤": 7138,
      "åĿĽ": 7139,
      "åĽĽåĳ¨": 7140,
      "åĬłæ·±": 7141,
      "ä»Ĭå¤©": 7142,
      "1623": 7143,
      "åĳ½åħ¶": 7144,
      "åıĸå·Ŀ": 7145,
      "æµ·å²¸": 7146,
      "å°ģå»º": 7147,
      "ä»ķå¥ī": 7148,
      "éī´çĲĨ": 7149,
      "åİĭåĢĴ": 7150,
      "å¿ħå®ļ": 7151,
      "è¯ģæį®": 7152,
      "å¼Ĥå¸¸": 7153,
      "è¾ĥä¸º": 7154,
      "æ§»åŁİ": 7155,
      "éĩľå±±": 7156,
      "åħľ": 7157,
      "å±¯": 7158,
      "1520": 7159,
      "åīįéĿ¢": 7160,
      "ä¹ħçķĻ": 7161,
      "è¿ĩä¸ĸ": 7162,
      "åħīæĺİ": 7163,
      "ç¬¬ä¸Ģä¸ª": 7164,
      "åĽŀåºĶ": 7165,
      "é©¬å¤´": 7166,
      "ä¼łæİĪ": 7167,
      "æīĭéĩĮ": 7168,
      "éĢĢèĩ³": 7169,
      "åħ¨å¢ĥ": 7170,
      "æľªèİ·": 7171,
      "æīĵçł´": 7172,
      "èµ¤å·Ŀ": 7173,
      "èĪ¬çļĦ": 7174,
      "èŃ¦æĪĴ": 7175,
      "æĹ¨åľ¨": 7176,
      "çĴ": 7177,
      "æĺı": 7178,
      "ä¸Ģæ°ı": 7179,
      "æĹ¥èĩ³": 7180,
      "ä¸Ńåħ´": 7181,
      "çİĸ": 7182,
      "ç»ıéªĮ": 7183,
      "ä¼łåĪ°": 7184,
      "é¸Ń": 7185,
      "å©Ĩ": 7186,
      "åĺ±": 7187,
      "åĤ»": 7188,
      "ç¦ħç§Ģ": 7189,
      "è´§å¸ģ": 7190,
      "ä¸ĢæĿ¥": 7191,
      "æĶ¿å®¶": 7192,
      "æĸ¹æ³ķ": 7193,
      "å¦Ħ": 7194,
      "ä¸¤æĸ¹": 7195,
      "æĹ§ä¸»": 7196,
      "åĳĺæĺĮ": 7197,
      "ä¸¥æł¼": 7198,
      "æĤ£çĹħ": 7199,
      "æ¬¢è¿İ": 7200,
      "ç½ķè§ģ": 7201,
      "42": 7202,
      "åįĳ": 7203,
      "åĲİä»»": 7204,
      "è¯ĳ": 7205,
      "ä¸ŃåİŁ": 7206,
      "ä¸ĬåįĪ": 7207,
      "å¤©èįī": 7208,
      "çº¶": 7209,
      "å°ıè§Ħæ¨¡": 7210,
      "å®ŀä¹ħ": 7211,
      "åĽºå®ļ": 7212,
      "ç²¾åħµ": 7213,
      "ä¿¡æ¾Ħ": 7214,
      "ä¸įçĶ¨": 7215,
      "ä»¥ç¤º": 7216,
      "æĶ¿ç¹ģ": 7217,
      "èĢĮæĪĲ": 7218,
      "å¯¹å²¸": 7219,
      "å¿łéĩį": 7220,
      "è®°ä½ľ": 7221,
      "èµĸæŃ¦": 7222,
      "åĲĪè®®": 7223,
      "è¯¸è¯´": 7224,
      "çĮľ": 7225,
      "å¢ŀæĹ¶": 7226,
      "å¼ķè¯±": 7227,
      "1529": 7228,
      "æĵ¢": 7229,
      "èĢĥè¯ģ": 7230,
      "å§Ĳå¦¹": 7231,
      "ç¥Īç¥·": 7232,
      "ä¹ĭä¸»": 7233,
      "æĶ¿ç»ı": 7234,
      "éĩįæķ´": 7235,
      "è¡ĮåĪĹ": 7236,
      "æīĢå±ŀ": 7237,
      "åįĹéĿ¢": 7238,
      "åĵŃ": 7239,
      "åĮĸä¸º": 7240,
      "æ£ļ": 7241,
      "å¸ĥæŃ¦": 7242,
      "ä¸Ģä¸ªæľĪ": 7243,
      "æ¿ĳå·Ŀ": 7244,
      "ç¯¡": 7245,
      "åĩıå°ĳ": 7246,
      "å§Ķæīĺ": 7247,
      "65": 7248,
      "72": 7249,
      "ä¸İåĬĽ": 7250,
      "å±±ä¸ĭ": 7251,
      "æŃ¤ç±»": 7252,
      "å°ıæĿ¾": 7253,
      "æłĥ": 7254,
      "æ²»å®ī": 7255,
      "åľŁçĶ°": 7256,
      "éĶĢ": 7257,
      "å§ĵåĲį": 7258,
      "æ¼Ĥ": 7259,
      "èĮĥç¤¼": 7260,
      "å¤§åŀ£åŁİ": 7261,
      "èĮĥç¤¼å®ī": 7262,
      "800": 7263,
      "åĲİæı´": 7264,
      "çĽ¸ä¿¡": 7265,
      "æĹ¥æľ¬æµ·": 7266,
      "çļĩæĹı": 7267,
      "åŃ¦å®¶": 7268,
      "ä¸ļæŃ£": 7269,
      "æķ´é¡¿": 7270,
      "è£ħé¥°": 7271,
      "æłĭæ¢ģ": 7272,
      "åĲİç§°": 7273,
      "ä¸ľéĿ¢": 7274,
      "æĿ¾åīį": 7275,
      "1619": 7276,
      "åħ«å·ŀ": 7277,
      "åı²å®ŀ": 7278,
      "æ¾³": 7279,
      "ä¸ľçħ§å®«": 7280,
      "ä¸Ģåı£": 7281,
      "æĪĺåĬĽ": 7282,
      "ä¸īçĶ°": 7283,
      "å¿łåħĥ": 7284,
      "å¤ļè´º": 7285,
      "å¹ķåĲİ": 7286,
      "ä¿Ŀç§ĳ": 7287,
      "çĭĹ": 7288,
      "èµĲå§ĵ": 7289,
      "åı¯èĥ½æĢ§": 7290,
      "è¡Ģç»Ł": 7291,
      "æĭĽåĭŁ": 7292,
      "ç´§å¯Ĩ": 7293,
      "åħ¸åŀĭ": 7294,
      "å±ıéļľ": 7295,
      "æłħæłı": 7296,
      "ä¹ŀ": 7297,
      "ä»Ĩ": 7298,
      "å®¶åºŃ": 7299,
      "åŁİå¢Ļ": 7300,
      "æĥ«": 7301,
      "å¾¡æĸĻ": 7302,
      "è£ķ": 7303,
      "éģĹåŃ¤": 7304,
      "éĢģç»Ļ": 7305,
      "èıľ": 7306,
      "å®¿èĢģ": 7307,
      "ç¬¬ä¸īæ¬¡": 7308,
      "ä¸ĢæŃ»": 7309,
      "åŁİåĿĢ": 7310,
      "æīŃ": 7311,
      "éĢ®": 7312,
      "æľīä¹Ĳ": 7313,
      "çŃĭ": 7314,
      "åĲĮåĲį": 7315,
      "å§ĳ": 7316,
      "æ±Łé©¬": 7317,
      "éĽĩ": 7318,
      "ç¥ŀçĪ¶": 7319,
      "èĹ©æĶ¿": 7320,
      "æł¹åŁº": 7321,
      "æĺ¾å®¶": 7322,
      "é¥±": 7323,
      "çĽĲåĨ¶": 7324,
      "è¸¯": 7325,
      "çĸ²æĥ«": 7326,
      "åĭīå¼º": 7327,
      "æĹ¥èİ²": 7328,
      "ä¸Ńç«ĭ": 7329,
      "æŃ¦æĸŃ": 7330,
      "èĩªåı¤": 7331,
      "èº«ä½ĵ": 7332,
      "æ²¡æĥ³åĪ°": 7333,
      "å·¦ç¿¼": 7334,
      "å®ĺåĳĺ": 7335,
      "å¼ķåħ¥": 7336,
      "åĨ²åĩ»": 7337,
      "åĩĮæĻ¨": 7338,
      "è¸¯èº": 7339,
      "å¤§åĬ¿": 7340,
      "ä¿¡æ¸ħ": 7341,
      "ãģĽ": 7342,
      "æ¬¡å¥³": 7343,
      "å®Ĺä¸¥": 7344,
      "è½°": 7345,
      "åĬłåī§": 7346,
      "æĬ¤åŁİ": 7347,
      "æģ¼": 7348,
      "æĶ¯ä¸¹": 7349,
      "èĪĨ": 7350,
      "ä¸ĥåįģ": 7351,
      "çľŁå£ģ": 7352,
      "éķĩä¹ħ": 7353,
      "éĻĲäºİ": 7354,
      "åĪļåĪļ": 7355,
      "æ²Ļåĭ¿": 7356,
      "åĲ¸å¼ķ": 7357,
      "81": 7358,
      "ä¸ĢåįĬ": 7359,
      "ä¹ĭå¤Ħ": 7360,
      "åĨĽä»¥": 7361,
      "å¼Ħ": 7362,
      "åĮĨ": 7363,
      "åĲīåĪ©": 7364,
      "å¯ºåºĻ": 7365,
      "åıĳæİĺ": 7366,
      "å°±è¦ģ": 7367,
      "è¡°å¼±": 7368,
      "1506": 7369,
      "æļ´åĬ¨": 7370,
      "å¸ĿåĽ½": 7371,
      "è®½": 7372,
      "æľ¬èĲ¥": 7373,
      "ä¸»æ°´": 7374,
      "ä¹Łè®¸": 7375,
      "çĿ¹": 7376,
      "1622": 7377,
      "è·µ": 7378,
      "å¤ªåĲĪ": 7379,
      "çªģåĽ´": 7380,
      "1608": 7381,
      "æķĳåĩº": 7382,
      "éĺ³æĪĲ": 7383,
      "æĮĩæĮ¥å®ĺ": 7384,
      "è¦ĨçģŃ": 7385,
      "å®ĩä½Ĳç¾İ": 7386,
      "at": 7387,
      "è¿Ń": 7388,
      "ä¿¡éĩį": 7389,
      "åĴı": 7390,
      "çĶŁåŃĺ": 7391,
      "æ¸Ĺ": 7392,
      "æ²»æĪ¿": 7393,
      "æĪ·å·Ŀ": 7394,
      "å¿ĥèħ¹": 7395,
      "åħ´å»º": 7396,
      "éĻ¢æĶ¿": 7397,
      "å°ļæľī": 7398,
      "å»¶åħĥ": 7399,
      "æĦŁè°¢": 7400,
      "æĳĦå®¶": 7401,
      "1525": 7402,
      "å°ĦæĿĢ": 7403,
      "æ¸ĬæºĲ": 7404,
      "å¾ª": 7405,
      "æĪĺæŀľ": 7406,
      "ä¸Ĭå±±": 7407,
      "æ²ĵ": 7408,
      "ä¸īåĪĨ": 7409,
      "æĶ¿äº²": 7410,
      "æŃ»åĽł": 7411,
      "èµ·æºĲ": 7412,
      "è¶³åĪ©æĶ¿çŁ¥": 7413,
      "åħ´èµ·": 7414,
      "éĢĥåĪ°": 7415,
      "åŁºæ°ı": 7416,
      "æĺ¾èµ«": 7417,
      "åħ±æľī": 7418,
      "ä»ĭéĶĻ": 7419,
      "æ½Ł": 7420,
      "çĬ¹è±«": 7421,
      "å¤§çĶ°": 7422,
      "å¤§åľ£": 7423,
      "ä¹īåº·": 7424,
      "ä¸ĭçº§": 7425,
      "ãģ©": 7426,
      "åħ³èģĶ": 7427,
      "å¿łéĤ»": 7428,
      "è¿ĽéĢĢ": 7429,
      "æ¸ħæĻ¨": 7430,
      "æĮģä¹ħ": 7431,
      "åħ«åįģ": 7432,
      "ä¹ĿæĪ·": 7433,
      "æºª": 7434,
      "åı¤å¿Ĺ": 7435,
      "æ·±å¾Ĺ": 7436,
      "ä¹Ĳå¸Ĥ": 7437,
      "æłĩåĩĨ": 7438,
      "æĭĽèĩ´": 7439,
      "æ½ľä¼ı": 7440,
      "è¸¯èºħ": 7441,
      "æ°ıè§Ħ": 7442,
      "éķ¿çĽĬ": 7443,
      "æī£": 7444,
      "æĻŁ": 7445,
      "çŃīäºİ": 7446,
      "ãģŃ": 7447,
      "å®Ĺä¿¡": 7448,
      "å¿łæłĭ": 7449,
      "å¹³è´º": 7450,
      "åį³åı¯": 7451,
      "çĻ¾å¹´": 7452,
      "åı¤ä»Ĭ": 7453,
      "è®¨è®º": 7454,
      "èĹıäºº": 7455,
      "äºĮåįģäºĮå¹´": 7456,
      "éĩĳéĵ¶": 7457,
      "çĽ®ä»ĺ": 7458,
      "ç´§æİ¥çĿĢ": 7459,
      "å¤§å¤ļæķ°": 7460,
      "æ²³å°»ç§ĢéļĨ": 7461,
      "90": 7462,
      "èł": 7463,
      "éķ¿åº·": 7464,
      "ä¸ŃæĹ¬": 7465,
      "æİĢ": 7466,
      "ç»ıçĶ±": 7467,
      "æĴķ": 7468,
      "åħ¼å¤ĩ": 7469,
      "å°¤ä¸º": 7470,
      "32": 7471,
      "å¹´çºª": 7472,
      "æŃ£çº²": 7473,
      "åĪ©æ²»": 7474,
      "æĢľ": 7475,
      "åĽĽæĸ¹": 7476,
      "çĶ¨åħµ": 7477,
      "å±ħæ°ĳ": 7478,
      "æµ·æĪĺ": 7479,
      "åı²ä¹¦": 7480,
      "ç¼Ŀ": 7481,
      "åįĬå¹´": 7482,
      "ä¸įå¾Ĺå·²": 7483,
      "çĨŁæĤī": 7484,
      "ä¸ĢæŁ³": 7485,
      "åĨħåºľ": 7486,
      "è¿ĽéĢ¼": 7487,
      "åĲĳä¸ľ": 7488,
      "äºĭå®ľ": 7489,
      "å¤ļå°ĳ": 7490,
      "åĪĨéĴŁ": 7491,
      "ä¼łæĴŃ": 7492,
      "ç»ĵå©ļ": 7493,
      "éĢĥåħ¥": 7494,
      "æİ¨ç¿»": 7495,
      "æ³½åŁİ": 7496,
      "å³¡": 7497,
      "æ¿ĢåĮĸ": 7498,
      "åģľçķĻ": 7499,
      "é¹¤åĨĪ": 7500,
      "èĻļæŀĦ": 7501,
      "æ±īåŁİ": 7502,
      "æĹłè®ºå¦Ĥä½ķ": 7503,
      "çľŁéĩĮè°·": 7504,
      "æ¾³éĹ¨": 7505,
      "æ²Ļåĭ¿çķ¥": 7506,
      "å¹´å°ĳ": 7507,
      "ä¸Ńä»¥": 7508,
      "æİŁ": 7509,
      "ä¼Ĭå¥Ī": 7510,
      "äº¦æľī": 7511,
      "åºĨéļĨ": 7512,
      "éļĨå®¶": 7513,
      "éªĦ": 7514,
      "æľªæŀľ": 7515,
      "è¯¥ä¹¦": 7516,
      "åĲĽä¸»": 7517,
      "éĢģæĿ¥": 7518,
      "æĬ¥ä»ĩ": 7519,
      "åĥ§åħµ": 7520,
      "è§īå¯º": 7521,
      "å¤§éĺªåºľ": 7522,
      "åĶ¯æľī": 7523,
      "èŃ¦å¤ĩ": 7524,
      "æĶ»åŁİæĪĺ": 7525,
      "33": 7526,
      "å¤§æ£®": 7527,
      "åĽ½ä¸»": 7528,
      "åĪ©æł¹": 7529,
      "åħŃæĿ¡": 7530,
      "æĻ´æľĿ": 7531,
      "åº¦è¿ĩ": 7532,
      "çªĹ": 7533,
      "æł¹éĩİ": 7534,
      "ç¦»åİ»": 7535,
      "195": 7536,
      "æ¨ªæ¿ĳ": 7537,
      "å«ģè±«": 7538,
      "è®³åĲį": 7539,
      "ç§ģä¸ĭ": 7540,
      "ä¹ĭåŁİ": 7541,
      "å¤§æī¹": 7542,
      "ä¿¡æĥł": 7543,
      "ä¹īç»´": 7544,
      "å¯¹å¾ħ": 7545,
      "å®ĹçŁ©": 7546,
      "æľĿå®ļ": 7547,
      "æĿĥåĪ©": 7548,
      "çĤĬ": 7549,
      "äº¬éĥ½åºľ": 7550,
      "æĪĸæĺ¯": 7551,
      "å¤įåİŁ": 7552,
      "è°ĭåĪĴ": 7553,
      "åĩĨè®¸": 7554,
      "æķ´åĲĪ": 7555,
      "è¯ģå®ŀ": 7556,
      "èĨĿ": 7557,
      "æľ±åį°çĬ¶": 7558,
      "æĴ°åĨĻ": 7559,
      "å¨ĺå®¶": 7560,
      "87": 7561,
      "ä¸ĢæıĲ": 7562,
      "ä¸Ģæī¹": 7563,
      "èĩĤ": 7564,
      "åĽ½æ¸ħ": 7565,
      "éĩįéķ¿": 7566,
      "ç»§åĹ£": 7567,
      "èĥ½å²Ľ": 7568,
      "ç¥ŀå¥Ī": 7569,
      "ãĤĩ": 7570,
      "éĩĮéĿ¢": 7571,
      "å¤´çĽĶ": 7572,
      "èĵĿ": 7573,
      "åłĢå°¾åĲīæĻ´": 7574,
      "å¤§éĹ¨": 7575,
      "ä¿¡å®ī": 7576,
      "æĹ¥äºİ": 7577,
      "èĥ¸": 7578,
      "åħ¶å¦»": 7579,
      "çĦ¶åĽł": 7580,
      "åħ´è¶£": 7581,
      "æĪĳæĸ¹": 7582,
      "éº¦": 7583,
      "æ²¼å®ļ": 7584,
      "ç¢Ĺ": 7585,
      "çĶ°æĿĳæ°ı": 7586,
      "äºĺçĲĨ": 7587,
      "ç¥ŀå¥Īå·Ŀ": 7588,
      "43": 7589,
      "æĿľ": 7590,
      "éĢ¾": 7591,
      "ä¸Ĭéĺµ": 7592,
      "å±±å®¶": 7593,
      "æĶ¿ä»¤": 7594,
      "åīįåĵ¨": 7595,
      "æ±Łåı£": 7596,
      "éĥ¡ä»£": 7597,
      "æµģæ´¾": 7598,
      "æľªè§ģ": 7599,
      "æºĲèµĸ": 7600,
      "æ¨ĭ": 7601,
      "åħ³ç³»æģ¶åĮĸ": 7602,
      "éī´éĢŁ": 7603,
      "åĩłå¹´": 7604,
      "åºŃåĽŃ": 7605,
      "æīĢåľ¨åľ°": 7606,
      "1632": 7607,
      "æ©ĺ": 7608,
      "è´¹çĶ¨": 7609,
      "å°¸ä½ĵ": 7610,
      "éĢ®æįķ": 7611,
      "æĬ¤åŁİæ²³": 7612,
      "æŃ£çĽ´": 7613,
      "é¢Ĩè¢ĸ": 7614,
      "åħ³å®¿": 7615,
      "ä¸ľæĸ¹": 7616,
      "å®īä¸Ń": 7617,
      "åĽĽä¸ª": 7618,
      "è¥¿è¿Ľ": 7619,
      "åĲĪæµģ": 7620,
      "ç¥ŀåĻ¨": 7621,
      "åĬŁèĥ½": 7622,
      "è´ŀåºĨ": 7623,
      "è·¯æĺĵ": 7624,
      "120": 7625,
      "ç¥ĪæĦ¿": 7626,
      "ä¸Ľ": 7627,
      "åŃķ": 7628,
      "ä¹īæĿĳ": 7629,
      "æĶ¿åº·": 7630,
      "åī¿": 7631,
      "çº¬": 7632,
      "è½¶": 7633,
      "æĺİçŁ¥": 7634,
      "èĹ¤çĶ°": 7635,
      "å¼Ģå±±": 7636,
      "èº«åĪĨ": 7637,
      "éĢļéģĵ": 7638,
      "åĨįä¹Ł": 7639,
      "æµģè¨Ģ": 7640,
      "çĭł": 7641,
      "å´İé¦Ĩ": 7642,
      "æķ°æĹ¥": 7643,
      "å½¢åŁİ": 7644,
      "æĢģåĬ¿": 7645,
      "çĦļçĥ§": 7646,
      "ç§įåŃĲå²Ľ": 7647,
      "é¥¿": 7648,
      "ä½£": 7649,
      "ä½¯": 7650,
      "ä¸ºå¦»": 7651,
      "åĽ½ç«ĭ": 7652,
      "1517": 7653,
      "åĨħå¤ĸ": 7654,
      "å½ĵä»£": 7655,
      "å¿łçº²": 7656,
      "äºĶäºº": 7657,
      "éĢļè¡Į": 7658,
      "æĹłä¸į": 7659,
      "æĮģæľī": 7660,
      "åºĶåħģ": 7661,
      "çŃĳèµ·": 7662,
      "åĮºåĪĨ": 7663,
      "æµħåĪ©": 7664,
      "çģ«èį¯": 7665,
      "æ¯Ķå¦Ĥ": 7666,
      "èĮĥæ»¡": 7667,
      "åĬĿéĺ»": 7668,
      "è§īä¹¦": 7669,
      "æĭľè°Ĵ": 7670,
      "ä¼´éļı": 7671,
      "ä¸īçĻ¾ä½Ļ": 7672,
      "41": 7673,
      "ĦĻ": 7674,
      "ä¸įå¥½": 7675,
      "æŃ£éĩį": 7676,
      "åħĥç¹ģ": 7677,
      "ä¸ĭé©¬": 7678,
      "å®Īä¿¡": 7679,
      "éĩįèĥľ": 7680,
      "å¿łå¿ĥ": 7681,
      "åĲĳå¯¼": 7682,
      "æĻ¯éķľ": 7683,
      "æ²³æµģ": 7684,
      "ä»İä¸Ń": 7685,
      "è¿ĳèĹ¤": 7686,
      "éĽĢ": 7687,
      "åĲĪåĬĽ": 7688,
      "éªĹ": 7689,
      "è·¯ä¸Ĭ": 7690,
      "å¤ľæĪĺ": 7691,
      "ä¸¥åİī": 7692,
      "ä¾ĭåŃĲ": 7693,
      "æĲı": 7694,
      "é¹¿å²Ľ": 7695,
      "1504": 7696,
      "ç¦ħå®Ĺ": 7697,
      "ç´§æĢ¥": 7698,
      "è¿ĿèĥĮ": 7699,
      "1336": 7700,
      "èĵĦ": 7701,
      "as": 7702,
      "å¤§æŃ£": 7703,
      "æĪĺæĹ¶": 7704,
      "æĪĺéĺµ": 7705,
      "åĴĮçº¦": 7706,
      "è°ķ": 7707,
      "æĭ¨": 7708,
      "å½ĵå¤ľ": 7709,
      "åıĳè¡Į": 7710,
      "éĿ¢ç§¯": 7711,
      "åľŁæ¡¥": 7712,
      "åı³ç¿¼": 7713,
      "æĬĹè¡¡": 7714,
      "åŃ¦æł¡": 7715,
      "åŀ¦": 7716,
      "éĺ¶çº§": 7717,
      "æĳĨèĦ±": 7718,
      "ak": 7719,
      "å®¶ä¸º": 7720,
      "1518": 7721,
      "ä¸īæ¬¡": 7722,
      "åĲīåĨĪ": 7723,
      "æ¬¡ä¹ĭ": 7724,
      "æĶ¯æŁ±": 7725,
      "åħĪä¾ĭ": 7726,
      "ä¸ĥå²ģ": 7727,
      "æĢ§è´¨": 7728,
      "è§Ĥå¯Ł": 7729,
      "æ¿ĢæĢĴ": 7730,
      "å¼ĥåŁİ": 7731,
      "åį°åº¦": 7732,
      "çīĩä»ĵ": 7733,
      "æ²¿çĶ¨": 7734,
      "éĶĻè¯¯": 7735,
      "èĭĹæľ¨": 7736,
      "åįĵè¶Ĭ": 7737,
      "è·¯æĺĵæĸ¯": 7738,
      "600": 7739,
      "ç»ĳ": 7740,
      "å®¶éĹ¨": 7741,
      "ä¿¡åĮħ": 7742,
      "å¯Ĥ": 7743,
      "åĽ½æ³ķ": 7744,
      "1512": 7745,
      "ä¸įè§ģ": 7746,
      "åĪ©ä¸ī": 7747,
      "åĨħåŁİ": 7748,
      "å¹ķæĶ¿": 7749,
      "ä¸¤åº¦": 7750,
      "å±ħæīĢ": 7751,
      "æ°´åŁİ": 7752,
      "æĢ»è®¡": 7753,
      "å°ģèµı": 7754,
      "èĳµ": 7755,
      "èħ¾": 7756,
      "åĶ®": 7757,
      "å±¡ç«ĭ": 7758,
      "åģ·è¢Ń": 7759,
      "48": 7760,
      "ä¸Ģåıª": 7761,
      "ä¹ĭåŃĻ": 7762,
      "è¯Ī": 7763,
      "é«ĺçĻ½": 7764,
      "å¹³æ¬¡": 7765,
      "åĿ¡": 7766,
      "äºĶæĿ¡": 7767,
      "èĹıåħ¥": 7768,
      "è¯¥å¯º": 7769,
      "è¿½æº¯": 7770,
      "å°½åĬĽ": 7771,
      "é¥¶": 7772,
      "å®ªæĪ¿": 7773,
      "å¤©ä¸ĭå¸ĥæŃ¦": 7774,
      "æī¬åĮĹä¼Ĺ": 7775,
      "ç½¢äºĨ": 7776,
      "ä¼°è®¡": 7777,
      "åİĺ": 7778,
      "æĪĲèµĸ": 7779,
      "åĮĹä¹¡": 7780,
      "æĭĵ": 7781,
      "çķĶ": 7782,
      "è¿Ľåħµ": 7783,
      "çİ°è±¡": 7784,
      "åºĶä¸º": 7785,
      "å¹¿æ¿ĳ": 7786,
      "éĢģåħ¥": 7787,
      "æ²¿çĿĢ": 7788,
      "ä¸ĵéĹ¨": 7789,
      "ä¸Ģéģĵ": 7790,
      "ä¹īæĮģ": 7791,
      "ä¹īä½ĳ": 7792,
      "åĪ©èĥľ": 7793,
      "æĻĥ": 7794,
      "ç«ĭè¶³": 7795,
      "åľŁäºķ": 7796,
      "çĶ¨ä½ľ": 7797,
      "ä»¤åħ¶": 7798,
      "å´ĸ": 7799,
      "åģ¿": 7800,
      "åĪ«ç§°": 7801,
      "æŀģåĬĽ": 7802,
      "å°½å¿ł": 7803,
      "åĨĽäºĭåĬĽéĩı": 7804,
      "å¦Ļå¿ĥ": 7805,
      "éĵ¸éĢł": 7806,
      "æĹŃ": 7807,
      "ä¹ĭå£«": 7808,
      "ä¸įè®º": 7809,
      "äº²å®¶": 7810,
      "æłī": 7811,
      "è¦ģå¡ŀ": 7812,
      "ä¸°ä¹ħ": 7813,
      "éĹ¨ä¸ĭ": 7814,
      "ç»Łå¹¸": 7815,
      "å¥īçº³": 7816,
      "ç¾İæľ¯": 7817,
      "æĶ¶éĽĨ": 7818,
      "æ²¼æ°ı": 7819,
      "æĿĤåħµ": 7820,
      "èįĴå·Ŀ": 7821,
      "ç»ĺçĶ»": 7822,
      "ä¸ĺéĻµ": 7823,
      "è°¨æħİ": 7824,
      "é«ĺçĻ½æĸĭ": 7825,
      "è¿Ī": 7826,
      "ä¿¡æģ¯": 7827,
      "æī¼": 7828,
      "å¤©çĽ®": 7829,
      "äº²æīĭ": 7830,
      "æĭ¦": 7831,
      "æİ¾": 7832,
      "å¤ļäºº": 7833,
      "æ²»æī¿": 7834,
      "èº«çĿĢ": 7835,
      "å¤ĸç¥ĸçĪ¶": 7836,
      "è´ŀæĻ¯": 7837,
      "è´ŀä¿Ĭ": 7838,
      "å½Ĵäºİ": 7839,
      "è§Ĩä½ľ": 7840,
      "æĤł": 7841,
      "å²©ä»ĺ": 7842,
      "ç¤ºä¼Ĺ": 7843,
      "æ£®åħ°ä¸¸": 7844,
      "è¿Ĳä½ľ": 7845,
      "æŃ¥åħµ": 7846,
      "ä¹ĺèĪ¹": 7847,
      "æŃĮä¼ļ": 7848,
      "è¶ħè¶Ĭ": 7849,
      "å¢Ļå£ģ": 7850,
      "å½¼æŃ¤": 7851,
      "éĥĳ": 7852,
      "1511": 7853,
      "èĹī": 7854,
      "å¯¹æĪĺ": 7855,
      "åĮĹä¹ĭåºĦ": 7856,
      "å®īæĬļ": 7857,
      "æįī": 7858,
      "éĢļçŁ¥": 7859,
      "ç»Īç©¶": 7860,
      "è´ŀå®Ĺ": 7861,
      "æķ°æ¬¡": 7862,
      "é»ľ": 7863,
      "è¡¨æ¼Ķ": 7864,
      "æŀĹå¯º": 7865,
      "åįģåħŃå²ģ": 7866,
      "çīµè¿ŀ": 7867,
      "ä¹ĭè®¡": 7868,
      "å¤§é¦Ĩ": 7869,
      "ä¿¡æĪĲ": 7870,
      "ä¿¡è´¤": 7871,
      "åĩĿ": 7872,
      "ä¸īå¤§": 7873,
      "ä¸ĭå±±": 7874,
      "è¡Ķ": 7875,
      "åīįä¹ħ": 7876,
      "ä¸»æµģ": 7877,
      "çĿ¿": 7878,
      "å¾·éĻ¢": 7879,
      "æĿ¾åİŁ": 7880,
      "åħĪéĺµ": 7881,
      "æĶ¹çĶ±": 7882,
      "å½¢æĢģ": 7883,
      "å¸ĥæĸ½": 7884,
      "éĻ¤æŃ¤": 7885,
      "è¿½åħµ": 7886,
      "éĴī": 7887,
      "æĴ¤ç¦»": 7888,
      "è¿Ķè¿ĺ": 7889,
      "æºĥæķ£": 7890,
      "å¦Ļå¿ĥå¯º": 7891,
      "ä¿©": 7892,
      "ä¸ĢèĦī": 7893,
      "åĽ½æĹ¶": 7894,
      "ä¸īéĿ¢": 7895,
      "åŃĲå¼Ł": 7896,
      "æŃ£åĢ¼": 7897,
      "æľ¬åºĶ": 7898,
      "è¡į": 7899,
      "å°ıè¢ĸ": 7900,
      "æĶ»ä¼Ĳ": 7901,
      "åĪĨæŀĲ": 7902,
      "1617": 7903,
      "æī¿èĬ³": 7904,
      "æĸ°æĶ¿": 7905,
      "ç»Łè¾ĸ": 7906,
      "å¸ĤåĨħ": 7907,
      "å¹¿èī¯": 7908,
      "ç¼ł": 7909,
      "çĮĿ": 7910,
      "æħ¢æħ¢": 7911,
      "æĹłäºĭä»¤": 7912,
      "ä¸Ģä»½": 7913,
      "å¤§çģ«": 7914,
      "æĹ¥åŃĲ": 7915,
      "ä»¥ä¸ľ": 7916,
      "æŃ£å¦Ĥ": 7917,
      "éĩįå¿ł": 7918,
      "éļıçĪ¶": 7919,
      "åıįåºĶ": 7920,
      "è´ºåŁİ": 7921,
      "è´ŀéļĨ": 7922,
      "è¿ľå·ŀ": 7923,
      "æıĲé«ĺ": 7924,
      "æĻºåĭĩ": 7925,
      "åıĽåĨĽ": 7926,
      "å£°ç§°": 7927,
      "èģļèĲ½": 7928,
      "è¸ŀ": 7929,
      "è¯łä¹ħ": 7930,
      "æįķèİ·": 7931,
      "1487": 7932,
      "æĤ¬æ®Ĭ": 7933,
      "å·¦äº¬äº®": 7934,
      "88": 7935,
      "ä¿µ": 7936,
      "åĽ½å¤§": 7937,
      "åĽ½çº²": 7938,
      "æĪĲäºº": 7939,
      "è§Ĳ": 7940,
      "æĸ¹ä¾¿": 7941,
      "å°ıæĹ¶": 7942,
      "æĭį": 7943,
      "å½ĵåį³": 7944,
      "å¿łèĩ£": 7945,
      "å¼Ģè®¾": 7946,
      "æľ¨æĿĲ": 7947,
      "çĶ¨æĿ¥": 7948,
      "ç³Ĭ": 7949,
      "çļĩä½į": 7950,
      "æµ·å¤ĸ": 7951,
      "å®ĺèĩ³": 7952,
      "éĢĥè·ĳ": 7953,
      "æ¿ł": 7954,
      "è¿½ç©¶": 7955,
      "åįłæľī": 7956,
      "æľĿé²ľåįĬå²Ľ": 7957,
      "ç§»åĬ¨": 7958,
      "å³»": 7959,
      "è¿ģç§»": 7960,
      "éķ¿çŃ±åŁİ": 7961,
      "å°Ŀè¯ķ": 7962,
      "å±Ĭ": 7963,
      "å¤§æīĭ": 7964,
      "çĽĪ": 7965,
      "ä¹īå¹¿": 7966,
      "åĲįåŁİ": 7967,
      "å¤©åı°": 7968,
      "æľ¬å·ŀ": 7969,
      "æµ´": 7970,
      "åĨħä¼Ĺ": 7971,
      "ä¸ľäº¬éĥ½": 7972,
      "åĽŀåİ»": 7973,
      "åĲĦæĸ¹": 7974,
      "å½ĴéĻį": 7975,
      "éĢłåıį": 7976,
      "è§Ĵåº¦": 7977,
      "ç²ķ": 7978,
      "å®½æĸĩ": 7979,
      "è´¤ç§Ģ": 7980,
      "æĶ¯æĮģèĢħ": 7981,
      "è°ĥçķ¥": 7982,
      "è¡¥åħħ": 7983,
      "æ¸¸ä½Ĳéķ¿": 7984,
      "é¡½å¼ºæĬµæĬĹ": 7985,
      "èĤĸåĥı": 7986,
      "åĲİéĿ¢": 7987,
      "ä¸İä¹ī": 7988,
      "å±±è·¯": 7989,
      "ä»¥è¥¿": 7990,
      "åħĥç§į": 7991,
      "è¢«ä¿ĺ": 7992,
      "çŁ£": 7993,
      "è°ľ": 7994,
      "è¿Ľäº¬": 7995
    },
    "merges": [
      [
        "ï",
        "¼"
      ],
      [
        "ä",
        "¸"
      ],
      [
        "ï¼",
        "Į"
      ],
      [
        "ã",
        "Ģ"
      ],
      [
        "ä",
        "º"
      ],
      [
        "ç",
        "ļ"
      ],
      [
        "çļ",
        "Ħ"
      ],
      [
        "å",
        "®"
      ],
      [
        "ãĢ",
        "Ĥ"
      ],
      [
        "å",
        "ħ"
      ],
      [
        "å",
        "Ĳ"
      ],
      [
        "ä",
        "¹"
      ],
      [
        "ä",
        "»"
      ],
      [
        "å",
        "¹"
      ],
      [
        "æ",
        "ľ"
      ],
      [
        "å",
        "¤"
      ],
      [
        "å",
        "ı"
      ],
      [
        "ç",
        "Ķ"
      ],
      [
        "æ",
        "Ĺ"
      ],
      [
        "å¹",
        "´"
      ],
      [
        "æ",
        "Ī"
      ],
      [
        "å",
        "ľ"
      ],
      [
        "æ",
        "Ń"
      ],
      [
        "å",
        "Ľ"
      ],
      [
        "å",
        "°"
      ],
      [
        "å",
        "Ī"
      ],
      [
        "å",
        "Ĩ"
      ],
      [
        "è",
        "¿"
      ],
      [
        "ç",
        "»"
      ],
      [
        "æ",
        "Ŀ"
      ],
      [
        "å®",
        "¶"
      ],
      [
        "æ",
        "°"
      ],
      [
        "æ",
        "ĺ"
      ],
      [
        "ä",
        "½"
      ],
      [
        "å",
        "į"
      ],
      [
        "ä¸",
        "º"
      ],
      [
        "ï¼",
        "Ī"
      ],
      [
        "ï¼",
        "ī"
      ],
      [
        "å",
        "Ĭ"
      ],
      [
        "â",
        "Ģ"
      ],
      [
        "æ",
        "Ķ"
      ],
      [
        "ä",
        "¿"
      ],
      [
        "ãĢ",
        "ģ"
      ],
      [
        "å",
        "Ł"
      ],
      [
        "å",
        "·"
      ],
      [
        "ä¸",
        "Ģ"
      ],
      [
        "ä¹",
        "ĭ"
      ],
      [
        "æ",
        "ĸ"
      ],
      [
        "é",
        "ķ"
      ],
      [
        "è",
        "ĩ"
      ],
      [
        "å",
        "º"
      ],
      [
        "åľ",
        "¨"
      ],
      [
        "çĶ",
        "°"
      ],
      [
        "å",
        "±"
      ],
      [
        "åŁ",
        "İ"
      ],
      [
        "åĲ",
        "İ"
      ],
      [
        "å¤",
        "§"
      ],
      [
        "æ°",
        "ı"
      ],
      [
        "éķ",
        "¿"
      ],
      [
        "ç",
        "§"
      ],
      [
        "ä",
        "¼"
      ],
      [
        "å",
        "¾"
      ],
      [
        "ä¿",
        "¡"
      ],
      [
        "æĪ",
        "ĺ"
      ],
      [
        "å",
        "¯"
      ],
      [
        "å",
        "ĩ"
      ],
      [
        "å",
        "Ń"
      ],
      [
        "åĨ",
        "Ľ"
      ],
      [
        "åĽ",
        "½"
      ],
      [
        "é",
        "ĩ"
      ],
      [
        "æĺ",
        "¯"
      ],
      [
        "æ",
        "ī"
      ],
      [
        "å",
        "¼"
      ],
      [
        "é",
        "ĥ"
      ],
      [
        "æĹ",
        "¶"
      ],
      [
        "è",
        "¯"
      ],
      [
        "äº",
        "Ĩ"
      ],
      [
        "è",
        "®"
      ],
      [
        "ä¸",
        "İ"
      ],
      [
        "ç",
        "Ľ"
      ],
      [
        "è",
        "Ģ"
      ],
      [
        "å",
        "İ"
      ],
      [
        "æĹ",
        "¥"
      ],
      [
        "ä¸",
        "Ń"
      ],
      [
        "äº",
        "İ"
      ],
      [
        "è",
        "µ"
      ],
      [
        "é",
        "Ģ"
      ],
      [
        "è",
        "´"
      ],
      [
        "ä¸",
        "Ĭ"
      ],
      [
        "äº",
        "º"
      ],
      [
        "å·",
        "Ŀ"
      ],
      [
        "å±",
        "±"
      ],
      [
        "æľ",
        "Ī"
      ],
      [
        "æ",
        "²"
      ],
      [
        "ä¹",
        "ī"
      ],
      [
        "1",
        "5"
      ],
      [
        "å",
        "½"
      ],
      [
        "ä¸",
        "ī"
      ],
      [
        "è",
        "ĥ"
      ],
      [
        "ä¸",
        "į"
      ],
      [
        "å°",
        "Ĩ"
      ],
      [
        "é",
        "ĺ"
      ],
      [
        "åŃ",
        "Ĳ"
      ],
      [
        "ä»",
        "¥"
      ],
      [
        "å",
        "¿"
      ],
      [
        "ç§",
        "Ģ"
      ],
      [
        "å",
        "Į"
      ],
      [
        "åĩ",
        "º"
      ],
      [
        "æľ",
        "ī"
      ],
      [
        "å",
        "¥"
      ],
      [
        "è",
        "¢"
      ],
      [
        "æŃ",
        "£"
      ],
      [
        "âĢ",
        "ľ"
      ],
      [
        "âĢ",
        "Ŀ"
      ],
      [
        "æŃ",
        "¦"
      ],
      [
        "åħ",
        "ĥ"
      ],
      [
        "ä¸",
        "ĭ"
      ],
      [
        "æĶ",
        "¿"
      ],
      [
        "åĲ",
        "į"
      ],
      [
        "ä»",
        "£"
      ],
      [
        "é",
        "Ļ"
      ],
      [
        "å¤",
        "©"
      ],
      [
        "æ",
        "Ĭ"
      ],
      [
        "é",
        "ģ"
      ],
      [
        "é",
        "Ĺ"
      ],
      [
        "ç",
        "Ń"
      ],
      [
        "å",
        "ī"
      ],
      [
        "æĪ",
        "Ĳ"
      ],
      [
        "æľ",
        "¬"
      ],
      [
        "è",
        "§"
      ],
      [
        "æ",
        "µ"
      ],
      [
        "å",
        "²"
      ],
      [
        "åľ",
        "°"
      ],
      [
        "èĢ",
        "Į"
      ],
      [
        "æ",
        "ķ"
      ],
      [
        "æŃ",
        "¤"
      ],
      [
        "åħ",
        "¶"
      ],
      [
        "é",
        "¢"
      ],
      [
        "æ",
        "´"
      ],
      [
        "åĪ",
        "©"
      ],
      [
        "è¢",
        "«"
      ],
      [
        "å",
        "Ĵ"
      ],
      [
        "å",
        "¸"
      ],
      [
        "è",
        "¡"
      ],
      [
        "æ",
        "Ļ"
      ],
      [
        "*",
        "*"
      ],
      [
        "#",
        "#"
      ],
      [
        "èĩ",
        "£"
      ],
      [
        "åĴ",
        "Į"
      ],
      [
        "ç",
        "İ"
      ],
      [
        "é",
        "ļ"
      ],
      [
        "ç",
        "º"
      ],
      [
        "è",
        "¾"
      ],
      [
        "æ",
        "³"
      ],
      [
        "åį",
        "ģ"
      ],
      [
        "ç",
        "Ł"
      ],
      [
        "åī",
        "į"
      ],
      [
        "åĲ",
        "ī"
      ],
      [
        "ä¸",
        "»"
      ],
      [
        "è",
        "¶"
      ],
      [
        "æĸ",
        "¹"
      ],
      [
        "ç",
        "«"
      ],
      [
        "æ",
        "±"
      ],
      [
        "é¢",
        "Ĩ"
      ],
      [
        "åĨ",
        "ħ"
      ],
      [
        "è",
        "°"
      ],
      [
        "ä",
        "¾"
      ],
      [
        "åĲ",
        "Į"
      ],
      [
        "è",
        "Ĺ"
      ],
      [
        "å¯",
        "¹"
      ],
      [
        "å®",
        "Ī"
      ],
      [
        "ä»",
        "ĸ"
      ],
      [
        "èĩ",
        "ª"
      ],
      [
        "å¹",
        "¶"
      ],
      [
        "æ",
        "¯"
      ],
      [
        "æ",
        "¬"
      ],
      [
        "æ",
        "Į"
      ],
      [
        "å",
        "ĳ"
      ],
      [
        "éĩ",
        "į"
      ],
      [
        "åİ",
        "Ł"
      ],
      [
        "åĽ",
        "ł"
      ],
      [
        "è¿",
        "Ļ"
      ],
      [
        "å°",
        "ı"
      ],
      [
        "æĿ",
        "¥"
      ],
      [
        "åĪ",
        "°"
      ],
      [
        "åº",
        "·"
      ],
      [
        "ç",
        "¦"
      ],
      [
        "åħ",
        "µ"
      ],
      [
        "æĶ",
        "»"
      ],
      [
        "åĮ",
        "Ĺ"
      ],
      [
        "äº",
        "²"
      ],
      [
        "çŃ",
        "ī"
      ],
      [
        "æ",
        "ĭ"
      ],
      [
        "åĬ",
        "Ľ"
      ],
      [
        "å¯",
        "º"
      ],
      [
        "ã",
        "ģ"
      ],
      [
        "æ",
        "İ"
      ],
      [
        "çĶ",
        "Ł"
      ],
      [
        "äº",
        "Į"
      ],
      [
        "é",
        "«"
      ],
      [
        "æ¬",
        "¡"
      ],
      [
        "é«",
        "ĺ"
      ],
      [
        "å®",
        "Ĺ"
      ],
      [
        "æ",
        "¸"
      ],
      [
        "ç",
        "Ī"
      ],
      [
        "ä¿¡",
        "éķ¿"
      ],
      [
        "è¡",
        "Į"
      ],
      [
        "éĥ",
        "¨"
      ],
      [
        "ä½",
        "ľ"
      ],
      [
        "ä¹",
        "Ł"
      ],
      [
        "é",
        "Ŀ"
      ],
      [
        "éĩ",
        "İ"
      ],
      [
        "ç»",
        "ĩ"
      ],
      [
        "å½",
        "ĵ"
      ],
      [
        "åħ",
        "¥"
      ],
      [
        "ç",
        "ķ"
      ],
      [
        "èĥ",
        "ľ"
      ],
      [
        "æ",
        "Ģ"
      ],
      [
        "ä½",
        "Ĩ"
      ],
      [
        "æĸ",
        "ĩ"
      ],
      [
        "åħ",
        "³"
      ],
      [
        "ç»ĩ",
        "çĶ°"
      ],
      [
        "ç",
        "Ŀ"
      ],
      [
        "æī",
        "Ģ"
      ],
      [
        "ç",
        "Ħ"
      ],
      [
        "å¿",
        "ł"
      ],
      [
        "æ",
        "ł"
      ],
      [
        "ä¹",
        "ħ"
      ],
      [
        "è¿",
        "Ľ"
      ],
      [
        "è",
        "¦"
      ],
      [
        "åı",
        "ĳ"
      ],
      [
        "ä»",
        "»"
      ],
      [
        "å¹",
        "³"
      ],
      [
        "æĿ",
        "¡"
      ],
      [
        "å",
        "¦"
      ],
      [
        "å°",
        "±"
      ],
      [
        "è¦",
        "ģ"
      ],
      [
        "ç«",
        "ĭ"
      ],
      [
        "ä¸",
        "ľ"
      ],
      [
        "åĲ",
        "ĳ"
      ],
      [
        "çŁ",
        "³"
      ],
      [
        "å®",
        "ļ"
      ],
      [
        "çĦ",
        "¶"
      ],
      [
        "æ",
        "ı"
      ],
      [
        "å¾",
        "·"
      ],
      [
        "èĩ",
        "³"
      ],
      [
        "æ",
        "ŀ"
      ],
      [
        "æľ",
        "Ŀ"
      ],
      [
        "å²",
        "Ľ"
      ],
      [
        "ç§Ģ",
        "åĲī"
      ],
      [
        "ç»",
        "§"
      ],
      [
        "å",
        "§"
      ],
      [
        "çĶ",
        "±"
      ],
      [
        "åĬ",
        "¿"
      ],
      [
        "å®",
        "ī"
      ],
      [
        "å¾",
        "Ĺ"
      ],
      [
        "äº",
        "ĭ"
      ],
      [
        "æŃ¦",
        "çĶ°"
      ],
      [
        "çĽ",
        "´"
      ],
      [
        "ç",
        "¥"
      ],
      [
        "å¤",
        "ļ"
      ],
      [
        "è",
        "½"
      ],
      [
        "æ°",
        "¸"
      ],
      [
        "ä¼",
        "Ĭ"
      ],
      [
        "æĹ¶",
        "ä»£"
      ],
      [
        "ç",
        "¬"
      ],
      [
        "æĺ",
        "İ"
      ],
      [
        "æ",
        "ĥ"
      ],
      [
        "ç",
        "ī"
      ],
      [
        "éĥ",
        "½"
      ],
      [
        "ï¼",
        "ļ"
      ],
      [
        "é",
        "©"
      ],
      [
        "æ",
        "Ħ"
      ],
      [
        "è¯",
        "´"
      ],
      [
        "ä¸",
        "°"
      ],
      [
        "æŃ",
        "»"
      ],
      [
        "æĻ",
        "¯"
      ],
      [
        "æ²",
        "³"
      ],
      [
        "æĿ",
        "¾"
      ],
      [
        "è",
        "Ļ"
      ],
      [
        "ç§",
        "°"
      ],
      [
        "èĥ",
        "½"
      ],
      [
        "ä½",
        "į"
      ],
      [
        "æ",
        "Ľ"
      ],
      [
        "å®",
        "ŀ"
      ],
      [
        "çĪ",
        "¶"
      ],
      [
        "éģ",
        "ĵ"
      ],
      [
        "å",
        "Ŀ"
      ],
      [
        "ãĢ",
        "ĭ"
      ],
      [
        "ãĢ",
        "Ĭ"
      ],
      [
        "æ±",
        "Ł"
      ],
      [
        "æ",
        "į"
      ],
      [
        "ä»",
        "İ"
      ],
      [
        "äº",
        "Ķ"
      ],
      [
        "ç",
        "¾"
      ],
      [
        "åĩ",
        "»"
      ],
      [
        "æ²",
        "»"
      ],
      [
        "å",
        "»"
      ],
      [
        "åº",
        "ľ"
      ],
      [
        "éĹ",
        "´"
      ],
      [
        "åĽ",
        "Ľ"
      ],
      [
        "åı",
        "¯"
      ],
      [
        "å®¶",
        "åº·"
      ],
      [
        "åĬ",
        "ł"
      ],
      [
        "äº",
        "ķ"
      ],
      [
        "å",
        "£"
      ],
      [
        "æ´",
        "¥"
      ],
      [
        "åı",
        "Ĭ"
      ],
      [
        "èĹ",
        "¤"
      ],
      [
        "ç",
        "ľ"
      ],
      [
        "è",
        "ī"
      ],
      [
        "è®",
        "°"
      ],
      [
        "è¶",
        "³"
      ],
      [
        "èµ",
        "ĸ"
      ],
      [
        "æĿ",
        "ī"
      ],
      [
        "å®¶",
        "èĩ£"
      ],
      [
        "è§",
        "ģ"
      ],
      [
        "å¾·",
        "å·Ŀ"
      ],
      [
        "æľ",
        "Ģ"
      ],
      [
        "ä½",
        "Ĳ"
      ],
      [
        "ä¸",
        "ĸ"
      ],
      [
        "éĹ",
        "¨"
      ],
      [
        "è¿",
        "ĩ"
      ],
      [
        "ç»",
        "ı"
      ],
      [
        "åĪ",
        "Ĩ"
      ],
      [
        "è",
        "ģ"
      ],
      [
        "å¼",
        "Ģ"
      ],
      [
        "å¤©",
        "æŃ£"
      ],
      [
        "ç",
        "Ļ"
      ],
      [
        "è¿",
        "ĳ"
      ],
      [
        "ä»",
        "Ĭ"
      ],
      [
        "ä¸Ĭ",
        "æĿī"
      ],
      [
        "éĺ",
        "µ"
      ],
      [
        "è",
        "º"
      ],
      [
        "ï¼",
        "Ľ"
      ],
      [
        "¥",
        "¿"
      ],
      [
        "çĽ",
        "¸"
      ],
      [
        "è",
        "¥¿"
      ],
      [
        "é",
        "Ľ"
      ],
      [
        "ä¼",
        "Ĺ"
      ],
      [
        "èµ",
        "·"
      ],
      [
        "æľ",
        "Ł"
      ],
      [
        "æ¯",
        "Ľ"
      ],
      [
        "ä¹ĭ",
        "æĪĺ"
      ],
      [
        "èº",
        "«"
      ],
      [
        "éĢ",
        "ļ"
      ],
      [
        "éĿ",
        "¢"
      ],
      [
        "æĿ",
        "ĳ"
      ],
      [
        "ä¸",
        "ª"
      ],
      [
        "å¤",
        "ĸ"
      ],
      [
        "åħ",
        "ī"
      ],
      [
        "åİ",
        "»"
      ],
      [
        "äº",
        "¬"
      ],
      [
        "å¹",
        "ķ"
      ],
      [
        "è¶",
        "Ĭ"
      ],
      [
        "æĹ",
        "ł"
      ],
      [
        "æ¯Ľ",
        "åĪ©"
      ],
      [
        "ä¸",
        "¤"
      ],
      [
        "åĲ",
        "Ī"
      ],
      [
        "æ¸",
        "ħ"
      ],
      [
        "1",
        "6"
      ],
      [
        "åĬ",
        "¨"
      ],
      [
        "è",
        "·"
      ],
      [
        "è",
        "±"
      ],
      [
        "æĬ",
        "¤"
      ],
      [
        "åĪ",
        "Ļ"
      ],
      [
        "éĥ",
        "¡"
      ],
      [
        "æ³",
        "ķ"
      ],
      [
        "æį",
        "®"
      ],
      [
        "åĳ",
        "½"
      ],
      [
        "å·",
        "²"
      ],
      [
        "éļ",
        "ı"
      ],
      [
        "ç¦",
        "Ħ"
      ],
      [
        "æĪ",
        "·"
      ],
      [
        "åľ",
        "Ł"
      ],
      [
        "ç",
        "ģ"
      ],
      [
        "æ",
        "Ł"
      ],
      [
        "åħ",
        "Ń"
      ],
      [
        "åĮĹ",
        "æĿ¡"
      ],
      [
        "æī",
        "¿"
      ],
      [
        "å¦",
        "Ĥ"
      ],
      [
        "èĢ",
        "ħ"
      ],
      [
        "ä½",
        "¿"
      ],
      [
        "æĮ",
        "ģ"
      ],
      [
        "åı",
        "Ī"
      ],
      [
        "é",
        "¦"
      ],
      [
        "ç¬",
        "¬"
      ],
      [
        "äº",
        "¦"
      ],
      [
        "ä¼",
        "ļ"
      ],
      [
        "æľ",
        "¨"
      ],
      [
        "åħ",
        "«"
      ],
      [
        "åį",
        "«"
      ],
      [
        "åħ",
        "¬"
      ],
      [
        "æ",
        "¡"
      ],
      [
        "æĹ",
        "ı"
      ],
      [
        "åº",
        "Ĩ"
      ],
      [
        "å°",
        "¾"
      ],
      [
        "æĿ",
        "ĥ"
      ],
      [
        "æĪĲ",
        "ä¸º"
      ],
      [
        "åĽ",
        "ŀ"
      ],
      [
        "çĿ",
        "Ģ"
      ],
      [
        "å¹ķ",
        "åºľ"
      ],
      [
        "ç",
        "®"
      ],
      [
        "è",
        "Ĳ"
      ],
      [
        "æĪĺ",
        "åĽ½"
      ],
      [
        "éĥ",
        "İ"
      ],
      [
        "ä¹",
        "Ŀ"
      ],
      [
        "é©",
        "¬"
      ],
      [
        "å¼",
        "Ł"
      ],
      [
        "0",
        "0"
      ],
      [
        "ä½ľ",
        "ä¸º"
      ],
      [
        "æ",
        "ģ"
      ],
      [
        "è¾",
        "¾"
      ],
      [
        "ä»",
        "ĵ"
      ],
      [
        "éļ",
        "Ĩ"
      ],
      [
        "ä¹",
        "±"
      ],
      [
        "è¶³",
        "åĪ©"
      ],
      [
        "å",
        "Ģ"
      ],
      [
        "å¥",
        "½"
      ],
      [
        "å£",
        "«"
      ],
      [
        "ç",
        "¤"
      ],
      [
        "çĶ",
        "¨"
      ],
      [
        "ä¸",
        "ĩ"
      ],
      [
        "ç",
        "³"
      ],
      [
        "æĹ¥",
        "æľ¬"
      ],
      [
        "é",
        "ª"
      ],
      [
        "åį",
        "ĥ"
      ],
      [
        "çİ",
        "°"
      ],
      [
        "ä¼",
        "ł"
      ],
      [
        "åº",
        "Ķ"
      ],
      [
        "åı",
        "Ĺ"
      ],
      [
        "æĸ",
        "°"
      ],
      [
        "ç»",
        "Ł"
      ],
      [
        "å±",
        "ħ"
      ],
      [
        "è",
        "Ĭ"
      ],
      [
        "ç",
        "½"
      ],
      [
        "é",
        "¾"
      ],
      [
        "è",
        "İ"
      ],
      [
        "æ",
        "»"
      ],
      [
        "é",
        "Ĥ"
      ],
      [
        "ç³",
        "»"
      ],
      [
        "å¾",
        "¡"
      ],
      [
        "é",
        "¡"
      ],
      [
        "æ´",
        "¾"
      ],
      [
        "å",
        "ł"
      ],
      [
        "è´",
        "¥"
      ],
      [
        "å¤§",
        "åĲį"
      ],
      [
        "åı",
        "į"
      ],
      [
        "æĿ",
        "Ģ"
      ],
      [
        "è",
        "Į"
      ],
      [
        "åı",
        "ĸ"
      ],
      [
        "æī",
        "ĭ"
      ],
      [
        "ä»",
        "¤"
      ],
      [
        "çĽ",
        "Ľ"
      ],
      [
        "æ",
        "®"
      ],
      [
        "å¿",
        "ĥ"
      ],
      [
        "ä¸°",
        "èĩ£"
      ],
      [
        "ç»",
        "ĵ"
      ],
      [
        "å¤",
        "ĩ"
      ],
      [
        "æĶ",
        "¯"
      ],
      [
        "è",
        "ĭ"
      ],
      [
        "åħ",
        "Ī"
      ],
      [
        "è",
        "Ī"
      ],
      [
        "ä¹",
        "¦"
      ],
      [
        "ä¸",
        "ĥ"
      ],
      [
        "äº",
        "¤"
      ],
      [
        "å¾",
        "Ģ"
      ],
      [
        "çİ",
        "ĩ"
      ],
      [
        "éĺ",
        "Ł"
      ],
      [
        "åĨ",
        "į"
      ],
      [
        "åį",
        "Ĺ"
      ],
      [
        "åĪ",
        "¶"
      ],
      [
        "è¿",
        "ĺ"
      ],
      [
        "è´",
        "º"
      ],
      [
        "çĶ",
        "º"
      ],
      [
        "æĻ",
        "´"
      ],
      [
        "åı",
        "ĭ"
      ],
      [
        "åį",
        "³"
      ],
      [
        "âĢ",
        "Ķ"
      ],
      [
        "å",
        "´"
      ],
      [
        "å¥",
        "³"
      ],
      [
        "å¸",
        "Ĥ"
      ],
      [
        "ä¾",
        "¿"
      ],
      [
        "ç¥",
        "ŀ"
      ],
      [
        "åħ",
        "´"
      ],
      [
        "æ",
        "º"
      ],
      [
        "éĢ",
        "Ģ"
      ],
      [
        "å",
        "¢"
      ],
      [
        "æ°",
        "´"
      ],
      [
        "ç»§",
        "æī¿"
      ],
      [
        "å¤",
        "Ħ"
      ],
      [
        "åħ",
        "¨"
      ],
      [
        "çŁ",
        "¥"
      ],
      [
        "å°Ĩ",
        "åĨĽ"
      ],
      [
        "ç»",
        "Ī"
      ],
      [
        "åı",
        "Ĥ"
      ],
      [
        "å»",
        "º"
      ],
      [
        "çľ",
        "Ł"
      ],
      [
        "ç",
        "Ĳ"
      ],
      [
        "ç",
        "¨"
      ],
      [
        "æ",
        "¶"
      ],
      [
        "èİ",
        "·"
      ],
      [
        "1",
        "4"
      ],
      [
        "ä¿",
        "Ŀ"
      ],
      [
        "åĬ",
        "Ł"
      ],
      [
        "æĦ",
        "ı"
      ],
      [
        "çº",
        "²"
      ],
      [
        "å·",
        "ŀ"
      ],
      [
        "å®Ī",
        "æĬ¤"
      ],
      [
        "15",
        "8"
      ],
      [
        "æĽ",
        "¾"
      ],
      [
        "æĪ",
        "ĳ"
      ],
      [
        "æµ",
        "ģ"
      ],
      [
        "ç»ĩçĶ°",
        "ä¿¡éķ¿"
      ],
      [
        "å¥",
        "ī"
      ],
      [
        "æµ",
        "ĵ"
      ],
      [
        "çĿ",
        "£"
      ],
      [
        "ç»",
        "Ĩ"
      ],
      [
        "ç»",
        "Ļ"
      ],
      [
        "æľ",
        "ª"
      ],
      [
        "æ²",
        "¡"
      ],
      [
        "ç¾",
        "½"
      ],
      [
        "15",
        "7"
      ],
      [
        "æķ",
        "Į"
      ],
      [
        "ç",
        "ł"
      ],
      [
        "å¾",
        "ģ"
      ],
      [
        "æ",
        "·"
      ],
      [
        "ç",
        "Ĥ"
      ],
      [
        "åİ",
        "Ĩ"
      ],
      [
        "æİ",
        "¥"
      ],
      [
        "å®",
        "¤"
      ],
      [
        "æĹ",
        "©"
      ],
      [
        "å",
        "ģ"
      ],
      [
        "å®",
        "«"
      ],
      [
        "ã",
        "Ĥ"
      ],
      [
        "åº",
        "¦"
      ],
      [
        "åį",
        "´"
      ],
      [
        "è®",
        "¤"
      ],
      [
        "çļ",
        "ĩ"
      ],
      [
        "æĶ",
        "¹"
      ],
      [
        "äº¬",
        "éĥ½"
      ],
      [
        "å§",
        "ĭ"
      ],
      [
        "è",
        "į"
      ],
      [
        "çĶ",
        "²"
      ],
      [
        "ç",
        "ĭ"
      ],
      [
        "æ°¸",
        "ç¦Ħ"
      ],
      [
        "å¤",
        "ª"
      ],
      [
        "å¹",
        "¿"
      ],
      [
        "èĹ",
        "©"
      ],
      [
        "éĩ",
        "Į"
      ],
      [
        "èĻ",
        "İ"
      ],
      [
        "æµ",
        "·"
      ],
      [
        "ä»",
        "¬"
      ],
      [
        "å",
        "ĸ"
      ],
      [
        "çŃ",
        "ĳ"
      ],
      [
        "åı",
        "²"
      ],
      [
        "å·",
        "¦"
      ],
      [
        "éĻ",
        "¢"
      ],
      [
        "ç»",
        "Ń"
      ],
      [
        "åĿ",
        "Ĥ"
      ],
      [
        "åĪ",
        "Ŀ"
      ],
      [
        "é",
        "ĵ"
      ],
      [
        "æĭ",
        "ħ"
      ],
      [
        "å®",
        "ĺ"
      ],
      [
        "æķ",
        "Ļ"
      ],
      [
        "å¤©",
        "æĸĩ"
      ],
      [
        "å",
        "Ħ"
      ],
      [
        "ç»Ĩ",
        "å·Ŀ"
      ],
      [
        "å¸",
        "¸"
      ],
      [
        "å",
        "ĵ"
      ],
      [
        "è´",
        "ŀ"
      ],
      [
        "æ",
        "¦"
      ],
      [
        "##",
        "#"
      ],
      [
        "æŃ¦",
        "å°Ĩ"
      ],
      [
        "æ³",
        "¢"
      ],
      [
        "æı",
        "´"
      ],
      [
        "ä¸",
        "¸"
      ],
      [
        "çī",
        "©"
      ],
      [
        "å·",
        "±"
      ],
      [
        "15",
        "6"
      ],
      [
        "æ",
        "Ĵ"
      ],
      [
        "åĬ¿",
        "åĬĽ"
      ],
      [
        "æĮ",
        "ĩ"
      ],
      [
        "ä»Ĭ",
        "å·Ŀ"
      ],
      [
        "å",
        "«"
      ],
      [
        "å®¶",
        "çĿ£"
      ],
      [
        "é",
        "Ķ"
      ],
      [
        "çİ",
        "Ħ"
      ],
      [
        "è°",
        "·"
      ],
      [
        "å±±",
        "åŁİ"
      ],
      [
        "èī",
        "¯"
      ],
      [
        "å¼",
        "ł"
      ],
      [
        "æī",
        "ĵ"
      ],
      [
        "è¶³åĪ©",
        "ä¹ī"
      ],
      [
        "è¾",
        "ī"
      ],
      [
        "è",
        "Ĥ"
      ],
      [
        "è¿",
        "ľ"
      ],
      [
        "ç¾",
        "İ"
      ],
      [
        "å²Ľ",
        "æ´¥"
      ],
      [
        "èĻ",
        "½"
      ],
      [
        "åĬ",
        "©"
      ],
      [
        "åı",
        "ª"
      ],
      [
        "1",
        "0"
      ],
      [
        "æĪĺåĽ½",
        "æĹ¶ä»£"
      ],
      [
        "å¾·å·Ŀ",
        "å®¶åº·"
      ],
      [
        "åľ",
        "º"
      ],
      [
        "åĨ",
        "Ī"
      ],
      [
        "è®",
        "©"
      ],
      [
        "çĲ",
        "Ĩ"
      ],
      [
        "åĦ",
        "¿"
      ],
      [
        "æĪ",
        "ĸ"
      ],
      [
        "ç",
        "¼"
      ],
      [
        "é¢Ĩ",
        "åľ°"
      ],
      [
        "åºĨ",
        "éķ¿"
      ],
      [
        "è¿",
        "ŀ"
      ],
      [
        "æ±Ł",
        "æĪ·"
      ],
      [
        "çĻ",
        "¾"
      ],
      [
        "æº",
        "Ĳ"
      ],
      [
        "åĽ",
        "´"
      ],
      [
        "æ»",
        "¡"
      ],
      [
        "äº",
        "ī"
      ],
      [
        "èģ",
        "Į"
      ],
      [
        "æ¦",
        "Ĥ"
      ],
      [
        "è¯",
        "¸"
      ],
      [
        "é¦",
        "ĸ"
      ],
      [
        "äº",
        "¡"
      ],
      [
        "åı",
        "£"
      ],
      [
        "ç§",
        "į"
      ],
      [
        "å´",
        "İ"
      ],
      [
        "åħ",
        "»"
      ],
      [
        "æĪ",
        "¿"
      ],
      [
        "èģ",
        "Ķ"
      ],
      [
        "ç",
        "Ĭ"
      ],
      [
        "åı",
        "ĺ"
      ],
      [
        "æ±",
        "Ĥ"
      ],
      [
        "æ",
        "¨"
      ],
      [
        "åı",
        "³"
      ],
      [
        "åı",
        "¤"
      ],
      [
        "æĢ",
        "»"
      ],
      [
        "åĨ",
        "³"
      ],
      [
        "é",
        "£"
      ],
      [
        "è·",
        "¯"
      ],
      [
        "å",
        "ĭ"
      ],
      [
        "æ",
        "ĳ"
      ],
      [
        "èĩª",
        "å·±"
      ],
      [
        "å±",
        "ŀ"
      ],
      [
        "åħ",
        "Ħ"
      ],
      [
        "1",
        "2"
      ],
      [
        "çĦ¶",
        "èĢĮ"
      ],
      [
        "ç",
        "Į"
      ],
      [
        "çķ",
        "Ļ"
      ],
      [
        "éģ",
        "Ĥ"
      ],
      [
        "å²",
        "ģ"
      ],
      [
        "å±",
        "ĭ"
      ],
      [
        "æĺ",
        "Į"
      ],
      [
        "å¹",
        "¸"
      ],
      [
        "è½",
        "¬"
      ],
      [
        "è¯",
        "·"
      ],
      [
        "é",
        "ħ"
      ],
      [
        "æķ",
        "°"
      ],
      [
        "èĢ",
        "ģ"
      ],
      [
        "å¤",
        "±"
      ],
      [
        "å½ĵ",
        "æĹ¶"
      ],
      [
        "è±",
        "«"
      ],
      [
        "å¤",
        "´"
      ],
      [
        "èĲ",
        "½"
      ],
      [
        "ä»",
        "ħ"
      ],
      [
        "æŁ",
        "´"
      ],
      [
        "éĢ",
        "ĥ"
      ],
      [
        "æĶ",
        "¶"
      ],
      [
        "å¼",
        "º"
      ],
      [
        "é",
        "»"
      ],
      [
        "è®",
        "¨"
      ],
      [
        "ç",
        "ª"
      ],
      [
        "è½",
        "½"
      ],
      [
        "åĮ",
        "ĸ"
      ],
      [
        "éĻ",
        "·"
      ],
      [
        "æł",
        "·"
      ],
      [
        "èĹ",
        "ı"
      ],
      [
        "éģ",
        "Ń"
      ],
      [
        "åĮ",
        "ħ"
      ],
      [
        "æ¦Ĥ",
        "è¦ģ"
      ],
      [
        "å¼",
        "ĺ"
      ],
      [
        "æ",
        "£"
      ],
      [
        "ä»",
        "į"
      ],
      [
        "å¼Ģ",
        "å§ĭ"
      ],
      [
        "ç",
        "¡"
      ],
      [
        "æĭħ",
        "ä»»"
      ],
      [
        "ä¿¡",
        "çİĦ"
      ],
      [
        "1",
        "1"
      ],
      [
        "åĲ",
        "Ħ"
      ],
      [
        "ç®",
        "¡"
      ],
      [
        "è",
        "¨"
      ],
      [
        "ä¸ī",
        "å¥½"
      ],
      [
        "ä¸",
        "¾"
      ],
      [
        "åİ",
        "¿"
      ],
      [
        "å°",
        "ģ"
      ],
      [
        "åŁ",
        "º"
      ],
      [
        "è¡",
        "¨"
      ],
      [
        "è¨",
        "Ģ"
      ],
      [
        "å°",
        "¼"
      ],
      [
        "åħ³",
        "ä¸ľ"
      ],
      [
        "å½",
        "¢"
      ],
      [
        "ä¼",
        "Ĳ"
      ],
      [
        "éĻ",
        "į"
      ],
      [
        "å½",
        "Ĵ"
      ],
      [
[...]
