{
  "version": "1.0",
  "truncation": null,
  "padding": null,
  "added_tokens": [
    {
      "id": 0,
      "content": "<|endoftext|>",
      "single_word": false,
      "lstrip": false,
      "rstrip": false,
      "normalized": false,
      "special": true
    },
    {
      "id": 1,
      "content": "<|im_end|>",
      "single_word": false,
      "lstrip": false,
      "rstrip": false,
      "normalized": false,
      "special": true
    },
    {
      "id": 2,
      "content": "<|im_system|>",
      "single_word": false,
      "lstrip": false,
      "rstrip": false,
      "normalized": false,
      "special": true
    },
    {
      "id": 3,
      "content": "<|im_user|>",
      "single_word": false,
      "lstrip": false,
      "rstrip": false,
      "normalized": false,
      "special": true
    },
    {
      "id": 4,
      "content": "<|im_assistant|>",
      "single_word": false,
      "lstrip": false,
      "rstrip": false,
      "normalized": false,
      "special": true
    }
  ],
  "normalizer": null,
  "pre_tokenizer": {
    "type": "Sequence",
    "pretokenizers": [
      {
        "type": "Whitespace"
      },
      {
        "type": "ByteLevel",
        "add_prefix_space": false,
        "trim_offsets": true,
        "use_regex": true
      }
    ]
  },
  "post_processor": {
    "type": "ByteLevel",
    "add_prefix_space": true,
    "trim_offsets": false,
    "use_regex": true
  },
  "decoder": {
    "type": "ByteLevel",
    "add_prefix_space": true,
    "trim_offsets": true,
    "use_regex": true
  },
  "model": {
    "type": "BPE",
    "dropout": null,
    "unk_token": null,
    "continuing_subword_prefix": null,
    "end_of_word_suffix": null,
    "fuse_unk": false,
    "byte_fallback": false,
    "ignore_merges": false,
    "vocab": {
      "<|endoftext|>": 0,
      "<|im_end|>": 1,
      "<|im_system|>": 2,
      "<|im_user|>": 3,
      "<|im_assistant|>": 4,
      "!": 5,
      "\"": 6,
      "#": 7,
      "$": 8,
      "%": 9,
      "&": 10,
      "'": 11,
      "(": 12,
      ")": 13,
      "*": 14,
      "+": 15,
      ",": 16,
      "-": 17,
      ".": 18,
      "/": 19,
      "0": 20,
      "1": 21,
      "2": 22,
      "3": 23,
      "4": 24,
      "5": 25,
      "6": 26,
      "7": 27,
      "8": 28,
      "9": 29,
      ":": 30,
      ";": 31,
      "<": 32,
      "=": 33,
      ">": 34,
      "?": 35,
      "@": 36,
      "A": 37,
      "B": 38,
      "C": 39,
      "D": 40,
      "E": 41,
      "F": 42,
      "G": 43,
      "H": 44,
      "I": 45,
      "J": 46,
      "K": 47,
      "L": 48,
      "M": 49,
      "N": 50,
      "O": 51,
      "P": 52,
      "Q": 53,
      "R": 54,
      "S": 55,
      "T": 56,
      "U": 57,
      "V": 58,
      "W": 59,
      "X": 60,
      "Y": 61,
      "Z": 62,
      "[": 63,
      "\\": 64,
      "]": 65,
      "^": 66,
      "_": 67,
      "`": 68,
      "a": 69,
      "b": 70,
      "c": 71,
      "d": 72,
      "e": 73,
      "f": 74,
      "g": 75,
      "h": 76,
      "i": 77,
      "j": 78,
      "k": 79,
      "l": 80,
      "m": 81,
      "n": 82,
      "o": 83,
      "p": 84,
      "q": 85,
      "r": 86,
      "s": 87,
      "t": 88,
      "u": 89,
      "v": 90,
      "w": 91,
      "x": 92,
      "y": 93,
      "z": 94,
      "{": 95,
      "|": 96,
      "}": 97,
      "~": 98,
      "¡": 99,
      "¢": 100,
      "£": 101,
      "¤": 102,
      "¥": 103,
      "¦": 104,
      "§": 105,
      "¨": 106,
      "©": 107,
      "ª": 108,
      "«": 109,
      "¬": 110,
      "®": 111,
      "¯": 112,
      "°": 113,
      "±": 114,
      "²": 115,
      "³": 116,
      "´": 117,
      "µ": 118,
      "¶": 119,
      "·": 120,
      "¸": 121,
      "¹": 122,
      "º": 123,
      "»": 124,
      "¼": 125,
      "½": 126,
      "¾": 127,
      "¿": 128,
      "Â": 129,
      "Ã": 130,
      "Ä": 131,
      "Å": 132,
      "Æ": 133,
      "Ç": 134,
      "È": 135,
      "É": 136,
      "Ê": 137,
      "Ë": 138,
      "Ì": 139,
      "Í": 140,
      "Î": 141,
      "Ï": 142,
      "Ð": 143,
      "Ñ": 144,
      "Ò": 145,
      "Ó": 146,
      "Ô": 147,
      "Õ": 148,
      "Ö": 149,
      "×": 150,
      "Ø": 151,
      "Ù": 152,
      "Ú": 153,
      "Û": 154,
      "Þ": 155,
      "ß": 156,
      "à": 157,
      "á": 158,
      "â": 159,
      "ã": 160,
      "ä": 161,
      "å": 162,
      "æ": 163,
      "ç": 164,
      "è": 165,
      "é": 166,
      "ê": 167,
      "ë": 168,
      "ì": 169,
      "í": 170,
      "î": 171,
      "ï": 172,
      "ð": 173,
      "ó": 174,
      "ô": 175,
      "Ā": 176,
      "ā": 177,
      "Ă": 178,
      "ă": 179,
      "Ą": 180,
      "ą": 181,
      "Ć": 182,
      "ć": 183,
      "Ĉ": 184,
      "Ď": 185,
      "ď": 186,
      "Đ": 187,
      "đ": 188,
      "Ē": 189,
      "Ė": 190,
      "ė": 191,
      "ę": 192,
      "Ě": 193,
      "ě": 194,
      "ĝ": 195,
      "Ğ": 196,
      "ğ": 197,
      "ġ": 198,
      "Ģ": 199,
      "ģ": 200,
      "Ĥ": 201,
      "ĥ": 202,
      "Ħ": 203,
      "ħ": 204,
      "Ĩ": 205,
      "ĩ": 206,
      "Ī": 207,
      "ī": 208,
      "Ĭ": 209,
      "ĭ": 210,
      "Į": 211,
      "į": 212,
      "İ": 213,
      "ı": 214,
      "Ĳ": 215,
      "ĳ": 216,
      "Ĵ": 217,
      "ĵ": 218,
      "Ķ": 219,
      "ķ": 220,
      "ĸ": 221,
      "Ĺ": 222,
      "ĺ": 223,
      "Ļ": 224,
      "ļ": 225,
      "Ľ": 226,
      "ľ": 227,
      "Ŀ": 228,
      "ŀ": 229,
      "Ł": 230,
      "ł": 231,
      "Ń": 232,
      "ä¸": 233,
      "çļ": 234,
      "çļĦ": 235,
      "ï¼": 236,
      "äº": 237,
      "ãĢ": 238,
      "ï¼Į": 239,
      "åħ": 240,
      "åı": 241,
      "æľ": 242,
      "ä»": 243,
      "åĪ": 244,
      "in": 245,
      "å®": 246,
      "th": 247,
      "re": 248,
      "ç»": 249,
      "è¿": 250,
      "ä½": 251,
      "åĬ": 252,
      "å¤": 253,
      "ãĢĤ": 254,
      "çĶ": 255,
      "åĲ": 256,
      "on": 257,
      "åĽ": 258,
      "an": 259,
      "ti": 260,
      "åľ": 261,
      "--": 262,
      "æĸ": 263,
      "æĺ": 264,
      "è®": 265,
      "ä¹": 266,
      "en": 267,
      "er": 268,
      "ãĢģ": 269,
      "æĪ": 270,
      "ä¼": 271,
      "åŃ": 272,
      "è¯": 273,
      "al": 274,
      "åĴ": 275,
      "åº": 276,
      "the": 277,
      "ed": 278,
      "åĴĮ": 279,
      "æķ": 280,
      "æĺ¯": 281,
      "ä¸Ń": 282,
      "ä¸Ģ": 283,
      "æĿ": 284,
      "æĢ": 285,
      "åĮ": 286,
      "å¹": 287,
      "or": 288,
      "å¯": 289,
      "at": 290,
      "åľ¨": 291,
      "å¼": 292,
      "éĩ": 293,
      "åĽ½": 294,
      "è¡": 295,
      "æĹ": 296,
      "es": 297,
      "äºº": 298,
      "åį": 299,
      "æĶ": 300,
      "åĨ": 301,
      "è§": 302,
      "æ³": 303,
      "ä¸º": 304,
      "æľī": 305,
      "of": 306,
      "çĽ": 307,
      "as": 308,
      "å°": 309,
      "èĢ": 310,
      "éĢ": 311,
      "å±": 312,
      "æī": 313,
      "âĢ": 314,
      "is": 315,
      "åŃ¦": 316,
      "è´": 317,
      "ç§": 318,
      "and": 319,
      "----": 320,
      "çİ": 321,
      "åĩ": 322,
      "æĬ": 323,
      "tion": 324,
      "å¾": 325,
      "èĥ": 326,
      "æł": 327,
      "ä¸į": 328,
      "ro": 329,
      "åıĳ": 330,
      "æ°": 331,
      "çĲ": 332,
      "å·": 333,
      "æ³ķ": 334,
      "ä»¥": 335,
      "å¸": 336,
      "è¦": 337,
      "ar": 338,
      "å½": 339,
      "ic": 340,
      "è¦ģ": 341,
      "çĶŁ": 342,
      "ä¿": 343,
      "çī": 344,
      "éĻ": 345,
      "éĿ": 346,
      "æŀ": 347,
      "çĲĨ": 348,
      "çĶ¨": 349,
      "å¤§": 350,
      "å¯¹": 351,
      "åŁ": 352,
      "è¡Į": 353,
      "äºĨ": 354,
      "æİ": 355,
      "ing": 356,
      "to": 357,
      "ä¸ļ": 358,
      "æµ": 359,
      "åĮĸ": 360,
      "èµ": 361,
      "çŃ": 362,
      "èĥ½": 363,
      "ä¼ļ": 364,
      "æŃ": 365,
      "æĢ§": 366,
      "el": 367,
      "å®ŀ": 368,
      "éĹ": 369,
      "é¢": 370,
      "å¿": 371,
      "ä½ľ": 372,
      "ä½ĵ": 373,
      "ent": 374,
      "çº": 375,
      "æĪĲ": 376,
      "ä¸»": 377,
      "æĮ": 378,
      "äºİ": 379,
      "æĸ¹": 380,
      "å®ļ": 381,
      "ä¸İ": 382,
      "èĩ": 383,
      "ä¸ª": 384,
      "le": 385,
      "st": 386,
      "åĪ¶": 387,
      "åĪĨ": 388,
      "è¿Ľ": 389,
      "ç¨": 390,
      "ac": 391,
      "åİ": 392,
      "åĬ¨": 393,
      "äº§": 394,
      "æĹ¶": 395,
      "çİ°": 396,
      "åı¯": 397,
      "ç¤": 398,
      "ec": 399,
      "it": 400,
      "å±ķ": 401,
      "æ²": 402,
      "ç»ı": 403,
      "ä¾": 404,
      "åľ°": 405,
      "ä¸Ĭ": 406,
      "ation": 407,
      "åĩº": 408,
      "åĳ": 409,
      "éĥ": 410,
      "åĲĪ": 411,
      "æ°ĳ": 412,
      "åĲĮ": 413,
      "ç«": 414,
      "ç³": 415,
      "å¹´": 416,
      "æı": 417,
      "è¾": 418,
      "åĬĽ": 419,
      "å»": 420,
      "æĸ°": 421,
      "ç®": 422,
      "æľ¬": 423,
      "è¿Ļ": 424,
      "ç³»": 425,
      "åħ¨": 426,
      "åħ³": 427,
      "æĶ¿": 428,
      "å·¥": 429,
      "çŃī": 430,
      "åºĶ": 431,
      "ul": 432,
      "res": 433,
      "åº¦": 434,
      "éĩį": 435,
      "æį": 436,
      "co": 437,
      "us": 438,
      "å»º": 439,
      "èĤ": 440,
      "åħ¶": 441,
      "è¿ĩ": 442,
      "--------": 443,
      "âĢľ": 444,
      "âĢĿ": 445,
      "é«": 446,
      "æķĻ": 447,
      "åıĳå±ķ": 448,
      "æķ°": 449,
      "é«ĺ": 450,
      "æ±": 451,
      "æĿ¥": 452,
      "si": 453,
      "ç¨ĭ": 454,
      "ç¤¾": 455,
      "èĢĮ": 456,
      "æĸĩ": 457,
      "ç½": 458,
      "åŁº": 459,
      "æıĲ": 460,
      "è®¾": 461,
      "éĿ¢": 462,
      "ç¬": 463,
      "æĥ": 464,
      "èĩª": 465,
      "åĪ°": 466,
      "æĦ": 467,
      "di": 468,
      "æĭ": 469,
      "èĢħ": 470,
      "ä¹ĭ": 471,
      "åĵ": 472,
      "çł": 473,
      "å®¶": 474,
      "ä»£": 475,
      "ç©": 476,
      "ere": 477,
      "æľº": 478,
      "et": 479,
      "ä¹ī": 480,
      "éĺ": 481,
      "ç¡": 482,
      "èµĦ": 483,
      "ly": 484,
      "¦Ĥ": 485,
      "è½": 486,
      "ç¤¾ä¼ļ": 487,
      "åĬ¡": 488,
      "å¢": 489,
      "wi": 490,
      "for": 491,
      "åī": 492,
      "ur": 493,
      "éĩı": 494,
      "çī©": 495,
      "åĢ": 496,
      "è§Ħ": 497,
      "å¤ļ": 498,
      "éĢļ": 499,
      "æ´": 500,
      "æĿĥ": 501,
      "ä¸ŃåĽ½": 502,
      "æ¯": 503,
      "ç§į": 504,
      "ç»Ł": 505,
      "è°": 506,
      "un": 507,
      "æīĢ": 508,
      "pro": 509,
      "ve": 510,
      "éĥ¨": 511,
      "lo": 512,
      "åĨħ": 513,
      "çĽ¸": 514,
      "ä¿Ŀ": 515,
      "åħ¬": 516,
      "ç¬¬": 517,
      "20": 518,
      "ig": 519,
      "è·": 520,
      "he": 521,
      "åıĬ": 522,
      "åĬł": 523,
      "éģ": 524,
      "èģ": 525,
      "é¡": 526,
      "å¥": 527,
      "åĪ©": 528,
      "äºĭ": 529,
      "ä¸ĭ": 530,
      "æį®": 531,
      "with": 532,
      "å¼ı": 533,
      "æĪĳ": 534,
      "æ²»": 535,
      "de": 536,
      "mp": 537,
      "æĽ": 538,
      "åĽł": 539,
      "åĲİ": 540,
      "ç»ĵ": 541,
      "ç®¡": 542,
      "çķ": 543,
      "å¼Ģ": 544,
      "çŁ": 545,
      "çĤ": 546,
      "å¦Ĥ": 547,
      "ä¹Ł": 548,
      "çī¹": 549,
      "æĪĸ": 550,
      "åĿ": 551,
      "çłĶ": 552,
      "ä¿¡": 553,
      "æĬĢ": 554,
      "å¹³": 555,
      "å½ĵ": 556,
      "ä»İ": 557,
      "éĹ´": 558,
      "åħļ": 559,
      "éļ": 560,
      "ce": 561,
      "è®¡": 562,
      "ch": 563,
      "æľ¯": 564,
      "mo": 565,
      "ab": 566,
      "æ¬": 567,
      "con": 568,
      "æµİ": 569,
      "æĺİ": 570,
      "æŀĦ": 571,
      "å°±": 572,
      "ex": 573,
      "ç«ĭ": 574,
      "ä½¿": 575,
      "åģ": 576,
      "é¢ĺ": 577,
      "è§£": 578,
      "è®º": 579,
      "åħ±": 580,
      "å¹¶": 581,
      "ç»ıæµİ": 582,
      "tr": 583,
      "å¼º": 584,
      "æľŁ": 585,
      "ter": 586,
      "è¡¨": 587,
      "éķ": 588,
      "æłĩ": 589,
      "se": 590,
      "ç§ĳ": 591,
      "ä»¬": 592,
      "è´¨": 593,
      "su": 594,
      "ag": 595,
      "å½¢": 596,
      "ati": 597,
      "ç±": 598,
      "èī": 599,
      "ç©¶": 600,
      "me": 601,
      "ç´": 602,
      "åıĺ": 603,
      "è¶": 604,
      "éľ": 605,
      "çĽ®": 606,
      "æ¸": 607,
      "çľ": 608,
      "å¾Ĺ": 609,
      "çĤ¹": 610,
      "åħ¥": 611,
      "po": 612,
      "åĮº": 613,
      "æĦı": 614,
      "çĶ±": 615,
      "å¯¼": 616,
      "æģ": 617,
      "id": 618,
      "ä¸ī": 619,
      "æŁ": 620,
      "ï¼ī": 621,
      "ment": 622,
      "å¸Ĥ": 623,
      "åīį": 624,
      "ell": 625,
      "æº": 626,
      "æĻ": 627,
      "èĤ²": 628,
      "00": 629,
      "ç¾": 630,
      "åŀ": 631,
      "ï¼Ī": 632,
      "çłĶç©¶": 633,
      "å¿ĥ": 634,
      "å¤ĸ": 635,
      "ç»Ħ": 636,
      "æķĪ": 637,
      "éĹ®": 638,
      "æĢĿ": 639,
      "æĮģ": 640,
      "ated": 641,
      "ho": 642,
      "åħ·": 643,
      "æ±Ĥ": 644,
      "are": 645,
      "il": 646,
      "æ¶": 647,
      "çĦ": 648,
      "åĲĳ": 649,
      "éĽ": 650,
      "å°Ĩ": 651,
      "æĽ´": 652,
      "ä»ĸ": 653,
      "ut": 654,
      "æĶ¹": 655,
      "æŃ¤": 656,
      "åĪĽ": 657,
      "æľĢ": 658,
      "ä»¶": 659,
      "ad": 660,
      "ä¸»ä¹ī": 661,
      "äºĮ": 662,
      "ç±»": 663,
      "åĲĦ": 664,
      "åĽ½å®¶": 665,
      "no": 666,
      "éķ¿": 667,
      "åİŁ": 668,
      "åŃĲ": 669,
      "éľĢ": 670,
      "ï¼ļ": 671,
      "be": 672,
      "æĿ¡": 673,
      "çĿ": 674,
      "æĮĩ": 675,
      "æºĲ": 676,
      "ä½į": 677,
      "åŀĭ": 678,
      "ol": 679,
      "æ´»": 680,
      "çĶµ": 681,
      "ç¡®": 682,
      "that": 683,
      "è¯Ĩ": 684,
      "ap": 685,
      "è®¤": 686,
      "ver": 687,
      "åı¯ä»¥": 688,
      "æĬĢæľ¯": 689,
      "im": 690,
      "ç¼": 691,
      "è¿Ľè¡Į": 692,
      "ts": 693,
      "ä¸Ģä¸ª": 694,
      "çĦ¶": 695,
      "ä¼ģ": 696,
      "am": 697,
      "æŃ£": 698,
      "åĵģ": 699,
      "tic": 700,
      "ity": 701,
      "éª": 702,
      "æ¨": 703,
      "éĹ®é¢ĺ": 704,
      "æ¡": 705,
      "ä»»": 706,
      "æİ¨": 707,
      "è°ĥ": 708,
      "é£": 709,
      "ä»·": 710,
      "åĨ³": 711,
      "um": 712,
      "åľº": 713,
      "æĥħ": 714,
      "æŀľ": 715,
      "æ°´": 716,
      "ff": 717,
      "çĸ": 718,
      "å§": 719,
      "éĩĳ": 720,
      "ä¼ł": 721,
      "å¢ŀ": 722,
      "per": 723,
      "was": 724,
      "ä¼ģä¸ļ": 725,
      "æ·": 726,
      "åĳĺ": 727,
      "æ¨¡": 728,
      "ir": 729,
      "æķĻèĤ²": 730,
      "é¢Ĩ": 731,
      "äººæ°ĳ": 732,
      "åĪĻ": 733,
      "ç®¡çĲĨ": 734,
      "cell": 735,
      "The": 736,
      "were": 737,
      "----------------": 738,
      "æĹł": 739,
      "ç²": 740,
      "è¯ģ": 741,
      "éĢł": 742,
      "åįģ": 743,
      "æĢģ": 744,
      "gen": 745,
      "ï¼Ľ": 746,
      "å®ī": 747,
      "èĲ": 748,
      "ma": 749,
      "æĹ¥": 750,
      "è§Ĥ": 751,
      "ä¹ł": 752,
      "éĿ©": 753,
      "ä½Ĩ": 754,
      "by": 755,
      "çĹ": 756,
      "ate": 757,
      "çŁ¥": 758,
      "åĨľ": 759,
      "äºĽ": 760,
      "åŃĺ": 761,
      "19": 762,
      "éħ": 763,
      "è¿Ĳ": 764,
      "å¤Ħ": 765,
      "å»ºè®¾": 766,
      "èĬ": 767,
      "æµģ": 768,
      "æ®": 769,
      "çİ¯": 770,
      "ç½ĳ": 771,
      "æģ¯": 772,
      "å°ı": 773,
      "è¢": 774,
      "åı²": 775,
      "å¾ĭ": 776,
      "èµ·": 777,
      "æİ¥": 778,
      "ãĢĬ": 779,
      "ãĢĭ": 780,
      "æĪĺ": 781,
      "éĶ": 782,
      "so": 783,
      "äº¤": 784,
      "è½¬": 785,
      "uc": 786,
      "pres": 787,
      "å¸¸": 788,
      "å·¥ä½ľ": 789,
      "æķ°æį®": 790,
      "ä¾Ľ": 791,
      "we": 792,
      "æ¯Ķ": 793,
      "éĥ½": 794,
      "åĩĨ": 795,
      "éĢļè¿ĩ": 796,
      "10": 797,
      "éĻħ": 798,
      "pe": 799,
      "ç¥": 800,
      "æĸ½": 801,
      "ç³»ç»Ł": 802,
      "çĻ": 803,
      "ted": 804,
      "æľį": 805,
      "åĢ¼": 806,
      "éģĵ": 807,
      "è¢«": 808,
      "cl": 809,
      "ä¸ĸ": 810,
      "åıĸ": 811,
      "çĿĢ": 812,
      "if": 813,
      "æĶ¶": 814,
      "ther": 815,
      "å¢ĥ": 816,
      "èģĶ": 817,
      "è¯´": 818,
      "åįķ": 819,
      "åıį": 820,
      "åķ": 821,
      "çķĮ": 822,
      "çº§": 823,
      "å¥½": 824,
      "ty": 825,
      "é¡¹": 826,
      "æĥ³": 827,
      "éĻ¢": 828,
      "éĩįè¦ģ": 829,
      "èĮ": 830,
      "éĵ": 831,
      "åıĹ": 832,
      "æĢ»": 833,
      "qu": 834,
      "éĽĨ": 835,
      "sp": 836,
      "éªĮ": 837,
      "ical": 838,
      "çİĩ": 839,
      "åŁŁ": 840,
      "åİĨ": 841,
      "ib": 842,
      "ç´ł": 843,
      "æ¬¡": 844,
      "ä¿¡æģ¯": 845,
      "å¿ħ": 846,
      "åķĨ": 847,
      "ä¸¤": 848,
      "å®Į": 849,
      "è¿ĺ": 850,
      "åı¸": 851,
      "æĬ¤": 852,
      "æ¡Ī": 853,
      "çŃĸ": 854,
      "åŃ¦çĶŁ": 855,
      "çĬ": 856,
      "è·¯": 857,
      "ä¸ĵ": 858,
      "ç¾İ": 859,
      "æŃ¥": 860,
      "èī²": 861,
      "ne": 862,
      "æĶ¾": 863,
      "æĶ¯": 864,
      "ain": 865,
      "åĪ¶åº¦": 866,
      "èŀ": 867,
      "åĻ": 868,
      "ant": 869,
      "vel": 870,
      "èĭ": 871,
      "åĮħ": 872,
      "å¤į": 873,
      "çĽĬ": 874,
      "å®ŀçİ°": 875,
      "æķ´": 876,
      "æĸŃ": 877,
      "dis": 878,
      "æĪĳä»¬": 879,
      "æł¹": 880,
      "å½±": 881,
      "rom": 882,
      "èŀį": 883,
      "è®®": 884,
      "ä¸»è¦ģ": 885,
      "æµĭ": 886,
      "èį": 887,
      "æł·": 888,
      "æľįåĬ¡": 889,
      "ä¹¦": 890,
      "å®¹": 891,
      "èĮĥ": 892,
      "In": 893,
      "æ·±": 894,
      "é©": 895,
      "ure": 896,
      "èĪ": 897,
      "wh": 898,
      "åĪ«": 899,
      "ud": 900,
      "è¾ĥ": 901,
      "èĬĤ": 902,
      "æĸĩåĮĸ": 903,
      "ç¡Ģ": 904,
      "åŁºç¡Ģ": 905,
      "æĸ¹éĿ¢": 906,
      "å¼ķ": 907,
      "åĻ¨": 908,
      "te": 909,
      "ç®Ĺ": 910,
      "çº¿": 911,
      "ents": 912,
      "ase": 913,
      "åĽ¾": 914,
      "æľĪ": 915,
      "æł¼": 916,
      "ine": 917,
      "èĢĥ": 918,
      "é£İ": 919,
      "ç»ĩ": 920,
      "è¿ĩç¨ĭ": 921,
      "åħĪ": 922,
      "sis": 923,
      "è£": 924,
      "èĦ": 925,
      "ä¼ĺ": 926,
      "è¾¾": 927,
      "ä¾ĭ": 928,
      "åĽĽ": 929,
      "ç¦": 930,
      "åĵį": 931,
      "ä¾Ŀ": 932,
      "éľĢè¦ģ": 933,
      "è´£": 934,
      "io": 935,
      "åħĥ": 936,
      "å¸Ĥåľº": 937,
      "å®ĥ": 938,
      "éĻ©": 939,
      "åĳ½": 940,
      "æİ§": 941,
      "å±Ĥ": 942,
      "è¯¾": 943,
      "éĿŀ": 944,
      "sion": 945,
      "å·²": 946,
      "è±": 947,
      "ess": 948,
      "igh": 949,
      "åħ³ç³»": 950,
      "åĸ": 951,
      "è¿ĳ": 952,
      "ç»Ħç»ĩ": 953,
      "è¯¥": 954,
      "çĹħ": 955,
      "èĥ½åĬĽ": 956,
      "æĸ¹æ³ķ": 957,
      "åºľ": 958,
      "çĲĨè®º": 959,
      "ç²¾": 960,
      "ç¤º": 961,
      "èģĮ": 962,
      "up": 963,
      "ay": 964,
      "from": 965,
      "æł¸": 966,
      "pati": 967,
      "æŀĲ": 968,
      "ref": 969,
      "çĶŁäº§": 970,
      "ph": 971,
      "è¯Ħ": 972,
      "åħ·æľī": 973,
      "è§Ħå®ļ": 974,
      "åĿļ": 975,
      "ç»´": 976,
      "åįı": 977,
      "comp": 978,
      "åŁİ": 979,
      "æ®µ": 980,
      "ä½ĵç³»": 981,
      "çĽĳ": 982,
      "å£": 983,
      "li": 984,
      "ä¸įåĲĮ": 985,
      "æĪĳåĽ½": 986,
      "æĹı": 987,
      "å¸Ī": 988,
      "å½±åĵį": 989,
      "åİĨåı²": 990,
      "éĴ": 991,
      "åĪĽæĸ°": 992,
      "çİ¯å¢ĥ": 993,
      "ind": 994,
      "å®īåħ¨": 995,
      "åħ»": 996,
      "ri": 997,
      "äºī": 998,
      "éĹ¨": 999,
      "æ£": 1000,
      "èĻ": 1001,
      "åıĤ": 1002,
      "æĬĬ": 1003,
      "æĶ¿åºľ": 1004,
      "æ³ķå¾ĭ": 1005,
      "æľª": 1006,
      "çº¦": 1007,
      "æīį": 1008,
      "æĺĵ": 1009,
      "ä½İ": 1010,
      "åĬŁ": 1011,
      "æĦŁ": 1012,
      "ç§ĳåŃ¦": 1013,
      "ä½¿çĶ¨": 1014,
      "è±¡": 1015,
      "åŁºæľ¬": 1016,
      "å¤ĩ": 1017,
      "è®°": 1018,
      "od": 1019,
      "åį³": 1020,
      "åŃĹ": 1021,
      "èº": 1022,
      "æŀģ": 1023,
      "und": 1024,
      "cells": 1025,
      "ç¥ŀ": 1026,
      "ç»Ĩ": 1027,
      "ci": 1028,
      "äºĴ": 1029,
      "åĪĴ": 1030,
      "type": 1031,
      "é¦": 1032,
      "èĩ³": 1033,
      "age": 1034,
      "pl": 1035,
      "åºı": 1036,
      "è¦ģæ±Ĥ": 1037,
      "å¤©": 1038,
      "å±Ģ": 1039,
      "éĢī": 1040,
      "èº«": 1041,
      "12": 1042,
      "æıĲä¾Ľ": 1043,
      "Ĥ£": 1044,
      "å¿µ": 1045,
      "åĪĨæŀĲ": 1046,
      "è¥": 1047,
      "pre": 1048,
      "sy": 1049,
      "gn": 1050,
      "ä½ľçĶ¨": 1051,
      "æĶ¹éĿ©": 1052,
      "do": 1053,
      "è¯Ń": 1054,
      "ç»Ń": 1055,
      "æ³¨": 1056,
      "è¡Įä¸º": 1057,
      "è¥¿": 1058,
      "éĻĲ": 1059,
      "æĿĳ": 1060,
      "è§Ĩ": 1061,
      "æĺ¾": 1062,
      "å°ĳ": 1063,
      "æŁ¥": 1064,
      "æł¡": 1065,
      "ä½ľä¸º": 1066,
      "èĲ¥": 1067,
      "èĩ´": 1068,
      "çĽ´": 1069,
      "ä¸ľ": 1070,
      "æĬ¥": 1071,
      "æĬķ": 1072,
      "Th": 1073,
      "åĨĽ": 1074,
      "åĨµ": 1075,
      "ä½ķ": 1076,
      "åŃ¦ä¹ł": 1077,
      "ç¤¾ä¼ļä¸»ä¹ī": 1078,
      "çģ": 1079,
      "ç©º": 1080,
      "æ°Ķ": 1081,
      "éĢĤ": 1082,
      "can": 1083,
      "å®¡": 1084,
      "ç»ĵæŀĦ": 1085,
      "æĸ¹å¼ı": 1086,
      "éĩĩ": 1087,
      "åħ¬åı¸": 1088,
      "æĶ¿æ²»": 1089,
      "æķĻåŃ¦": 1090,
      "vi": 1091,
      "è´¹": 1092,
      "åıª": 1093,
      "åĬ¿": 1094,
      "cy": 1095,
      "tor": 1096,
      "ha": 1097,
      "åı£": 1098,
      "çĥ": 1099,
      "çķ¥": 1100,
      "æī¿": 1101,
      "æĢĿæĥ³": 1102,
      "ä»¥åıĬ": 1103,
      "æµ·": 1104,
      "med": 1105,
      "èµĦæºĲ": 1106,
      "åĸĦ": 1107,
      "éħį": 1108,
      "able": 1109,
      "çľĭ": 1110,
      "åįĩ": 1111,
      "ç§¯": 1112,
      "è·µ": 1113,
      "æ²¡": 1114,
      "åı¯èĥ½": 1115,
      "str": 1116,
      "op": 1117,
      "ers": 1118,
      "ħ§": 1119,
      "åºĶçĶ¨": 1120,
      "äºĶ": 1121,
      "ä¸ĸçķĮ": 1122,
      "æ»": 1123,
      "em": 1124,
      "ç½®": 1125,
      "é¢Ħ": 1126,
      "çİ°ä»£": 1127,
      "å½¢æĪĲ": 1128,
      "è´¢": 1129,
      "ations": 1130,
      "åįİ": 1131,
      "å¹¿": 1132,
      "æĭ¬": 1133,
      "åŁ¹": 1134,
      "tive": 1135,
      "æĸĻ": 1136,
      "CR": 1137,
      "å¸¦": 1138,
      "åĬ³": 1139,
      "æ¶Ī": 1140,
      "ç»Ļ": 1141,
      "all": 1142,
      "è¯ķ": 1143,
      "11": 1144,
      "åħĭ": 1145,
      "è¨": 1146,
      "è§ģ": 1147,
      "çª": 1148,
      "å¾ģ": 1149,
      "val": 1150,
      "å¸ĥ": 1151,
      "par": 1152,
      "éĺ¶": 1153,
      "å®ŀè·µ": 1154,
      "ä¸Ģç§į": 1155,
      "ence": 1156,
      "åĲį": 1157,
      "è¨Ģ": 1158,
      "å¾Ī": 1159,
      "çĬ¶": 1160,
      "ific": 1161,
      "low": 1162,
      "ç»ľ": 1163,
      "log": 1164,
      "å¾·": 1165,
      "éĢŁ": 1166,
      "æıĲé«ĺ": 1167,
      "è®¾è®¡": 1168,
      "æ¸ħ": 1169,
      "æīĭ": 1170,
      "åĽ½éĻħ": 1171,
      "è¿°": 1172,
      "åŃĺåľ¨": 1173,
      "éĻ¤": 1174,
      "äº§ä¸ļ": 1175,
      "åģļ": 1176,
      "çŁ¥è¯Ĩ": 1177,
      "ç¾¤": 1178,
      "çĽ¸åħ³": 1179,
      "æ£Ģ": 1180,
      "est": 1181,
      "æ²¡æľī": 1182,
      "ary": 1183,
      "é¡»": 1184,
      "inf": 1185,
      "patients": 1186,
      "åľŁ": 1187,
      "åĪĹ": 1188,
      "æıĲåĩº": 1189,
      "ä¿ĿæĬ¤": 1190,
      "åĨħå®¹": 1191,
      "æĶ¿çŃĸ": 1192,
      "ç½ĳç»ľ": 1193,
      "tiv": 1194,
      "å¤±": 1195,
      "æĪĸèĢħ": 1196,
      "æłĩåĩĨ": 1197,
      "èİ": 1198,
      "æ´»åĬ¨": 1199,
      "ä¸Ķ": 1200,
      "åĮħæĭ¬": 1201,
      "åĲĮæĹ¶": 1202,
      "NA": 1203,
      "ç¢": 1204,
      "åı°": 1205,
      "15": 1206,
      "ear": 1207,
      "éĺ²": 1208,
      "é©¬": 1209,
      "å§ĭ": 1210,
      "ä»·åĢ¼": 1211,
      "å°±æĺ¯": 1212,
      "ans": 1213,
      "eren": 1214,
      "åĳĬ": 1215,
      "çĽ®æłĩ": 1216,
      "åħī": 1217,
      "ion": 1218,
      "åħ¶ä»ĸ": 1219,
      "å»ºç«ĭ": 1220,
      "sign": 1221,
      "å§Ķ": 1222,
      "éļ¾": 1223,
      "ç§°": 1224,
      "åĬ©": 1225,
      "cont": 1226,
      "not": 1227,
      "è¿ĻäºĽ": 1228,
      "ort": 1229,
      "use": 1230,
      "æī§": 1231,
      "æ°ĳæĹı": 1232,
      "inc": 1233,
      "mic": 1234,
      "reg": 1235,
      "æĥħåĨµ": 1236,
      "åħ¨éĿ¢": 1237,
      "ä¼Ĺ": 1238,
      "æĻº": 1239,
      "ä»ħ": 1240,
      "éļľ": 1241,
      "ç«ł": 1242,
      "åĽ´": 1243,
      "iz": 1244,
      "åĮ»": 1245,
      "ten": 1246,
      "ä¸¥": 1247,
      "å±ŀ": 1248,
      "one": 1249,
      "çľŁ": 1250,
      "æĪĲä¸º": 1251,
      "åĽłæŃ¤": 1252,
      "çĭ": 1253,
      "18": 1254,
      "this": 1255,
      "ich": 1256,
      "fo": 1257,
      "æĹ¶ä»£": 1258,
      "éĥ¨åĪĨ": 1259,
      "å¿ħé¡»": 1260,
      "åĬ³åĬ¨": 1261,
      "å¹²": 1262,
      "çĲĥ": 1263,
      "åįĹ": 1264,
      "åĪ¤": 1265,
      "ug": 1266,
      "ä¹ĭéĹ´": 1267,
      "sho": 1268,
      "æł¹æį®": 1269,
      "ç¨İ": 1270,
      "åħħ": 1271,
      "åĮĹ": 1272,
      "çĸĹ": 1273,
      "diff": 1274,
      "æĴ": 1275,
      "gro": 1276,
      "è¶Ĭ": 1277,
      "å¿«": 1278,
      "è¡ĮæĶ¿": 1279,
      "åĶ": 1280,
      "ular": 1281,
      "äº§åĵģ": 1282,
      "åĽŀ": 1283,
      "åıĪ": 1284,
      "çħ§": 1285,
      "æ¬¾": 1286,
      "ä¹Ī": 1287,
      "ect": 1288,
      "anti": 1289,
      "mon": 1290,
      "åĨį": 1291,
      "aly": 1292,
      "åħ´": 1293,
      "å¤ĦçĲĨ": 1294,
      "min": 1295,
      "è¶³": 1296,
      "ä¿ĥ": 1297,
      "13": 1298,
      "éļı": 1299,
      "æľºåĪ¶": 1300,
      "åıĳçĶŁ": 1301,
      "è´¨éĩı": 1302,
      "ang": 1303,
      "èĥŀ": 1304,
      "åĩı": 1305,
      "åĿĩ": 1306,
      "14": 1307,
      "æ¯ı": 1308,
      "æİ§åĪ¶": 1309,
      "ä¸ĩ": 1310,
      "red": 1311,
      "åĽ¢": 1312,
      "è¯ī": 1313,
      "çĶŁæ´»": 1314,
      "resp": 1315,
      "å¤®": 1316,
      "è´£ä»»": 1317,
      "å®ŀæĸ½": 1318,
      "tre": 1319,
      "cor": 1320,
      "æİ¨è¿Ľ": 1321,
      "å¯Ĩ": 1322,
      "å®³": 1323,
      "ved": 1324,
      "stud": 1325,
      "gr": 1326,
      "tions": 1327,
      "æĪ·": 1328,
      "éĩĳèŀį": 1329,
      "è®©": 1330,
      "æĹ¶éĹ´": 1331,
      "é£İéĻ©": 1332,
      "ç¦»": 1333,
      "bo": 1334,
      "ll": 1335,
      "åİ»": 1336,
      "com": 1337,
      "åĿļæĮģ": 1338,
      "è¿Ļç§į": 1339,
      "å¯¹äºİ": 1340,
      "16": 1341,
      "åı·": 1342,
      "é¢ĨåŁŁ": 1343,
      "ance": 1344,
      "ally": 1345,
      "rel": 1346,
      "eff": 1347,
      "å·®": 1348,
      "äº§çĶŁ": 1349,
      "æĿĲ": 1350,
      "have": 1351,
      "éĩĮ": 1352,
      "ob": 1353,
      "ç»Ī": 1354,
      "æ¦Ĥ": 1355,
      "åĢº": 1356,
      "expres": 1357,
      "æŁĲ": 1358,
      "bet": 1359,
      "èİ·": 1360,
      "è§£åĨ³": 1361,
      "çªģ": 1362,
      "åĪ©çĶ¨": 1363,
      "ç»Ĩèĥŀ": 1364,
      "éĻį": 1365,
      "æĮī": 1366,
      "è´Ł": 1367,
      "ased": 1368,
      "å¤Ł": 1369,
      "ser": 1370,
      "è®¤ä¸º": 1371,
      "æ°´å¹³": 1372,
      "å¼Ĥ": 1373,
      "ä¸įæĸŃ": 1374,
      "fac": 1375,
      "æľºæŀĦ": 1376,
      "ä¼łç»Ł": 1377,
      "æľīæķĪ": 1378,
      "åĬŀ": 1379,
      "Fig": 1380,
      "æĭħ": 1381,
      "æĿ¡ä»¶": 1382,
      "é¦ĸ": 1383,
      "åĪĩ": 1384,
      "æİ¢": 1385,
      "form": 1386,
      "study": 1387,
      "æİ¨åĬ¨": 1388,
      "æİĴ": 1389,
      "ä¸Ńå¤®": 1390,
      "which": 1391,
      "åģ¥": 1392,
      "ath": 1393,
      "åĬŁèĥ½": 1394,
      "200": 1395,
      "è¡Ģ": 1396,
      "èĳ": 1397,
      "å·±": 1398,
      "æ¨¡å¼ı": 1399,
      "ç¬¬ä¸Ģ": 1400,
      "ach": 1401,
      "æ¿": 1402,
      "17": 1403,
      "é¡¹çĽ®": 1404,
      "åºĶå½ĵ": 1405,
      "åħ±åĲĮ": 1406,
      "inter": 1407,
      "çĻ¾": 1408,
      "åĲĪåĲĮ": 1409,
      "analy": 1410,
      "å²": 1411,
      "ä¿®": 1412,
      "--------------------------------": 1413,
      "out": 1414,
      "ç²¾ç¥ŀ": 1415,
      "è¯·": 1416,
      "æįŁ": 1417,
      "åĳ¨": 1418,
      "ç¨³": 1419,
      "differen": 1420,
      "è®¡ç®Ĺ": 1421,
      "å®ŀéĻħ": 1422,
      "å¿Ĺ": 1423,
      "çĶŁæĢģ": 1424,
      "åĲ¦": 1425,
      "åĬłå¼º": 1426,
      "ç½ª": 1427,
      "æ¿Ģ": 1428,
      "äººåĳĺ": 1429,
      "çºª": 1430,
      "ia": 1431,
      "é»": 1432,
      "è¶ħ": 1433,
      "ä¹¡": 1434,
      "é¢Ĩå¯¼": 1435,
      "å¾Ģ": 1436,
      "ç§»": 1437,
      "æĪĺçķ¥": 1438,
      "ast": 1439,
      "å¯Į": 1440,
      "æ²»çĲĨ": 1441,
      "è®¸": 1442,
      "hy": 1443,
      "ass": 1444,
      "å¦Ĥæŀľ": 1445,
      "ative": 1446,
      "åĪĿ": 1447,
      "çī¹èī²": 1448,
      "..": 1449,
      "çĭ¬": 1450,
      "âĢĶ": 1451,
      "ç»ĵåĲĪ": 1452,
      "å¯Ł": 1453,
      "çĶ±äºİ": 1454,
      "å¼ł": 1455,
      "end": 1456,
      "æĬĹ": 1457,
      "åľ°åĮº": 1458,
      "wo": 1459,
      "éĥ¨éĹ¨": 1460,
      "ä¸įèĥ½": 1461,
      "ç¼ĸ": 1462,
      "åıĺåĮĸ": 1463,
      "spec": 1464,
      "pr": 1465,
      "æ¼": 1466,
      "ial": 1467,
      "èį¯": 1468,
      "ory": 1469,
      "åĦ": 1470,
      "èĩªå·±": 1471,
      "èĤ¡": 1472,
      "sub": 1473,
      "high": 1474,
      "del": 1475,
      "show": 1476,
      "åİĭ": 1477,
      "ä¸ĵä¸ļ": 1478,
      "æ¢": 1479,
      "imp": 1480,
      "æĬķèµĦ": 1481,
      "fig": 1482,
      "ata": 1483,
      "åº·": 1484,
      "éĺŁ": 1485,
      "ä¿ĥè¿Ľ": 1486,
      "æķ°åŃĹ": 1487,
      "å·¥ç¨ĭ": 1488,
      "å±±": 1489,
      "vid": 1490,
      "ç¬¬äºĮ": 1491,
      "æĻ®": 1492,
      "cer": 1493,
      "éĺ¶æ®µ": 1494,
      "æĸ¯": 1495,
      "èĲ½": 1496,
      "mal": 1497,
      "èĩªçĦ¶": 1498,
      "activ": 1499,
      "åı¤": 1500,
      "æīĢæľī": 1501,
      "åŁİå¸Ĥ": 1502,
      "ven": 1503,
      "æł¸å¿ĥ": 1504,
      "30": 1505,
      "åĥ": 1506,
      "mat": 1507,
      "éŁ": 1508,
      "soci": 1509,
      "èīº": 1510,
      "è´§": 1511,
      "ä¸Ńåįİ": 1512,
      "åĨľä¸ļ": 1513,
      "è§Ĵ": 1514,
      "ç§ĳæĬĢ": 1515,
      "åİŁåĪĻ": 1516,
      "ç»¼": 1517,
      "æī¹": 1518,
      "br": 1519,
      "amp": 1520,
      "ä¿Ŀéļľ": 1521,
      "èµĦæľ¬": 1522,
      "å½¢å¼ı": 1523,
      "ç¾İåĽ½": 1524,
      "çĪ": 1525,
      "ä¸ªäºº": 1526,
      "çł´": 1527,
      "éĩĬ": 1528,
      "éĤ£": 1529,
      "åĲĪä½ľ": 1530,
      "der": 1531,
      "æĻ¯": 1532,
      "çľģ": 1533,
      "cent": 1534,
      "è£ħ": 1535,
      "è¾ĵ": 1536,
      "åĩºçİ°": 1537,
      "èĥ½å¤Ł": 1538,
      "åĩł": 1539,
      "ä¸´": 1540,
      "æīĵ": 1541,
      "æĶ¯æĮģ": 1542,
      "åŁ¹åħ»": 1543,
      "ä¸¾": 1544,
      "ç¼º": 1545,
      "unc": 1546,
      "trans": 1547,
      "å®ĮåĸĦ": 1548,
      "det": 1549,
      "lu": 1550,
      "ä»£è¡¨": 1551,
      "æĮ¥": 1552,
      "enti": 1553,
      "èĢģ": 1554,
      "incre": 1555,
      "mun": 1556,
      "æķĻå¸Ī": 1557,
      "ong": 1558,
      "ä¸»ä½ĵ": 1559,
      "ween": 1560,
      "ren": 1561,
      "åĤ": 1562,
      "ä¸ĢæŃ¥": 1563,
      "af": 1564,
      "prote": 1565,
      "å®¢": 1566,
      "ç»ĵæŀľ": 1567,
      "ä»ĸä»¬": 1568,
      "ç®Ģ": 1569,
      "ins": 1570,
      "used": 1571,
      "çĮ": 1572,
      "åħ·ä½ĵ": 1573,
      "æ³ķéĻ¢": 1574,
      "éľĢæ±Ĥ": 1575,
      "æĵ": 1576,
      "åįķä½į": 1577,
      "è¯¾ç¨ĭ": 1578,
      "åıĮ": 1579,
      "è¿Ļä¸ª": 1580,
      "between": 1581,
      "éĵ¾": 1582,
      "åħ¨çĲĥ": 1583,
      "åħį": 1584,
      "50": 1585,
      "level": 1586,
      "çĻ½": 1587,
      "åĪ©çĽĬ": 1588,
      "æĭ©": 1589,
      "éĶ®": 1590,
      "å¾®": 1591,
      "ä¸Ńå¿ĥ": 1592,
      "äººç±»": 1593,
      "alth": 1594,
      "è½¦": 1595,
      "ç´¢": 1596,
      "èħ": 1597,
      "ub": 1598,
      "éĿ©åĳ½": 1599,
      "æŁĵ": 1600,
      "fi": 1601,
      "å¢ŀåĬł": 1602,
      "åı¦": 1603,
      "ä¸ĢäºĽ": 1604,
      "è¿ŀ": 1605,
      "çº³": 1606,
      "åĲ«": 1607,
      "æī©": 1608,
      "å·¥ä¸ļ": 1609,
      "ç»§": 1610,
      "é©¬åħĭ": 1611,
      "èĪ¬": 1612,
      "ari": 1613,
      "group": 1614,
      "éĩįå¤§": 1615,
      "åħ³äºİ": 1616,
      "æĦıä¹ī": 1617,
      "dies": 1618,
      "ä¸Ģå®ļ": 1619,
      "ç¬¬ä¸ī": 1620,
      "expression": 1621,
      "ç©ºéĹ´": 1622,
      "ip": 1623,
      "using": 1624,
      "arg": 1625,
      "æľīåħ³": 1626,
      "æĺİç¡®": 1627,
      "ection": 1628,
      "æıĲåįĩ": 1629,
      "æī§è¡Į": 1630,
      "è¡¥": 1631,
      "other": 1632,
      "æ»¡": 1633,
      "é©¬åħĭæĢĿ": 1634,
      "ç¨ĭåºı": 1635,
      "åħ¨åĽ½": 1636,
      "åįł": 1637,
      "ep": 1638,
      "åĨĻ": 1639,
      "è®Ń": 1640,
      "has": 1641,
      "les": 1642,
      "ç»Łä¸Ģ": 1643,
      "man": 1644,
      "ight": 1645,
      "cur": 1646,
      "å·²ç»ı": 1647,
      "æŃ¢": 1648,
      "åħ¸": 1649,
      "å¢ŀéķ¿": 1650,
      "may": 1651,
      "ä»Ĭ": 1652,
      "also": 1653,
      "respon": 1654,
      "cal": 1655,
      "signific": 1656,
      "ç»¼åĲĪ": 1657,
      "å®ĺ": 1658,
      "éĢīæĭ©": 1659,
      "è¿ľ": 1660,
      "æĤ£": 1661,
      "ors": 1662,
      "ä¸ĢèĪ¬": 1663,
      "åıĳçİ°": 1664,
      "æķħ": 1665,
      "ä¸įæĺ¯": 1666,
      "des": 1667,
      "åĪĳ": 1668,
      "äººæīį": 1669,
      "å¼Ģåıĳ": 1670,
      "å¼ĢæĶ¾": 1671,
      "mul": 1672,
      "int": 1673,
      "resul": 1674,
      "çĬ¯": 1675,
      "ates": 1676,
      "ç§¯æŀģ": 1677,
      "å¤´": 1678,
      "ms": 1679,
      "å¤§åŃ¦": 1680,
      "çĥŃ": 1681,
      "ke": 1682,
      "çĽ´æİ¥": 1683,
      "è¾¹": 1684,
      "21": 1685,
      "çİ°ä»£åĮĸ": 1686,
      "æį¢": 1687,
      "ected": 1688,
      "car": 1689,
      "èĮĥåĽ´": 1690,
      "åĥı": 1691,
      "data": 1692,
      "åĨ³å®ļ": 1693,
      "çĶŁçī©": 1694,
      "åħŃ": 1695,
      "dise": 1696,
      "è¿Ľä¸ĢæŃ¥": 1697,
      "ç¡®å®ļ": 1698,
      "25": 1699,
      "inv": 1700,
      "å¸ģ": 1701,
      "uld": 1702,
      "these": 1703,
      "æĿĤ": 1704,
      "é¢Ŀ": 1705,
      "ç«ŀ": 1706,
      "é£Ł": 1707,
      "äºĪ": 1708,
      "æĸĹ": 1709,
      "åĽº": 1710,
      "çĿ£": 1711,
      "è¯Ŀ": 1712,
      "è¯»": 1713,
      "valu": 1714,
      "å°Ķ": 1715,
      "duc": 1716,
      "å¦Ĥä½ķ": 1717,
      "tis": 1718,
      "å¼Ģå±ķ": 1719,
      "om": 1720,
      "å®ŀéªĮ": 1721,
      "åħ¶ä¸Ń": 1722,
      "åħ³éĶ®": 1723,
      "éĵ¶": 1724,
      "åľ°æĸ¹": 1725,
      "åĽłç´ł": 1726,
      "åħ±äº§": 1727,
      "åıĤä¸İ": 1728,
      "éĴĪ": 1729,
      "èĭ±": 1730,
      "è¯Ħä»·": 1731,
      "æĮģç»Ń": 1732,
      "åħ¬åħ±": 1733,
      "æĿĥåĪ©": 1734,
      "been": 1735,
      "åį±": 1736,
      "çī¹å¾ģ": 1737,
      "åĦ¿": 1738,
      "ç«¯": 1739,
      "cr": 1740,
      "ies": 1741,
      "ä»Ģ": 1742,
      "è½½": 1743,
      "æĳ": 1744,
      "åħ«": 1745,
      "ä¾¿": 1746,
      "èµ°": 1747,
      "ä»ĭ": 1748,
      "CD": 1749,
      "åģ¿": 1750,
      "treat": 1751,
      "ugh": 1752,
      "æİª": 1753,
      "##": 1754,
      "ces": 1755,
      "ech": 1756,
      "æĹ¢": 1757,
      "Â·": 1758,
      "ç»ıèĲ¥": 1759,
      "significant": 1760,
      "sur": 1761,
      "ä»»åĬ¡": 1762,
      "ual": 1763,
      "ä¼°": 1764,
      "åĭ": 1765,
      "åıĳæĮ¥": 1766,
      "åħħåĪĨ": 1767,
      "sed": 1768,
      "æı¡": 1769,
      "ä»ĺ": 1770,
      "æĪĲæľ¬": 1771,
      "incl": 1772,
      "çİĭ": 1773,
      "more": 1774,
      "æĻºèĥ½": 1775,
      "gene": 1776,
      "åł": 1777,
      "associ": 1778,
      "æ¹": 1779,
      "èĳĹ": 1780,
      "stem": 1781,
      "å¯¼èĩ´": 1782,
      "å±ħ": 1783,
      "åĮºåŁŁ": 1784,
      "æĪ¿": 1785,
      "åĽłä¸º": 1786,
      "ack": 1787,
      "èī¯": 1788,
      "por": 1789,
      "å¡": 1790,
      "24": 1791,
      "å½ķ": 1792,
      "lic": 1793,
      "éĢĲ": 1794,
      "å°Ħ": 1795,
      "è§ĦèĮĥ": 1796,
      "æĹ¶æľŁ": 1797,
      "âĪ": 1798,
      "æ¨¡åŀĭ": 1799,
      "contro": 1800,
      "è¿Ŀ": 1801,
      "ä»Ģä¹Ī": 1802,
      "çīĪ": 1803,
      "åĨľæĿĳ": 1804,
      "ases": 1805,
      "sti": 1806,
      "stu": 1807,
      "åĲĦç§į": 1808,
      "éĤ": 1809,
      "èµĦäº§": 1810,
      "è¿ĳå¹³": 1811,
      "ä¹łè¿ĳå¹³": 1812,
      "äº«": 1813,
      "cul": 1814,
      "è®²": 1815,
      "func": 1816,
      "CA": 1817,
      "è¡¨çİ°": 1818,
      "ects": 1819,
      "100": 1820,
      "ä¾µ": 1821,
      "ting": 1822,
      "velop": 1823,
      "than": 1824,
      "ç¬¦": 1825,
      "ä¸¤ä¸ª": 1826,
      "ility": 1827,
      "æŀĹ": 1828,
      "22": 1829,
      "éĶĢ": 1830,
      "è®¤è¯Ĩ": 1831,
      "æ¶ī": 1832,
      "å¾ĹåĪ°": 1833,
      "present": 1834,
      "èģĮä¸ļ": 1835,
      "æ¶Īè´¹": 1836,
      "ç¨³å®ļ": 1837,
      "its": 1838,
      "ous": 1839,
      "æĵį": 1840,
      "tional": 1841,
      "åŁºäºİ": 1842,
      "ating": 1843,
      "ä»į": 1844,
      "cep": 1845,
      "å£«": 1846,
      "æĿĲæĸĻ": 1847,
      "éĩįçĤ¹": 1848,
      "æ½": 1849,
      "æ¦Ĥå¿µ": 1850,
      "treatment": 1851,
      "over": 1852,
      "sup": 1853,
      "å¹³åı°": 1854,
      "è§ĦåĪĴ": 1855,
      "RNA": 1856,
      "æĦıè¯Ĩ": 1857,
      "ris": 1858,
      "è¡¡": 1859,
      "è´¸": 1860,
      "olog": 1861,
      "ä½Ĩæĺ¯": 1862,
      "æ±Ł": 1863,
      "ard": 1864,
      "æľºåħ³": 1865,
      "path": 1866,
      "ï¼Ł": 1867,
      "æ³¢": 1868,
      "èģļ": 1869,
      "å¼Ģå§ĭ": 1870,
      "èİ·å¾Ĺ": 1871,
      "ç¨ĭåº¦": 1872,
      "ä¼Ł": 1873,
      "åħ±äº§åħļ": 1874,
      "ç¢³": 1875,
      "ä»İèĢĮ": 1876,
      "ç«ŀäºī": 1877,
      "åŃ¦æł¡": 1878,
      "åį«": 1879,
      "met": 1880,
      "wor": 1881,
      "å°½": 1882,
      "å¦": 1883,
      "æŀĦå»º": 1884,
      "åĪĽéĢł": 1885,
      "çĽ®çļĦ": 1886,
      "vir": 1887,
      "è¿ĲåĬ¨": 1888,
      "ple": 1889,
      "develop": 1890,
      "clin": 1891,
      "çĽ®åīį": 1892,
      "åĲ¸": 1893,
      "æ°ĳä¸»": 1894,
      "çĸ«": 1895,
      "æĮĩå¯¼": 1896,
      "çŁ³": 1897,
      "This": 1898,
      "âĳ": 1899,
      "æ¤": 1900,
      "åĤ¨": 1901,
      "æļ": 1902,
      "éĩĩçĶ¨": 1903,
      "æĸĩæĺİ": 1904,
      "We": 1905,
      "ä¸ºäºĨ": 1906,
      "åĪ¶éĢł": 1907,
      "æĺ¯åĲ¦": 1908,
      "analysis": 1909,
      "our": 1910,
      "çī¹åĪ«": 1911,
      "è®¡åĪĴ": 1912,
      "æ³ķæ²»": 1913,
      "ä¸įä»ħ": 1914,
      "40": 1915,
      "ree": 1916,
      "å¾Ħ": 1917,
      "æ¯Ķè¾ĥ": 1918,
      "immun": 1919,
      "åıĬåħ¶": 1920,
      "å¤ª": 1921,
      "å§Ķåĳĺ": 1922,
      "è¡Įä¸ļ": 1923,
      "ç»ıéªĮ": 1924,
      "æ¸¸": 1925,
      "çĮ®": 1926,
      "éģĹ": 1927,
      "çĲĨè§£": 1928,
      "ca": 1929,
      "è£ģ": 1930,
      "model": 1931,
      "å¨": 1932,
      "äº¬": 1933,
      "åºķ": 1934,
      "è¿Ļæł·": 1935,
      "ra": 1936,
      "èĥ½æºĲ": 1937,
      "ä»¤": 1938,
      "ä»½": 1939,
      "studies": 1940,
      "åĢŁ": 1941,
      "äºļ": 1942,
      "peri": 1943,
      "çīĩ": 1944,
      "è´«": 1945,
      "ses": 1946,
      "ä½ĵçİ°": 1947,
      "åıĸå¾Ĺ": 1948,
      "æĤ": 1949,
      "åĪ¶å®ļ": 1950,
      "é©¬åħĭæĢĿä¸»ä¹ī": 1951,
      "disease": 1952,
      "blo": 1953,
      "è§Ħæ¨¡": 1954,
      "their": 1955,
      "åĽ°": 1956,
      "factor": 1957,
      "è®¼": 1958,
      "ew": 1959,
      "éŁ³": 1960,
      "ely": 1961,
      "åºĵ": 1962,
      "è´Ń": 1963,
      "ä½ı": 1964,
      "è¾¾åĪ°": 1965,
      "æ¸©": 1966,
      "çĽĳçĿ£": 1967,
      "åľŁåľ°": 1968,
      "çŃĳ": 1969,
      "çº¢": 1970,
      "æ²»çĸĹ": 1971,
      "ä¹Ŀ": 1972,
      "sec": 1973,
      "åģ¥åº·": 1974,
      "æİªæĸ½": 1975,
      "ments": 1976,
      "fol": 1977,
      "23": 1978,
      "æİĪ": 1979,
      "è®¨": 1980,
      "control": 1981,
      "but": 1982,
      "è®¾å¤ĩ": 1983,
      "æīĢä»¥": 1984,
      "æ¼Ķ": 1985,
      "è§ī": 1986,
      "çī¹çĤ¹": 1987,
      "æĤ£èĢħ": 1988,
      "çĶ³": 1989,
      "hib": 1990,
      "äº¤æĺĵ": 1991,
      "è¯īè®¼": 1992,
      "ä¸ĸçºª": 1993,
      "åºŃ": 1994,
      "é¼": 1995,
      "lec": 1996,
      "CT": 1997,
      "åĪ»": 1998,
      "æĬ¥åĳĬ": 1999,
      "è¿Ļä¸Ģ": 2000,
      "èĩªçĶ±": 2001,
      "mi": 2002,
      "cess": 2003,
      "wn": 2004,
      "å®ĮæĪĲ": 2005,
      "vari": 2006,
      "tum": 2007,
      "åİ¿": 2008,
      "éĿĴ": 2009,
      "ious": 2010,
      "å½Ĵ": 2011,
      "æĮīçħ§": 2012,
      "Â±": 2013,
      "ä¹Ĳ": 2014,
      "ä»¥æĿ¥": 2015,
      "åĩ»": 2016,
      "æĹ©": 2017,
      "ulation": 2018,
      "ä»¥ä¸Ĭ": 2019,
      "cri": 2020,
      "å¼ºè°ĥ": 2021,
      "after": 2022,
      "æĵįä½ľ": 2023,
      "è¿½": 2024,
      "éĵ¶è¡Į": 2025,
      "å£°": 2026,
      "åŃ¦ç§ĳ": 2027,
      "act": 2028,
      "èı": 2029,
      "æ±ī": 2030,
      "éĢłæĪĲ": 2031,
      "çĹĩ": 2032,
      "âĪĴ": 2033,
      "ist": 2034,
      "æ´¾": 2035,
      "dec": 2036,
      "ç»¿": 2037,
      "æ±¡": 2038,
      "æĶ¶åħ¥": 2039,
      "æĽ´åĬł": 2040,
      "ber": 2041,
      "èĨ": 2042,
      "æ²³": 2043,
      "ç¾¤ä¼Ĺ": 2044,
      "under": 2045,
      "æĸ¹æ¡Ī": 2046,
      "ä½ĵåĪ¶": 2047,
      "health": 2048,
      "æĸ¹åĲĳ": 2049,
      "æŀ¶": 2050,
      "å¾ª": 2051,
      "æĪĲæŀľ": 2052,
      "åĿĹ": 2053,
      "ays": 2054,
      "å·ŀ": 2055,
      "å®¤": 2056,
      "æīĺ": 2057,
      "åĬ±": 2058,
      "æł¹æľ¬": 2059,
      "000": 2060,
      "èģĶç½ĳ": 2061,
      "å®Ĺ": 2062,
      "cancer": 2063,
      "èĻĳ": 2064,
      "includ": 2065,
      "äººä»¬": 2066,
      "çĽ¸å¯¹": 2067,
      "éļıçĿĢ": 2068,
      "ä¼Łå¤§": 2069,
      "åĲĪçĲĨ": 2070,
      "èĥĮ": 2071,
      "æľĿ": 2072,
      "protein": 2073,
      "é¥": 2074,
      "bio": 2075,
      "system": 2076,
      "tes": 2077,
      "åı¸æ³ķ": 2078,
      "å®£": 2079,
      "meth": 2080,
      "ä»¥ä¸ĭ": 2081,
      "æ¯Ĵ": 2082,
      "au": 2083,
      "uring": 2084,
      "ä¸ĥ": 2085,
      "å¢ŀå¼º": 2086,
      "ä¸ļåĬ¡": 2087,
      "æĮĩåĩº": 2088,
      "60": 2089,
      "æ¬§": 2090,
      "çĨ": 2091,
      "æĲ": 2092,
      "80": 2093,
      "av": 2094,
      "åĽ½åĨħ": 2095,
      "ä¾ĭå¦Ĥ": 2096,
      "åĢĻ": 2097,
      "è¿Ľåħ¥": 2098,
      "requ": 2099,
      "ä¿ĿéĻ©": 2100,
      "clinical": 2101,
      "ä¿Ŀè¯ģ": 2102,
      "èĻ½": 2103,
      "äº¿": 2104,
      "ç´§": 2105,
      "æľĽ": 2106,
      "ä¼ĺåĬ¿": 2107,
      "fic": 2108,
      "å¯¹è±¡": 2109,
      "éĶĻ": 2110,
      "æ³Ľ": 2111,
      "éķ¿æľŁ": 2112,
      "ared": 2113,
      "è¯į": 2114,
      "çŁŃ": 2115,
      "earch": 2116,
      "time": 2117,
      "tho": 2118,
      "è½¯": 2119,
      "çĬ¶æĢģ": 2120,
      "æľªæĿ¥": 2121,
      "é¢ĳ": 2122,
      "åĬĽéĩı": 2123,
      "æ¤į": 2124,
      "æħ": 2125,
      "dep": 2126,
      "levels": 2127,
      "col": 2128,
      "çī©è´¨": 2129,
      "è¾ĳ": 2130,
      "çĬ¯ç½ª": 2131,
      "ç£": 2132,
      "çĶ»": 2133,
      "è§£éĩĬ": 2134,
      "such": 2135,
      "çĶµåŃĲ": 2136,
      "genes": 2137,
      "vely": 2138,
      "associated": 2139,
      "ures": 2140,
      "è¯Ħä¼°": 2141,
      "nor": 2142,
      "uced": 2143,
      "ä¸ŃåĽ½åħ±äº§åħļ": 2144,
      "ä¼¼": 2145,
      "ail": 2146,
      "rec": 2147,
      "199": 2148,
      "ered": 2149,
      "lin": 2150,
      "å»¶": 2151,
      "çķĻ": 2152,
      "Ho": 2153,
      "å¤įæĿĤ": 2154,
      "éĿł": 2155,
      "è¯Ńè¨Ģ": 2156,
      "éĢĤçĶ¨": 2157,
      "åĨ²": 2158,
      "meas": 2159,
      "ä»»ä½ķ": 2160,
      "è´¸æĺĵ": 2161,
      "æĭŁ": 2162,
      "åľ°ä½į": 2163,
      "æŃ»": 2164,
      "å¾ħ": 2165,
      "çİ°å®ŀ": 2166,
      "èīºæľ¯": 2167,
      "ä½Ļ": 2168,
      "åİŁåĽł": 2169,
      "å§Ķåĳĺä¼ļ": 2170,
      "çĽ¸äºĴ": 2171,
      "æŀĦæĪĲ": 2172,
      "ge": 2173,
      "å¥³": 2174,
      "æĴŃ": 2175,
      "èĢĮä¸Ķ": 2176,
      "ç»Ŀ": 2177,
      "çĭ¬ç«ĭ": 2178,
      "identi": 2179,
      "æ±ĩ": 2180,
      "two": 2181,
      "gener": 2182,
      "pop": 2183,
      "è´§å¸ģ": 2184,
      "risk": 2185,
      "éĺ³": 2186,
      "åīĤ": 2187,
      "èĭı": 2188,
      "chang": 2189,
      "tal": 2190,
      "ä¸¥éĩį": 2191,
      "ä¹īåĬ¡": 2192,
      "è¯¯": 2193,
      "è¿Ĳè¡Į": 2194,
      "27": 2195,
      "è¿ĲçĶ¨": 2196,
      "both": 2197,
      "ç»´æĬ¤": 2198,
      "ss": 2199,
      "å»ºçŃĳ": 2200,
      "æİ¢ç´¢": 2201,
      "äºĭä¸ļ": 2202,
      "æĭī": 2203,
      "acter": 2204,
      "hum": 2205,
      "mar": 2206,
      "ties": 2207,
      "appro": 2208,
      "partic": 2209,
      "results": 2210,
      "èĢĥèĻĳ": 2211,
      "åĬłå¿«": 2212,
      "esti": 2213,
      "çı": 2214,
      "sing": 2215,
      "é¾": 2216,
      "sen": 2217,
      "åŁºåĽł": 2218,
      "tial": 2219,
      "medi": 2220,
      "work": 2221,
      "éĻįä½İ": 2222,
      "specific": 2223,
      "åį°": 2224,
      "SC": 2225,
      "èĽ": 2226,
      "è°ĥæķ´": 2227,
      "fir": 2228,
      "ized": 2229,
      "è®¢": 2230,
      "oc": 2231,
      "åĩıå°ĳ": 2232,
      "è¶ĭ": 2233,
      "æĺŁ": 2234,
      "ç±»åŀĭ": 2235,
      "ox": 2236,
      "ish": 2237,
      "ä¸°": 2238,
      "éķĩ": 2239,
      "çĲĨå¿µ": 2240,
      "èĦĳ": 2241,
      "æĶ¹åıĺ": 2242,
      "GF": 2243,
      "ture": 2244,
      "ability": 2245,
      "will": 2246,
      "åıªæľī": 2247,
      "ble": 2248,
      "wever": 2249,
      "èŀįåĲĪ": 2250,
      "therap": 2251,
      "è®¾æĸ½": 2252,
      "ç»ĥ": 2253,
      "è´¢äº§": 2254,
      "åĨ³çŃĸ": 2255,
      "ä¹ĭä¸Ģ": 2256,
      "ding": 2257,
      "ä¹¡æĿĳ": 2258,
      "å®Ī": 2259,
      "éģ¿": 2260,
      "è¡¨ç¤º": 2261,
      "ç«Ļ": 2262,
      "çĶļ": 2263,
      "éħ¸": 2264,
      "ons": 2265,
      "è´¯": 2266,
      "äººæ°ĳæ³ķéĻ¢": 2267,
      "SA": 2268,
      "åºĶè¯¥": 2269,
      "å½ĵäºĭ": 2270,
      "inhib": 2271,
      "æ¡Īä»¶": 2272,
      "tern": 2273,
      "ï¼İ": 2274,
      "æİĮ": 2275,
      "ile": 2276,
      "åĽŃ": 2277,
      "ä¼ļè®®": 2278,
      "num": 2279,
      "26": 2280,
      "å±¥": 2281,
      "éī": 2282,
      "éĴĪå¯¹": 2283,
      "trib": 2284,
      "ç»ĦæĪĲ": 2285,
      "ä¼¤": 2286,
      "éī´": 2287,
      "æķ£": 2288,
      "é²": 2289,
      "çĽĳç®¡": 2290,
      "äºĳ": 2291,
      "æ¶²": 2292,
      "sh": 2293,
      "æī¿æĭħ": 2294,
      "ak": 2295,
      "æķĪçİĩ": 2296,
      "28": 2297,
      "èĭ¥": 2298,
      "èµĦéĩĳ": 2299,
      "non": 2300,
      "å½ĵäºĭäºº": 2301,
      "èµ·æĿ¥": 2302,
      "çłģ": 2303,
      "åĲ¯": 2304,
      "ç±³": 2305,
      "ä½ľåĩº": 2306,
      "æŃ¦": 2307,
      "æ·±åħ¥": 2308,
      "posi": 2309,
      "æķ´ä½ĵ": 2310,
      "æľĢå¤§": 2311,
      "æīįèĥ½": 2312,
      "çĶ¨äºİ": 2313,
      "ç§ģ": 2314,
      "åĨħéĥ¨": 2315,
      "æĺİæĺ¾": 2316,
      "èĩªèº«": 2317,
      "ants": 2318,
      "ä¼ĺåĮĸ": 2319,
      "èĦ±": 2320,
      "ond": 2321,
      "è½»": 2322,
      "æĶ»": 2323,
      "II": 2324,
      "èģĶç³»": 2325,
      "mice": 2326,
      "inding": 2327,
      "gg": 2328,
      "ä¾Ŀæ³ķ": 2329,
      "æĿŁ": 2330,
      "æĺł": 2331,
      "éĩĩåıĸ": 2332,
      "tical": 2333,
      "ä¹¦è®°": 2334,
      "åįĬ": 2335,
      "29": 2336,
      "St": 2337,
      "çĸ¾": 2338,
      "sequ": 2339,
      "åıįåºĶ": 2340,
      "çĺ": 2341,
      "è§ĦåĪĻ": 2342,
      "èĹ": 2343,
      "éĽĨä¸Ń": 2344,
      "follow": 2345,
      "year": 2346,
      "æĢ¥": 2347,
      "èĻļ": 2348,
      "ä¸Ģæĸ¹éĿ¢": 2349,
      "into": 2350,
      "test": 2351,
      "samp": 2352,
      "æĪĲç«ĭ": 2353,
      "ä»·æł¼": 2354,
      "æŃ£ç¡®": 2355,
      "åģĩ": 2356,
      "depend": 2357,
      "çİ°è±¡": 2358,
      "indic": 2359,
      "äºĭå®ŀ": 2360,
      "åįıè°ĥ": 2361,
      "æīĭæ®µ": 2362,
      "è¯Ĺ": 2363,
      "è§Ħå¾ĭ": 2364,
      "obser": 2365,
      "å¥ĭ": 2366,
      "found": 2367,
      "IL": 2368,
      "åĵ²": 2369,
      "ç¦ı": 2370,
      "different": 2371,
      "è´·": 2372,
      "ev": 2373,
      "çĶ¨æĪ·": 2374,
      "äºĨè§£": 2375,
      "ater": 2376,
      "è¦ģç´ł": 2377,
      "è®¸å¤ļ": 2378,
      "kno": 2379,
      "ä¾Ŀæį®": 2380,
      "å®Įåħ¨": 2381,
      "æ°§": 2382,
      "åºĬ": 2383,
      "ä¿ĿæĮģ": 2384,
      "70": 2385,
      "çĽ¾": 2386,
      "å¹¿æ³Ľ": 2387,
      "dr": 2388,
      "DNA": 2389,
      "ite": 2390,
      "å®ª": 2391,
      "å°ģ": 2392,
      "experi": 2393,
      "activity": 2394,
      "åķĨä¸ļ": 2395,
      "å±ŀäºİ": 2396,
      "å¤§éĩı": 2397,
      "during": 2398,
      "well": 2399,
      "ç¬¦åĲĪ": 2400,
      "åłĤ": 2401,
      "formed": 2402,
      "èĪª": 2403,
      "æĹłæ³ķ": 2404,
      "äººåı£": 2405,
      "éĻĦ": 2406,
      "åĨľæ°ĳ": 2407,
      "micro": 2408,
      "èĴ": 2409,
      "ign": 2410,
      "AP": 2411,
      "å·¨": 2412,
      "function": 2413,
      "35": 2414,
      "é»Ħ": 2415,
      "formation": 2416,
      "æĢĿç»´": 2417,
      "åįıè®®": 2418,
      "ained": 2419,
      "amin": 2420,
      "è¿Ļæĺ¯": 2421,
      "é¦ĸåħĪ": 2422,
      "éĢģ": 2423,
      "Ch": 2424,
      "åĮ»çĸĹ": 2425,
      "çŁĽ": 2426,
      "ue": 2427,
      "å¨ģ": 2428,
      "atic": 2429,
      "each": 2430,
      "ç¯": 2431,
      "æ´²": 2432,
      "å¼ķå¯¼": 2433,
      "çĪ±": 2434,
      "è·¨": 2435,
      "çĶ³è¯·": 2436,
      "ä¹°": 2437,
      "åį´": 2438,
      "åĪĨéħį": 2439,
      "ill": 2440,
      "uro": 2441,
      "An": 2442,
      "ç¿": 2443,
      "tissu": 2444,
      "éĢĤåºĶ": 2445,
      "AT": 2446,
      "çŁĽçĽ¾": 2447,
      "ç³»åĪĹ": 2448,
      "Co": 2449,
      "normal": 2450,
      "most": 2451,
      "ç»¿èī²": 2452,
      "éĻĲåĪ¶": 2453,
      "åįĥ": 2454,
      "åįļ": 2455,
      "ric": 2456,
      "vers": 2457,
      "ust": 2458,
      "æĽ²": 2459,
      "ced": 2460,
      "syn": 2461,
      "ä¸Ńåįİæ°ĳæĹı": 2462,
      "è¯ģæĺİ": 2463,
      "åħ³æ³¨": 2464,
      "sugg": 2465,
      "inal": 2466,
      "æ¸Ĳ": 2467,
      "éĢĶ": 2468,
      "comple": 2469,
      "increased": 2470,
      "che": 2471,
      "yl": 2472,
      "ild": 2473,
      "è°ĥæŁ¥": 2474,
      "ese": 2475,
      "å¸®": 2476,
      "mut": 2477,
      "ç½ļ": 2478,
      "å±¥è¡Į": 2479,
      "struc": 2480,
      "related": 2481,
      "who": 2482,
      "æłĳ": 2483,
      "had": 2484,
      "è´¢æĶ¿": 2485,
      "prev": 2486,
      "ys": 2487,
      "CI": 2488,
      "æĦıè§ģ": 2489,
      "è¡ĮåĬ¨": 2490,
      "åĢºåĬ¡": 2491,
      "åĵ²åŃ¦": 2492,
      "tumor": 2493,
      "å¿ĥçĲĨ": 2494,
      "æĮ¯": 2495,
      "agno": 2496,
      "thro": 2497,
      "é¡º": 2498,
      "æ»¡è¶³": 2499,
      "èĽĭ": 2500,
      "å¼±": 2501,
      "cle": 2502,
      "äºĴèģĶç½ĳ": 2503,
      "å¸¦æĿ¥": 2504,
      "human": 2505,
      "æķĪæŀľ": 2506,
      "å·¥åħ·": 2507,
      "æıı": 2508,
      "å½ĵåīį": 2509,
      "ä¸įåı¯": 2510,
      "pho": 2511,
      "è¡¨è¾¾": 2512,
      "éĺ»": 2513,
      "os": 2514,
      "Î²": 2515,
      "çĶļèĩ³": 2516,
      "mis": 2517,
      "æ±¡æŁĵ": 2518,
      "çĻ»": 2519,
      "aining": 2520,
      "è¯ģæį®": 2521,
      "éĢĢ": 2522,
      "dition": 2523,
      "To": 2524,
      "æ¶īåıĬ": 2525,
      "ç«ĭæ³ķ": 2526,
      "åıĹåĪ°": 2527,
      "åķĨåĵģ": 2528,
      "crip": 2529,
      "åĶ®": 2530,
      "å®ĥä»¬": 2531,
      "åĪĨåŃĲ": 2532,
      "èĻ½çĦ¶": 2533,
      "éģĵè·¯": 2534,
      "based": 2535,
      "æ³ķè§Ħ": 2536,
      "éģĵå¾·": 2537,
      "éĢļå¸¸": 2538,
      "fied": 2539,
      "cyto": 2540,
      "patient": 2541,
      "men": 2542,
      "æİĮæı¡": 2543,
      "è¿ĺæĺ¯": 2544,
      "deter": 2545,
      "ä¼ļè®¡": 2546,
      "èģĶåĲĪ": 2547,
      "å¸Ŀ": 2548,
      "æĸĩä»¶": 2549,
      "åª": 2550,
      "lif": 2551,
      "çģµ": 2552,
      "cre": 2553,
      "urther": 2554,
      "ute": 2555,
      "ç½Ĺ": 2556,
      "trac": 2557,
      "æĹ¥æľ¬": 2558,
      "view": 2559,
      "æĿ¿": 2560,
      "èĲ½å®ŀ": 2561,
      "è°Ī": 2562,
      "å½»": 2563,
      "produc": 2564,
      "sel": 2565,
      "typ": 2566,
      "å½¢æĢģ": 2567,
      "repor": 2568,
      "ç¼©": 2569,
      "ages": 2570,
      "éĢ»": 2571,
      "90": 2572,
      "çĽĸ": 2573,
      "only": 2574,
      "æľĢé«ĺ": 2575,
      "äºĭä»¶": 2576,
      "åľ¨äºİ": 2577,
      "çģ«": 2578,
      "CC": 2579,
      "stand": 2580,
      "éĿŀå¸¸": 2581,
      "æĮĩæłĩ": 2582,
      "èĨľ": 2583,
      "æ®Ĭ": 2584,
      "sco": 2585,
      "å¿ħè¦ģ": 2586,
      "æ£Ģæµĭ": 2587,
      "çŃ¹": 2588,
      "lam": 2589,
      "èĥľ": 2590,
      "éĢ»è¾ĳ": 2591,
      "aff": 2592,
      "æī©å¤§": 2593,
      "èıĮ": 2594,
      "æĬµ": 2595,
      "å°ļ": 2596,
      "åıįæĺł": 2597,
      "divid": 2598,
      "compared": 2599,
      "Un": 2600,
      "èµĶ": 2601,
      "éª¨": 2602,
      "Al": 2603,
      "åĮĸåŃ¦": 2604,
      "æĢ§è´¨": 2605,
      "æİ¥åıĹ": 2606,
      "set": 2607,
      "èĦī": 2608,
      "diagno": 2609,
      "è´Łè´£": 2610,
      "anis": 2611,
      "measure": 2612,
      "æľĢç»Ī": 2613,
      "æ´ĭ": 2614,
      "é«ĺåº¦": 2615,
      "mark": 2616,
      "research": 2617,
      "Figure": 2618,
      "æ··": 2619,
      "main": 2620,
      "çŃĶ": 2621,
      "éĢı": 2622,
      "port": 2623,
      "éģĩ": 2624,
      "95": 2625,
      "å¤«": 2626,
      "å¼ºåĮĸ": 2627,
      "åĪĨåĪ«": 2628,
      "æ³¨æĦı": 2629,
      "åªĴ": 2630,
      "37": 2631,
      "åĩ½": 2632,
      "çŃ¾": 2633,
      "æĿİ": 2634,
      "line": 2635,
      "æ·±åĮĸ": 2636,
      "blood": 2637,
      "ful": 2638,
      "ç»§ç»Ń": 2639,
      "å°¤": 2640,
      "åĪĨå¸ĥ": 2641,
      "åĬ¨åĬĽ": 2642,
      "å®¶åºŃ": 2643,
      "èĽĭçĻ½": 2644,
      "æĦ¿": 2645,
      "æĢ»ä¹¦è®°": 2646,
      "æĮĳ": 2647,
      "è·Ŀ": 2648,
      "ä¸°å¯Į": 2649,
      "method": 2650,
      "è¥¿æĸ¹": 2651,
      "ational": 2652,
      "ST": 2653,
      "èĢĮæĺ¯": 2654,
      "æķ°éĩı": 2655,
      "ution": 2656,
      "è¡¨æĺİ": 2657,
      "neur": 2658,
      "å¹¶ä¸Ķ": 2659,
      "è¯Ĭ": 2660,
      "å®ļä¹ī": 2661,
      "éļĲ": 2662,
      "è§ĤçĤ¹": 2663,
      "ck": 2664,
      "çĽ¸åºĶ": 2665,
      "åĪĨç±»": 2666,
      "èĩªæĪĳ": 2667,
      "çĶŁåĳ½": 2668,
      "æī¾": 2669,
      "regul": 2670,
      "care": 2671,
      "å·®å¼Ĥ": 2672,
      "æĪĲåĬŁ": 2673,
      "æ¥": 2674,
      "ron": 2675,
      "centr": 2676,
      "è¯´æĺİ": 2677,
      "é¼ĵ": 2678,
      "è½¯ä»¶": 2679,
      "ç¥ŀç»ı": 2680,
      "æ¯Ľ": 2681,
      "éĵģ": 2682,
      "æķĳ": 2683,
      "èįī": 2684,
      "æĬĢèĥ½": 2685,
      "åĮĹäº¬": 2686,
      "è°ĵ": 2687,
      "signal": 2688,
      "ä½ľèĢħ": 2689,
      "ited": 2690,
      "kin": 2691,
      "ective": 2692,
      "number": 2693,
      "import": 2694,
      "çĺ¤": 2695,
      "ä¼łæĴŃ": 2696,
      "ç§Ł": 2697,
      "mem": 2698,
      "ä¹ĭåĲİ": 2699,
      "äº¤éĢļ": 2700,
      "æĸĩåŃ¦": 2701,
      "å®ŀè¡Į": 2702,
      "æĿĥåĬĽ": 2703,
      "process": 2704,
      "mech": 2705,
      "éģį": 2706,
      "However": 2707,
      "36": 2708,
      "05": 2709,
      "æ¶µ": 2710,
      "ç«¥": 2711,
      "45": 2712,
      "ization": 2713,
      "çī¹æ®Ĭ": 2714,
      "å¹´ä»£": 2715,
      "èµĦæĸĻ": 2716,
      "äº²": 2717,
      "ung": 2718,
      "assess": 2719,
      "å·´": 2720,
      "çī©çĲĨ": 2721,
      "æķ´ä¸ª": 2722,
      "bib": 2723,
      "å°±ä¸ļ": 2724,
      "ane": 2725,
      "æ°ĳäºĭ": 2726,
      "arget": 2727,
      "å¼ķèµ·": 2728,
      "ER": 2729,
      "my": 2730,
      "è¶ħè¿ĩ": 2731,
      "å³": 2732,
      "äº§æĿĥ": 2733,
      "ä¸īä¸ª": 2734,
      "æ½ľ": 2735,
      "æ£ĢæŁ¥": 2736,
      "è¿Ľç¨ĭ": 2737,
      "é£ŀ": 2738,
      "åĳĪ": 2739,
      "def": 2740,
      "ä¸Ģèĩ´": 2741,
      "ç¬Ķ": 2742,
      "ä¾§": 2743,
      "vis": 2744,
      "éĩįè§Ĩ": 2745,
      "38": 2746,
      "åĪ©äºİ": 2747,
      "æ¸¯": 2748,
      "usion": 2749,
      "ç¥¨": 2750,
      "æĽ¾": 2751,
      "response": 2752,
      "å¥Ĺ": 2753,
      "mental": 2754,
      "äº¡": 2755,
      "æµĭè¯ķ": 2756,
      "some": 2757,
      "PA": 2758,
      "âĢ¦": 2759,
      "shown": 2760,
      "æĪĺäºī": 2761,
      "èĩªä¸»": 2762,
      "pos": 2763,
      "æ¯ıä¸ª": 2764,
      "effects": 2765,
      "èĬ±": 2766,
      "ç»©": 2767,
      "æ²¹": 2768,
      "å©": 2769,
      "çĨŁ": 2770,
      "ç»ıè¿ĩ": 2771,
      "ä¿¡åı·": 2772,
      "åĽ½æ°ĳ": 2773,
      "Con": 2774,
      "34": 2775,
      "åģı": 2776,
      "poten": 2777,
      "ide": 2778,
      "cardi": 2779,
      "could": 2780,
      "bin": 2781,
      "eno": 2782,
      "ody": 2783,
      "éĺ¶çº§": 2784,
      "ç¼ĵ": 2785,
      "ç½²": 2786,
      "è¯¸": 2787,
      "sure": 2788,
      "å·¦": 2789,
      "æĶ¯ä»ĺ": 2790,
      "ceptor": 2791,
      "ä¸´åºĬ": 2792,
      "åĪ¸": 2793,
      "ä¸įå¾Ĺ": 2794,
      "èĤ¿": 2795,
      "æįŁå®³": 2796,
      "dependent": 2797,
      "ç¡®ä¿Ŀ": 2798,
      "ç§°ä¸º": 2799,
      "ç´¯": 2800,
      "atory": 2801,
      "coun": 2802,
      "plas": 2803,
      "ä¾ĽåºĶ": 2804,
      "è®¡ç®Ĺæľº": 2805,
      "there": 2806,
      "åĳ³": 2807,
      "èĹı": 2808,
      "å»ºè®®": 2809,
      "brain": 2810,
      "åİŁçĲĨ": 2811,
      "æĭĵ": 2812,
      "target": 2813,
      "åĶ¯": 2814,
      "role": 2815,
      "tively": 2816,
      "SD": 2817,
      "äº¤æµģ": 2818,
      "çĸĳ": 2819,
      "æķ°åŃ¦": 2820,
      "åŃ¦æľ¯": 2821,
      "ç¬¬åĽĽ": 2822,
      "åŁ¹è®Ń": 2823,
      "éģµ": 2824,
      "æĺ¾ç¤º": 2825,
      "For": 2826,
      "æ·±åĪ»": 2827,
      "å¸®åĬ©": 2828,
      "éĻĪ": 2829,
      "ore": 2830,
      "AD": 2831,
      "å®½": 2832,
      "when": 2833,
      "å±Ĭ": 2834,
      "performed": 2835,
      "very": 2836,
      "ç¯ĩ": 2837,
      "dic": 2838,
      "ä½ł": 2839,
      "éĿ¢ä¸´": 2840,
      "çĵ": 2841,
      "æľŁéĹ´": 2842,
      "receptor": 2843,
      "ç®Ģåįķ": 2844,
      "çī¹å®ļ": 2845,
      "ä¹ı": 2846,
      "effect": 2847,
      "è½¬ç§»": 2848,
      "çĸ¾çĹħ": 2849,
      "çº·": 2850,
      "stimul": 2851,
      "äººå·¥": 2852,
      "æĮĳæĪĺ": 2853,
      "ital": 2854,
      "è½¬åŀĭ": 2855,
      "åģ¥åħ¨": 2856,
      "åħ±äº«": 2857,
      "çªģåĩº": 2858,
      "fe": 2859,
      "sa": 2860,
      "ici": 2861,
      "éĽ¶": 2862,
      "æĶ¹åĸĦ": 2863,
      "induced": 2864,
      "åĬª": 2865,
      "ç»Łè®¡": 2866,
      "çľ¼": 2867,
      "significantly": 2868,
      "çĤİ": 2869,
      "åĪĨä¸º": 2870,
      "curren": 2871,
      "å¹³è¡¡": 2872,
      "prim": 2873,
      "èĢĮè¨Ģ": 2874,
      "è®¿": 2875,
      "å®¢è§Ĥ": 2876,
      "æľ¬è´¨": 2877,
      "These": 2878,
      "Î±": 2879,
      "éĽĨä½ĵ": 2880,
      "èŃ": 2881,
      "inflam": 2882,
      "ç¡¬": 2883,
      "å¾ªçİ¯": 2884,
      "ality": 2885,
      "æĿ¥è¯´": 2886,
      "åĩ½æķ°": 2887,
      "mes": 2888,
      "sive": 2889,
      "è®¨è®º": 2890,
      "ä¸»åĬ¨": 2891,
      "è§Ĵåº¦": 2892,
      "33": 2893,
      "éħįç½®": 2894,
      "æĽ´å¥½": 2895,
      "æ²¿": 2896,
      "è½¬åĮĸ": 2897,
      "way": 2898,
      "---": 2899,
      "imal": 2900,
      "æįŁå¤±": 2901,
      "èµĶåģ¿": 2902,
      "å¿«éĢŁ": 2903,
      "æĢ»ä½ĵ": 2904,
      "char": 2905,
      "including": 2906,
      "é«ĺæł¡": 2907,
      "çĩ": 2908,
      "å¸Į": 2909,
      "body": 2910,
      "è½¬åıĺ": 2911,
      "éĤ£ä¹Ī": 2912,
      "åĪ¤æĸŃ": 2913,
      "dividual": 2914,
      "IV": 2915,
      "çºł": 2916,
      "åıĬæĹ¶": 2917,
      "ä¹İ": 2918,
      "where": 2919,
      "å±Ĥæ¬¡": 2920,
      "è´¡": 2921,
      "è§Ĥå¿µ": 2922,
      "....": 2923,
      "48": 2924,
      "factors": 2925,
      "æĺ¾èĳĹ": 2926,
      "table": 2927,
      "å¹²éĥ¨": 2928,
      "çĽŁ": 2929,
      "çľŁæŃ£": 2930,
      "è¾©": 2931,
      "åĩºçīĪ": 2932,
      "é¡¾": 2933,
      "è¶ĭåĬ¿": 2934,
      "mil": 2935,
      "fore": 2936,
      "å¥ĭæĸĹ": 2937,
      "åĦ¿ç«¥": 2938,
      "è®¤å®ļ": 2939,
      "ature": 2940,
      "æĭ¥": 2941,
      "åĬªåĬĽ": 2942,
      "invol": 2943,
      "å¾Īå¤ļ": 2944,
      "æŃ¤å¤ĸ": 2945,
      "bl": 2946,
      "they": 2947,
      "ä¸ĢåĪĩ": 2948,
      "æĿ¥æºĲ": 2949,
      "No": 2950,
      "ç¹": 2951,
      "åĿı": 2952,
      "PD": 2953,
      "ä¸Ģæĺ¯": 2954,
      "å¤Ħäºİ": 2955,
      "å®ªæ³ķ": 2956,
      "æħ§": 2957,
      "first": 2958,
      "exp": 2959,
      "åĵª": 2960,
      "tics": 2961,
      "è¯·æ±Ĥ": 2962,
      "å¤§ä¼ļ": 2963,
      "åį·": 2964,
      "Re": 2965,
      "CO": 2966,
      "çİ¯èĬĤ": 2967,
      "æĢ§èĥ½": 2968,
      "Res": 2969,
      "observed": 2970,
      "ä¸Ĭè¿°": 2971,
      "éĢŁåº¦": 2972,
      "èī¯å¥½": 2973,
      "çļ®": 2974,
      "through": 2975,
      "é«ĺè´¨éĩı": 2976,
      "åī§": 2977,
      "ç¢į": 2978,
      "ä¹ħ": 2979,
      "å¤ļç§į": 2980,
      "è´¥": 2981,
      "åģľ": 2982,
      "Pro": 2983,
      "action": 2984,
      "çŃĸçķ¥": 2985,
      "éģ¿åħį": 2986,
      "åįĸ": 2987,
      "æĽ¿": 2988,
      "è¯ķéªĮ": 2989,
      "ç®Ĺæ³ķ": 2990,
      "new": 2991,
      "ä¸¤ç§į": 2992,
      "ç¹ģ": 2993,
      "èĥĮæĻ¯": 2994,
      "éĢĲæŃ¥": 2995,
      "å¹ħ": 2996,
      "mechanis": 2997,
      "è®¾ç½®": 2998,
      "MP": 2999,
      "æĪĲåĳĺ": 3000,
      "æĴĳ": 3001,
      "Sec": 3002,
      "åĢºæĿĥ": 3003,
      "åħµ": 3004,
      "èµĭ": 3005,
      "cin": 3006,
      "éĻĨ": 3007,
      "çĦ¶èĢĮ": 3008,
      "èĩªåĬ¨": 3009,
      "ä¸įè¶³": 3010,
      "ä¸Ģç³»åĪĹ": 3011,
      "reported": 3012,
      "æĬĬæı¡": 3013,
      "prog": 3014,
      "his": 3015,
      "IP": 3016,
      "individual": 3017,
      "As": 3018,
      "31": 3019,
      "åħ¬å¹³": 3020,
      "æľĢåĲİ": 3021,
      "å®ı": 3022,
      "tra": 3023,
      "æĻ®éģį": 3024,
      "eng": 3025,
      "å´": 3026,
      "åĲ¬": 3027,
      "åı³": 3028,
      "ving": 3029,
      "çĶ²": 3030,
      "evalu": 3031,
      "ç²Ĵ": 3032,
      "æ³½": 3033,
      "åįģåħ«": 3034,
      "development": 3035,
      "æ¯į": 3036,
      "ç»į": 3037,
      "æĶ¯æĴĳ": 3038,
      "showed": 3039,
      "MR": 3040,
      "å°¤åħ¶": 3041,
      "app": 3042,
      "ological": 3043,
      "art": 3044,
      "è¯¾åłĤ": 3045,
      "æľīéĻĲ": 3046,
      "years": 3047,
      "ency": 3048,
      "çĶ°": 3049,
      "ition": 3050,
      "ç§Ģ": 3051,
      "èŃ¦": 3052,
      "æĸ°åŀĭ": 3053,
      "ä½¿å¾Ĺ": 3054,
      "äºĮæĺ¯": 3055,
      "åī¯": 3056,
      "plement": 3057,
      "32": 3058,
      "åĲĪæ³ķ": 3059,
      "ld": 3060,
      "èµĸ": 3061,
      "é»ĳ": 3062,
      "æ±½": 3063,
      "æ¯Ķå¦Ĥ": 3064,
      "child": 3065,
      "æĿĥçĽĬ": 3066,
      "lim": 3067,
      "åŃ¦èĢħ": 3068,
      "ä¸Ģä½ĵ": 3069,
      "å°Ĭ": 3070,
      "åĩĨç¡®": 3071,
      "è§Ĥå¯Ł": 3072,
      "Î¼": 3073,
      "ä¿¡çĶ¨": 3074,
      "åĨĮ": 3075,
      "higher": 3076,
      "inj": 3077,
      "ded": 3078,
      "è°±": 3079,
      "é©±": 3080,
      "tissue": 3081,
      "bec": 3082,
      "æľ¬èº«": 3083,
      "estig": 3084,
      "æĢ»ç»ĵ": 3085,
      "å¤įåħ´": 3086,
      "character": 3087,
      "æĬĵ": 3088,
      "ä¸»å¼ł": 3089,
      "åįıåĲĮ": 3090,
      "region": 3091,
      "ç³ĸ": 3092,
      "çĽ¸åĲĮ": 3093,
      "direc": 3094,
      "çº¦å®ļ": 3095,
      "å¾Ģå¾Ģ": 3096,
      "groups": 3097,
      "air": 3098,
      "multi": 3099,
      "ç¤¼": 3100,
      "important": 3101,
      "åĩĿ": 3102,
      "éĺħ": 3103,
      "go": 3104,
      "ner": 3105,
      "è§¦": 3106,
      "ens": 3107,
      "ucle": 3108,
      "èį¯çī©": 3109,
      "previous": 3110,
      "çĻ¾å¹´": 3111,
      "åºŁ": 3112,
      "æ¡Ĩ": 3113,
      "CP": 3114,
      "three": 3115,
      "ise": 3116,
      "åıĮæĸ¹": 3117,
      "çıŃ": 3118,
      "neuro": 3119,
      "è¦Ĩ": 3120,
      "ä»ª": 3121,
      "vas": 3122,
      "ta": 3123,
      "therapy": 3124,
      "è¿ģ": 3125,
      "åį«çĶŁ": 3126,
      "decre": 3127,
      "çħ": 3128,
      "æĻºæħ§": 3129,
      "æľīæľº": 3130,
      "ress": 3131,
      "pat": 3132,
      "post": 3133,
      "ä¾Ľç»Ļ": 3134,
      "åĶĲ": 3135,
      "ä¸Ģæ¬¡": 3136,
      "å¤ļæķ°": 3137,
      "long": 3138,
      "Table": 3139,
      "æĹħ": 3140,
      "è¿ĽæŃ¥": 3141,
      "fr": 3142,
      "èĵ": 3143,
      "èĤ¡ä¸ľ": 3144,
      "æĬĳ": 3145,
      "éĢĲæ¸Ĳ": 3146,
      "ext": 3147,
      "è¯ĳ": 3148,
      "æķĪåºĶ": 3149,
      "èĢĹ": 3150,
      "virus": 3151,
      "çĥĪ": 3152,
      "å§ĭç»Ī": 3153,
      "ä¸¥æł¼": 3154,
      "cus": 3155,
      "ves": 3156,
      "zed": 3157,
      "grap": 3158,
      "ä½ľåĵģ": 3159,
      "lish": 3160,
      "NF": 3161,
      "ç§ĳçłĶ": 3162,
      "mer": 3163,
      "grow": 3164,
      "è¿«": 3165,
      "æµģåĬ¨": 3166,
      "å½ĵæĹ¶": 3167,
      "é¼ĵåĬ±": 3168,
      "é¸": 3169,
      "è´¡çĮ®": 3170,
      "äº¦": 3171,
      "åħ±åĴĮ": 3172,
      "within": 3173,
      "cap": 3174,
      "çĻĮ": 3175,
      "å±ĤéĿ¢": 3176,
      "RA": 3177,
      "æ¡Īä¾ĭ": 3178,
      "larg": 3179,
      "è´µ": 3180,
      "å®ĭ": 3181,
      "éĨ": 3182,
      "åĽ½æľī": 3183,
      "ired": 3184,
      "åıĤèĢĥ": 3185,
      "æľīåĪ©äºİ": 3186,
      "ç£ģ": 3187,
      "è®Ńç»ĥ": 3188,
      "æĸĹäºī": 3189,
      "éľ²": 3190,
      "investig": 3191,
      "roph": 3192,
      "ero": 3193,
      "infection": 3194,
      "ä¸ĭéĻį": 3195,
      "----------------------------------------------------------------": 3196,
      "It": 3197,
      "åħĪè¿Ľ": 3198,
      "åŃ¦éĻ¢": 3199,
      "åİĤ": 3200,
      "positive": 3201,
      "MS": 3202,
      "49": 3203,
      "æ°¸": 3204,
      "cular": 3205,
      "activation": 3206,
      "æľºåĻ¨": 3207,
      "bre": 3208,
      "æĬķåħ¥": 3209,
      "éĢļä¿¡": 3210,
      "æĹ§": 3211,
      "èĸ": 3212,
      "ä»ĭç»į": 3213,
      "å¯»": 3214,
      "å¿ħçĦ¶": 3215,
      "æĢĿèĢĥ": 3216,
      "ç´łè´¨": 3217,
      "éļ¾ä»¥": 3218,
      "æ¯Ķä¾ĭ": 3219,
      "ç¼ºä¹ı": 3220,
      "mean": 3221,
      "atis": 3222,
      "ä½įç½®": 3223,
      "æĬĺ": 3224,
      "éĿĻ": 3225,
      "å·¨å¤§": 3226,
      "çĻ»è®°": 3227,
      "æµĭéĩı": 3228,
      "endo": 3229,
      "those": 3230,
      "åıĳå¸ĥ": 3231,
      "åĮħåĲ«": 3232,
      "çģ¾": 3233,
      "39": 3234,
      "ene": 3235,
      "åŃĺåĤ¨": 3236,
      "åħ·å¤ĩ": 3237,
      "He": 3238,
      "éĻ·": 3239,
      "åĽ¢éĺŁ": 3240,
      "é«ĺçŃī": 3241,
      "è´¯å½»": 3242,
      "æģ¶": 3243,
      "inhibit": 3244,
      "å¤ļæł·": 3245,
      "æŃ£å¸¸": 3246,
      "æķı": 3247,
      "AC": 3248,
      "ç¦ģ": 3249,
      "SP": 3250,
      "198": 3251,
      "åį±æľº": 3252,
      "lead": 3253,
      "ace": 3254,
      "provid": 3255,
      "bas": 3256,
      "ÃĹ": 3257,
      "ä»²": 3258,
      "æĶ¹éĿ©å¼ĢæĶ¾": 3259,
      "å¹³åĿĩ": 3260,
      "è´¦": 3261,
      "demon": 3262,
      "tran": 3263,
      "ç»ıæµİåŃ¦": 3264,
      "demonstr": 3265,
      "75": 3266,
      "åıªæĺ¯": 3267,
      "èŀįèµĦ": 3268,
      "å±ħæ°ĳ": 3269,
      "çĬ¶åĨµ": 3270,
      "less": 3271,
      "åħįçĸ«": 3272,
      "particip": 3273,
      "åı¥": 3274,
      "æľ¬æĸĩ": 3275,
      "ä¸Ĭæµ·": 3276,
      "å®¡æŁ¥": 3277,
      "æ±ł": 3278,
      "predic": 3279,
      "dro": 3280,
      "åħ°": 3281,
      "changes": 3282,
      "æĬ½": 3283,
      "crib": 3284,
      "åıĺéĿ©": 3285,
      "çİ°åľ¨": 3286,
      "åĳ¨æľŁ": 3287,
      "impro": 3288,
      "é¢Ħæµĭ": 3289,
      "hypo": 3290,
      "ç¤¾åĮº": 3291,
      "æī¬": 3292,
      "ç»ķ": 3293,
      "é²ľ": 3294,
      "ived": 3295,
      "å®Įæķ´": 3296,
      "ä¸ĵåĪ©": 3297,
      "åĽ½åĬ¡": 3298,
      "å®ģ": 3299,
      "need": 3300,
      "æĿ¥çľĭ": 3301,
      "æľ«": 3302,
      "è¯ĨåĪ«": 3303,
      "ini": 3304,
      "rate": 3305,
      "ä¼¦": 3306,
      "sol": 3307,
      "01": 3308,
      "treated": 3309,
      "pri": 3310,
      "æī¶": 3311,
      "æĬ¼": 3312,
      "çĲĨæĥ³": 3313,
      "æ¢°": 3314,
      "ically": 3315,
      "ç²®": 3316,
      "æ¶¦": 3317,
      "çĽĳæµĭ": 3318,
      "å¤ļä¸ª": 3319,
      "king": 3320,
      "è®°å½ķ": 3321,
      "There": 3322,
      "46": 3323,
      "åħ¬æ°ĳ": 3324,
      "åħ¬å¼Ģ": 3325,
      "åħ¼": 3326,
      "ie": 3327,
      "è¿ĺæľī": 3328,
      "æķ°åŃĹåĮĸ": 3329,
      "è´¹çĶ¨": 3330,
      "hip": 3331,
      "consi": 3332,
      "çľŁå®ŀ": 3333,
      "æīĢè°ĵ": 3334,
      "aging": 3335,
      "Ad": 3336,
      "åį¡": 3337,
      "æ³¨éĩį": 3338,
      "è®¤çŁ¥": 3339,
      "åŁºéĩĳ": 3340,
      "åŁºç¡Ģè®¾æĸ½": 3341,
      "è¶£": 3342,
      "åı¶": 3343,
      "ES": 3344,
      "logy": 3345,
      "èĤº": 3346,
      "åĪĳäºĭ": 3347,
      "åħ¨éĥ¨": 3348,
      "001": 3349,
      "æĸĩçĮ®": 3350,
      "æ¹ĸ": 3351,
      "é½": 3352,
      "çº¯": 3353,
      "çªģçł´": 3354,
      "ä¸ªä½ĵ": 3355,
      "éĺĲ": 3356,
      "åĲĦä¸ª": 3357,
      "mm": 3358,
      "potential": 3359,
      "tu": 3360,
      "æł¼å±Ģ": 3361,
      "ze": 3362,
      "any": 3363,
      "è´¢åĬ¡": 3364,
      "è£Ĥ": 3365,
      "Cs": 3366,
      "è¯¢": 3367,
      "finding": 3368,
      "plic": 3369,
      "2020": 3370,
      "led": 3371,
      "è¿ŀæİ¥": 3372,
      "é¦Ĩ": 3373,
      "åĽ½åĬ¡éĻ¢": 3374,
      "åħ±åĴĮåĽ½": 3375,
      "ä¸ºä¸»": 3376,
      "éĹ»": 3377,
      "éŃ": 3378,
      "ç»ŁçŃ¹": 3379,
      "ä¸įä¼ļ": 3380,
      "subj": 3381,
      "pack": 3382,
      "åºĶå¯¹": 3383,
      "æļ´": 3384,
      "åĩºæĿ¥": 3385,
      "AR": 3386,
      "gre": 3387,
      "mall": 3388,
      "è½®": 3389,
      "sible": 3390,
      "è¶ĬæĿ¥": 3391,
      "èĤ¿çĺ¤": 3392,
      "éĩİ": 3393,
      "è¶ĬæĿ¥è¶Ĭ": 3394,
      "åĿĢ": 3395,
      "cases": 3396,
      "fib": 3397,
      "combin": 3398,
      "æĥħå½¢": 3399,
      "åĬ³åĬ¨èĢħ": 3400,
      "åŃĶ": 3401,
      "èĭ±åĽ½": 3402,
      "åŁºå±Ĥ": 3403,
      "åĬ¨æĢģ": 3404,
      "increase": 3405,
      "èį£": 3406,
      "æ·±åº¦": 3407,
      "drug": 3408,
      "ost": 3409,
      "åı¬": 3410,
      "è¾ħ": 3411,
      "å¯¹å¤ĸ": 3412,
      "Ex": 3413,
      "44": 3414,
      "è°Ĳ": 3415,
      "ax": 3416,
      "çłĶåıĳ": 3417,
      "åĲĦåĽ½": 3418,
      "çī¹æĢ§": 3419,
      "ä¼´": 3420,
      "æķĻæİĪ": 3421,
      "è°ĭ": 3422,
      "ä¸ĵå®¶": 3423,
      "åħļä¸Ńå¤®": 3424,
      "æģ¢": 3425,
      "å¹³çŃī": 3426,
      "ness": 3427,
      "è®¾ç«ĭ": 3428,
      "ä»įçĦ¶": 3429,
      "çĦ¶åĲİ": 3430,
      "53": 3431,
      "åĨĽäºĭ": 3432,
      "å®ŀä½ĵ": 3433,
      "ID": 3434,
      "åĲĦç±»": 3435,
      "åªĴä½ĵ": 3436,
      "cho": 3437,
      "æ¡Ĩæŀ¶": 3438,
      "ds": 3439,
      "æµģç¨ĭ": 3440,
      "å¹´æĿ¥": 3441,
      "åĪĺ": 3442,
      "å®ľ": 3443,
      "gram": 3444,
      "æĿ¥èĩª": 3445,
      "åŁİä¹¡": 3446,
      "æĶ¶çĽĬ": 3447,
      "åİĭåĬĽ": 3448,
      "å®¡è®¡": 3449,
      "éĺ¿": 3450,
      "åĢ¾": 3451,
      "åīįæıĲ": 3452,
      "ectively": 3453,
      "çĹħæ¯Ĵ": 3454,
      "ç¾¤ä½ĵ": 3455,
      "å®¹æĺĵ": 3456,
      "part": 3457,
      "å¸ĥå±Ģ": 3458,
      "ä»¥åĲİ": 3459,
      "åĢį": 3460,
      "ç»§æī¿": 3461,
      "åĲĮå¿Ĺ": 3462,
      "current": 3463,
      "ä¸Ńåħ±": 3464,
      "cytes": 3465,
      "ret": 3466,
      "æııè¿°": 3467,
      "org": 3468,
      "tech": 3469,
      "47": 3470,
      "å©ļ": 3471,
      "vic": 3472,
      "éĶĻè¯¯": 3473,
      "æĭ¥æľī": 3474,
      "æħ¢": 3475,
      "æİĴæĶ¾": 3476,
      "MD": 3477,
      "æŃ£åľ¨": 3478,
      "ä¸ĢæĿ¡": 3479,
      "mod": 3480,
      "å¸Ń": 3481,
      "growth": 3482,
      "åįģä¹Ŀ": 3483,
      "æĭĽ": 3484,
      "types": 3485,
      "65": 3486,
      "æ°§åĮĸ": 3487,
      "ä¾µæĿĥ": 3488,
      "ry": 3489,
      "lab": 3490,
      "Wh": 3491,
      "æķĻæĿĲ": 3492,
      "rang": 3493,
      "æ½®": 3494,
      "psy": 3495,
      "åĲĦçº§": 3496,
      "known": 3497,
      "åħļçļĦ": 3498,
      "éĢĴ": 3499,
      "éĢĶå¾Ħ": 3500,
      "èĤĮ": 3501,
      "æ±½è½¦": 3502,
      "plementary": 3503,
      "æĢİ": 3504,
      "æķ´åĲĪ": 3505,
      "then": 3506,
      "small": 3507,
      "pub": 3508,
      "samples": 3509,
      "å¤ĸéĥ¨": 3510,
      "åĽ°éļ¾": 3511,
      "é¡µ": 3512,
      "åħ¸åŀĭ": 3513,
      "éº": 3514,
      "æľ¨": 3515,
      "æ¤įçī©": 3516,
      "cogn": 3517,
      "sph": 3518,
      "GA": 3519,
      "theli": 3520,
      "é¦Ļ": 3521,
      "çī¢": 3522,
      "mor": 3523,
      "identified": 3524,
      "æģ¢å¤į": 3525,
      "evid": 3526,
      "ause": 3527,
      "sever": 3528,
      "iter": 3529,
      "simil": 3530,
      "æŃĮ": 3531,
      "contrib": 3532,
      "ks": 3533,
      "æĹ¶åĢĻ": 3534,
      "è¾ĥå¤§": 3535,
      "package": 3536,
      "å¾Īå¤§": 3537,
      "ateg": 3538,
      "ä¹ĭåīį": 3539,
      "abol": 3540,
      "è¿½æ±Ĥ": 3541,
      "äºĮåįģ": 3542,
      "å®¢æĪ·": 3543,
      "éĶĢåĶ®": 3544,
      "onal": 3545,
      "åıĳè¡¨": 3546,
      "è®ºæĸĩ": 3547,
      "fy": 3548,
      "immune": 3549,
      "concentr": 3550,
      "ä¸Ģé¡¹": 3551,
      "rele": 3552,
      "å¹¼": 3553,
      "èĩªæ²»": 3554,
      "suggest": 3555,
      "ä¹±": 3556,
      "åĽ¢ç»ĵ": 3557,
      "EM": 3558,
      "é£Łåĵģ": 3559,
      "Med": 3560,
      "vo": 3561,
      "æĺ¥": 3562,
      "çĽĺ": 3563,
      "åŁİéķĩ": 3564,
      "è·¯å¾Ħ": 3565,
      "ross": 3566,
      "æ®ĸ": 3567,
      "hyper": 3568,
      "è¡¨éĿ¢": 3569,
      "ude": 3570,
      "ä¼ĺç§Ģ": 3571,
      "logical": 3572,
      "è¿Ŀæ³ķ": 3573,
      "ä»İäºĭ": 3574,
      "proteins": 3575,
      "è¿ħ": 3576,
      "æ³ķå®ļ": 3577,
      "determin": 3578,
      "mac": 3579,
      "æĿ¾": 3580,
      "flu": 3581,
      "frequ": 3582,
      "ç§©": 3583,
      "ome": 3584,
      "å®īæİĴ": 3585,
      "èİ·åıĸ": 3586,
      "mater": 3587,
      "å¡ĳ": 3588,
      "è¯ĬæĸŃ": 3589,
      "æĪı": 3590,
      "è¡°": 3591,
      "IF": 3592,
      "ily": 3593,
      "####": 3594,
      "further": 3595,
      "å¼ķé¢Ĩ": 3596,
      "æ¯Ľæ³½": 3597,
      "order": 3598,
      "éĥ¨ç½²": 3599,
      "é¾Ļ": 3600,
      "æ¯Ľæ³½ä¸ľ": 3601,
      "æłĩå¿Ĺ": 3602,
      "çĩĥ": 3603,
      "åĬłå·¥": 3604,
      "ä¸Ģæł·": 3605,
      "information": 3606,
      "yo": 3607,
      "ditional": 3608,
      "read": 3609,
      "population": 3610,
      "åĨħæ¶µ": 3611,
      "ç¿»": 3612,
      "éĩįæĸ°": 3613,
      "äººå·¥æĻºèĥ½": 3614,
      "ç¼ĺ": 3615,
      "çŁ¿": 3616,
      "ology": 3617,
      "42": 3618,
      "ural": 3619,
      "åħģ": 3620,
      "è§£æĶ¾": 3621,
      "åĿļå®ļ": 3622,
      "åĲĮæł·": 3623,
      "iqu": 3624,
      "çĽ¸æ¯Ķ": 3625,
      "ä»ĸäºº": 3626,
      "similar": 3627,
      "OS": 3628,
      "éĴ±": 3629,
      "describ": 3630,
      "è¿ĩåİ»": 3631,
      "ä¼ĺåħĪ": 3632,
      "ann": 3633,
      "æĻ®éĢļ": 3634,
      "vol": 3635,
      "åıĤåĬł": 3636,
      "nec": 3637,
      "å°¼": 3638,
      "æĹłè®º": 3639,
      "å®£ä¼ł": 3640,
      "è½¨": 3641,
      "ression": 3642,
      "uce": 3643,
      "obt": 3644,
      "åĩºåıĳ": 3645,
      "çŁ¥è¯Ĩäº§æĿĥ": 3646,
      "gi": 3647,
      "lower": 3648,
      "vascular": 3649,
      "èĴĻ": 3650,
      "total": 3651,
      "æº¶": 3652,
      "cording": 3653,
      "çĦ¦": 3654,
      "erest": 3655,
      "ä¿Ĺ": 3656,
      "åı¦ä¸Ģæĸ¹éĿ¢": 3657,
      "ä¸Ńå°ı": 3658,
      "å¼¹": 3659,
      "ç§©åºı": 3660,
      "erg": 3661,
      "ä»²è£ģ": 3662,
      "fer": 3663,
      "ently": 3664,
      "é«ĺæķĪ": 3665,
      "poly": 3666,
      "æľºæ¢°": 3667,
      "çģŃ": 3668,
      "addition": 3669,
      "55": 3670,
      "åıĤæķ°": 3671,
      "æĥł": 3672,
      "ç©¿": 3673,
      "approach": 3674,
      "ET": 3675,
      "äºĭåĬ¡": 3676,
      "usepackage": 3677,
      "æ²ī": 3678,
      "æĥ¯": 3679,
      "è¯ļ": 3680,
      "çº²": 3681,
      "åĽºå®ļ": 3682,
      "neg": 3683,
      "ä¾Ŀèµĸ": 3684,
      "CS": 3685,
      "------------": 3686,
      "å·¥èīº": 3687,
      "åĳ¼": 3688,
      "å³°": 3689,
      "sist": 3690,
      "åİļ": 3691,
      "æĪĲå°±": 3692,
      "æ¶Īè´¹èĢħ": 3693,
      "åĬ¨çī©": 3694,
      "ft": 3695,
      "è¿Ĳè¾ĵ": 3696,
      "èħĲ": 3697,
      "æ®ĭ": 3698,
      "sensi": 3699,
      "çĲĨæĢ§": 3700,
      "common": 3701,
      "å¤ļåħĥ": 3702,
      "temp": 3703,
      "é¾Ħ": 3704,
      "ç»ĻäºĪ": 3705,
      "Ac": 3706,
      "å±ŀæĢ§": 3707,
      "survi": 3708,
      "æ°ĳæ³ķ": 3709,
      "ç¾İåħĥ": 3710,
      "é©±åĬ¨": 3711,
      "ç§ĺ": 3712,
      "ulin": 3713,
      "æ¾": 3714,
      "èµĦæľ¬ä¸»ä¹ī": 3715,
      "ä¸ĢçĽ´": 3716,
      "fication": 3717,
      "ç¬¬åįģ": 3718,
      "radi": 3719,
      "åĬłå¤§": 3720,
      "ä¸»é¢ĺ": 3721,
      "éĹŃ": 3722,
      "è´·æ¬¾": 3723,
      "å°½ç®¡": 3724,
      "èģĮèĥ½": 3725,
      "çĽ¸ç»ĵåĲĪ": 3726,
      "while": 3727,
      "cu": 3728,
      "å®ļä½į": 3729,
      "æ¯ķ": 3730,
      "expo": 3731,
      "though": 3732,
      "åĳĪçİ°": 3733,
      "äººæ°ĳåħ±åĴĮåĽ½": 3734,
      "åĬŀæ³ķ": 3735,
      "ord": 3736,
      "vit": 3737,
      "about": 3738,
      "åĨ·": 3739,
      "łéģĵ": 3740,
      "å¼ĥ": 3741,
      "acid": 3742,
      "mpto": 3743,
      "èģĮè´£": 3744,
      "MI": 3745,
      "éħ¶": 3746,
      "æĦıåĳ³": 3747,
      "MA": 3748,
      "spital": 3749,
      "æ¸©åº¦": 3750,
      "æķ°æį®åºĵ": 3751,
      "åĦĴ": 3752,
      "åķĨæłĩ": 3753,
      "resist": 3754,
      "gl": 3755,
      "æ²Ł": 3756,
      "æĭħä¿Ŀ": 3757,
      "è¦ĨçĽĸ": 3758,
      "åįĩçº§": 3759,
      "æĦŁæŁĵ": 3760,
      "åıĳè¾¾": 3761,
      "åįģåĪĨ": 3762,
      "æĶ¹éĢł": 3763,
      "æ¬§æ´²": 3764,
      "æĮ¯åħ´": 3765,
      "78": 3766,
      "æĹ¨": 3767,
      "åĽ¾åĥı": 3768,
      "Â°": 3769,
      "çĽ¸å½ĵ": 3770,
      "review": 3771,
      "è·Ł": 3772,
      "ç»ĺ": 3773,
      "å¥ĩ": 3774,
      "ä¿Ħ": 3775,
      "æĢĢ": 3776,
      "ç¡®ç«ĭ": 3777,
      "did": 3778,
      "should": 3779,
      "æ£Ģå¯Ł": 3780,
      "åĽĽä¸ª": 3781,
      "åĪĽä¸ļ": 3782,
      "PCR": 3783,
      "43": 3784,
      "çī©æµģ": 3785,
      "åĴĮè°Ĳ": 3786,
      "ä¸Ńåįİäººæ°ĳåħ±åĴĮåĽ½": 3787,
      "nucle": 3788,
      "among": 3789,
      "å®ıè§Ĥ": 3790,
      "many": 3791,
      "ities": 3792,
      "æĸĩç«ł": 3793,
      "åħļåĳĺ": 3794,
      "æ²Ļ": 3795,
      "åĽ´ç»ķ": 3796,
      "æ¹¾": 3797,
      "ãĢĲ": 3798,
      "éĿ¢å¯¹": 3799,
      "ä¿®æĶ¹": 3800,
      "çĹĽ": 3801,
      "åıªèĥ½": 3802,
      "ãĢĳ": 3803,
      "è°¢": 3804,
      "All": 3805,
      "æ°ĶåĢĻ": 3806,
      "lymp": 3807,
      "æĬĳåĪ¶": 3808,
      "oral": 3809,
      "éļľç¢į": 3810,
      "PS": 3811,
      "æŁĲäºĽ": 3812,
      "éĻ¤äºĨ": 3813,
      "whe": 3814,
      "jor": 3815,
      "æµ·æ´ĭ": 3816,
      "primary": 3817,
      "æĹ©æľŁ": 3818,
      "èĬĤçĤ¹": 3819,
      "ences": 3820,
      "tivity": 3821,
      "äºĪä»¥": 3822,
      "çĶŁæĪĲ": 3823,
      "å£¤": 3824,
      "vention": 3825,
      "å®ĹæķĻ": 3826,
      "æľīæīĢ": 3827,
      "ator": 3828,
      "åıĺéĩı": 3829,
      "pression": 3830,
      "æ¡£": 3831,
      "early": 3832,
      "cir": 3833,
      "è°ĥèĬĤ": 3834,
      "represent": 3835,
      "Me": 3836,
      "due": 3837,
      "åĩºåı£": 3838,
      "é½Ĳ": 3839,
      "èĻļæĭŁ": 3840,
      "æŃ£å¼ı": 3841,
      "ç¬¬äºĶ": 3842,
      "åħ¬ä¼Ĺ": 3843,
      "éĺħè¯»": 3844,
      "EC": 3845,
      "çĶ±æŃ¤": 3846,
      "åĪº": 3847,
      "versity": 3848,
      "differenti": 3849,
      "lung": 3850,
      "DP": 3851,
      "è½¬æį¢": 3852,
      "åĪ¶éĢłä¸ļ": 3853,
      "äºĭçī©": 3854,
      "LA": 3855,
      "åĮºåĪ«": 3856,
      "vere": 3857,
      "çĪ¶": 3858,
      "ï½": 3859,
      "ult": 3860,
      "è¯º": 3861,
      "transcrip": 3862,
      "åĩĨå¤ĩ": 3863,
      "ger": 3864,
      "value": 3865,
      "å²Ľ": 3866,
      "amet": 3867,
      "values": 3868,
      "è´«åĽ°": 3869,
      "èĪ¹": 3870,
      "ç¨İæĶ¶": 3871,
      "ä¸Ģèµ·": 3872,
      "çīĮ": 3873,
      "åĴĮå¹³": 3874,
      "evidence": 3875,
      "following": 3876,
      "ç¥ĸ": 3877,
      "second": 3878,
      "å¹´äºº": 3879,
      "prof": 3880,
      "èĤĿ": 3881,
      "åıĭ": 3882,
      "promo": 3883,
      "æĽ´ä¸º": 3884,
      "å¼ºåĪ¶": 3885,
      "å¾·åĽ½": 3886,
      "åĮ»åŃ¦": 3887,
      "çºłçº·": 3888,
      "è¿ŀç»Ń": 3889,
      "å²Ĺ": 3890,
      "56": 3891,
      "clo": 3892,
      "è¸": 3893,
      "auth": 3894,
      "would": 3895,
      "ç»ıæµİç¤¾ä¼ļ": 3896,
      "åŁ¹èĤ²": 3897,
      "åĬ©äºİ": 3898,
      "é¡¶": 3899,
      "ä¸ĵéĹ¨": 3900,
      "å½ĵä»£": 3901,
      "å»ºæĪĲ": 3902,
      "same": 3903,
      "RT": 3904,
      "å±ĭ": 3905,
      "æľºä¼ļ": 3906,
      "57": 3907,
      "children": 3908,
      "diab": 3909,
      "ä¸Ĭåįĩ": 3910,
      "å®ŀè´¨": 3911,
      "respectively": 3912,
      "down": 3913,
      "å²ģ": 3914,
      "without": 3915,
      "å½©": 3916,
      "æıŃ": 3917,
      "å½¢åĬ¿": 3918,
      "è¡Įä½¿": 3919,
      "æķĪçĽĬ": 3920,
      "complex": 3921,
      "åĢ¡": 3922,
      "NP": 3923,
      "mg": 3924,
      "è¿ĻéĩĮ": 3925,
      "major": 3926,
      "findings": 3927,
      "ç¡®è®¤": 3928,
      "æĶ¹è¿Ľ": 3929,
      "è¢«åĳĬ": 3930,
      "å¥ĸ": 3931,
      "å¦ĤæŃ¤": 3932,
      "æ¿ĢåĬ±": 3933,
      "è¯ģåĪ¸": 3934,
      "2021": 3935,
      "æĹ¥çĽĬ": 3936,
      "41": 3937,
      "åľ°çĲĨ": 3938,
      "éķľ": 3939,
      "çĸ«æĥħ": 3940,
      "æ£®": 3941,
      "compar": 3942,
      "genetic": 3943,
      "è½¬è®©": 3944,
      "çł´åĿı": 3945,
      "æµĵ": 3946,
      "influ": 3947,
      "metabol": 3948,
      "fam": 3949,
      "pan": 3950,
      "å¦Ĥä¸ĭ": 3951,
      "ä¿¡æģ¯åĮĸ": 3952,
      "described": 3953,
      "æī§æ³ķ": 3954,
      "éĽĨåĽ¢": 3955,
      "æŃ£æĺ¯": 3956,
      "æĦıåĳ³çĿĢ": 3957,
      "beha": 3958,
      "è¯¦": 3959,
      "til": 3960,
      "like": 3961,
      "çºµ": 3962,
      "çº¦æĿŁ": 3963,
      "2018": 3964,
      "åįıåķĨ": 3965,
      "å®Ŀ": 3966,
      "2017": 3967,
      "éļĶ": 3968,
      "HC": 3969,
      "matory": 3970,
      "genic": 3971,
      "chron": 3972,
      "çļĩ": 3973,
      "åį±éĻ©": 3974,
      "åĲ¸æĶ¶": 3975,
      "åģļå¥½": 3976,
      "Uni": 3977,
      "ä¼į": 3978,
      "å®ŀéĻħä¸Ĭ": 3979,
      "çľĭåĪ°": 3980,
      "å¼ºå¤§": 3981,
      "examin": 3982,
      "å¯¼åĲĳ": 3983,
      "æ´ģ": 3984,
      "wee": 3985,
      "active": 3986,
      "ç»Łæ²»": 3987,
      "vide": 3988,
      "é¢Ħéĺ²": 3989,
      "åģļåĪ°": 3990,
      "è¾ĸ": 3991,
      "äº¤æį¢": 3992,
      "çİ°æľī": 3993,
      "äºīè®®": 3994,
      "month": 3995,
      "éŁ³ä¹Ĳ": 3996,
      "occur": 3997,
      "direct": 3998,
      "éĺ²æŃ¢": 3999,
      "mus": 4000,
      "åŃ£": 4001,
      "AL": 4002,
      "æī°": 4003,
      "çŁ¥éģĵ": 4004,
      "éĿĴå¹´": 4005,
      "æ£ĢéªĮ": 4006,
      "å°º": 4007,
      "ä½ĵèĤ²": 4008,
      "right": 4009,
      "åľŁå£¤": 4010,
      "å¹¿å¤§": 4011,
      "è¿Ķ": 4012,
      "åĪĬ": 4013,
      "æģ©": 4014,
      "è¿ĲèĲ¥": 4015,
      "æĶ¶éĽĨ": 4016,
      "uction": 4017,
      "ç»ĦåĲĪ": 4018,
      "èĥ½éĩı": 4019,
      "çº³åħ¥": 4020,
      "99": 4021,
      "state": 4022,
      "çŀ": 4023,
      "åĪĽå»º": 4024,
      "67": 4025,
      "avail": 4026,
      "çĳ": 4027,
      "è¿¹": 4028,
      "æĴ¤": 4029,
      "æŃ»äº¡": 4030,
      "PP": 4031,
      "ety": 4032,
      "Ne": 4033,
      "ç±»ä¼¼": 4034,
      "correl": 4035,
      "acti": 4036,
      "ä¸»å¯¼": 4037,
      "trial": 4038,
      "OR": 4039,
      "ä¸Ģæĸ¹": 4040,
      "åı¦å¤ĸ": 4041,
      "differences": 4042,
      "culture": 4043,
      "åĩłä¸ª": 4044,
      "èĶ": 4045,
      "ä¼łè¾ĵ": 4046,
      "HIV": 4047,
      "åģļåĩº": 4048,
      "æ¿Ģåıĳ": 4049,
      "è£ķ": 4050,
      "left": 4051,
      "design": 4052,
      "2015": 4053,
      "molec": 4054,
      "ow": 4055,
      "åĪ©çİĩ": 4056,
      "åĬĽåº¦": 4057,
      "ä¸īæĺ¯": 4058,
      "whether": 4059,
      "SS": 4060,
      "èĭ¦": 4061,
      "åĽłèĢĮ": 4062,
      "2016": 4063,
      "ward": 4064,
      "ä½Ľ": 4065,
      "èº«ä»½": 4066,
      "69": 4067,
      "å¤§åĬĽ": 4068,
      "åħļåĴĮ": 4069,
      "De": 4070,
      "éĿ¢åĲĳ": 4071,
      "æ°¢": 4072,
      "mit": 4073,
      "éĺµ": 4074,
      "day": 4075,
      "å°¿": 4076,
      "ways": 4077,
      "thelial": 4078,
      "inflammatory": 4079,
      "åĲĽ": 4080,
      "åĨ²çªģ": 4081,
      "åĪ©æ¶¦": 4082,
      "æ¥ļ": 4083,
      "yn": 4084,
      "éĿ¢ç§¯": 4085,
      "åħ±åĲĮä½ĵ": 4086,
      "è¿Ŀåıį": 4087,
      "58": 4088,
      "æĻ¶": 4089,
      "æİ¨å¹¿": 4090,
      "æķĮ": 4091,
      "sin": 4092,
      "LC": 4093,
      "åħģè®¸": 4094,
      "ning": 4095,
      "IT": 4096,
      "åº§": 4097,
      "sympto": 4098,
      "èĪŀ": 4099,
      "å¡ŀ": 4100,
      "æľŁéĻĲ": 4101,
      "ive": 4102,
      "lished": 4103,
      "åħĥç´ł": 4104,
      "è´´": 4105,
      "æ³¨åĨĮ": 4106,
      "åŁºåľ°": 4107,
      "loc": 4108,
      "ately": 4109,
      "éĽĨæĪĲ": 4110,
      "enz": 4111,
      "åı¤ä»£": 4112,
      "ä»¿": 4113,
      "acc": 4114,
      "å¤ļå¹´": 4115,
      "ditions": 4116,
      "æĢģåº¦": 4117,
      "åĪ¤åĨ³": 4118,
      "IC": 4119,
      "çĶ¨äºº": 4120,
      "åħ³èģĶ": 4121,
      "è¿ĽèĢĮ": 4122,
      "åĺ": 4123,
      "çħ¤": 4124,
      "ade": 4125,
      "å¤§å¤ļæķ°": 4126,
      "å¸ĮæľĽ": 4127,
      "æĹħæ¸¸": 4128,
      "çĶŁéķ¿": 4129,
      "ç´łåħ»": 4130,
      "æ°ı": 4131,
      "enh": 4132,
      "æ´»æĢ§": 4133,
      "è¿ħéĢŁ": 4134,
      "åıįå¯¹": 4135,
      "åı¯è§ģ": 4136,
      "çĶµæ±ł": 4137,
      "hel": 4138,
      "tox": 4139,
      "çĽĽ": 4140,
      "material": 4141,
      "animal": 4142,
      "æ´ŀ": 4143,
      "å¸¸è§ģ": 4144,
      "2019": 4145,
      "åħ¶æ¬¡": 4146,
      "ç§»åĬ¨": 4147,
      "åı¯éĿł": 4148,
      "play": 4149,
      "adi": 4150,
      "nal": 4151,
      "åĪļ": 4152,
      "perio": 4153,
      "æľīåĬ©äºİ": 4154,
      "sugges": 4155,
      "è´Ńä¹°": 4156,
      "ä¼ĳ": 4157,
      "åĨł": 4158,
      "defin": 4159,
      "equ": 4160,
      "éĴ¢": 4161,
      "å½ĵçĦ¶": 4162,
      "åĳĺå·¥": 4163,
      "reduced": 4164,
      "binding": 4165,
      "erence": 4166,
      "68": 4167,
      "è¾¨": 4168,
      "æĪĲçĨŁ": 4169,
      "models": 4170,
      "ä»·åĢ¼è§Ĥ": 4171,
      "ä¸ªäººä¿¡æģ¯": 4172,
      "Health": 4173,
      "regulation": 4174,
      "presence": 4175,
      "dist": 4176,
      "stic": 4177,
      "ç§¦": 4178,
      "conditions": 4179,
      "eu": 4180,
      "æĸ°éĹ»": 4181,
      "auto": 4182,
      "collec": 4183,
      "è·ĥ": 4184,
      "éģµå¾ª": 4185,
      "included": 4186,
      "Di": 4187,
      "survival": 4188,
      "æĥħæĦŁ": 4189,
      "obtained": 4190,
      "åįķåħĥ": 4191,
      "æĹĹ": 4192,
      "miR": 4193,
      "come": 4194,
      "contr": 4195,
      "isol": 4196,
      "èĢķ": 4197,
      "net": 4198,
      "è¿ĳå¹´æĿ¥": 4199,
      "ä¹ĭä¸Ń": 4200,
      "immuno": 4201,
      "åĩĢ": 4202,
      "äº¿åħĥ": 4203,
      "åĪĨç¦»": 4204,
      "gu": 4205,
      "åī²": 4206,
      "ism": 4207,
      "negative": 4208,
      "ä¼łæĦŁ": 4209,
      "å¤Ħç½ļ": 4210,
      "IS": 4211,
      "è¾ĵåĩº": 4212,
      "âī": 4213,
      "range": 4214,
      "èĩªè§ī": 4215,
      "è·¯çº¿": 4216,
      "ç»ĵè®º": 4217,
      "signaling": 4218,
      "äººåĬĽ": 4219,
      "çº¤": 4220,
      "æľīåĬĽ": 4221,
      "äºĭé¡¹": 4222,
      "ither": 4223,
      "çĶµè·¯": 4224,
      "NS": 4225,
      "å®ĩ": 4226,
      "expressed": 4227,
      "å·Ŀ": 4228,
      "éľĩ": 4229,
      "diagnosis": 4230,
      "åĪĴåĪĨ": 4231,
      "åľĨ": 4232,
      "äºĭæķħ": 4233,
      "single": 4234,
      "recent": 4235,
      "change": 4236,
      "è¡¥åģ¿": 4237,
      "lik": 4238,
      "æĿĢ": 4239,
      "phys": 4240,
      "å¦ĩ": 4241,
      "rat": 4242,
      "pattern": 4243,
      "éĢļçŁ¥": 4244,
      "èį·": 4245,
      "åĭĩ": 4246,
      "HD": 4247,
      "emp": 4248,
      "days": 4249,
      "è¯¾é¢ĺ": 4250,
      "phosph": 4251,
      "èĥľåĪ©": 4252,
      "Ig": 4253,
      "æī§æĶ¿": 4254,
      "æ¨¡æĭŁ": 4255,
      "æĭĵå±ķ": 4256,
      "è¡Ģç®¡": 4257,
      "local": 4258,
      "éĿŀæ³ķ": 4259,
      "éĢĤå½ĵ": 4260,
      "æı´": 4261,
      "face": 4262,
      "çĶŁåŃĺ": 4263,
      "è°ĥæİ§": 4264,
      "mRNA": 4265,
      "å®¡åĪ¤": 4266,
      "ml": 4267,
      "ç»ıåİĨ": 4268,
      "æīĢå¾Ĺ": 4269,
      "èĢĥæł¸": 4270,
      "å¤§å°ı": 4271,
      "éĩĳå±ŀ": 4272,
      "æĸĩåŃĹ": 4273,
      "è¾ĵåħ¥": 4274,
      "particular": 4275,
      "çŃīçŃī": 4276,
      "ä¹ĭå¤ĸ": 4277,
      "lifer": 4278,
      "BP": 4279,
      "because": 4280,
      "éģŃ": 4281,
      "éĤ¦": 4282,
      "ä½¿åĳ½": 4283,
      "å°ĳæķ°": 4284,
      "ä½ľä¸ļ": 4285,
      "patho": 4286,
      "66": 4287,
      "å¤ı": 4288,
      "provide": 4289,
      "éĺŁä¼į": 4290,
      "éĽ·": 4291,
      "genesis": 4292,
      "ä»£çĲĨ": 4293,
      "Sup": 4294,
      "æĩ": 4295,
      "sit": 4296,
      "åĨħåľ¨": 4297,
      "ä¹Ļ": 4298,
      "åįģåĽĽ": 4299,
      "medical": 4300,
      "again": 4301,
      "éªĮè¯ģ": 4302,
      "å·¦åı³": 4303,
      "mechanisms": 4304,
      "åħ»èĢģ": 4305,
      "å¼ºåĽ½": 4306,
      "several": 4307,
      "support": 4308,
      "uted": 4309,
      "Ca": 4310,
      "æĿ¡æ¬¾": 4311,
      "åĲĮä¸Ģ": 4312,
      "bodies": 4313,
      "involved": 4314,
      "æŀ¶æŀĦ": 4315,
      "äºĴåĬ¨": 4316,
      "çĶŁäº§åĬĽ": 4317,
      "åĲĦé¡¹": 4318,
      "membr": 4319,
      "University": 4320,
      "ç±į": 4321,
      "éĢĨ": 4322,
      "åįģå¹´": 4323,
      "æľīçĿĢ": 4324,
      "ç²®é£Ł": 4325,
      "è¿Ľå±ķ": 4326,
      "å¿½": 4327,
      "æīĢåľ¨": 4328,
      "Af": 4329,
      "neurons": 4330,
      "statis": 4331,
      "bi": 4332,
      "BS": 4333,
      "case": 4334,
      "æ¨¡åĿĹ": 4335,
      "Tr": 4336,
      "æİ¢è®¨": 4337,
      "xim": 4338,
      "ç§¯ç´¯": 4339,
      "æīĵéĢł": 4340,
      "èĭ¥å¹²": 4341,
      "transp": 4342,
      "æµª": 4343,
      "å°Ĭéĩį": 4344,
      "bal": 4345,
      "ä¸ĩåħĥ": 4346,
      "vs": 4347,
      "prolifer": 4348,
      "multiple": 4349,
      "åºĦ": 4350,
      "äººæīįåŁ¹åħ»": 4351,
      "ä¸Ģéĥ¨åĪĨ": 4352,
      "acy": 4353,
      "luco": 4354,
      "var": 4355,
      "èª": 4356,
      "quanti": 4357,
      "ked": 4358,
      "independent": 4359,
      "how": 4360,
      "etes": 4361,
      "èĦı": 4362,
      "çĪĨ": 4363,
      "å®ŀéªĮå®¤": 4364,
      "å±ķå¼Ģ": 4365,
      "é¢ĦæľŁ": 4366,
      "measured": 4367,
      "å¯ĨåĪĩ": 4368,
      "oma": 4369,
      "size": 4370,
      "åĳ½è¿Ĳ": 4371,
      "side": 4372,
      "sample": 4373,
      "serum": 4374,
      "åįģäºĮ": 4375,
      "ä½ĵéªĮ": 4376,
      "AS": 4377,
      "æĹĭ": 4378,
      "èĤī": 4379,
      "åħ¨ä¼ļ": 4380,
      "death": 4381,
      "æĬµæĬ¼": 4382,
      "59": 4383,
      "ä¹ĥ": 4384,
      "æ¢ģ": 4385,
      "è¡¥åħħ": 4386,
      "graph": 4387,
      "èĩªä¿¡": 4388,
      "mation": 4389,
      "MO": 4390,
      "å¼ºåº¦": 4391,
      "gly": 4392,
      "prot": 4393,
      "åŀĦ": 4394,
      "åĪĳæ³ķ": 4395,
      "é²ģ": 4396,
      "rece": 4397,
      "æ¢¦": 4398,
      "ä¼¯": 4399,
      "èĤ¡æĿĥ": 4400,
      "RS": 4401,
      "çĶŁæĢģçİ¯å¢ĥ": 4402,
      "åı¬å¼Ģ": 4403,
      "åľºæĻ¯": 4404,
      "Bio": 4405,
      "æŁĲç§į": 4406,
      "æİĺ": 4407,
      "èĦĤ": 4408,
      "æĢĿè·¯": 4409,
      "tro": 4410,
      "åħ´è¶£": 4411,
      "åĵªäºĽ": 4412,
      "ç»©æķĪ": 4413,
      "72": 4414,
      "èĤ¥": 4415,
      "è¾ĥä¸º": 4416,
      "64": 4417,
      "ults": 4418,
      "79": 4419,
      "æĻļ": 4420,
      "vant": 4421,
      "before": 4422,
      "åĪĽä½ľ": 4423,
      "è®¸åı¯": 4424,
      "å·¥èµĦ": 4425,
      "å¥ĳ": 4426,
      "interest": 4427,
      "å¼Ĥå¸¸": 4428,
      "stress": 4429,
      "Further": 4430,
      "52": 4431,
      "En": 4432,
      "æĳĦ": 4433,
      "large": 4434,
      "available": 4435,
      "çĽĲ": 4436,
      "æĽ´æĸ°": 4437,
      "ics": 4438,
      "ç¼´": 4439,
      "standard": 4440,
      "diseases": 4441,
      "çĶµåĬĽ": 4442,
      "åį³ä½¿": 4443,
      "demonstrated": 4444,
      "åŀĦæĸŃ": 4445,
      "pathway": 4446,
      "py": 4447,
      "çĶ¨äººåįķä½į": 4448,
      "veal": 4449,
      "äº«æľī": 4450,
      "å¹¼åĦ¿": 4451,
      "åıĳè¡Į": 4452,
      "class": 4453,
      "ç¤ºèĮĥ": 4454,
      "èĢĥå¯Ł": 4455,
      "ams": 4456,
      "functional": 4457,
      "èµ°åĲĳ": 4458,
      "é¦Ļæ¸¯": 4459,
      "els": 4460,
      "éģĹä¼ł": 4461,
      "popto": 4462,
      "æĸ¹éĴĪ": 4463,
      "ç¦»åŃĲ": 4464,
      "æ´»åĬĽ": 4465,
      "ä¾ĿéĿł": 4466,
      "ire": 4467,
      "æĹ¥å¸¸": 4468,
      "æ¹¿": 4469,
      "æ¸łéģĵ": 4470,
      "ound": 4471,
      "å·¥äºº": 4472,
      "å½¹": 4473,
      "é¢Ħç®Ĺ": 4474,
      "liver": 4475,
      "æī¹åĩĨ": 4476,
      "æī£": 4477,
      "thesis": 4478,
      "previously": 4479,
      "å½¢è±¡": 4480,
      "glo": 4481,
      "bar": 4482,
      "è·Ŀç¦»": 4483,
      "epi": 4484,
      "identify": 4485,
      "èĥģ": 4486,
      "è®¿éĹ®": 4487,
      "æ°ĳéĹ´": 4488,
      "åħ¨ä½ĵ": 4489,
      "éģĹäº§": 4490,
      "åĬłä»¥": 4491,
      "åĲĮæĦı": 4492,
      "TT": 4493,
      "èī°": 4494,
      "distrib": 4495,
      "54": 4496,
      "åºĨ": 4497,
      "ions": 4498,
      "æĿ¡ä¾ĭ": 4499,
      "åĨĽéĺŁ": 4500,
      "gluco": 4501,
      "abs": 4502,
      "ç²¾åĩĨ": 4503,
      "äººå¤§": 4504,
      "perform": 4505,
      "oper": 4506,
      "chem": 4507,
      "åĢĴ": 4508,
      "æĶ¯åĩº": 4509,
      "åį±å®³": 4510,
      "atus": 4511,
      "term": 4512,
      "å§Ķæīĺ": 4513,
      "æ¡¥": 4514,
      "appe": 4515,
      "mine": 4516,
      "cellular": 4517,
      "techn": 4518,
      "math": 4519,
      "å·©": 4520,
      "ç»´æĮģ": 4521,
      "éª¤": 4522,
      "phy": 4523,
      "ample": 4524,
      "æĸ½å·¥": 4525,
      "æ··åĲĪ": 4526,
      "å¯Įè£ķ": 4527,
      "women": 4528,
      "æī©å±ķ": 4529,
      "å¯¹åºĶ": 4530,
      "âĳł": 4531,
      "reveal": 4532,
      "ä½³": 4533,
      "å¼ķåħ¥": 4534,
      "rati": 4535,
      "ä¼łæĦŁåĻ¨": 4536,
      "mouse": 4537,
      "chronic": 4538,
      "2014": 4539,
      "mu": 4540,
      "æĭĴ": 4541,
      "verse": 4542,
      "åĮºåĿĹ": 4543,
      "ä¿¡æģ¯æĬĢæľ¯": 4544,
      "relations": 4545,
      "ied": 4546,
      "lation": 4547,
      "inten": 4548,
      "æĪª": 4549,
      "51": 4550,
      "conduc": 4551,
      "æİ¢ç©¶": 4552,
      "ä¸ºä»Ģä¹Ī": 4553,
      "adj": 4554,
      "ä¾Ŀçħ§": 4555,
      "viron": 4556,
      "æķĪåĬĽ": 4557,
      "2000": 4558,
      "èĳ£": 4559,
      "èµ¢": 4560,
      "ques": 4561,
      "åĲĦåľ°": 4562,
      "pur": 4563,
      "LD": 4564,
      "ä¾ĽåºĶéĵ¾": 4565,
      "åĬłéĢŁ": 4566,
      "å²¸": 4567,
      "âĢĻ": 4568,
      "aren": 4569,
      "result": 4570,
      "è¯±": 4571,
      "æĪĲéķ¿": 4572,
      "å¹¸": 4573,
      "characteris": 4574,
      "éĺ´": 4575,
      "anced": 4576,
      "æĹ¦": 4577,
      "ä¹łæĥ¯": 4578,
      "paramet": 4579,
      "HR": 4580,
      "ä¸įåĨį": 4581,
      "ä¸»è§Ĥ": 4582,
      "PT": 4583,
      "responses": 4584,
      "åĳ¢": 4585,
      "çº¸": 4586,
      "artic": 4587,
      "ä»Ĭå¤©": 4588,
      "å¸Ĥåľºç»ıæµİ": 4589,
      "äººçī©": 4590,
      "PC": 4591,
      "èĥ¶": 4592,
      "program": 4593,
      "imaging": 4594,
      "éī´å®ļ": 4595,
      "dered": 4596,
      "assi": 4597,
      "allow": 4598,
      "ä¸Ģä½ĵåĮĸ": 4599,
      "å°ıç»Ħ": 4600,
      "PR": 4601,
      "åĵĪ": 4602,
      "insulin": 4603,
      "experiments": 4604,
      "authors": 4605,
      "çĿĢåĬĽ": 4606,
      "ä¸Ŀ": 4607,
      "being": 4608,
      "might": 4609,
      "apopto": 4610,
      "è®¯": 4611,
      "å£®": 4612,
      "methods": 4613,
      "ED": 4614,
      "ç»Ŀå¯¹": 4615,
      "åŃĻ": 4616,
      "åŃ©": 4617,
      "possible": 4618,
      "ori": 4619,
      "pti": 4620,
      "æī¿åĮħ": 4621,
      "point": 4622,
      "çĹĩçĬ¶": 4623,
      "åĤ¬": 4624,
      "either": 4625,
      "subjects": 4626,
      "ä»£è¡¨å¤§ä¼ļ": 4627,
      "oid": 4628,
      "èµĽ": 4629,
      "try": 4630,
      "son": 4631,
      "é¥®": 4632,
      "sus": 4633,
      "Comp": 4634,
      "å§ĵ": 4635,
      "NO": 4636,
      "å·©åĽº": 4637,
      "èĥĢ": 4638,
      "åįģä¸ī": 4639,
      "åħħåĪĨåıĳæĮ¥": 4640,
      "éĻ¢æł¡": 4641,
      "improve": 4642,
      "è¿ĳä»£": 4643,
      "actions": 4644,
      "éĤ£äºĽ": 4645,
      "ains": 4646,
      "understand": 4647,
      "pec": 4648,
      "omic": 4649,
      "behavi": 4650,
      "åį«æĺŁ": 4651,
      "flow": 4652,
      "vitro": 4653,
      "åĢºæĿĥäºº": 4654,
      "åıªè¦ģ": 4655,
      "63": 4656,
      "åĪĩå®ŀ": 4657,
      "ä¸Ģæī¹": 4658,
      "2013": 4659,
      "âĳ¡": 4660,
      "cing": 4661,
      "å¥¥": 4662,
      "ä¸½": 4663,
      "æ¨ª": 4664,
      "heart": 4665,
      "è½´": 4666,
      "inu": 4667,
      "å¤º": 4668,
      "Im": 4669,
      "æĪ¿å±ĭ": 4670,
      "é«ĺçº§": 4671,
      "ele": 4672,
      "ä¼¦çĲĨ": 4673,
      "åľ°çĲĥ": 4674,
      "åħ¨åħļ": 4675,
      "tumors": 4676,
      "molecular": 4677,
      "light": 4678,
      "arr": 4679,
      "ç»ª": 4680,
      "æĥ©": 4681,
      "ior": 4682,
      "å¹¶éĿŀ": 4683,
      "åĽłåŃĲ": 4684,
      "çİī": 4685,
      "88": 4686,
      "considered": 4687,
      "four": 4688,
      "å«": 4689,
      "æĿĨ": 4690,
      "ç¬¬åħŃ": 4691,
      "ä¼¸": 4692,
      "åĲĪæĪĲ": 4693,
      "é¦ĸæ¬¡": 4694,
      "breast": 4695,
      "ury": 4696,
      "èĸĦ": 4697,
      "IN": 4698,
      "against": 4699,
      "individuals": 4700,
      "å£ģ": 4701,
      "æĬ½è±¡": 4702,
      "On": 4703,
      "hospital": 4704,
      "èĢĥè¯ķ": 4705,
      "production": 4706,
      "tegr": 4707,
      "æ¸Ĺ": 4708,
      "analyzed": 4709,
      "è¯ķçĤ¹": 4710,
      "ä»°": 4711,
      "amine": 4712,
      "determine": 4713,
      "markers": 4714,
      "ector": 4715,
      "å¤§è§Ħæ¨¡": 4716,
      "pi": 4717,
      "aim": 4718,
      "éĴŁ": 4719,
      "likely": 4720,
      "pul": 4721,
      "å¢¨": 4722,
      "çĤ¼": 4723,
      "æ²ŁéĢļ": 4724,
      "stit": 4725,
      "loss": 4726,
      "EGF": 4727,
      "å°ģå»º": 4728,
      "02": 4729,
      "èĳĹä½ľ": 4730,
      "æ¾³": 4731,
      "ä¸»ç®¡": 4732,
      "åĮ»éĻ¢": 4733,
      "histo": 4734,
      "ç»ıå¸¸": 4735,
      "Cell": 4736,
      "æĽ¿ä»£": 4737,
      "determined": 4738,
      "BC": 4739,
      "77": 4740,
      "mediated": 4741,
      "å¿Ĩ": 4742,
      "mission": 4743,
      "compon": 4744,
      "extrac": 4745,
      "åĬŀçĲĨ": 4746,
      "ç§ĭ": 4747,
      "confir": 4748,
      "antibody": 4749,
      "lear": 4750,
      "æľīäºĽ": 4751,
      "row": 4752,
      "å®«": 4753,
      "èķ": 4754,
      "æıŃç¤º": 4755,
      "detected": 4756,
      "ually": 4757,
      "åľĪ": 4758,
      "decreased": 4759,
      "ä¸įè¿ĩ": 4760,
      "æĸ°åħ´": 4761,
      "pain": 4762,
      "participants": 4763,
      "åĩºçīĪç¤¾": 4764,
      "lip": 4765,
      "åĲ¯åĬ¨": 4766,
      "asing": 4767,
      "arter": 4768,
      "na": 4769,
      "calcul": 4770,
      "åĬłåħ¥": 4771,
      "bacter": 4772,
      "top": 4773,
      "mutations": 4774,
      "defic": 4775,
      "åĬ³åĬ¨åĬĽ": 4776,
      "æ³ķåĽ½": 4777,
      "ä¼Ļ": 4778,
      "ä»ģ": 4779,
      "comes": 4780,
      "docu": 4781,
      "è§Ĩä¸º": 4782,
      "æ¸¡": 4783,
      "éĽ¨": 4784,
      "Research": 4785,
      "62": 4786,
      "èļ": 4787,
      "ä¸Ģå¸¦": 4788,
      "block": 4789,
      "å°ıåº·": 4790,
      "relationship": 4791,
      "é©¾": 4792,
      "ç«ŀäºīåĬĽ": 4793,
      "æĻ°": 4794,
      "according": 4795,
      "æŁ±": 4796,
      "æİĪæĿĥ": 4797,
      "eral": 4798,
      "carcin": 4799,
      "èħº": 4800,
      "å¼ķåıĳ": 4801,
      "antibodies": 4802,
      "æ´¥": 4803,
      "resistance": 4804,
      "months": 4805,
      "æŃ¥éª¤": 4806,
      "éĩĩè´Ń": 4807,
      "æŀģå¤§": 4808,
      "èĤ¾": 4809,
      "åĪ¶çº¦": 4810,
      "struct": 4811,
      "environ": 4812,
      "2012": 4813,
      "expl": 4814,
      "æ¯ķä¸ļ": 4815,
      "å®¡çĲĨ": 4816,
      "é¢ĳçİĩ": 4817,
      "ç¼ºéĻ·": 4818,
      "life": 4819,
      "BM": 4820,
      "è§£éĻ¤": 4821,
      "æļĤ": 4822,
      "TR": 4823,
      "æľ±": 4824,
      "éĽĦ": 4825,
      "æ¬²": 4826,
      "diabetes": 4827,
      "ot": 4828,
      "é¥°": 4829,
      "2010": 4830,
      "å±ķç¤º": 4831,
      "äº§ä¸ļéĵ¾": 4832,
      "ç´§å¯Ĩ": 4833,
      "å¤ĸäº¤": 4834,
      "å½ĵåľ°": 4835,
      "tration": 4836,
      "æĹłæķĪ": 4837,
      "éħĴ": 4838,
      "åĪĿæŃ¥": 4839,
      "åī©": 4840,
      "metast": 4841,
      "old": 4842,
      "infected": 4843,
      "ç»ĵæĿŁ": 4844,
      "æ¶ĪéĻ¤": 4845,
      "put": 4846,
      "assay": 4847,
      "åĩ¡": 4848,
      "see": 4849,
      "åľ£": 4850,
      "73": 4851,
      "åħļåĨħ": 4852,
      "éĢĤåĲĪ": 4853,
      "æ³ķäºº": 4854,
      "è¿İ": 4855,
      "dex": 4856,
      "ä¸ĢçĤ¹": 4857,
      "éĩıåŃĲ": 4858,
      "å¤ªéĺ³": 4859,
      "éĩĳèŀįæľºæŀĦ": 4860,
      "åĮºåĪĨ": 4861,
      "dose": 4862,
      "åĪºæ¿Ģ": 4863,
      "symptoms": 4864,
      "åİŁåŃĲ": 4865,
      "åĩłä¹İ": 4866,
      "lympho": 4867,
      "glucose": 4868,
      "beta": 4869,
      "ç¼ĸåĪ¶": 4870,
      "fn": 4871,
      "èĭĹ": 4872,
      "ening": 4873,
      "æĿ¨": 4874,
      "åı«": 4875,
      "weight": 4876,
      "pha": 4877,
      "å´ĩ": 4878,
      "åıĺæĽ´": 4879,
      "Our": 4880,
      "atin": 4881,
      "organ": 4882,
      "admin": 4883,
      "äººæ°ĳæĶ¿åºľ": 4884,
      "æĿĥå¨ģ": 4885,
      "verage": 4886,
      "analyses": 4887,
      "LR": 4888,
      "derived": 4889,
      "è§Ĵèī²": 4890,
      "example": 4891,
      "controls": 4892,
      "document": 4893,
      "å»ºæŀĦ": 4894,
      "61": 4895,
      "period": 4896,
      "èĦ±è´«": 4897,
      "æĢİæł·": 4898,
      "æĶ¿åħļ": 4899,
      "ize": 4900,
      "mito": 4901,
      "Although": 4902,
      "ä¼Ĭ": 4903,
      "åģĩè®¾": 4904,
      "åĿĲ": 4905,
      "è¾Ĳ": 4906,
      "las": 4907,
      "çŃ¾è®¢": 4908,
      "âĢĺ": 4909,
      "åİŁå§ĭ": 4910,
      "çĭ¬çī¹": 4911,
      "back": 4912,
      "æĮĸ": 4913,
      "éĶģ": 4914,
      "difference": 4915,
      "DM": 4916,
      "regulated": 4917,
      "åı°æ¹¾": 4918,
      "éħ¬": 4919,
      "contrast": 4920,
      "å¤§éĥ¨åĪĨ": 4921,
      "commun": 4922,
      "æ¼ı": 4923,
      "è®ºè¿°": 4924,
      "eline": 4925,
      "èĢĲ": 4926,
      "strong": 4927,
      "è£ħå¤ĩ": 4928,
      "membrane": 4929,
      "association": 4930,
      "oxid": 4931,
      "cat": 4932,
      "åľ°äº§": 4933,
      "key": 4934,
      "stage": 4935,
      "ä¸ªæĢ§": 4936,
      "åºĶæĢ¥": 4937,
      "ä¸ľè¥¿": 4938,
      "cause": 4939,
      "æĶ»åĩ»": 4940,
      "ä»£çłģ": 4941,
      "é¡¿": 4942,
      "ä¸Ĭå¸Ĥ": 4943,
      "æģĴ": 4944,
      "åĬ³åĬ¨åĲĪåĲĮ": 4945,
      "ä¹ĺ": 4946,
      "71": 4947,
      "85": 4948,
      "03": 4949,
      "èĥ¡": 4950,
      "åĮ¹": 4951,
      "fail": 4952,
      "More": 4953,
      "pepti": 4954,
      "ä¿®å¤į": 4955,
      "å¸¸çĶ¨": 4956,
      "estab": 4957,
      "åĩŃ": 4958,
      "èģĮå·¥": 4959,
      "lines": 4960,
      "å·®è·Ŀ": 4961,
      "å²©": 4962,
      "asp": 4963,
      "via": 4964,
      "åºıåĪĹ": 4965,
      "éªĹ": 4966,
      "ables": 4967,
      "éĩįå¤į": 4968,
      "vivo": 4969,
      "ä¸Ńåħ±ä¸Ńå¤®": 4970,
      "pheno": 4971,
      "ï¼ģ": 4972,
      "æ½ľåľ¨": 4973,
      "eld": 4974,
      "åħ¨å±Ģ": 4975,
      "æłĳç«ĭ": 4976,
      "æĳĨ": 4977,
      "ä¸Ńåħ¨ä¼ļ": 4978,
      "åĢ¼å¾Ĺ": 4979,
      "æĬķèµĦèĢħ": 4980,
      "idence": 4981,
      "åĨįæ¬¡": 4982,
      "åĪ¶ä½ľ": 4983,
      "strateg": 4984,
      "IR": 4985,
      "çĽĳå¯Ł": 4986,
      "è®¤åĲĮ": 4987,
      "TA": 4988,
      "ä¼łæī¿": 4989,
      "help": 4990,
      "bel": 4991,
      "andom": 4992,
      "76": 4993,
      "çĶ·": 4994,
      "åįļå£«": 4995,
      "âĢ²": 4996,
      "exposure": 4997,
      "utr": 4998,
      "æŃ£å½ĵ": 4999,
      "æŃ£ä¹ī": 5000,
      "çİ°çĬ¶": 5001,
      "antigen": 5002,
      "family": 5003,
      "Se": 5004,
      "å¿ł": 5005,
      "å¾Ĵ": 5006,
      "åħ¬åħ±æľįåĬ¡": 5007,
      "ength": 5008,
      "integr": 5009,
      "Pr": 5010,
      "ä¸Ģè·¯": 5011,
      "mid": 5012,
      "å¥ł": 5013,
      "æľªæĪĲ": 5014,
      "éĩĬæĶ¾": 5015,
      "éĤĵ": 5016,
      "æķħäºĭ": 5017,
      "rial": 5018,
      "äººæĸĩ": 5019,
      "ç»ĦæĪĲéĥ¨åĪĨ": 5020,
      "bers": 5021,
      "infec": 5022,
      "æ°ĳæ³ķåħ¸": 5023,
      "åıī": 5024,
      "åķĨåĬ¡": 5025,
      "éĢīä¸¾": 5026,
      "èĤ¯": 5027,
      "pressure": 5028,
      "bone": 5029,
      "æģ°": 5030,
      "amo": 5031,
      "asis": 5032,
      "ellular": 5033,
      "å¤§åĽ½": 5034,
      "åħ¨çĲĥåĮĸ": 5035,
      "åĲĮæŃ¥": 5036,
      "Data": 5037,
      "åĢ¾åĲĳ": 5038,
      "å¤įåĲĪ": 5039,
      "bility": 5040,
      "æĻĭ": 5041,
      "2022": 5042,
      "åĬ¨æľº": 5043,
      "æĸĩæľ¬": 5044,
      "ick": 5045,
      "æľįåĬ¡åĻ¨": 5046,
      "sk": 5047,
      "å¨ģèĥģ": 5048,
      "GG": 5049,
      "various": 5050,
      "å¹²é¢Ħ": 5051,
      "è°ģ": 5052,
      "æķ¢": 5053,
      "æİ¥è§¦": 5054,
      "itive": 5055,
      "EP": 5056,
      "åħ¶å®ĥ": 5057,
      "chond": 5058,
      "atively": 5059,
      "å¤§åŀĭ": 5060,
      "åĸľ": 5061,
      "ä¸Ģä»£": 5062,
      "therapeu": 5063,
      "èĭ±è¯Ń": 5064,
      "tw": 5065,
      "percent": 5066,
      "nat": 5067,
      "fibro": 5068,
      "åĨľäº§åĵģ": 5069,
      "æµģéĢļ": 5070,
      "developed": 5071,
      "Sci": 5072,
      "éħįåĲĪ": 5073,
      "åĩĨåĪĻ": 5074,
      "æ°¨": 5075,
      "off": 5076,
      "å²Ĺä½į": 5077,
      "èĲ¥åħ»": 5078,
      "åįłæľī": 5079,
      "MRI": 5080,
      "cale": 5081,
      "err": 5082,
      "çĸĨ": 5083,
      "ä¸Ģå¹´": 5084,
      "åĵįåºĶ": 5085,
      "æµĻ": 5086,
      "include": 5087,
      "èĭıèģĶ": 5088,
      "defined": 5089,
      "åħ¬æŃ£": 5090,
      "å±Ģéĥ¨": 5091,
      "èĻ«": 5092,
      "sistent": 5093,
      "ç¬ĶèĢħ": 5094,
      "åĩºåı°": 5095,
      "times": 5096,
      "--------------------": 5097,
      "atten": 5098,
      "ators": 5099,
      "ä¼łéĢĴ": 5100,
      "proced": 5101,
      "è¯¦ç»Ĩ": 5102,
      "äººæł¼": 5103,
      "atures": 5104,
      "coh": 5105,
      "æī¹åĪ¤": 5106,
      "çĲĨçĶ±": 5107,
      "98": 5108,
      "quality": 5109,
      "æ´Ľ": 5110,
      "åĭĴ": 5111,
      "ople": 5112,
      "injury": 5113,
      "éŁ©": 5114,
      "tissues": 5115,
      "know": 5116,
      "æł·æľ¬": 5117,
      "ice": 5118,
      "äººæ°ĳå¸ģ": 5119,
      "network": 5120,
      "åĨ³è®®": 5121,
      "æĦĪ": 5122,
      "modi": 5123,
      "æ¯«": 5124,
      "èĤł": 5125,
      "indicated": 5126,
      "æ°ĳçĶŁ": 5127,
      "åıĻ": 5128,
      "éĺ²æ²»": 5129,
      "æµĵåº¦": 5130,
      "ç¬¬ä¸Ģä¸ª": 5131,
      "ç¨³å®ļæĢ§": 5132,
      "score": 5133,
      "åĿĩè¡¡": 5134,
      "plasma": 5135,
      "åħļåĴĮåĽ½å®¶": 5136,
      "èµģ": 5137,
      "è²": 5138,
      "é©¶": 5139,
      "è¡Ķ": 5140,
      "çºªå¾ĭ": 5141,
      "arch": 5142,
      "æīİ": 5143,
      "ä¸įå°ĳ": 5144,
      "them": 5145,
      "rs": 5146,
      "äº®": 5147,
      "uration": 5148,
      "æľīåºı": 5149,
      "ç§Łèµģ": 5150,
      "medic": 5151,
      "é«ĺçŃīæķĻèĤ²": 5152,
      "çŃīçº§": 5153,
      "æĦıå¿Ĺ": 5154,
      "åįķä¸Ģ": 5155,
      "çŁ©": 5156,
      "oles": 5157,
      "status": 5158,
      "èµĦæł¼": 5159,
      "å¤§å¹ħ": 5160,
      "åĲİæŀľ": 5161,
      "å¦»": 5162,
      "74": 5163,
      "æī¾åĪ°": 5164,
      "æ»ĳ": 5165,
      "itor": 5166,
      "èŀįåħ¥": 5167,
      "æĮĩæķ°": 5168,
      "viral": 5169,
      "HB": 5170,
      "åĿļåĨ³": 5171,
      "åŃ©åŃĲ": 5172,
      "åĲ¸å¼ķ": 5173,
      "åĢŁéī´": 5174,
      "orders": 5175,
      "500": 5176,
      "è§Ĩè§Ĵ": 5177,
      "æī¹è¯Ħ": 5178,
      "tory": 5179,
      "place": 5180,
      "è®¤è¯ģ": 5181,
      "area": 5182,
      "severe": 5183,
      "oxy": 5184,
      "alpha": 5185,
      "åĲİæĿ¥": 5186,
      "è¿Ŀçº¦": 5187,
      "proble": 5188,
      "ç¦ģæŃ¢": 5189,
      "å¾¡": 5190,
      "åħ¶å®ŀ": 5191,
      "è¾ħåĬ©": 5192,
      "ç«ĭåľº": 5193,
      "åĢºåĬ¡äºº": 5194,
      "èĵĿ": 5195,
      "least": 5196,
      "pone": 5197,
      "èµĭäºĪ": 5198,
      "åĲ´": 5199,
      "methyl": 5200,
      "her": 5201,
      "çº¿æĢ§": 5202,
      "å¯Ĩåº¦": 5203,
      "cyte": 5204,
      "ML": 5205,
      "çī©æĿĥ": 5206,
      "Cl": 5207,
      "ä¸»å¸Ń": 5208,
      "proliferation": 5209,
      "acute": 5210,
      "phase": 5211,
      "å¤©ä¸ĭ": 5212,
      "tially": 5213,
      "åĽ½å¤ĸ": 5214,
      "outcomes": 5215,
      "æįķ": 5216,
      "åľ°åĿĢ": 5217,
      "è¿ĺè¦ģ": 5218,
      "è¾¾æĪĲ": 5219,
      "tically": 5220,
      "åĲĦèĩª": 5221,
      "FA": 5222,
      "public": 5223,
      "çĽ¸ä¼¼": 5224,
      "åŃ¦å®¶": 5225,
      "ä¾µå®³": 5226,
      "social": 5227,
      "ä»£è°¢": 5228,
      "æ¸ħæ¥ļ": 5229,
      "ç®Ģç§°": 5230,
      "ä¸ĭåĪĹ": 5231,
      "free": 5232,
      "æīĢæľīæĿĥ": 5233,
      "å¤§åŃ¦çĶŁ": 5234,
      "ç»ıåħ¸": 5235,
      "regard": 5236,
      "è¯Ī": 5237,
      "general": 5238,
      "96": 5239,
      "ç²ī": 5240,
      "æĶ¿æĿĥ": 5241,
      "çīĽ": 5242,
      "æĺ¯ä»İ": 5243,
      "Ar": 5244,
      "08": 5245,
      "çīĻ": 5246,
      "æĢ»éĩı": 5247,
      "Dis": 5248,
      "WT": 5249,
      "muscle": 5250,
      "è½½ä½ĵ": 5251,
      "techniqu": 5252,
      "åīĬ": 5253,
      "åħ±è¯Ĩ": 5254,
      "çĥ§": 5255,
      "invas": 5256,
      "æĪĲåĪĨ": 5257,
      "å®Ļ": 5258,
      "æľīæĿĥ": 5259,
      "mort": 5260,
      "ances": 5261,
      "2008": 5262,
      "æĶ»åĿļ": 5263,
      "sci": 5264,
      "conf": 5265,
      "ratio": 5266,
      "mechanism": 5267,
      "clear": 5268,
      "ç¾İå¥½": 5269,
      "è¾Ĳå°Ħ": 5270,
      "ï½ŀ": 5271,
      "Supplementary": 5272,
      "Î³": 5273,
      "èªī": 5274,
      "çº¤ç»´": 5275,
      "ably": 5276,
      "scre": 5277,
      "ines": 5278,
      "regions": 5279,
      "è¸ª": 5280,
      "ç¬¬ä¸Ģæ¬¡": 5281,
      "NK": 5282,
      "sensitivity": 5283,
      "MT": 5284,
      "valid": 5285,
      "ä¸įèī¯": 5286,
      "So": 5287,
      "cost": 5288,
      "rap": 5289,
      "Ph": 5290,
      "HA": 5291,
      "ç§ĺå¯Ĩ": 5292,
      "é¼ł": 5293,
      "åĴ¨": 5294,
      "bene": 5295,
      "èĦļ": 5296,
      "è¾©è¯ģ": 5297,
      "æ¦Ĥæĭ¬": 5298,
      "èº«ä½ĵ": 5299,
      "vent": 5300,
      "æ»ŀ": 5301,
      "éļıæľº": 5302,
      "æłĩåĩĨåĮĸ": 5303,
      "éĩįè¦ģæĢ§": 5304,
      "çĵ¦": 5305,
      "å·²æľī": 5306,
      "ä¸ĢæĹ¦": 5307,
      "çİ¯å¢ĥä¿ĿæĬ¤": 5308,
      "çº³ç¨İ": 5309,
      "At": 5310,
      "å¤ĸåĽ½": 5311,
      "report": 5312,
      "plication": 5313,
      "propo": 5314,
      "incub": 5315,
      "random": 5316,
      "aged": 5317,
      "dam": 5318,
      "è¿Ī": 5319,
      "èĩ³å°ĳ": 5320,
      "é¢Ĺ": 5321,
      "classi": 5322,
      "çĥŁ": 5323,
      "ä¼ı": 5324,
      "å¹´é¾Ħ": 5325,
      "é«ĺéĢŁ": 5326,
      "clusion": 5327,
      "required": 5328,
      "æĪ¿åľ°äº§": 5329,
      "aneous": 5330,
      "even": 5331,
      "lant": 5332,
      "bu": 5333,
      "healthy": 5334,
      "urs": 5335,
      "chemo": 5336,
      "ç¤¾ä¼ļç§ĳåŃ¦": 5337,
      "BD": 5338,
      "åģ¶": 5339,
      "çĸı": 5340,
      "å¤ļæł·æĢ§": 5341,
      "å®ĩå®Ļ": 5342,
      "frequency": 5343,
      "åĲįç§°": 5344,
      "å¡«": 5345,
      "surface": 5346,
      "often": 5347,
      "EL": 5348,
      "æĦıæĢĿ": 5349,
      "å¤§å¤§": 5350,
      "Thus": 5351,
      "ores": 5352,
      "åĲī": 5353,
      "å¯¹æ¯Ķ": 5354,
      "inflammation": 5355,
      "FP": 5356,
      "effici": 5357,
      "dys": 5358,
      "å»ī": 5359,
      "length": 5360,
      "agement": 5361,
      "effective": 5362,
      "æĦıè¯Ĩå½¢æĢģ": 5363,
      "ian": 5364,
      "æĥħå¢ĥ": 5365,
      "æ¯ıå¹´": 5366,
      "however": 5367,
      "æķıæĦŁ": 5368,
      "æī¶è´«": 5369,
      "prob": 5370,
      "é²ľæĺİ": 5371,
      "pathways": 5372,
      "åīįè¿Ľ": 5373,
      "ste": 5374,
      "æ¥¼": 5375,
      "ç¨¿": 5376,
      "appear": 5377,
      "ina": 5378,
      "lit": 5379,
      "æī«": 5380,
      "cm": 5381,
      "mains": 5382,
      "å¾Ĺä»¥": 5383,
      "èĩ£": 5384,
      "æįŁä¼¤": 5385,
      "æī©å¼ł": 5386,
      "aw": 5387,
      "å¤ĦåĪĨ": 5388,
      "äºĶå¹´": 5389,
      "å¤Ħç½®": 5390,
      "è°·": 5391,
      "åĶ¯çī©": 5392,
      "å¤§å®¶": 5393,
      "2011": 5394,
      "é«ĺäºİ": 5395,
      "ä¸¤èĢħ": 5396,
      "çĶĺ": 5397,
      "across": 5398,
      "è¿Ľåı£": 5399,
      "è®¤çľŁ": 5400,
      "igr": 5401,
      "toxic": 5402,
      "pen": 5403,
      "GC": 5404,
      "ä¸¾æİª": 5405,
      "Ab": 5406,
      "åħ±åĲĮå¯Įè£ķ": 5407,
      "å¸¦åĬ¨": 5408,
      "matic": 5409,
      "å¸ĿåĽ½": 5410,
      "å®ŀæĹ¶": 5411,
      "uses": 5412,
      "systems": 5413,
      "æĲľ": 5414,
      "fat": 5415,
      "åĶ¯ä¸Ģ": 5416,
      "ht": 5417,
      "æĥħèĬĤ": 5418,
      "GDP": 5419,
      "ison": 5420,
      "sal": 5421,
      "æ°Ķä½ĵ": 5422,
      "è¾Ĩ": 5423,
      "æĴ¤éĶĢ": 5424,
      "è£ħç½®": 5425,
      "kg": 5426,
      "MC": 5427,
      "After": 5428,
      "therapeutic": 5429,
      "AA": 5430,
      "physi": 5431,
      "ä¸īç§į": 5432,
      "åĵģçīĮ": 5433,
      "psych": 5434,
      "mortality": 5435,
      "lack": 5436,
      "Le": 5437,
      "å¤©çĦ¶": 5438,
      "æ¬¢": 5439,
      "æİ¥æĶ¶": 5440,
      "ä¸§": 5441,
      "ä¸ŃéĹ´": 5442,
      "tak": 5443,
      "åĽ¢ä½ĵ": 5444,
      "æ¸ħæĻ°": 5445,
      "æīĢç¤º": 5446,
      "Ser": 5447,
      "ç§ĳåŃ¦å®¶": 5448,
      "etal": 5449,
      "ç¨İåĬ¡": 5450,
      "å°ļæľª": 5451,
      "ä¼ª": 5452,
      "ä¿¡ä»°": 5453,
      "ç©ºæ°Ķ": 5454,
      "è¯Ńæĸĩ": 5455,
      "abo": 5456,
      "çļĨ": 5457,
      "çĪ±åĽ½": 5458,
      "æ³ķå®ĺ": 5459,
      "åĪĨå·¥": 5460,
      "04": 5461,
      "å¯¹æŃ¤": 5462,
      "site": 5463,
      "concentration": 5464,
      "éĺĶ": 5465,
      "éĨĴ": 5466,
      "æŃ¤æĹ¶": 5467,
      "åĽŀçŃĶ": 5468,
      "åĪĽéĢłæĢ§": 5469,
      "ç¬¦åı·": 5470,
      "supplementary": 5471,
      "åĨ²åĩ»": 5472,
      "TNF": 5473,
      "æľºéģĩ": 5474,
      "æ±ĩçİĩ": 5475,
      "cence": 5476,
      "åĨ°": 5477,
      "é»ĺ": 5478,
      "åĲĪå¹¶": 5479,
      "Pre": 5480,
      "åĴ¨è¯¢": 5481,
      "é¢ģ": 5482,
      "graphy": 5483,
      "ä¹³": 5484,
      "è´¢å¯Į": 5485,
      "sequence": 5486,
      "éĺ²èĮĥ": 5487,
      "self": 5488,
      "ä¸ģ": 5489,
      "è²Į": 5490,
      "09": 5491,
      "people": 5492,
      "èĢģå¸Ī": 5493,
      "89": 5494,
      "revealed": 5495,
      "é«ĵ": 5496,
      "çİ¯ä¿Ŀ": 5497,
      "ject": 5498,
      "ule": 5499,
      "è¾¹çķĮ": 5500,
      "cript": 5501,
      "åıĺæĪĲ": 5502,
      "åĵģè´¨": 5503,
      "inhibition": 5504,
      "å§Ķä¼ļ": 5505,
      "åıĳè¾¾åĽ½å®¶": 5506,
      "åıĳçĶµ": 5507,
      "éĻ¶": 5508,
      "è§Ĥæµĭ": 5509,
      "æİ¥åı£": 5510,
      "èģĶåĲĪåĽ½": 5511,
      "å·§": 5512,
      "secre": 5513,
      "åĢºåĪ¸": 5514,
      "åıł": 5515,
      "Rec": 5516,
      "çķ´": 5517,
      "macroph": 5518,
      "drome": 5519,
      "èľ": 5520,
      "2009": 5521,
      "elect": 5522,
      "condition": 5523,
      "åİĨåı²æĢ§": 5524,
      "å¼ĺ": 5525,
      "ä¸ĵé¡¹": 5526,
      "åıĳèĤ²": 5527,
      "ç¹ģèį£": 5528,
      "rates": 5529,
      "æľºåĻ¨äºº": 5530,
      "containing": 5531,
      "exten": 5532,
      "æĭ¿": 5533,
      "èĬ¯": 5534,
      "ledge": 5535,
      "è´§çī©": 5536,
      "é¦Ī": 5537,
      "provided": 5538,
      "å¼ºçĥĪ": 5539,
      "correlation": 5540,
      "US": 5541,
      "ä¸»ä»»": 5542,
      "æĦŁåıĹ": 5543,
      "è´Ŀ": 5544,
      "continu": 5545,
      "den": 5546,
      "æ´ª": 5547,
      "ç¼ĸè¾ĳ": 5548,
      "lied": 5549,
      "enter": 5550,
      "progression": 5551,
      "tain": 5552,
      "å½¼": 5553,
      "æĮĩæĮ¥": 5554,
      "æĤī": 5555,
      "Com": 5556,
      "vice": 5557,
      "ume": 5558,
      "presented": 5559,
      "è½¬åĲĳ": 5560,
      "hold": 5561,
      "é±": 5562,
      "è°ĥè§£": 5563,
      "èĮ¶": 5564,
      "åıĳæĺİ": 5565,
      "åĨįçĶŁ": 5566,
      "éĺĲè¿°": 5567,
      "cept": 5568,
      "ç¡¬ä»¶": 5569,
      "äº§çī©": 5570,
      "è¯Ŀè¯Ń": 5571,
      "èħĶ": 5572,
      "USA": 5573,
      "å·¥ä¸ļåĮĸ": 5574,
      "leu": 5575,
      "domin": 5576,
      "çģµæ´»": 5577,
      "relative": 5578,
      "åħ¬çĽĬ": 5579,
      "å°Ŀ": 5580,
      "iat": 5581,
      "transf": 5582,
      "...": 5583,
      "æľīäºº": 5584,
      "ä½İäºİ": 5585,
      "å±ĢéĿ¢": 5586,
      "é±¼": 5587,
      "receptors": 5588,
      "smo": 5589,
      "æľªæĪĲå¹´äºº": 5590,
      "weeks": 5591,
      "å®ŀåĬĽ": 5592,
      "stimulation": 5593,
      "âĳ¢": 5594,
      "criter": 5595,
      "EN": 5596,
      "æĬĹæĹ¥": 5597,
      "ists": 5598,
      "éĩĩéĽĨ": 5599,
      "åĳ¼åĲ¸": 5600,
      "æİĴéĻ¤": 5601,
      "images": 5602,
      "assessed": 5603,
      "additional": 5604,
      "è¿Ł": 5605,
      "åĬŀåħ¬": 5606,
      "æ»¤": 5607,
      "fem": 5608,
      "åĲ«ä¹ī": 5609,
      "Mo": 5610,
      "éĢļéģĵ": 5611,
      "èµ·è¯ī": 5612,
      "è®°å¿Ĩ": 5613,
      "dat": 5614,
      "ç«ĭè¶³": 5615,
      "characteristics": 5616,
      "çłĶç©¶æīĢ": 5617,
      "éĤ»": 5618,
      "onic": 5619,
      "æ¡£æ¡Ī": 5620,
      "èĤ¡ç¥¨": 5621,
      "æģĲ": 5622,
      "çĽĳæİ§": 5623,
      "suff": 5624,
      "apoptosis": 5625,
      "æ£®æŀĹ": 5626,
      "kine": 5627,
      "äººç¾¤": 5628,
      "çł´äº§": 5629,
      "æľ¬ä¹¦": 5630,
      "ale": 5631,
      "åĲĪçī©": 5632,
      "å¹²æī°": 5633,
      "èµ·åĪ°": 5634,
      "gery": 5635,
      "èĳ£äºĭ": 5636,
      "preval": 5637,
      "later": 5638,
      "âĢķ": 5639,
      "itation": 5640,
      "å¹¸ç¦ı": 5641,
      "ä¼Ĳ": 5642,
      "utes": 5643,
      "æ·»": 5644,
      "å¡Ķ": 5645,
      "SCs": 5646,
      "fit": 5647,
      "å¥ı": 5648,
      "æ¶¨": 5649,
      "åįģåħŃ": 5650,
      "äººä¸º": 5651,
      "differentiation": 5652,
      "èĩªåĬ¨åĮĸ": 5653,
      "given": 5654,
      "oph": 5655,
      "suc": 5656,
      "ä¾Ŀæ³ķæ²»": 5657,
      "ä¾Ŀæ³ķæ²»åĽ½": 5658,
      "cognitive": 5659,
      "è¯¸å¤ļ": 5660,
      "Therefore": 5661,
      "åħĪåĲİ": 5662,
      "æİ¥è¿ĳ": 5663,
      "mb": 5664,
      "ç»´åº¦": 5665,
      "æĪĲæķĪ": 5666,
      "pt": 5667,
      "######": 5668,
      "ç¿»è¯ĳ": 5669,
      "æ¸¸æĪı": 5670,
      "ä»Ĭå¹´": 5671,
      "å¤§æ°Ķ": 5672,
      "çİ°åľº": 5673,
      "distribution": 5674,
      "èĮĥçķ´": 5675,
      "è¾Ł": 5676,
      "accur": 5677,
      "coll": 5678,
      "åµ": 5679,
      "position": 5680,
      "å¥łå®ļ": 5681,
      "Can": 5682,
      "è´Łæĭħ": 5683,
      "åĩĿèģļ": 5684,
      "åģļæ³ķ": 5685,
      "æ¯Ķéĩį": 5686,
      "estim": 5687,
      "hol": 5688,
      "å¾®çĶŁçī©": 5689,
      "disorders": 5690,
      "è¶ħè¶Ĭ": 5691,
      "ä½įäºİ": 5692,
      "het": 5693,
      "cardio": 5694,
      "æĭį": 5695,
      "æīĭæľ¯": 5696,
      "1000": 5697,
      "impact": 5698,
      "ç§įç±»": 5699,
      "åı¯èĥ½æĢ§": 5700,
      "æĲŀ": 5701,
      "åĲ«éĩı": 5702,
      "ä»¥åīį": 5703,
      "è®²è¯Ŀ": 5704,
      "æĮĩåįĹ": 5705,
      "æµ®": 5706,
      "remain": 5707,
      "æĮĸæİĺ": 5708,
      "åĿ¦": 5709,
      "åħļçļĦé¢Ĩå¯¼": 5710,
      "æĽ²çº¿": 5711,
      "éļĨ": 5712,
      "activated": 5713,
      "çĶ¨åľ°": 5714,
      "Pati": 5715,
      "æ³¥": 5716,
      "ands": 5717,
      "ä¸įåĪ°": 5718,
      "æĻºèĥ½åĮĸ": 5719,
      "ç½ĳç»ľå®īåħ¨": 5720,
      "æıĲäº¤": 5721,
      "æĺ¯åĽłä¸º": 5722,
      "äº¤åıī": 5723,
      "æĦŁçŁ¥": 5724,
      "å¤ļæ¬¡": 5725,
      "sum": 5726,
      "cardiac": 5727,
      "grad": 5728,
      "cour": 5729,
      "æľįåĬ¡ä¸ļ": 5730,
      "300": 5731,
      "xed": 5732,
      "SO": 5733,
      "86": 5734,
      "æ³ķåŃ¦": 5735,
      "èįĲ": 5736,
      "æĮĩå®ļ": 5737,
      "generation": 5738,
      "æĽ´æĺ¯": 5739,
      "å±ĢéĻĲ": 5740,
      "round": 5741,
      "whereas": 5742,
      "è¾ŀ": 5743,
      "å¸ĤåľºåĮĸ": 5744,
      "åĬ¨äº§": 5745,
      "proto": 5746,
      "enzy": 5747,
      "greater": 5748,
      "åĨħåŃĺ": 5749,
      "æıĲèµ·": 5750,
      "è½¨éģĵ": 5751,
      "åıĺåĬ¨": 5752,
      "ä¸ĭæĿ¥": 5753,
      "ç®¡è¾ĸ": 5754,
      "ä»ĵ": 5755,
      "åĩºèµĦ": 5756,
      "ä¿®è®¢": 5757,
      "mol": 5758,
      "çªģåıĺ": 5759,
      "Furthermore": 5760,
      "è¡Ķæİ¥": 5761,
      "mono": 5762,
      "éĵģè·¯": 5763,
      "ç§ĳåŃ¦æĬĢæľ¯": 5764,
      "çº³ç±³": 5765,
      "é¹": 5766,
      "æī¿è®¤": 5767,
      "structure": 5768,
      "åħ¨è¿ĩç¨ĭ": 5769,
      "æıĴ": 5770,
      "ulations": 5771,
      "é¡ºåºı": 5772,
      "æĳĺ": 5773,
      "ä¿ĿçķĻ": 5774,
      "èĬĤèĥ½": 5775,
      "better": 5776,
      "aper": 5777,
      "å¾ĭå¸Ī": 5778,
      "AI": 5779,
      "detection": 5780,
      "migr": 5781,
      "æĺ¾çĦ¶": 5782,
      "ef": 5783,
      "oth": 5784,
      "æĸ¹ä½į": 5785,
      "å®¡ç¾İ": 5786,
      "TB": 5787,
      "HP": 5788,
      "staining": 5789,
      "alter": 5790,
      "æ¸ĹéĢı": 5791,
      "lig": 5792,
      "lying": 5793,
      "æ²»åħļ": 5794,
      "ä¸ŃåĽ½å¼ı": 5795,
      "ä¿¡å¿µ": 5796,
      "æĹłè®ºæĺ¯": 5797,
      "æ¦Ĥè¿°": 5798,
      "affect": 5799,
      "è§Ĩé¢ĳ": 5800,
      "parameters": 5801,
      "examined": 5802,
      "èĥİ": 5803,
      "increasing": 5804,
      "consider": 5805,
      "HO": 5806,
      "è£ģåĪ¤": 5807,
      "èµµ": 5808,
      "åĽ½éĺ²": 5809,
      "åĲ¨": 5810,
      "followed": 5811,
      "åĿ¡": 5812,
      "èĤ¡ä»½": 5813,
      "æ¬§çĽŁ": 5814,
      "ç¤¾ä¼ļä¿Ŀéļľ": 5815,
      "å¤±è´¥": 5816,
      "ç§¯æŀģæĢ§": 5817,
      "èµŀ": 5818,
      "indicate": 5819,
      "æĮĩä»¤": 5820,
      "defici": 5821,
      "æĤ¨": 5822,
      "volume": 5823,
      "èģĮåĬ¡": 5824,
      "å¦ĩå¥³": 5825,
      "sto": 5826,
      "mag": 5827,
      "combination": 5828,
      "åįģäºĶ": 5829,
      "outcome": 5830,
      "bro": 5831,
      "æľĢé«ĺäººæ°ĳæ³ķéĻ¢": 5832,
      "ç©·": 5833,
      "éĢĥ": 5834,
      "suppres": 5835,
      "èķ´": 5836,
      "syndrome": 5837,
      "conducted": 5838,
      "index": 5839,
      "cers": 5840,
      "æ°ĳä¼Ĺ": 5841,
      "ling": 5842,
      "éĽħ": 5843,
      "æ¯ģ": 5844,
      "prior": 5845,
      "practi": 5846,
      "æħİ": 5847,
      "ä¾Ŀæīĺ": 5848,
      "èĥĨ": 5849,
      "encing": 5850,
      "é«ĺæ°´å¹³": 5851,
      "cord": 5852,
      "èĽĭçĻ½è´¨": 5853,
      "åĽ¾ä¹¦": 5854,
      "èĥ¸": 5855,
      "proper": 5856,
      "sor": 5857,
      "ä¾µçĬ¯": 5858,
      "æĭĶ": 5859,
      "FD": 5860,
      "ynam": 5861,
      "çŁŃæľŁ": 5862,
      "thus": 5863,
      "çĶ¨æĿ¥": 5864,
      "çĶµæµģ": 5865,
      "åŁİéķĩåĮĸ": 5866,
      "æĶ¾åľ¨": 5867,
      "åĮ¹éħį": 5868,
      "orig": 5869,
      "features": 5870,
      "assessment": 5871,
      "CM": 5872,
      "å°ıæĹ¶": 5873,
      "é£İæł¼": 5874,
      "è®°è½½": 5875,
      "éº¦": 5876,
      "reduction": 5877,
      "eth": 5878,
      "æĢĿæĶ¿": 5879,
      "çĶµåİĭ": 5880,
      "æķħéļľ": 5881,
      "èħĲè´¥": 5882,
      "died": 5883,
      "æ´Ĺ": 5884,
      "renal": 5885,
      "å®³äºº": 5886,
      "æ³ķå¾ĭæ³ķè§Ħ": 5887,
      "ä¸ľåĮĹ": 5888,
      "fil": 5889,
      "äºĭå®ŀä¸Ĭ": 5890,
      "hydro": 5891,
      "above": 5892,
      "agg": 5893,
      "suppor": 5894,
      "CL": 5895,
      "æľĢæĸ°": 5896,
      "BA": 5897,
      "lat": 5898,
      "ints": 5899,
      "ä¾ĿçĦ¶": 5900,
      "sour": 5901,
      "çķħ": 5902,
      "recogn": 5903,
      "æĮĤ": 5904,
      "æļĹ": 5905,
      "çī§": 5906,
      "prevent": 5907,
      "æķ°é¢Ŀ": 5908,
      "çĽ¸åıį": 5909,
      "èĪªå¤©": 5910,
      "Li": 5911,
      "media": 5912,
      "è¾ī": 5913,
      "å°ıåº·ç¤¾ä¼ļ": 5914,
      "da": 5915,
      "åįıä½ľ": 5916,
      "è§Ĩè§ī": 5917,
      "åłĨ": 5918,
      "mL": 5919,
      "beg": 5920,
      "èµı": 5921,
      "çīµ": 5922,
      "Au": 5923,
      "æĬ¥éģĵ": 5924,
      "èħ¹": 5925,
      "åŃ¦ä¼ļ": 5926,
      "æµģéĩı": 5927,
      "éĹ´æİ¥": 5928,
      "å¯¹æĸ¹": 5929,
      "çĹħäºº": 5930,
      "æĳ©": 5931,
      "ä¸ŃåĽ½å®¶": 5932,
      "èĢ³": 5933,
      "correspon": 5934,
      "åıĳå±ķä¸ŃåĽ½å®¶": 5935,
      "animals": 5936,
      "deli": 5937,
      "å°ĳå¹´": 5938,
      "ä¸įå¤Ł": 5939,
      "novel": 5940,
      "æ¿Ģæ´»": 5941,
      "åĦĴå®¶": 5942,
      "lot": 5943,
      "äº¤äºĴ": 5944,
      "surgery": 5945,
      "éģµå®Ī": 5946,
      "intr": 5947,
      "ç¬¬ä¸ĥ": 5948,
      "concentrations": 5949,
      "åĽ½æ°ĳåħļ": 5950,
      "GS": 5951,
      "æµĻæ±Ł": 5952,
      "å®ŀçĶ¨": 5953,
      "ç¬¬ä¸ĢèĬĤ": 5954,
      "è¡Įä¸ºäºº": 5955,
      "å¥¹": 5956,
      "çĴ": 5957,
      "åĽŀå½Ĵ": 5958,
      "ible": 5959,
      "ç¬¬äºĮèĬĤ": 5960,
      "èį¯åĵģ": 5961,
      "åıįé¦Ī": 5962,
      "progno": 5963,
      "åľºæīĢ": 5964,
      "è´ŁåĢº": 5965,
      "highly": 5966,
      "ä¼°è®¡": 5967,
      "éĢļçĶ¨": 5968,
      "æĲŃ": 5969,
      "visual": 5970,
      "çĻ¾åĪĨ": 5971,
      "å½°": 5972,
      "å¾Ĺåĩº": 5973,
      "load": 5974,
      "æµģè¡Į": 5975,
      "angio": 5976,
      "è¿Ĳä½ľ": 5977,
      "PI": 5978,
      "çķĮå®ļ": 5979,
      "åĽ½æ°ĳç»ıæµİ": 5980,
      "å°±æĺ¯è¯´": 5981,
      "å§»": 5982,
      "âī¥": 5983,
      "ME": 5984,
      "é«ĺä¸Ń": 5985,
      "åİĨç¨ĭ": 5986,
      "å®īåħ¨æĢ§": 5987,
      "ä¿ĿåŃĺ": 5988,
      "æĸĩèīº": 5989,
      "add": 5990,
      "ä¼Ĺå¤ļ": 5991,
      "ran": 5992,
      "tests": 5993,
      "vement": 5994,
      "é©»": 5995,
      "æ½ľåĬĽ": 5996,
      "å¥ī": 5997,
      "hor": 5998,
      "VA": 5999,
      "guid": 6000,
      "diet": 6001,
      "åĽ½åĨħå¤ĸ": 6002,
      "ç»ĵæŀĦæĢ§": 6003,
      "æľĢä¸º": 6004,
      "èģļçĦ¦": 6005,
      "III": 6006,
      "evaluated": 6007,
      "ij": 6008,
      "æ¼«": 6009,
      "does": 6010,
      "åĲĥ": 6011,
      "ä¸ºæŃ¤": 6012,
      "æľīéĻĲåħ¬åı¸": 6013,
      "ential": 6014,
      "exer": 6015,
      "æĪĲç»©": 6016,
      "detect": 6017,
      "Ap": 6018,
      "87": 6019,
      "éŃı": 6020,
      "éħįå¥Ĺ": 6021,
      "åĽ½æľīä¼ģä¸ļ": 6022,
      "è§£åĨ³æĸ¹æ¡Ī": 6023,
      "åĪĨè§£": 6024,
      "step": 6025,
      "image": 6026,
      "acqu": 6027,
      "ä¸Ĭä¸ĭ": 6028,
      "interaction": 6029,
      "ä»ħä»ħ": 6030,
      "åħ¬å®ī": 6031,
      "intervention": 6032,
      "åĮ»èį¯": 6033,
      "critical": 6034,
      "æĭĴç»Ŀ": 6035,
      "super": 6036,
      "âĦ": 6037,
      "å°ıå¹³": 6038,
      "trials": 6039,
      "çĽ¸äºĴä½ľçĶ¨": 6040,
      "ä¹¦éĿ¢": 6041,
      "èĥ½åĲ¦": 6042,
      "issu": 6043,
      "mutation": 6044,
      "å°ıåŃ¦": 6045,
      "ä¸īå¤§": 6046,
      "è¡į": 6047,
      "vices": 6048,
      "overall": 6049,
      "94": 6050,
      "ç¡®å®ļæĢ§": 6051,
      "åħ¬å¸ĥ": 6052,
      "æ¦Ĥçİĩ": 6053,
      "rats": 6054,
      "æŃ¦è£ħ": 6055,
      "å¤§ä¼Ĺ": 6056,
      "ä½ıæĪ¿": 6057,
      "è¾¹ç¼ĺ": 6058,
      "short": 6059,
      "åĬ¨èĦī": 6060,
      "ä¸ºä¾ĭ": 6061,
      "ision": 6062,
      "lex": 6063,
      "å¹³éĿ¢": 6064,
      "æĸ¹ç¨ĭ": 6065,
      "äºİæĺ¯": 6066,
      "Sy": 6067,
      "æĹ¥èµ·": 6068,
      "å¯¿": 6069,
      "pic": 6070,
      "ä¸²": 6071,
      "åıĸåĨ³": 6072,
      "è®°èĢħ": 6073,
      "èĤ¯å®ļ": 6074,
      "ä¹Į": 6075,
      "çľŁçĲĨ": 6076,
      "æľ¬æ³ķ": 6077,
      "ä¸īè§Ĵ": 6078,
      "tas": 6079,
      "mend": 6080,
      "å½»åºķ": 6081,
      "lications": 6082,
      "éº»": 6083,
      "å®¹éĩı": 6084,
      "çº¢èī²": 6085,
      "gree": 6086,
      "2007": 6087,
      "åĪĨæķ£": 6088,
      "åħļç»Ħç»ĩ": 6089,
      "IFN": 6090,
      "chemical": 6091,
      "ç½ĳç«Ļ": 6092,
      "æŀĦéĢł": 6093,
      "pair": 6094,
      "unt": 6095,
      "åĬŀåŃ¦": 6096,
      "elev": 6097,
      "çī©ä½ĵ": 6098,
      "ough": 6099,
      "è®¾å®ļ": 6100,
      "å®ļæľŁ": 6101,
      "âħ": 6102,
      "åı¯è¡Į": 6103,
      "åĪĨåī²": 6104,
      "æĤŁ": 6105,
      "criteria": 6106,
      "åıĺå¾Ĺ": 6107,
      "åıĸåĨ³äºİ": 6108,
      "éĿ¶": 6109,
      "events": 6110,
      "æĽ¼": 6111,
      "æ³¢åĬ¨": 6112,
      "adv": 6113,
      "æĻ®åıĬ": 6114,
      "æ°®": 6115,
      "training": 6116,
      "æķ´çĲĨ": 6117,
      "æıĲåıĸ": 6118,
      "å¼¥": 6119,
      "ç£·": 6120,
      "çĳŀ": 6121,
      "clust": 6122,
      "å¤įåĪ¶": 6123,
      "limited": 6124,
      "2005": 6125,
      "mitochond": 6126,
      "ä»¥å¤ĸ": 6127,
      "é©¾é©¶": 6128,
      "äººæĿĥ": 6129,
      "æŃ§": 6130,
      "å±ħä½ı": 6131,
      "åĲİèĢħ": 6132,
      "éĺ²æİ§": 6133,
      "âĢ¢": 6134,
      "æİ¨èįĲ": 6135,
      "baseline": 6136,
      "åĳ½ä»¤": 6137,
      "è§£åĨ³éĹ®é¢ĺ": 6138,
      "remo": 6139,
      "06": 6140,
      "æĢİä¹Ī": 6141,
      "å¹´åº¦": 6142,
      "èĤ²äºº": 6143,
      "ç½Ĺæĸ¯": 6144,
      "07": 6145,
      "ä¿®æŃ£": 6146,
      "âĨ": 6147,
      "æī¿è¯º": 6148,
      "marker": 6149,
      "èĪªç©º": 6150,
      "ey": 6151,
      "lled": 6152,
      "æľªæľī": 6153,
      "understanding": 6154,
      "ç¦ıåĪ©": 6155,
      "åŃĺæ¬¾": 6156,
      "ä¸¾è¡Į": 6157,
      "æ³¡": 6158,
      "cut": 6159,
      "count": 6160,
      "æİ¢æµĭ": 6161,
      "ues": 6162,
      "èĲ¥éĶĢ": 6163,
      "istration": 6164,
      "è§Ī": 6165,
      "subst": 6166,
      "mas": 6167,
      "å®ħ": 6168,
      "é¢Ī": 6169,
      "testing": 6170,
      "resid": 6171,
      "bur": 6172,
      "äºĭæĥħ": 6173,
      "åľ¨çº¿": 6174,
      "sex": 6175,
      "å±ķçİ°": 6176,
      "paren": 6177,
      "äººæ°ĳä»£è¡¨å¤§ä¼ļ": 6178,
      "èİ«": 6179,
      "æĽ´å¤§": 6180,
      "don": 6181,
      "å¯»æī¾": 6182,
      "One": 6183,
      "æİ¨è¡Į": 6184,
      "å±ı": 6185,
      "åıĳå°Ħ": 6186,
      "sequences": 6187,
      "DS": 6188,
      "æį·": 6189,
      "bor": 6190,
      "average": 6191,
      "åĭ¤": 6192,
      "84": 6193,
      "HS": 6194,
      "ä½ľæĪĺ": 6195,
      "å¸¦é¢Ĩ": 6196,
      "ker": 6197,
      "physical": 6198,
      "cons": 6199,
      "å¾Ĳ": 6200,
      "Po": 6201,
      "ancy": 6202,
      "carri": 6203,
      "calculated": 6204,
      "uture": 6205,
      "National": 6206,
      "å¹ķ": 6207,
      "97": 6208,
      "çģĮ": 6209,
      "GT": 6210,
      "host": 6211,
      "å¯Ħ": 6212,
      "sof": 6213,
      "83": 6214,
      "å©ļå§»": 6215,
      "tested": 6216,
      "éĤĵå°ıå¹³": 6217,
      "å¿ĺ": 6218,
      "certain": 6219,
      "kines": 6220,
      "necess": 6221,
      "transfer": 6222,
      "çĶŁçĲĨ": 6223,
      "èĪĨ": 6224,
      "èĳĹåĲį": 6225,
      "è®¡éĩı": 6226,
      "tub": 6227,
      "çº¹": 6228,
      "æľĢä½³": 6229,
      "åĢŁæ¬¾": 6230,
      "observ": 6231,
      "ensity": 6232,
      "section": 6233,
      "LT": 6234,
      "äº§éĩı": 6235,
      "performance": 6236,
      "éķ¿æ±Ł": 6237,
      "ç«Ł": 6238,
      "æĥħç»ª": 6239,
      "abil": 6240,
      "transcription": 6241,
      "separ": 6242,
      "åŁĥ": 6243,
      "ä¸īå¹´": 6244,
      "82": 6245,
      "phosphory": 6246,
      "æĬ«": 6247,
      "çİ°è¡Į": 6248,
      "éļ¾é¢ĺ": 6249,
      "areas": 6250,
      "å®ŀä¾ĭ": 6251,
      "ç²Ĺ": 6252,
      "ä½ľçī©": 6253,
      "èĲ¥éĢł": 6254,
      "diffic": 6255,
      "å½±åĵįåĬĽ": 6256,
      "å¢ŀéĢŁ": 6257,
      "Instit": 6258,
      "åī¥": 6259,
      "adh": 6260,
      "abnormal": 6261,
      "æĽ°": 6262,
      "measures": 6263,
      "sites": 6264,
      "äºĴçĽ¸": 6265,
      "RNAs": 6266,
      "èĵĦ": 6267,
      "çİ°éĩĳ": 6268,
      "åħĪçĶŁ": 6269,
      "åİħ": 6270,
      "take": 6271,
      "åĪĨåĮĸ": 6272,
      "ç²¾åº¦": 6273,
      "knowledge": 6274,
      "collected": 6275,
      "ä¼ĺè´¨": 6276,
      "ä¹°åįĸ": 6277,
      "uscript": 6278,
      "functions": 6279,
      "ä¸Ńæľī": 6280,
      "published": 6281,
      "å¼ĺæī¬": 6282,
      "å»·": 6283,
      "hetero": 6284,
      "è¡Ĺ": 6285,
      "å¢ŀåĢ¼": 6286,
      "ä¸Ģæ®µ": 6287,
      "çŃĽ": 6288,
      "decrease": 6289,
      "chall": 6290,
      "ä¸»æµģ": 6291,
      "æľĢä½İ": 6292,
      "carcinoma": 6293,
      "drugs": 6294,
      "RO": 6295,
      "åĢŁåĬ©": 6296,
      "refore": 6297,
      "therefore": 6298,
      "è¶³å¤Ł": 6299,
      "ç¼ĸçłģ": 6300,
      "åıĳéĢģ": 6301,
      "æľĹ": 6302,
      "simul": 6303,
      "fusion": 6304,
      "made": 6305,
      "æµģåŁŁ": 6306,
      "åįıä¼ļ": 6307,
      "æ¸ħæ´ģ": 6308,
      "lipid": 6309,
      "æ¦": 6310,
      "æĦŁè§ī": 6311,
      "è¥¿éĥ¨": 6312,
      "åĲĪæ³ķæĿĥçĽĬ": 6313,
      "éĵľ": 6314,
      "èģĺ": 6315,
      "still": 6316,
      "thy": 6317,
      "åĲ¦å®ļ": 6318,
      "åĨĻä½ľ": 6319,
      "è´§å¸ģæĶ¿çŃĸ": 6320,
      "processes": 6321,
      "cancers": 6322,
      "monary": 6323,
      "åıĳåĩº": 6324,
      "å°ĸ": 6325,
      "åŃ¤": 6326,
      "æĿľ": 6327,
      "å°Ŀè¯ķ": 6328,
      "cross": 6329,
      "ç¾İæľ¯": 6330,
      "lar": 6331,
      "ä¸įåıĺ": 6332,
      "version": 6333,
      "og": 6334,
      "81": 6335,
      "RP": 6336,
      "æķ¬": 6337,
      "åĤ¬åĮĸ": 6338,
      "__": 6339,
      "cere": 6340,
      "manuscript": 6341,
      "åį°åº¦": 6342,
      "æľ¬ç§ĳ": 6343,
      "label": 6344,
      "ä¸»æĿĥ": 6345,
      "iratory": 6346,
      "2006": 6347,
      "æ¼Ķåıĺ": 6348,
      "åľ¨åĨħ": 6349,
      "elec": 6350,
      "selected": 6351,
      "å®īè£ħ": 6352,
      "discus": 6353,
      "åĳ¨åĽ´": 6354,
      "è¡£": 6355,
      "------------------------": 6356,
      "èĲ¨": 6357,
      "å¤«å¦»": 6358,
      "field": 6359,
      "diagnostic": 6360,
      "å¾ģæĶ¶": 6361,
      "Dr": 6362,
      "äººä½ĵ": 6363,
      "åĲ¦åĪĻ": 6364,
      "å¢Ļ": 6365,
      "damage": 6366,
      "ps": 6367,
      "adjust": 6368,
      "FS": 6369,
      "åŀĤ": 6370,
      "è¡¡éĩı": 6371,
      "93": 6372,
      "ç¼ĸåĨĻ": 6373,
      "è¾Ľ": 6374,
      "åĵģç§į": 6375,
      "å®¡æī¹": 6376,
      "lement": 6377,
      "äºĮèĢħ": 6378,
      "åıįæĢĿ": 6379,
      "çģ¾å®³": 6380,
      "å¯¹ç§°": 6381,
      "Per": 6382,
      "æ¿Ģåħī": 6383,
      "è¢«åĳĬäºº": 6384,
      "ç»ıè´¹": 6385,
      "è§Ĩéĩİ": 6386,
      "Moreover": 6387,
      "åħļå§Ķ": 6388,
      "èĢĥåı¤": 6389,
      "92": 6390,
      "poor": 6391,
      "now": 6392,
      "èģĶçĽŁ": 6393,
      "kinase": 6394,
      "rest": 6395,
      "è®ºè¯ģ": 6396,
      "populations": 6397,
      "protocol": 6398,
      "investigated": 6399,
      "èį¡": 6400,
      "å¾ģç¨ĭ": 6401,
      "æ³°": 6402,
      "tool": 6403,
      "åºĹ": 6404,
      "ney": 6405,
      "ters": 6406,
      "åģľæŃ¢": 6407,
      "åľ°åŁŁ": 6408,
      "hand": 6409,
      "bil": 6410,
      "å®¡æł¸": 6411,
      "iting": 6412,
      "stre": 6413,
      "Stud": 6414,
      "äººåĿĩ": 6415,
      "è®¤åı¯": 6416,
      "mM": 6417,
      "recom": 6418,
      "äººèº«": 6419,
      "ä¹ĭæīĢä»¥": 6420,
      "ially": 6421,
      "å°¾": 6422,
      "prevalence": 6423,
      "shows": 6424,
      "çªĹ": 6425,
      "NT": 6426,
      "tim": 6427,
      "å·¥åİĤ": 6428,
      "ä¹ĭè·¯": 6429,
      "reflec": 6430,
      "çĽĪ": 6431,
      "å¤ľ": 6432,
      "åįķçĭ¬": 6433,
      "æľīæĹ¶": 6434,
      "cies": 6435,
      "central": 6436,
      "plac": 6437,
      "éĥ¨éĺŁ": 6438,
      "çº½": 6439,
      "Na": 6440,
      "correc": 6441,
      "åĲĹ": 6442,
      "åĽ½æĥħ": 6443,
      "affected": 6444,
      "å¥´": 6445,
      "har": 6446,
      "è¿Ĳç®Ĺ": 6447,
      "æ¶ĪèĢĹ": 6448,
      "ä»¥æŃ¤": 6449,
      "æĺĮ": 6450,
      "recommend": 6451,
      "directly": 6452,
      "åĲĦæĸ¹": 6453,
      "dri": 6454,
      "æĸĩçī©": 6455,
      "çĤŃ": 6456,
      "æľĢæĹ©": 6457,
      "åĪĨäº«": 6458,
      "repe": 6459,
      "stric": 6460,
      "åĤ¨å¤ĩ": 6461,
      "çĶŁæĢģç³»ç»Ł": 6462,
      "å¤§äºİ": 6463,
      "è½¦è¾Ĩ": 6464,
      "èĬ¯çīĩ": 6465,
      "Col": 6466,
      "è¯¾åłĤæķĻåŃ¦": 6467,
      "åİŁåĳĬ": 6468,
      "åı¯çĶ¨": 6469,
      "å¿½è§Ĩ": 6470,
      "æ³ī": 6471,
      "variables": 6472,
      "èĲ½åĲİ": 6473,
      "éĽĩ": 6474,
      "ç¢±": 6475,
      "åµĮ": 6476,
      "çĪ¶æ¯į": 6477,
      "æł¸ç®Ĺ": 6478,
      "äººçĶŁ": 6479,
      "estern": 6480,
      "ä¸ĩäºº": 6481,
      "å¦¥": 6482,
      "GE": 6483,
      "å¤§éĻĨ": 6484,
      "æīĵçł´": 6485,
      "experimental": 6486,
      "oratory": 6487,
      "è§£è¯»": 6488,
      "Clin": 6489,
      "gether": 6490,
      "cohort": 6491,
      "æĶ¯éħį": 6492,
      "induc": 6493,
      "åĩıè½»": 6494,
      "å¤ĸæ±ĩ": 6495,
      "ä¸ŃåĽ½åĮĸ": 6496,
      "electro": 6497,
      "éĵ¸": 6498,
      "cise": 6499,
      "æ¬º": 6500,
      "å¥³æĢ§": 6501,
      "91": 6502,
      "agen": 6503,
      "èģĶéĤ¦": 6504,
      "è¿ĩåº¦": 6505,
      "hepati": 6506,
      "lesions": 6507,
      "äº¤å¾Ģ": 6508,
      "scores": 6509,
      "çłĶç©¶çĶŁ": 6510,
      "mass": 6511,
      "åĬ¨ä½ľ": 6512,
      "setting": 6513,
      "tric": 6514,
      "å·¥ä½ľäººåĳĺ": 6515,
      "åıĳçĹħ": 6516,
      "chann": 6517,
      "ç»ıèĲ¥èĢħ": 6518,
      "iatric": 6519,
      "æµħ": 6520,
      "å¯¸": 6521,
      "wa": 6522,
      "éĢıæĺİ": 6523,
      "intest": 6524,
      "educ": 6525,
      "æĬ¢": 6526,
      "æĸ¹ä¾¿": 6527,
      "IO": 6528,
      "sional": 6529,
      "ç»ıæµİä½ĵåĪ¶": 6530,
      "mia": 6531,
      "points": 6532,
      "èĨ¨": 6533,
      "å¥ĭæĸĹçĽ®æłĩ": 6534,
      "æº¯": 6535,
      "management": 6536,
      "è¹": 6537,
      "spective": 6538,
      "subsequ": 6539,
      "isolated": 6540,
      "åįģä¸ĥ": 6541,
      "cules": 6542,
      "vac": 6543,
      "astro": 6544,
      "é¢ľ": 6545,
      "rich": 6546,
      "åĪĨå¸ĥå¼ı": 6547,
      "geno": 6548,
      "agon": 6549,
      "initial": 6550,
      "å¹¶æľª": 6551,
      "clud": 6552,
      "maint": 6553,
      "èĦĬ": 6554,
      "homo": 6555,
      "ä»İä¸¥": 6556,
      "ified": 6557,
      "çĽ®å½ķ": 6558,
      "éļ¶": 6559,
      "portion": 6560,
      "éģĩåĪ°": 6561,
      "wide": 6562,
      "æĹłäºº": 6563,
      "ä¸ĢçĻ¾": 6564,
      "å¼ķè¿Ľ": 6565,
      "åĬ£": 6566,
      "inhibitor": 6567,
      "äº¿ç¾İåħĥ": 6568,
      "release": 6569,
      "initi": 6570,
      "medium": 6571,
      "åĻª": 6572,
      "äºķ": 6573,
      "æ¢¯": 6574,
      "five": 6575,
      "reduc": 6576,
      "æĭĨ": 6577,
      "åĪĨè£Ĥ": 6578,
      "ç¡«": 6579,
      "ä½İç¢³": 6580,
      "å·®åĪ«": 6581,
      "adap": 6582,
      "æľĢå°ı": 6583,
      "çľĭæĿ¥": 6584,
      "æĥ³è±¡": 6585,
      "èĴĻåı¤": 6586,
      "æ³ķåĪ¶": 6587,
      "æĬĹä½ĵ": 6588,
      "ring": 6589,
      "az": 6590,
      "modul": 6591,
      "ä¿¡ä»»": 6592,
      "aired": 6593,
      "BL": 6594,
      "practice": 6595,
      "çĭŃ": 6596,
      "è®¢ç«ĭ": 6597,
      "è°ĪåĪ¤": 6598,
      "åĬĽåŃ¦": 6599,
      "ç¼ĸç¨ĭ": 6600,
      "å¤§èĦĳ": 6601,
      "suggesting": 6602,
      "èµł": 6603,
      "wer": 6604,
      "æĹ¨åľ¨": 6605,
      "scan": 6606,
      "synap": 6607,
      "ga": 6608,
      "èıľ": 6609,
      "æŃ¦åĻ¨": 6610,
      "Wi": 6611,
      "rix": 6612,
      "proposed": 6613,
      "consistent": 6614,
      "å¤±åİ»": 6615,
      "motor": 6616,
      "å¹¿ä¸ľ": 6617,
      "IM": 6618,
      "åīįæ²¿": 6619,
      "ä¹ĭä¸ĭ": 6620,
      "question": 6621,
      "infections": 6622,
      "epithelial": 6623,
      "tumo": 6624,
      "æīĢè¿°": 6625,
      "æ°Ľ": 6626,
      "çĶŁæķĪ": 6627,
      "å¤ļå°ĳ": 6628,
      "å»¶ä¼¸": 6629,
      "æŁ¥è¯¢": 6630,
      "ä»¥ä¾¿": 6631,
      "120": 6632,
      "influence": 6633,
      "éĻķ": 6634,
      "versus": 6635,
      "ç¨»": 6636,
      "pregn": 6637,
      "EE": 6638,
      "ç»ĨèıĮ": 6639,
      "appropri": 6640,
      "æ·ĭ": 6641,
      "ä¿ĥä½¿": 6642,
      "èĩ³ä»Ĭ": 6643,
      "real": 6644,
      "mole": 6645,
      "agents": 6646,
      "inally": 6647,
      "seen": 6648,
      "åĩ¸": 6649,
      "éĽĨåĲĪ": 6650,
      "å®ŀä¹ł": 6651,
      "å¯¹è¯Ŀ": 6652,
      "reference": 6653,
      "åĲĪè§Ħ": 6654,
      "åħ¬éĩĮ": 6655,
      "opath": 6656,
      "éĥĳ": 6657,
      "density": 6658,
      "æ»¥": 6659,
      "ç¨Ģ": 6660,
      "few": 6661,
      "failure": 6662,
      "ä¸»ç®¡éĥ¨éĹ¨": 6663,
      "caused": 6664,
      "è¯ŀ": 6665,
      "ok": 6666,
      "éĤ®": 6667,
      "åĿĽ": 6668,
      "pH": 6669,
      "åĬŁçİĩ": 6670,
      "liter": 6671,
      "although": 6672,
      "éļĲç§ģ": 6673,
      "éĴĪå¯¹æĢ§": 6674,
      "å½ĵä»Ĭ": 6675,
      "meric": 6676,
      "æĬ¤çĲĨ": 6677,
      "æłĩçļĦ": 6678,
      "èĤĥ": 6679,
      "åħĭæľį": 6680,
      "æ³Į": 6681,
      "çĪĨåıĳ": 6682,
      "åĪĿæľŁ": 6683,
      "æµĭå®ļ": 6684,
      "ä»ªåĻ¨": 6685,
      "categ": 6686,
      "æ·±åĮĸæĶ¹éĿ©": 6687,
      "endothelial": 6688,
      "èµ·æºĲ": 6689,
      "memory": 6690,
      "åºĶçĶ¨ç¨ĭåºı": 6691,
      "colon": 6692,
      "olution": 6693,
      "loy": 6694,
      "æķħæĦı": 6695,
      "ç»ĥä¹ł": 6696,
      "ç³»æķ°": 6697,
      "åħ¬å¼ı": 6698,
      "çĩĥæĸĻ": 6699,
      "æ¶Īæģ¯": 6700,
      "domain": 6701,
      "æĹ¢æľī": 6702,
      "è¯īè®¼æ³ķ": 6703,
      "let": 6704,
      "åĢ¡å¯¼": 6705,
      "èĸª": 6706,
      "åİŁæľī": 6707,
      "å±±ä¸ľ": 6708,
      "çĶµç½ĳ": 6709,
      "intrac": 6710,
      "tur": 6711,
      "studied": 6712,
      "alysis": 6713,
      "ä¸Ģçº§": 6714,
      "molecules": 6715,
      "å¿ĥçĲĨåŃ¦": 6716,
      "ç»Ļåĩº": 6717,
      "æŁĲä¸ª": 6718,
      "è´Łè´£äºº": 6719,
      "äº¤ä»ĺ": 6720,
      "æĭħå½ĵ": 6721,
      "æĸľ": 6722,
      "ng": 6723,
      "æ¬ł": 6724,
      "ç¬¬ä¸īèĬĤ": 6725,
      "biological": 6726,
      "confirmed": 6727,
      "nit": 6728,
      "suggested": 6729,
      "çº¢åĨĽ": 6730,
      "absence": 6731,
      "imin": 6732,
      "construc": 6733,
      "åıįå¤į": 6734,
      "æĮĩå¼ķ": 6735,
      "éĩĳé¢Ŀ": 6736,
      "ä¿¡è´·": 6737,
      "æĩĤ": 6738,
      "Sh": 6739,
      "2003": 6740,
      "2004": 6741,
      "å¼Ĭ": 6742,
      "ç®±": 6743,
      "æĸ°åĨł": 6744,
      "fl": 6745,
      "æİī": 6746,
      "call": 6747,
      "here": 6748,
      "èī²å½©": 6749,
      "blas": 6750,
      "ç³»ç»ŁæĢ§": 6751,
      "æĿ¡çº¦": 6752,
      "DR": 6753,
      "åħ¬çº¦": 6754,
      "åĶ±": 6755,
      "ä¹ĥèĩ³": 6756,
      "å¾®è§Ĥ": 6757,
      "history": 6758,
      "å»ºç«ĭåģ¥åħ¨": 6759,
      "âĸ": 6760,
      "åĪł": 6761,
      "hal": 6762,
      "evaluation": 6763,
      "åľ°è´¨": 6764,
      "èµ¤": 6765,
      "è¿ĩæ¸¡": 6766,
      "LV": 6767,
      "ergy": 6768,
      "metabolic": 6769,
      "æĶ¿åĬ¡": 6770,
      "èµĦäº§éĺ¶çº§": 6771,
      "CH": 6772,
      "éĻĲåº¦": 6773,
      "éĤ£æł·": 6774,
      "äººæķ°": 6775,
      "ler": 6776,
      "è°ĥçĶ¨": 6777,
      "âĹ": 6778,
      "åĪĽæĸ°èĥ½åĬĽ": 6779,
      "ç¢İ": 6780,
      "stro": 6781,
      "æĢ¥æĢ§": 6782,
      "reli": 6783,
      "ification": 6784,
      "leading": 6785,
      "adult": 6786,
      "èģĮæĿĥ": 6787,
      "è¿ĩéĶĻ": 6788,
      "ä¸§å¤±": 6789,
      "EB": 6790,
      "scale": 6791,
      "relevant": 6792,
      "çĸ«èĭĹ": 6793,
      "æīĵåĩ»": 6794,
      "periph": 6795,
      "åªĴä»ĭ": 6796,
      "è¯»èĢħ": 6797,
      "gical": 6798,
      "è´¯ç©¿": 6799,
      "correlated": 6800,
      "patterns": 6801,
      "çģ°": 6802,
      "åīįæĻ¯": 6803,
      "ä¸Ńå°ıä¼ģä¸ļ": 6804,
      "åĲİæľŁ": 6805,
      "ç²¾ç¡®": 6806,
      "è¡¨è¿°": 6807,
      "è¿·": 6808,
      "seg": 6809,
      "å°ıè¯´": 6810,
      "çłĶç©¶éĻ¢": 6811,
      "æ§": 6812,
      "æĬ«éľ²": 6813,
      "ï¼ħ": 6814,
      "chool": 6815,
      "Medic": 6816,
      "uble": 6817,
      "success": 6818,
      "æİ¨åĩº": 6819,
      "æ³Ħ": 6820,
      "äººå£«": 6821,
      "DC": 6822,
      "å¿§": 6823,
      "ç³Ĭ": 6824,
      "150": 6825,
      "ç»ĪæŃ¢": 6826,
      "complete": 6827,
      "facil": 6828,
      "ä¸İåħ¶": 6829,
      "èĨ¨èĥĢ": 6830,
      "æĿ°": 6831,
      "Results": 6832,
      "received": 6833,
      "increases": 6834,
      "ones": 6835,
      "reas": 6836,
      "fund": 6837,
      "macrophages": 6838,
      "ä¹Łå°±æĺ¯è¯´": 6839,
      "tation": 6840,
      "çº¿ç¨ĭ": 6841,
      "resulting": 6842,
      "ä¸ĵé¢ĺ": 6843,
      "generated": 6844,
      "enced": 6845,
      "åĮĸè§£": 6846,
      "interval": 6847,
      "æĢ»æĺ¯": 6848,
      "è¯ģä¹¦": 6849,
      "åĪĢ": 6850,
      "file": 6851,
      "duction": 6852,
      "ino": 6853,
      "exhib": 6854,
      "oxygen": 6855,
      "detail": 6856,
      "termin": 6857,
      "ä¸įè¦ģ": 6858,
      "Int": 6859,
      "emia": 6860,
      "èĬĤçº¦": 6861,
      "æĹłçº¿": 6862,
      "å«Į": 6863,
      "what": 6864,
      "åŃŁ": 6865,
      "è£ģå®ļ": 6866,
      "ä¼´éļı": 6867,
      "å°ºåº¦": 6868,
      "æħ¢æĢ§": 6869,
      "æľĢå¥½": 6870,
      "å¤ļåħĥåĮĸ": 6871,
      "ç²ĴåŃĲ": 6872,
      "çľĭåĩº": 6873,
      "æĳĩ": 6874,
      "å¼ķçĶ¨": 6875,
      "åįıå®ļ": 6876,
      "graphic": 6877,
      "applied": 6878,
      "åŃĶåŃĲ": 6879,
      "ä»¥å¾Ģ": 6880,
      "NI": 6881,
      "éĶĭ": 6882,
      "çĶŁçī©åŃ¦": 6883,
      "éļ¾åº¦": 6884,
      "ä¸¹": 6885,
      "myo": 6886,
      "fully": 6887,
      "Par": 6888,
      "trig": 6889,
      "stained": 6890,
      "åĪĿå§ĭ": 6891,
      "æĴ°": 6892,
      "IgG": 6893,
      "peak": 6894,
      "vess": 6895,
      "ä¿Ħç½Ĺæĸ¯": 6896,
      "particularly": 6897,
      "skin": 6898,
      "ä¾¿åĪ©": 6899,
      "week": 6900,
      "åį³åı¯": 6901,
      "suggests": 6902,
      "èļĢ": 6903,
      "éĹ²": 6904,
      "cycle": 6905,
      "è¯ķåĽ¾": 6906,
      "éŃĤ": 6907,
      "å·¡": 6908,
      "æ°ĶåĢĻåıĺåĮĸ": 6909,
      "å¸¸è§Ħ": 6910,
      "æĭħä»»": 6911,
      "é¡ºåĪ©": 6912,
      "åı¯éĿłæĢ§": 6913,
      "åħ±æľī": 6914,
      "æĹłçĸĳ": 6915,
      "final": 6916,
      "çģ¯": 6917,
      "èĢķåľ°": 6918,
      "ä¸Ģå¤§": 6919,
      "CF": 6920,
      "Medical": 6921,
      "ï¼į": 6922,
      "chro": 6923,
      "å¯¹ç«ĭ": 6924,
      "è´¦æĪ·": 6925,
      "fold": 6926,
      "components": 6927,
      "æµ·å¤ĸ": 6928,
      "since": 6929,
      "transi": 6930,
      "ä½ĵåĪ¶æĶ¹éĿ©": 6931,
      "strain": 6932,
      "å¸ĪèĮĥ": 6933,
      "species": 6934,
      "éĽª": 6935,
      "begin": 6936,
      "Br": 6937,
      "å¸¸æĢģ": 6938,
      "median": 6939,
      "åĲĦæĹı": 6940,
      "istic": 6941,
      "rup": 6942,
      "Âµ": 6943,
      "è°ĥçłĶ": 6944,
      "comparison": 6945,
      "reduce": 6946,
      "éĨĩ": 6947,
      "ä¸ŃåĽ½äººæ°ĳ": 6948,
      "ets": 6949,
      "ground": 6950,
      "osis": 6951,
      "cult": 6952,
      "sity": 6953,
      "å¦ĤåĽ¾": 6954,
      "å°±è¦ģ": 6955,
      "èµ·çĤ¹": 6956,
      "åħ±å»º": 6957,
      "orescence": 6958,
      "æĻĵ": 6959,
      "sig": 6960,
      "TGF": 6961,
      "åī©ä½Ļ": 6962,
      "ç¬¬äºĮä¸ª": 6963,
      "æ²»åĽ½": 6964,
      "éģ¥": 6965,
      "æľĢè¿ĳ": 6966,
      "When": 6967,
      "æľīæķĪæĢ§": 6968,
      "åĬ¿åĬĽ": 6969,
      "izing": 6970,
      "interven": 6971,
      "éĩįç»Ħ": 6972,
      "ç¼ĵè§£": 6973,
      "environment": 6974,
      "æŁĵèī²": 6975,
      "å¼ĢåĲ¯": 6976,
      "Sim": 6977,
      "æ·»åĬł": 6978,
      "att": 6979,
      "é£Łçī©": 6980,
      "regression": 6981,
      "æĮĩç¤º": 6982,
      "Is": 6983,
      "è¯¯å·®": 6984,
      "åĽĽæĺ¯": 6985,
      "alg": 6986,
      "rapid": 6987,
      "å¯¹æİ¥": 6988,
      "arly": 6989,
      "âĦĥ": 6990,
      "å®¿": 6991,
      "ä¾¦": 6992,
      "é¢ģå¸ĥ": 6993,
      "Americ": 6994,
      "å¼¹æĢ§": 6995,
      "åħ³èĬĤ": 6996,
      "åīĸ": 6997,
      "ä¾ĭåŃĲ": 6998,
      "åĻ¨ä»¶": 6999,
      "è¡Ģæ¶²": 7000,
      "ns": 7001,
      "implement": 7002,
      "ç¼Ķ": 7003,
      "vered": 7004,
      "alco": 7005,
      "surve": 7006,
      "éĽĨç¾¤": 7007,
      "å¼Ł": 7008,
      "åįĹäº¬": 7009,
      "lay": 7010,
      "ped": 7011,
      "established": 7012,
      "ä¼¼ä¹İ": 7013,
      "çłĶç©¶èĢħ": 7014,
      "æĿĳæ°ĳ": 7015,
      "ched": 7016,
      "future": 7017,
      "åĹ": 7018,
      "dy": 7019,
      "åĪ©æģ¯": 7020,
      "è¦ģä»¶": 7021,
      "ä¿±": 7022,
      "æŃ£å¦Ĥ": 7023,
      "ç¬¬åħ«": 7024,
      "å®ŀè®Ń": 7025,
      "BR": 7026,
      "approxim": 7027,
      "location": 7028,
      "è·³": 7029,
      "åŃ¦è¯´": 7030,
      "åıĳæĢ§": 7031,
      "peptide": 7032,
      "çĶµå½±": 7033,
      "åįģä¸Ģ": 7034,
      "ç²ĺ": 7035,
      "ç§įæ¤į": 7036,
      "æ¸ħåįķ": 7037,
      "ä¸´æĹ¶": 7038,
      "inary": 7039,
      "å¸ĪçĶŁ": 7040,
      "å½Ĵçº³": 7041,
      "¤Ĳ": 7042,
      "èĥĥ": 7043,
      "å¾½": 7044,
      "vities": 7045,
      "ä»¿çľŁ": 7046,
      "ä¸ŃçŃī": 7047,
      "fact": 7048,
      "ä¸Ģå¥Ĺ": 7049,
      "çĶŁåĬ¨": 7050,
      "æľĢåĪĿ": 7051,
      "æĬĢæľ¯åĪĽæĸ°": 7052,
      "åı¤åħ¸": 7053,
      "recor": 7054,
      "UC": 7055,
      "utions": 7056,
      "å¼Ģè¾Ł": 7057,
      "å£°æĺİ": 7058,
      "å¼ĢåĪĽ": 7059,
      "ND": 7060,
      "malign": 7061,
      "è¿ĶåĽŀ": 7062,
      "explo": 7063,
      "çŁ³æ²¹": 7064,
      "å®¶æĹı": 7065,
      "saf": 7066,
      "é¢Ĺç²Ĵ": 7067,
      "remains": 7068,
      "è°ĥåĬ¨": 7069,
      "æ¢³": 7070,
      "statistical": 7071,
      "Meth": 7072,
      "çī¹å¼Ĥ": 7073,
      "è¡¥è´´": 7074,
      "æ¶Ĥ": 7075,
      "ortex": 7076,
      "å¡ĳéĢł": 7077,
      "onset": 7078,
      "Car": 7079,
      "è¾½": 7080,
      "æ°ĳèĲ¥": 7081,
      "EV": 7082,
      "æĸ°èĥ½æºĲ": 7083,
      "æļĸ": 7084,
      "ä¸ĭéĿ¢": 7085,
      "æł¼å¼ı": 7086,
      "ç§ģäºº": 7087,
      "Immun": 7088,
      "çıł": 7089,
      "plat": 7090,
      "ÎĶ": 7091,
      "viruses": 7092,
      "evaluate": 7093,
      "åĨ¬": 7094,
      "åħħæ»¡": 7095,
      "çĶµè§Ĩ": 7096,
      "æĶ¾å¼ĥ": 7097,
      "æł·åĵģ": 7098,
      "åĽ¾å½¢": 7099,
      "embr": 7100,
      "ä½¿çĶ¨æĿĥ": 7101,
      "ae": 7102,
      "å¯»æ±Ĥ": 7103,
      "another": 7104,
      "èįĴ": 7105,
      "NC": 7106,
      "åħ±äº§ä¸»ä¹ī": 7107,
      "microsco": 7108,
      "leuk": 7109,
      "nology": 7110,
      "require": 7111,
      "æ£Ģå¯ŁéĻ¢": 7112,
      "æŀ¢": 7113,
      "ä¸įç¡®å®ļæĢ§": 7114,
      "æ®ĸæ°ĳ": 7115,
      "åİŁæĿ¥": 7116,
      "åŃĲå¥³": 7117,
      "expected": 7118,
      "ç«ĭåį³": 7119,
      "incidence": 7120,
      "ised": 7121,
      "é»Ħæ²³": 7122,
      "åĬłå¯Ĩ": 7123,
      "cru": 7124,
      "mel": 7125,
      "tors": 7126,
      "äºĮæ°§åĮĸ": 7127,
      "ä¸īç»´": 7128,
      "espec": 7129,
      "åĮ»çĶŁ": 7130,
      "text": 7131,
      "morpho": 7132,
      "characterized": 7133,
      "screening": 7134,
      "åıĸä»£": 7135,
      "cial": 7136,
      "ç¥ĸåĽ½": 7137,
      "pulmonary": 7138,
      "åŃ¦ä½į": 7139,
      "äº«åıĹ": 7140,
      "leep": 7141,
      "suffici": 7142,
      "ä¹ĭä¸Ĭ": 7143,
      "çĽ´åĪ°": 7144,
      "æľīåĪ¶": 7145,
      "Patients": 7146,
      "especially": 7147,
      "together": 7148,
      "åħļåı²": 7149,
      "incubated": 7150,
      "æµģåĬ¨æĢ§": 7151,
      "å¿ĥèĦı": 7152,
      "äººåĬĽèµĦæºĲ": 7153,
      "........": 7154,
      "Ag": 7155,
      "disorder": 7156,
      "èĩªè¡Į": 7157,
      "Hz": 7158,
      "PE": 7159,
      "åľ¾": 7160,
      "æ¼ĶåĮĸ": 7161,
      "electr": 7162,
      "New": 7163,
      "åŀĥ": 7164,
      "åĭĥ": 7165,
      "å°Ĩä¼ļ": 7166,
      "æĲº": 7167,
      "distinc": 7168,
      "åĲįä¹ī": 7169,
      "åŀĥåľ¾": 7170,
      "åĻ¨å®ĺ": 7171,
      "å·¥åķĨ": 7172,
      "ä¿¡æīĺ": 7173,
      "covery": 7174,
      "ç¡ķ": 7175,
      "åŁºåĽłç»Ħ": 7176,
      "è¿Ļé¡¹": 7177,
      "----------------------------": 7178,
      "æĿĥéĻĲ": 7179,
      "phenotype": 7180,
      "means": 7181,
      "kid": 7182,
      "çĻ¾å§ĵ": 7183,
      "åĨħå¤ĸ": 7184,
      "çļĦè¯Ŀ": 7185,
      "ä¿¡å¿ĥ": 7186,
      "achie": 7187,
      "oste": 7188,
      "åįıåĬ©": 7189,
      "accum": 7190,
      "contribute": 7191,
      "å¸ľ": 7192,
      "æĪĺæĸĹ": 7193,
      "verex": 7194,
      "åĶ¯çī©ä¸»ä¹ī": 7195,
      "è§Ħç«ł": 7196,
      "ventric": 7197,
      "ç£¨": 7198,
      "åıĹçĲĨ": 7199,
      "å¯¹æĬĹ": 7200,
      "åŁºæľ¬åİŁçĲĨ": 7201,
      "enhanced": 7202,
      "secondary": 7203,
      "tware": 7204,
      "moder": 7205,
      "2001": 7206,
      "paper": 7207,
      "sens": 7208,
      "çī©åĵģ": 7209,
      "åİ¿çº§": 7210,
      "ods": 7211,
      "appropriate": 7212,
      "è¢Ń": 7213,
      "genous": 7214,
      "myel": 7215,
      "æĬĵä½ı": 7216,
      "æłĩè®°": 7217,
      "consis": 7218,
      "éļıåĲİ": 7219,
      "bir": 7220,
      "dynam": 7221,
      "æľ¬åľ°": 7222,
      "frac": 7223,
      "åŃķ": 7224,
      "ç¬¬ä¸īæĸ¹": 7225,
      "å®ĺåĳĺ": 7226,
      "amino": 7227,
      "migration": 7228,
      "anes": 7229,
      "400": 7230,
      "ä¸İæŃ¤": 7231,
      "temper": 7232,
      "###": 7233,
      "toward": 7234,
      "needed": 7235,
      "äº§éĺ¶çº§": 7236,
      "çłĶç©¶æĪĲæŀľ": 7237,
      "éŀ": 7238,
      "respiratory": 7239,
      "å®ļéĩı": 7240,
      "2002": 7241,
      "å°½åı¯èĥ½": 7242,
      "åĲ«æľī": 7243,
      "æĬ¥éħ¬": 7244,
      "æĮģæľī": 7245,
      "surgical": 7246,
      "uter": 7247,
      "alone": 7248,
      "interpre": 7249,
      "fluid": 7250,
      "èĴ¸": 7251,
      "late": 7252,
      "æľ¬æ¡Ī": 7253,
      "iv": 7254,
      "åīįèĢħ": 7255,
      "è°¨": 7256,
      "æıĲåĪ°": 7257,
      "èµĦæºĲéħįç½®": 7258,
      "effic": 7259,
      "ings": 7260,
      "ä¿¡æģ¯ç³»ç»Ł": 7261,
      "é¢ĦèŃ¦": 7262,
      "matrix": 7263,
      "SM": 7264,
      "å¸¸å§Ķä¼ļ": 7265,
      "radiation": 7266,
      "monitor": 7267,
      "ç®Ģä»ĭ": 7268,
      "èĩ³äºİ": 7269,
      "GP": 7270,
      "æ·Ģ": 7271,
      "supported": 7272,
      "åħļçļĦå»ºè®¾": 7273,
      "head": 7274,
      "çłĶç©¶åĳĺ": 7275,
      "è¿ģç§»": 7276,
      "å¾ħéģĩ": 7277,
      "investigate": 7278,
      "ä¸ªåĪ«": 7279,
      "ä½ĽæķĻ": 7280,
      "ä¸Ģç±»": 7281,
      "hours": 7282,
      "pose": 7283,
      "åķĨä¸ļéĵ¶è¡Į": 7284,
      "èĪį": 7285,
      "ton": 7286,
      "researchers": 7287,
      "å¤§åĪ©": 7288,
      "åįĩé«ĺ": 7289,
      "æĪĴ": 7290,
      "éĿĴå°ĳå¹´": 7291,
      "ç«Ń": 7292,
      "æł¡åĽŃ": 7293,
      "çĶµåŃĲåķĨåĬ¡": 7294,
      "è¯±å¯¼": 7295,
      "HT": 7296,
      "èĪĨè®º": 7297,
      "çłĶåĪ¶": 7298,
      "pite": 7299,
      "ç¢ĳ": 7300,
      "hypothesis": 7301,
      "focus": 7302,
      "çĽ²": 7303,
      "åĽĬ": 7304,
      "peripheral": 7305,
      "åıĤçħ§": 7306,
      "æ±¡æŁĵçī©": 7307,
      "æıĲç¤º": 7308,
      "çĨŁæĤī": 7309,
      "gas": 7310,
      "æ¶Į": 7311,
      "æļ´åĬĽ": 7312,
      "With": 7313,
      "tle": 7314,
      "éķ¿åº¦": 7315,
      "éĢļè®¯": 7316,
      "ä»ĬåĲİ": 7317,
      "åħ¨æĸ¹ä½į": 7318,
      "æ·¡": 7319,
      "åĽŀæĶ¶": 7320,
      "åĩłä½ķ": 7321,
      "æĭľ": 7322,
      "çĵ¶": 7323,
      "ä¼ĺçĤ¹": 7324,
      "åĬłä¸Ĭ": 7325,
      "home": 7326,
      "upon": 7327,
      "å¯Ĵ": 7328,
      "åĿļå®ŀ": 7329,
      "tries": 7330,
      "å®£å¸ĥ": 7331,
      "interactions": 7332,
      "causes": 7333,
      "åĸĦäºİ": 7334,
      "While": 7335,
      "ii": 7336,
      "Be": 7337,
      "ä¸įåĬ¨äº§": 7338,
      "åıĹä½ĵ": 7339,
      "åĲĪæł¼": 7340,
      "Gen": 7341,
      "æķĻèĤ²éĥ¨": 7342,
      "çĽĳæĬ¤": 7343,
      "tered": 7344,
      "åıĺè¿ģ": 7345,
      "çĤ¸": 7346,
      "ering": 7347,
      "glut": 7348,
      "possi": 7349,
      "åĨ»": 7350,
      "åľ°ä¸ĭ": 7351,
      "tension": 7352,
      "æīĢæľīåĪ¶": 7353,
      "wild": 7354,
      "èĲ¥ä¸ļ": 7355,
      "useful": 7356,
      "å¹¿åĳĬ": 7357,
      "pers": 7358,
      "åĵ¥": 7359,
      "æ¢ħ": 7360,
      "adults": 7361,
      "åįķçº¯": 7362,
      "metabolism": 7363,
      "Institute": 7364,
      "CV": 7365,
      "EA": 7366,
      "ç«łç¨ĭ": 7367,
      "åīįåĲİ": 7368,
      "ç¾İå¥½çĶŁæ´»": 7369,
      "ä¸¤å¤§": 7370,
      "whole": 7371,
      "æĸ¥": 7372,
      "çŃīäºİ": 7373,
      "vector": 7374,
      "åĮĸåĲĪçī©": 7375,
      "æīĢè¯´": 7376,
      "éĺĲéĩĬ": 7377,
      "Des": 7378,
      "obj": 7379,
      "ibr": 7380,
      "éĥ¨ä½į": 7381,
      "tative": 7382,
      "æ¢³çĲĨ": 7383,
      "æ»¡æĦı": 7384,
      "çĶ¨éĢĶ": 7385,
      "strategies": 7386,
      "behavior": 7387,
      "young": 7388,
      "å¯¹å¾ħ": 7389,
      "administration": 7390,
      "ç»ıçĲĨ": 7391,
      "necessary": 7392,
      "gli": 7393,
      "impair": 7394,
      "è¯ĪéªĹ": 7395,
      "æ°Ķè±¡": 7396,
      "æ·ĭå·´": 7397,
      "ä¸»æĮģ": 7398,
      "ä¸Ģèĩ´æĢ§": 7399,
      "åľ³": 7400,
      "å¤ļæł·åĮĸ": 7401,
      "æĬļ": 7402,
      "åĳ½é¢ĺ": 7403,
      "ä¸¾è¯ģ": 7404,
      "combined": 7405,
      "æ®ĭçĸ¾": 7406,
      "corresponding": 7407,
      "throm": 7408,
      "é»İ": 7409,
      "ç»Īç«¯": 7410,
      "çī²": 7411,
      "literature": 7412,
      "much": 7413,
      "é£ŀè¡Į": 7414,
      "æĭĺ": 7415,
      "ç°": 7416,
      "æī©æķ£": 7417,
      "ä»Ģä¹Īæł·": 7418,
      "å¥ĳçº¦": 7419,
      "AB": 7420,
      "ifically": 7421,
      "åľ°éľĩ": 7422,
      "è§£æŀĲ": 7423,
      "ems": 7424,
      "å¤§å¤ļ": 7425,
      "é«ĺç«¯": 7426,
      "induction": 7427,
      "neuronal": 7428,
      "Or": 7429,
      "mutant": 7430,
      "å¤±ä¸ļ": 7431,
      "feed": 7432,
      "æŀģç«¯": 7433,
      "çĽĹ": 7434,
      "è·Łè¸ª": 7435,
      "è¿ĽåĮĸ": 7436,
      "cepti": 7437,
      "ç¡ħ": 7438,
      "ä¸Ģæµģ": 7439,
      "intensity": 7440,
      "ç³ĸå°¿": 7441,
      "lipo": 7442,
      "éĺ¶å±Ĥ": 7443,
      "æ·±åľ³": 7444,
      "designed": 7445,
      "ç¡®å®ŀ": 7446,
      "æĪ´": 7447,
      "produced": 7448,
      "èĥº": 7449,
      "intestinal": 7450,
      "course": 7451,
      "CN": 7452,
      "sc": 7453,
      "èĩ³åħ³": 7454,
      "éĶ»": 7455,
      "å®¹åĻ¨": 7456,
      "improved": 7457,
      "refer": 7458,
      "vision": 7459,
      "åĩ¯": 7460,
      "cultured": 7461,
      "ä¼łæŁĵ": 7462,
      "six": 7463,
      "intra": 7464,
      "underlying": 7465,
      "èĴĭ": 7466,
      "nuclear": 7467,
      "linked": 7468,
      "çĥ¯": 7469,
      "provides": 7470,
      "çıį": 7471,
      "display": 7472,
      "Lo": 7473,
      "è·µè¡Į": 7474,
      "è¯ļä¿¡": 7475,
      "å»¶éķ¿": 7476,
      "æľªèĥ½": 7477,
      "è¯ģå®ŀ": 7478,
      "presents": 7479,
      "åħ¨æ°ĳ": 7480,
      "å¾Īéļ¾": 7481,
      "çļĩå¸Ŀ": 7482,
      "ä½ĵåĨħ": 7483,
      "åĪĹå®ģ": 7484,
      "approved": 7485,
      "ites": 7486,
      "å®ĹæĹ¨": 7487,
      "åĮħè£ħ": 7488,
      "çĻĮçĹĩ": 7489,
      "å½±åĥı": 7490,
      "æľīåĪ©": 7491,
      "cardiovascular": 7492,
      "åºĶæľī": 7493,
      "çľģçº§": 7494,
      "æĥĬ": 7495,
      "å·¥ä½ľèĢħ": 7496,
      "äºīåıĸ": 7497,
      "è¿½ç©¶": 7498,
      "å½°æĺ¾": 7499,
      "ery": 7500,
      "ium": 7501,
      "taneous": 7502,
      "èĥĮåĲİ": 7503,
      "last": 7504,
      "æĪĲåĥı": 7505,
      "åįļçī©": 7506,
      "synthesis": 7507,
      "èĩ³åħ³éĩįè¦ģ": 7508,
      "æĦıåĽ¾": 7509,
      "developing": 7510,
      "èĦ±ç¦»": 7511,
      "limit": 7512,
      "æ±Łèĭı": 7513,
      "èĤºçĤİ": 7514,
      "access": 7515,
      "é¥±": 7516,
      "unit": 7517,
      "map": 7518,
      "thal": 7519,
      "ä¼¤å®³": 7520,
      "0001": 7521,
      "èĤ¤": 7522,
      "Additional": 7523,
      "context": 7524,
      "ito": 7525,
      "æŃ¤ç±»": 7526,
      "åĺī": 7527,
      "essential": 7528,
      "ç³ĸå°¿çĹħ": 7529,
      "åıįå°Ħ": 7530,
      "èĥ°": 7531,
      "ä¸¾åĬŀ": 7532,
      "Cy": 7533,
      "If": 7534,
      "æĴŀ": 7535,
      "induce": 7536,
      "interventions": 7537,
      "recru": 7538,
      "ake": 7539,
      "è¿Ļæ¬¡": 7540,
      "transplant": 7541,
      "åľ°éĿ¢": 7542,
      "cortex": 7543,
      "capac": 7544,
      "æŁĶ": 7545,
      "Cor": 7546,
      "ä¹¦æ³ķ": 7547,
      "åħ³å¿ĥ": 7548,
      "æĹ¶æķĪ": 7549,
      "cytokines": 7550,
      "éĴĻ": 7551,
      "æĿĤå¿Ĺ": 7552,
      "èĩªæ²»åĮº": 7553,
      "åħ´èµ·": 7554,
      "ä¾ĽåºĶåķĨ": 7555,
      "åĲĪéĢĤ": 7556,
      "å°ĳæķ°æ°ĳæĹı": 7557,
      "è·ĳ": 7558,
      "ier": 7559,
      "inhibitors": 7560,
      "èµ«": 7561,
      "content": 7562,
      "æĶ¶åĪ°": 7563,
      "phag": 7564,
      "person": 7565,
      "camp": 7566,
      "å®¶éķ¿": 7567,
      "æī«æıı": 7568,
      "å¯¹å¤ĸå¼ĢæĶ¾": 7569,
      "Not": 7570,
      "reshold": 7571,
      "must": 7572,
      "çĶµæºĲ": 7573,
      "åĲİç»Ń": 7574,
      "employ": 7575,
      "åŃĿ": 7576,
      "ATP": 7577,
      "TC": 7578,
      "è¯ŀçĶŁ": 7579,
      "è¡Ģåİĭ": 7580,
      "ä»İä¸¥æ²»åħļ": 7581,
      "æīĢå¾Ĺç¨İ": 7582,
      "simp": 7583,
      "imer": 7584,
      "vaccin": 7585,
      "å®¢ä½ĵ": 7586,
      "éľ¸": 7587,
      "efficacy": 7588,
      "ç®¡åĪ¶": 7589,
      "å§Ĩ": 7590,
      "æĸ¹æ³ķè®º": 7591,
      "å°ıé¼ł": 7592,
      "elevated": 7593,
      "CIT": 7594,
      "æĽ¾ç»ı": 7595,
      "è´¤": 7596,
      "PM": 7597,
      "ä¸ĢåĽ½": 7598,
      "æľªç»ı": 7599,
      "å¸¦æľī": 7600,
      "AK": 7601,
      "strains": 7602,
      "power": 7603,
      "overex": 7604,
      "ä¸Ĭçº§": 7605,
      "002": 7606,
      "physiological": 7607,
      "They": 7608,
      "ä¸Ļ": 7609,
      "recently": 7610,
      "learning": 7611,
      "éĩıåĮĸ": 7612,
      "èįīæ¡Ī": 7613,
      "çºłæŃ£": 7614,
      "you": 7615,
      "å¸¸å¸¸": 7616,
      "activities": 7617,
      "ç»ĨåĮĸ": 7618,
      "ano": 7619,
      "æµĨ": 7620,
      "æķĳæµİ": 7621,
      "grade": 7622,
      "article": 7623,
      "æĭ¨": 7624,
      "blot": 7625,
      "processing": 7626,
      "æ¶µçĽĸ": 7627,
      "ãĢĮ": 7628,
      "åĽ½åľŁ": 7629,
      "åħ¨åĽ½äººå¤§": 7630,
      "buff": 7631,
      "duration": 7632,
      "è¿ľç¨ĭ": 7633,
      "arm": 7634,
      "åĨľæĪ·": 7635,
      "å¯Ĩçłģ": 7636,
      "RE": 7637,
      "ãĢį": 7638,
      "éĥ¨ä»¶": 7639,
      "ster": 7640,
      "æļ´éľ²": 7641,
      "ä¿Ŀå¯Ĩ": 7642,
      "LS": 7643,
      "åħ¬åħĥ": 7644,
      "HCC": 7645,
      "suscepti": 7646,
      "æĸĳ": 7647,
      "æĸĩä¹¦": 7648,
      "sensitive": 7649,
      "LP": 7650,
      "åĲĪåĲĮæ³ķ": 7651,
      "åĩıæİĴ": 7652,
      "Cancer": 7653,
      "water": 7654,
      "ä¸įå¼Ģ": 7655,
      "ä¸İæŃ¤åĲĮæĹ¶": 7656,
      "phosphorylation": 7657,
      "ä¸Ģä½į": 7658,
      "event": 7659,
      "significance": 7660,
      "å»ºæ¨¡": 7661,
      "èĢģå¹´äºº": 7662,
      "Gene": 7663,
      "alcohol": 7664,
      "esity": 7665,
      "çķĮéĿ¢": 7666,
      "tract": 7667,
      "å±Ī": 7668,
      "icians": 7669,
      "tili": 7670,
      "ç¬¬äºĮæ¬¡": 7671,
      "RF": 7672,
      "dysfunction": 7673,
      "åı¸æ³ķè§£éĩĬ": 7674,
      "åĪ·": 7675,
      "approaches": 7676,
      "properties": 7677,
      "hood": 7678,
      "ä¸įäºĪ": 7679,
      "sleep": 7680,
      "éļĶç¦»": 7681,
      "ä¸Ģéĥ¨": 7682,
      "éĻĲäºİ": 7683,
      "terms": 7684,
      "å¤®è¡Į": 7685,
      "åį°åıĳ": 7686,
      "åŃ¦æ´¾": 7687,
      "ç¥Ń": 7688,
      "squ": 7689,
      "é£ŀæľº": 7690,
      "å¯¹çħ§": 7691,
      "æĹłäº§éĺ¶çº§": 7692,
      "æ¨¡ç³Ĭ": 7693,
      "estimated": 7694,
      "åĳ¨è¾¹": 7695,
      "coding": 7696,
      "çĹħåıĺ": 7697,
      "çİ»": 7698,
      "ä¸Ńä»ĭ": 7699,
      "ç¤¾ä¼ļåŃ¦": 7700,
      "bit": 7701,
      "circul": 7702,
      "å¢ĵ": 7703,
      "ä¸ĵä¸ļåĮĸ": 7704,
      "åĩłå¹´": 7705,
      "æĹĹå¸ľ": 7706,
      "ç»Ħä»¶": 7707,
      "reat": 7708,
      "ç¬¬ä¹Ŀ": 7709,
      "Nor": 7710,
      "åĪłéĻ¤": 7711,
      "ingly": 7712,
      "æłĩè¯Ĩ": 7713,
      "ç¾İåŃ¦": 7714,
      "eter": 7715,
      "land": 7716,
      "åıĹçĽĬ": 7717,
      "energy": 7718,
      "expressing": 7719,
      "mitochondrial": 7720,
      "èĩªçĦ¶èµĦæºĲ": 7721,
      "phen": 7722,
      "èĲ½åľ°": 7723,
      "birth": 7724,
      "ä¸Ĭå¸Ĥåħ¬åı¸": 7725,
      "ç»ĵç®Ĺ": 7726,
      "Inter": 7727,
      "ird": 7728,
      "knock": 7729,
      "jo": 7730,
      "èģĶåĬ¨": 7731,
      "äºļæ´²": 7732,
      "......": 7733,
      "forms": 7734,
      "ç²¹": 7735,
      "éĴ¥": 7736,
      "æĸ°å¢ŀ": 7737,
      "åĿĲæłĩ": 7738,
      "çĶ³è¯·äºº": 7739,
      "æĹ¶åĪ»": 7740,
      "ä¾¯": 7741,
      "sions": 7742,
      "bral": 7743,
      "ä»¤äºº": 7744,
      "éķ¿è¿ľ": 7745,
      "åŁºç¡ĢæĢ§": 7746,
      "measurements": 7747,
      "é¤Ĳ": 7748,
      "å½ĵä¸Ń": 7749,
      "èİ±": 7750,
      "taken": 7751,
      "éļ¾çĤ¹": 7752,
      "æīŃ": 7753,
      "åĪĿçº§": 7754,
      "Mic": 7755,
      "åŁºåĩĨ": 7756,
      "éģ£": 7757,
      "åĽ°å¢ĥ": 7758,
      "é«ĺèģĮ": 7759,
      "æ¶ĪçģŃ": 7760,
      "itis": 7761,
      "äºĮåįģå¤§": 7762,
      "åĿļå¼º": 7763,
      "signals": 7764,
      "techniques": 7765,
      "çº²è¦ģ": 7766,
      "Su": 7767,
      "Sub": 7768,
      "aring": 7769,
      "ä¹īåĬ¡æķĻèĤ²": 7770,
      "assays": 7771,
      "âĳ£": 7772,
      "åĽĽå·Ŀ": 7773,
      "åĲĮåŃ¦": 7774,
      "ä¼Ļä¼´": 7775,
      "threshold": 7776,
      "æ·±è¿ľ": 7777,
      "åĲĦæĹıäººæ°ĳ": 7778,
      "åıĸåĲĳ": 7779,
      "æĤ¬": 7780,
      "pot": 7781,
      "åĽŀé¡¾": 7782,
      "èĮĥå¼ı": 7783,
      "ä¹ĭæĹ¥èµ·": 7784,
      "çĶµç£ģ": 7785,
      "stream": 7786,
      "duce": 7787,
      "å¹´åºķ": 7788,
      "çŃĶæ¡Ī": 7789,
      "åĪĨæĶ¯": 7790,
      "è´¯å½»èĲ½å®ŀ": 7791,
      "éĽķ": 7792,
      "cip": 7793,
      "æľ¬äºº": 7794,
      "ä½ľé£İ": 7795,
      "æĢķ": 7796,
      "æĶ¾å¤§": 7797,
      "controlled": 7798,
      "ç¾İä¸½": 7799,
      "æİ¨çĲĨ": 7800,
      "çķľ": 7801,
      "æĿł": 7802,
      "ä¸ŃåŃ¦": 7803,
      "æķĻåŃ¦åĨħå®¹": 7804,
      "along": 7805,
      "æĶ¿åįı": 7806,
      "è´ŁéĿ¢": 7807,
      "array": 7808,
      "èĳ¡": 7809,
      "showing": 7810,
      "Ty": 7811,
      "æĪĺçķ¥æĢ§": 7812,
      "åĪĨè¾¨": 7813,
      "Trans": 7814,
      "having": 7815,
      "å¯º": 7816,
      "mediate": 7817,
      "çĶ³æĬ¥": 7818,
      "æıĲåīį": 7819,
      "è´¢çī©": 7820,
      "èĤ¢": 7821,
      "ergic": 7822,
      "æĶ¾å°Ħ": 7823,
      "äº©": 7824,
      "é¸Ł": 7825,
      "fs": 7826,
      "dimen": 7827,
      "bacterial": 7828,
      "situ": 7829,
      "æ°ĽåĽ´": 7830,
      "è¿ĺåİŁ": 7831,
      "æĮĩåĲĳ": 7832,
      "è¿ª": 7833,
      "æĬĽ": 7834,
      "å¹²ç»Ĩèĥŀ": 7835,
      "uni": 7836,
      "æĪĺçº¿": 7837,
      "ires": 7838,
      "armac": 7839,
      "å°ºå¯¸": 7840,
      "è°ĥåº¦": 7841,
      "full": 7842,
      "å¼Ģæĭĵ": 7843,
      "æģ©æł¼": 7844,
      "rather": 7845,
      "ç¿¼": 7846,
      "Hospital": 7847,
      "restric": 7848,
      "åħ¬è·¯": 7849,
      "æĢ»é¢Ŀ": 7850,
      "ä¸ĵçĶ¨": 7851,
      "neural": 7852,
      "nutr": 7853,
      "åįĵ": 7854,
      "CK": 7855,
      "åıĸæ¶Ī": 7856,
      "éĺ²æĬ¤": 7857,
      "å»¶ç»Ń": 7858,
      "äºĶä¸ª": 7859,
      "Spec": 7860,
      "åĪĨæ³Į": 7861,
      "percentage": 7862,
      "è¢«åĬ¨": 7863,
      "countries": 7864,
      "component": 7865,
      "åĨĴ": 7866,
      "çīĪæľ¬": 7867,
      "male": 7868,
      "System": 7869,
      "éĢŁçİĩ": 7870,
      "åĪ°åºķ": 7871,
      "Statis": 7872,
      "æĢ»ç»Ł": 7873,
      "Clinical": 7874,
      "æĶ¶è´Ń": 7875,
      "èĩ´åĬĽ": 7876,
      "é¦ĸè¦ģ": 7877,
      "çĥŃçĤ¹": 7878,
      "overn": 7879,
      "äºĴèģĶ": 7880,
      "åīĤéĩı": 7881,
      "morph": 7882,
      "cortical": 7883,
      "concer": 7884,
      "VEGF": 7885,
      "chromo": 7886,
      "temperature": 7887,
      "èħĬ": 7888,
      "ince": 7889,
      "IA": 7890,
      "å¢ŀå¤§": 7891,
      "å£®å¤§": 7892,
      "cluded": 7893,
      "çī©ç§į": 7894,
      "SNP": 7895,
      "åħ¨æĸ°": 7896,
      "thesi": 7897,
      "Reg": 7898,
      "relatively": 7899,
      "éĩįå»º": 7900,
      "ç§Łäºº": 7901,
      "eting": 7902,
      "resistant": 7903,
      "åĬ©åĬĽ": 7904,
      "åĩłç§į": 7905,
      "aft": 7906,
      "è£ģåĨ³": 7907,
      "å°½éĩı": 7908,
      "æľºåĬ¨": 7909,
      "glyco": 7910,
      "software": 7911,
      "pancre": 7912,
      "ä¸ªæĢ§åĮĸ": 7913,
      "fra": 7914,
      "currence": 7915,
      "åĮħå®¹": 7916,
      "CSF": 7917,
      "approximately": 7918,
      "è¡ĮæĶ¿åĮº": 7919,
      "çĿĢçľ¼": 7920,
      "åįģåĽĽäºĶ": 7921,
      "çŁ©éĺµ": 7922,
      "å¹¶åıĳ": 7923,
      "éĢĢåĩº": 7924,
      "èĪĴ": 7925,
      "åĽ½éĻħåĮĸ": 7926,
      "ç§Ĵ": 7927,
      "åĳĬçŁ¥": 7928,
      "reaction": 7929,
      "éĿĻèĦī": 7930,
      "genome": 7931,
      "procedure": 7932,
      "å£°éŁ³": 7933,
      "zation": 7934,
      "DA": 7935,
      "æ¶Īå¤±": 7936,
      "nm": 7937,
      "lan": 7938,
      "åıĳèµ·": 7939,
      "å¹¿å·ŀ": 7940,
      "äº§èĥ½": 7941,
      "æĢ»ä¹ĭ": 7942,
      "éľį": 7943,
      "åĪ°è¾¾": 7944,
      "åĬ¨åĳĺ": 7945,
      "æĤ²": 7946,
      "Do": 7947,
      "experience": 7948,
      "metastasis": 7949,
      "pass": 7950,
      "exercise": 7951,
      "åľ°çĤ¹": 7952,
      "æĸĩåĮĸéģĹäº§": 7953,
      "éģŃåıĹ": 7954,
      "Qu": 7955,
      "æĢģåĬ¿": 7956,
      "zy": 7957,
      "open": 7958,
      "Mod": 7959,
      "dominant": 7960,
      "ç§ĳåŃ¦éĻ¢": 7961,
      "altern": 7962,
      "èĢ¦": 7963,
      "çªģåıĳ": 7964,
      "nur": 7965,
      "åĳ¨å¹´": 7966,
      "åıĺæį¢": 7967,
      "ä¸ŃæĸŃ": 7968,
      "æĹ¶ç©º": 7969,
      "problems": 7970,
      "è·¯çĶ±": 7971,
      "åĽłæŀľ": 7972,
      "ç§»æ¤į": 7973,
      "tomy": 7974,
      "good": 7975,
      "å®ŀè¯ģ": 7976,
      "ä¸Ńå°ıåŃ¦": 7977,
      "åĻªå£°": 7978,
      "importance": 7979,
      "å½¢çĬ¶": 7980,
      "ç»ĺçĶ»": 7981,
      "å¸Ĥåľºä¸»ä½ĵ": 7982,
      "åįķä¸ª": 7983,
      "community": 7984,
      "Intern": 7985,
      "als": 7986,
      "åıĮéĩį": 7987,
      "amy": 7988,
      "è¥¿èĹı": 7989,
      "cium": 7990,
      "åĽŀåºĶ": 7991,
      "åĪ¶å¤ĩ": 7992,
      "æĺİç¡®æıĲåĩº": 7993,
      "ç´¯è®¡": 7994,
      "èĻļåģĩ": 7995,
      "indicating": 7996,
      "ç¼©å°ı": 7997,
      "reh": 7998,
      "çĤİçĹĩ": 7999,
      "æłª": 8000,
      "èµ¶": 8001,
      "å£³": 8002,
      "acts": 8003,
      "å¢ĥçķĮ": 8004,
      "ides": 8005,
      "ash": 8006,
      "ä»»æĦı": 8007,
      "æ°¸è¿ľ": 8008,
      "ili": 8009,
      "targets": 8010,
      "cum": 8011,
      "å®ļä»·": 8012,
      "depression": 8013,
      "severity": 8014,
      "ä¸įä½Ĩ": 8015,
      "ä¸įä»ħä»ħ": 8016,
      "Sur": 8017,
      "distinct": 8018,
      "éģĹåĿĢ": 8019,
      "application": 8020,
      "ä¹¦åĨĻ": 8021,
      "é¢Ħè®¡": 8022,
      "è¯ĹæŃĮ": 8023,
      "æķĪèĥ½": 8024,
      "å¤įæĿĤæĢ§": 8025,
      "åīª": 8026,
      "çªĥ": 8027,
      "apy": 8028,
      "source": 8029,
      "åįĥå¹´": 8030,
      "çī¹å¼ĤæĢ§": 8031,
      "çºªå¿µ": 8032,
      "ologic": 8033,
      "èŀº": 8034,
      "SI": 8035,
      "åħīè°±": 8036,
      "best": 8037,
      "xi": 8038,
      "æīĭæľº": 8039,
      "åįĹåĮĹ": 8040,
      "çİĭæľĿ": 8041,
      "sump": 8042,
      "æĵįä½ľç³»ç»Ł": 8043,
      "ä¸įåĲĮäºİ": 8044,
      "ç®¡æİ§": 8045,
      "åıĳå±ķè¶ĭåĬ¿": 8046,
      "åĳĬè¯ī": 8047,
      "retro": 8048,
      "polar": 8049,
      "ç»¼åĲĪæĢ§": 8050,
      "clero": 8051,
      "methylation": 8052,
      "task": 8053,
      "æ°´åĪ©": 8054,
      "spinal": 8055,
      "HF": 8056,
      "invasive": 8057,
      "åĨ³å®ļæĢ§": 8058,
      "æı´åĬ©": 8059,
      "ç»ıæµİä½ĵ": 8060,
      "linear": 8061,
      "--------------------------------------------------------------------------------------------------------------------------------": 8062,
      "humans": 8063,
      "oti": 8064,
      "intracellular": 8065,
      "åľ¨å®ŀè·µ": 8066,
      "capacity": 8067,
      "exposed": 8068,
      "ç®ĢåĮĸ": 8069,
      "tin": 8070,
      "ä»£æĽ¿": 8071,
      "cycl": 8072,
      "éĶĲ": 8073,
      "elines": 8074,
      "å¹³æĸ¹": 8075,
      "ç§ĳåŃ¦çłĶç©¶": 8076,
      "choles": 8077,
      "acet": 8078,
      "terol": 8079,
      "å®ŀäºĭ": 8080,
      "å½¼æŃ¤": 8081,
      "è¥¿åĮĹ": 8082,
      "åŁºæľ¬ä¸Ĭ": 8083,
      "coron": 8084,
      "atal": 8085,
      "âĨĴ": 8086,
      "conn": 8087,
      "å¯¼ä½ĵ": 8088,
      "æ´»è·ĥ": 8089,
      "bed": 8090,
      "çīº": 8091,
      "äº§åĩº": 8092,
      "PBS": 8093,
      "amount": 8094,
      "axis": 8095,
      "æ»ĭ": 8096,
      "ç®Ń": 8097,
      "reach": 8098,
      "intro": 8099,
      "æĬĢå·§": 8100,
      "æľŁåĪĬ": 8101,
      "æĦıæĦ¿": 8102,
      "TLR": 8103,
      "åįļçī©é¦Ĩ": 8104,
      "æľ¬åĽ½": 8105,
      "ç¼ºå°ĳ": 8106,
      "measurement": 8107,
      "urine": 8108,
      "çħĮ": 8109,
      "Gr": 8110,
      "è±ª": 8111,
      "åĮĢ": 8112,
      "ä¸ŃæľŁ": 8113,
      "æķĳåĬ©": 8114,
      "ESM": 8115,
      "å¹´éĹ´": 8116,
      "éĥŃ": 8117,
      "æĹłéĻĲ": 8118,
      "every": 8119,
      "åĽŃåĮº": 8120,
      "added": 8121,
      "max": 8122,
      "æ¯ķä¸ļçĶŁ": 8123,
      "æĬĹåİŁ": 8124,
      "èµ·ä¹ī": 8125,
      "è¯Ħè®º": 8126,
      "çĶŁèĤ²": 8127,
      "ç¼ºå¤±": 8128,
      "sequencing": 8129,
      "wr": 8130,
      "åĬ³åĬ¡": 8131,
      "äººä¸İ": 8132,
      "å®¡è®®": 8133,
      "ä¹ĭä¸º": 8134,
      "injection": 8135,
      "çĿ¡": 8136,
      "ä¸ĢéĹ¨": 8137,
      "ç±»åĪ«": 8138,
      "çªĦ": 8139,
      "Bec": 8140,
      "è§ĦåĪ¶": 8141,
      "åºŀ": 8142,
      "çĽ¸éĢĤåºĶ": 8143,
      "åĢŁè´·": 8144,
      "åŀĴ": 8145,
      "éŁµ": 8146,
      "éĺ»ç¢į": 8147,
      "æīİå®ŀ": 8148,
      "chol": 8149,
      "æĲ¬": 8150,
      "arily": 8151,
      "stroke": 8152,
      "äºĮæ°§åĮĸç¢³": 8153,
      "world": 8154,
      "promis": 8155,
      "çīºçī²": 8156,
      "å³»": 8157,
      "åıĤä¸İèĢħ": 8158,
      "laboratory": 8159,
      "ç´«": 8160,
      "ç½Ĺé©¬": 8161,
      "stimulated": 8162,
      "1999": 8163,
      "å®¾": 8164,
      "kidney": 8165,
      "éĻµ": 8166,
      "åĸ·": 8167,
      "obesity": 8168,
      "Ro": 8169,
      "è¿«åĪĩ": 8170,
      "toxicity": 8171,
      "åİŁæĸĻ": 8172,
      "çĽ¸å½ĵäºİ": 8173,
      "degree": 8174,
      "é«ĺåº¦éĩįè§Ĩ": 8175,
      "categor": 8176,
      "æ»¥çĶ¨": 8177,
      "tras": 8178,
      "åĬłåī§": 8179,
      "variants": 8180,
      "çĶŁç´ł": 8181,
      "åĽ¾çīĩ": 8182,
      "åį¢": 8183,
      "omy": 8184,
      "GFP": 8185,
      "æĿłæĿĨ": 8186,
      "ä¸Ģåľº": 8187,
      "BMI": 8188,
      "ä¸įåĪ©": 8189,
      "åĩ¸æĺ¾": 8190,
      "æľºçĲĨ": 8191,
      "ç®¡çĲĨèĢħ": 8192,
      "1998": 8193,
      "æģ©æł¼æĸ¯": 8194,
      "ä¸įå½ĵ": 8195,
      "gam": 8196,
      "Interest": 8197,
      "åıĺå¼Ĥ": 8198,
      "proportion": 8199,
      "æ¤İ": 8200,
      "çĽĳçĿ£ç®¡çĲĨ": 8201,
      "Western": 8202,
      "æķ°åĢ¼": 8203,
      "è·¨è¶Ĭ": 8204,
      "make": 8205,
      "ressive": 8206,
      "facilit": 8207,
      "å°ģéĹŃ": 8208,
      "sections": 8209,
      "minim": 8210,
      "å¦Ĥä»Ĭ": 8211,
      "åµĮåħ¥": 8212,
      "å¯ĨéĽĨ": 8213,
      "æ¸Ķ": 8214,
      "æµ¸": 8215,
      "utili": 8216,
      "æ»´": 8217,
      "transmission": 8218,
      "clonal": 8219,
      "æĺİç¡®è§Ħå®ļ": 8220,
      "åĳĪçİ°åĩº": 8221,
      "secretion": 8222,
      "My": 8223,
      "Met": 8224,
      "basis": 8225,
      "å¥ĸåĬ±": 8226,
      "å¢ĥåĨħ": 8227,
      "çĮª": 8228,
      "éĻĦåĬł": 8229,
      "students": 8230,
      "âī¤": 8231,
      "Center": 8232,
      "PO": 8233,
      "éĵº": 8234,
      "å¤§çº¦": 8235,
      "åħħåĪĨåĪ©çĶ¨": 8236,
      "Tech": 8237,
      "å¾Īå°ĳ": 8238,
      "solution": 8239,
      "Fe": 8240,
      "Hy": 8241,
      "cit": 8242,
      "MB": 8243,
      "ä¸ľæĸ¹": 8244,
      "åĲĪæ³ķæĢ§": 8245,
      "å¢ĥå¤ĸ": 8246,
      "By": 8247,
      "national": 8248,
      "èĩ´åĬĽäºİ": 8249,
      "åĭĺ": 8250,
      "äºĮæ¬¡": 8251,
      "bound": 8252,
      "åīįæľŁ": 8253,
      "allel": 8254,
      "ä»¥ä¸º": 8255,
      "æĻ¯è§Ĥ": 8256,
      "enzyme": 8257,
      "âĢĲ": 8258,
      "actic": 8259,
      "å§¿": 8260,
      "110": 8261,
      "æķ¦": 8262,
      "star": 8263,
      "ull": 8264,
      "temporal": 8265,
      "æ¬£": 8266,
      "æĸ°çĸĨ": 8267,
      "åĬ²": 8268,
      "æĸ°çĶŁ": 8269,
      "statistically": 8270,
      "è®®ä¼ļ": 8271,
      "mature": 8272,
      "æī¿è½½": 8273,
      "æº¶æ¶²": 8274,
      "Other": 8275,
      "å¢ŀå¤ļ": 8276,
      "äººä¸İèĩªçĦ¶": 8277,
      "çĽ¸ä¿¡": 8278,
      "ä¸Ģè½®": 8279,
      "tumour": 8280,
      "âĶ": 8281,
      "åĲĮæ¯Ķ": 8282,
      "å¤©æ´¥": 8283,
      "MOESM": 8284,
      "ç»Ħå»º": 8285,
      "Study": 8286,
      "xy": 8287,
      "numbers": 8288,
      "å¹¿ä¹ī": 8289,
      "åįģæĿ¡": 8290,
      "çīĪæĿĥ": 8291,
      "metry": 8292,
      "å®ŀåĬ¡": 8293,
      "éĻ¤å¤ĸ": 8294,
      "sets": 8295,
      "å¯¿åĳ½": 8296,
      "ç¢°": 8297,
      "çļ®èĤ¤": 8298,
      "æĦ¿æĦı": 8299,
      "ä½ĵç§¯": 8300,
      "å¸¸åĬ¡": 8301,
      "ral": 8302,
      "å¤§èĩ´": 8303,
      "treatments": 8304,
      "ä»£è¡¨æĢ§": 8305,
      "ç®¡çĲĨåĪ¶åº¦": 8306,
      "æĬĹæĪĺ": 8307,
      "éĺ²å¾¡": 8308,
      "GB": 8309,
      "ocytes": 8310,
      "å°ıç»ĵ": 8311,
      "orith": 8312,
      "demonstrate": 8313,
      "åħ¬åħ±åĪ©çĽĬ": 8314,
      "HE": 8315,
      "diagnosed": 8316,
      "specificity": 8317,
      "çĦĬ": 8318,
      "åıĤèĢĥæĸĩçĮ®": 8319,
      "called": 8320,
      "rophil": 8321,
      "åľ¨å®ŀè·µä¸Ń": 8322,
      "procedures": 8323,
      "lymph": 8324,
      "çľł": 8325,
      "æ¹¿åľ°": 8326,
      "ç¼´çº³": 8327,
      "PV": 8328,
      "éĶĤ": 8329,
      "pocamp": 8330,
      "çº§åĪ«": 8331,
      "Of": 8332,
      "delivery": 8333,
      "æ¸ħåģ¿": 8334,
      "enhance": 8335,
      "åıĺå½¢": 8336,
      "å¤§å±Ģ": 8337,
      "å¹´è½»": 8338,
      "Îº": 8339,
      "experiment": 8340,
      "èĲĦ": 8341,
      "æħĪ": 8342,
      "åĸ»": 8343,
      "Mater": 8344,
      "Hum": 8345,
      "erior": 8346,
      "æĻºåĬĽ": 8347,
      "å¼Ĥè®®": 8348,
      "æľŁæľĽ": 8349,
      "pathological": 8350,
      "emo": 8351,
      "æ²Ī": 8352,
      "çĸĹæ³ķ": 8353,
      "åıĳåĬ¨": 8354,
      "åĩºäºİ": 8355,
      "ä¸Ģä¸ĭ": 8356,
      "å®£åĳĬ": 8357,
      "etic": 8358,
      "æ²³åįĹ": 8359,
      "å¸ĮèħĬ": 8360,
      "Gro": 8361,
      "æľ¬ç«ł": 8362,
      "åİĭç¼©": 8363,
      "çħ¤çĤŃ": 8364,
      "æĩĪ": 8365,
      "Over": 8366,
      "çĵ·": 8367,
      "åºĶåĬĽ": 8368,
      "å¹ħåº¦": 8369,
      "åĮĹæĸ¹": 8370,
      "äººæ°ĳæ£Ģå¯ŁéĻ¢": 8371,
      "tom": 8372,
      "agent": 8373,
      "ç®¡çĲĨä½ĵç³»": 8374,
      "profil": 8375,
      "ä¸Ĭæ¶¨": 8376,
      "calcium": 8377,
      "regulatory": 8378,
      "ä¼ĺæĥł": 8379,
      "å¦Ļ": 8380,
      "Jo": 8381,
      "search": 8382,
      "nerve": 8383,
      "èĳ¡èĲĦ": 8384,
      "ç¦»ä¸įå¼Ģ": 8385,
      "ather": 8386,
      "foc": 8387,
      "maxim": 8388,
      "æĮģä¹ħ": 8389,
      "èĩªæĦ¿": 8390,
      "æŃ¤åĲİ": 8391,
      "çĽ´è§Ĥ": 8392,
      "é©³": 8393,
      "åħīåŃ¦": 8394,
      "éģĤ": 8395,
      "variable": 8396,
      "ä¼ĺèī¯": 8397,
      "ficial": 8398,
      "å»ºçŃĳçī©": 8399,
      "istered": 8400,
      "regarding": 8401,
      "æŀģä¸º": 8402,
      "æĸ¯åĿ¦": 8403,
      "selection": 8404,
      "003": 8405,
      "leads": 8406,
      "ä¿¡æģ¯å¤ĦçĲĨ": 8407,
      "Science": 8408,
      "reports": 8409,
      "Simil": 8410,
      "èĩ´ä½¿": 8411,
      "responsible": 8412,
      "å¼Ĺ": 8413,
      "æ¼Ķè¿Ľ": 8414,
      "DO": 8415,
      "æĹ¥å¸¸çĶŁæ´»": 8416,
      "subsequent": 8417,
      "epide": 8418,
      "compo": 8419,
      "substanti": 8420,
      "è·¨å¢ĥ": 8421,
      "åĲĪä¼Ļ": 8422,
      "çĹħçĲĨ": 8423,
      "åĬ¨åĬĽåŃ¦": 8424,
      "è¿ĩäºİ": 8425,
      "æĹģ": 8426,
      "å¤ĸèµĦ": 8427,
      "KO": 8428,
      "female": 8429,
      "è¿Ń": 8430,
      "å·¥ä¼ļ": 8431,
      "sw": 8432,
      "åĪĽæĦı": 8433,
      "traum": 8434,
      "éĥ¡": 8435,
      "ç»Īèº«": 8436,
      "åįĪ": 8437,
      "çĴĥ": 8438,
      "åħĳ": 8439,
      "åĪĨéĴŁ": 8440,
      "resulted": 8441,
      "wash": 8442,
      "ä»½é¢Ŀ": 8443,
      "special": 8444,
      "dem": 8445,
      "ulti": 8446,
      "larger": 8447,
      "å°ĺ": 8448,
      "members": 8449,
      "ception": 8450,
      "å½ĵä¸ĭ": 8451,
      "break": 8452,
      "accine": 8453,
      "æ°ĳåĽ½": 8454,
      "PK": 8455,
      "èĤª": 8456,
      "åıĪç§°": 8457,
      "deficiency": 8458,
      "United": 8459,
      "older": 8460,
      "Euro": 8461,
      "ä½ľå®¶": 8462,
      "nic": 8463,
      "è½¬å½ķ": 8464,
      "ç¦»å©ļ": 8465,
      "ava": 8466,
      "global": 8467,
      "polic": 8468,
      "1997": 8469,
      "éĻ·åħ¥": 8470,
      "é¥®é£Ł": 8471,
      "neo": 8472,
      "carried": 8473,
      "white": 8474,
      "indicates": 8475,
      "SE": 8476,
      "antibio": 8477,
      "èĶ½": 8478,
      "éŁ§": 8479,
      "bri": 8480,
      "æ³ķåºŃ": 8481,
      "compound": 8482,
      "ç¼ºçĤ¹": 8483,
      "æ¼ł": 8484,
      "æ¿Ģç´ł": 8485,
      "èĦĤèĤª": 8486,
      "insti": 8487,
      "æĶ¿æ²»å±Ģ": 8488,
      "bid": 8489,
      "è¾ĥå¼º": 8490,
      "åħ¬åĬ¡": 8491,
      "become": 8492,
      "SL": 8493,
      "applic": 8494,
      "marg": 8495,
      "åĪĽç«ĭ": 8496,
      "æĥ©ç½ļ": 8497,
      "great": 8498,
      "éĩįæŀĦ": 8499,
      "pne": 8500,
      "ectiv": 8501,
      "SH": 8502,
      "Imp": 8503,
      "Finally": 8504,
      "estimat": 8505,
      "ournal": 8506,
      "pon": 8507,
      "æľĭ": 8508,
      "sufficient": 8509,
      "æĹ¥æľŁ": 8510,
      "æ³¨åħ¥": 8511,
      "ä¾Ŀèµĸäºİ": 8512,
      "çĻ¾åĪĨçĤ¹": 8513,
      "roid": 8514,
      "technique": 8515,
      "ä¸ľåįĹ": 8516,
      "èĳĹä½ľæĿĥ": 8517,
      "myocardi": 8518,
      "MMP": 8519,
      "ç«ĭä½ĵ": 8520,
      "åºĻ": 8521,
      "å¾ĴåĪĳ": 8522,
      "get": 8523,
      "artery": 8524,
      "æĭ¼": 8525,
      "çłĶè®¨": 8526,
      "æĸ½è¡Į": 8527,
      "China": 8528,
      "æĽ¹": 8529,
      "lue": 8530,
      "åħ¬æľīåĪ¶": 8531,
      "éļĻ": 8532,
      "ä¸Ģç»Ħ": 8533,
      "éĿĻæĢģ": 8534,
      "produce": 8535,
      "hippocamp": 8536,
      "å¼ºåĪ¶æĢ§": 8537,
      "food": 8538,
      "onco": 8539,
      "arrow": 8540,
      "stages": 8541,
      "quantitative": 8542,
      "å¸Ĥæ°ĳ": 8543,
      "dium": 8544,
      "cholesterol": 8545,
      "åº·å¤į": 8546,
      "æįŁå®³èµĶåģ¿": 8547,
      "usually": 8548,
      "ental": 8549,
      "è±Ĩ": 8550,
      "others": 8551,
      "xia": 8552,
      "æĵ¦": 8553,
      "äº§ä¸ļç»ĵæŀĦ": 8554,
      "dra": 8555,
      "vious": 8556,
      "core": 8557,
      "æĳĨèĦ±": 8558,
      "ä¸Ĭè¯ī": 8559,
      "æŃ¤åŁºç¡Ģ": 8560,
      "å¦¨": 8561,
      "datab": 8562,
      "æľ¯è¯Ń": 8563,
      "abor": 8564,
      "åł¡": 8565,
      "inst": 8566,
      "çľĭæ³ķ": 8567,
      "systemic": 8568,
      "ä¸įç§»": 8569,
      "æĪĸæĺ¯": 8570,
      "ç¼Ŀ": 8571,
      "MM": 8572,
      "æ¸ħç®Ĺ": 8573,
      "potentially": 8574,
      "education": 8575,
      "å¼Ģè®¾": 8576,
      "identification": 8577,
      "transfected": 8578,
      "å®Įå¤ĩ": 8579,
      "spati": 8580,
      "åĽºä½ĵ": 8581,
      "heterogene": 8582,
      "strategy": 8583,
      "ç¾Ĭ": 8584,
      "åĩºè¡Ģ": 8585,
      "åħ¹": 8586,
      "å°ıäºİ": 8587,
      "èĩªçĦ¶ç§ĳåŃ¦": 8588,
      "ä¸įè®º": 8589,
      "SV": 8590,
      "complications": 8591,
      "åįĹæĸ¹": 8592,
      "æł¹æį®åľ°": 8593,
      "panel": 8594,
      "chain": 8595,
      "subject": 8596,
      "His": 8597,
      "èģļéĽĨ": 8598,
      "æ±¡æ°´": 8599,
      "é¢ľèī²": 8600,
      "è¡ĮæĶ¿éĥ¨éĹ¨": 8601,
      "é¢Ĩå¯¼äºº": 8602,
      "æľīçĽĬ": 8603,
      "ä¾¿äºİ": 8604,
      "ros": 8605,
      "neut": 8606,
      "Medicine": 8607,
      "High": 8608,
      "åŃ¦çķĮ": 8609,
      "wise": 8610,
      "Pub": 8611,
      "asy": 8612,
      "ä¹łé¢ĺ": 8613,
      "efficient": 8614,
      "CB": 8615,
      "Methods": 8616,
      "çĶµè§£": 8617,
      "1990": 8618,
      "çĶµæ°Ķ": 8619,
      "ç¥ŀç»ıåħĥ": 8620,
      "åĥļ": 8621,
      "mam": 8622,
      "æľĿé²ľ": 8623,
      "sep": 8624,
      "Tab": 8625,
      "çĬ¹": 8626,
      "dig": 8627,
      "é¡¶å±Ĥ": 8628,
      "è¡įçĶŁ": 8629,
      "difficult": 8630,
      "å¹¿éĺĶ": 8631,
      "Ger": 8632,
      "æ¶²ä½ĵ": 8633,
      "ä»ĭè´¨": 8634,
      "Da": 8635,
      "elet": 8636,
      "examine": 8637,
      "minimal": 8638,
      "åŀĤçĽ´": 8639,
      "æĪªèĩ³": 8640,
      "é¡ºåºĶ": 8641,
      "LPS": 8642,
      "promoter": 8643,
      "æľ¬åľŁ": 8644,
      "èī¾": 8645,
      "elf": 8646,
      "occurs": 8647,
      "åħĪè¡Į": 8648,
      "æ°¯": 8649,
      "netic": 8650,
      "é«ĺçŃīåŃ¦æł¡": 8651,
      "æĲŃå»º": 8652,
      "problem": 8653,
      "æĹ±": 8654,
      "åľ°åĽ¾": 8655,
      "æĺ¥ç§ĭ": 8656,
      "æŃ¥ä¼Ĳ": 8657,
      "ä¸»è¦ģçŁĽçĽ¾": 8658,
      "æĶ¶ç¼©": 8659,
      "pathogen": 8660,
      "åķĨä¸ļç§ĺå¯Ĩ": 8661,
      "éĩĳèŀįåį±æľº": 8662,
      "algorith": 8663,
      "è¦ģçĤ¹": 8664,
      "currently": 8665,
      "profes": 8666,
      "åİĺ": 8667,
      "éĿŀæ´²": 8668,
      "marked": 8669,
      "tri": 8670,
      "internal": 8671,
      "å¿ĹæĦ¿": 8672,
      "she": 8673,
      "CX": 8674,
      "åĭŁ": 8675,
      "æ£Ģç´¢": 8676,
      "è´Łè½½": 8677,
      "çº³ç¨İäºº": 8678,
      "onomic": 8679,
      "FT": 8680,
      "åĲĲ": 8681,
      "è·Į": 8682,
      "åĲ¯ç¤º": 8683,
      "Fir": 8684,
      "åīįæīĢ": 8685,
      "æīĭç»Ń": 8686,
      "å¸ĿåĽ½ä¸»ä¹ī": 8687,
      "ication": 8688,
      "ç´§æĢ¥": 8689,
      "æĻ¶ä½ĵ": 8690,
      "æŁı": 8691,
      "æ¿ĢçĥĪ": 8692,
      "é¢ĩ": 8693,
      "frag": 8694,
      "conven": 8695,
      "æīĵå¼Ģ": 8696,
      "æľŁå¾ħ": 8697,
      "continuous": 8698,
      "fin": 8699,
      "challeng": 8700,
      "éŁ¦": 8701,
      "ä¾¦æŁ¥": 8702,
      "åĬ¨èĥ½": 8703,
      "structures": 8704,
      "Mar": 8705,
      "covered": 8706,
      "äºĴè¡¥": 8707,
      "bb": 8708,
      "Since": 8709,
      "æĢ§åĪ«": 8710,
      "è´¿": 8711,
      "æľŁå¾ĴåĪĳ": 8712,
      "pregnancy": 8713,
      "ä¸¢": 8714,
      "ä¸ļæĢģ": 8715,
      "éĻĦè¿ĳ": 8716,
      "åįģåħ«æĿ¡": 8717,
      "å¤įè®®": 8718,
      "åĪĿå¿ĥ": 8719,
      "è·¨åĽ½": 8720,
      "åıĳå±ķè§Ĥ": 8721,
      "åĩŃè¯ģ": 8722,
      "éĺĲæĺİ": 8723,
      "services": 8724,
      "respond": 8725,
      "generally": 8726,
      "æĲľç´¢": 8727,
      "ventricular": 8728,
      "åĨįçĶŁèĥ½æºĲ": 8729,
      "èĤ©": 8730,
      "æ±Ĥæĺ¯": 8731,
      "NR": 8732,
      "çŃ¾ç½²": 8733,
      "FC": 8734,
      "prevention": 8735,
      "partment": 8736,
      "QL": 8737,
      "GR": 8738,
      "è°ĭåĪĴ": 8739,
      "HCV": 8740,
      "çĶŁåĳ½åĳ¨æľŁ": 8741,
      "éĺģ": 8742,
      "æłĩçŃ¾": 8743,
      "ateral": 8744,
      "symb": 8745,
      "å©´": 8746,
      "frame": 8747,
      "around": 8748,
      "extracellular": 8749,
      "lated": 8750,
      "delay": 8751,
      "æ±īè¯Ń": 8752,
      "plays": 8753,
      "å¹»": 8754,
      "enrich": 8755,
      "æĹ¥æĬ¥": 8756,
      "èĤłéģĵ": 8757,
      "åĿļå®ļä¸įç§»": 8758,
      "èĢ¦åĲĪ": 8759,
      "located": 8760,
      "èĤĮèĤī": 8761,
      "è®ºåĿĽ": 8762,
      "é¢ł": 8763,
      "imens": 8764,
      "series": 8765,
      "çİ»çĴĥ": 8766,
      "Bo": 8767,
      "æµªè´¹": 8768,
      "éĢļè´§": 8769,
      "çĤī": 8770,
      "åīįæīĢæľªæľī": 8771,
      "BB": 8772,
      "Human": 8773,
      "éĵ¾æİ¥": 8774,
      "bacteria": 8775,
      "entific": 8776,
      "ç»¼åĲĪå¾ģ": 8777,
      "åĨĢ": 8778,
      "ids": 8779,
      "embry": 8780,
      "éĽĨèģļ": 8781,
      "æķĮäºº": 8782,
      "åħ±çĶŁ": 8783,
      "ç§°ä¹ĭä¸º": 8784,
      "thor": 8785,
      "adhes": 8786,
      "pathogenesis": 8787,
      "æŁĲæŁĲ": 8788,
      "èĿ": 8789,
      "å»ºéĢł": 8790,
      "stru": 8791,
      "è¯īæ±Ĥ": 8792,
      "targeted": 8793,
      "Using": 8794,
      "tility": 8795,
      "coronary": 8796,
      "vaccine": 8797,
      "pharmac": 8798,
      "æĳĺè¦ģ": 8799,
      "çĶµè¯Ŀ": 8800,
      "ç¥¨æį®": 8801,
      "åıĻäºĭ": 8802,
      "andid": 8803,
      "sil": 8804,
      "advant": 8805,
      "classification": 8806,
      "gran": 8807,
      "å®Ŀè´µ": 8808,
      "iso": 8809,
      "å®ļæĢ§": 8810,
      "Two": 8811,
      "cytokine": 8812,
      "äº§ä¸ļåĮĸ": 8813,
      "è¢«å®³äºº": 8814,
      "è¿Ķè¿ĺ": 8815,
      "èī°èĭ¦": 8816,
      "å¼¥è¡¥": 8817,
      "hepat": 8818,
      "fibrosis": 8819,
      "æŀª": 8820,
      "æıĲåĢ¡": 8821,
      "æµģè½¬": 8822,
      "æľįä»İ": 8823,
      "ä¹¡éķĩ": 8824,
      "logic": 8825,
      "ä¸ĩçī©": 8826,
      "æºĲäºİ": 8827,
      "ank": 8828,
      "åĩĨåħ¥": 8829,
      "venous": 8830,
      "å¤ĦçĲĨåĻ¨": 8831,
      "æīĵåį°": 8832,
      "placed": 8833,
      "æĺĨ": 8834,
      "å¯¹çŃĸ": 8835,
      "protective": 8836,
      "åħ³ç¨İ": 8837,
      "ique": 8838,
      "diabetic": 8839,
      "è´Łèį·": 8840,
      "specifically": 8841,
      "rophy": 8842,
      "datas": 8843,
      "å°½å¿«": 8844,
      "çº²é¢Ĩ": 8845,
      "represents": 8846,
      "ä¼ģä¸ļå®¶": 8847,
      "æĿ¥æºĲäºİ": 8848,
      "Wor": 8849,
      "guidelines": 8850,
      "æ¸Ĭ": 8851,
      "èħ¾": 8852,
      "é¸£": 8853,
      "making": 8854,
      "project": 8855,
      "æł¼å°Ķ": 8856,
      "é¼»": 8857,
      "prin": 8858,
      "éĢ¼": 8859,
      "ç½ļæ¬¾": 8860,
      "stren": 8861,
      "æ¼ıæ´ŀ": 8862,
      "below": 8863,
      "å¤ļè¾¹": 8864,
      "ç¦»å¼Ģ": 8865,
      "æłı": 8866,
      "åĺ±": 8867,
      "coc": 8868,
      "accuracy": 8869,
      "æ¹ĸåįĹ": 8870,
      "ç»ĨèĬĤ": 8871,
      "åįłæį®": 8872,
      "å¾·èĤ²": 8873,
      "ç½ĳä¸Ĭ": 8874,
      "600": 8875,
      "å®ļå¾ĭ": 8876,
      "éĢĤåº¦": 8877,
      "ä»ĭåħ¥": 8878,
      "chemotherapy": 8879,
      "èµ¢å¾Ĺ": 8880,
      "ä¿¡æģ¯å®īåħ¨": 8881,
      "é¡¾å®¢": 8882,
      "HBV": 8883,
      "synaptic": 8884,
      "Europe": 8885,
      "ä¸įåĪ©äºİ": 8886,
      "åĪĳç½ļ": 8887,
      "ä¸¥å³»": 8888,
      "çİ©": 8889,
      "ä¸Ńå¤ĸ": 8890,
      "æŀĿ": 8891,
      "CPU": 8892,
      "çĲĨè®ºä½ĵç³»": 8893,
      "è´ª": 8894,
      "å®ĺæĸ¹": 8895,
      "ç»¸": 8896,
      "çŃĽéĢī": 8897,
      "rare": 8898,
      "è¥¿åįĹ": 8899,
      "æīĳ": 8900,
      "EF": 8901,
      "variation": 8902,
      "èĢĮä¸Ĭ": 8903,
      "supplement": 8904,
      "somal": 8905,
      "æ²īç§¯": 8906,
      "ä¾§éĩį": 8907,
      "stable": 8908,
      "è§ĦèĮĥåĮĸ": 8909,
      "æ£Ģå¯Łæľºåħ³": 8910,
      "examination": 8911,
      "å¢ŀè¿Ľ": 8912,
      "ijms": 8913,
      "inhibited": 8914,
      "fixed": 8915,
      "å¼¦": 8916,
      "spectr": 8917,
      "invasion": 8918,
      "cultures": 8919,
      "åħ¬å®īæľºåħ³": 8920,
      "buffer": 8921,
      "UT": 8922,
      "majority": 8923,
      "å¼Ī": 8924,
      "agree": 8925,
      "collection": 8926,
      "çİĩåħĪ": 8927,
      "streng": 8928,
      "IGF": 8929,
      "fraction": 8930,
      "é¢ĨåħĪ": 8931,
      "æĬ¥è¡¨": 8932,
      "collagen": 8933,
      "æºĥ": 8934,
      "Neuro": 8935,
      "rh": 8936,
      "Anti": 8937,
      "American": 8938,
      "Group": 8939,
      "la": 8940,
      "æ©": 8941,
      "uth": 8942,
      "æĢ»åĢ¼": 8943,
      "mitted": 8944,
      "èµĦåĬ©": 8945,
      "éĩĳèŀįå¸Ĥåľº": 8946,
      "oxidative": 8947,
      "sumption": 8948,
      "Man": 8949,
      "å®£è¨Ģ": 8950,
      "æŃ¦æ±ī": 8951,
      "hypertension": 8952,
      "çĨĶ": 8953,
      "structural": 8954,
      "ä¸Ģå®¶": 8955,
      "åĽ½å®¶æľºåħ³": 8956,
      "å¯¼èĪª": 8957,
      "PL": 8958,
      "æºĲå¤´": 8959,
      "lor": 8960,
      "èĪ¶": 8961,
      "æĺĤ": 8962,
      "åĬ¨æĳĩ": 8963,
      "åŃ£åº¦": 8964,
      "åħļæ´¾": 8965,
      "åĲı": 8966,
      "ï¹": 8967,
      "UV": 8968,
      "æ°´èµĦæºĲ": 8969,
      "monitoring": 8970,
      "æĮĩå¯¼æĢĿæĥ³": 8971,
      "ritis": 8972,
      "establish": 8973,
      "therapies": 8974,
      "è¯´æ³ķ": 8975,
      "ãĢķ": 8976,
      "åħ»æ®ĸ": 8977,
      "èĩªçĦ¶äºº": 8978,
      "èĭ±éĽĦ": 8979,
      "äººäºº": 8980,
      "OT": 8981,
      "æĻ®æĥł": 8982,
      "çľĭä½ľ": 8983,
      "æĹłå½¢": 8984,
      "éī´äºİ": 8985,
      "å¿ħéľĢ": 8986,
      "åħ¬åĽŃ": 8987,
      "æ°ĳä¸»ä¸»ä¹ī": 8988,
      "licated": 8989,
      "vation": 8990,
      "æĭĽçĶŁ": 8991,
      "famil": 8992,
      "èĸĦå¼±": 8993,
      "ãĢĶ": 8994,
      "çĸ¼": 8995,
      "sts": 8996,
      "ç¤¾ä¼ļåĮĸ": 8997,
      "conj": 8998,
      "thick": 8999,
      "sch": 9000,
      "altered": 9001,
      "space": 9002,
      "ä¸ĩäº¿åħĥ": 9003,
      "åįģåĽĽæĿ¡": 9004,
      "å·¥ç¨ĭå¸Ī": 9005,
      "æ¶ĪåĮĸ": 9006,
      "ä»İä¸ļ": 9007,
      "mainly": 9008,
      "åĤ¨åŃĺ": 9009,
      "ergen": 9010,
      "ä¸ºæŃ¢": 9011,
      "actin": 9012,
      "åĮĹäº¬å¸Ĥ": 9013,
      "targeting": 9014,
      "è±¡å¾ģ": 9015,
      "ç»Łä¸ĢæĪĺçº¿": 9016,
      "otherapy": 9017,
      "consent": 9018,
      "third": 9019,
      "went": 9020,
      "recorded": 9021,
      "è¾©æĬ¤": 9022,
      "Analysis": 9023,
      "äºŁ": 9024,
      "éĥģ": 9025,
      "æİ§åĪ¶ç³»ç»Ł": 9026,
      "å¼¯": 9027,
      "å²Ń": 9028,
      "Ľèµ·": 9029,
      "Str": 9030,
      "rogen": 9031,
      "bind": 9032,
      "First": 9033,
      "que": 9034,
      "avoid": 9035,
      "é¢ĳç¹ģ": 9036,
      "æķ¢äºİ": 9037,
      "daily": 9038,
      "PET": 9039,
      "gamma": 9040,
      "å¹´çīĪ": 9041,
      "éĻ¢éķ¿": 9042,
      "èī¯æĢ§": 9043,
      "ultras": 9044,
      "è¶ħåĩº": 9045,
      "Contro": 9046,
      "vio": 9047,
      "å¤Ħåľ¨": 9048,
      "ä¾µçķ¥": 9049,
      "ç§įç§į": 9050,
      "éĺ³æĢ§": 9051,
      "link": 9052,
      "æİ©": 9053,
      "promote": 9054,
      "å¤©åľ°": 9055,
      "decision": 9056,
      "çĹħä¾ĭ": 9057,
      "å¤ªéĺ³èĥ½": 9058,
      "å¤¹": 9059,
      "æľĢå¤§åĮĸ": 9060,
      "date": 9061,
      "ï¼ĳ": 9062,
      "åĮĸå·¥": 9063,
      "ä¸įå¾Ĺä¸į": 9064,
      "æįĲ": 9065,
      "éĢīæĭ©æĢ§": 9066,
      "Statistical": 9067,
      "ww": 9068,
      "æłĵ": 9069,
      "èĢĥéªĮ": 9070,
      "æĥħæĻ¯": 9071,
      "regulate": 9072,
      "Micro": 9073,
      "eness": 9074,
      "loid": 9075,
      "wall": 9076,
      "åĪĳäºĭè´£ä»»": 9077,
      "åĽ¾ä¹¦é¦Ĩ": 9078,
      "æķĻåŃ¦æĸ¹æ³ķ": 9079,
      "ç«¹": 9080,
      "OD": 9081,
      "è¹Ī": 9082,
      "reason": 9083,
      "nt": 9084,
      "çĶŁäº§çİĩ": 9085,
      "åħ¼é¡¾": 9086,
      "æł¸å¿ĥæĬĢæľ¯": 9087,
      "adoles": 9088,
      "åĪĽè®¾": 9089,
      "ä¸ĬéĿ¢": 9090,
      "alterations": 9091,
      "åĪĨçº§": 9092,
      "å¿ĥèĤĮ": 9093,
      "MAP": 9094,
      "prognostic": 9095,
      "TG": 9096,
      "å¿½çķ¥": 9097,
      "éĩįåºĨ": 9098,
      "èĻİ": 9099,
      "å¤ªå¹³": 9100,
      "Dise": 9101,
      "è¿ŀå¸¦": 9102,
      "EGFR": 9103,
      "ä¸įç®¡": 9104,
      "ä¸Ģä»½": 9105,
      "è¡Ģæ¸ħ": 9106,
      "å¿ħå°Ĩ": 9107,
      "tious": 9108,
      "çķĻä¸ĭ": 9109,
      "çĶµæŀģ": 9110,
      "plastic": 9111,
      "ä»£çĲĨäºº": 9112,
      "å¾Īå¿«": 9113,
      "advanced": 9114,
      "è´£ä»¤": 9115,
      "technology": 9116,
      "è¿Ŀæ³ķè¡Įä¸º": 9117,
      "004": 9118,
      "æķĻè®Ń": 9119,
      "çķĮéĻĲ": 9120,
      "ditionally": 9121,
      "ç¥ŀç»ıç½ĳç»ľ": 9122,
      "çŀ»": 9123,
      "neutrophil": 9124,
      "resour": 9125,
      "èģļåĲĪ": 9126,
      "Ti": 9127,
      "å®ŀäºĭæ±Ĥæĺ¯": 9128,
      "æĬµæĬ¼æĿĥ": 9129,
      "åĳ½åĲį": 9130,
      "åħ¬åı¸æ³ķ": 9131,
      "issue": 9132,
      "åĲ¯åıĳ": 9133,
      "NSC": 9134,
      "å·²çŁ¥": 9135,
      "ç¡ķå£«": 9136,
      "ä¸¤æ¬¡": 9137,
      "opti": 9138,
      "èĦīåĨ²": 9139,
      "åĪĿä¸Ń": 9140,
      "åºĵåŃĺ": 9141,
      "é«ĺæ¸©": 9142,
      "ä¸ļä¸»": 9143,
      "dele": 9144,
      "åįļå¼Ī": 9145,
      "çī©èµĦ": 9146,
      "èĭ¯": 9147,
      "åĲĪä½ľç¤¾": 9148,
      "spe": 9149,
      "AM": 9150,
      "genomic": 9151,
      "åĩºåĶ®": 9152,
      "æĮĩæĺİ": 9153,
      "éŁ©åĽ½": 9154,
      "æ¹ĺ": 9155,
      "åįµ": 9156,
      "è¿ĻæĹ¶": 9157,
      "çĽ¸åħ³æĢ§": 9158,
      "èķ´åĲ«": 9159,
      "æŁĵèī²ä½ĵ": 9160,
      "æī¶æĮģ": 9161,
      "çĲ´": 9162,
      "benefit": 9163,
      "indow": 9164,
      "Both": 9165,
      "sul": 9166,
      "è´µæĹı": 9167,
      "å®ĺåĥļ": 9168,
      "äºĭä¸ļåįķä½į": 9169,
      "åıĺä¸º": 9170,
      "005": 9171,
      "åħ³éĶ®è¯į": 9172,
      "vary": 9173,
      "broad": 9174,
      "æĵİ": 9175,
      "å¹¼åĦ¿åĽŃ": 9176,
      "ç»´ä¿®": 9177,
      "è¡¨æ¼Ķ": 9178,
      "degrad": 9179,
      "charg": 9180,
      "é»Ħéĩĳ": 9181,
      "çĤ®": 9182,
      "çĶ¨æ°´": 9183,
      "åħĥä»¶": 9184,
      "belie": 9185,
      "è¯¸å¦Ĥ": 9186,
      "barri": 9187,
      "åıĳæī¬": 9188,
      "ç§ĳæĬĢæĪĲæŀľ": 9189,
      "æµ·ä¸Ĭ": 9190,
      "åħīä¼ı": 9191,
      "æĢĿæ½®": 9192,
      "äºĳåįĹ": 9193,
      "predicted": 9194,
      "polymorph": 9195,
      "å¹¿æĴŃ": 9196,
      "èĬ½": 9197,
      "æ¶Īæŀģ": 9198,
      "adjusted": 9199,
      "ç¨³æŃ¥": 9200,
      "å»ºåħļ": 9201,
      "çĿĢéĩį": 9202,
      "éĶ»çĤ¼": 9203,
      "Sign": 9204,
      "uptake": 9205,
      "Diff": 9206,
      "lum": 9207,
      "å¤·": 9208,
      "æģ¶æĦı": 9209,
      "input": 9210,
      "account": 9211,
      "æľŁè´§": 9212,
      "GL": 9213,
      "Because": 9214,
      "yet": 9215,
      "thetic": 9216,
      "infants": 9217,
      "shap": 9218,
      "éĺĢ": 9219,
      "DH": 9220,
      "illness": 9221,
      "lion": 9222,
      "ä»·åĢ¼éĵ¾": 9223,
      "åĲŀ": 9224,
      "åĲ¸éĻĦ": 9225,
      "mitte": 9226,
      "enza": 9227,
      "attention": 9228,
      "weigh": 9229,
      "çī¢çī¢": 9230,
      "frequently": 9231,
      "said": 9232,
      "until": 9233,
      "ç¦ıå»º": 9234,
      "yi": 9235,
      "é¸¿": 9236,
      "States": 9237,
      "å®ŀè´¨æĢ§": 9238,
      "é»ı": 9239,
      "mistry": 9240,
      "ordin": 9241,
      "ç»ıæµİæķĪçĽĬ": 9242,
      "professional": 9243,
      "stri": 9244,
      "éķ¿å¾ģ": 9245,
      "èĥ½èĢĹ": 9246,
      "çĲĨæĥ³ä¿¡å¿µ": 9247,
      "Cells": 9248,
      "æĹłåħ³": 9249,
      "highest": 9250,
      "äººæĢ§": 9251,
      "accumulation": 9252,
      "æŀģåħ¶": 9253,
      "ç§ĳçĽ®": 9254,
      "incor": 9255,
      "commonly": 9256,
      "åĲĽä¸»": 9257,
      "éĿ¢åīį": 9258,
      "åĻ¬": 9259,
      "é«ĺèĢĥ": 9260,
      "metric": 9261,
      "125": 9262,
      "roles": 9263,
      "250": 9264,
      "ç§įåŃĲ": 9265,
      "åĩĮ": 9266,
      "environmental": 9267,
      "å°Ħçº¿": 9268,
      "åºķçº¿": 9269,
      "èį§": 9270,
      "æĮ¤": 9271,
      "é£ŀè·ĥ": 9272,
      "omen": 9273,
      "ä¸Ģçº¿": 9274,
      "ä¸ĢçĻ¾å¹´": 9275,
      "è¿½æº¯": 9276,
      "æĶ¶æĶ¯": 9277,
      "channel": 9278,
      "prognosis": 9279,
      "ROS": 9280,
      "Material": 9281,
      "hemat": 9282,
      "æİ¥åħ¥": 9283,
      "è®®é¢ĺ": 9284,
      "ä»İæł¹æľ¬": 9285,
      "ä»İæł¹æľ¬ä¸Ĭ": 9286,
      "éļıæĹ¶": 9287,
      "psycho": 9288,
      "ISA": 9289,
      "å°ĨæĿ¥": 9290,
      "ç§¯æŀģåıĤä¸İ": 9291,
      "å¹¿æ³ĽåºĶçĶ¨": 9292,
      "Inc": 9293,
      "Val": 9294,
      "çĩĥçĥ§": 9295,
      "åĿĩåĮĢ": 9296,
      "box": 9297,
      "æŃ¤æ¬¡": 9298,
      "ç»§æī¿äºº": 9299,
      "CAM": 9300,
      "äººå¿ĥ": 9301,
      "ç¤¾ä¼ļä¿ĿéĻ©": 9302,
      "stitu": 9303,
      "cannot": 9304,
      "mio": 9305,
      "çĽ¸ç»§": 9306,
      "åģıå·®": 9307,
      "å¹¶è¡Į": 9308,
      "èĥļ": 9309,
      "moderate": 9310,
      "èĳ£äºĭä¼ļ": 9311,
      "åŁİå¸ĤåĮĸ": 9312,
      "hepatic": 9313,
      "åħ¬åħ±åį«çĶŁ": 9314,
      "ç¬¬åĽĽèĬĤ": 9315,
      "åīĳ": 9316,
      "éī´åĪ«": 9317,
      "éĤĢ": 9318,
      "å®Įæķ´æĢ§": 9319,
      "ensive": 9320,
      "åĮĸçŁ³": 9321,
      "æ¾³éĹ¨": 9322,
      "appears": 9323,
      "involvement": 9324,
      "åĪ¶è®¢": 9325,
      "biomarkers": 9326,
      "è¿ĩå¤±": 9327,
      "å¤ļåªĴä½ĵ": 9328,
      "impaired": 9329,
      "ardi": 9330,
      "çĦ¦çĤ¹": 9331,
      "æľĢä¼ĺ": 9332,
      "æľ¬ä½ĵ": 9333,
      "mechan": 9334,
      "å¯ĨåĪĩçĽ¸åħ³": 9335,
      "å´Ľèµ·": 9336,
      "é½¿": 9337,
      "htt": 9338,
      "Net": 9339,
      "è´¬": 9340,
      "ä¸īä¸Ńåħ¨ä¼ļ": 9341,
      "HLA": 9342,
      "åīįéĿ¢": 9343,
      "extent": 9344,
      "åĲĪä¸Ģ": 9345,
      "è¿ĿèĥĮ": 9346,
      "æľīçĶ¨": 9347,
      "coup": 9348,
      "å¨±": 9349,
      "OH": 9350,
      "æľīå®³": 9351,
      "recei": 9352,
      "ink": 9353,
      "åıĳåĬ¨æľº": 9354,
      "å®¢æĪ·ç«¯": 9355,
      "æĬ±": 9356,
      "æı½": 9357,
      "åħ¬åĳĬ": 9358,
      "çİĦ": 9359,
      "è¡ĮæĶ¿å¤Ħç½ļ": 9360,
      "å®ŀçī©": 9361,
      "åįģäºĮæĿ¡": 9362,
      "ä¸¤ç±»": 9363,
      "pathology": 9364,
      "ç²¤": 9365,
      "toler": 9366,
      "æ¨ªåĲĳ": 9367,
      "åĽĽå¤§": 9368,
      "arc": 9369,
      "AF": 9370,
      "Web": 9371,
      "variety": 9372,
      "exis": 9373,
      "å¤ļå±Ĥæ¬¡": 9374,
      "æķ°æį®åĪĨæŀĲ": 9375,
      "onia": 9376,
      "æĭĸ": 9377,
      "åı¯è§Ĩ": 9378,
      "cerebral": 9379,
      "ä¸īåįģ": 9380,
      "æº¢": 9381,
      "lesion": 9382,
      "å«Įçĸĳ": 9383,
      "åĩºåıĳçĤ¹": 9384,
      "lateral": 9385,
      "ä¸ŃåİŁ": 9386,
      "å¤ĩæ¡Ī": 9387,
      "aro": 9388,
      "èµ°åĩº": 9389,
      "åıĺå±Ģ": 9390,
      "ä¸Ńå±±": 9391,
      "èį§åħī": 9392,
      "åİī": 9393,
      "çĪĨçĤ¸": 9394,
      "next": 9395,
      "units": 9396,
      "MV": 9397,
      "fast": 9398,
      "team": 9399,
      "improvement": 9400,
      "align": 9401,
      "radio": 9402,
      "author": 9403,
      "aling": 9404,
      "exist": 9405,
      "ä»£ä»·": 9406,
      "ä¸ĸçķĮè§Ĥ": 9407,
      "prep": 9408,
      "çĶŁäº§æĸ¹å¼ı": 9409,
      "åıĤè§ģ": 9410,
      "reviewed": 9411,
      "ç´§å¼ł": 9412,
      "éĢīåıĸ": 9413,
      "needs": 9414,
      "å¹¶è´Ń": 9415,
      "ç®¡çĲĨäººåĳĺ": 9416,
      "æģ¶æĢ§": 9417,
      "utral": 9418,
      "æĥĳ": 9419,
      "eti": 9420,
      "prostate": 9421,
      "ä¸¤å¹´": 9422,
      "çĶŁäº§æĢ»åĢ¼": 9423,
      "åĶĲä»£": 9424,
      "åĲĳéĩı": 9425,
      "fibr": 9426,
      "error": 9427,
      "åħ»èĢģä¿ĿéĻ©": 9428,
      "åįĬå¯¼ä½ĵ": 9429,
      "unique": 9430,
      "å¤©çĦ¶æ°Ķ": 9431,
      "referred": 9432,
      "somes": 9433,
      "Si": 9434,
      "ä¾¿æĺ¯": 9435,
      "æķĻåŃ¦æ¨¡å¼ı": 9436,
      "angu": 9437,
      "necro": 9438,
      "åĽŀåĪ°": 9439,
      "åıĭå¥½": 9440,
      "fluorescence": 9441,
      "LDL": 9442,
      "å¼ķæĵİ": 9443,
      "ono": 9444,
      "åĬłéĩį": 9445,
      "profile": 9446,
      "å¼Ħ": 9447,
      "æ²¿æµ·": 9448,
      "åįģä¹ĿæĿ¡": 9449,
      "manner": 9450,
      "Some": 9451,
      "å¯Įæľī": 9452,
      "Dec": 9453,
      "attenu": 9454,
      "AG": 9455,
      "åħ¨åĽ½äººæ°ĳä»£è¡¨å¤§ä¼ļ": 9456,
      "microb": 9457,
      "chy": 9458,
      "adeno": 9459,
      "è¡¨å¾ģ": 9460,
      "hout": 9461,
      "æĦŁåĪ°": 9462,
      "ç¥¥": 9463,
      "æİĪäºĪ": 9464,
      "adequ": 9465,
      "ç§ĳæĻ®": 9466,
      "Inf": 9467,
      "æĳ¸": 9468,
      "conclusion": 9469,
      "1995": 9470,
      "Eff": 9471,
      "zing": 9472,
      "unknown": 9473,
      "çĶµéĺ»": 9474,
      "alk": 9475,
      "åĢ¡è®®": 9476,
      "undergo": 9477,
      "Mean": 9478,
      "éĢĤå®ľ": 9479,
      "æ±Ĺ": 9480,
      "organis": 9481,
      "includes": 9482,
      "TF": 9483,
      "åıįèĢĮ": 9484,
      "longer": 9485,
      "pp": 9486,
      "åĩºåİ»": 9487,
      "æ··åĩĿ": 9488,
      "åĭĩäºİ": 9489,
      "æķ°æį®ä¸Ńå¿ĥ": 9490,
      "medicine": 9491,
      "åı²åŃ¦": 9492,
      "çĮĽ": 9493,
      "encies": 9494,
      "æ¬¢è¿İ": 9495,
      "relation": 9496,
      "æł¹æºĲ": 9497,
      "åº¸": 9498,
      "basal": 9499,
      "æ½®æµģ": 9500,
      "Sig": 9501,
      "æľĭåıĭ": 9502,
      "ä¸Ģç¯ĩ": 9503,
      "é«ĺåİĭ": 9504,
      "ç¥Ŀ": 9505,
      "ä¼łå¯¼": 9506,
      "HL": 9507,
      "strongly": 9508,
      "åŁĭ": 9509,
      "çĸ¼çĹĽ": 9510,
      "tly": 9511,
      "pool": 9512,
      "éļıä¹ĭ": 9513,
      "behavioral": 9514,
      "è´¨çĸĳ": 9515,
      "å¤ļæĸ¹éĿ¢": 9516,
      "malignant": 9517,
      "å¸ķ": 9518,
      "inhibitory": 9519,
      "natural": 9520,
      "æĸ°ä¸Ģä»£": 9521,
      "èĪ°": 9522,
      "åıĮåĲĳ": 9523,
      "æĪĺå½¹": 9524,
      "åĪĨè¾¨çİĩ": 9525,
      "èĪŀåı°": 9526,
      "find": 9527,
      "colo": 9528,
      "Eth": 9529,
      "SR": 9530,
      "segment": 9531,
      "æī®": 9532,
[...]
