{
  "version": "1.0",
  "truncation": null,
  "padding": null,
  "added_tokens": [
    {
      "id": 0,
      "content": "<|endoftext|>",
      "single_word": false,
      "lstrip": false,
      "rstrip": false,
      "normalized": false,
      "special": true
    },
    {
      "id": 1,
      "content": "<|im_end|>",
      "single_word": false,
      "lstrip": false,
      "rstrip": false,
      "normalized": false,
      "special": true
    },
    {
      "id": 2,
      "content": "<|im_system|>",
      "single_word": false,
      "lstrip": false,
      "rstrip": false,
      "normalized": false,
      "special": true
    },
    {
      "id": 3,
      "content": "<|im_user|>",
      "single_word": false,
      "lstrip": false,
      "rstrip": false,
      "normalized": false,
      "special": true
    },
    {
      "id": 4,
      "content": "<|im_assistant|>",
      "single_word": false,
      "lstrip": false,
      "rstrip": false,
      "normalized": false,
      "special": true
    }
  ],
  "normalizer": null,
  "pre_tokenizer": {
    "type": "ByteLevel",
    "add_prefix_space": false,
    "trim_offsets": true,
    "use_regex": true
  },
  "post_processor": {
    "type": "ByteLevel",
    "add_prefix_space": true,
    "trim_offsets": false,
    "use_regex": true
  },
  "decoder": {
    "type": "ByteLevel",
    "add_prefix_space": true,
    "trim_offsets": true,
    "use_regex": true
  },
  "model": {
    "type": "BPE",
    "dropout": null,
    "unk_token": null,
    "continuing_subword_prefix": null,
    "end_of_word_suffix": null,
    "fuse_unk": false,
    "byte_fallback": false,
    "ignore_merges": false,
    "vocab": {
      "<|endoftext|>": 0,
      "<|im_end|>": 1,
      "<|im_system|>": 2,
      "<|im_user|>": 3,
      "<|im_assistant|>": 4,
      "!": 5,
      "\"": 6,
      "#": 7,
      "$": 8,
      "%": 9,
      "&": 10,
      "'": 11,
      "(": 12,
      ")": 13,
      "*": 14,
      "+": 15,
      ",": 16,
      "-": 17,
      ".": 18,
      "/": 19,
      "0": 20,
      "1": 21,
      "2": 22,
      "3": 23,
      "4": 24,
      "5": 25,
      "6": 26,
      "7": 27,
      "8": 28,
      "9": 29,
      ":": 30,
      ";": 31,
      "<": 32,
      "=": 33,
      ">": 34,
      "?": 35,
      "@": 36,
      "A": 37,
      "B": 38,
      "C": 39,
      "D": 40,
      "E": 41,
      "F": 42,
      "G": 43,
      "H": 44,
      "I": 45,
      "J": 46,
      "K": 47,
      "L": 48,
      "M": 49,
      "N": 50,
      "O": 51,
      "P": 52,
      "Q": 53,
      "R": 54,
      "S": 55,
      "T": 56,
      "U": 57,
      "V": 58,
      "W": 59,
      "X": 60,
      "Y": 61,
      "Z": 62,
      "[": 63,
      "\\": 64,
      "]": 65,
      "^": 66,
      "_": 67,
      "`": 68,
      "a": 69,
      "b": 70,
      "c": 71,
      "d": 72,
      "e": 73,
      "f": 74,
      "g": 75,
      "h": 76,
      "i": 77,
      "j": 78,
      "k": 79,
      "l": 80,
      "m": 81,
      "n": 82,
      "o": 83,
      "p": 84,
      "q": 85,
      "r": 86,
      "s": 87,
      "t": 88,
      "u": 89,
      "v": 90,
      "w": 91,
      "x": 92,
      "y": 93,
      "z": 94,
      "{": 95,
      "|": 96,
      "}": 97,
      "~": 98,
      "¡": 99,
      "¢": 100,
      "£": 101,
      "¤": 102,
      "¥": 103,
      "¦": 104,
      "§": 105,
      "¨": 106,
      "©": 107,
      "ª": 108,
      "«": 109,
      "¬": 110,
      "®": 111,
      "¯": 112,
      "°": 113,
      "±": 114,
      "²": 115,
      "³": 116,
      "´": 117,
      "µ": 118,
      "¶": 119,
      "·": 120,
      "¸": 121,
      "¹": 122,
      "º": 123,
      "»": 124,
      "¼": 125,
      "½": 126,
      "¾": 127,
      "¿": 128,
      "Â": 129,
      "Ã": 130,
      "Ä": 131,
      "Å": 132,
      "Æ": 133,
      "Ç": 134,
      "È": 135,
      "É": 136,
      "Ê": 137,
      "Ë": 138,
      "Ì": 139,
      "Í": 140,
      "Î": 141,
      "Ï": 142,
      "Ð": 143,
      "Ñ": 144,
      "Ò": 145,
      "Ó": 146,
      "Ô": 147,
      "Õ": 148,
      "Ö": 149,
      "×": 150,
      "Ø": 151,
      "Ù": 152,
      "Ú": 153,
      "Û": 154,
      "Ü": 155,
      "ß": 156,
      "à": 157,
      "á": 158,
      "â": 159,
      "ã": 160,
      "ä": 161,
      "å": 162,
      "æ": 163,
      "ç": 164,
      "è": 165,
      "é": 166,
      "ê": 167,
      "ë": 168,
      "ì": 169,
      "í": 170,
      "î": 171,
      "ï": 172,
      "ð": 173,
      "ó": 174,
      "ô": 175,
      "Ā": 176,
      "ā": 177,
      "Ă": 178,
      "ă": 179,
      "Ą": 180,
      "ą": 181,
      "Ć": 182,
      "ć": 183,
      "Ĉ": 184,
      "ĉ": 185,
      "Ċ": 186,
      "ċ": 187,
      "Č": 188,
      "č": 189,
      "Ď": 190,
      "ď": 191,
      "Đ": 192,
      "đ": 193,
      "Ē": 194,
      "ē": 195,
      "Ĕ": 196,
      "ĕ": 197,
      "Ė": 198,
      "ė": 199,
      "Ę": 200,
      "ę": 201,
      "Ě": 202,
      "ě": 203,
      "Ĝ": 204,
      "ĝ": 205,
      "Ğ": 206,
      "ğ": 207,
      "Ġ": 208,
      "ġ": 209,
      "Ģ": 210,
      "ģ": 211,
      "Ĥ": 212,
      "ĥ": 213,
      "Ħ": 214,
      "ħ": 215,
      "Ĩ": 216,
      "ĩ": 217,
      "Ī": 218,
      "ī": 219,
      "Ĭ": 220,
      "ĭ": 221,
      "Į": 222,
      "į": 223,
      "İ": 224,
      "ı": 225,
      "Ĳ": 226,
      "ĳ": 227,
      "Ĵ": 228,
      "ĵ": 229,
      "Ķ": 230,
      "ķ": 231,
      "ĸ": 232,
      "Ĺ": 233,
      "ĺ": 234,
      "Ļ": 235,
      "ļ": 236,
      "Ľ": 237,
      "ľ": 238,
      "Ŀ": 239,
      "ŀ": 240,
      "Ł": 241,
      "ł": 242,
      "Ń": 243,
      "ä¸": 244,
      "çļ": 245,
      "çļĦ": 246,
      "ĠĠ": 247,
      "ï¼": 248,
      "äº": 249,
      "ãĢ": 250,
      "ï¼Į": 251,
      "åħ": 252,
      "åı": 253,
      "æľ": 254,
      "ä»": 255,
      "åĪ": 256,
      "in": 257,
      "ĠĠĠĠ": 258,
      "å®": 259,
      "Ġa": 260,
      "Ġt": 261,
      "re": 262,
      "ç»": 263,
      "è¿": 264,
      "ä½": 265,
      "åĬ": 266,
      "å¤": 267,
      "ãĢĤ": 268,
      "çĶ": 269,
      "åĲ": 270,
      "åĽ": 271,
      "on": 272,
      "åľ": 273,
      "he": 274,
      "æĸ": 275,
      "--": 276,
      "ti": 277,
      "æĺ": 278,
      "è®": 279,
      "ä¹": 280,
      "ãĢģ": 281,
      "en": 282,
      "æĪ": 283,
      "ä¼": 284,
      "è¯": 285,
      "åŃ": 286,
      "Ġo": 287,
      "er": 288,
      "åĴ": 289,
      "åº": 290,
      "åĴĮ": 291,
      "æķ": 292,
      "Ġc": 293,
      "æĺ¯": 294,
      "Ġs": 295,
      "ä¸Ń": 296,
      "Ġthe": 297,
      "ä¸Ģ": 298,
      "æĿ": 299,
      "ed": 300,
      "æĢ": 301,
      "al": 302,
      "åĮ": 303,
      "ĠĠĠĠĠĠĠĠ": 304,
      "å¹": 305,
      "å¯": 306,
      "åľ¨": 307,
      "å¼": 308,
      "åĽ½": 309,
      "éĩ": 310,
      "è¡": 311,
      "æĹ": 312,
      "Ġin": 313,
      "Ġp": 314,
      "at": 315,
      "äºº": 316,
      "åį": 317,
      "æĶ": 318,
      "åĨ": 319,
      "es": 320,
      "Ġan": 321,
      "è§": 322,
      "or": 323,
      "æ³": 324,
      "ä¸º": 325,
      "æľī": 326,
      "çĽ": 327,
      "å°": 328,
      "Ġw": 329,
      "èĢ": 330,
      "éĢ": 331,
      "å±": 332,
      "Ġof": 333,
      "æī": 334,
      "âĢ": 335,
      "åŃ¦": 336,
      "is": 337,
      "è´": 338,
      "ç§": 339,
      "çİ": 340,
      "an": 341,
      "åĩ": 342,
      "æĬ": 343,
      "å¾": 344,
      "èĥ": 345,
      "----": 346,
      "æł": 347,
      "tion": 348,
      "ä¸į": 349,
      "åıĳ": 350,
      "æ°": 351,
      "ro": 352,
      "Ġm": 353,
      "it": 354,
      "çĲ": 355,
      "å·": 356,
      "æ³ķ": 357,
      "Ġand": 358,
      "ä»¥": 359,
      "Ġd": 360,
      "å¸": 361,
      "è¦": 362,
      "Ġf": 363,
      "å½": 364,
      "è¦ģ": 365,
      "çĶŁ": 366,
      "ic": 367,
      "ä¿": 368,
      "çī": 369,
      "éĻ": 370,
      "éĿ": 371,
      "çĲĨ": 372,
      "æŀ": 373,
      "as": 374,
      "çĶ¨": 375,
      "Ġb": 376,
      "å¤§": 377,
      "å¯¹": 378,
      "ar": 379,
      "åŁ": 380,
      "è¡Į": 381,
      "æİ": 382,
      "äºĨ": 383,
      "ä¸ļ": 384,
      "æµ": 385,
      "åĮĸ": 386,
      "ing": 387,
      "èµ": 388,
      "çŃ": 389,
      "èĥ½": 390,
      "ä¼ļ": 391,
      "æŃ": 392,
      "æĢ§": 393,
      "å®ŀ": 394,
      "éĹ": 395,
      "é¢": 396,
      "å¿": 397,
      "ä½ľ": 398,
      "ä½ĵ": 399,
      "el": 400,
      "çº": 401,
      "æĪĲ": 402,
      "ä¸»": 403,
      "Ġ(": 404,
      "æĮ": 405,
      "ent": 406,
      "äºİ": 407,
      "æĸ¹": 408,
      "å®ļ": 409,
      "ä¸İ": 410,
      "èĩ": 411,
      "Ġre": 412,
      "ä¸ª": 413,
      "åĪ¶": 414,
      "åĪĨ": 415,
      "è¿Ľ": 416,
      "le": 417,
      "ç¨": 418,
      "åİ": 419,
      "åĬ¨": 420,
      "äº§": 421,
      "æĹ¶": 422,
      "çİ°": 423,
      "åı¯": 424,
      "å±ķ": 425,
      "ç¤": 426,
      "ç»ı": 427,
      "æ²": 428,
      "ä¾": 429,
      "Ġto": 430,
      "ec": 431,
      "åĩº": 432,
      "åľ°": 433,
      "ä¸Ĭ": 434,
      "æ°ĳ": 435,
      "åĳ": 436,
      "åĲĪ": 437,
      "ĠĠĠĠĠĠĠĠĠĠĠĠĠĠĠĠ": 438,
      "éĥ": 439,
      "ation": 440,
      "ç«": 441,
      "åĲĮ": 442,
      "ç³": 443,
      "Ġe": 444,
      "æı": 445,
      "åĬĽ": 446,
      "å¹´": 447,
      "è¾": 448,
      "å»": 449,
      "æĸ°": 450,
      "ç®": 451,
      "è¿Ļ": 452,
      "æľ¬": 453,
      "åħ¨": 454,
      "ç³»": 455,
      "åħ³": 456,
      "æĶ¿": 457,
      "å·¥": 458,
      "us": 459,
      "åºĶ": 460,
      "çŃī": 461,
      "éĩį": 462,
      "æį": 463,
      "åº¦": 464,
      "å»º": 465,
      "ul": 466,
      "èĤ": 467,
      "æķĻ": 468,
      "åħ¶": 469,
      "è¿ĩ": 470,
      "åıĳå±ķ": 471,
      "âĢľ": 472,
      "é«": 473,
      "âĢĿ": 474,
      "æķ°": 475,
      "é«ĺ": 476,
      "--------": 477,
      "æ±": 478,
      "æĿ¥": 479,
      "ç¨ĭ": 480,
      "om": 481,
      "ç¤¾": 482,
      "æĸĩ": 483,
      "ig": 484,
      "èĢĮ": 485,
      "ç½": 486,
      "ac": 487,
      "æıĲ": 488,
      "Ġth": 489,
      "åŁº": 490,
      "è®¾": 491,
      "ç¬": 492,
      "æĥ": 493,
      "éĿ¢": 494,
      "Ġn": 495,
      "èĩª": 496,
      "æĦ": 497,
      "èĢħ": 498,
      "åĪ°": 499,
      "æĭ": 500,
      "åĵ": 501,
      "et": 502,
      "å®¶": 503,
      "ä¹ĭ": 504,
      "çł": 505,
      "ä»£": 506,
      "Ġh": 507,
      "ç©": 508,
      "==": 509,
      "ä¹ī": 510,
      "æľº": 511,
      "éĺ": 512,
      "ç¡": 513,
      "ol": 514,
      "èµĦ": 515,
      "ĠT": 516,
      "ç¤¾ä¼ļ": 517,
      "è½": 518,
      "¦Ĥ": 519,
      "åĬ¡": 520,
      "os": 521,
      "å¢": 522,
      "åī": 523,
      "éĩı": 524,
      "im": 525,
      "åĢ": 526,
      "çī©": 527,
      "ur": 528,
      "è§Ħ": 529,
      "æ´": 530,
      "ä¸ŃåĽ½": 531,
      "éĢļ": 532,
      "å¤ļ": 533,
      "ve": 534,
      "æĿĥ": 535,
      "æ¯": 536,
      "ly": 537,
      "ç»Ł": 538,
      "ç§į": 539,
      "è°": 540,
      "æīĢ": 541,
      "éĥ¨": 542,
      "id": 543,
      "åĨħ": 544,
      "çĽ¸": 545,
      "un": 546,
      "ç¬¬": 547,
      "åħ¬": 548,
      "ä¿Ŀ": 549,
      "20": 550,
      "è·": 551,
      "èģ": 552,
      "åĬł": 553,
      "å¥": 554,
      "åıĬ": 555,
      "é¡": 556,
      "Ġl": 557,
      "éģ": 558,
      "åĪ©": 559,
      "äºĭ": 560,
      "æį®": 561,
      "ith": 562,
      "ä¸ĭ": 563,
      "å¼ı": 564,
      "æ²»": 565,
      "æĪĳ": 566,
      "ere": 567,
      "æĽ": 568,
      "ç»ĵ": 569,
      "ç®¡": 570,
      "çķ": 571,
      "åĽł": 572,
      "å¼Ģ": 573,
      "Ġwith": 574,
      "åĲİ": 575,
      "çŁ": 576,
      "çĤ": 577,
      "å¦Ĥ": 578,
      "ä¹Ł": 579,
      "çī¹": 580,
      "æĪĸ": 581,
      "çłĶ": 582,
      "åĿ": 583,
      "ä¿¡": 584,
      "Ġg": 585,
      "å½ĵ": 586,
      "æĬĢ": 587,
      "å¹³": 588,
      "åħļ": 589,
      "ä»İ": 590,
      "éĹ´": 591,
      "ot": 592,
      "éļ": 593,
      "è®¡": 594,
      "Ġ1": 595,
      "res": 596,
      "æľ¯": 597,
      "æ¬": 598,
      "æµİ": 599,
      "Ġst": 600,
      "å°±": 601,
      "ce": 602,
      "æĺİ": 603,
      "æŀĦ": 604,
      "ç«ĭ": 605,
      "é¢ĺ": 606,
      "åģ": 607,
      "è§£": 608,
      "Ġfor": 609,
      "è®º": 610,
      "Ġpro": 611,
      "ä½¿": 612,
      "åħ±": 613,
      "ç»ıæµİ": 614,
      "å¼º": 615,
      "å¹¶": 616,
      "il": 617,
      "æľŁ": 618,
      "ĠC": 619,
      "ç§ĳ": 620,
      "æłĩ": 621,
      "ter": 622,
      "è¡¨": 623,
      "ä»¬": 624,
      "éķ": 625,
      "è´¨": 626,
      "ut": 627,
      "èī": 628,
      "å½¢": 629,
      "ç©¶": 630,
      "ĠA": 631,
      "ç´": 632,
      "çĽ®": 633,
      "ç±": 634,
      "éľ": 635,
      "Ġcon": 636,
      "è¶": 637,
      "çľ": 638,
      "åıĺ": 639,
      "å¾Ĺ": 640,
      "ati": 641,
      "çĤ¹": 642,
      "åħ¥": 643,
      "æ¸": 644,
      "æĦı": 645,
      "åĮº": 646,
      "if": 647,
      "æģ": 648,
      "Ġas": 649,
      "çĶ±": 650,
      "å¯¼": 651,
      "æŁ": 652,
      "ä¸ī": 653,
      "æº": 654,
      "ow": 655,
      "am": 656,
      "åīį": 657,
      "èĤ²": 658,
      "æĻ": 659,
      "å¸Ĥ": 660,
      "ell": 661,
      "ï¼ī": 662,
      "çłĶç©¶": 663,
      "åŀ": 664,
      "ç¾": 665,
      "å¿ĥ": 666,
      "Ġis": 667,
      "éĹ®": 668,
      "00": 669,
      "å¤ĸ": 670,
      "æķĪ": 671,
      "ç»Ħ": 672,
      "ï¼Ī": 673,
      "æĢĿ": 674,
      "Ġv": 675,
      "[@": 676,
      "æĮģ": 677,
      "ĠI": 678,
      "um": 679,
      "æ±Ĥ": 680,
      "åħ·": 681,
      "Ġex": 682,
      "ated": 683,
      "æ¶": 684,
      "uc": 685,
      "çĦ": 686,
      "åĲĳ": 687,
      "ĠS": 688,
      "ä»ĸ": 689,
      "éĽ": 690,
      "å°Ĩ": 691,
      "æĽ´": 692,
      "æĶ¹": 693,
      "åĪĽ": 694,
      "æŃ¤": 695,
      "od": 696,
      "ä¸»ä¹ī": 697,
      "ä»¶": 698,
      "oc": 699,
      "åĽ½å®¶": 700,
      "æľĢ": 701,
      "åĲĦ": 702,
      "äºĮ": 703,
      "ab": 704,
      "ç±»": 705,
      "åİŁ": 706,
      "æºĲ": 707,
      "éķ¿": 708,
      "æĿ¡": 709,
      "éľĢ": 710,
      "åŃĲ": 711,
      "çĿ": 712,
      "si": 713,
      "ä½į": 714,
      "st": 715,
      "æĮĩ": 716,
      "ï¼ļ": 717,
      "çĶµ": 718,
      "æ´»": 719,
      "è¯Ĩ": 720,
      "åŀĭ": 721,
      "ç¡®": 722,
      "è®¤": 723,
      "åı¯ä»¥": 724,
      "æĬĢæľ¯": 725,
      "è¿Ľè¡Į": 726,
      "ra": 727,
      "ç¼": 728,
      "Ġthat": 729,
      "ä¸Ģä¸ª": 730,
      "çĦ¶": 731,
      "éª": 732,
      "æŃ£": 733,
      "ä¼ģ": 734,
      "åĵģ": 735,
      "éĹ®é¢ĺ": 736,
      "æ¨": 737,
      "æ¡": 738,
      "è°ĥ": 739,
      "ts": 740,
      "æİ¨": 741,
      "ment": 742,
      "ä»»": 743,
      "åĨ³": 744,
      "tic": 745,
      "ä»·": 746,
      "é£": 747,
      "æĥħ": 748,
      "åľº": 749,
      "ity": 750,
      "æŀľ": 751,
      "çĸ": 752,
      "ä¼ł": 753,
      "æ°´": 754,
      "ag": 755,
      "å§": 756,
      "éĩĳ": 757,
      "Ġbe": 758,
      "ĠĠĠĠĠĠĠĠĠĠĠĠĠĠĠĠĠĠĠĠĠĠĠĠĠĠĠĠĠĠĠĠ": 759,
      "æ·": 760,
      "åĳĺ": 761,
      "æ¨¡": 762,
      "å¢ŀ": 763,
      "ä¼ģä¸ļ": 764,
      "ud": 765,
      "æķĻèĤ²": 766,
      "äººæ°ĳ": 767,
      "ç®¡çĲĨ": 768,
      "é¢Ĩ": 769,
      "åĪĻ": 770,
      "ç²": 771,
      "ĠP": 772,
      "op": 773,
      "æĢģ": 774,
      "æĹł": 775,
      "Ġwas": 776,
      "éĢł": 777,
      "åįģ": 778,
      "è¯ģ": 779,
      "ir": 780,
      "å®ī": 781,
      "ver": 782,
      "ï¼Ľ": 783,
      "Ġon": 784,
      "éĿ©": 785,
      "ri": 786,
      "ä¹ł": 787,
      "æĹ¥": 788,
      "èĲ": 789,
      "è§Ĥ": 790,
      ").": 791,
      "Ġwere": 792,
      "çĹ": 793,
      "----------------": 794,
      "Ġal": 795,
      "çŁ¥": 796,
      "ä½Ĩ": 797,
      "å¤Ħ": 798,
      "åĨľ": 799,
      "å»ºè®¾": 800,
      "çİ¯": 801,
      "äºĽ": 802,
      "åŃĺ": 803,
      "====": 804,
      "ĠM": 805,
      "èĬ": 806,
      "se": 807,
      "è¿Ĳ": 808,
      "og": 809,
      "æµģ": 810,
      "ãĢĬ": 811,
      "ãĢĭ": 812,
      "ç½ĳ": 813,
      "ĠThe": 814,
      "æ®": 815,
      "æģ¯": 816,
      "éħ": 817,
      "ate": 818,
      "yp": 819,
      "å¾ĭ": 820,
      "æİ¥": 821,
      "è¢": 822,
      "åı²": 823,
      "èµ·": 824,
      "å°ı": 825,
      "éĶ": 826,
      "äº¤": 827,
      "æĪĺ": 828,
      "Ġcell": 829,
      "å·¥ä½ľ": 830,
      "Ġby": 831,
      "è½¬": 832,
      "å¸¸": 833,
      "ä¾Ľ": 834,
      "æķ°æį®": 835,
      "éĢļè¿ĩ": 836,
      "åĩĨ": 837,
      "ç¥": 838,
      "æ¯Ķ": 839,
      "éĥ½": 840,
      "up": 841,
      "éĻħ": 842,
      "æĸ½": 843,
      "ç³»ç»Ł": 844,
      "æľį": 845,
      "em": 846,
      "çĻ": 847,
      "éģĵ": 848,
      "åĢ¼": 849,
      "her": 850,
      "è¢«": 851,
      "Ġac": 852,
      "ä¸ĸ": 853,
      "åıĸ": 854,
      "ted": 855,
      "çĿĢ": 856,
      "å¢ĥ": 857,
      "è¯´": 858,
      "æĶ¶": 859,
      "åıį": 860,
      "åįķ": 861,
      "ĠH": 862,
      "èģĶ": 863,
      "ay": 864,
      "çº§": 865,
      "Ġ\\": 866,
      "éĻ¢": 867,
      "é¡¹": 868,
      "å¥½": 869,
      "çķĮ": 870,
      "åķ": 871,
      "æĥ³": 872,
      "ure": 873,
      "Ġcom": 874,
      "éĩįè¦ģ": 875,
      "Ġ*": 876,
      "Ġor": 877,
      "èĮ": 878,
      "éªĮ": 879,
      "åıĹ": 880,
      "æĢ»": 881,
      "éĵ": 882,
      "19": 883,
      "th": 884,
      "éĽĨ": 885,
      "ä¿¡æģ¯": 886,
      "rom": 887,
      "åŁŁ": 888,
      "åİĨ": 889,
      "ç´ł": 890,
      "çİĩ": 891,
      "å®Į": 892,
      "åŃ¦çĶŁ": 893,
      "çŃĸ": 894,
      "æ¬¡": 895,
      "å¿ħ": 896,
      "æ¡Ī": 897,
      "qu": 898,
      "æĬ¤": 899,
      "è¿ĺ": 900,
      "ä¸¤": 901,
      "åķĨ": 902,
      "ical": 903,
      "æŃ¥": 904,
      "ä¸ĵ": 905,
      "åı¸": 906,
      "çĬ": 907,
      "è·¯": 908,
      "èī²": 909,
      "Ġ2": 910,
      "æĶ¾": 911,
      "Ġres": 912,
      "ç¾İ": 913,
      "æĶ¯": 914,
      "åĪ¶åº¦": 915,
      "èĭ": 916,
      "åĻ": 917,
      "èŀ": 918,
      "å®ŀçİ°": 919,
      "åĮħ": 920,
      "çĽĬ": 921,
      "å¤į": 922,
      "æķ´": 923,
      "ents": 924,
      "Ġare": 925,
      "æł¹": 926,
      "æĸŃ": 927,
      "è®®": 928,
      "æĪĳä»¬": 929,
      "æµĭ": 930,
      "vel": 931,
      "di": 932,
      "ant": 933,
      "å½±": 934,
      "ä¸»è¦ģ": 935,
      "æ·±": 936,
      "Ġim": 937,
      "èŀį": 938,
      "èį": 939,
      "èĮĥ": 940,
      "æľįåĬ¡": 941,
      "æł·": 942,
      "é©": 943,
      "æĸĩåĮĸ": 944,
      "èĬĤ": 945,
      "å®¹": 946,
      "ä¹¦": 947,
      "åŁºç¡": 948,
      "åĪ«": 949,
      "åŁºç¡Ģ": 950,
      "èĪ": 951,
      "Ġexp": 952,
      "æĸ¹éĿ¢": 953,
      "è¾ĥ": 954,
      "å¼ķ": 955,
      "Ġde": 956,
      "åĻ¨": 957,
      "ç®Ĺ": 958,
      "æľĪ": 959,
      "ĠD": 960,
      "èĢĥ": 961,
      "ain": 962,
      "æł¼": 963,
      "ran": 964,
      "ç»ĩ": 965,
      "ä¼ĺ": 966,
      "åħĪ": 967,
      "çº¿": 968,
      "è¿ĩç¨ĭ": 969,
      "åĽ¾": 970,
      "é£İ": 971,
      "è´£": 972,
      "è¾¾": 973,
      "è¯¾": 974,
      "ç¦": 975,
      "ä¾Ŀ": 976,
      "åĽĽ": 977,
      "ä¾ĭ": 978,
      "èĦ": 979,
      "),": 980,
      "éľĢè¦ģ": 981,
      "Ġdis": 982,
      "ase": 983,
      "è£": 984,
      "Ġus": 985,
      "åĵį": 986,
      "ad": 987,
      "å¸Ĥåľº": 988,
      "æİ§": 989,
      "åĸ": 990,
      "åĳ½": 991,
      "ine": 992,
      "åħĥ": 993,
      "ĠF": 994,
      "sion": 995,
      "å®ĥ": 996,
      "å±Ĥ": 997,
      "éĿŀ": 998,
      "è¿ĳ": 999,
      "å·²": 1000,
      "10": 1001,
      "ç»Ħç»ĩ": 1002,
      "ff": 1003,
      "è±": 1004,
      "éĻ©": 1005,
      "è¯¥": 1006,
      "èĥ½åĬĽ": 1007,
      "çĹħ": 1008,
      "èģĮ": 1009,
      "åħ³ç³»": 1010,
      "ĠR": 1011,
      "ç²¾": 1012,
      "ess": 1013,
      "çĲĨè®º": 1014,
      "Ġat": 1015,
      "æĸ¹æ³ķ": 1016,
      "ç¤º": 1017,
      "çĶŁäº§": 1018,
      "è¯Ħ": 1019,
      "æĹı": 1020,
      "ç»´": 1021,
      "æŀĲ": 1022,
      "åºľ": 1023,
      "è§Ħå®ļ": 1024,
      "ĠN": 1025,
      "ä½ĵç³»": 1026,
      "åĿļ": 1027,
      "åįı": 1028,
      "åħ·æľī": 1029,
      "æł¸": 1030,
      "ä¸įåĲĮ": 1031,
      "Ġinc": 1032,
      "ĠB": 1033,
      "å£": 1034,
      "Ġch": 1035,
      "æĪĳåĽ½": 1036,
      "çİ¯å¢ĥ": 1037,
      "ore": 1038,
      "æ®µ": 1039,
      "ä¸ŃçļĦ": 1040,
      "çĽĳ": 1041,
      "Ġ3": 1042,
      "Ġ0": 1043,
      "åĪĽæĸ°": 1044,
      "å¸Ī": 1045,
      "åŁİ": 1046,
      "åħ»": 1047,
      "å®īåħ¨": 1048,
      "çº¦": 1049,
      "åİĨåı²": 1050,
      "Ġfrom": 1051,
      "åıĤ": 1052,
      "èĻ": 1053,
      "å½±åĵį": 1054,
      "æ³ķå¾ĭ": 1055,
      "äºī": 1056,
      "æĬĬ": 1057,
      "ç§ĳåŃ¦": 1058,
      "æ£": 1059,
      "éĹ¨": 1060,
      "ub": 1061,
      "éĴ": 1062,
      "æīį": 1063,
      "ç¥ŀ": 1064,
      "åĬŁ": 1065,
      "æĺĵ": 1066,
      "æĦŁ": 1067,
      "åŁºæľ¬": 1068,
      "Ġwh": 1069,
      "æĶ¿åºľ": 1070,
      "æľª": 1071,
      "ph": 1072,
      "Ġstud": 1073,
      "te": 1074,
      "å¤ĩ": 1075,
      "pl": 1076,
      "ä½İ": 1077,
      "æŀģ": 1078,
      "ä½¿çĶ¨": 1079,
      "è±¡": 1080,
      "èº": 1081,
      "è®°": 1082,
      "ĠE": 1083,
      "åį³": 1084,
      "Ġr": 1085,
      "und": 1086,
      "äºĴ": 1087,
      "åŃĹ": 1088,
      "åĪĴ": 1089,
      "ign": 1090,
      "Ġne": 1091,
      "ype": 1092,
      "éĢī": 1093,
      "èĩ³": 1094,
      "ç»Ĩ": 1095,
      "é¦": 1096,
      "orm": 1097,
      "è¦ģæ±Ĥ": 1098,
      "å¿µ": 1099,
      "æĶ¹éĿ©": 1100,
      "èº«": 1101,
      "å¤©": 1102,
      "è¯Ń": 1103,
      "æıĲä¾Ľ": 1104,
      "åĪĨæŀĲ": 1105,
      "**": 1106,
      "Ġcells": 1107,
      "ers": 1108,
      "è¡Įä¸º": 1109,
      "åºı": 1110,
      "æĿĳ": 1111,
      "Ĥ£": 1112,
      "è¥": 1113,
      "Ġpati": 1114,
      "æł¡": 1115,
      "è§Ĩ": 1116,
      "ä½ľçĶ¨": 1117,
      "æŁ¥": 1118,
      "éĻĲ": 1119,
      "æ³¨": 1120,
      "ç»Ń": 1121,
      "ies": 1122,
      "å°ĳ": 1123,
      "ref": 1124,
      "ä½ľä¸º": 1125,
      "å±Ģ": 1126,
      "æĺ¾": 1127,
      "è¥¿": 1128,
      "æĬ¥": 1129,
      "èĩ´": 1130,
      "èĲ¥": 1131,
      "çĽ´": 1132,
      "ç¤¾ä¼ļä¸»ä¹ī": 1133,
      "æĬķ": 1134,
      "æķĻåŃ¦": 1135,
      "ug": 1136,
      "åŃ¦ä¹ł": 1137,
      "ĠIn": 1138,
      "éĢĤ": 1139,
      "igh": 1140,
      "åĨµ": 1141,
      "å®¡": 1142,
      "ä¸ľ": 1143,
      "Ġle": 1144,
      "æ°Ķ": 1145,
      "ä½ķ": 1146,
      "æĶ¿æ²»": 1147,
      "æĸ¹å¼ı": 1148,
      "Ġcomp": 1149,
      "è´¹": 1150,
      "ç»ĵæŀĦ": 1151,
      "åĨĽ": 1152,
      "çģ": 1153,
      "ib": 1154,
      "duc": 1155,
      "ç©º": 1156,
      "Ġhe": 1157,
      "åħ¬åı¸": 1158,
      "éĩĩ": 1159,
      "Ġad": 1160,
      "por": 1161,
      "åı£": 1162,
      "åĸĦ": 1163,
      "åĬ¿": 1164,
      "çĥ": 1165,
      "æĢĿæĥ³": 1166,
      "åıª": 1167,
      "çķ¥": 1168,
      "èµĦæºĲ": 1169,
      "Ġcont": 1170,
      "ä»¥åıĬ": 1171,
      "ect": 1172,
      "æµ·": 1173,
      "éħį": 1174,
      "çľĭ": 1175,
      "æī¿": 1176,
      "åįĩ": 1177,
      "ç§¯": 1178,
      "æ²¡": 1179,
      "ch": 1180,
      "è·µ": 1181,
      "ħ§": 1182,
      "äºĶ": 1183,
      "çİ°ä»£": 1184,
      "iz": 1185,
      "ific": 1186,
      "é¢Ħ": 1187,
      "åºĶçĶ¨": 1188,
      "åįİ": 1189,
      "Ġsh": 1190,
      "åı¯èĥ½": 1191,
      "ä¸ĸçķĮ": 1192,
      "æ»": 1193,
      "ous": 1194,
      "ç½®": 1195,
      "å½¢æĪĲ": 1196,
      "è´¢": 1197,
      "åŁ¹": 1198,
      "æ¶Ī": 1199,
      "å¹¿": 1200,
      "æĭ¬": 1201,
      "æĸĻ": 1202,
      "åĬ³": 1203,
      "Ġgen": 1204,
      "ĊĠ": 1205,
      "å¸¦": 1206,
      "ç»Ļ": 1207,
      "è¯ķ": 1208,
      "è§ģ": 1209,
      "åħĭ": 1210,
      "éĺ¶": 1211,
      "è¨": 1212,
      "ys": 1213,
      "ations": 1214,
      "å¸ĥ": 1215,
      "çª": 1216,
      "å¾ģ": 1217,
      "red": 1218,
      "tive": 1219,
      "å®ŀè·µ": 1220,
      "åĲį": 1221,
      "å¾·": 1222,
      "æıĲé«ĺ": 1223,
      "è¨Ģ": 1224,
      "ä¸Ģç§į": 1225,
      "Ġinf": 1226,
      "\\]": 1227,
      "ç»ľ": 1228,
      "çĬ¶": 1229,
      "è¿°": 1230,
      "äº§ä¸ļ": 1231,
      "å¾Ī": 1232,
      "åŃĺåľ¨": 1233,
      "åĽ½éĻħ": 1234,
      "çŁ¥è¯Ĩ": 1235,
      "éĢŁ": 1236,
      "tiv": 1237,
      "ence": 1238,
      "éĻ¤": 1239,
      "æīĭ": 1240,
      "able": 1241,
      "è®¾è®¡": 1242,
      "çĽ¸åħ³": 1243,
      "ĠG": 1244,
      "](": 1245,
      "æ¸ħ": 1246,
      "Ġcan": 1247,
      "åģļ": 1248,
      "ç¾¤": 1249,
      "est": 1250,
      "æĶ¿çŃĸ": 1251,
      "ist": 1252,
      "æ²¡æľī": 1253,
      "æ£Ģ": 1254,
      "end": 1255,
      "æĪĸèĢħ": 1256,
      "é¡»": 1257,
      "æıĲåĩº": 1258,
      "åħ¶ä»ĸ": 1259,
      "CR": 1260,
      "ä¿ĿæĬ¤": 1261,
      "Ġper": 1262,
      "åĨħå®¹": 1263,
      "åĪĹ": 1264,
      "12": 1265,
      "åĲĮæĹ¶": 1266,
      "ç¢": 1267,
      "ç½ĳç»ľ": 1268,
      "åľŁ": 1269,
      "åĳĬ": 1270,
      "èİ": 1271,
      "ĠL": 1272,
      "æłĩåĩĨ": 1273,
      "å°±æĺ¯": 1274,
      "çĽ®æłĩ": 1275,
      "ary": 1276,
      "åĮħæĭ¬": 1277,
      "æ´»åĬ¨": 1278,
      "å¤±": 1279,
      "éĺ²": 1280,
      "æ°ĳæĹı": 1281,
      "ä»·åĢ¼": 1282,
      "Ġ\\[": 1283,
      "åı°": 1284,
      "ä¸Ķ": 1285,
      "é©¬": 1286,
      "å§ĭ": 1287,
      "ial": 1288,
      "ĠĠĠ": 1289,
      "ep": 1290,
      "åĬ©": 1291,
      "Ġpatients": 1292,
      "){": 1293,
      "pec": 1294,
      "å»ºç«ĭ": 1295,
      "åħī": 1296,
      "Ġ4": 1297,
      "Ġass": 1298,
      "å§Ķ": 1299,
      "ip": 1300,
      "åħļçļĦ": 1301,
      "ion": 1302,
      "éļ¾": 1303,
      "ors": 1304,
      "æī§": 1305,
      "ç§°": 1306,
      "åħ¨éĿ¢": 1307,
      "è¿ĻäºĽ": 1308,
      "ä¼Ĺ": 1309,
      "äººçļĦ": 1310,
      "æĥħåĨµ": 1311,
      "ap": 1312,
      "ther": 1313,
      "age": 1314,
      "type": 1315,
      "ä»ħ": 1316,
      "ĠW": 1317,
      "éļľ": 1318,
      "act": 1319,
      "æĻº": 1320,
      "ä¸¥": 1321,
      "æĹ¶ä»£": 1322,
      "Ġnot": 1323,
      "åĽ´": 1324,
      "Ġ5": 1325,
      "ç«ł": 1326,
      "åĮ»": 1327,
      "çľŁ": 1328,
      "æĪĲä¸º": 1329,
      "iff": 1330,
      "å±ŀ": 1331,
      "éĥ¨åĪĨ": 1332,
      "çĭ": 1333,
      "åĪ¤": 1334,
      "åĽłæŃ¤": 1335,
      "vi": 1336,
      "åĬ³åĬ¨": 1337,
      "å¹²": 1338,
      "ge": 1339,
      "å¿ħé¡»": 1340,
      "eren": 1341,
      "çĲĥ": 1342,
      "Ġsign": 1343,
      "æĴ": 1344,
      "æł¹æį®": 1345,
      "]\\]": 1346,
      "ression": 1347,
      "ä¹ĭéĹ´": 1348,
      "NA": 1349,
      "çĸĹ": 1350,
      "å¿«": 1351,
      "åħħ": 1352,
      "è¡ĮæĶ¿": 1353,
      "Ġha": 1354,
      "201": 1355,
      "Ġint": 1356,
      "çħ§": 1357,
      "enti": 1358,
      "olog": 1359,
      "åĮĹ": 1360,
      "åįĹ": 1361,
      "ich": 1362,
      "è¶Ĭ": 1363,
      "Ġthis": 1364,
      "åĶ": 1365,
      "åĽŀ": 1366,
      "åıĪ": 1367,
      "ä¹Ī": 1368,
      "Ġcl": 1369,
      "Ġwe": 1370,
      "åĨį": 1371,
      "ä¿ĥ": 1372,
      "äº§åĵģ": 1373,
      "æ¬¾": 1374,
      "ia": 1375,
      "åħ´": 1376,
      "Ġco": 1377,
      "è¯ī": 1378,
      "ular": 1379,
      "è¶³": 1380,
      "æľºåĪ¶": 1381,
      "å¯¹äºİ": 1382,
      "åıĳçĶŁ": 1383,
      "å¤ĦçĲĨ": 1384,
      "è´¨éĩı": 1385,
      "è´£ä»»": 1386,
      "ç¨İ": 1387,
      "=\"": 1388,
      "éļı": 1389,
      "å®³": 1390,
      "\"}": 1391,
      "](#": 1392,
      "å®ŀæĸ½": 1393,
      "Ġdiff": 1394,
      "æİ§åĪ¶": 1395,
      "å¤®": 1396,
      "åĩı": 1397,
      "çĶŁæ´»": 1398,
      "åĿĩ": 1399,
      "æİ¨è¿Ľ": 1400,
      "åĽ¢": 1401,
      "èĥŀ": 1402,
      "Ġ\\[[@": 1403,
      "æ¯ı": 1404,
      "ath": 1405,
      "å¯Ĩ": 1406,
      "Ġdi": 1407,
      "Ġse": 1408,
      "ä¸ĩ": 1409,
      "åı·": 1410,
      "åĿļæĮģ": 1411,
      "æĹ¶éĹ´": 1412,
      "ç¦»": 1413,
      "Ġpre": 1414,
      "æĪ·": 1415,
      "è®©": 1416,
      "é£İéĻ©": 1417,
      "Ġsy": 1418,
      "è¿Ļç§į": 1419,
      "tions": 1420,
      "ved": 1421,
      "åİ»": 1422,
      "ç¬¬ä¸Ģ": 1423,
      "é¢ĨåŁŁ": 1424,
      "éĩĳèŀį": 1425,
      "å·®": 1426,
      "æ¦Ĥ": 1427,
      "========": 1428,
      "è®¤ä¸º": 1429,
      "éĩĮ": 1430,
      "åĪ©çĶ¨": 1431,
      "è§£åĨ³": 1432,
      "Ġap": 1433,
      "ç»Ī": 1434,
      "æĿĲ": 1435,
      "rans": 1436,
      "reas": 1437,
      "æĮī": 1438,
      "èİ·": 1439,
      "äº§çĶŁ": 1440,
      "Ġ[": 1441,
      "æľīæķĪ": 1442,
      "æ°´å¹³": 1443,
      "çªģ": 1444,
      "vid": 1445,
      "æŁĲ": 1446,
      "ä¼łç»Ł": 1447,
      "11": 1448,
      "å¤Ł": 1449,
      "æİ¢": 1450,
      "ple": 1451,
      "åĢº": 1452,
      "ance": 1453,
      "ä¸įæĸŃ": 1454,
      "ory": 1455,
      "åĬŀ": 1456,
      "è´Ł": 1457,
      "ç»Ĩèĥŀ": 1458,
      "æľºæŀĦ": 1459,
      "\",": 1460,
      "å¼Ĥ": 1461,
      "éĻį": 1462,
      "ä¸Ńå¤®": 1463,
      "æİ¨åĬ¨": 1464,
      "åºĶå½ĵ": 1465,
      "Ġhave": 1466,
      "æĿ¡ä»¶": 1467,
      "åĪĩ": 1468,
      "æİĴ": 1469,
      "Ġeff": 1470,
      "æĭħ": 1471,
      "é¦ĸ": 1472,
      "é¡¹çĽ®": 1473,
      "åģ¥": 1474,
      "å·±": 1475,
      "åĬŁèĥ½": 1476,
      "ill": 1477,
      "ĠO": 1478,
      "æ¨¡å¼ı": 1479,
      "Ġpar": 1480,
      "èĳ": 1481,
      "200": 1482,
      "è¡Ģ": 1483,
      "ding": 1484,
      "ç²¾ç¥ŀ": 1485,
      "åĬłå¼º": 1486,
      "åħ±åĲĮ": 1487,
      "æ¿": 1488,
      "çĻ¾": 1489,
      "å®ļçļĦ": 1490,
      "çĶŁæĢģ": 1491,
      "ä¿®": 1492,
      "è®¡ç®Ĺ": 1493,
      "Ġwhich": 1494,
      "ost": 1495,
      "Ġstudy": 1496,
      "Ġgro": 1497,
      "pon": 1498,
      "æįŁ": 1499,
      "ren": 1500,
      "å²": 1501,
      "å¿Ĺ": 1502,
      "åĲ¦": 1503,
      "pt": 1504,
      "è¯·": 1505,
      "ue": 1506,
      "äººåĳĺ": 1507,
      "æĢ§çļĦ": 1508,
      "çºª": 1509,
      "åĳ¨": 1510,
      "ä¹¡": 1511,
      "å®ŀéĻħ": 1512,
      "åĲĪåĲĮ": 1513,
      "è¿Ļä¸Ģ": 1514,
      "ç¨³": 1515,
      "åıĳå±ķçļĦ": 1516,
      "ç½ª": 1517,
      "åĦ": 1518,
      "Ġit": 1519,
      "æĪĺçķ¥": 1520,
      "pro": 1521,
      "å¯Į": 1522,
      "é¢Ĩå¯¼": 1523,
      "--------------------------------": 1524,
      "Ġbet": 1525,
      "ĠĠĠĠĠĠĠĠĠĠĠĠĠĠĠĠĠĠĠĠĠĠĠĠĠĠĠĠĠĠĠĠĠĠĠĠĠĠĠĠĠĠĠĠĠĠĠĠĠĠĠĠĠĠĠĠĠĠĠĠĠĠĠĠ": 1526,
      "å¾Ģ": 1527,
      "æ¿Ģ": 1528,
      "reat": 1529,
      "æ²»çĲĨ": 1530,
      "âĢĿï¼Į": 1531,
      "è¶ħ": 1532,
      "ally": 1533,
      "é»": 1534,
      "çī¹èī²": 1535,
      "âĢĶ": 1536,
      "Ġk": 1537,
      "ç§»": 1538,
      "åľ°åĮº": 1539,
      "è®¸": 1540,
      "å¦Ĥæŀľ": 1541,
      "ä¸įèĥ½": 1542,
      "éĥ¨éĹ¨": 1543,
      "Ġanal": 1544,
      "ç»ĵåĲĪ": 1545,
      "åĪĿ": 1546,
      "çĭ¬": 1547,
      "Ġinter": 1548,
      "åıĺåĮĸ": 1549,
      "Ġdifferen": 1550,
      "èĩªå·±": 1551,
      "å¯Ł": 1552,
      "ç¬¬äºĮ": 1553,
      "å¼ł": 1554,
      "ative": 1555,
      "Ġab": 1556,
      "çĶ±äºİ": 1557,
      "ä¸ĵä¸ļ": 1558,
      "ä¸ĬçļĦ": 1559,
      "ç¼ĸ": 1560,
      "æĬĹ": 1561,
      "we": 1562,
      "Ġ=": 1563,
      "æĬķèµĦ": 1564,
      "èį¯": 1565,
      "ä¿ĥè¿Ľ": 1566,
      "rol": 1567,
      "Ġreg": 1568,
      "åİĭ": 1569,
      "æĻ®": 1570,
      "å·¥ç¨ĭ": 1571,
      "ress": 1572,
      "Ġmod": 1573,
      "ast": 1574,
      "æĸ¯": 1575,
      "æ¼": 1576,
      "éĺ¶æ®µ": 1577,
      "å±±": 1578,
      "æ¢": 1579,
      "åº·": 1580,
      "ä¸Ńåįİ": 1581,
      "èĲ½": 1582,
      "éĺŁ": 1583,
      "èĤ¡": 1584,
      "æł¸å¿ĥ": 1585,
      "éŁ": 1586,
      "Ġshow": 1587,
      "enc": 1588,
      "èĩªçĦ¶": 1589,
      "æķ°åŃĹ": 1590,
      "unc": 1591,
      "åı¤": 1592,
      "èīº": 1593,
      "æī¹": 1594,
      "ç§ĳæĬĢ": 1595,
      "åİŁåĪĻ": 1596,
      "åŁİå¸Ĥ": 1597,
      "Ġmet": 1598,
      "æīĢæľī": 1599,
      "ata": 1600,
      "åĥ": 1601,
      "all": 1602,
      "fig": 1603,
      "ç»¼": 1604,
      "åĨľä¸ļ": 1605,
      "val": 1606,
      "ä¿Ŀéļľ": 1607,
      "çļĦåıĳå±ķ": 1608,
      "ari": 1609,
      "è§Ĵ": 1610,
      "çľģ": 1611,
      "and": 1612,
      "ĠU": 1613,
      "Ġtrans": 1614,
      "è´§": 1615,
      "çĪ": 1616,
      "ä¸¾": 1617,
      "å½¢å¼ı": 1618,
      "Ġsub": 1619,
      "åĲĪä½ľ": 1620,
      "èµĦæľ¬": 1621,
      "éĩĬ": 1622,
      "çł´": 1623,
      "æĻ¯": 1624,
      "éĤ£": 1625,
      "è¾ĵ": 1626,
      "å®ĮåĸĦ": 1627,
      "åŁ¹åħ»": 1628,
      "15": 1629,
      "è¯¾ç¨ĭ": 1630,
      "Ġob": 1631,
      "æĶ¯æĮģ": 1632,
      "ç¾İåĽ½": 1633,
      "Ġpl": 1634,
      "ä»£è¡¨": 1635,
      "åĩºçİ°": 1636,
      "Ġ[@": 1637,
      "è£ħ": 1638,
      "åĤ": 1639,
      "low": 1640,
      "åĩł": 1641,
      "Fig": 1642,
      "æīĵ": 1643,
      "Ġrec": 1644,
      "ç¼º": 1645,
      "æķĻå¸Ī": 1646,
      "Ġme": 1647,
      "èĥ½å¤Ł": 1648,
      "ä¸´": 1649,
      "æĮ¥": 1650,
      "oci": 1651,
      "æ³ķéĻ¢": 1652,
      "ä¸»ä½ĵ": 1653,
      "Ġmic": 1654,
      "mun": 1655,
      "åįķä½į": 1656,
      "ä¸ĢæŃ¥": 1657,
      "ä¸ªäºº": 1658,
      "Ġ6": 1659,
      "ult": 1660,
      "so": 1661,
      "åħ·ä½ĵ": 1662,
      "18": 1663,
      "ä»ĸä»¬": 1664,
      "èĢģ": 1665,
      "ç»ĵæŀľ": 1666,
      "èħ": 1667,
      "ç®Ģ": 1668,
      "å®¢": 1669,
      "ome": 1670,
      "æĭ©": 1671,
      "ong": 1672,
      "ĠĠĠĠĠĠĠĠĠĠĠĠ": 1673,
      "éĵ¾": 1674,
      "çĮ": 1675,
      "å¤§çļĦ": 1676,
      "åħį": 1677,
      "æĸ°çļĦ": 1678,
      "æĵ": 1679,
      "ä¸Ńå¿ĥ": 1680,
      "éľĢæ±Ĥ": 1681,
      "éĿ©åĳ½": 1682,
      "è¿Ļä¸ª": 1683,
      "Ġactiv": 1684,
      "ç´¢": 1685,
      "æľīåħ³": 1686,
      "åħ¨çĲĥ": 1687,
      "ween": 1688,
      "åıĮ": 1689,
      "éĶ®": 1690,
      "å·¥ä¸ļ": 1691,
      "æŁĵ": 1692,
      "å¾®": 1693,
      "åĪ©çĽĬ": 1694,
      "æĦıä¹ī": 1695,
      "Ġanti": 1696,
      "13": 1697,
      "çĻ½": 1698,
      "..": 1699,
      "è¿ŀ": 1700,
      "è½¦": 1701,
      "ear": 1702,
      "Ġdet": 1703,
      "åħ³äºİ": 1704,
      "ç¬¬ä¸ī": 1705,
      "åı¦": 1706,
      "ä¸ĢäºĽ": 1707,
      "ight": 1708,
      "æī©": 1709,
      "ven": 1710,
      "åħ¨åĽ½": 1711,
      "ose": 1712,
      "äººç±»": 1713,
      "Ġbetween": 1714,
      "åĲ«": 1715,
      "å¢ŀåĬł": 1716,
      "æĺİç¡®": 1717,
      "æıĲåįĩ": 1718,
      "ates": 1719,
      "ç»§": 1720,
      "é©¬åħĭ": 1721,
      "]\\].": 1722,
      "èĪ¬": 1723,
      "ĠTh": 1724,
      "åĮĸçļĦ": 1725,
      "æī§è¡Į": 1726,
      "tein": 1727,
      "çº³": 1728,
      "ç©ºéĹ´": 1729,
      "è¡¥": 1730,
      "Ġwhe": 1731,
      "ach": 1732,
      "ä¸įæĺ¯": 1733,
      "tim": 1734,
      "ç¨ĭåºı": 1735,
      "å¼Ģåıĳ": 1736,
      "æ»¡": 1737,
      "éĢīæĭ©": 1738,
      "å·²ç»ı": 1739,
      "æķħ": 1740,
      "çļĦæĺ¯": 1741,
      "ç»Łä¸Ģ": 1742,
      "ç»¼åĲĪ": 1743,
      "form": 1744,
      "é©¬åħĭæĢĿ": 1745,
      "å¤§åŃ¦": 1746,
      "åįł": 1747,
      "Ġlevel": 1748,
      "åıĳçİ°": 1749,
      "æŃ¢": 1750,
      "äººæīį": 1751,
      "åĨĻ": 1752,
      "å¼ĢæĶ¾": 1753,
      "ak": 1754,
      "ä»Ĭ": 1755,
      "è®Ń": 1756,
      "éĩįå¤§": 1757,
      "ç§¯æŀģ": 1758,
      "è¿ľ": 1759,
      "ection": 1760,
      "çĥŃ": 1761,
      "Ġind": 1762,
      "åĦ¿": 1763,
      "14": 1764,
      "å®ĺ": 1765,
      "ä¸ĢèĪ¬": 1766,
      "Ġexpression": 1767,
      "lud": 1768,
      "åħ¸": 1769,
      "çĽ´æİ¥": 1770,
      "å¤´": 1771,
      "æĤ£": 1772,
      "æį¢": 1773,
      "rib": 1774,
      "äºĪ": 1775,
      "è¯Ŀ": 1776,
      "Ġ-": 1777,
      "å¢ŀéķ¿": 1778,
      "port": 1779,
      "çĬ¯": 1780,
      "çĶŁçī©": 1781,
      "åħŃ": 1782,
      "çļĦéĩįè¦ģ": 1783,
      "è¾¹": 1784,
      "Ġen": 1785,
      "Ġmay": 1786,
      "è¿Ľä¸ĢæŃ¥": 1787,
      "èĮĥåĽ´": 1788,
      "åĪĳ": 1789,
      "rac": 1790,
      "Ġsignific": 1791,
      "å®ŀéªĮ": 1792,
      "é£Ł": 1793,
      "ç«ŀ": 1794,
      "Ġalso": 1795,
      "è¯Ħä»·": 1796,
      "ãĢĢ": 1797,
      "],": 1798,
      "é¢Ŀ": 1799,
      "Ġsc": 1800,
      "å¼Ģå±ķ": 1801,
      "åĥı": 1802,
      "å°Ķ": 1803,
      "è¯»": 1804,
      "æĸĹ": 1805,
      "æĿĤ": 1806,
      "cer": 1807,
      "ugh": 1808,
      "erm": 1809,
      "çĿ£": 1810,
      "åĽº": 1811,
      "æĿĥåĪ©": 1812,
      "èĭ±": 1813,
      "åľ°æĸ¹": 1814,
      "å¦Ĥä½ķ": 1815,
      "åıĤä¸İ": 1816,
      "lo": 1817,
      "Ġcor": 1818,
      "åĽłç´ł": 1819,
      "åħ³éĶ®": 1820,
      "uld": 1821,
      "éĴĪ": 1822,
      "ulation": 1823,
      "16": 1824,
      "Ġthese": 1825,
      "ech": 1826,
      "æĮģç»Ń": 1827,
      "Ġph": 1828,
      "our": 1829,
      "æĳ": 1830,
      "åħ¬åħ±": 1831,
      "åħ±äº§": 1832,
      "åį±": 1833,
      "è½½": 1834,
      "åģ¿": 1835,
      "çī¹å¾ģ": 1836,
      "è¿ĩç¨ĭä¸Ń": 1837,
      "Ġdise": 1838,
      "æİª": 1839,
      "èµ°": 1840,
      "åħ«": 1841,
      "ä»Ģ": 1842,
      "åĭ": 1843,
      "Ġusing": 1844,
      "alth": 1845,
      "ä¾¿": 1846,
      "ied": 1847,
      "ç«¯": 1848,
      "Ġhas": 1849,
      "ä¹Łæĺ¯": 1850,
      "çīĪ": 1851,
      "æı¡": 1852,
      "æĹ¢": 1853,
      "è¿Ŀ": 1854,
      "Ġanalys": 1855,
      "ä¸ŃåĽ½çī¹èī²": 1856,
      "åħħåĪĨ": 1857,
      "ä»ĭ": 1858,
      "åıĳæĮ¥": 1859,
      "ç»ıèĲ¥": 1860,
      "å¸ģ": 1861,
      "ä¼°": 1862,
      "Ġgroup": 1863,
      "éĵ¶": 1864,
      "30": 1865,
      "ected": 1866,
      "åĨ³å®ļ": 1867,
      "èī¯": 1868,
      "Ġdata": 1869,
      "âĢĿãĢĤ": 1870,
      "åĮºåŁŁ": 1871,
      "æĪĲæľ¬": 1872,
      "Ġbeen": 1873,
      "åĨľæĿĳ": 1874,
      "ä»»åĬ¡": 1875,
      "å¯¼èĩ´": 1876,
      "çİĭ": 1877,
      "ä»ĺ": 1878,
      "The": 1879,
      "åł": 1880,
      "Ġinv": 1881,
      "åĽłä¸º": 1882,
      "ound": 1883,
      "èĳĹ": 1884,
      "èģĮä¸ļ": 1885,
      "Ġca": 1886,
      "##": 1887,
      "æ¹": 1888,
      "Ġcons": 1889,
      "Ġpres": 1890,
      "rain": 1891,
      "æĻºèĥ½": 1892,
      "å¡": 1893,
      "è¿ĳå¹³": 1894,
      "Ġsignificant": 1895,
      "éĢĲ": 1896,
      "21": 1897,
      "å½ķ": 1898,
      "ual": 1899,
      "rap": 1900,
      "ä¹łè¿ĳå¹³": 1901,
      "Ġrel": 1902,
      "å±ħ": 1903,
      "è§ĦèĮĥ": 1904,
      "yt": 1905,
      "æĹ¶æľŁ": 1906,
      "äº«": 1907,
      "æ¨¡åŀĭ": 1908,
      "è®²": 1909,
      "ä»Ģä¹Ī": 1910,
      "æĪ¿": 1911,
      "æ¶Īè´¹": 1912,
      "å°Ħ": 1913,
      "éĤ": 1914,
      "åĲĦç§į": 1915,
      "èµĦäº§": 1916,
      "è¡¨çİ°": 1917,
      "æ¶ī": 1918,
      "Ġ([@": 1919,
      "str": 1920,
      "iti": 1921,
      "ç¬¦": 1922,
      "reatment": 1923,
      "è®¤è¯Ĩ": 1924,
      "50": 1925,
      "17": 1926,
      "å£«": 1927,
      "éĶĢ": 1928,
      "Ġ7": 1929,
      "Ġ{": 1930,
      "ew": 1931,
      "æŀĹ": 1932,
      "Ġy": 1933,
      "å¾ĹåĪ°": 1934,
      "one": 1935,
      "åħ¶ä¸Ń": 1936,
      "ä¸¤ä¸ª": 1937,
      "ç¡®å®ļ": 1938,
      "ä¾µ": 1939,
      "fter": 1940,
      "Ġprotein": 1941,
      "æĵį": 1942,
      "velop": 1943,
      "ç¢³": 1944,
      "æ¦Ĥå¿µ": 1945,
      "åŁºäºİ": 1946,
      "ä»į": 1947,
      "è§ĦåĪĴ": 1948,
      "çİ°ä»£åĮĸ": 1949,
      "æĦıè¯Ĩ": 1950,
      "è´¸": 1951,
      "æ½": 1952,
      "éĩįçĤ¹": 1953,
      "ility": 1954,
      "Ġused": 1955,
      "å¹³åı°": 1956,
      "ens": 1957,
      "ä½Ĩæĺ¯": 1958,
      "æľºåħ³": 1959,
      "è¡¡": 1960,
      "èģļ": 1961,
      "åŃ¦æł¡": 1962,
      "èİ·å¾Ĺ": 1963,
      "Ġsur": 1964,
      "æĿĲæĸĻ": 1965,
      "å¦": 1966,
      "tional": 1967,
      "ä¼Ł": 1968,
      "âĪ": 1969,
      "æ³¢": 1970,
      "æ±Ł": 1971,
      "ç¨ĭåº¦": 1972,
      "å¼Ģå§ĭ": 1973,
      "lec": 1974,
      "ating": 1975,
      "æŀĦå»º": 1976,
      "000": 1977,
      "ä»İèĢĮ": 1978,
      "å°½": 1979,
      "èĥ½æºĲ": 1980,
      "Ġall": 1981,
      "åĪĽéĢł": 1982,
      "ros": 1983,
      "ç«ŀäºī": 1984,
      "Ġun": 1985,
      "çĸ«": 1986,
      "æ°ĳä¸»": 1987,
      "åį«": 1988,
      "Ġinclud": 1989,
      "æĿ¥çļĦ": 1990,
      "ults": 1991,
      "åĤ¨": 1992,
      "æĮĩå¯¼": 1993,
      "ï¼Ł": 1994,
      "Ġrespon": 1995,
      "ĠV": 1996,
      "åĲ¸": 1997,
      "çĽ®åīį": 1998,
      "uch": 1999,
      "ĠÂ": 2000,
      "æĸĩæĺİ": 2001,
      "æ³ķæ²»": 2002,
      "ä¸ºäºĨ": 2003,
      "è®¡åĪĴ": 2004,
      "æļ": 2005,
      "ects": 2006,
      "è¿ĲåĬ¨": 2007,
      "æĺ¯åĲ¦": 2008,
      "oth": 2009,
      "è®¼": 2010,
      "âĳ": 2011,
      "ass": 2012,
      "çĲĨè§£": 2013,
      "Ġother": 2014,
      ".\"": 2015,
      "Ġcontrol": 2016,
      "ä¸įä»ħ": 2017,
      "25": 2018,
      "Ġsam": 2019,
      "çī¹åĪ«": 2020,
      "Ġassoci": 2021,
      "åĪ¶éĢł": 2022,
      "Ġund": 2023,
      "çŁ³": 2024,
      "è´«": 2025,
      "éĩĩçĶ¨": 2026,
      "ç»ıéªĮ": 2027,
      "Ġmed": 2028,
      "ä¸ŃåĽ½çī¹èī²ç¤¾ä¼ļä¸»ä¹ī": 2029,
      "duced": 2030,
      "æ¯Ķè¾ĥ": 2031,
      "Ġ10": 2032,
      "å¤ª": 2033,
      "å¾Ħ": 2034,
      "Ġsup": 2035,
      "å§Ķåĳĺ": 2036,
      "ely": 2037,
      "Ġpos": 2038,
      "Ġthan": 2039,
      "stem": 2040,
      "è¯īè®¼": 2041,
      "out": 2042,
      "Ġtreatment": 2043,
      "ä¹ĭéĹ´çļĦ": 2044,
      "çĮ®": 2045,
      "å¨": 2046,
      "éģĹ": 2047,
      "Ġdevelop": 2048,
      "ang": 2049,
      "ãĢĤâĢĿ": 2050,
      "åĢŁ": 2051,
      "ree": 2052,
      "åºķ": 2053,
      "è¡Įä¸ļ": 2054,
      "è¿Ļæł·": 2055,
      "osis": 2056,
      "Ġacc": 2057,
      "éŁ³": 2058,
      "Ġfact": 2059,
      "éĿĴ": 2060,
      "ä½ĵçİ°": 2061,
      "æ¸¸": 2062,
      "åĽ°": 2063,
      "Ġro": 2064,
      "çļĦä¸Ģ": 2065,
      "äºļ": 2066,
      "ard": 2067,
      "è´Ń": 2068,
      "è£ģ": 2069,
      "æ¤": 2070,
      "çīĩ": 2071,
      "ä»½": 2072,
      "åıĸå¾Ĺ": 2073,
      "åºŃ": 2074,
      "äº¬": 2075,
      "ä»¤": 2076,
      "é©¬åħĭæĢĿä¸»ä¹ī": 2077,
      "ox": 2078,
      "è§Ħæ¨¡": 2079,
      "æĤ": 2080,
      "è¾¾åĪ°": 2081,
      "çŃĳ": 2082,
      "æ²»çĸĹ": 2083,
      "è§ī": 2084,
      "ä½ı": 2085,
      "æİĪ": 2086,
      "è®¾å¤ĩ": 2087,
      "çĽĳçĿ£": 2088,
      "æİªæĸ½": 2089,
      "Ġstudies": 2090,
      "åºĵ": 2091,
      "ä¹Ŀ": 2092,
      "çĶ¨äºİ": 2093,
      "anc": 2094,
      "é¼": 2095,
      "èĩªçĶ±": 2096,
      "éļıçĿĢ": 2097,
      "gen": 2098,
      "Ġam": 2099,
      "åģ¥åº·": 2100,
      "22": 2101,
      "è®¨": 2102,
      "Ġincreas": 2103,
      "Ġvari": 2104,
      "inical": 2105,
      "çī¹çĤ¹": 2106,
      "æīĢä»¥": 2107,
      "Ġmore": 2108,
      "Ġno": 2109,
      "åľŁåľ°": 2110,
      "åĪ»": 2111,
      "ä¸ĸçºª": 2112,
      "Ġag": 2113,
      "å½Ĵ": 2114,
      "Ġ{#": 2115,
      "Ġ9": 2116,
      "æ¸©": 2117,
      "ever": 2118,
      "Ġspec": 2119,
      "æĮīçħ§": 2120,
      "çĶ³": 2121,
      "Ġ8": 2122,
      "Ġtum": 2123,
      "çĽ®çļĦ": 2124,
      "ä¹Ĳ": 2125,
      "å£°": 2126,
      "æĬ¥åĳĬ": 2127,
      "åŃ¦ç§ĳ": 2128,
      "äº¤æĺĵ": 2129,
      "è¿½": 2130,
      "Ġar": 2131,
      "Ġman": 2132,
      "å®ĮæĪĲ": 2133,
      "Ġhigh": 2134,
      "ack": 2135,
      "ç»¿": 2136,
      "çº¢": 2137,
      "å¼ºè°ĥ": 2138,
      "èĨ": 2139,
      "Ġtheir": 2140,
      "æĹ©": 2141,
      "hib": 2142,
      "ogen": 2143,
      "åĩ»": 2144,
      "éĢłæĪĲ": 2145,
      "æ±ī": 2146,
      "Ġ\"": 2147,
      "Ġfunc": 2148,
      "åĿĹ": 2149,
      "æ¼Ķ": 2150,
      "æ±¡": 2151,
      "Ġdisease": 2152,
      "æĤ£èĢħ": 2153,
      "Ġmodel": 2154,
      "ç¨³å®ļ": 2155,
      "åħ±äº§åħļ": 2156,
      "Ġanalysis": 2157,
      "ases": 2158,
      "ç¾¤ä¼Ĺ": 2159,
      "æĵįä½ľ": 2160,
      "Ġsp": 2161,
      "åİ¿": 2162,
      "æ´¾": 2163,
      "åıĬåħ¶": 2164,
      "Ġel": 2165,
      "æĪĲæŀľ": 2166,
      "Ġunder": 2167,
      "arg": 2168,
      "Ġcol": 2169,
      "Ġdes": 2170,
      "æĸ¹åĲĳ": 2171,
      "cl": 2172,
      "çĹĩ": 2173,
      "æĸ¹æ¡Ī": 2174,
      "æĶ¶åħ¥": 2175,
      "æ¯Ĵ": 2176,
      "ä½ĵåĪ¶": 2177,
      "Ġtim": 2178,
      "è¿Ļæĺ¯": 2179,
      "Ġpath": 2180,
      "ric": 2181,
      "æ²³": 2182,
      "Ġbut": 2183,
      "ber": 2184,
      "æł¹æľ¬": 2185,
      "èģĶç½ĳ": 2186,
      "å®¤": 2187,
      "ism": 2188,
      "]).": 2189,
      "tal": 2190,
      "ater": 2191,
      "å¾ª": 2192,
      "ne": 2193,
      "wo": 2194,
      "çļĦåŁºæľ¬": 2195,
      "40": 2196,
      "æĽ´åĬł": 2197,
      "èĥĮ": 2198,
      "åĲĪçĲĨ": 2199,
      "åĽ½åĨħ": 2200,
      "æŀ¶": 2201,
      "Ġimmun": 2202,
      "ĠK": 2203,
      "lu": 2204,
      "æĮĩåĩº": 2205,
      "åĬ±": 2206,
      "äººä»¬": 2207,
      "èĻĳ": 2208,
      "æīĺ": 2209,
      "ide": 2210,
      "ä¸ĥ": 2211,
      "å®£": 2212,
      "Ġqu": 2213,
      "Ġafter": 2214,
      "Ġcar": 2215,
      "åĪ¶å®ļ": 2216,
      "éĵ¶è¡Į": 2217,
      "æĸ°æĹ¶ä»£": 2218,
      "èı": 2219,
      "ä»¥ä¸ĭ": 2220,
      "æĲ": 2221,
      "Ġgene": 2222,
      "è¯į": 2223,
      "å¢ŀå¼º": 2224,
      "ä¼ĺåĬ¿": 2225,
      "ile": 2226,
      "æľīçļĦ": 2227,
      "å·ŀ": 2228,
      "Ġdec": 2229,
      "åı¸æ³ķ": 2230,
      "uring": 2231,
      "Ġhealth": 2232,
      "åĢĻ": 2233,
      "è¿Ľåħ¥": 2234,
      "çĨ": 2235,
      "der": 2236,
      "ures": 2237,
      "é¥": 2238,
      "Â·": 2239,
      "ser": 2240,
      "æĢ§åĴĮ": 2241,
      "entif": 2242,
      "æľĿ": 2243,
      "æľĽ": 2244,
      "å¥³": 2245,
      "æ¬§": 2246,
      "èĻ½": 2247,
      "ä¾ĭå¦Ĥ": 2248,
      "å®Ĺ": 2249,
      "ç´§": 2250,
      "ä»¥æĿ¥": 2251,
      "å¯¹è±¡": 2252,
      "æ³Ľ": 2253,
      "ä¿Ŀè¯ģ": 2254,
      "äº¿": 2255,
      "éĶĻ": 2256,
      "ĠThis": 2257,
      "è½¯": 2258,
      "atory": 2259,
      "éķ¿æľŁ": 2260,
      "åĬĽéĩı": 2261,
      "iss": 2262,
      "çŁŃ": 2263,
      "uman": 2264,
      "ä¸Ģå®ļ": 2265,
      "ä¸ļåĬ¡": 2266,
      "ays": 2267,
      "çļĦåŁºç¡Ģ": 2268,
      "æħ": 2269,
      "çĶµåŃĲ": 2270,
      "de": 2271,
      "Ġlevels": 2272,
      "å»¶": 2273,
      "tain": 2274,
      "é¢ĳ": 2275,
      "ni": 2276,
      "Ġout": 2277,
      "çķĻ": 2278,
      "çĬ¶æĢģ": 2279,
      "Ġstr": 2280,
      "âĪĴ": 2281,
      "è¯Ħä¼°": 2282,
      "æĺ¯æĮĩ": 2283,
      "isk": 2284,
      "ail": 2285,
      "ork": 2286,
      "çļĦéĹ®é¢ĺ": 2287,
      "ared": 2288,
      "è¾ĳ": 2289,
      "è´¸æĺĵ": 2290,
      "è§£éĩĬ": 2291,
      "ä¼¼": 2292,
      "çī©è´¨": 2293,
      "ons": 2294,
      "ä¿ĿéĻ©": 2295,
      "åľ°ä½į": 2296,
      "å¾ħ": 2297,
      "yl": 2298,
      "ized": 2299,
      "åĨ²": 2300,
      "æĭŁ": 2301,
      "ten": 2302,
      "ç£": 2303,
      "æĴŃ": 2304,
      "amm": 2305,
      "ä»»ä½ķ": 2306,
      "çİ°å®ŀ": 2307,
      "ä¸¥éĩį": 2308,
      "è¯Ńè¨Ģ": 2309,
      "å¤įæĿĤ": 2310,
      "Ġsystem": 2311,
      "vely": 2312,
      "Ġmo": 2313,
      ",\"": 2314,
      "Ġval": 2315,
      "éĿł": 2316,
      "ä½Ļ": 2317,
      "æŃ»": 2318,
      "çĬ¯ç½ª": 2319,
      "çĽ¸äºĴ": 2320,
      "åİŁåĽł": 2321,
      "èīºæľ¯": 2322,
      "ä¼Łå¤§": 2323,
      "Ġid": 2324,
      "çĶ»": 2325,
      "ased": 2326,
      "å§Ķåĳĺä¼ļ": 2327,
      "æ¤į": 2328,
      "èĢĮä¸Ķ": 2329,
      "çļĦäºº": 2330,
      "Ġcancer": 2331,
      "23": 2332,
      "ues": 2333,
      "ç»´æĬ¤": 2334,
      "per": 2335,
      "è¯¯": 2336,
      "çĭ¬ç«ĭ": 2337,
      "éĺ³": 2338,
      "åīĤ": 2339,
      "inal": 2340,
      "Ġli": 2341,
      "æŀĦæĪĲ": 2342,
      "æİ¢ç´¢": 2343,
      "Ġfol": 2344,
      "ç»Ŀ": 2345,
      "rec": 2346,
      "ological": 2347,
      "cess": 2348,
      "Ġmeas": 2349,
      "Ġlow": 2350,
      "ï¼İ": 2351,
      "ined": 2352,
      "åĬłå¿«": 2353,
      "å»ºçŃĳ": 2354,
      "çĽ¸å¯¹": 2355,
      "æĺ¯åľ¨": 2356,
      "äºĭä¸ļ": 2357,
      "åĽŃ": 2358,
      "é¾": 2359,
      "Ġsuch": 2360,
      "çı": 2361,
      "è¿Ĳè¡Į": 2362,
      "CA": 2363,
      "çļĦçłĶç©¶": 2364,
      "ä¹īåĬ¡": 2365,
      "Ġhyp": 2366,
      "å½ĵäºĭ": 2367,
      "æĭī": 2368,
      "Ġclinical": 2369,
      "è°ĥæķ´": 2370,
      "rel": 2371,
      "èĭı": 2372,
      "åį°": 2373,
      "èĢĥèĻĳ": 2374,
      "RNA": 2375,
      "ä¼ļè®®": 2376,
      "äººæ°ĳæ³ķéĻ¢": 2377,
      "atic": 2378,
      "Ġser": 2379,
      "è´¢äº§": 2380,
      "è¿ĲçĶ¨": 2381,
      "ron": 2382,
      "èĽ": 2383,
      "ä¸įåĲĮçļĦ": 2384,
      "acter": 2385,
      "è®¾æĸ½": 2386,
      "è®¢": 2387,
      "æ±ĩ": 2388,
      "ä»¥ä¸Ĭ": 2389,
      "ä½ľåĩº": 2390,
      "ild": 2391,
      "èŀįåĲĪ": 2392,
      "åıªæľī": 2393,
      "ä¸°": 2394,
      "ä¹ĭä¸Ģ": 2395,
      "éĻįä½İ": 2396,
      "ym": 2397,
      "éķĩ": 2398,
      "Ġtwo": 2399,
      "æ¡Īä»¶": 2400,
      "ä¼¤": 2401,
      "ç»ĦæĪĲ": 2402,
      "å±¥": 2403,
      "ä½ĵçļĦ": 2404,
      "æĺŁ": 2405,
      "æĶ¹åıĺ": 2406,
      "éģ¿": 2407,
      "Ġresults": 2408,
      "åĩıå°ĳ": 2409,
      "åºĶè¯¥": 2410,
      "è¡¨ç¤º": 2411,
      "çĲĨå¿µ": 2412,
      "è¶ĭ": 2413,
      "å®Ī": 2414,
      "ä¹¡æĿĳ": 2415,
      "In": 2416,
      "è´¯": 2417,
      "ĠÎ": 2418,
      "çļĦå½±åĵį": 2419,
      "Ġboth": 2420,
      "æİĮ": 2421,
      "åĨ³çŃĸ": 2422,
      "çĶļ": 2423,
      "Ġperform": 2424,
      "èĦĳ": 2425,
      "80": 2426,
      "ç±»åŀĭ": 2427,
      "æķĪçİĩ": 2428,
      "cept": 2429,
      "è´§å¸ģ": 2430,
      "åŁºåĽł": 2431,
      "als": 2432,
      "Ġover": 2433,
      "ç»ĥ": 2434,
      "æ·±åħ¥": 2435,
      "24": 2436,
      "èĩªå·±çļĦ": 2437,
      "èĭ¥": 2438,
      "éĴĪå¯¹": 2439,
      "ç«Ļ": 2440,
      "åĲ¯": 2441,
      "tern": 2442,
      "Ġpartic": 2443,
      "éī": 2444,
      "éĥ½æĺ¯": 2445,
      "owever": 2446,
      "éī´": 2447,
      "é²": 2448,
      "Ġwill": 2449,
      "cent": 2450,
      "æĶ»": 2451,
      "'s": 2452,
      "æī¿æĭħ": 2453,
      "æ¶²": 2454,
      "æŃ¦": 2455,
      "å¥½çļĦ": 2456,
      "åıįåºĶ": 2457,
      "hem": 2458,
      "æķ£": 2459,
      "ä¹¦è®°": 2460,
      "Ġbi": 2461,
      "ry": 2462,
      "éħ¸": 2463,
      "ting": 2464,
      "çłģ": 2465,
      "ç§ģ": 2466,
      "ark": 2467,
      "çĽĳç®¡": 2468,
      "own": 2469,
      "èĦ±": 2470,
      "èµĦéĩĳ": 2471,
      "ology": 2472,
      "hed": 2473,
      "èĻļ": 2474,
      "æĺİæĺ¾": 2475,
      "ç±³": 2476,
      ".,": 2477,
      "åĨħéĥ¨": 2478,
      "æīįèĥ½": 2479,
      "éĩĩåıĸ": 2480,
      "èģĶç³»": 2481,
      "èĩªèº«": 2482,
      "Ġexper": 2483,
      "äºĳ": 2484,
      "agn": 2485,
      "Ġmice": 2486,
      "Ġinhib": 2487,
      "ĠÂ±": 2488,
      "åģĩ": 2489,
      "Ġmeth": 2490,
      "è½»": 2491,
      "Ġappro": 2492,
      "æĺł": 2493,
      "æĿŁ": 2494,
      "çĸ¾": 2495,
      "çĺ": 2496,
      "è¯Ĺ": 2497,
      "äºĭå®ŀ": 2498,
      "åĬĽçļĦ": 2499,
      "rim": 2500,
      "plic": 2501,
      "å®ª": 2502,
      "æĪĲç«ĭ": 2503,
      "æŃ£ç¡®": 2504,
      "äºĨè§£": 2505,
      "ä¾Ŀæ³ķ": 2506,
      "è´·": 2507,
      "Ġidentif": 2508,
      "ok": 2509,
      "æĢ¥": 2510,
      "ä¸ŃåĽ½åħ±äº§åħļ": 2511,
      "60": 2512,
      "Ġhuman": 2513,
      "ĠJ": 2514,
      "åįĬ": 2515,
      "ç¦ı": 2516,
      "å¥ĭ": 2517,
      "åĵ²": 2518,
      "åıĹåĪ°": 2519,
      "inding": 2520,
      "æľªæĿ¥": 2521,
      "ä¼ĺåĮĸ": 2522,
      "éĩıçļĦ": 2523,
      "GF": 2524,
      "ĠWe": 2525,
      "Ġnum": 2526,
      "åįıè°ĥ": 2527,
      "ä¾Ŀæį®": 2528,
      "è¦ģç´ł": 2529,
      "èĹ": 2530,
      "Ġrisk": 2531,
      "çİ°è±¡": 2532,
      "Ġ20": 2533,
      "éĩįè¦ģçļĦ": 2534,
      "è§Ħå¾ĭ": 2535,
      "æĢĿç»´": 2536,
      "ble": 2537,
      "å®Įåħ¨": 2538,
      "è®¸å¤ļ": 2539,
      "Ġ**": 2540,
      "tical": 2541,
      "ä»·æł¼": 2542,
      "æīĭæ®µ": 2543,
      "ä¸Ģæĸ¹éĿ¢": 2544,
      "æĽ´å¤ļ": 2545,
      "åºĬ": 2546,
      "è§ĦåĪĻ": 2547,
      "ç¬¦åĲĪ": 2548,
      "ici": 2549,
      "ï¼ĮâĢľ": 2550,
      "å±ŀäºİ": 2551,
      "çļĦæĸ°": 2552,
      "\"}).": 2553,
      "çĽ¾": 2554,
      "Ġfollow": 2555,
      "Ġtime": 2556,
      "ä¸įåı¯": 2557,
      "ç½ļ": 2558,
      "ä¿ĿæĮģ": 2559,
      "æĹłæ³ķ": 2560,
      "ond": 2561,
      "æ°§": 2562,
      "èĢħçļĦ": 2563,
      "å¹¿æ³Ľ": 2564,
      "%)": 2565,
      "å·¨": 2566,
      "çĶ¨æĪ·": 2567,
      "Ġassociated": 2568,
      "åĨľæ°ĳ": 2569,
      "\".": 2570,
      "ormal": 2571,
      "éĢģ": 2572,
      "ered": 2573,
      "å°ģ": 2574,
      "Ġprovid": 2575,
      "åłĤ": 2576,
      "çĪ±": 2577,
      "å¼ķå¯¼": 2578,
      "åįıè®®": 2579,
      "éĻĦ": 2580,
      "åķĨä¸ļ": 2581,
      "Ġduring": 2582,
      "Ġprog": 2583,
      "Ġone": 2584,
      "ines": 2585,
      "æķ´ä½ĵ": 2586,
      "é¦ĸåħĪ": 2587,
      "Ġinto": 2588,
      "çŁĽ": 2589,
      "èĴ": 2590,
      "pit": 2591,
      "è·¨": 2592,
      "Ġmon": 2593,
      "å¨ģ": 2594,
      "ĠAl": 2595,
      "27": 2596,
      "é»Ħ": 2597,
      "åį´": 2598,
      "Ġobser": 2599,
      "å¸®": 2600,
      "ä¸Ńåįİæ°ĳæĹı": 2601,
      "åĮ»çĸĹ": 2602,
      "Ġdifferent": 2603,
      "éĻĲåĪ¶": 2604,
      "ç»¿èī²": 2605,
      "ace": 2606,
      "éĢĤåºĶ": 2607,
      "äººåı£": 2608,
      "Ġindic": 2609,
      "ç¯": 2610,
      "çĶ³è¯·": 2611,
      "æĦıè§ģ": 2612,
      "use": 2613,
      "ä¹°": 2614,
      "éĽĨä¸Ń": 2615,
      "Ġuse": 2616,
      "å¹´çļĦ": 2617,
      "çŁĽçĽ¾": 2618,
      "ord": 2619,
      "æłĳ": 2620,
      "ants": 2621,
      "CT": 2622,
      "åĪĨéħį": 2623,
      "Ġsug": 2624,
      "æ´²": 2625,
      "å½ĵäºĭäºº": 2626,
      "Ġform": 2627,
      "ç³»åĪĹ": 2628,
      "åįĥ": 2629,
      "Ġpresent": 2630,
      "hen": 2631,
      "åįļ": 2632,
      "åħ³æ³¨": 2633,
      "å±¥è¡Į": 2634,
      "éĢĶ": 2635,
      "è¡ĮåĬ¨": 2636,
      "äºĴèģĶç½ĳ": 2637,
      "èĪª": 2638,
      "Ġtiss": 2639,
      "è°ĥæŁ¥": 2640,
      "ç«ĭæ³ķ": 2641,
      "Ġrep": 2642,
      "ç¿": 2643,
      "ould": 2644,
      "è¯ģæĺİ": 2645,
      "æ¸Ĳ": 2646,
      "åĢºåĬ¡": 2647,
      "æĽ²": 2648,
      "è´¢æĶ¿": 2649,
      "åĵ²åŃ¦": 2650,
      "plement": 2651,
      "Ġeach": 2652,
      "Ġfound": 2653,
      "duction": 2654,
      "éĢĤçĶ¨": 2655,
      "æĮ¯": 2656,
      "Ġsugg": 2657,
      "æĥħåĨµä¸ĭ": 2658,
      "ĠCD": 2659,
      "èĽĭ": 2660,
      "å½ĵåīį": 2661,
      "100": 2662,
      "æ»¡è¶³": 2663,
      "çļĦä¸»è¦ģ": 2664,
      "SC": 2665,
      "å¼±": 2666,
      "åķĨåĵģ": 2667,
      "Ġup": 2668,
      "are": 2669,
      "Ġnon": 2670,
      "æıı": 2671,
      "æ¶īåıĬ": 2672,
      "å¿ĥçĲĨ": 2673,
      "æĿĥçļĦ": 2674,
      "éģĵè·¯": 2675,
      "Ġdef": 2676,
      "çĶļèĩ³": 2677,
      "ization": 2678,
      "éģĵå¾·": 2679,
      "âĢĶâĢĶ": 2680,
      "Ġexam": 2681,
      "Ġincreased": 2682,
      "æĸĩä»¶": 2683,
      "ï¼ļâĢľ": 2684,
      "å·¥åħ·": 2685,
      "æİĮæı¡": 2686,
      "æ±¡æŁĵ": 2687,
      "æıĲä¾ĽäºĨ": 2688,
      "ration": 2689,
      "æ³ķè§Ħ": 2690,
      "æķĪæŀľ": 2691,
      "é¡º": 2692,
      "èĻ½çĦ¶": 2693,
      "åĪĨåŃĲ": 2694,
      "Ġ([": 2695,
      "è¡¨è¾¾": 2696,
      "Ġem": 2697,
      "éĢļå¸¸": 2698,
      "è¯ģæį®": 2699,
      "åĶ®": 2700,
      "Ġend": 2701,
      "åŃ¦çĶŁçļĦ": 2702,
      "å¸Ŀ": 2703,
      "art": 2704,
      "èĲ½å®ŀ": 2705,
      "èģĶåĲĪ": 2706,
      "å½»": 2707,
      "å®ĥä»¬": 2708,
      "éĺ»": 2709,
      "pos": 2710,
      "è°Ī": 2711,
      "90": 2712,
      "ft": 2713,
      "SA": 2714,
      "çī©çļĦ": 2715,
      "åª": 2716,
      "Ġaut": 2717,
      "éĢĢ": 2718,
      "ï¼īï¼Į": 2719,
      "èµ·æĿ¥": 2720,
      "å½¢æĢģ": 2721,
      "].": 2722,
      "éĹ®é¢ĺçļĦ": 2723,
      "èĨľ": 2724,
      "Ġtherap": 2725,
      "Ġsim": 2726,
      "èµĶ": 2727,
      "æ´ĭ": 2728,
      "çĻ»": 2729,
      "lood": 2730,
      "26": 2731,
      "åĮĸåŃ¦": 2732,
      "éĿŀå¸¸": 2733,
      "Ġet": 2734,
      "éĢ»": 2735,
      "Ġhad": 2736,
      "dition": 2737,
      "çĽĸ": 2738,
      "ç½Ĺ": 2739,
      "å®¶åºŃ": 2740,
      "cri": 2741,
      "ç¼©": 2742,
      "çģµ": 2743,
      ":\"": 2744,
      "28": 2745,
      "äºĭä»¶": 2746,
      "æľĢé«ĺ": 2747,
      "æ®Ĭ": 2748,
      "mon": 2749,
      "ported": 2750,
      "æĮĩæłĩ": 2751,
      "åľ¨äºİ": 2752,
      "å¿ħè¦ģ": 2753,
      "æĺ¯ä¸Ģä¸ª": 2754,
      "70": 2755,
      "çŃ¹": 2756,
      "Ġour": 2757,
      "urther": 2758,
      "çģ«": 2759,
      "ex": 2760,
      "éĢ»è¾ĳ": 2761,
      "èĥľ": 2762,
      "æİ¥åıĹ": 2763,
      "å°ļ": 2764,
      "åĪĨä¸º": 2765,
      "Ġ19": 2766,
      "ä¼ļè®¡": 2767,
      "åıįæĺł": 2768,
      "è·Ŀ": 2769,
      "tit": 2770,
      "æľĢç»Ī": 2771,
      "med": 2772,
      "æĿ¿": 2773,
      "Ġcomple": 2774,
      "æĢ§è´¨": 2775,
      "æĢ»ä¹¦è®°": 2776,
      "ulated": 2777,
      "ĠSt": 2778,
      "Ġrese": 2779,
      "Ġtest": 2780,
      "çŃ¾": 2781,
      "Ġactivity": 2782,
      "çŃĶ": 2783,
      "è¿ĺæĺ¯": 2784,
      "Ġsec": 2785,
      "æĹ¥æľ¬": 2786,
      "Ġcompared": 2787,
      "éª¨": 2788,
      "æĦ¿": 2789,
      "éģĩ": 2790,
      "ç¥ŀç»ı": 2791,
      "å¼ºåĮĸ": 2792,
      "ature": 2793,
      "åªĴ": 2794,
      "æ£Ģæµĭ": 2795,
      "ute": 2796,
      "ä¸°å¯Į": 2797,
      "ç«¥": 2798,
      "ution": 2799,
      "åĪĨå¸ĥ": 2800,
      "Ġgener": 2801,
      "å°¤": 2802,
      "æ·±åĮĸ": 2803,
      "åĽ½æ°ĳ": 2804,
      "Ġsyn": 2805,
      "èĽĭçĻ½": 2806,
      "åĪĨåĪ«": 2807,
      "å¤«": 2808,
      "é«ĺåº¦": 2809,
      "å¹´æĿ¥": 2810,
      "ç»§ç»Ń": 2811,
      "othe": 2812,
      "éĢı": 2813,
      "ock": 2814,
      "èĦī": 2815,
      "æĿİ": 2816,
      "ram": 2817,
      "ç³»ç»ŁçļĦ": 2818,
      "æ··": 2819,
      "æī¾": 2820,
      "æĮĳ": 2821,
      "èĩªæĪĳ": 2822,
      "Ġwell": 2823,
      "è§ĤçĤ¹": 2824,
      "åĩ½": 2825,
      "reg": 2826,
      "å®ļä¹ī": 2827,
      "æ¯Ľ": 2828,
      "rough": 2829,
      "è´Łè´£": 2830,
      "æī©å¤§": 2831,
      "æ³¨æĦı": 2832,
      "çĽ¸åºĶ": 2833,
      "è¯Ĭ": 2834,
      "é¼ĵ": 2835,
      "35": 2836,
      "è¯´æĺİ": 2837,
      "Ġonly": 2838,
      "æĬĢèĥ½": 2839,
      "å¹¶ä¸Ķ": 2840,
      "Ġpot": 2841,
      "Ġmeasure": 2842,
      "cc": 2843,
      "éļĲ": 2844,
      "å°±ä¸ļ": 2845,
      "ä¼łæĴŃ": 2846,
      "è¥¿æĸ¹": 2847,
      "29": 2848,
      "åĲİçļĦ": 2849,
      "æ¶µ": 2850,
      "ments": 2851,
      "è°ĵ": 2852,
      "è¡¨æĺİ": 2853,
      "æĬµ": 2854,
      "è½¯ä»¶": 2855,
      "å·®å¼Ĥ": 2856,
      "Ġresear": 2857,
      "Ġits": 2858,
      "Ġdeterm": 2859,
      "æĪĲåĬŁ": 2860,
      "åĪĨç±»": 2861,
      "ears": 2862,
      "æ¥": 2863,
      "ability": 2864,
      "echan": 2865,
      "ç§°ä¸º": 2866,
      "ody": 2867,
      "éĵģ": 2868,
      "çī¹æ®Ĭ": 2869,
      "Ġmethod": 2870,
      "Ġtumor": 2871,
      "äº¤éĢļ": 2872,
      "å®ŀè¡Į": 2873,
      "è¿Ľç¨ĭ": 2874,
      "æķĳ": 2875,
      "çļĦå¤§": 2876,
      "ç¥¨": 2877,
      "çī©çĲĨ": 2878,
      "èįī": 2879,
      "äº²": 2880,
      "åĬ¨åĬĽ": 2881,
      "åĮĹäº¬": 2882,
      "çĺ¤": 2883,
      "Ġrem": 2884,
      "èµĦæĸĻ": 2885,
      "Ġdem": 2886,
      "ke": 2887,
      "ential": 2888,
      "æĸĩåŃ¦": 2889,
      "èıĮ": 2890,
      "ä¿¡åı·": 2891,
      "éģį": 2892,
      "æĸ¹éĿ¢çļĦ": 2893,
      "Ġmin": 2894,
      "ces": 2895,
      "li": 2896,
      "å¹´ä»£": 2897,
      "Ġmost": 2898,
      "Ġeffect": 2899,
      "çļĦåİĨåı²": 2900,
      "å©": 2901,
      "ational": 2902,
      "æľīåĪ©": 2903,
      "æ£ĢæŁ¥": 2904,
      "ç§Ł": 2905,
      "ough": 2906,
      "05": 2907,
      "ral": 2908,
      "arget": 2909,
      "bib": 2910,
      "Ġmut": 2911,
      "ä¸īä¸ª": 2912,
      "rent": 2913,
      "éĩįè§Ĩ": 2914,
      "ä¾§": 2915,
      "æ°ĳäºĭ": 2916,
      "Ġblood": 2917,
      "å¼ķèµ·": 2918,
      "ited": 2919,
      "éĺ¶çº§": 2920,
      "Ġkn": 2921,
      "irst": 2922,
      "æ½ľ": 2923,
      "çĶŁåĳ½": 2924,
      "å·´": 2925,
      "èĩªä¸»": 2926,
      "ung": 2927,
      "äº¡": 2928,
      "è¶ħè¿ĩ": 2929,
      "ition": 2930,
      "åĳĪ": 2931,
      "ency": 2932,
      "å¥Ĺ": 2933,
      "iv": 2934,
      "vers": 2935,
      "Ġ$": 2936,
      "æĽ¾": 2937,
      "å³": 2938,
      "Ġpatient": 2939,
      "199": 2940,
      "å·¦": 2941,
      "çĨŁ": 2942,
      "ages": 2943,
      "Ġins": 2944,
      "ite": 2945,
      "ç¬¬åĽĽ": 2946,
      "æįŁå®³": 2947,
      "ä¾ĽåºĶ": 2948,
      "oin": 2949,
      "âĢ¦": 2950,
      "Ġdiagn": 2951,
      "é£ŀ": 2952,
      "ä¸įå¾Ĺ": 2953,
      "ç»ıè¿ĩ": 2954,
      "æ²¹": 2955,
      "æķ°åŃ¦": 2956,
      "Ġimport": 2957,
      "rease": 2958,
      "lic": 2959,
      "æķ´ä¸ª": 2960,
      "æµĭè¯ķ": 2961,
      "æ¸¯": 2962,
      "usion": 2963,
      "ç¬Ķ": 2964,
      "æĭĵ": 2965,
      "ä¸´åºĬ": 2966,
      "å±Ĭ": 2967,
      "ç¡®ä¿Ŀ": 2968,
      "èĤ¿": 2969,
      "Ġnumber": 2970,
      "Ġext": 2971,
      "è®¡ç®Ĺæľº": 2972,
      "ç»©": 2973,
      "endent": 2974,
      "èĢĮæĺ¯": 2975,
      "CC": 2976,
      "ä½ľèĢħ": 2977,
      "åģı": 2978,
      "ç¼ĵ": 2979,
      "å¸®åĬ©": 2980,
      "æĶ¯ä»ĺ": 2981,
      "Ġassess": 2982,
      "æĪĺäºī": 2983,
      "ç½²": 2984,
      "================": 2985,
      "å»ºè®®": 2986,
      "ise": 2987,
      "AP": 2988,
      "çĸĳ": 2989,
      "Ġdist": 2990,
      "Ġeffects": 2991,
      "è¯¸": 2992,
      "Ġmechan": 2993,
      "åİŁçĲĨ": 2994,
      "Ġ(*": 2995,
      "Ġneur": 2996,
      "æ³ķçļĦ": 2997,
      "èĬ±": 2998,
      "äº¤æµģ": 2999,
      "ĠHowever": 3000,
      "Ġprocess": 3001,
      "åĳ³": 3002,
      "sy": 3003,
      "Ġbl": 3004,
      "Ġshown": 3005,
      "ç¯ĩ": 3006,
      "æ·±åĪ»": 3007,
      "Ġfunction": 3008,
      "Ġwho": 3009,
      "èµĶåģ¿": 3010,
      "ä½ł": 3011,
      "æľĢå¤§": 3012,
      "åħ±äº«": 3013,
      "å¸Į": 3014,
      "éģµ": 3015,
      "è½¬åŀĭ": 3016,
      "Ġvir": 3017,
      "Ġhig": 3018,
      "ç´¯": 3019,
      "åŁ¹è®Ń": 3020,
      "çĤİ": 3021,
      "åĪ¸": 3022,
      "vious": 3023,
      "åģ¥åħ¨": 3024,
      "å®½": 3025,
      "æĺ¯ä¸Ģç§į": 3026,
      "çľ¼": 3027,
      "æĺ¾ç¤º": 3028,
      "Ġcould": 3029,
      "æľŁéĹ´": 3030,
      "åĩºçīĪ": 3031,
      "éĻĪ": 3032,
      "Ġthrough": 3033,
      "ä¹ı": 3034,
      "æ²¿": 3035,
      "Ġrole": 3036,
      "Ġ\\<": 3037,
      "uro": 3038,
      "åŃ¦æľ¯": 3039,
      "nal": 3040,
      "åĬª": 3041,
      "AT": 3042,
      "å¹³è¡¡": 3043,
      "ï¼īãĢĤ": 3044,
      "qui": 3045,
      "çº·": 3046,
      "èĹı": 3047,
      "åĦ¿ç«¥": 3048,
      "ef": 3049,
      "ust": 3050,
      "éĿ¢ä¸´": 3051,
      "çĸ¾çĹħ": 3052,
      "æĶ¹åĸĦ": 3053,
      "èŃ": 3054,
      "çĩ": 3055,
      "æĮĳæĪĺ": 3056,
      "ä¹ĭåĲİ": 3057,
      "til": 3058,
      "ĠĠĠĠĠĠĠĠĠĠĠĠĠĠĠ": 3059,
      "åĶ¯": 3060,
      "çĵ": 3061,
      "min": 3062,
      "ä¹łè¿ĳå¹³æĢ»ä¹¦è®°": 3063,
      "Ġresponse": 3064,
      "çªģåĩº": 3065,
      "lamm": 3066,
      "ob": 3067,
      "ç®Ģåįķ": 3068,
      "ans": 3069,
      "è½¬ç§»": 3070,
      "æķ°éĩı": 3071,
      "å®¢è§Ĥ": 3072,
      "è¾©": 3073,
      "Ġindi": 3074,
      "Ġthere": 3075,
      "èĢĮè¨Ģ": 3076,
      "å¹¶ä¸į": 3077,
      "çļĦç¤¾ä¼ļ": 3078,
      "è½¬åıĺ": 3079,
      "Ġwhen": 3080,
      "æĿ¥è¯´": 3081,
      "Ġmem": 3082,
      "arly": 3083,
      "äº§æĿĥ": 3084,
      "å¿«éĢŁ": 3085,
      "Ġsel": 3086,
      "ci": 3087,
      "é«ĺæł¡": 3088,
      "åıĬæĹ¶": 3089,
      "Ġsignificantly": 3090,
      "uct": 3091,
      "éĽ¶": 3092,
      "çºł": 3093,
      "è®¨è®º": 3094,
      "Ġperformed": 3095,
      "å±Ĥæ¬¡": 3096,
      "åĩ½æķ°": 3097,
      "Ġdevelopment": 3098,
      "è®¿": 3099,
      "æľ¬è´¨": 3100,
      "ç»Łè®¡": 3101,
      "sive": 3102,
      "ä¸Ģèĩ´": 3103,
      "è§Ĵåº¦": 3104,
      "ç¡¬": 3105,
      "Ġmul": 3106,
      "éĤ£ä¹Ī": 3107,
      "Ġdep": 3108,
      "åĪ¤æĸŃ": 3109,
      "å¾ªçİ¯": 3110,
      "ective": 3111,
      "Ġgenes": 3112,
      "å¹²éĥ¨": 3113,
      "é¡¾": 3114,
      "ä¸»åĬ¨": 3115,
      "éĽĨä½ĵ": 3116,
      "éħįç½®": 3117,
      "è§Ĥå¿µ": 3118,
      "Ġcyt": 3119,
      "ä¹İ": 3120,
      "tig": 3121,
      "æįŁå¤±": 3122,
      "æĢ§èĥ½": 3123,
      "ä¼ģä¸ļçļĦ": 3124,
      "æĢ»ä½ĵ": 3125,
      "çľŁæŃ£": 3126,
      "Ġpred": 3127,
      "å¤§ä¼ļ": 3128,
      "ma": 3129,
      "å¾Īå¤ļ": 3130,
      "valu": 3131,
      "è´¡": 3132,
      "ort": 3133,
      "onstr": 3134,
      "æħ§": 3135,
      "æĭ¥": 3136,
      "å¥ĭæĸĹ": 3137,
      "ä¸Ģæĺ¯": 3138,
      "Ġantib": 3139,
      "è¶ĭåĬ¿": 3140,
      "view": 3141,
      "åĿı": 3142,
      "åĲ¬": 3143,
      "33": 3144,
      "æĺ¾èĳĹ": 3145,
      "Ġop": 3146,
      "çİ¯èĬĤ": 3147,
      "æŃ¤å¤ĸ": 3148,
      "Ġbrain": 3149,
      "æĿ¥æºĲ": 3150,
      "ç¢į": 3151,
      "Ġsm": 3152,
      "ç¹": 3153,
      "è¯·æ±Ĥ": 3154,
      "éĻĨ": 3155,
      "Ġgl": 3156,
      "æıĲåĩºäºĨ": 3157,
      "å¤Ħäºİ": 3158,
      "Ġprim": 3159,
      "---": 3160,
      "çĽŁ": 3161,
      "Ġspecific": 3162,
      "æĬĬæı¡": 3163,
      "ination": 3164,
      "åĬªåĬĽ": 3165,
      "æ³½": 3166,
      "erg": 3167,
      "è´¥": 3168,
      "é«ĺè´¨éĩı": 3169,
      "èĥĮæĻ¯": 3170,
      "ive": 3171,
      "çļ®": 3172,
      "Ġconf": 3173,
      "ä¸ĭçļĦ": 3174,
      "éģ¿åħį": 3175,
      "çŃĸçķ¥": 3176,
      "è¯ķéªĮ": 3177,
      "aracter": 3178,
      "vidual": 3179,
      "les": 3180,
      "ä¸Ĭè¿°": 3181,
      "åį·": 3182,
      "çī¹åĪ«æĺ¯": 3183,
      "ä¹ħ": 3184,
      "Ġtarget": 3185,
      "åįģåħ«": 3186,
      "45": 3187,
      "è½¬åĮĸ": 3188,
      "åī§": 3189,
      "roph": 3190,
      "åħ¬å¹³": 3191,
      "%,": 3192,
      "æĴĳ": 3193,
      "éĢĲæŃ¥": 3194,
      "åĵª": 3195,
      "æ¯ıä¸ª": 3196,
      "æľīæľº": 3197,
      "è®¾ç½®": 3198,
      "è§Ħå®ļçļĦ": 3199,
      "åĴĮåıĳå±ķ": 3200,
      "Ġran": 3201,
      "ä¸¤ç§į": 3202,
      "ç¹ģ": 3203,
      "ĠIL": 3204,
      "Ġinvol": 3205,
      "Ġcur": 3206,
      "ities": 3207,
      "ind": 3208,
      "åı³": 3209,
      "Ġage": 3210,
      "Ġra": 3211,
      "çĶ²": 3212,
      "itive": 3213,
      "æĿĥåĬĽ": 3214,
      "çĦ¶èĢĮ": 3215,
      "èµĭ": 3216,
      "äººå·¥": 3217,
      "éĢŁåº¦": 3218,
      "CD": 3219,
      "ĠThese": 3220,
      "çħ": 3221,
      "Ġfactors": 3222,
      "æĽ¿": 3223,
      "å¤ļç§į": 3224,
      "oid": 3225,
      "Ġthey": 3226,
      "åģľ": 3227,
      "ĠĠĠĠĠ": 3228,
      "Ġimp": 3229,
      "ä¸įè¶³": 3230,
      "å®ı": 3231,
      "å®ªæ³ķ": 3232,
      "Ġrecept": 3233,
      "oma": 3234,
      "åįĸ": 3235,
      "åī¯": 3236,
      "æĶ¯æĴĳ": 3237,
      "å´": 3238,
      "è®¤å®ļ": 3239,
      "Ġobserved": 3240,
      "æ¯į": 3241,
      "asc": 3242,
      "its": 3243,
      "ä¸ºä¸»": 3244,
      "å¹ħ": 3245,
      "åħµ": 3246,
      "Ġmicro": 3247,
      "æĻ®éģį": 3248,
      "èĩªåĬ¨": 3249,
      "ale": 3250,
      "åĽ½çļĦ": 3251,
      "èŃ¦": 3252,
      "Ġchang": 3253,
      "æľīéĻĲ": 3254,
      "ç»į": 3255,
      "Ġincluding": 3256,
      "å°¤åħ¶": 3257,
      "è¯¾åłĤ": 3258,
      "Ġpop": 3259,
      "Ġloc": 3260,
      "çĶ°": 3261,
      "å°Ĭ": 3262,
      "äºĮæĺ¯": 3263,
      "tively": 3264,
      "éĺħ": 3265,
      "raph": 3266,
      "æ¯Ķå¦Ĥ": 3267,
      "Î²": 3268,
      "çıŃ": 3269,
      "æĿĥçĽĬ": 3270,
      "Ġexperim": 3271,
      "Ġpol": 3272,
      "ä½¿å¾Ĺ": 3273,
      "old": 3274,
      "ç²Ĵ": 3275,
      "è§¦": 3276,
      "ç§Ģ": 3277,
      "av": 3278,
      "Ġfirst": 3279,
      "æĬĵ": 3280,
      "è¿Ľè¡ĮäºĨ": 3281,
      "åįıåĲĮ": 3282,
      "æĢ»ç»ĵ": 3283,
      "Ġnormal": 3284,
      "unt": 3285,
      "ples": 3286,
      "åºŁ": 3287,
      "ĠĠĠĠĠĠĠĠĠĠĠĠĠĠĠĠĠĠĠĠĠĠĠĠĠĠĠĠĠĠĠĠĠĠĠĠĠĠĠĠĠĠĠĠĠĠĠĠĠĠĠĠĠĠĠĠĠĠĠĠĠĠĠĠĠĠĠĠĠĠĠĠĠĠĠĠĠĠĠĠĠĠĠĠĠĠĠĠĠĠĠĠĠĠĠĠĠĠĠĠĠĠĠĠĠĠĠĠĠĠĠĠĠĠĠĠĠĠĠĠĠĠĠĠĠĠĠĠ": 3288,
      "é©±": 3289,
      "Âł": 3290,
      "crib": 3291,
      "38": 3292,
      "å¤įåħ´": 3293,
      "Ġes": 3294,
      "Ġshowed": 3295,
      "tics": 3296,
      "Ġref": 3297,
      "èµĸ": 3298,
      "è§Ĥå¯Ł": 3299,
      "led": 3300,
      "åį«çĶŁ": 3301,
      "çļĦæĸ¹æ³ķ": 3302,
      "è¿ĽæŃ¥": 3303,
      "æĶ¹éĿ©å¼ĢæĶ¾": 3304,
      "Ġsignal": 3305,
      "æĻºæħ§": 3306,
      "å¾Ģå¾Ģ": 3307,
      "Ġdo": 3308,
      "ä¸»å¼ł": 3309,
      "36": 3310,
      "åĩĨç¡®": 3311,
      "Ġevalu": 3312,
      "æľ¬èº«": 3313,
      "ç»ıæµİåıĳå±ķ": 3314,
      "ä¾Ľç»Ļ": 3315,
      "ix": 3316,
      "ependent": 3317,
      "åĨĮ": 3318,
      "æĪĲåĳĺ": 3319,
      "ãĢĭï¼Į": 3320,
      "æ±½": 3321,
      "é»ĳ": 3322,
      "è¯ĳ": 3323,
      "over": 3324,
      "è¦Ĩ": 3325,
      "Ġindividual": 3326,
      "åĴĮç¤¾ä¼ļ": 3327,
      "å¤§éĩı": 3328,
      "æĹħ": 3329,
      "ently": 3330,
      "åŃ¦éĻ¢": 3331,
      "ery": 3332,
      "Ġhigher": 3333,
      "Ġaff": 3334,
      "æ¡Ĩ": 3335,
      "ov": 3336,
      "è¿ģ": 3337,
      "Ġtissue": 3338,
      "Ġmedi": 3339,
      "reated": 3340,
      "ç§ĳçłĶ": 3341,
      "Figure": 3342,
      "RI": 3343,
      "åĩĿ": 3344,
      "æľĢåĲİ": 3345,
      "åħ±åĴĮ": 3346,
      "Ġchild": 3347,
      "é¼ĵåĬ±": 3348,
      "Ġmechanism": 3349,
      "com": 3350,
      "Ġinform": 3351,
      "ä¸¥æł¼": 3352,
      "åıĮæĸ¹": 3353,
      "å±ĤéĿ¢": 3354,
      "ize": 3355,
      "äºĨä¸Ģ": 3356,
      "ç¤¼": 3357,
      "çĻĮ": 3358,
      "estig": 3359,
      "åİĤ": 3360,
      "åĽ½å®¶çļĦ": 3361,
      "MP": 3362,
      "èĵ": 3363,
      "ĠĠĠĠĠĠ": 3364,
      "æ¡Īä¾ĭ": 3365,
      "34": 3366,
      "çĽ¸åĲĮ": 3367,
      "åĶĲ": 3368,
      "æĬĳ": 3369,
      "Ġreported": 3370,
      "çĥĪ": 3371,
      "Ġimportant": 3372,
      "åĢºæĿĥ": 3373,
      "åŃ¦èĢħ": 3374,
      "è´µ": 3375,
      "éĢĲæ¸Ĳ": 3376,
      "å§ĭç»Ī": 3377,
      "ä½ľåĵģ": 3378,
      "çļĦæĸ¹å¼ı": 3379,
      "éĨ": 3380,
      "æµģåĬ¨": 3381,
      "è´¡çĮ®": 3382,
      "èĢĹ": 3383,
      "å¤ļæķ°": 3384,
      "æĸĹäºī": 3385,
      "ä»ª": 3386,
      "ä¸ŃåĽ½çļĦ": 3387,
      "Ġcharacter": 3388,
      "åħĪè¿Ľ": 3389,
      "ood": 3390,
      "èĤ¡ä¸ľ": 3391,
      "ha": 3392,
      "å·¥ä½ľçļĦ": 3393,
      "ucle": 3394,
      "ä¿¡çĶ¨": 3395,
      "ç³ĸ": 3396,
      "åŃĺåĤ¨": 3397,
      "Ġresearch": 3398,
      "åıĤèĢĥ": 3399,
      "æľīåĪ©äºİ": 3400,
      "è°±": 3401,
      "å½ĵæĹ¶": 3402,
      "éľ²": 3403,
      "çģ¾": 3404,
      "è¿«": 3405,
      "æĹ§": 3406,
      "Ġprevious": 3407,
      "ions": 3408,
      "Ġma": 3409,
      "Ġnew": 3410,
      "ç¼ºä¹ı": 3411,
      "å®ĭ": 3412,
      "çļĦåħ³ç³»": 3413,
      "å¿ħçĦ¶": 3414,
      "æĿ¥çľĭ": 3415,
      "Ġthree": 3416,
      "ç´łè´¨": 3417,
      "æĬķåħ¥": 3418,
      "Ġgrow": 3419,
      "ä»ĭç»į": 3420,
      "æĢĿèĢĥ": 3421,
      "Ġstim": 3422,
      "æģ¶": 3423,
      "37": 3424,
      "é¸": 3425,
      "è´¯å½»": 3426,
      "åĲĪæ³ķ": 3427,
      "æ°¸": 3428,
      "å¯»": 3429,
      "ä¸ĭéĻį": 3430,
      "å¯¹å¤ĸ": 3431,
      "lis": 3432,
      "è®Ńç»ĥ": 3433,
      "åıĳå¸ĥ": 3434,
      "----------------------------------------------------------------": 3435,
      "åħ°": 3436,
      "äº¦": 3437,
      "åĽ½åĬ¡": 3438,
      "é«ĺçŃī": 3439,
      "ä½įç½®": 3440,
      "Ġyears": 3441,
      "ption": 3442,
      "II": 3443,
      "åħ·å¤ĩ": 3444,
      "åĪ°äºĨ": 3445,
      "åĮħåĲ«": 3446,
      "æķĪåºĶ": 3447,
      "åĽ½æľī": 3448,
      "æĬĺ": 3449,
      "Ġpathw": 3450,
      "çļĦè§Ħå®ļ": 3451,
      "çĽĳæµĭ": 3452,
      "Ġsome": 3453,
      "Ġwithin": 3454,
      "æľ¬æĸĩ": 3455,
      "åħ¬æ°ĳ": 3456,
      "ç£ģ": 3457,
      "ç®Ĺæ³ķ": 3458,
      "æ¯Ķä¾ĭ": 3459,
      "æī¶": 3460,
      "atis": 3461,
      "å®¡æŁ¥": 3462,
      "èĸ": 3463,
      "ĠAn": 3464,
      "Ġly": 3465,
      "æ±ł": 3466,
      "çİ°åľ¨": 3467,
      "rect": 3468,
      "åĽ¢éĺŁ": 3469,
      "è´¦": 3470,
      "æī¬": 3471,
      "AR": 3472,
      "æŃ£å¸¸": 3473,
      "Ġbec": 3474,
      "å¤ļæł·": 3475,
      "æľºåĻ¨": 3476,
      "éļ¾ä»¥": 3477,
      "ç¦ģ": 3478,
      "ÃĹ": 3479,
      "ĠCh": 3480,
      "ä¼¦": 3481,
      "åŁºéĩĳ": 3482,
      "Ġinvestig": 3483,
      "ses": 3484,
      "ST": 3485,
      "Ġ200": 3486,
      "Ġinj": 3487,
      "\\*": 3488,
      "ç»ķ": 3489,
      "éĢļä¿¡": 3490,
      "31": 3491,
      "ĠĠĠĠĠĠĠ": 3492,
      "è¿ĺæľī": 3493,
      "åħįçĸ«": 3494,
      "éĻ·": 3495,
      "é¢Ħæµĭ": 3496,
      "Ġdr": 3497,
      "åĽ½åĬ¡éĻ¢": 3498,
      "çĬ¶åĨµ": 3499,
      "ä¸Ĭæµ·": 3500,
      "æĬ½": 3501,
      "Ġthose": 3502,
      "å®Įæķ´": 3503,
      "éĿĻ": 3504,
      "oph": 3505,
      "ç²®": 3506,
      "Ġdemonstr": 3507,
      "æķı": 3508,
      "Ġwork": 3509,
      "æľ«": 3510,
      "ores": 3511,
      "çľŁå®ŀ": 3512,
      "çĻ»è®°": 3513,
      "åı¥": 3514,
      "åıĺéĿ©": 3515,
      "èŀįèµĦ": 3516,
      "çĲĨæĥ³": 3517,
      "Ġcorrel": 3518,
      "Ġocc": 3519,
      ")ãĢĤ": 3520,
      "å®ģ": 3521,
      "åį¡": 3522,
      "è´¹çĶ¨": 3523,
      "æĽ´å¥½": 3524,
      "åºĶå¯¹": 3525,
      "èĤº": 3526,
      "Ġchanges": 3527,
      "å¹³åĿĩ": 3528,
      "åĪĳäºĭ": 3529,
      "ressed": 3530,
      "é²ľ": 3531,
      "å±ħæ°ĳ": 3532,
      "å¸¦æĿ¥": 3533,
      "è¯ĨåĪ«": 3534,
      "IV": 3535,
      "ç»ıæµİåŃ¦": 3536,
      "Ġfe": 3537,
      "æµĭéĩı": 3538,
      "Ġmulti": 3539,
      "Ġinhibit": 3540,
      "Ġgroups": 3541,
      "Ġcal": 3542,
      "ms": 3543,
      "tivity": 3544,
      "åį±æľº": 3545,
      "å¤ļä¸ª": 3546,
      "AC": 3547,
      "è®°å½ķ": 3548,
      "çĹħæ¯Ĵ": 3549,
      "å¹³çŃī": 3550,
      "ived": 3551,
      "åĳ¨æľŁ": 3552,
      "åħ¼": 3553,
      "èį¯çī©": 3554,
      "Ġparticip": 3555,
      "æīĢè°ĵ": 3556,
      "Ġneed": 3557,
      "æĸĩçĮ®": 3558,
      "01": 3559,
      "ensi": 3560,
      "æ³¨éĩį": 3561,
      "è¿ŀæİ¥": 3562,
      "é½": 3563,
      "çªģçł´": 3564,
      "åı¶": 3565,
      "çļĦæķ°æį®": 3566,
      "....": 3567,
      "æļ´": 3568,
      "çļĦä½ľçĶ¨": 3569,
      "åĲĦä¸ª": 3570,
      "è¯¢": 3571,
      "Ġcare": 3572,
      "ä¸Ģå®ļçļĦ": 3573,
      "ç¤¾åĮº": 3574,
      "ä¸Ģä½ĵ": 3575,
      "è¶£": 3576,
      "requ": 3577,
      "æł¼å±Ģ": 3578,
      "ä»²": 3579,
      "the": 3580,
      "Ġimpro": 3581,
      "çº¯": 3582,
      "95": 3583,
      "è½®": 3584,
      "éŃ": 3585,
      "åĿĢ": 3586,
      "onal": 3587,
      "ç¤¾ä¼ļçļĦ": 3588,
      "æ·±åº¦": 3589,
      "Ġapp": 3590,
      "åħ¨éĥ¨": 3591,
      "åŁºå±Ĥ": 3592,
      "åįģä¹Ŀ": 3593,
      "åĨħçļĦ": 3594,
      "éĺĲ": 3595,
      "Ġdisc": 3596,
      "ai": 3597,
      "001": 3598,
      "æĥħå½¢": 3599,
      "ç»ŁçŃ¹": 3600,
      "åŁİä¹¡": 3601,
      "åı¬": 3602,
      "è®¤çŁ¥": 3603,
      "èį£": 3604,
      "ink": 3605,
      "è¾ħ": 3606,
      "ental": 3607,
      "Ġlead": 3608,
      "éĩİ": 3609,
      "æ¢°": 3610,
      "æķĻæİĪ": 3611,
      "æµģç¨ĭ": 3612,
      "æĸ°åŀĭ": 3613,
      "éĹ»": 3614,
      "Ġdel": 3615,
      "ä¸Ńåħ±": 3616,
      "æ¹ĸ": 3617,
      "æĬ¼": 3618,
      "èĤ¿çĺ¤": 3619,
      "table": 3620,
      "32": 3621,
      "åĬ¨æĢģ": 3622,
      "ice": 3623,
      "è´¢åĬ¡": 3624,
      "ä¸ĵåĪ©": 3625,
      "ä¸Ģæ¬¡": 3626,
      "é¦Ĩ": 3627,
      "ann": 3628,
      "Ġprom": 3629,
      "ä¸ĢåĪĩ": 3630,
      "ek": 3631,
      "éĺ¿": 3632,
      "è°Ĳ": 3633,
      "Ġç¬¬": 3634,
      "è£Ĥ": 3635,
      "åħļä¸Ńå¤®": 3636,
      "Ġfinding": 3637,
      "Ġdescrib": 3638,
      "æ¶¦": 3639,
      "è¶ĬæĿ¥": 3640,
      "åĲĮå¿Ĺ": 3641,
      "Ġconsid": 3642,
      "tained": 3643,
      "è¶ĬæĿ¥è¶Ĭ": 3644,
      "Ġset": 3645,
      "Ġmain": 3646,
      "ä¸ĵå®¶": 3647,
      "å©ļ": 3648,
      "upplement": 3649,
      "Ġrepres": 3650,
      "åŃĶ": 3651,
      "é«ĺçļĦ": 3652,
      "åĲĦç±»": 3653,
      "Ġpredic": 3654,
      "ä»įçĦ¶": 3655,
      "æķĻæĿĲ": 3656,
      "æĿ¥èĩª": 3657,
      "Ġmolec": 3658,
      "åĢį": 3659,
      "ĠFor": 3660,
      "ä¼´": 3661,
      "é¡µ": 3662,
      "],[@": 3663,
      "åīįæıĲ": 3664,
      "è°ĭ": 3665,
      "å¹¼": 3666,
      "Ġinfection": 3667,
      "åĪĺ": 3668,
      "å¸ĥå±Ģ": 3669,
      "åĢ¾": 3670,
      "çĻ¾å¹´": 3671,
      "å®ľ": 3672,
      "æģ¢": 3673,
      "è®¾ç«ĭ": 3674,
      "éĻ¤äºĨ": 3675,
      "æııè¿°": 3676,
      "æķ°åŃĹåĮĸ": 3677,
      "Ġincrease": 3678,
      "æĭĽ": 3679,
      "éĶĻè¯¯": 3680,
      "ytes": 3681,
      "Î±": 3682,
      "æŃĮ": 3683,
      "sible": 3684,
      "ins": 3685,
      "æ¡Ĩæŀ¶": 3686,
      "ä¹Łæľī": 3687,
      "æĶ¶çĽĬ": 3688,
      "aining": 3689,
      "å¸Ń": 3690,
      "CI": 3691,
      "åŁºç¡Ģè®¾æĸ½": 3692,
      "çĦ¶åĲİ": 3693,
      "éĢĶå¾Ħ": 3694,
      "æ½®": 3695,
      "çļĦä¸Ģä¸ª": 3696,
      "49": 3697,
      "ving": 3698,
      "å®¹æĺĵ": 3699,
      "é£Łåĵģ": 3700,
      "çłĶåıĳ": 3701,
      "AS": 3702,
      "Sec": 3703,
      "ĠAs": 3704,
      "éĢĴ": 3705,
      "zed": 3706,
      "æħ¢": 3707,
      "eration": 3708,
      "åĨĽäºĭ": 3709,
      "48": 3710,
      "Ġbas": 3711,
      "ä¸įä¼ļ": 3712,
      "è®ºæĸĩ": 3713,
      "åĽ°éļ¾": 3714,
      "çī¢": 3715,
      "Ġfactor": 3716,
      "æĬĢæľ¯çļĦ": 3717,
      "èĩªæ²»": 3718,
      "Ġj": 3719,
      "åı¯æĮģç»Ń": 3720,
      "Ġcases": 3721,
      "osph": 3722,
      "çļĦåŁºç¡Ģä¸Ĭ": 3723,
      "åĲĦçº§": 3724,
      "Ġinflamm": 3725,
      "PS": 3726,
      "Ġprot": 3727,
      "Ġrequi": 3728,
      "æİĴæĶ¾": 3729,
      "Ġsubj": 3730,
      "Ġmor": 3731,
      "Ġpotential": 3732,
      "ause": 3733,
      "Ġlim": 3734,
      "ç»§æī¿": 3735,
      "åħ¸åŀĭ": 3736,
      "Ġsequ": 3737,
      "å®¡è®¡": 3738,
      "Ġactivation": 3739,
      "ie": 3740,
      "Ġtri": 3741,
      "æŃ£åľ¨": 3742,
      "éº": 3743,
      "ilar": 3744,
      "39": 3745,
      "Ġtype": 3746,
      "äºĮåįģ": 3747,
      "èĤĮ": 3748,
      "æ¯Ľæ³½": 3749,
      "æĹ¶åĢĻ": 3750,
      "las": 3751,
      "å®¢æĪ·": 3752,
      "åĽ¢ç»ĵ": 3753,
      "åĩºçļĦ": 3754,
      "è¡¨éĿ¢": 3755,
      "æ¯Ľæ³½ä¸ľ": 3756,
      "æĢİ": 3757,
      "æľ¨": 3758,
      "æģ¢å¤į": 3759,
      "ascular": 3760,
      "Ġpost": 3761,
      "è¿½æ±Ĥ": 3762,
      "+^": 3763,
      "çĩĥ": 3764,
      "å®īæİĴ": 3765,
      "Cs": 3766,
      "é¦Ļ": 3767,
      "Ġsamples": 3768,
      "åħ¬å¼Ģ": 3769,
      "å¤ĸéĥ¨": 3770,
      "è¿ħ": 3771,
      "çŁ¿": 3772,
      "æķ´åĲĪ": 3773,
      "æ°§åĮĸ": 3774,
      "ically": 3775,
      "ĠĠĠĠĠĠĠĠĠĠĠĠĠĠĠĠĠĠĠĠĠĠĠĠ": 3776,
      "å®ŀä½ĵ": 3777,
      "äº§çĶŁçļĦ": 3778,
      "æ±½è½¦": 3779,
      "Ġfib": 3780,
      "ypes": 3781,
      "åıĳè¡¨": 3782,
      "ä»İäºĭ": 3783,
      "Ġmean": 3784,
      "ä¸ŃåĽ½äººæ°ĳ": 3785,
      "å¼ķé¢Ĩ": 3786,
      "cin": 3787,
      "åİĭåĬĽ": 3788,
      "éĶĢåĶ®": 3789,
      "çī¹å®ļ": 3790,
      "ç»ĻäºĪ": 3791,
      "ä¹ĭåīį": 3792,
      "æĪı": 3793,
      "æĺ¯å¯¹": 3794,
      "åıĤåĬł": 3795,
      "ä¼ĺç§Ģ": 3796,
      "Ġmark": 3797,
      "èİ·åıĸ": 3798,
      "åĨħæ¶µ": 3799,
      "ograph": 3800,
      "aterial": 3801,
      "æ®ĸ": 3802,
      "Ġev": 3803,
      "_{": 3804,
      "Ġcult": 3805,
      "ateg": 3806,
      "ä¹±": 3807,
      "è¿Ŀæ³ķ": 3808,
      "ä¼ĺåħĪ": 3809,
      "Ġsuggest": 3810,
      "æĺ¥": 3811,
      "Ġresult": 3812,
      "ç§©": 3813,
      "ake": 3814,
      "å°¼": 3815,
      "Ġevid": 3816,
      "æĺ¯ä¸Ģ": 3817,
      "åŁİéķĩ": 3818,
      "è·¯å¾Ħ": 3819,
      "çĽĺ": 3820,
      "å®£ä¼ł": 3821,
      "ãĢģâĢľ": 3822,
      "ES": 3823,
      "é¾Ļ": 3824,
      "vir": 3825,
      "ĠDNA": 3826,
      "Ġdifferenti": 3827,
      "ä¸Ńå°ı": 3828,
      "Ġrat": 3829,
      "ER": 3830,
      "çĦ¦": 3831,
      "çļĦçĲĨè®º": 3832,
      "å¡ĳ": 3833,
      "Ġ12": 3834,
      "ness": 3835,
      "cle": 3836,
      "Ġlong": 3837,
      "åĬłå·¥": 3838,
      "éĥ¨ç½²": 3839,
      "Ġav": 3840,
      "Ġconcent": 3841,
      "ä¾µæĿĥ": 3842,
      "åħģ": 3843,
      "Ġdrug": 3844,
      "æłĩå¿Ĺ": 3845,
      "Ġcontrib": 3846,
      "Ġcardi": 3847,
      "IP": 3848,
      "æĻ®éĢļ": 3849,
      "abol": 3850,
      "2020": 3851,
      "çº¦å®ļ": 3852,
      "Ġsever": 3853,
      "æĿ¾": 3854,
      "ç¼ĺ": 3855,
      "upplementary": 3856,
      "iter": 3857,
      "èĭ±åĽ½": 3858,
      "44": 3859,
      "çĽ¸æ¯Ķ": 3860,
      "æº¶": 3861,
      "æĹłè®º": 3862,
      "ptom": 3863,
      "è§£æĶ¾": 3864,
      "è½¨": 3865,
      "75": 3866,
      "åĩºåıĳ": 3867,
      "åĲĮæł·": 3868,
      "å®ŀè·µä¸Ń": 3869,
      "Ġbased": 3870,
      "æķĻèĤ²çļĦ": 3871,
      "èħĲ": 3872,
      "åªĴä½ĵ": 3873,
      "å¤§æķ°æį®": 3874,
      "æĦŁæŁĵ": 3875,
      "è¯ĬæĸŃ": 3876,
      "eng": 3877,
      "tis": 3878,
      "ä¸ªä½ĵ": 3879,
      "éĩįæĸ°": 3880,
      "ful": 3881,
      "Ġ+": 3882,
      "xim": 3883,
      "ross": 3884,
      "é¾Ħ": 3885,
      "]^": 3886,
      "åı¦ä¸Ģæĸ¹éĿ¢": 3887,
      "AD": 3888,
      "ç§©åºı": 3889,
      "ç¿»": 3890,
      "æ¯ķ": 3891,
      "è¿ĩåİ»": 3892,
      "é«ĺæķĪ": 3893,
      "aging": 3894,
      "^[@": 3895,
      "å®ļä½į": 3896,
      "åĪĽä¸ļ": 3897,
      "####": 3898,
      "ont": 3899,
      "ditional": 3900,
      "çº²": 3901,
      "çļĦæ³ķå¾ĭ": 3902,
      "Ġidentified": 3903,
      "Ġfurther": 3904,
      "åħ±åĴĮåĽ½": 3905,
      "æĥł": 3906,
      "æĥ¯": 3907,
      "å³°": 3908,
      "è¯ļ": 3909,
      "éĹŃ": 3910,
      "ested": 3911,
      "ä¿Ĺ": 3912,
      "Ġinformation": 3913,
      "å¤ļåħĥ": 3914,
      "ording": 3915,
      "åº¦çļĦ": 3916,
      "ç©¿": 3917,
      "å·¥èīº": 3918,
      "åĬ³åĬ¨èĢħ": 3919,
      "oh": 3920,
      "çĽ¸ç»ĵåĲĪ": 3921,
      "Ġgrowth": 3922,
      "Ġrate": 3923,
      "ĠIt": 3924,
      "Ġ201": 3925,
      "æ®ĭ": 3926,
      "å°½ç®¡": 3927,
      "gan": 3928,
      "46": 3929,
      "ural": 3930,
      "çļĦè¡Įä¸º": 3931,
      "åıªæĺ¯": 3932,
      "è¡°": 3933,
      "èĴĻ": 3934,
      "åĨ·": 3935,
      "erest": 3936,
      "CP": 3937,
      "åĲĦåĽ½": 3938,
      "çŃīæĸ¹éĿ¢": 3939,
      "ä»¥åĲİ": 3940,
      "æ²ī": 3941,
      "ication": 3942,
      "though": 3943,
      "ãĢĤâĢľ": 3944,
      "Ġfrequ": 3945,
      "åħļåĳĺ": 3946,
      "å¼ĥ": 3947,
      "åĩºäºĨ": 3948,
      "Ġneuro": 3949,
      "sis": 3950,
      "æĭ¥æľī": 3951,
      "é©±åĬ¨": 3952,
      "eth": 3953,
      "198": 3954,
      "åĳ¼": 3955,
      "Ġtr": 3956,
      "ä¸Ģæł·": 3957,
      "uce": 3958,
      "æĪĲå°±": 3959,
      "åĽĽä¸ª": 3960,
      "OS": 3961,
      "Ġrespec": 3962,
      "Ġcent": 3963,
      "æ²Ł": 3964,
      "åħļåĴĮ": 3965,
      "Ġ15": 3966,
      "äºĭåĬ¡": 3967,
      "Ġaddition": 3968,
      "inc": 3969,
      "åıĤæķ°": 3970,
      "çĶŁæĢģçİ¯å¢ĥ": 3971,
      "åĬłå¤§": 3972,
      "ĠPro": 3973,
      "Ġåľ¨": 3974,
      "æµ·æ´ĭ": 3975,
      "è¿Ĳè¾ĵ": 3976,
      "çģŃ": 3977,
      "ä¸ĢçĽ´": 3978,
      "åİļ": 3979,
      "è´·æ¬¾": 3980,
      "éĴ±": 3981,
      "ä¸Ńåįİäººæ°ĳ": 3982,
      "Ġso": 3983,
      "åįĩçº§": 3984,
      "æĮ¯åħ´": 3985,
      "ä¾Ŀèµĸ": 3986,
      "ç§ĺ": 3987,
      "çļĦå·¥ä½ľ": 3988,
      "å¼¹": 3989,
      "Ġproteins": 3990,
      "ãĢĲ": 3991,
      "å¥ĩ": 3992,
      "æ¾": 3993,
      "ãĢĳ": 3994,
      "æĦıåĳ³": 3995,
      "Ġtherapy": 3996,
      "äºĪä»¥": 3997,
      "åıĳè¾¾": 3998,
      "eg": 3999,
      "åĬŀæ³ķ": 4000,
      "æĢĢ": 4001,
      "Ġcaus": 4002,
      "è¦ĨçĽĸ": 4003,
      "ä¿®æĶ¹": 4004,
      "åĦĴ": 4005,
      "ĠRes": 4006,
      "èģĮè´£": 4007,
      "éļľç¢į": 4008,
      "------------": 4009,
      "łéģĵ": 4010,
      "Ġclass": 4011,
      "Ġoccur": 4012,
      "Ġtech": 4013,
      "æ³ķå®ļ": 4014,
      "èĻļæĭŁ": 4015,
      "æ¬§æ´²": 4016,
      "è·Ł": 4017,
      "Ġsym": 4018,
      "åĳĪçİ°": 4019,
      "éĺħè¯»": 4020,
      "ç¾İåħĥ": 4021,
      "éĿ¢å¯¹": 4022,
      "çĹĽ": 4023,
      "ĠÎ¼": 4024,
      "åĴĮè°Ĳ": 4025,
      "éħ¶": 4026,
      "å®ıè§Ĥ": 4027,
      "è°ĥèĬĤ": 4028,
      "æĹ¨": 4029,
      "åĽ´ç»ķ": 4030,
      "åķĨæłĩ": 4031,
      "åĪ¶éĢłä¸ļ": 4032,
      "èģĮèĥ½": 4033,
      "åĿļå®ļ": 4034,
      "çĽ¸å½ĵ": 4035,
      "çī©æµģ": 4036,
      "53": 4037,
      "èµĦæľ¬ä¸»ä¹ī": 4038,
      "ä¹Łåı¯ä»¥": 4039,
      "çī¹æĢ§": 4040,
      "Ġanaly": 4041,
      "èĪ¹": 4042,
      "yn": 4043,
      "tex": 4044,
      "Ġpub": 4045,
      "ç¡®ç«ĭ": 4046,
      "Ġrele": 4047,
      "è´«åĽ°": 4048,
      "ç»ĺ": 4049,
      "åįģåĪĨ": 4050,
      "åıªèĥ½": 4051,
      "çļĦåĨħå®¹": 4052,
      "æ°ĶåĢĻ": 4053,
      "ä»²è£ģ": 4054,
      "äººå·¥æĻºèĥ½": 4055,
      "ä¿Ħ": 4056,
      "Ġcommon": 4057,
      "æľºæ¢°": 4058,
      "åĽ¾åĥı": 4059,
      "anti": 4060,
      "çĶŁæĪĲ": 4061,
      "åĪ¶åº¦çļĦ": 4062,
      "*,": 4063,
      "Ġthen": 4064,
      "Ġshould": 4065,
      "æĸĩç«ł": 4066,
      "ä¸ªäººä¿¡æģ¯": 4067,
      ");": 4068,
      "çļĦè¿ĩç¨ĭ": 4069,
      "æ£Ģå¯Ł": 4070,
      "vere": 4071,
      "æŁĲäºĽ": 4072,
      "Ġstruct": 4073,
      "éĿĴå¹´": 4074,
      "æ²Ļ": 4075,
      "è¯º": 4076,
      "ï½": 4077,
      "æĹ©æľŁ": 4078,
      "åĴĮå¹³": 4079,
      "æĶ¹éĢł": 4080,
      "æ¤įçī©": 4081,
      "æĭħä¿Ŀ": 4082,
      "vention": 4083,
      "åħ¬ä¼Ĺ": 4084,
      "ulin": 4085,
      "æ¹¾": 4086,
      "%ï¼Į": 4087,
      "47": 4088,
      "æĬĳåĪ¶": 4089,
      "ĠY": 4090,
      "çĶ±æŃ¤": 4091,
      "è¢«åĳĬ": 4092,
      "æ¡£": 4093,
      "çļĦèĥ½åĬĽ": 4094,
      "åĩºåı£": 4095,
      "Ġpopulation": 4096,
      "ç¾¤ä½ĵ": 4097,
      "ified": 4098,
      "ID": 4099,
      "å»ºè®¾çļĦ": 4100,
      "Ġcomb": 4101,
      "spec": 4102,
      "è¿ĻéĩĮ": 4103,
      "ouse": 4104,
      "åŁ¹èĤ²": 4105,
      "65": 4106,
      "air": 4107,
      "åŃ¦çļĦ": 4108,
      "åĩĨå¤ĩ": 4109,
      "ronic": 4110,
      "Ġmemb": 4111,
      "åľ°çĲĨ": 4112,
      "å»ºæĪĲ": 4113,
      "ator": 4114,
      "é½Ĳ": 4115,
      "å²ģ": 4116,
      "hip": 4117,
      "åĮºåĪ«": 4118,
      "åĪº": 4119,
      "havi": 4120,
      "çĶ¨çļĦ": 4121,
      "å²Ĺ": 4122,
      "çºłçº·": 4123,
      "æĽ´ä¸º": 4124,
      "Ġtotal": 4125,
      "ospit": 4126,
      "ves": 4127,
      "Ġsimilar": 4128,
      "Ġcap": 4129,
      "åĢ¡": 4130,
      "Ġmy": 4131,
      "refore": 4132,
      "Ġsurvi": 4133,
      "èĬĤçĤ¹": 4134,
      "è½¬æį¢": 4135,
      "ç¥ĸ": 4136,
      "åĬ©äºİ": 4137,
      "Ġamong": 4138,
      "Ġhist": 4139,
      "è¸": 4140,
      "Ġacid": 4141,
      "omen": 4142,
      "Ġabout": 4143,
      "çĪ¶": 4144,
      "lial": 4145,
      "ä¸ĵéĹ¨": 4146,
      "amet": 4147,
      "å¼ºåĪ¶": 4148,
      "åıĭ": 4149,
      "\"\"": 4150,
      "ç¨İæĶ¶": 4151,
      "çŁ¥è¯Ĩäº§æĿĥ": 4152,
      "ç»ıæµİçļĦ": 4153,
      "çĽ¸åħ³çļĦ": 4154,
      "é¡¶": 4155,
      "ately": 4156,
      "èĤĿ": 4157,
      "å®ĥçļĦ": 4158,
      "è¿ŀç»Ń": 4159,
      "å®ĹæķĻ": 4160,
      "Ġfollowing": 4161,
      "jor": 4162,
      "PP": 4163,
      "Ġsmall": 4164,
      "å½¢åĬ¿": 4165,
      "æıŃ": 4166,
      "Ġpers": 4167,
      "åįģåĽĽ": 4168,
      "æŃ£å¼ı": 4169,
      "ĠHe": 4170,
      "ç»ıæµİç¤¾ä¼ļ": 4171,
      "åĬ¨çī©": 4172,
      "åįģäºĮ": 4173,
      "ä¸Ģèµ·": 4174,
      "uff": 4175,
      "é¢Ħéĺ²": 4176,
      "æĶ¹è¿Ľ": 4177,
      "çħ¤": 4178,
      "å½ĵä»£": 4179,
      "åįıåķĨ": 4180,
      "Ġdid": 4181,
      "å¥ĸ": 4182,
      "Ġlower": 4183,
      "åį±éĻ©": 4184,
      "æ£®": 4185,
      "Ġpat": 4186,
      "SD": 4187,
      "ä¸»é¢ĺ": 4188,
      "Ġep": 4189,
      "æĹ¥çĽĬ": 4190,
      "äº¤æį¢": 4191,
      "å£¤": 4192,
      "çł´åĿı": 4193,
      "ange": 4194,
      "ä¸Ģç³»åĪĹ": 4195,
      "Ġreceptor": 4196,
      "Ġreview": 4197,
      "éŁ³ä¹Ĳ": 4198,
      "ics": 4199,
      "æľīæīĢ": 4200,
      "å®ŀè´¨": 4201,
      "å²Ľ": 4202,
      "éĽĨåĽ¢": 4203,
      "Ġdue": 4204,
      "æķĪçĽĬ": 4205,
      "å±ĭ": 4206,
      "ences": 4207,
      "äºīè®®": 4208,
      "Ġprimary": 4209,
      "Ġret": 4210,
      "å¯¼åĲĳ": 4211,
      "å½©": 4212,
      "å¤Ħç½ļ": 4213,
      "å¦ĤæŃ¤": 4214,
      "to": 4215,
      "çĸ«æĥħ": 4216,
      "æ°¢": 4217,
      "Ġevidence": 4218,
      "Ġprol": 4219,
      "Ġsame": 4220,
      "ä¸»è¦ģæĺ¯": 4221,
      "iod": 4222,
      "é¢ĨåŁŁçļĦ": 4223,
      "æĦıåĳ³çĿĢ": 4224,
      "NF": 4225,
      "Ġvis": 4226,
      "Ġchildren": 4227,
      "Ġmi": 4228,
      "çīĮ": 4229,
      "æķ°æį®åºĵ": 4230,
      "ä¸Ĭåįĩ": 4231,
      "è°¢": 4232,
      "è¡Įä½¿": 4233,
      "esis": 4234,
      "cop": 4235,
      "mph": 4236,
      "è¿¹": 4237,
      "Ġox": 4238,
      "Ġwhile": 4239,
      "æ¸©åº¦": 4240,
      "åĮ»åŃ¦": 4241,
      "è¾ĸ": 4242,
      "ä¸ĢæĿ¡": 4243,
      "Ġimmune": 4244,
      "å°±ä¼ļ": 4245,
      "42": 4246,
      "Ġwould": 4247,
      "åģļå¥½": 4248,
      "Ġexpos": 4249,
      "éļĶ": 4250,
      "Ġmetabol": 4251,
      "éķľ": 4252,
      "ä»ĸäºº": 4253,
      "çº¦æĿŁ": 4254,
      "æĴ¤": 4255,
      "æ¶Īè´¹èĢħ": 4256,
      "Ġfindings": 4257,
      "å½¢æĪĲäºĨ": 4258,
      "versity": 4259,
      "è½¬è®©": 4260,
      "cell": 4261,
      "action": 4262,
      "æĶ¶éĽĨ": 4263,
      "å°º": 4264,
      "æµĵ": 4265,
      "å®Ŀ": 4266,
      "Ġrepresent": 4267,
      "çĽ¸åºĶçļĦ": 4268,
      "arge": 4269,
      "Ġearly": 4270,
      "ĠTo": 4271,
      "ä¼į": 4272,
      "å®ŀéĻħä¸Ĭ": 4273,
      "è¿ĲèĲ¥": 4274,
      "è¯¦": 4275,
      "æ´ģ": 4276,
      "Ġrespectively": 4277,
      "åĪĬ": 4278,
      "ç»Łæ²»": 4279,
      "Ġcompar": 4280,
      "çº³åħ¥": 4281,
      "éĺ²æŃ¢": 4282,
      "Ġexpl": 4283,
      "æŃ»äº¡": 4284,
      "æ£ĢéªĮ": 4285,
      "åĲ¸æĶ¶": 4286,
      "Ġany": 4287,
      "çºµ": 4288,
      "åŁºåľ°": 4289,
      "ç¡®è®¤": 4290,
      "Ġregul": 4291,
      "oint": 4292,
      "çŀ": 4293,
      "åĪĽå»º": 4294,
      "Ġlung": 4295,
      "ç»ĦåĲĪ": 4296,
      "æ°ĳæ³ķ": 4297,
      "Ġplas": 4298,
      "Ġline": 4299,
      "å®¡åĪ¤": 4300,
      "inf": 4301,
      "æĻ¶": 4302,
      "MS": 4303,
      "çļĦè¦ģæ±Ĥ": 4304,
      "eu": 4305,
      "å¦Ĥä¸ĭ": 4306,
      "medi": 4307,
      "æ¿ĢåĬ±": 4308,
      "è¿Ķ": 4309,
      "éĥ½æľī": 4310,
      "åĨ²çªģ": 4311,
      "];": 4312,
      "åľ¨æŃ¤": 4313,
      "æģ©": 4314,
      "Ġpe": 4315,
      "ä¼łè¾ĵ": 4316,
      "æĸĩåĮĸçļĦ": 4317,
      "Ġwithout": 4318,
      "è¯ģåĪ¸": 4319,
      "åħ³ç³»çļĦ": 4320,
      "ĠFig": 4321,
      "è¿Ŀåıį": 4322,
      "æī§æ³ķ": 4323,
      "çĳ": 4324,
      "ä¿¡æģ¯åĮĸ": 4325,
      "Ġsecond": 4326,
      "DNA": 4327,
      "Ġinflu": 4328,
      "ç´łåħ»": 4329,
      "Ġstand": 4330,
      "è¿Ļæł·çļĦ": 4331,
      "åįģä¸ī": 4332,
      "åº§": 4333,
      "Ġtranscri": 4334,
      "éĿ¢åĲĳ": 4335,
      "æ¿Ģåıĳ": 4336,
      "Ġpositive": 4337,
      "å¹¿å¤§": 4338,
      "Ġmajor": 4339,
      "æī°": 4340,
      "Ġmat": 4341,
      "çŁ¥éģĵ": 4342,
      "åĪ©çİĩ": 4343,
      "Ġcurrent": 4344,
      "å¦ĩ": 4345,
      "ET": 4346,
      "Ġcomplex": 4347,
      "çłĶç©¶çļĦ": 4348,
      "èĭ¦": 4349,
      "Ġif": 4350,
      "of": 4351,
      "ocytes": 4352,
      "åı¦å¤ĸ": 4353,
      "sequ": 4354,
      "ä½Ľ": 4355,
      "Ġ30": 4356,
      "ç±»ä¼¼": 4357,
      "omp": 4358,
      "ä½ĵèĤ²": 4359,
      "78": 4360,
      "åŃ£": 4361,
      "Ġauth": 4362,
      "Ġflu": 4363,
      "induced": 4364,
      "åĩłä¸ª": 4365,
      "æľºä¼ļ": 4366,
      "èº«ä»½": 4367,
      "çļĩ": 4368,
      "æ¥ļ": 4369,
      "è£ķ": 4370,
      "ĠçļĦ": 4371,
      "Ġdescribed": 4372,
      "ä¼łç»ŁçļĦ": 4373,
      "Ġnucle": 4374,
      "Ġvit": 4375,
      "ĠMed": 4376,
      "åģļåĪ°": 4377,
      "æľīæķĪçļĦ": 4378,
      "åĬĽåº¦": 4379,
      "è´´": 4380,
      "æĹħæ¸¸": 4381,
      "éĺµ": 4382,
      "èĶ": 4383,
      "åĽºå®ļ": 4384,
      "ests": 4385,
      "Ġiniti": 4386,
      "åĽłèĢĮ": 4387,
      "Ġelect": 4388,
      "å°¿": 4389,
      "åįķåħĥ": 4390,
      "Ġvirus": 4391,
      "åĺ": 4392,
      "Ġwhether": 4393,
      "ä¼Łå¤§å¤įåħ´": 4394,
      "çļĦåħ³éĶ®": 4395,
      "è´Ńä¹°": 4396,
      "ane": 4397,
      "äººæ°ĳç¾¤ä¼Ĺ": 4398,
      "âĢĿâĢľ": 4399,
      "ç§¦": 4400,
      "åĲĽ": 4401,
      "åľŁå£¤": 4402,
      "Ġdecreas": 4403,
      "æİ¨å¹¿": 4404,
      "ä¸īæĺ¯": 4405,
      "iel": 4406,
      "å¸ĮæľĽ": 4407,
      "ä¸Ńåįİäººæ°ĳåħ±åĴĮåĽ½": 4408,
      "èģĮä¸ļæķĻèĤ²": 4409,
      "å¡ŀ": 4410,
      "âĢ¦âĢ¦": 4411,
      "erv": 4412,
      "43": 4413,
      "çĶµæ±ł": 4414,
      "ove": 4415,
      "fer": 4416,
      "çĶ¨äºº": 4417,
      "Ġbehavi": 4418,
      "éĽĨæĪĲ": 4419,
      "Ġpromot": 4420,
      "ety": 4421,
      "æľŁéĻĲ": 4422,
      "AG": 4423,
      "Ġdifferences": 4424,
      "æ³¨åĨĮ": 4425,
      "éĿ¢ç§¯": 4426,
      "éľĩ": 4427,
      "^+^": 4428,
      "æĪĲçĨŁ": 4429,
      "åħģè®¸": 4430,
      "æ°ı": 4431,
      "ingle": 4432,
      "åĲĮä¸Ģ": 4433,
      "ç¬¬äºĶ": 4434,
      "åĨħåľ¨": 4435,
      "åı¤ä»£": 4436,
      "è¡ĮçļĦ": 4437,
      "Ġanim": 4438,
      "å¤§åĬĽ": 4439,
      "è¿ħéĢŁ": 4440,
      "ä¹Łå°±æĺ¯": 4441,
      "sych": 4442,
      "åıįå¯¹": 4443,
      "å°¤åħ¶æĺ¯": 4444,
      "å¸¸è§ģ": 4445,
      "å¾·åĽ½": 4446,
      "å±ŀæĢ§": 4447,
      "Ġlymph": 4448,
      "åĨł": 4449,
      "è¿ĽèĢĮ": 4450,
      "dom": 4451,
      "ä¼ĳ": 4452,
      "ains": 4453,
      "ä»¿": 4454,
      "ä»·åĢ¼è§Ĥ": 4455,
      "åħĥç´ł": 4456,
      "mit": 4457,
      "Ġâ": 4458,
      "Ġcy": 4459,
      "ditions": 4460,
      "çĽĽ": 4461,
      "åı¯è§ģ": 4462,
      "ardi": 4463,
      "äºĭæķħ": 4464,
      ")ï¼Į": 4465,
      "åħ¶æ¬¡": 4466,
      "èĪŀ": 4467,
      "Ġwhere": 4468,
      "56": 4469,
      "è·ĥ": 4470,
      "èĩªè§ī": 4471,
      "Ġdesign": 4472,
      "è¾¨": 4473,
      "è·¯çº¿": 4474,
      "CO": 4475,
      "Ġradi": 4476,
      "å½ĵçĦ¶": 4477,
      "èĢķ": 4478,
      "Ġvalues": 4479,
      "Table": 4480,
      "DP": 4481,
      "Ġprof": 4482,
      "Ġcr": 4483,
      "Ġcir": 4484,
      "åĪļ": 4485,
      "çĶŁéķ¿": 4486,
      "å®ŀçİ°äºĨ": 4487,
      "æĪĳä»¬åħļ": 4488,
      "åĭĩ": 4489,
      "ĠĊ": 4490,
      "ç±į": 4491,
      "MI": 4492,
      "çº¤": 4493,
      "æīĢå¾Ĺ": 4494,
      "éģµå¾ª": 4495,
      "å°ĳæķ°": 4496,
      "çļĦæĢĿæĥ³": 4497,
      "ç»ĵè®º": 4498,
      "è¯¾é¢ĺ": 4499,
      "Ġsymptom": 4500,
      "41": 4501,
      "other": 4502,
      "äºĭé¡¹": 4503,
      "ä¸ºæł¸å¿ĥ": 4504,
      "æĺ¯çĶ±": 4505,
      "çļĦé«ĺ": 4506,
      "æĭĵå±ķ": 4507,
      "çļĦä¸Ģç§į": 4508,
      "èĢĥæł¸": 4509,
      "2021": 4510,
      "ality": 4511,
      "reen": 4512,
      "æķĮ": 4513,
      "ä¼łæĦŁ": 4514,
      "åī²": 4515,
      "åĪ©æ¶¦": 4516,
      "ï¼īãĢģ": 4517,
      "ä»£çĲĨ": 4518,
      "æĺ¯ä»¥": 4519,
      "è¡Ģç®¡": 4520,
      "99": 4521,
      "gative": 4522,
      "ä¹Ļ": 4523,
      "55": 4524,
      "Ġvol": 4525,
      "è¾ĵåħ¥": 4526,
      "io": 4527,
      "ade": 4528,
      "Ġconditions": 4529,
      "Ġhyper": 4530,
      "èį·": 4531,
      "éĢļçŁ¥": 4532,
      "çļĦåıĺåĮĸ": 4533,
      "çľĭåĪ°": 4534,
      "çĲĨæĢ§": 4535,
      "æ¨¡åĿĹ": 4536,
      "\"(": 4537,
      "Ġ(**": 4538,
      "å¹¼åĦ¿": 4539,
      "æĥħæĦŁ": 4540,
      "èĥľåĪ©": 4541,
      "Ġavail": 4542,
      "Ġdiab": 4543,
      "çļĦæľĢ": 4544,
      "Ġreduced": 4545,
      "éĿŀæ³ķ": 4546,
      "Ġsk": 4547,
      "Ġsignaling": 4548,
      "çļĦç»ıæµİ": 4549,
      "ç¤¾ä¼ļä¸»ä¹īçİ°ä»£åĮĸ": 4550,
      "æ¨¡æĭŁ": 4551,
      "è¿ĳå¹´æĿ¥": 4552,
      "Ġpresence": 4553,
      "åıĺéĩı": 4554,
      "æĿĢ": 4555,
      "åĪĨç¦»": 4556,
      "ld": 4557,
      "ç§»åĬ¨": 4558,
      "Ġmodels": 4559,
      "ä¹Łä¸į": 4560,
      "Ġunderst": 4561,
      "ths": 4562,
      "è¡¥åģ¿": 4563,
      "ither": 4564,
      "åĩĢ": 4565,
      "æīĢåľ¨": 4566,
      "Ġcollec": 4567,
      "å¤ı": 4568,
      "åħ³èģĶ": 4569,
      "ç»ıåİĨ": 4570,
      "ackage": 4571,
      "Ġless": 4572,
      "æĸĩåŃĹ": 4573,
      "Ġknown": 4574,
      "æĢģåº¦": 4575,
      "ced": 4576,
      "éĢĤå½ĵ": 4577,
      "åı¯éĿł": 4578,
      "çĶµè·¯": 4579,
      "lished": 4580,
      "åĳĺå·¥": 4581,
      "çļĦæĥħåĨµä¸ĭ": 4582,
      "SP": 4583,
      "row": 4584,
      "éģŃ": 4585,
      "æĿ¡æ¬¾": 4586,
      "éĩĳå±ŀ": 4587,
      "çŃīçŃī": 4588,
      "åĪ¤åĨ³": 4589,
      "ĠAd": 4590,
      "ax": 4591,
      "è°ĥæİ§": 4592,
      "ä½¿åĳ½": 4593,
      "ä¸Ńåįİæ°ĳæĹıä¼Łå¤§å¤įåħ´": 4594,
      "æ´ŀ": 4595,
      "éĤ¦": 4596,
      "Ġincluded": 4597,
      "yd": 4598,
      "ties": 4599,
      "åħ¨ä¼ļ": 4600,
      "äº¿åħĥ": 4601,
      "Ġrelated": 4602,
      "Ġphosph": 4603,
      "Ġdiagnos": 4604,
      "çļĦæ¦Ĥå¿µ": 4605,
      "çĶŁåŃĺ": 4606,
      "ification": 4607,
      "ife": 4608,
      "\",\"": 4609,
      "Ġobtained": 4610,
      "åľĨ": 4611,
      "æĩ": 4612,
      "äººæīįåŁ¹åħ»": 4613,
      "å·Ŀ": 4614,
      "ospital": 4615,
      "ior": 4616,
      "çĶµåĬĽ": 4617,
      "Ġsensi": 4618,
      "ç²®é£Ł": 4619,
      "67": 4620,
      "%ãĢĤ": 4621,
      "å®ĩ": 4622,
      "ogni": 4623,
      "èĥ½éĩı": 4624,
      "ä»ĸçļĦ": 4625,
      "å°Ĭéĩį": 4626,
      "Ġfam": 4627,
      "æİ¢è®¨": 4628,
      "æīĵéĢł": 4629,
      "åĽ½å®¶å®īåħ¨": 4630,
      "åŃĺåľ¨çļĦ": 4631,
      "LA": 4632,
      "æĹĹ": 4633,
      "å¤§å¤ļæķ°": 4634,
      "äºĴåĬ¨": 4635,
      "èĭ¥å¹²": 4636,
      "Ġestim": 4637,
      "éĽ·": 4638,
      "å·¦åı³": 4639,
      "ä¹ĭå¤ĸ": 4640,
      "æı´": 4641,
      "æī§æĶ¿": 4642,
      "åĲĦé¡¹": 4643,
      "å¿½": 4644,
      "Ġmus": 4645,
      "St": 4646,
      "Ġcle": 4647,
      "æµª": 4648,
      "ä¸ĩåħĥ": 4649,
      "PD": 4650,
      "57": 4651,
      "éĺŁä¼į": 4652,
      "Ġdays": 4653,
      "å·¨å¤§": 4654,
      "æľīåĬ©äºİ": 4655,
      "åľºæĻ¯": 4656,
      "ick": 4657,
      "åħ»èĢģ": 4658,
      "è¿Ľå±ķ": 4659,
      "Ġadd": 4660,
      "äººä¸İ": 4661,
      "è¾ĵåĩº": 4662,
      "å®ŀéªĮå®¤": 4663,
      "Ġatt": 4664,
      "Ġpattern": 4665,
      "och": 4666,
      "çļĦä¿¡æģ¯": 4667,
      "ev": 4668,
      "2017": 4669,
      "ä¸»å¯¼": 4670,
      "ward": 4671,
      "2018": 4672,
      "åĴĮåħ¶ä»ĸ": 4673,
      "\"ãĢĤ": 4674,
      "éĴ¢": 4675,
      "Ġsol": 4676,
      "å¯ĨåĪĩ": 4677,
      "ield": 4678,
      "éĢĨ": 4679,
      "Ġmal": 4680,
      "æŃ£æĺ¯": 4681,
      "èª": 4682,
      "åĳ½è¿Ĳ": 4683,
      "éªĮè¯ģ": 4684,
      "Ġdirect": 4685,
      "ä¸Ģæĸ¹": 4686,
      "å¸Ĥåľºç»ıæµİ": 4687,
      "![": 4688,
      "erc": 4689,
      "ained": 4690,
      "çļĦåĲĮæĹ¶": 4691,
      "çļĦä¸į": 4692,
      "åı¬å¼Ģ": 4693,
      "Ġparticular": 4694,
      "Ġsurvival": 4695,
      "ä¹ĭä¸Ń": 4696,
      "Ġgra": 4697,
      "Ġlab": 4698,
      "Ġperiod": 4699,
      "äººå¤§": 4700,
      "els": 4701,
      "ily": 4702,
      "èĦĤ": 4703,
      "EM": 4704,
      "æĿ¡ä¾ĭ": 4705,
      "çļĦæĹ¶éĹ´": 4706,
      "Ġmany": 4707,
      "ensity": 4708,
      "ç¤ºèĮĥ": 4709,
      "é«ĺè´¨éĩıåıĳå±ķ": 4710,
      "\\'": 4711,
      "æī¹åĩĨ": 4712,
      "Ġprovide": 4713,
      "based": 4714,
      "é²ģ": 4715,
      "èĤ¥": 4716,
      "æĸ°æĹ¶ä»£ä¸ŃåĽ½çī¹èī²ç¤¾ä¼ļä¸»ä¹ī": 4717,
      "Ġrece": 4718,
      "ĠQ": 4719,
      "Ġagain": 4720,
      "uted": 4721,
      "Ġweek": 4722,
      "ning": 4723,
      "Ġ18": 4724,
      "Ġtra": 4725,
      "Ġ11": 4726,
      "Ġbecause": 4727,
      "ä½ĵéªĮ": 4728,
      "åľ¨ä¸ŃåĽ½": 4729,
      "è¡Įä¸ºçļĦ": 4730,
      "ä¾ĽåºĶéĵ¾": 4731,
      "æ¢¦": 4732,
      "Ġsurg": 4733,
      "Ġinvolved": 4734,
      "çĽĲ": 4735,
      "Ġdiagnosis": 4736,
      "ĠĠĠĠĠĠĠĠĠĠĠĠĠĠ": 4737,
      "ç§¯ç´¯": 4738,
      "Ġresist": 4739,
      "69": 4740,
      "åħ±åĲĮä½ĵ": 4741,
      "Ġmechanisms": 4742,
      "èĦı": 4743,
      "æĳĦ": 4744,
      "æİĺ": 4745,
      "Ġterm": 4746,
      "fore": 4747,
      "æĿ¡ä»¶ä¸ĭ": 4748,
      "ĠUni": 4749,
      "å±ķå¼Ģ": 4750,
      "set": 4751,
      "çļĦæł¸å¿ĥ": 4752,
      "odies": 4753,
      "Ġseveral": 4754,
      "etes": 4755,
      "We": 4756,
      "Ġchem": 4757,
      "èĩªä¿¡": 4758,
      "work": 4759,
      "ission": 4760,
      "æŀ¶æŀĦ": 4761,
      "Ġsingle": 4762,
      "ä¹ĥ": 4763,
      "ty": 4764,
      "oss": 4765,
      "æ°ĳéĹ´": 4766,
      "Ġisol": 4767,
      "ĠĠĠĠĠĠĠĠĠĠĠĠĠ": 4768,
      "Ġenh": 4769,
      "Ġabs": 4770,
      "æĢĿè·¯": 4771,
      "èĮĥåĽ´åĨħ": 4772,
      "æŁĲç§į": 4773,
      "TP": 4774,
      "å½¢è±¡": 4775,
      "è·Ŀç¦»": 4776,
      "ä½ľä¸ļ": 4777,
      "æĹĭ": 4778,
      "é¢ĦæľŁ": 4779,
      "Ġculture": 4780,
      "è®¸åı¯": 4781,
      "åħ´è¶£": 4782,
      "æĪĳä»¬çļĦ": 4783,
      "åħ¬åı¸çļĦ": 4784,
      "Ġ100": 4785,
      "è¾ĥå¤§": 4786,
      "éª¤": 4787,
      "68": 4788,
      "èĢĥå¯Ł": 4789,
      "æĸ°éĹ»": 4790,
      "å¾Īå¤§": 4791,
      "Ġtreated": 4792,
      "å¥ĳ": 4793,
      "åĮºåĿĹ": 4794,
      "åŀĦ": 4795,
      "åĵªäºĽ": 4796,
      "ãĢĤãĢĬ": 4797,
      "AL": 4798,
      "Ġexpressed": 4799,
      "å·¥èµĦ": 4800,
      "Ġgenetic": 4801,
      "æķ°æį®çļĦ": 4802,
      "æĻļ": 4803,
      "è¾ĥä¸º": 4804,
      "ĠEx": 4805,
      "æ´»æĢ§": 4806,
      "åºĨ": 4807,
      "icient": 4808,
      "è¡¥åħħ": 4809,
      "Ġneurons": 4810,
      "Ġmeasured": 4811,
      "ä¾ĿéĿł": 4812,
      "æ¸łéģĵ": 4813,
      "ites": 4814,
      "æĸ¹éĴĪ": 4815,
      "çļĦæĶ¿æ²»": 4816,
      "çĶ¨äººåįķä½į": 4817,
      "éĺ´": 4818,
      "2019": 4819,
      "Ġphen": 4820,
      "åĩºæĿ¥": 4821,
      "ç²¾åĩĨ": 4822,
      "ä¼¯": 4823,
      "èĢĮä¸į": 4824,
      "que": 4825,
      "åį±å®³": 4826,
      "Ġsupport": 4827,
      "èī°": 4828,
      "ä¸ºä¸Ńå¿ĥ": 4829,
      "line": 4830,
      "èµ°åĲĳ": 4831,
      "å¯¹åºĶ": 4832,
      "hes": 4833,
      "ĠĠĠĠĠĠĠĠĠĠĠĠĠĠĠĠĠĠĠĠĠĠĠĠĠĠĠĠĠĠĠĠĠĠĠĠĠĠĠĠĠĠĠĠĠĠĠĠ": 4834,
      "åĵĪ": 4835,
      "æ´»åĬ¨çļĦ": 4836,
      "æ¢ģ": 4837,
      "acy": 4838,
      "ç¦»åŃĲ": 4839,
      "åºĦ": 4840,
      "Ġmultiple": 4841,
      "âĢĿãĢģâĢľ": 4842,
      "åį³ä½¿": 4843,
      "åĻ¨çļĦ": 4844,
      "Ġadv": 4845,
      "èĤī": 4846,
      "å¯¹åħ¶": 4847,
      "çĪĨ": 4848,
      "Ġstatis": 4849,
      "Ġgreat": 4850,
      "Ġpart": 4851,
      "åĨĽéĺŁ": 4852,
      "åŀĦæĸŃ": 4853,
      "Ġ24": 4854,
      "sec": 4855,
      "Ġ.": 4856,
      "å½¢æĪĲçļĦ": 4857,
      "ĠRNA": 4858,
      "ĠAll": 4859,
      "ç®¡çĲĨçļĦ": 4860,
      "é¢Ħç®Ĺ": 4861,
      "ĠX": 4862,
      "èĢĮä¸įæĺ¯": 4863,
      "æĭĴ": 4864,
      "Ġphys": 4865,
      "ĠĠĠĠĠĠĠĠĠ": 4866,
      "Ġstress": 4867,
      "è®¿éĹ®": 4868,
      "å¼Ĥå¸¸": 4869,
      "Th": 4870,
      "é¦Ļæ¸¯": 4871,
      "Ġvalue": 4872,
      "ãĢĤï¼Ī": 4873,
      "æĹ¥å¸¸": 4874,
      "BS": 4875,
      "åĤ¬": 4876,
      "ä¾Ŀçħ§": 4877,
      "58": 4878,
      "å·©": 4879,
      "Ġdemonstrated": 4880,
      "ĠĠĠĠĠĠĠĠĠĠ": 4881,
      "ç»©æķĪ": 4882,
      "èĥģ": 4883,
      "æĪĲéķ¿": 4884,
      "åĪĽä½ľ": 4885,
      "Ġliver": 4886,
      "éģĹä¼ł": 4887,
      "Ġdiseases": 4888,
      "Ġdom": 4889,
      "èī¯å¥½çļĦ": 4890,
      "rast": 4891,
      "usep": 4892,
      "Ġserum": 4893,
      "æī£": 4894,
      "èµ¢": 4895,
      "usepackage": 4896,
      "Ġprolif": 4897,
      "CS": 4898,
      "ç»´æĮģ": 4899,
      "Ġtem": 4900,
      "åĬłä»¥": 4901,
      "åĢĴ": 4902,
      "æ¹¿": 4903,
      "èĤ¡æĿĥ": 4904,
      "èĢĥè¯ķ": 4905,
      "ä¹łæĥ¯": 4906,
      "ä½³": 4907,
      "å¤ļçļĦ": 4908,
      "Ġcalc": 4909,
      "åŁºç¡Ģä¸Ĭ": 4910,
      "ysis": 4911,
      "æľīçĿĢ": 4912,
      "åĲĦåľ°": 4913,
      "Ġinterest": 4914,
      "viron": 4915,
      "æ¡¥": 4916,
      "ä½ĵç³»çļĦ": 4917,
      "{\\": 4918,
      "âĢĻ": 4919,
      "æİ¢ç©¶": 4920,
      "ä»Ĭå¤©": 4921,
      "å¯Įè£ķ": 4922,
      "Ġlik": 4923,
      "Ġbefore": 4924,
      "å¼ºçļĦ": 4925,
      "Ġstandard": 4926,
      "èµĽ": 4927,
      "äººåĬĽ": 4928,
      "äººåľ¨": 4929,
      "2016": 4930,
      "ä»£è¡¨å¤§ä¼ļ": 4931,
      "å¹¸": 4932,
      "âĳł": 4933,
      "ĠIm": 4934,
      "åĪĳæ³ķ": 4935,
      "åĬłéĢŁ": 4936,
      "åĳ¢": 4937,
      "åŃ©": 4938,
      "åĮĸåĴĮ": 4939,
      "åħ¨ä½ĵ": 4940,
      "å¥¥": 4941,
      "æ··åĲĪ": 4942,
      "reast": 4943,
      "Ġ50": 4944,
      "æī©å±ķ": 4945,
      "æĶ¹éĿ©çļĦ": 4946,
      "ç¨ĭåº¦ä¸Ĭ": 4947,
      "Ġdeath": 4948,
      "Ġcase": 4949,
      "çĹĩçĬ¶": 4950,
      "round": 4951,
      "ä¼¦çĲĨ": 4952,
      "èĥĢ": 4953,
      "ä¸ºä»Ģä¹Ī": 4954,
      "ä¸Ŀ": 4955,
      "å¼ķåħ¥": 4956,
      "omet": 4957,
      "æĹ¦": 4958,
      "ĠHIV": 4959,
      "æĹ¶çļĦ": 4960,
      "Ġpathway": 4961,
      "Ġregion": 4962,
      "Ġidentify": 4963,
      "lation": 4964,
      "Ġsample": 4965,
      "ç¼´": 4966,
      "æĪĲå¹´": 4967,
      "èħº": 4968,
      "æĸ½å·¥": 4969,
      "related": 4970,
      "ually": 4971,
      "åĬ³åĬ¨åĲĪåĲĮ": 4972,
      "Ġpreviously": 4973,
      "otype": 4974,
      "Ġprac": 4975,
      "ellular": 4976,
      "äº§åĵģçļĦ": 4977,
      "Ġpo": 4978,
      "è¯±": 4979,
      "RA": 4980,
      "anced": 4981,
      "è®¯": 4982,
      "rane": 4983,
      "Ġbody": 4984,
      "å²¸": 4985,
      "èī¯å¥½": 4986,
      "æĪª": 4987,
      "æĿ¡è§Ħå®ļ": 4988,
      "pir": 4989,
      "ä¸»è§Ĥ": 4990,
      "å§Ķæīĺ": 4991,
      "åħħåĪĨåıĳæĮ¥": 4992,
      "ogenesis": 4993,
      "çĿĢåĬĽ": 4994,
      "è¿ĳä»£": 4995,
      "èĳ£": 4996,
      "çº¸": 4997,
      "ste": 4998,
      "Ġben": 4999,
      "ĠâĪĴ": 5000,
      "åĩºçīĪç¤¾": 5001,
      "ç»Ŀå¯¹": 5002,
      "çĶŁçļĦ": 5003,
      "Ġhow": 5004,
      "Ġnec": 5005,
      "Ġprob": 5006,
      "æĬµæĬ¼": 5007,
      "ury": 5008,
      "CM": 5009,
      "å·©åĽº": 5010,
      "èĭĹ": 5011,
      "ä¹¡æĿĳæĮ¯åħ´": 5012,
      "Ġresponses": 5013,
      "pression": 5014,
      "Ġexperiments": 5015,
      "éģĹäº§": 5016,
      "}}": 5017,
      "atus": 5018,
      "çļĦç»ĵæŀľ": 5019,
      "Ġreve": 5020,
      "ä¹ĭè·¯": 5021,
      "**)": 5022,
      "åĪĩå®ŀ": 5023,
      "çİī": 5024,
      "éĴŁ": 5025,
      "Ġavailable": 5026,
      "å°Ĩåħ¶": 5027,
      "å§ĵ": 5028,
      "æĥ©": 5029,
      "å£®": 5030,
      "å¤º": 5031,
      "Ġhem": 5032,
      "ĠHealth": 5033,
      "å¿Ĩ": 5034,
      "èĥ¶": 5035,
      "çĶŁäº§åĬĽ": 5036,
      "èĥ½åĬĽçļĦ": 5037,
      "éĤ£äºĽ": 5038,
      "2015": 5039,
      "åıªè¦ģ": 5040,
      "RT": 5041,
      "Â°": 5042,
      "Ġed": 5043,
      "IT": 5044,
      "Ġorgan": 5045,
      "ç»Ħç»ĩçļĦ": 5046,
      "sc": 5047,
      "ä¸½": 5048,
      "RP": 5049,
      "éĻ¢æł¡": 5050,
      "acc": 5051,
      "ä¸ºåŁºç¡Ģ": 5052,
      "lob": 5053,
      "ä¸»ç®¡": 5054,
      "å½ĵåľ°": 5055,
      "teg": 5056,
      "Ġcharacteris": 5057,
      "Ġgluc": 5058,
      "å«": 5059,
      "Ġlarge": 5060,
      "Ġmethods": 5061,
      "Ġ16": 5062,
      "æ¨ª": 5063,
      "è¯ķçĤ¹": 5064,
      "face": 5065,
      "specific": 5066,
      "é¦ĸæ¬¡": 5067,
      "çļĦæĬĢæľ¯": 5068,
      "æ¯ķä¸ļ": 5069,
      "ä¼¸": 5070,
      "âĳ¡": 5071,
      "ĠFurther": 5072,
      "åĲĪæĪĲ": 5073,
      "åħļçļĦåįģåħ«": 5074,
      "ç»ıå¸¸": 5075,
      "Ġest": 5076,
      "NP": 5077,
      "Ġchronic": 5078,
      "æŃ¥éª¤": 5079,
      "ĠUniversity": 5080,
      "Ġred": 5081,
      "ocy": 5082,
      "Ġmight": 5083,
      "){#": 5084,
      "rin": 5085,
      "CL": 5086,
      "å®«": 5087,
      "ãĢģãĢĬ": 5088,
      "åľ°çĲĥ": 5089,
      "etwork": 5090,
      "Ġmedical": 5091,
      "éĽĦ": 5092,
      "é¥®": 5093,
      "ument": 5094,
      "ĠĠĠĠĠĠĠĠĠĠĠ": 5095,
      "Ġwomen": 5096,
      "ision": 5097,
      "ç§ĳæĬĢåĪĽæĸ°": 5098,
      "æ²ŁéĢļ": 5099,
      "ãĢĤ\"": 5100,
      "èµĦæºĲçļĦ": 5101,
      "ä»ĸä»¬çļĦ": 5102,
      "åŃĻ": 5103,
      "ä¸įåĨį": 5104,
      "omy": 5105,
      "åįģäºĶ": 5106,
      "Ġeither": 5107,
      "æĪ¿å±ĭ": 5108,
      "æ¸Ĺ": 5109,
      "å¹¶éĿŀ": 5110,
      "èĸĦ": 5111,
      "äºĭçī©": 5112,
      "ç»ıæµİå¢ŀéķ¿": 5113,
      "æĿĨ": 5114,
      "Ġpossible": 5115,
      "ç»ª": 5116,
      "Ġsep": 5117,
      "Ġimprove": 5118,
      "è½´": 5119,
      "èķ": 5120,
      "ä¸Ńåħ±ä¸Ńå¤®": 5121,
      "ium": 5122,
      "å½¹": 5123,
      "Ġdetermine": 5124,
      "å°ģå»º": 5125,
      "çĤ¼": 5126,
      "Ġindependent": 5127,
      "æľįåĬ¡çļĦ": 5128,
      "Ġlocal": 5129,
      "ä»°": 5130,
      "Ġfoc": 5131,
      "IS": 5132,
      "åĲ¯åĬ¨": 5133,
      "æĬ½è±¡": 5134,
      "Ġrati": 5135,
      "ount": 5136,
      "äººæ°ĳæĶ¿åºľ": 5137,
      "ä»ģ": 5138,
      "å°ıç»Ħ": 5139,
      "Ġsubjects": 5140,
      "åĽłåŃĲ": 5141,
      "Ġchange": 5142,
      "å¼ºåĽ½": 5143,
      "éĩıåŃĲ": 5144,
      "åľĪ": 5145,
      "Ġauthors": 5146,
      "æıŃç¤º": 5147,
      "Ġpri": 5148,
      "ules": 5149,
      "Ġapproach": 5150,
      "å¼ºåº¦": 5151,
      "ä¼Ļ": 5152,
      "Ġcirc": 5153,
      "98": 5154,
      "Ġä¸Ģ": 5155,
      "èĦ±è´«": 5156,
      "è§Ĩä¸º": 5157,
      "verse": 5158,
      "æĻ°": 5159,
      "ner": 5160,
      "Ġsus": 5161,
      "åĬŀçĲĨ": 5162,
      "ey": 5163,
      "66": 5164,
      "Ġconsidered": 5165,
      "Ġdistrib": 5166,
      "å£ģ": 5167,
      "å®¡çĲĨ": 5168,
      "Ġfunctional": 5169,
      "Ġhep": 5170,
      "èļ": 5171,
      "æ¾³": 5172,
      "term": 5173,
      "èģĮå·¥": 5174,
      "Ġagainst": 5175,
      "ç§ĭ": 5176,
      "æľīäºĨ": 5177,
      "ationship": 5178,
      "åĬłåħ¥": 5179,
      "å¤ªéĺ³": 5180,
      "minist": 5181,
      "Ġindividuals": 5182,
      "ä¸»ä¹īçļĦ": 5183,
      "åĲĮæĦı": 5184,
      "æľ±": 5185,
      "ysi": 5186,
      "Ġï¼Ī": 5187,
      "èĳĹä½ľ": 5188,
      "æĽ¿ä»£": 5189,
      "å°ıåº·": 5190,
      "åĪ°çļĦ": 5191,
      "å¼ķåıĳ": 5192,
      "é©¾": 5193,
      "]\\],": 5194,
      "æĶ»åĩ»": 5195,
      "Ġimaging": 5196,
      "åħļåĨħ": 5197,
      "Ġinduced": 5198,
      "åĮ»éĻ¢": 5199,
      "erence": 5200,
      "å¢¨": 5201,
      "Ġheart": 5202,
      "Ġallow": 5203,
      "åį«æĺŁ": 5204,
      "æī¿åĮħ": 5205,
      "Ġanalyzed": 5206,
      "å±ķç¤º": 5207,
      "Ġtumors": 5208,
      "æľīäºĽ": 5209,
      "èĤ¾": 5210,
      "åĪĿæŃ¥": 5211,
      "ä¸Ģå¸¦": 5212,
      "Ġconduc": 5213,
      "vironment": 5214,
      "ç´§å¯Ĩ": 5215,
      "amin": 5216,
      "02": 5217,
      "æĽ´æĸ°": 5218,
      "ä¸įè¿ĩ": 5219,
      "Ġlip": 5220,
      "äº§ä¸ļéĵ¾": 5221,
      "Ġgu": 5222,
      "read": 5223,
      "Ġbreast": 5224,
      "])": 5225,
      "Ġdecreased": 5226,
      "ections": 5227,
      "ene": 5228,
      "ĠmRNA": 5229,
      "åĮºåĿĹéĵ¾": 5230,
      "Ġmg": 5231,
      "ists": 5232,
      "æļĤ": 5233,
      "é¢ĳçİĩ": 5234,
      "Ġpress": 5235,
      "Ġparticipants": 5236,
      "ĠZ": 5237,
      "Ġ14": 5238,
      "å¸¦æĿ¥çļĦ": 5239,
      "ä¼Ĭ": 5240,
      "ince": 5241,
      "éĢĤåĲĪ": 5242,
      "ĠUn": 5243,
      "ç¼ĸåĪ¶": 5244,
      "åı¯èĥ½ä¼ļ": 5245,
      "éĩĳèŀįæľºæŀĦ": 5246,
      "ç»ĵæĿŁ": 5247,
      "è¿İ": 5248,
      "åı«": 5249,
      "éī´å®ļ": 5250,
      "inu": 5251,
      "éĽ¨": 5252,
      "ised": 5253,
      "IL": 5254,
      "æĿĥå¨ģ": 5255,
      "åľ£": 5256,
      "ä½ĵçİ°äºĨ": 5257,
      "RS": 5258,
      "æ´¥": 5259,
      "omic": 5260,
      "BP": 5261,
      "æıĲåĩºçļĦ": 5262,
      "åİŁå§ĭ": 5263,
      "iven": 5264,
      "Ġcompon": 5265,
      "rop": 5266,
      "ull": 5267,
      "Ġvs": 5268,
      "79": 5269,
      "å»ºæŀĦ": 5270,
      "å·®è·Ŀ": 5271,
      "oles": 5272,
      "arm": 5273,
      "âĢĺ": 5274,
      "éĢīä¸¾": 5275,
      "è§Ĵèī²": 5276,
      "æ´»åĬĽ": 5277,
      "ocial": 5278,
      "åįģåħŃ": 5279,
      "çĭ¬çī¹": 5280,
      "è¿Ŀçº¦": 5281,
      "åģļåĩº": 5282,
      "Ġloss": 5283,
      "åĪ¶çº¦": 5284,
      "Ġparamet": 5285,
      "æ¸¡": 5286,
      "éĶģ": 5287,
      "Ġhel": 5288,
      "å·¥äºº": 5289,
      "æĸ°åıĳå±ķ": 5290,
      "ĠAD": 5291,
      "NS": 5292,
      "åĪºæ¿Ģ": 5293,
      "åĩ¡": 5294,
      "è®ºè¿°": 5295,
      "åĩłä¹İ": 5296,
      "64": 5297,
      "éĹ´çļĦ": 5298,
      "vent": 5299,
      "æĿ¨": 5300,
      "Ġsize": 5301,
      "app": 5302,
      ")ãĢģ": 5303,
      "éĩĩè´Ń": 5304,
      "Ġbinding": 5305,
      "åĿĲ": 5306,
      "éªĹ": 5307,
      "æĸ°æĹ¶ä»£ä¸ŃåĽ½çī¹èī²ç¤¾ä¼ļä¸»ä¹īæĢĿæĥ³": 5308,
      "Ġreveal": 5309,
      "é¥°": 5310,
      "åıī": 5311,
      "ä¸Ńåħ¨ä¼ļ": 5312,
      "æĮĸ": 5313,
      "æ¬²": 5314,
      "å´ĩ": 5315,
      "ä¼łæī¿": 5316,
      "Ġpur": 5317,
      "Ġmm": 5318,
      "ĠPD": 5319,
      "Ġi": 5320,
      "ä¼łæĦŁåĻ¨": 5321,
      "FP": 5322,
      "æĸĩæľ¬": 5323,
      "ä¿¡æģ¯æĬĢæľ¯": 5324,
      "çļĦæķĻåŃ¦": 5325,
      "Ġdown": 5326,
      "è§£éĻ¤": 5327,
      "åºĶæĢ¥": 5328,
      "æĹłæķĪ": 5329,
      "æŁ±": 5330,
      "è¡¨çİ°ä¸º": 5331,
      "ç¼ºéĻ·": 5332,
      "asis": 5333,
      "Ġmonths": 5334,
      "Ġconfir": 5335,
      "å¤ĸäº¤": 5336,
      "èĥ¡": 5337,
      "59": 5338,
      "bl": 5339,
      "å¹¶åľ¨": 5340,
      "Ġsymptoms": 5341,
      "Ġaccording": 5342,
      "Ġmolecular": 5343,
      "é¡¿": 5344,
      "èĭ±è¯Ń": 5345,
      "åī©": 5346,
      "Ġdetected": 5347,
      "77": 5348,
      "%.": 5349,
      "åı¯ä»¥éĢļè¿ĩ": 5350,
      "ĠAm": 5351,
      "Ġdetermined": 5352,
      "ject": 5353,
      "å¤ĦåĪĨ": 5354,
      "çŃ¾è®¢": 5355,
      "Ġmac": 5356,
      "ä¸ľè¥¿": 5357,
      "plication": 5358,
      "Ġmouse": 5359,
      "æłĳç«ĭ": 5360,
      "Al": 5361,
      "respon": 5362,
      "åģĩè®¾": 5363,
      "^âĪĴ": 5364,
      "Ġepit": 5365,
      "52": 5366,
      "ä¹ĺ": 5367,
      "Ġvi": 5368,
      "atal": 5369,
      "æĶ¯åĩº": 5370,
      "åĩĨåĪĻ": 5371,
      "af": 5372,
      "æĢİæł·": 5373,
      "ru": 5374,
      "Ġfac": 5375,
      "Ġcommun": 5376,
      "æŃ£ä¹ī": 5377,
      "LC": 5378,
      "verage": 5379,
      "çİ°çĬ¶": 5380,
      "Ġbeing": 5381,
      "çļĦçī¹çĤ¹": 5382,
      "Ġextrac": 5383,
      "åĮ¹": 5384,
      "Ġcontrols": 5385,
      "Ġrelationship": 5386,
      "åİŁåŃĲ": 5387,
      "çĽĳå¯Ł": 5388,
      "ä¿®å¤į": 5389,
      "Ġviv": 5390,
      "Ġstimul": 5391,
      "é«ĺçº§": 5392,
      "æģ°": 5393,
      "amp": 5394,
      "æķĪåĬĽ": 5395,
      "åı°æ¹¾": 5396,
      "ĠCI": 5397,
      "åĢ¼å¾Ĺ": 5398,
      "æĳĨ": 5399,
      "stit": 5400,
      "54": 5401,
      "ä»£çłģ": 5402,
      "åĮºåĪĨ": 5403,
      "æķħäºĭ": 5404,
      "è®©åŃ¦çĶŁ": 5405,
      "Ġnegative": 5406,
      "88": 5407,
      "Ġexample": 5408,
      "åĨįæ¬¡": 5409,
      "ables": 5410,
      "Ġantibody": 5411,
      "çļĦåºĶçĶ¨": 5412,
      "Ġver": 5413,
      "åıĳè¡Į": 5414,
      "åķĨåĬ¡": 5415,
      "æĸ°åħ´": 5416,
      "èµĦæł¼": 5417,
      "Ġproduction": 5418,
      "OR": 5419,
      "ä¸Ģè·¯": 5420,
      "æŃ£å½ĵ": 5421,
      "åĩŃ": 5422,
      "çļĦå½¢å¼ı": 5423,
      "çĸĨ": 5424,
      "ä¸Ĭå¸Ĥ": 5425,
      "eric": 5426,
      "éĩįå¤į": 5427,
      "Ġexc": 5428,
      "æ½ľåľ¨": 5429,
      "çİ°æľī": 5430,
      "èĤ¯": 5431,
      "å²Ĺä½į": 5432,
      "å¥ł": 5433,
      "ret": 5434,
      "åįļå£«": 5435,
      "ian": 5436,
      "Ġdys": 5437,
      "æĽ´å¥½åľ°": 5438,
      "èĲ¥åħ»": 5439,
      "ç»ĦæĪĲéĥ¨åĪĨ": 5440,
      "Cl": 5441,
      "Ġblock": 5442,
      "åħ¨åħļ": 5443,
      "åĬ³åĬ¨åĬĽ": 5444,
      "çļĦåİŁåĪĻ": 5445,
      "è£ħå¤ĩ": 5446,
      "Ġinsulin": 5447,
      "åıĺæĽ´": 5448,
      "çļĦæĥħåĨµ": 5449,
      "æ¶ĪéĻ¤": 5450,
      "éħĴ": 5451,
      "æİ¥è§¦": 5452,
      "æģĴ": 5453,
      "éħ¬": 5454,
      "åħ¨å±Ģ": 5455,
      "è®¤åĲĮ": 5456,
      "äººæ°ĳçļĦ": 5457,
      "æ³ķåĽ½": 5458,
      "MA": 5459,
      "éĩĬæĶ¾": 5460,
      "Ġles": 5461,
      "åľ°äº§": 5462,
      "è¾Ĳ": 5463,
      "ï¼ģ": 5464,
      "uk": 5465,
      "æ´Ľ": 5466,
      "å¿ł": 5467,
      "erative": 5468,
      "):": 5469,
      "Ġstrateg": 5470,
      "æµĻ": 5471,
      "äº«æľī": 5472,
      "æķ¢": 5473,
      "MD": 5474,
      "èĢĲ": 5475,
      "å¸ĤåľºçļĦ": 5476,
      "çĶ·": 5477,
      "åĿĩè¡¡": 5478,
      "äºĨä¸Ģä¸ª": 5479,
      "åĭĴ": 5480,
      "ä½Ĩåľ¨": 5481,
      "51": 5482,
      "Ġrecom": 5483,
      "çļĦä»·åĢ¼": 5484,
      "åħ¬åħ±æľįåĬ¡": 5485,
      "Ġdeg": 5486,
      "åħļçļĦé¢Ĩå¯¼": 5487,
      "æ¼ı": 5488,
      "å¨ģèĥģ": 5489,
      "è¿Ļå°±": 5490,
      "éĿ¢çļĦ": 5491,
      "eline": 5492,
      "æĦıå¿Ĺ": 5493,
      "pha": 5494,
      "Ġdifference": 5495,
      "Ġfour": 5496,
      "Ġcontrast": 5497,
      "åĬ¨æľº": 5498,
      "åıĳçĶŁçļĦ": 5499,
      "ĠäºĮ": 5500,
      "åĸľ": 5501,
      "åŃ¦å®¶": 5502,
      "è°ģ": 5503,
      "63": 5504,
      "è¡Ķ": 5505,
      "éĤĵ": 5506,
      "Ġlikely": 5507,
      "ish": 5508,
      "Ġassociation": 5509,
      "çļĦæĿĥåĪ©": 5510,
      "Ġbone": 5511,
      "å¤įåĲĪ": 5512,
      "æł·æľ¬": 5513,
      "earch": 5514,
      "comes": 5515,
      "Ġmetast": 5516,
      "Ġmutations": 5517,
      "Ġconsist": 5518,
      "Ġapop": 5519,
      "éŁ©": 5520,
      "å¹²é¢Ħ": 5521,
      "åĪĴåĪĨ": 5522,
      "itor": 5523,
      "Ġvivo": 5524,
      "åĲĮæŃ¥": 5525,
      "åŃ©åŃĲ": 5526,
      "ĠCT": 5527,
      "atively": 5528,
      "çļĦç§ĳåŃ¦": 5529,
      "ç«ĭåľº": 5530,
      "åĿļåĨ³": 5531,
      "äººä¸º": 5532,
      "come": 5533,
      "idence": 5534,
      "åĢ¾åĲĳ": 5535,
      "Ġassay": 5536,
      "åĩºåı°": 5537,
      "IF": 5538,
      "Ġstrong": 5539,
      "å²©": 5540,
      "pone": 5541,
      "èŀįåħ¥": 5542,
      "åı¯ä»¥åľ¨": 5543,
      "çĲĨçĶ±": 5544,
      "ä¼łéĢĴ": 5545,
      "ators": 5546,
      "åĪĻæĺ¯": 5547,
      "CG": 5548,
      "Ġtissues": 5549,
      "anding": 5550,
      "æī¹åĪ¤": 5551,
      "ored": 5552,
      "ean": 5553,
      "âĢ²": 5554,
      "03": 5555,
      "çīĽ": 5556,
      "èĻ«": 5557,
      "æī¹è¯Ħ": 5558,
      "Ġarter": 5559,
      "Ġques": 5560,
      "ule": 5561,
      "çļĦåħ·ä½ĵ": 5562,
      "par": 5563,
      "ä¾Ŀæ³ķæ²»": 5564,
      "åĢŁéī´": 5565,
      "è¯Ī": 5566,
      "æľīåºı": 5567,
      "æĻĭ": 5568,
      "åĪ¶ä½ľ": 5569,
      "Ġdiabetes": 5570,
      "åĲ¸å¼ķ": 5571,
      "åįģå¹´": 5572,
      "ogenic": 5573,
      "ä¼łç»ŁæĸĩåĮĸ": 5574,
      "epti": 5575,
      "ç¦ģæŃ¢": 5576,
      "åľ°åĮºçļĦ": 5577,
      "å¤§å°ı": 5578,
      "åħ¬æŃ£": 5579,
      "æīİ": 5580,
      "çŃīçº§": 5581,
      "æ³ķäºº": 5582,
      "è¯¦ç»Ĩ": 5583,
      "Ġpsych": 5584,
      "é©¶": 5585,
      "å¤§è§Ħæ¨¡": 5586,
      "è²": 5587,
      "åĲİæŀľ": 5588,
      "çºªå¾ĭ": 5589,
      "ulations": 5590,
      "Ġexposure": 5591,
      "çļĦçĽ®æłĩ": 5592,
      "ä¹Łä¼ļ": 5593,
      "çŁ©": 5594,
      "å±Ģéĥ¨": 5595,
      "è¾ħåĬ©": 5596,
      "éħįåĲĪ": 5597,
      "Ġmit": 5598,
      "otherap": 5599,
      "èĵĿ": 5600,
      "Ġfail": 5601,
      "ç¬¬ä¸Ģä¸ª": 5602,
      "æĦĪ": 5603,
      "drom": 5604,
      "Ġday": 5605,
      "Ġvarious": 5606,
      "å¾Ĵ": 5607,
      "ç¬¬åħŃ": 5608,
      "ç²ī": 5609,
      "éĺ²æ²»": 5610,
      "æ°¨": 5611,
      "è§Ĩè§Ĵ": 5612,
      "èĤł": 5613,
      "æ¯«": 5614,
      "æĺ¯ä¸ŃåĽ½": 5615,
      "çĶŁæ´»çļĦ": 5616,
      "åįķä¸Ģ": 5617,
      "Ġlo": 5618,
      "åħļçļĦåįģåħ«å¤§": 5619,
      "ml": 5620,
      "ä¸»å¸Ń": 5621,
      "Ġflow": 5622,
      "Ġadj": 5623,
      "çļĦåĽ½å®¶": 5624,
      "Ġtypes": 5625,
      "Ġ'": 5626,
      "eutic": 5627,
      "æĶ»åĿļ": 5628,
      "åħ¶å®ŀ": 5629,
      "con": 5630,
      "ç¬ĶèĢħ": 5631,
      "çĽ¸ä¼¼": 5632,
      "èµĭäºĪ": 5633,
      "èµģ": 5634,
      "æİĪæĿĥ": 5635,
      "æµģéĢļ": 5636,
      "ä¹łè¿ĳå¹³æĸ°æĹ¶ä»£ä¸ŃåĽ½çī¹èī²ç¤¾ä¼ļä¸»ä¹īæĢĿæĥ³": 5637,
      "è®¤è¯ģ": 5638,
      "Ġproced": 5639,
      "ters": 5640,
      "cep": 5641,
      "ç§Łèµģ": 5642,
      "çĶŁæĢģæĸĩæĺİ": 5643,
      "è¿ĺè¦ģ": 5644,
      "ç»ıåħ¸": 5645,
      "atures": 5646,
      "åĽ½å¤ĸ": 5647,
      "æĥħèĬĤ": 5648,
      "Ġanalyses": 5649,
      "Ġresistance": 5650,
      "73": 5651,
      "åıĻ": 5652,
      "ĠmiR": 5653,
      "atin": 5654,
      "å¯¹æŃ¤": 5655,
      "è¾¾æĪĲ": 5656,
      "æĺ¯ä¸į": 5657,
      "æįķ": 5658,
      "å¤§éĥ¨åĪĨ": 5659,
      "æĦıè¯Ĩå½¢æĢģ": 5660,
      "ä¸Ģæī¹": 5661,
      "åĨ³è®®": 5662,
      "62": 5663,
      "ĠCl": 5664,
      "Ġ13": 5665,
      "posed": 5666,
      "roup": 5667,
      "å¹´é¾Ħ": 5668,
      "Ġhelp": 5669,
      "æ¸ħæ¥ļ": 5670,
      "èªī": 5671,
      "ä¸ĭåĪĹ": 5672,
      "Ġpul": 5673,
      "åĵįåºĶ": 5674,
      "Ġfocus": 5675,
      "åºıåĪĹ": 5676,
      "Ġinclude": 5677,
      "ä¼ı": 5678,
      "Ġstrain": 5679,
      "èĭıèģĶ": 5680,
      "ĠEn": 5681,
      "Ġantibodies": 5682,
      "===": 5683,
      "æĥħå¢ĥ": 5684,
      "æī¶è´«": 5685,
      "å¾¡": 5686,
      "*-": 5687,
      "Ġyo": 5688,
      "æ»ŀ": 5689,
      "Ġcytok": 5690,
      "å¦»": 5691,
      "Ġexperi": 5692,
      "Ġproliferation": 5693,
      "æľĢå¤§çļĦ": 5694,
      "äº®": 5695,
      "åģ¶": 5696,
      "uration": 5697,
      "äººæ°ĳå¸ģ": 5698,
      "ople": 5699,
      "ä½¿çĶ¨çļĦ": 5700,
      "mission": 5701,
      "åĲĦèĩª": 5702,
      "ä¸Ģé¡¹": 5703,
      "åıĳå±ķåĴĮ": 5704,
      "åħ±è¯Ĩ": 5705,
      "ï¼ĮãĢĬ": 5706,
      "æĮĩæķ°": 5707,
      "bility": 5708,
      "ume": 5709,
      "Ġtrain": 5710,
      "err": 5711,
      "$$": 5712,
      "æ¦Ĥæĭ¬": 5713,
      "æĽ´å¤ļçļĦ": 5714,
      "Ġpressure": 5715,
      "ï½ŀ": 5716,
      "æĴ¤éĶĢ": 5717,
      "åĴ¨": 5718,
      "ĠII": 5719,
      "æ°ĳçĶŁ": 5720,
      "--------------------": 5721,
      "çĥ§": 5722,
      "ams": 5723,
      "è¾©è¯ģ": 5724,
      "åĢºæĿĥäºº": 5725,
      "èĦļ": 5726,
      "AB": 5727,
      "ĠPh": 5728,
      "Ġdeveloped": 5729,
      "ä¾µå®³": 5730,
      "ä¸ªæĢ§": 5731,
      "ä¹³": 5732,
      "è¸ª": 5733,
      "åīįè¿Ľ": 5734,
      "çīĻ": 5735,
      "çĵ¦": 5736,
      "ä¸įå°ĳ": 5737,
      "ç¬¬ä¸Ģæ¬¡": 5738,
      "ä¸Ģä½ĵåĮĸ": 5739,
      "Ġu": 5740,
      "Ġglucose": 5741,
      "Ġinjury": 5742,
      "Ġå¹´": 5743,
      "Ġcri": 5744,
      "åĩºçİ°äºĨ": 5745,
      "ä¿¡æģ¯çļĦ": 5746,
      "ask": 5747,
      "08": 5748,
      "ĠÃĹ": 5749,
      "Ġhypothe": 5750,
      "è¯Ŀè¯Ń": 5751,
      "tically": 5752,
      "è¿Ī": 5753,
      "ably": 5754,
      "æĪĲåĪĨ": 5755,
      "ode": 5756,
      "MO": 5757,
      "å¤©ä¸ĭ": 5758,
      "å¤Ħç½®": 5759,
      "çģµæ´»": 5760,
      "éļıæľº": 5761,
      "Ġ<": 5762,
      "åīĬ": 5763,
      "Ġcause": 5764,
      "æľīæĿĥ": 5765,
      "Ġtechni": 5766,
      "plications": 5767,
      "æĲľ": 5768,
      "2014": 5769,
      "Ġbel": 5770,
      "æįŁä¼¤": 5771,
      "èĩ³å°ĳ": 5772,
      "å§Ķä¼ļ": 5773,
      "çº¤ç»´": 5774,
      "very": 5775,
      "71": 5776,
      "åľ°åĿĢ": 5777,
      "rial": 5778,
      "æ»ĳ": 5779,
      "åıĳçĶµ": 5780,
      "Ġindicated": 5781,
      "æľªæĪĲå¹´": 5782,
      "Ġinteg": 5783,
      "Ġnetwork": 5784,
      "é¢Ĺ": 5785,
      "Ġlife": 5786,
      "ä¸ºæł¸å¿ĥçļĦ": 5787,
      "Ġproble": 5788,
      "Ġoutcomes": 5789,
      "Ġvitro": 5790,
      "Ġadminist": 5791,
      "ç§ĺå¯Ĩ": 5792,
      "å¾Ĺä»¥": 5793,
      "è¾¹çķĮ": 5794,
      "å¦ĩå¥³": 5795,
      "2000": 5796,
      "è½¬åĮĸä¸º": 5797,
      "åĲ´": 5798,
      "ĠMore": 5799,
      "å¡«": 5800,
      "å¸¦åĬ¨": 5801,
      "dependent": 5802,
      "Ĉą": 5803,
      "Ġleast": 5804,
      "çļĦæĹ¶åĢĻ": 5805,
      "æľīåĬĽ": 5806,
      "DL": 5807,
      "çļĦæķĻèĤ²": 5808,
      "æľįåĬ¡åĻ¨": 5809,
      "é²ľæĺİ": 5810,
      "Ch": 5811,
      "å¤©çĦ¶": 5812,
      "æī©å¼ł": 5813,
      "æī«": 5814,
      "zym": 5815,
      "ina": 5816,
      "owled": 5817,
      "Ġpercent": 5818,
      "çļĦä¸ŃåĽ½": 5819,
      "æ²»çĲĨä½ĵç³»": 5820,
      "Ġvia": 5821,
      "Ġequ": 5822,
      "ĠNo": 5823,
      "æĸ°ä¸ŃåĽ½": 5824,
      "ç®Ģç§°": 5825,
      "åħļåĴĮåĽ½å®¶": 5826,
      "orders": 5827,
      "é¦Ī": 5828,
      "æģĲ": 5829,
      "76": 5830,
      "å¤§å¤§": 5831,
      "çļĦç²¾ç¥ŀ": 5832,
      "çİ¯ä¿Ŀ": 5833,
      "äººçī©": 5834,
      "*~": 5835,
      "EP": 5836,
      "åĨľäº§åĵģ": 5837,
      "è®¤çľŁ": 5838,
      "Ġstate": 5839,
      "Ġstatus": 5840,
      "é¼ł": 5841,
      "å®Ļ": 5842,
      "Ġcellular": 5843,
      "å¤§å®¶": 5844,
      "è°·": 5845,
      "ĊĠĠ": 5846,
      "Ġarea": 5847,
      "åĲī": 5848,
      "åħ¶å®ĥ": 5849,
      "Ġpain": 5850,
      "ended": 5851,
      "Ġvery": 5852,
      "ä¸ĢæĹ¦": 5853,
      "è¾Ĳå°Ħ": 5854,
      "çĥŁ": 5855,
      "ç¨¿": 5856,
      "æİ¥æĶ¶": 5857,
      "Ġmembrane": 5858,
      "IC": 5859,
      "72": 5860,
      "ç»ĵæŀĦçļĦ": 5861,
      "æĪ¿åľ°äº§": 5862,
      "æ¬¢": 5863,
      "\\<": 5864,
      "çİ°ä»£åĮĸçļĦ": 5865,
      "tality": 5866,
      "ä¸¾æİª": 5867,
      "aneous": 5868,
      "åħ¬çĽĬ": 5869,
      "åĴĮå®ŀè·µ": 5870,
      "æĬķèµĦèĢħ": 5871,
      "ogene": 5872,
      "Ġformation": 5873,
      "æĦıæĢĿ": 5874,
      "roc": 5875,
      "ices": 5876,
      "ä¸Ģä»£": 5877,
      "éĺ²èĮĥ": 5878,
      "Ġinflammatory": 5879,
      "Ġestab": 5880,
      "Ġthem": 5881,
      "04": 5882,
      "éĢĤçĶ¨äºİ": 5883,
      "è°ĥè§£": 5884,
      "æ¸ħæĻ°": 5885,
      "\\[": 5886,
      "Ġrequired": 5887,
      "clusion": 5888,
      "åıĳèĤ²": 5889,
      "åĪĨå·¥": 5890,
      "ä¸Ĭä¸ĭ": 5891,
      "çī©èģĶç½ĳ": 5892,
      "Ġrange": 5893,
      "ĊĊĠ": 5894,
      "Ġratio": 5895,
      "vant": 5896,
      "æĢĿæĥ³æĶ¿æ²»": 5897,
      "å¹¶æ²¡æľī": 5898,
      "text": 5899,
      "çļĦé£İéĻ©": 5900,
      "Ġgeneral": 5901,
      "Ġorder": 5902,
      "math": 5903,
      "Ġlines": 5904,
      "ds": 5905,
      "è¯Ńæĸĩ": 5906,
      "çº¿æĢ§": 5907,
      "]--": 5908,
      "Ġpathways": 5909,
      "å»ī": 5910,
      "2022": 5911,
      "åħ±åĲĮå¯Įè£ķ": 5912,
      "æĬĹæĹ¥": 5913,
      "Ġregions": 5914,
      "Ġmuscle": 5915,
      "é±": 5916,
      "éĺĶ": 5917,
      "äººæĸĩ": 5918,
      "ä¸īç§į": 5919,
      "ä¸Ģå¸¦ä¸Ģè·¯": 5920,
      "ĠRe": 5921,
      "é«ĺçŃīæķĻèĤ²": 5922,
      "ä½İç¢³": 5923,
      "æľºéģĩ": 5924,
      "Ġplasma": 5925,
      "Ġbar": 5926,
      "ĠOn": 5927,
      "åĴ¨è¯¢": 5928,
      "åĶ¯ä¸Ģ": 5929,
      "å¯¹æ¯Ķ": 5930,
      "Ġbenef": 5931,
      "åĬĽåĴĮ": 5932,
      "Â±": 5933,
      "è£ħç½®": 5934,
      "]--[@": 5935,
      "Ġcount": 5936,
      "Ġsevere": 5937,
      "é±¼": 5938,
      "cript": 5939,
      "åĮºçļĦ": 5940,
      "é«ĺäºİ": 5941,
      "è´Ŀ": 5942,
      "Ġ25": 5943,
      "å®ĩå®Ļ": 5944,
      "è¿Ľåı£": 5945,
      "çļĦçĽ®çļĦ": 5946,
      "éĢļéģĵ": 5947,
      "like": 5948,
      "aps": 5949,
      "ä¸§": 5950,
      "å°ļæľª": 5951,
      "Ġhowever": 5952,
      "more": 5953,
      "èµ·è¯ī": 5954,
      "PCR": 5955,
      "ray": 5956,
      "unction": 5957,
      "æĭ¿": 5958,
      "IN": 5959,
      "Ġ--": 5960,
      "è¡ĮæĶ¿æľºåħ³": 5961,
      "ä¼ª": 5962,
      "æķıæĦŁ": 5963,
      "åįģä¸ĥ": 5964,
      "âĢķ": 5965,
      "åıĸå¾ĹäºĨ": 5966,
      "mic": 5967,
      "Ġpa": 5968,
      "è®²è¯Ŀ": 5969,
      "æīĢç¤º": 5970,
      "ç¹ģèį£": 5971,
      "çĸı": 5972,
      "èħĶ": 5973,
      "éĨĴ": 5974,
      "å½¼": 5975,
      "ocument": 5976,
      "åĽŀçŃĶ": 5977,
      "agement": 5978,
      "ä¸ĵé¡¹": 5979,
      "æ°ĳæ³ķåħ¸": 5980,
      "è¾Ĩ": 5981,
      "æīĢéľĢ": 5982,
      "è´¢å¯Į": 5983,
      "SS": 5984,
      "TT": 5985,
      "ĊĠĠĠĠĠĠĠĠĠĠĠĠĠĠĠ": 5986,
      "çĪ±åĽ½": 5987,
      "çļĦåŃ¦ä¹ł": 5988,
      "opath": 5989,
      "å¡Ķ": 5990,
      "Ġlink": 5991,
      "å¤§å¹ħ": 5992,
      "ä¸»ä»»": 5993,
      "Ġquality": 5994,
      "è§Ĥæµĭ": 5995,
      "éĻ¶": 5996,
      "å¤§åŀĭ": 5997,
      "èĥĮæĻ¯ä¸ĭ": 5998,
      "rogen": 5999,
      "61": 6000,
      "æ¥¼": 6001,
      "ç¤¾ä¼ļç§ĳåŃ¦": 6002,
      "ãĢĭãĢģãĢĬ": 6003,
      "ison": 6004,
      "åĩºèµĦ": 6005,
      "åĢºåĪ¸": 6006,
      "tosis": 6007,
      "å¤§éĩıçļĦ": 6008,
      "ĠCO": 6009,
      "ä¸Ńæľī": 6010,
      "æĿ¡ä»¶çļĦ": 6011,
      "ij": 6012,
      "æĶ¿åħļ": 6013,
      "åĲįç§°": 6014,
      "ognitive": 6015,
      "Ġbehavior": 6016,
      "è²Į": 6017,
      "ç¬¦åı·": 6018,
      "å¹¶ä¸įæĺ¯": 6019,
      "ä¿¡ä»°": 6020,
      "ä»£è°¢": 6021,
      "]),": 6022,
      "å®ļäºĨ": 6023,
      "çĶĺ": 6024,
      "struc": 6025,
      "è¿Ł": 6026,
      "è®°å¿Ĩ": 6027,
      "å·§": 6028,
      "åĵģè´¨": 6029,
      "Ġeven": 6030,
      "ç©ºæ°Ķ": 6031,
      "Ġol": 6032,
      "è½¬åĲĳ": 6033,
      "Ġfamily": 6034,
      "Ġbacter": 6035,
      "elet": 6036,
      "EC": 6037,
      "Ġill": 6038,
      "Ġproduc": 6039,
      "Ġdose": 6040,
      "é»ĺ": 6041,
      "æĤī": 6042,
      "ĠCom": 6043,
      "ä½İäºİ": 6044,
      "å¼ĺ": 6045,
      "æĪĲäºĨ": 6046,
      "é¢ģ": 6047,
      "æ³ķå®ĺ": 6048,
      "ĠIg": 6049,
      "ä¸įèī¯": 6050,
      "ä¸ŃéĹ´": 6051,
      "å®ŀæĹ¶": 6052,
      "å¤ĸåĽ½": 6053,
      "å¤įæĿĤçļĦ": 6054,
      "åĨįçĶŁ": 6055,
      "ä¸įåĪ°": 6056,
      "cence": 6057,
      "Ġang": 6058,
      "å¾®çĶŁçī©": 6059,
      "åĨ²åĩ»": 6060,
      "æĽ´é«ĺ": 6061,
      "ç«ĭè¶³": 6062,
      "çļĨ": 6063,
      "Ġoften": 6064,
      "å°Ŀ": 6065,
      "æ¡£æ¡Ī": 6066,
      "Ġmen": 6067,
      "æ¯ıå¹´": 6068,
      "å¤§åĽ½": 6069,
      "åľ°çļĦ": 6070,
      "Ġhealthy": 6071,
      "ç¡¬ä»¶": 6072,
      "Ġconcentr": 6073,
      "Ġsurface": 6074,
      "èĩ£": 6075,
      "éĺĲè¿°": 6076,
      "æĦŁçŁ¥": 6077,
      "äº¤åıī": 6078,
      "fn": 6079,
      "ĠAc": 6080,
      "èľ": 6081,
      "åľ°æĸ¹æĶ¿åºľ": 6082,
      "ĠThus": 6083,
      "åĲĪå¹¶": 6084,
      "çķ´": 6085,
      "å¹¸ç¦ı": 6086,
      "An": 6087,
      "ä»¥åīį": 6088,
      "åıĳæĺİ": 6089,
      "Ġprogression": 6090,
      "èĢģå¸Ī": 6091,
      "ä¸ģ": 6092,
      "åįłæľī": 6093,
      "åĳ¼åĲ¸": 6094,
      "æ»¤": 6095,
      "å¯Ĩåº¦": 6096,
      "æİ¥åı£": 6097,
      "Ġconcentration": 6098,
      "å¼ºå¤§": 6099,
      "Ġmortality": 6100,
      "åĬŀåħ¬": 6101,
      "2013": 6102,
      "è½½ä½ĵ": 6103,
      "èĢĮåľ¨": 6104,
      "plant": 6105,
      "Ġprior": 6106,
      "Ġacute": 6107,
      "èº«ä½ĵ": 6108,
      "æĮĩæĮ¥": 6109,
      "åĵģçīĮ": 6110,
      "é«ĺéĢŁ": 6111,
      "åĪ¶çļĦ": 6112,
      "çĽĳæİ§": 6113,
      "äº§çĶŁäºĨ": 6114,
      "ances": 6115,
      "èĥĨ": 6116,
      "Ġsyndrom": 6117,
      "Ġrandom": 6118,
      "ĠBi": 6119,
      "normal": 6120,
      "åıł": 6121,
      "æĪĲæķĪ": 6122,
      "æĲŀ": 6123,
      "Ġaim": 6124,
      "Ġ95": 6125,
      "è¾Ł": 6126,
      "âĳ¢": 6127,
      "æµĵåº¦": 6128,
      "ä¼Ĳ": 6129,
      "åĶ¯çī©": 6130,
      "tice": 6131,
      "çļĦæĸĩåĮĸ": 6132,
      "put": 6133,
      "èĬ¯": 6134,
      "Ġdam": 6135,
      "ography": 6136,
      "Ġacross": 6137,
      "2012": 6138,
      "ours": 6139,
      "æĶ¾åľ¨": 6140,
      "enter": 6141,
      "Ġpublic": 6142,
      "Ġder": 6143,
      "éĤ»": 6144,
      "æ´ª": 6145,
      "inant": 6146,
      "ç®¡è¾ĸ": 6147,
      "çİ°åľº": 6148,
      "oy": 6149,
      "è¶ħè¶Ĭ": 6150,
      "æ³ķåŃ¦": 6151,
      "æıĲèµ·": 6152,
      "Ġenc": 6153,
      "Ġeffective": 6154,
      "å¼ıçļĦ": 6155,
      "äººæł¼": 6156,
      "éĩĩéĽĨ": 6157,
      "trans": 6158,
      "æĭį": 6159,
      "çłĶç©¶æīĢ": 6160,
      "åĨ°": 6161,
      "èģĶåĲĪåĽ½": 6162,
      "å¼ºçĥĪ": 6163,
      "Ġinflammation": 6164,
      "è£ģåĪ¤": 6165,
      "å¹²æī°": 6166,
      "åĲ«ä¹ī": 6167,
      "å¾ĭå¸Ī": 6168,
      "æ·»": 6169,
      "ç½ĳç»ľå®īåħ¨": 6170,
      "Ġprovided": 6171,
      "ä¸ªæľĪ": 6172,
      "çĶ¨æĿ¥": 6173,
      "74": 6174,
      "AA": 6175,
      "Ġinhibition": 6176,
      "åĽ¾ä¹¦": 6177,
      "MT": 6178,
      "owledge": 6179,
      "æĸ°æĬĢæľ¯": 6180,
      "çļĦéĩįå¤§": 6181,
      ")**": 6182,
      "èĥİ": 6183,
      "Ġadditional": 6184,
      "ĈĆ": 6185,
      "æīĢæľīæĿĥ": 6186,
      "Ġvalid": 6187,
      "åĩĿèģļ": 6188,
      "æİ¥è¿ĳ": 6189,
      "__": 6190,
      "Ġrevealed": 6191,
      "ĠThere": 6192,
      "åħĪåĲİ": 6193,
      "Ġ&": 6194,
      "ength": 6195,
      "utes": 6196,
      "æī¾åĪ°": 6197,
      "Ġscore": 6198,
      "Ġepithe": 6199,
      "itation": 6200,
      "èĢ³": 6201,
      "ring": 6202,
      "æ¯Ķéĩį": 6203,
      "å¥ı": 6204,
      "çļĦè®¤è¯Ĩ": 6205,
      "85": 6206,
      "æµ®": 6207,
      "å®ĥæĺ¯": 6208,
      ".](": 6209,
      "åµ": 6210,
      "æĮĸæİĺ": 6211,
      "Ġreport": 6212,
      "ç¼ĸè¾ĳ": 6213,
      "èģĮåĬ¡": 6214,
      "åĨħåŃĺ": 6215,
      "Ġcarcin": 6216,
      "éĢļè¿ĩå¯¹": 6217,
      "Ġtherapeutic": 6218,
      "å¤ĸçļĦ": 6219,
      "åĽ½éĺ²": 6220,
      "çº³ç¨İ": 6221,
      "Ġfrequency": 6222,
      "Ġ|": 6223,
      "äº§çī©": 6224,
      "Ġability": 6225,
      "Ġç¬¬äºĮ": 6226,
      "Ġincub": 6227,
      "æľįåĬ¡ä¸ļ": 6228,
      "èįĲ": 6229,
      "Ġpeople": 6230,
      "æľĢé«ĺäººæ°ĳæ³ķéĻ¢": 6231,
      "èĮĥçķ´": 6232,
      "09": 6233,
      "]ãĢĤ": 6234,
      "ĠResearch": 6235,
      "æľ¬ä¹¦": 6236,
      "æĶ¿çŃĸçļĦ": 6237,
      "Ġphase": 6238,
      "actions": 6239,
      "æĺ¯ä»Ģä¹Ī": 6240,
      "ç¾İå¥½": 6241,
      "å±ĢéĻĲ": 6242,
      "éĢĥ": 6243,
      "SCs": 6244,
      "çłĶç©¶äººåĳĺ": 6245,
      "å¸ĿåĽ½": 6246,
      "åĲĪçĲĨçļĦ": 6247,
      "çł´äº§": 6248,
      "å¿ħè¦ģçļĦ": 6249,
      "Ġweight": 6250,
      "HC": 6251,
      "èĥ½åĬĽåĴĮ": 6252,
      "åħ¨è¿ĩç¨ĭ": 6253,
      "Ġcharacteristics": 6254,
      "ĠSci": 6255,
      "ç¿»è¯ĳ": 6256,
      "æĢĿæĶ¿": 6257,
      "èĥ¸": 6258,
      "ç§įç±»": 6259,
      "Ġcorrelation": 6260,
      "è¾ĥä½İ": 6261,
      "å±ĢéĿ¢": 6262,
      "otherapy": 6263,
      "èĽĭçĻ½è´¨": 6264,
      "Ġassessed": 6265,
      "æ¶¨": 6266,
      "æĸ¹ä½į": 6267,
      "ç»Łä¸ĢçļĦ": 6268,
      "æ£®æŀĹ": 6269,
      "Ġleft": 6270,
      "ä¸ŃåĽ½å®¶": 6271,
      "Ġimages": 6272,
      "ä¿®è®¢": 6273,
      "ochem": 6274,
      "èĬĤèĥ½": 6275,
      "åĿ¦": 6276,
      "Ġdefined": 6277,
      "Ġcriter": 6278,
      "èħĲè´¥": 6279,
      "å¤§åŃ¦çĶŁ": 6280,
      "Ġdat": 6281,
      "è¡Ķæİ¥": 6282,
      "ĠAlthough": 6283,
      "çº³ç±³": 6284,
      "ta": 6285,
      "Ġdifferentiation": 6286,
      "å¾Īéļ¾": 6287,
      "Ġpresented": 6288,
      "é«ĵ": 6289,
      "Ġrelative": 6290,
      "Ġimpact": 6291,
      "èķ´": 6292,
      "åłĨ": 6293,
      "åĲ¨": 6294,
      "æıĲäº¤": 6295,
      "Ġweeks": 6296,
      "ä¿¡å¿µ": 6297,
      "Ġdetect": 6298,
      "plied": 6299,
      "æĺ¾çĦ¶": 6300,
      "æłĩåĩĨåĮĸ": 6301,
      "çļĦåİŁåĽł": 6302,
      "çļĦåĬŁèĥ½": 6303,
      "ä½¿åħ¶": 6304,
      "Ġwhereas": 6305,
      "æīĭæľ¯": 6306,
      "éº¦": 6307,
      "è¾ŀ": 6308,
      "å¤ļæ¬¡": 6309,
      "è´Łæĭħ": 6310,
      "èµŀ": 6311,
      "èĪªå¤©": 6312,
      "æī¿è®¤": 6313,
      "èĢģå¹´": 6314,
      "mm": 6315,
      "ĠCon": 6316,
      "des": 6317,
      "åŃ¦ä¼ļ": 6318,
      "Ġrates": 6319,
      "press": 6320,
      "æ³¥": 6321,
      "ç§ĳåŃ¦å®¶": 6322,
      "æ±ĩçİĩ": 6323,
      "è½¨éģĵ": 6324,
      "ä¾µçĬ¯": 6325,
      "ä¿ĿçķĻ": 6326,
      "Ġstage": 6327,
      "Ġfem": 6328,
      "åģļæ³ķ": 6329,
      "Ġdisorders": 6330,
      "çŃīéĹ®é¢ĺ": 6331,
      "æĢ§ä¸İ": 6332,
      "åı¯æĮģç»Ńåıĳå±ķ": 6333,
      "ĠST": 6334,
      "æ¸¸æĪı": 6335,
      "åİĨåı²ä¸Ĭ": 6336,
      "cher": 6337,
      "å¤ļå¹´": 6338,
      "é¹": 6339,
      "Ġlarg": 6340,
      "æĮĩåįĹ": 6341,
      "ä¸Ģå¹´": 6342,
      "æ¸ĹéĢı": 6343,
      "iat": 6344,
      "éĵģè·¯": 6345,
      "######": 6346,
      "ocol": 6347,
      "aking": 6348,
      "As": 6349,
      "ç¨³å®ļçļĦ": 6350,
      "æ¯ıä¸Ģä¸ª": 6351,
      "ä¸įåı¯èĥ½": 6352,
      "åĲİæĿ¥": 6353,
      "åıįé¦Ī": 6354,
      "ä¾Ŀæīĺ": 6355,
      "çļĦè¿ĩç¨ĭä¸Ń": 6356,
      "æĳĺ": 6357,
      "ç«ŀäºīåĬĽ": 6358,
      "NO": 6359,
      "ession": 6360,
      "ool": 6361,
      "GDP": 6362,
      "æīĢæľīçļĦ": 6363,
      "æİĴéĻ¤": 6364,
      "roscop": 6365,
      "ä¸ľåĮĹ": 6366,
      "âĢ¢": 6367,
      "è¯¸å¤ļ": 6368,
      "èµµ": 6369,
      "çĶµåİĭ": 6370,
      "æĹ¥èµ·": 6371,
      "Ġx": 6372,
      "å°±åı¯ä»¥": 6373,
      "ä¸īå¤§": 6374,
      "è§Ĩè§ī": 6375,
      "ĠTherefore": 6376,
      "ateral": 6377,
      "çļĦä¸įåĲĮ": 6378,
      "å·¨å¤§çļĦ": 6379,
      "æĢ»éĩı": 6380,
      "gl": 6381,
      "ćą": 6382,
      "æĸĩèīº": 6383,
      "æŁĲä¸Ģ": 6384,
      "æĬ¥éģĵ": 6385,
      "Ġgiven": 6386,
      "PC": 6387,
      "æĽ²çº¿": 6388,
      "æŀģå¤§": 6389,
      "åįıä½ľ": 6390,
      "èĳ£äºĭ": 6391,
      "æĤ¨": 6392,
      "Ġapoptosis": 6393,
      "çļĦæł¹æľ¬": 6394,
      "èĮ¶": 6395,
      "å¤±è´¥": 6396,
      "åĮ¹éħį": 6397,
      "å®¡ç¾İ": 6398,
      "æĶ¿æĿĥ": 6399,
      "Ġrecent": 6400,
      "æ¦Ĥè¿°": 6401,
      ".(": 6402,
      "Ġscreen": 6403,
      "çĶµæµģ": 6404,
      "Ġgreater": 6405,
      "é«ĺä¸Ń": 6406,
      "ether": 6407,
      "PA": 6408,
      "åħ¨çĲĥåĮĸ": 6409,
      "Ġz": 6410,
      "Ġexamined": 6411,
      "çļĦç®¡çĲĨ": 6412,
      "Ġenvironment": 6413,
      "ä¹łè¿ĳå¹³åĲĮå¿Ĺ": 6414,
      "Ġfollowed": 6415,
      "89": 6416,
      "æĭĶ": 6417,
      "Ġâī": 6418,
      "ä¸ºæŃ¤": 6419,
      "æĳ©": 6420,
      "ä»·åĢ¼çļĦ": 6421,
      "To": 6422,
      "Ġparameters": 6423,
      "ĠUSA": 6424,
      "Ġbetter": 6425,
      "çªģåıĺ": 6426,
      "æ°Ķä½ĵ": 6427,
      "ç©·": 6428,
      "Ġsuc": 6429,
      "åĢºåĬ¡äºº": 6430,
      "éģµå®Ī": 6431,
      "èį¯åĵģ": 6432,
      "åħļçļĦåįģåħ«å¤§ä»¥æĿ¥": 6433,
      "æµĻæ±Ł": 6434,
      "Î³": 6435,
      "ML": 6436,
      "äºĨä¸ŃåĽ½": 6437,
      "æıĴ": 6438,
      "ocyte": 6439,
      "supplementary": 6440,
      "æĲŃ": 6441,
      "æķ°é¢Ŀ": 6442,
      "idem": 6443,
      "åľºæīĢ": 6444,
      "é¡ºåºı": 6445,
      "éļĨ": 6446,
      "è§Ĩé¢ĳ": 6447,
      "ç¬¬ä¸ĢèĬĤ": 6448,
      "æľīäºº": 6449,
      "å½°": 6450,
      "å¤§æ°Ķ": 6451,
      "æķħéļľ": 6452,
      "DS": 6453,
      "æ¯ģ": 6454,
      "å§»": 6455,
      "å®ħ": 6456,
      "åİĨç¨ĭ": 6457,
      "pri": 6458,
      "ler": 6459,
      "ĠCA": 6460,
      "éĽħ": 6461,
      "åıĺåĬ¨": 6462,
      "é£İæł¼": 6463,
      "èģļçĦ¦": 6464,
      "Ġä¸ī": 6465,
      "åĽŀå½Ĵ": 6466,
      "çķħ": 6467,
      "ĠOur": 6468,
      "material": 6469,
      "Ġindicate": 6470,
      "å¥ī": 6471,
      "Ġhospital": 6472,
      "çĤ¹çļĦ": 6473,
      "èµı": 6474,
      "åĿ¡": 6475,
      "çļĦåĪ¶åº¦": 6476,
      "æ°ĳä¼Ĺ": 6477,
      "ä¾ĿçĦ¶": 6478,
      "æļĹ": 6479,
      "Ġanimals": 6480,
      "çľŁçĲĨ": 6481,
      "Ġaffect": 6482,
      "2010": 6483,
      "çº¢èī²": 6484,
      "Ġmig": 6485,
      "æĪĲç»©": 6486,
      "æŃ£ç¡®çļĦ": 6487,
      "åĴĮå®ĮåĸĦ": 6488,
      "Ġreceptors": 6489,
      "ĠCa": 6490,
      "æ¿Ģæ´»": 6491,
      "æ¬§çĽŁ": 6492,
      "çŁŃæľŁ": 6493,
      "å¥¹": 6494,
      "ĠAt": 6495,
      "Ġviral": 6496,
      "ä½įäºİ": 6497,
      "æİ¢æµĭ": 6498,
      "èħ¹": 6499,
      "ĠInstit": 6500,
      "Ġconducted": 6501,
      "inase": 6502,
      "ä¸ºä¾ĭ": 6503,
      "Ġprogram": 6504,
      "çĻ¾åĪĨ": 6505,
      "Ġrats": 6506,
      "è®°è½½": 6507,
      "æħİ": 6508,
      "çĽ¸åıį": 6509,
      "Ġincreasing": 6510,
      "order": 6511,
      "Ġstimulation": 6512,
      "arc": 6513,
      "æ´Ĺ": 6514,
      "åĽ¢ä½ĵ": 6515,
      "Ġsensitivity": 6516,
      "ä»Ĭå¹´": 6517,
      "ç¨³å®ļæĢ§": 6518,
      "urn": 6519,
      "äº¤äºĴ": 6520,
      "æľīåı¯èĥ½": 6521,
      "ĠCell": 6522,
      "ereb": 6523,
      "è¿Ĳä½ľ": 6524,
      "Ġax": 6525,
      "Ġlack": 6526,
      "Ġaccur": 6527,
      "ĠInt": 6528,
      "go": 6529,
      "Ġprevent": 6530,
      "æĪĳä»¬è¦ģ": 6531,
      "åħ¬å¸ĥ": 6532,
      "Ġkey": 6533,
      "ressive": 6534,
      "çĶ¨åľ°": 6535,
      "ling": 6536,
      "å¾ĹåĪ°äºĨ": 6537,
      "ä»ĵ": 6538,
      "éĹ´æİ¥": 6539,
      "åĦĴå®¶": 6540,
      "åĽ½æĥħ": 6541,
      "éħįå¥Ĺ": 6542,
      "çīµ": 6543,
      "way": 6544,
      "ä¼°è®¡": 6545,
      "utions": 6546,
      "Ġproper": 6547,
      "çº¹": 6548,
      "osom": 6549,
      "ĠFurthermore": 6550,
      "Ġcoh": 6551,
      "æľīæķĪåľ°": 6552,
      "è´§çī©": 6553,
      "ially": 6554,
      "GG": 6555,
      "eta": 6556,
      "èĤ¡ä»½": 6557,
      "äººç¾¤": 6558,
      "FN": 6559,
      "åŃĺåľ¨çĿĢ": 6560,
      "ç»´åº¦": 6561,
      "Ġact": 6562,
      "è¾ĥé«ĺ": 6563,
      "Ġreduction": 6564,
      "æĮĤ": 6565,
      "æŃ¤æĹ¶": 6566,
      "ä¸įåĬ¨": 6567,
      "ä¸įåıĺ": 6568,
      "è¾ī": 6569,
      "EGF": 6570,
      "äººæ°ĳä»£è¡¨å¤§ä¼ļ": 6571,
      "][@": 6572,
      "ologic": 6573,
      "Ġunc": 6574,
      "å·¥ä¸ļåĮĸ": 6575,
      "éĺ²æİ§": 6576,
      "Ġfeatures": 6577,
      "æĮĩä»¤": 6578,
      "ĠAfter": 6579,
      "å±ħä½ı": 6580,
      "æĭĴç»Ŀ": 6581,
      "èĤ¡ç¥¨": 6582,
      "åľ¨ä¸Ģèµ·": 6583,
      "å»ºç«ĭäºĨ": 6584,
      "Ġcardiac": 6585,
      "çī§": 6586,
      "Ġabove": 6587,
      "åĲĥ": 6588,
      "ä»ħä»ħ": 6589,
      "å°ıå¹³": 6590,
      "åĪĨè§£": 6591,
      "å¯¿": 6592,
      "Ġgo": 6593,
      "Ġdistribution": 6594,
      "Ġte": 6595,
      "è¿Ľè¡ĮçļĦ": 6596,
      "Ġvacc": 6597,
      "æĽ¼": 6598,
      "ancy": 6599,
      "Ġstructure": 6600,
      "Ġcondition": 6601,
      "ĠWh": 6602,
      "ä¹Łè¦ģ": 6603,
      "åĪĽéĢłæĢ§": 6604,
      "æ°´å¹³çļĦ": 6605,
      "Ġhighly": 6606,
      "èĥ½åĲ¦": 6607,
      "ED": 6608,
      "RF": 6609,
      "å¼¥": 6610,
      "åĮ»èį¯": 6611,
      "éŃı": 6612,
      "oplas": 6613,
      "éĵľ": 6614,
      "eff": 6615,
      "Ġir": 6616,
      "itis": 6617,
      "ä½ıæĪ¿": 6618,
      "ï¼Ľï¼Ī": 6619,
      "åĪĨåī²": 6620,
      "ixed": 6621,
      "ä¸įåĪ©": 6622,
      "Ġpap": 6623,
      "kn": 6624,
      "çŁ¥è¯ĨçļĦ": 6625,
      "åĳ½ä»¤": 6626,
      "çļĦå®īåħ¨": 6627,
      "Ġpreval": 6628,
      "ä»¥ä¸ĬçļĦ": 6629,
      "Ġinteraction": 6630,
      "*^": 6631,
      "å¹ķ": 6632,
      "æ¦Ĥçİĩ": 6633,
      "è´ŁåĢº": 6634,
      "Ġcoun": 6635,
      "å®ŀçİ°ä¸Ńåįİæ°ĳæĹıä¼Łå¤§å¤įåħ´": 6636,
      "Ġconcentrations": 6637,
      "ension": 6638,
      "Ġplay": 6639,
      "æ¼Ķåıĺ": 6640,
      "bi": 6641,
      "å½»åºķ": 6642,
      "çĴ": 6643,
      "Ġtub": 6644,
      "æ³¡": 6645,
      "ä¸ĸçķĮçļĦ": 6646,
      "lying": 6647,
      "man": 6648,
      "sp": 6649,
      "èĲ¥éĶĢ": 6650,
      "åĴĮç®¡çĲĨ": 6651,
      "Ġdetection": 6652,
      "ä¹Į": 6653,
      "äºĶå¹´": 6654,
      "è¡į": 6655,
      "æľ¬ç§ĳ": 6656,
      "åı¦ä¸Ģä¸ª": 6657,
      "uture": 6658,
      "æĪĳåĽ½çļĦ": 6659,
      "iciency": 6660,
      "èİ«": 6661,
      "ancer": 6662,
      "ä¸²": 6663,
      "93": 6664,
      "Ġsystems": 6665,
      "Ġthus": 6666,
      "Ġself": 6667,
      "çĽ¸äºĴä½ľçĶ¨": 6668,
      "åıĳè¾¾åĽ½å®¶": 6669,
      "Ġ\\>": 6670,
      "itud": 6671,
      "ower": 6672,
      "antit": 6673,
      "Ġcorrespon": 6674,
      "å¯Ħ": 6675,
      "åŃ¦ä¹łçļĦ": 6676,
      "æĤŁ": 6677,
      "è¥¿éĥ¨": 6678,
      "çĳŀ": 6679,
      "96": 6680,
      "*.": 6681,
      "rence": 6682,
      "åĲ«éĩı": 6683,
      "ible": 6684,
      "Ġassessment": 6685,
      "BM": 6686,
      "isc": 6687,
      "ture": 6688,
      "æĸ¹ç¨ĭ": 6689,
      "éĢłæĪĲçļĦ": 6690,
      "åıįæĢĿ": 6691,
      "Ġread": 6692,
      "åĲĪçī©": 6693,
      "è§£åĨ³æĸ¹æ¡Ī": 6694,
      "åħļçļĦåįģä¹Ŀ": 6695,
      "06": 6696,
      "çĽ®çļĦæĺ¯": 6697,
      "åħ¨éĿ¢å»ºæĪĲ": 6698,
      "çĲĨè®ºçļĦ": 6699,
      "Ġsocial": 6700,
      "å°ĸ": 6701,
      "èĪĨ": 6702,
      "æĻ®åıĬ": 6703,
      "ç½ĳç«Ļ": 6704,
      "å©ļå§»": 6705,
      "æŃ¦è£ħ": 6706,
      "Ġdoes": 6707,
      "rid": 6708,
      "åıĸåĨ³": 6709,
      "Ġfield": 6710,
      "æķ°åŃĹç»ıæµİ": 6711,
      "DM": 6712,
      "ä¹¦éĿ¢": 6713,
      "æį·": 6714,
      "Ġcoll": 6715,
      "Ġdiet": 6716,
      "åŁĥ": 6717,
      "Ġevaluated": 6718,
      "åıĺå¾Ĺ": 6719,
      "å¢ŀåĢ¼": 6720,
      "é©¾é©¶": 6721,
      "è¾¹ç¼ĺ": 6722,
      "èĲ¨": 6723,
      "åĪĨæķ£": 6724,
      "active": 6725,
      "åĢŁæ¬¾": 6726,
      "Ġoutcome": 6727,
      "icine": 6728,
      "ĠÎ²": 6729,
      "right": 6730,
      "éļ¾é¢ĺ": 6731,
      "ä¸īè§Ĵ": 6732,
      "Ġsyndrome": 6733,
      "EN": 6734,
      "86": 6735,
      "olution": 6736,
      "æī¿è¯º": 6737,
      "ising": 6738,
      "ä¸¤èĢħ": 6739,
      "å¸ĤåľºåĮĸ": 6740,
      "çļĦæľīæķĪ": 6741,
      "ontrol": 6742,
      "å¤ļæł·æĢ§": 6743,
      "ands": 6744,
      "æİ¨èįĲ": 6745,
      "éĿ¶": 6746,
      "oints": 6747,
      "æīĢè¿°": 6748,
      "Ġ17": 6749,
      ")-": 6750,
      "Ġareas": 6751,
      "ä¿®æŃ£": 6752,
      "encing": 6753,
      "ä¸ĩäºº": 6754,
      "Ġregulation": 6755,
      "ç¦ıåĪ©": 6756,
      "å®ļæľŁ": 6757,
      "é©»": 6758,
      "åıĸåĨ³äºİ": 6759,
      "æ¼«": 6760,
      "åħ¬å®ī": 6761,
      "åĽ½åĨħå¤ĸ": 6762,
      "ç£·": 6763,
      "æķ´çĲĨ": 6764,
      "çĶŁçĲĨ": 6765,
      "é¢Ī": 6766,
      "Ġcognitive": 6767,
      "æ³¢åĬ¨": 6768,
      "ä¸ĸçķĮä¸Ĭ": 6769,
      "ä¸¥éĩįçļĦ": 6770,
      "Ġsite": 6771,
      "è®°èĢħ": 6772,
      "Ġendothe": 6773,
      "Ġnovel": 6774,
      "åı¯èĥ½æĢ§": 6775,
      "ochond": 6776,
      "æıĲåıĸ": 6777,
      "åī¥": 6778,
      "éº»": 6779,
      "Ġvolume": 6780,
      "vement": 6781,
      "æĢİä¹Ī": 6782,
      "å¯¹æĸ¹": 6783,
      "åľ¨è¿Ļ": 6784,
      "Ġsynthe": 6785,
      "ä¸İæŃ¤": 6786,
      "Ġtrials": 6787,
      "ä¼ĺè´¨": 6788,
      "Ġenzym": 6789,
      "æŃ§": 6790,
      "çī¹å®ļçļĦ": 6791,
      "...": 6792,
      "Ġinvas": 6793,
      "\"},": 6794,
      "åĲĪæ³ķæĿĥçĽĬ": 6795,
      "Ġpepti": 6796,
      "æĻºèĥ½åĮĸ": 6797,
      "åıĳå°Ħ": 6798,
      "çģĮ": 6799,
      "æľ¬æ³ķ": 6800,
      "æľĢä¸º": 6801,
      "åıĳçĶŁäºĨ": 6802,
      "éĽĩ": 6803,
      "Ġ40": 6804,
      "åºĶçĶ¨äºİ": 6805,
      "åľ¨çº¿": 6806,
      "äºĭæĥħ": 6807,
      "hold": 6808,
      "Ġatten": 6809,
      "æŀĦéĢł": 6810,
      "ä½ĵçİ°åľ¨": 6811,
      "å¸¦é¢Ĩ": 6812,
      "åĴĮæĸ¹æ³ķ": 6813,
      "å°ıæĹ¶": 6814,
      "Ġneut": 6815,
      "rosis": 6816,
      "åĤ¬åĮĸ": 6817,
      "]^.": 6818,
      "ä¸İåħ¶ä»ĸ": 6819,
      "ç¬¬ä¸ĥ": 6820,
      "éĥ½ä¼ļ": 6821,
      "Ġemb": 6822,
      "ç¼ĸçłģ": 6823,
      "åĬłå¼ºå¯¹": 6824,
      "å¿ĺ": 6825,
      "Ġcritical": 6826,
      "olar": 6827,
      "éĤĵå°ıå¹³": 6828,
      "å°ıåŃ¦": 6829,
      "æ¸ħæ´ģ": 6830,
      "ç»ĵæŀĦæĢ§": 6831,
      "Ġtransf": 6832,
      "çĽ®æłĩçļĦ": 6833,
      "ĠStud": 6834,
      "æĥħç»ª": 6835,
      "Ġvisual": 6836,
      "è¡Ĺ": 6837,
      "è§Ī": 6838,
      "æłĩçļĦ": 6839,
      "å°ĳå¹´": 6840,
      "ç½Ĺæĸ¯": 6841,
      "æµģåŁŁ": 6842,
      "çģ¾å®³": 6843,
      "çļĦçĶŁäº§": 6844,
      "ç«Ł": 6845,
      "èĳĹåĲį": 6846,
      "å¤§ä¼Ĺ": 6847,
      "Ġintervention": 6848,
      "åĢŁåĬ©": 6849,
      "çĤŃ": 6850,
      "pose": 6851,
      "Ġur": 6852,
      "ä¹Łåı¯": 6853,
      "äºĭå®ŀä¸Ĭ": 6854,
      "è¯´çļĦ": 6855,
      "å¾Ĳ": 6856,
      "Ġright": 6857,
      "till": 6858,
      "æ°®": 6859,
      "ç»ıè´¹": 6860,
      "Ġprec": 6861,
      "oxic": 6862,
      "èģĶçĽŁ": 6863,
      "500": 6864,
      "RC": 6865,
      "Ġmacroph": 6866,
      "åİŁåĳĬ": 6867,
      "å°Ŀè¯ķ": 6868,
      "èģĺ": 6869,
      "Ġresid": 6870,
      "åĪ©çĽĬçļĦ": 6871,
      "fact": 6872,
      "ĠTable": 6873,
      "97": 6874,
      "Ġcriteria": 6875,
      "äºķ": 6876,
      "ä¾Ŀæ³ķæ²»åĽ½": 6877,
      "Ġtraining": 6878,
      "Ġobserv": 6879,
      "å®¡æī¹": 6880,
      "å¾ģç¨ĭ": 6881,
      "treated": 6882,
      "Ġ^": 6883,
      "Ġsubst": 6884,
      "Ġguid": 6885,
      "åĬŀåŃ¦": 6886,
      "è®¤åı¯": 6887,
      "å·¥åİĤ": 6888,
      "èĲ¥éĢł": 6889,
      "Ġalter": 6890,
      ".[": 6891,
      "Ġevents": 6892,
      "Ġvascular": 6893,
      "å®ŀä¾ĭ": 6894,
      "Ġartic": 6895,
      "åįģä¸Ģ": 6896,
      "ract": 6897,
      "åħļå§Ķ": 6898,
      "çĸ«èĭĹ": 6899,
      "regulated": 6900,
      "Supplementary": 6901,
      "èĩªèº«çļĦ": 6902,
      "åİħ": 6903,
      "Ġfat": 6904,
      "Ġorig": 6905,
      "Ġprogn": 6906,
      "å¥´": 6907,
      "Ġdiffic": 6908,
      "Ġgly": 6909,
      "Ġdecrease": 6910,
      "åħ·ä½ĵçļĦ": 6911,
      "æ¦": 6912,
      "å±ķçİ°": 6913,
      "Ġconn": 6914,
      "Ġoverall": 6915,
      "Ġstaining": 6916,
      "å¼ĺæī¬": 6917,
      "Ġsepar": 6918,
      "åŃ¤": 6919,
      "æľĹ": 6920,
      "åĭ¤": 6921,
      "ense": 6922,
      "å¯»æī¾": 6923,
      "å®īè£ħ": 6924,
      "äºİæĺ¯": 6925,
      "izing": 6926,
      "ä¸»ä½ĵçļĦ": 6927,
      "ç»ıæµİç¤¾ä¼ļåıĳå±ķ": 6928,
      "æķ¬": 6929,
      "è¶³å¤Ł": 6930,
      "ware": 6931,
      "åĬ¨èĦī": 6932,
      "Ġheter": 6933,
      "äººä½ĵ": 6934,
      "ĠSc": 6935,
      "æĬ«": 6936,
      "mediated": 6937,
      "å¯¹ç§°": 6938,
      "ney": 6939,
      "Ġrecord": 6940,
      "çº½": 6941,
      "çļĦçĽ¸åħ³": 6942,
      "Ġpoint": 6943,
      "ä½ĵåĪ¶æĶ¹éĿ©": 6944,
      "è§Ĩéĩİ": 6945,
      "ä¹Łå°±": 6946,
      "ãĢĤ(": 6947,
      "Ġtranscription": 6948,
      "è¿Ļå°±æĺ¯": 6949,
      "Ġsuper": 6950,
      "åıĳéĢģ": 6951,
      "åĻª": 6952,
      "Ġunderstanding": 6953,
      "æľºåĻ¨äºº": 6954,
      "iting": 6955,
      "ylation": 6956,
      "Ġtherefore": 6957,
      "æĹłè®ºæĺ¯": 6958,
      "activ": 6959,
      "aff": 6960,
      "è®ºè¯ģ": 6961,
      "èĢĥåı¤": 6962,
      "æĶ¿åºľçļĦ": 6963,
      "å®¡æł¸": 6964,
      "Ġdev": 6965,
      "Ġclus": 6966,
      "Ġhom": 6967,
      "Ġimage": 6968,
      "å»·": 6969,
      "Ġcalculated": 6970,
      "çŃĽ": 6971,
      "å®ŀçĶ¨": 6972,
      "æĦŁè§ī": 6973,
      "umm": 6974,
      "è¾Ľ": 6975,
      "çī©æĿĥ": 6976,
      "åĳ¨åĽ´": 6977,
      "æ¬º": 6978,
      "æĬ¢": 6979,
      "åĽ½æ°ĳåħļ": 6980,
      "ç¡®å®ļçļĦ": 6981,
      "åıĳçĹħ": 6982,
      "å¦¥": 6983,
      "çķĮå®ļ": 6984,
      "ç¬¬ä¸ĢçĻ¾": 6985,
      "Ġlimited": 6986,
      "2008": 6987,
      "ä¸»æµģ": 6988,
      "æľīä¸Ģä¸ª": 6989,
      "å¢ŀåĬłäºĨ": 6990,
      "æł·çļĦ": 6991,
      "ç²Ĺ": 6992,
      "åħļç»Ħç»ĩ": 6993,
      "æıĲä¾ĽçļĦ": 6994,
      "This": 6995,
      "AI": 6996,
      "æ¶ĪèĢĹ": 6997,
      "Ġfil": 6998,
      "lex": 6999,
      "è¡£": 7000,
      "æĽ´æĺ¯": 7001,
      "èĵĦ": 7002,
      "èĩªåĬ¨åĮĸ": 7003,
      "Ġchrom": 7004,
      "ä»¥æŃ¤": 7005,
      "åĪĨäº«": 7006,
      "Ġactive": 7007,
      "ä¸įå¤Ł": 7008,
      "åįıä¼ļ": 7009,
      "ä¸İç¤¾ä¼ļ": 7010,
      "ä¸Ģéĥ¨åĪĨ": 7011,
      "åĲ¦åĪĻ": 7012,
      "Ġtested": 7013,
      "æĿľ": 7014,
      "åĩºæĿ¥çļĦ": 7015,
      "åīįæ²¿": 7016,
      "çļĦè§Ĵåº¦": 7017,
      "aken": 7018,
      "Ġsites": 7019,
      "åĵģç§į": 7020,
      "æº¯": 7021,
      "éķ¿æ±Ł": 7022,
      "EG": 7023,
      "ãĢĭãĢĬ": 7024,
      "Ġsecre": 7025,
      "ques": 7026,
      "åŀĤ": 7027,
      "åŃĲçļĦ": 7028,
      "ä¹°åįĸ": 7029,
      "87": 7030,
      "å¾ģæĶ¶": 7031,
      "æĺĮ": 7032,
      "ç¼ĸåĨĻ": 7033,
      "Ġcollected": 7034,
      "Ġsurgery": 7035,
      "å¢Ļ": 7036,
      "äººèº«": 7037,
      "Ġampl": 7038,
      "uscript": 7039,
      "å°¾": 7040,
      "ç§ĳåŃ¦æĬĢæľ¯": 7041,
      "æĿ¡çº¦": 7042,
      "Ġdrugs": 7043,
      "å¤įåĪ¶": 7044,
      "æľīæĹ¶": 7045,
      "æİ¨è¡Į": 7046,
      "äº¤å¾Ģ": 7047,
      "æ³ķå¾ĭæ³ķè§Ħ": 7048,
      "çĩĥæĸĻ": 7049,
      "å®ŀåĬĽ": 7050,
      "çĽĪ": 7051,
      "Ġsour": 7052,
      "åľ¨ä¸Ģå®ļ": 7053,
      "ç¨İåĬ¡": 7054,
      "olic": 7055,
      "antif": 7056,
      "Ġmarkers": 7057,
      "åĬŁçİĩ": 7058,
      "Ġperformance": 7059,
      "ertain": 7060,
      "æ¢¯": 7061,
      "istic": 7062,
      "åįķçĭ¬": 7063,
      "å·²æľī": 7064,
      "èĨ¨": 7065,
      "not": 7066,
      "æķ°çļĦ": 7067,
      "kg": 7068,
      "åĲİèĢħ": 7069,
      "åģľæŃ¢": 7070,
      "åĨĻä½ľ": 7071,
      "çļĦéľĢæ±Ĥ": 7072,
      "æķħæĦı": 7073,
      "LR": 7074,
      "ovascular": 7075,
      "Ġ,": 7076,
      "å¤«å¦»": 7077,
      "ä¿ĿåŃĺ": 7078,
      "Ġdamage": 7079,
      "Ġcontaining": 7080,
      "Ġrenal": 7081,
      "åĩıè½»": 7082,
      "äºĴçĽ¸": 7083,
      "ä½ľæĪĺ": 7084,
      "Ġabnormal": 7085,
      "ier": 7086,
      "å¢ŀéĢŁ": 7087,
      "å¿½è§Ĩ": 7088,
      "aw": 7089,
      "ä¹ĭæīĢä»¥": 7090,
      "éĢıæĺİ": 7091,
      "åĲĹ": 7092,
      "Ġantigen": 7093,
      "èĪªç©º": 7094,
      "ering": 7095,
      "ulate": 7096,
      "gment": 7097,
      "sing": 7098,
      "åľ°åŁŁ": 7099,
      "é¡¹çĽ®çļĦ": 7100,
      "Ġç¬¬ä¸ī": 7101,
      "emia": 7102,
      "Ġdiscus": 7103,
      "åı¯ä»¥è¯´": 7104,
      "æ³°": 7105,
      "è½¦è¾Ĩ": 7106,
      "è´£ä»»çļĦ": 7107,
      "ä¿¡ä»»": 7108,
      "------------------------": 7109,
      "èį¡": 7110,
      "Ġtests": 7111,
      "äººåĴĮ": 7112,
      "çļĦåĽ½éĻħ": 7113,
      "é¢ľ": 7114,
      "Ġprocesses": 7115,
      "otor": 7116,
      "è§£è¯»": 7117,
      "HD": 7118,
      "ergy": 7119,
      "inary": 7120,
      "Ġmanuscript": 7121,
      "è¯¾åłĤæķĻåŃ¦": 7122,
      "åĬ¨ä½ľ": 7123,
      "æĺ¯æľĢ": 7124,
      "Ġelev": 7125,
      "Ġmade": 7126,
      "Ġach": 7127,
      "å¤§éĻĨ": 7128,
      "Ġmutation": 7129,
      "çĶŁæķĪ": 7130,
      "è®¡éĩı": 7131,
      "ital": 7132,
      "åĽ½æľīä¼ģä¸ļ": 7133,
      "Ġtesting": 7134,
      "ä¸»è¦ģæľī": 7135,
      "å¼ķè¿Ľ": 7136,
      "è¦ģåľ¨": 7137,
      "ä»£è¡¨çļĦ": 7138,
      "Ġmeasures": 7139,
      "Ġprotocol": 7140,
      "å¤ľ": 7141,
      "åĲĦæĸ¹": 7142,
      "Ġinvestigated": 7143,
      "monary": 7144,
      "Ġtechn": 7145,
      "æ·ĭ": 7146,
      "Ġaverage": 7147,
      "Ġcombination": 7148,
      "çİ°éĩĳ": 7149,
      "ygen": 7150,
      "ipher": 7151,
      "æľīéĻĲåħ¬åı¸": 7152,
      "åħĪçĶŁ": 7153,
      "any": 7154,
      "Ġshows": 7155,
      "å°Ĩä¼ļ": 7156,
      "ç±»åŀĭçļĦ": 7157,
      "coh": 7158,
      "å¤§äºİ": 7159,
      "æīĵçł´": 7160,
      "=======": 7161,
      "ç¾İæľ¯": 7162,
      "Ġchall": 7163,
      "Ġbaseline": 7164,
      "æĭĨ": 7165,
      "åĽ½å®¶åĴĮ": 7166,
      "æĶ¯éħį": 7167,
      "Ġintra": 7168,
      "åµĮ": 7169,
      "å±ı": 7170,
      "Ġpolym": 7171,
      "åĤ¨å¤ĩ": 7172,
      "inally": 7173,
      "å¹¶æľª": 7174,
      "åį°åº¦": 7175,
      "çĽ®å½ķ": 7176,
      "åºĹ": 7177,
      "Ġpoor": 7178,
      "èĢħåĴĮ": 7179,
      "åİĨåı²çļĦ": 7180,
      "æ»¥": 7181,
      "ä¸İåıĳå±ķ": 7182,
      "çİ¯å¢ĥä¿ĿæĬ¤": 7183,
      "çĪ¶æ¯į": 7184,
      "ãĢĭãĢĤ": 7185,
      "éĵ¸": 7186,
      "rh": 7187,
      "çļĦçŁ¥è¯Ĩ": 7188,
      "æ¿Ģåħī": 7189,
      "åĬ£": 7190,
      "Ġdiagnostic": 7191,
      "Ġrap": 7192,
      "æĽ´å¤§": 7193,
      "Ġvariables": 7194,
      "ä¸¹": 7195,
      "æ³ķåĪ¶": 7196,
      "èĬ¯çīĩ": 7197,
      "å¹¿ä¸ľ": 7198,
      "ides": 7199,
      "éĥ¨éĺŁ": 7200,
      "å®¹éĩı": 7201,
      "ports": 7202,
      "Ġoff": 7203,
      "ç§¯æŀģæĢ§": 7204,
      "æĹ¨åľ¨": 7205,
      "Ġstem": 7206,
      "åĿļæĮģä»¥": 7207,
      "Ġstep": 7208,
      "éĤ®": 7209,
      "Ġwor": 7210,
      "è¿Ĳç®Ĺ": 7211,
      "gn": 7212,
      "çĭŃ": 7213,
      "çļĦåīįæıĲ": 7214,
      "Ġtimes": 7215,
      "èıľ": 7216,
      "çľĭæĿ¥": 7217,
      "aired": 7218,
      "chers": 7219,
      "94": 7220,
      "æıĲé«ĺäºĨ": 7221,
      "ä¸īå¹´": 7222,
      "æµħ": 7223,
      "Ġachie": 7224,
      "iatric": 7225,
      "Ġstill": 7226,
      "æĸ¹ä¾¿": 7227,
      "Ġsequence": 7228,
      ".[@": 7229,
      "å·®åĪ«": 7230,
      "ĠData": 7231,
      "ä¿¡è´·": 7232,
      "Ġfunctions": 7233,
      "ç¢±": 7234,
      "Ġindex": 7235,
      "estern": 7236,
      "èģĶéĤ¦": 7237,
      "å»¶ä¼¸": 7238,
      "çļĦè®¾è®¡": 7239,
      "è¿Ļç±»": 7240,
      "ĠâĢľ": 7241,
      "è®¢ç«ĭ": 7242,
      "Ġcarri": 7243,
      "å¹³éĿ¢": 7244,
      "amine": 7245,
      "äº¿ç¾İåħĥ": 7246,
      "å°ıåº·ç¤¾ä¼ļ": 7247,
      "ä»İä¸¥": 7248,
      "æĺ¯æĪĳåĽ½": 7249,
      "æ²»åħļ": 7250,
      "ä½ĵåĪ¶æľºåĪ¶": 7251,
      "Ġbiom": 7252,
      "çļĦçī¹å¾ģ": 7253,
      "ole": 7254,
      "åĪĨå¸ĥå¼ı": 7255,
      "Ġreflec": 7256,
      "å¯¸": 7257,
      "BI": 7258,
      "less": 7259,
      "Ġphysical": 7260,
      "æł¸ç®Ĺ": 7261,
      "èµł": 7262,
      "ps": 7263,
      "Ġtool": 7264,
      "Ġcat": 7265,
      "oratory": 7266,
      "âħ": 7267,
      "1000": 7268,
      "Ġcolon": 7269,
      "Ġexperimental": 7270,
      "92": 7271,
      "Ġoxid": 7272,
      "ä¸»è¦ģåĮħæĭ¬": 7273,
      "çº¿ç¨ĭ": 7274,
      "Ġsuggesting": 7275,
      "Ġphosphory": 7276,
      "ĠMoreover": 7277,
      "abil": 7278,
      "Ġcross": 7279,
      "AN": 7280,
      "æĭħå½ĵ": 7281,
      "å®³äºº": 7282,
      "07": 7283,
      "æµģéĩı": 7284,
      "åŃĺæ¬¾": 7285,
      "æĽ°": 7286,
      "ä¸»ç®¡éĥ¨éĹ¨": 7287,
      "*)": 7288,
      "ras": 7289,
      "åŁİéķĩåĮĸ": 7290,
      "æĹłäºº": 7291,
      "ĠER": 7292,
      "Ġcentral": 7293,
      "çļĦä½¿çĶ¨": 7294,
      "rad": 7295,
      "äº§éĩı": 7296,
      "å»ºè®¾åĴĮ": 7297,
      "äººåĿĩ": 7298,
      "ulating": 7299,
      "èĩ³ä»Ĭ": 7300,
      "åĩ¸": 7301,
      "int": 7302,
      "æ°Ľ": 7303,
      "piratory": 7304,
      "Ġrecomm": 7305,
      "raction": 7306,
      "èĤ²äºº": 7307,
      "è¿ĩç¨ĭä¸ŃçļĦ": 7308,
      "Ġlear": 7309,
      "ĠPCR": 7310,
      "æ½ľåĬĽ": 7311,
      "çªĹ": 7312,
      "oun": 7313,
      "æĹ¶æľŁçļĦ": 7314,
      "åħ¬éĩĮ": 7315,
      "BV": 7316,
      "Ġproposed": 7317,
      "Ġspect": 7318,
      "çĶŁæĢģç³»ç»Ł": 7319,
      "Ġback": 7320,
      "åĨħå®¹çļĦ": 7321,
      "Ġexpress": 7322,
      "2011": 7323,
      "æ³Į": 7324,
      "Ad": 7325,
      "è¹": 7326,
      "å°ıçļĦ": 7327,
      "åĶ±": 7328,
      "èµĦäº§éĺ¶çº§": 7329,
      "å¤±åİ»": 7330,
      "æŁ¥è¯¢": 7331,
      "ä»¥ä¾¿": 7332,
      "ç®¡çĲĨåĴĮ": 7333,
      "èĴĻåı¤": 7334,
      "Ġrest": 7335,
      "ç¢³æİĴæĶ¾": 7336,
      "æĥ³è±¡": 7337,
      "RO": 7338,
      "åĢ¡å¯¼": 7339,
      "è¯ŀ": 7340,
      "æĺİæĺ¾çļĦ": 7341,
      "ç»ĨèĥŀçļĦ": 7342,
      "DA": 7343,
      "èĤĥ": 7344,
      "å¥³æĢ§": 7345,
      "ĠåĴĮ": 7346,
      "çİ¯å¢ĥçļĦ": 7347,
      "æ³ī": 7348,
      "åŃ¦çĶŁåľ¨": 7349,
      "éļĲç§ģ": 7350,
      "Ġcontinu": 7351,
      "åŃŁ": 7352,
      "Ġsex": 7353,
      "ç²¾åº¦": 7354,
      "è°ĪåĪ¤": 7355,
      "CV": 7356,
      "Ġ60": 7357,
      "åı¯èĥ½æĺ¯": 7358,
      "ä¹ĭéĹ´çļĦåħ³ç³»": 7359,
      "83": 7360,
      "ä¸ŃæīĢ": 7361,
      "å¤ļå°ĳ": 7362,
      "åªĴä»ĭ": 7363,
      "äººå¯¹": 7364,
      "åħ¬çº¦": 7365,
      "åħĭæľį": 7366,
      "åĬĽåŃ¦": 7367,
      "Ġdepend": 7368,
      "ä¸»æĿĥ": 7369,
      "è¡¨è¿°": 7370,
      "åľ¨æĪĳåĽ½": 7371,
      "Ġpractice": 7372,
      "ä¸ŃåĽ½å¼ı": 7373,
      "è¡¡éĩı": 7374,
      "Ġsubsequ": 7375,
      "éĢļçĶ¨": 7376,
      "Ġmitochond": 7377,
      "è´§å¸ģæĶ¿çŃĸ": 7378,
      "å½ĵä»Ĭ": 7379,
      "Ġeth": 7380,
      "Ġcereb": 7381,
      "ç¼ĸç¨ĭ": 7382,
      "Ġinfluence": 7383,
      "Ġnecess": 7384,
      "Ġselected": 7385,
      "æ³Ħ": 7386,
      "ćć": 7387,
      "ze": 7388,
      "ä¹ĥèĩ³": 7389,
      "åĿĽ": 7390,
      "åıįå¤į": 7391,
      "Ġreduc": 7392,
      "ãĢĭï¼Ī": 7393,
      "å¹´åº¦": 7394,
      "Ġquestion": 7395,
      "ç§ĳåŃ¦çļĦ": 7396,
      "ĠÎ±": 7397,
      "è¿ĩåº¦": 7398,
      "Ġlesions": 7399,
      "èĬĤçº¦": 7400,
      "æµģè¡Į": 7401,
      "Ġ%": 7402,
      "äººæĿĥ": 7403,
      "åįģæĿ¡": 7404,
      "âĢĿï¼Ī": 7405,
      "äººåĬĽèµĦæºĲ": 7406,
      "æĩĤ": 7407,
      "éļ¶": 7408,
      "åħļåı²": 7409,
      "èµ·æºĲ": 7410,
      "ector": 7411,
      "çģ¯": 7412,
      "RE": 7413,
      "è¿ĩç¨ĭçļĦ": 7414,
      "ining": 7415,
      "æĬĢæľ¯åĴĮ": 7416,
      "çĶµç½ĳ": 7417,
      "Ġknowledge": 7418,
      "ç»ĥä¹ł": 7419,
      "Ġpredict": 7420,
      "Ġcaused": 7421,
      "Ġfl": 7422,
      "ï¼ħ": 7423,
      "å¼ķèµ·çļĦ": 7424,
      "æłĩåĩĨçļĦ": 7425,
      "èĨ¨èĥĢ": 7426,
      "åĪĿæľŁ": 7427,
      "ĠNational": 7428,
      "å±±ä¸ľ": 7429,
      "ĠAp": 7430,
      "Ġsetting": 7431,
      "SM": 7432,
      "arch": 7433,
      "éĥ½è¦ģ": 7434,
      "ä¸¾è¡Į": 7435,
      "çĻ¾å¹´å¥ĭæĸĹ": 7436,
      "ones": 7437,
      "åıĳåĩº": 7438,
      "åĴĮæĬĢæľ¯": 7439,
      "Ġpublished": 7440,
      "åıĳå±ķä¸ŃåĽ½å®¶": 7441,
      "è¿ĩæ¸¡": 7442,
      "ransi": 7443,
      "ociated": 7444,
      ";(": 7445,
      "]{": 7446,
      "åľ¨è¿Ļä¸ª": 7447,
      "Ġinhibitor": 7448,
      "éĥĳ": 7449,
      "SO": 7450,
      "è¿ĺåı¯ä»¥": 7451,
      "è®¤è¯ĨåĪ°": 7452,
      "çĶŁåĬ¨": 7453,
      "å«Į": 7454,
      "æ°ĶåĢĻåıĺåĮĸ": 7455,
      "Ġseen": 7456,
      "atients": 7457,
      "è´¦æĪ·": 7458,
      "æľĢä½İ": 7459,
      "æĸ°åĨł": 7460,
      "ä¸§å¤±": 7461,
      "amic": 7462,
      "éĨĩ": 7463,
      "æĸľ": 7464,
      "Ġï¼Į": 7465,
      "rix": 7466,
      "æİī": 7467,
      "è´¯ç©¿": 7468,
      "åĲĪè§Ħ": 7469,
      "ä¹Łå°±æĺ¯è¯´": 7470,
      "åľ¨åħ¶": 7471,
      "åĪĨåĮĸ": 7472,
      "éĩĳé¢Ŀ": 7473,
      "ave": 7474,
      "82": 7475,
      "äº¤ä»ĺ": 7476,
      "Ġshort": 7477,
      "agen": 7478,
      "æīĵåĩ»": 7479,
      "åħ³èĬĤ": 7480,
      "åĮĸè§£": 7481,
      "æĶ¿åĬ¡": 7482,
      "rob": 7483,
      "åħ¬å¼ı": 7484,
      "è¦ģä»¶": 7485,
      "æ¬ł": 7486,
      "Res": 7487,
      "å¼Ĭ": 7488,
      "å»ºç«ĭåģ¥åħ¨": 7489,
      "Ġmass": 7490,
      "me": 7491,
      "ç®±": 7492,
      "Ġserv": 7493,
      "å¾®è§Ĥ": 7494,
      "84": 7495,
      "å¿§": 7496,
      "è¢«ç§°ä¸º": 7497,
      "åıįæĺłäºĨ": 7498,
      "çĪĨåıĳ": 7499,
      "ä¸įç¡®å®ļ": 7500,
      "ipp": 7501,
      "åŃ¦ä½į": 7502,
      "åĲİæľŁ": 7503,
      "Ġfew": 7504,
      "Ġyear": 7505,
      "tension": 7506,
      "âĦ": 7507,
      "ä¿ĥä½¿": 7508,
      "Ġsens": 7509,
      "åĽ½æ°ĳç»ıæµİ": 7510,
      "Ġinitial": 7511,
      "éĻķ": 7512,
      "Ġdispl": 7513,
      "LI": 7514,
      "uble": 7515,
      "âĸ": 7516,
      "å¯¹è¯Ŀ": 7517,
      "éĩįè¦ģä½ľçĶ¨": 7518,
      "bo": 7519,
      "å·²æĪĲä¸º": 7520,
      "åı¦ä¸Ģ": 7521,
      "orph": 7522,
      "ï¼į": 7523,
      "Ġabsence": 7524,
      "Ġisolated": 7525,
      "åĪĢ": 7526,
      "æľīåħ³éĥ¨éĹ¨": 7527,
      "å·¡": 7528,
      "Ġvers": 7529,
      "åīįæĻ¯": 7530,
      "ç¨Ģ": 7531,
      "ĠRec": 7532,
      "CF": 7533,
      "^{": 7534,
      "åĪĨè£Ĥ": 7535,
      "æĹ¶ä»£çļĦ": 7536,
      "ä¼Ĺå¤ļ": 7537,
      "æĤ£èĢħçļĦ": 7538,
      "æĦŁåıĹ": 7539,
      "åĪł": 7540,
      "çłĶç©¶éĻ¢": 7541,
      "åįģä¸ĢæĿ¡": 7542,
      "Ġbiological": 7543,
      "åĪĿå§ĭ": 7544,
      "çļĦåıĳçĶŁ": 7545,
      "Ex": 7546,
      "éĶĭ": 7547,
      "ystem": 7548,
      "tif": 7549,
      "è¯ģä¹¦": 7550,
      "æĸĩçī©": 7551,
      "ç³Ĭ": 7552,
      "éĽĨåĲĪ": 7553,
      "ä¾¿åĪ©": 7554,
      "Ġinfected": 7555,
      "ç¨»": 7556,
      "è¿ĩéĶĻ": 7557,
      "Ġmedium": 7558,
      "ç®ĢåįķçļĦ": 7559,
      "ysiological": 7560,
      "Ġsl": 7561,
      "å¤§æĬ¥åĳĬ": 7562,
      "äººåĳĺçļĦ": 7563,
      "Ġalthough": 7564,
      "Ġrepe": 7565,
      "rotein": 7566,
      "èĸª": 7567,
      "AM": 7568,
      "Ġvent": 7569,
      "åĲĮæĹ¶ä¹Ł": 7570,
      "æĳĩ": 7571,
      "ä¸ĵé¢ĺ": 7572,
      "æĺ¯ä»İ": 7573,
      "ä¸İåħ¶": 7574,
      "Ġsuff": 7575,
      "function": 7576,
      "çļĦæĪĺçķ¥": 7577,
      "ç²¾ç¡®": 7578,
      "Ġsuggested": 7579,
      "çŃīæĸ¹éĿ¢çļĦ": 7580,
      "Ġutil": 7581,
      "Ġintrac": 7582,
      "èĦĬ": 7583,
      "æĬ¤çĲĨ": 7584,
      "éĩįç»Ħ": 7585,
      "ä¸°å¯ĮçļĦ": 7586,
      "æľĢæĹ©": 7587,
      "Ġminim": 7588,
      "Ġadhe": 7589,
      "åľ°éľĩ": 7590,
      "æĿĳæ°ĳ": 7591,
      "åĽĬ": 7592,
      "Ġincreases": 7593,
      "ç¤¾ä¼ļä¸»ä¹īæł¸å¿ĥ": 7594,
      "sh": 7595,
      "æħ¢æĢ§": 7596,
      "ä½ľçī©": 7597,
      "\\[[@": 7598,
      "äº§ä¸ļåıĳå±ķ": 7599,
      "ocardi": 7600,
      "\"}.": 7601,
      "Ġtyp": 7602,
      "Ġinfections": 7603,
      "å½¢å¼ıçļĦ": 7604,
      "éķ¿çļĦ": 7605,
      "æĹłçĸĳ": 7606,
      "itu": 7607,
      "Ġhand": 7608,
      "å¹¿åĳĬ": 7609,
      "éŃĤ": 7610,
      "æĸ°èĥ½æºĲ": 7611,
      "Ġmanagement": 7612,
      "Ġsoft": 7613,
      "éĹ²": 7614,
      "åĻ¨ä»¶": 7615,
      "æ¶Īæģ¯": 7616,
      "æĿ°": 7617,
      "ç»ĨèıĮ": 7618,
      "è¡Įä¸ºäºº": 7619,
      "300": 7620,
      "çº¢åĨĽ": 7621,
      "Ġclear": 7622,
      "ĠmM": 7623,
      "2009": 7624,
      "é¡ºåĪ©": 7625,
      "ç¢İ": 7626,
      "åĲĦæĹı": 7627,
      "Ġtrial": 7628,
      "å¯¹ç«ĭ": 7629,
      "èĢĮéĿŀ": 7630,
      "å¼ºå¤§çļĦ": 7631,
      "Ġfailure": 7632,
      "Ġprevalence": 7633,
      "æĢĿæĥ³çļĦ": 7634,
      "ploy": 7635,
      "å¸ĪèĮĥ": 7636,
      "Ġpatterns": 7637,
      "æĢ¥æĢ§": 7638,
      "æŁĲä¸ª": 7639,
      "å¦ĤåĽ¾": 7640,
      "Ġmemory": 7641,
      "æŃ¦åĻ¨": 7642,
      "ä¹ĭä¸ĭ": 7643,
      "ç¼ĵè§£": 7644,
      "Ġpotenti": 7645,
      "å¸¸æĢģ": 7646,
      "ç¡«": 7647,
      "åĹ": 7648,
      "Ġrelease": 7649,
      "çļĦç»ĵæŀĦ": 7650,
      "ç»ĪæŃ¢": 7651,
      "æĦıä¹īä¸Ĭ": 7652,
      "å¹¶å°Ĩ": 7653,
      "ç³»æķ°": 7654,
      "Ġsal": 7655,
      "å¯¹æİ¥": 7656,
      "æĬ«éľ²": 7657,
      "åŃĲå¥³": 7658,
      "Ġeduc": 7659,
      "çľĭåĩº": 7660,
      "åīįçļĦ": 7661,
      "aged": 7662,
      "odes": 7663,
      "åį³åı¯": 7664,
      "Ġobes": 7665,
      "æµ·å¤ĸ": 7666,
      "è¿·": 7667,
      "äººå£«": 7668,
      "enced": 7669,
      "Ġ21": 7670,
      "åĲĪåĲĮçļĦ": 7671,
      "ä¸ŃåĴĮ": 7672,
      "Ġfacil": 7673,
      "éĽĨç¾¤": 7674,
      "Ġreceived": 7675,
      "æ¯ıä¸Ģ": 7676,
      "ç¡ķ": 7677,
      "åĨľä¸ļçĶŁäº§": 7678,
      "PI": 7679,
      "çļĦä¼ģä¸ļ": 7680,
      "PV": 7681,
      "æĭħä»»": 7682,
      "æ¸ħåįķ": 7683,
      "è¾½": 7684,
      "åĪ©æģ¯": 7685,
      "æ´»åĬ¨ä¸Ń": 7686,
      "è§Ħç«ł": 7687,
      "urse": 7688,
      "Ġmetabolic": 7689,
      "æĶ¾å¼ĥ": 7690,
      "è¡¥è´´": 7691,
      "ns": 7692,
      "Ġconfirmed": 7693,
      "RNAs": 7694,
      "Ġtask": 7695,
      "ç²ĺ": 7696,
      "//": 7697,
      "æĴ°": 7698,
      "æĮĩå¼ķ": 7699,
      "Ġstudied": 7700,
      "å¼ĢåĲ¯": 7701,
      "Ġ$\\": 7702,
      "ä¿±": 7703,
      "81": 7704,
      "Ġcorrelated": 7705,
      "Ġresulting": 7706,
      "è®¾å®ļ": 7707,
      "çĽ¸åĲĮçļĦ": 7708,
      "åľ°è´¨": 7709,
      "åħ¨åĽ½äººå¤§": 7710,
      "Ġcohort": 7711,
      "è°ĥçłĶ": 7712,
      "æ·»åĬł": 7713,
      "Ġapplied": 7714,
      "å®¶æĹı": 7715,
      "çĭ¬ç«ĭçļĦ": 7716,
      "chool": 7717,
      "è¯īè®¼æ³ķ": 7718,
      "èµ¤": 7719,
      "å±ĤçļĦ": 7720,
      "åīĸ": 7721,
      "time": 7722,
      "ĠĠĠĠĠĠĠĠĠĠĠĠĠĠĠĠĠĠ": 7723,
      "ä¹ĭå¤Ħ": 7724,
      "91": 7725,
      "tial": 7726,
      "è¯ķåĽ¾": 7727,
      "Ġiss": 7728,
      "Ġoper": 7729,
      "adi": 7730,
      "çļĦåĪĨæŀĲ": 7731,
      "å½Ĵçº³": 7732,
      "Ġcomponents": 7733,
      "çłĶç©¶çĶŁ": 7734,
      "Ġinterp": 7735,
      "Ġskin": 7736,
      "Ġscores": 7737,
      "Ġadult": 7738,
      "åħ±å»º": 7739,
      "ĠĠĠĠĠĠĠĠĠĠĠĠĠĠĠĠĠ": 7740,
      "ç¤¾ä¼ļä¿Ŀéļľ": 7741,
      "DR": 7742,
      "Ġable": 7743,
      "åĴĮæľįåĬ¡": 7744,
      "Ġrapid": 7745,
      "ä»¥å¾Ģ": 7746,
      "åŀĥ": 7747,
      "åľ¾": 7748,
      "å¸¸è§Ħ": 7749,
      "çŃīæĸ¹å¼ı": 7750,
      "å®¿": 7751,
      "æŀ¢": 7752,
      "ä¿Ħç½Ĺæĸ¯": 7753,
      "regulation": 7754,
      "Ġevaluation": 7755,
      "åŀĥåľ¾": 7756,
      "è£ģå®ļ": 7757,
      "åĪ¶åº¦åĴĮ": 7758,
      "çĹħäºº": 7759,
      "Ġclin": 7760,
      "Ġanimal": 7761,
      "çİ°è¡Į": 7762,
      "by": 7763,
      "Ġlight": 7764,
      "æ°ĳèĲ¥": 7765,
      "ĠãĢĤ": 7766,
      "Ġperipher": 7767,
      "Con": 7768,
      "rate": 7769,
      "ocal": 7770,
      "è¯¯å·®": 7771,
      "ĠDi": 7772,
      "Ġpopulations": 7773,
      "Ab": 7774,
      "Ġfive": 7775,
      "åĪĿå¿ĥ": 7776,
      "èī²å½©": 7777,
      "ä¼¼ä¹İ": 7778,
      "Ġsuggests": 7779,
      "PT": 7780,
      "åĲ¦å®ļ": 7781,
      "æ§": 7782,
      "æŃ£å¦Ĥ": 7783,
      "Ġpropor": 7784,
      "æĹłçº¿": 7785,
      "Ġsurve": 7786,
      "omas": 7787,
      "é¢Ĺç²Ĵ": 7788,
      "Ġliter": 7789,
      "éĿ©åĳ½çļĦ": 7790,
      "åĩºçİ°çļĦ": 7791,
      "Ġepithelial": 7792,
      "é¢ģå¸ĥ": 7793,
      "Ġdirectly": 7794,
      "èģĮæĿĥ": 7795,
      "Ġmorph": 7796,
      "æľªæĿ¥çļĦ": 7797,
      "ries": 7798,
      "Ġinterval": 7799,
      "Ġcateg": 7800,
      "è·³": 7801,
      "å¼Ģè¾Ł": 7802,
      "Ġendothelial": 7803,
      "éĽª": 7804,
      "Ġfund": 7805,
      "æ²»åĽ½": 7806,
      "HO": 7807,
      "å¢ĵ": 7808,
      "çī©åĵģ": 7809,
      "æĮĩç¤º": 7810,
      "ä¸ĭæĿ¥": 7811,
      "æł¼å¼ı": 7812,
      "HR": 7813,
      "ĠFigure": 7814,
      "è¡Ģæ¶²": 7815,
      "åŃ¦è¯´": 7816,
      "äº§éĺ¶çº§": 7817,
      "Ġexhib": 7818,
      "ify": 7819,
      "æľĢè¿ĳ": 7820,
      "ä¼¤å®³": 7821,
      "/-": 7822,
      "æľªæĪĲå¹´äºº": 7823,
      "é»Ħæ²³": 7824,
      "Ġcomparison": 7825,
      "Ġagg": 7826,
      "å¼Ł": 7827,
      "å¾Ĺåĩº": 7828,
      "å¯»æ±Ĥ": 7829,
      "å¯¹ä¸ŃåĽ½": 7830,
      "roid": 7831,
      "Ġinduc": 7832,
      "Ġess": 7833,
      "ç£¨": 7834,
      "åħħæ»¡": 7835,
      "åĨ¬": 7836,
      "Ġ\\*": 7837,
      "èĤ¯å®ļ": 7838,
      "éĿ¢ä¸´çļĦ": 7839,
      "æł¡åĽŃ": 7840,
      "æĺ¯éĢļè¿ĩ": 7841,
      "ä¾¦": 7842,
      "åľ¨è¿Ļç§į": 7843,
      "åıĸä»£": 7844,
      "mi": 7845,
      "åŃķ": 7846,
      "è°ĥåĬ¨": 7847,
      "è¿ģç§»": 7848,
      "åıĺæĪĲ": 7849,
      "æĿĥéĻĲ": 7850,
      "å¸¸å§Ķä¼ļ": 7851,
      "positive": 7852,
      "æ®ĸæ°ĳ": 7853,
      "¤Ĳ": 7854,
      "SE": 7855,
      "æ¢³": 7856,
      "åĽ¾å½¢": 7857,
      "èįĴ": 7858,
      "æĻĵ": 7859,
      "ä¸Ģçº§": 7860,
      "çĶµè§Ĩ": 7861,
      "utri": 7862,
      "ä¸ŃçŃī": 7863,
      "Ġinterven": 7864,
      "æļĸ": 7865,
      "åĻ¨å®ĺ": 7866,
      "ä»ªåĻ¨": 7867,
      "åºĶçĶ¨ç¨ĭåºı": 7868,
      "èļĢ": 7869,
      "Ġparticularly": 7870,
      "Ġreduce": 7871,
      "orescence": 7872,
      "Ġkinase": 7873,
      "ç³»ç»Łä¸Ń": 7874,
      "è¾ĥå¤§çļĦ": 7875,
      "ots": 7876,
      "æĮĩå®ļ": 7877,
      "çļĦå½¢æĪĲ": 7878,
      "Ġleading": 7879,
      "ĠIFN": 7880,
      "èĥĥ": 7881,
      "ĠSp": 7882,
      "æĺ¯æľī": 7883,
      "çıł": 7884,
      "è¿ĶåĽŀ": 7885,
      "éľĢè¦ģçļĦ": 7886,
      "å®Įæķ´çļĦ": 7887,
      "åįĹäº¬": 7888,
      "ĠTNF": 7889,
      "ä¾ĭåŃĲ": 7890,
      "Ġdomain": 7891,
      "ographic": 7892,
      "å°ıè¯´": 7893,
      "æĪĺæĸĹ": 7894,
      "è°ĥçĶ¨": 7895,
      "å¤§èĦĳ": 7896,
      "åĨ»": 7897,
      "èµ·çĤ¹": 7898,
      "Ġtox": 7899,
      "å°ĳæķ°æ°ĳæĹı": 7900,
      "éļ¾åº¦": 7901,
      "ç¢ĳ": 7902,
      "åī©ä½Ļ": 7903,
      "VA": 7904,
      "æŁĵèī²": 7905,
      "aches": 7906,
      "}{": 7907,
      "å¡ĳéĢł": 7908,
      "èµ·æĿ¥çļĦ": 7909,
      "åħ¬æľī": 7910,
      "æĬĹä½ĵ": 7911,
      "æ£Ģå¯ŁéĻ¢": 7912,
      "å£°æĺİ": 7913,
      "è¢«åĳĬäºº": 7914,
      "Ġpan": 7915,
      "äºĮæ°§åĮĸ": 7916,
      "Ġhistory": 7917,
      "å¼ĢåĪĽ": 7918,
      "çļĦéľĢè¦ģ": 7919,
      "Ġadap": 7920,
      "éģ¥": 7921,
      "Ġaffected": 7922,
      "ogn": 7923,
      "åıĹçĲĨ": 7924,
      "çļĦåı¯": 7925,
      "cohol": 7926,
      "Ġhere": 7927,
      "åįģäºĮæĿ¡": 7928,
      "ç§įæ¤į": 7929,
      "åĬłå¯Ĩ": 7930,
      "åİĨåı²æĢ§": 7931,
      "é¢Ĩå¯¼å¹²éĥ¨": 7932,
      "ream": 7933,
      "åįıåĬ©": 7934,
      "formation": 7935,
      "è¯»èĢħ": 7936,
      "ç¬¬ä¸īäºº": 7937,
      "åįłæ¯Ķ": 7938,
      "æ¶Į": 7939,
      "å¤ĸæ±ĩ": 7940,
      "åĲĦæĸ¹éĿ¢": 7941,
      "==========": 7942,
      "ç¼Ķ": 7943,
      "çģ°": 7944,
      "åĲįä¹ī": 7945,
      "èµ·åĪ°": 7946,
      "Ġconsistent": 7947,
      "ä¸įæĸŃæıĲé«ĺ": 7948,
      "Ġsuccess": 7949,
      "urrent": 7950,
      "æĹ¢æĺ¯": 7951,
      "å¸ľ": 7952,
      "BD": 7953,
      "\"})": 7954,
      "ç¬¬äºĮä¸ª": 7955,
      "çļĦæĹ¶ä»£": 7956,
      "arrow": 7957,
      "Ġcall": 7958,
      "bers": 7959,
      "ĠAr": 7960,
      "ç«ĭåį³": 7961,
      "åŁºåĽłç»Ħ": 7962,
      "åĭĥ": 7963,
      "ç»ıèĲ¥èĢħ": 7964,
      "å®ŀä¹ł": 7965,
      "ï¼ļãĢĬ": 7966,
      "Ġpregn": 7967,
      "çĻ¾å§ĵ": 7968,
      "èĦ±è´«æĶ»åĿļ": 7969,
      "pecially": 7970,
      "åİ¿çº§": 7971,
      "Ġsince": 7972,
      "verex": 7973,
      "Î¼": 7974,
      "è¢Ń": 7975,
      "çŁ³æ²¹": 7976,
      "æµĭå®ļ": 7977,
      "çļĦå¤ļ": 7978,
      "é¢ĦèŃ¦": 7979,
      "Ġrequire": 7980,
      "terior": 7981,
      "å¼ķçĶ¨": 7982,
      "priate": 7983,
      "Ġplace": 7984,
      "Ġaccum": 7985,
      "overy": 7986,
      "åħ¨éĿ¢å»ºè®¾": 7987,
      "èµĦæºĲéħįç½®": 7988,
      "Ġair": 7989,
      "Ġtransi": 7990,
      "Ġstatistical": 7991,
      "è¦ģæľī": 7992,
      "Ġuni": 7993,
      "åĨħå¤ĸ": 7994,
      "Ġtemper": 7995,
      "æľ¬æ¡Ī": 7996,
      "Ġversus": 7997,
      "SI": 7998,
      "åĮħè£ħ": 7999,
      "çī¹å¼Ĥ": 8000,
      "Ġkid": 8001,
      "Ġcycle": 8002,
      "åı¤åħ¸": 8003,
      "Ġoste": 8004,
      "æłĩè®°": 8005,
      "åħ±æľī": 8006,
      "Ġlig": 8007,
      "Ġfuture": 8008,
      "BC": 8009,
      "å¸¸çĶ¨": 8010,
      "åĽŀæĶ¶": 8011,
      "Ġspecies": 8012,
      "Ġreal": 8013,
      "æĬĵä½ı": 8014,
      "Ġquantif": 8015,
      "ĠCol": 8016,
      "Ġdetail": 8017,
      "Ġremains": 8018,
      "Ġdeli": 8019,
      "çļĦæłĩåĩĨ": 8020,
      "çĶŁæ´»ä¸Ń": 8021,
      "çŃīäºº": 8022,
      "Ġlipid": 8023,
      "orb": 8024,
      "æıĲç¤º": 8025,
      "çĥ¯": 8026,
      "æ·Ģ": 8027,
      "çĶµåŃĲåķĨåĬ¡": 8028,
      "å·¥åķĨ": 8029,
      "ĠĠĠĠĠĠĠĠĠĠĠĠĠĠĠĠĠĠĠĠĠĠĠĠĠĠĠĠĠĠĠĠĠĠĠĠĠĠĠĠĠĠĠĠĠĠĠĠĠĠĠĠĠĠĠĠĠĠĠĠĠĠĠĠĠĠĠĠĠĠĠĠĠĠĠĠĠĠĠĠĠĠĠĠĠĠĠĠĠĠĠĠĠĠĠĠĠĠĠĠĠĠĠĠĠĠĠĠĠĠĠĠĠĠĠĠĠĠĠĠĠĠĠĠĠĠĠĠĠĠĠĠĠĠĠĠĠĠĠĠĠĠĠĠĠĠĠĠĠĠĠĠĠĠĠĠĠĠĠĠĠĠĠĠĠĠĠĠĠĠĠĠĠĠĠĠĠĠĠĠĠĠĠĠĠĠĠĠĠĠĠĠĠĠĠĠĠĠĠĠĠĠĠĠĠĠĠĠĠĠĠĠĠĠĠĠĠĠĠĠĠĠĠĠĠĠĠĠĠĠĠĠĠĠĠĠĠĠĠĠĠĠĠĠĠĠĠĠĠĠĠĠĠĠĠĠ": 8030,
      "çĽ´åĪ°": 8031,
      "Ġsupplement": 8032,
      "åįģåĽĽæĿ¡": 8033,
      "åŃĶåŃĲ": 8034,
      "Ġevaluate": 8035,
      "è¯ĪéªĹ": 8036,
      "inflamm": 8037,
      "ä¹Łåľ¨": 8038,
      "æĬĢæľ¯åĪĽæĸ°": 8039,
      "åįģä¸īæĿ¡": 8040,
      "Co": 8041,
      "äºĮèĢħ": 8042,
      "Ġmaterial": 8043,
      "æĪĴ": 8044,
      "ç³ĸå°¿": 8045,
      "èĩªè¡Į": 8046,
      "äººç±»ç¤¾ä¼ļ": 8047,
      "æĹ¢æľī": 8048,
      "ele": 8049,
      "Ġimplement": 8050,
      "Ġsynap": 8051,
      "Ġgenerated": 8052,
      "ä¸Ńå°ıä¼ģä¸ļ": 8053,
      "å¸¸è§ģçļĦ": 8054,
      "çĶŁçī©åŃ¦": 8055,
      "Ġoptim": 8056,
      "ä¸įè¦ģ": 8057,
      "\\*\\*": 8058,
      "æķĻèĤ²éĥ¨": 8059,
      "æ·ĭå·´": 8060,
      "çĵ¶": 8061,
      "åıĤçħ§": 8062,
      "å¯¹æĬĹ": 8063,
      "è¯±å¯¼": 8064,
      "ä¸ªåĪ«": 8065,
      "æĪĳä»¬åı¯ä»¥": 8066,
      "ä¿¡å¿ĥ": 8067,
      "vari": 8068,
      "estinal": 8069,
      "ãĢĭ,": 8070,
      "ä»¿çľŁ": 8071,
      "Ġangi": 8072,
      "Ġhost": 8073,
      "çłĶç©¶åĳĺ": 8074,
      "çĹħåıĺ": 8075,
      "Ġreas": 8076,
      "çŃīçļĦ": 8077,
      "ä½ĵç³»å»ºè®¾": 8078,
      "Ġlike": 8079,
      "èĴ¸": 8080,
      "hest": 8081,
      "Ġsci": 8082,
      "åĨ³å®ļäºĨ": 8083,
      "è®¾è®¡çļĦ": 8084,
      "æĲº": 8085,
      "ä¿¡æīĺ": 8086,
      "Ġrelevant": 8087,
      "Ġregression": 8088,
      "ç¬¬ä¸īæĸ¹": 8089,
      "ino": 8090,
      "associated": 8091,
      "etal": 8092,
      "LD": 8093,
      "ĠNot": 8094,
      "å®ĺåĳĺ": 8095,
      "ä¸¤å¤§": 8096,
      "çĽ²": 8097,
      "åħ¨æĸ¹ä½į": 8098,
      "åĵ¥": 8099,
      "Ġgast": 8100,
      "Ġfinal": 8101,
      "TA": 8102,
      "è´Łè´£äºº": 8103,
      "æ²»çĲĨèĥ½åĬĽ": 8104,
      "åĳ½é¢ĺ": 8105,
      "TR": 8106,
      "åħ¨éĿ¢æİ¨è¿Ľ": 8107,
      "ĠĠĠĠĠĠĠĠĠĠĠĠĠĠĠĠĠĠĠ": 8108,
      "åĽĽæĺ¯": 8109,
      "å¾ħéģĩ": 8110,
      "ä¸¾è¯ģ": 8111,
      "equ": 8112,
      "åĲĪæł¼": 8113,
      "æĪĸèĢħåħ¶ä»ĸ": 8114,
      "eding": 8115,
      "ä½ľäºĨ": 8116,
      "å°½åı¯èĥ½": 8117,
      "åĪĽéĢłäºĨ": 8118,
      "èĤºçĤİ": 8119,
      "Ġactivated": 8120,
      "care": 8121,
      "az": 8122,
      "Ġdim": 8123,
      "çĨŁæĤī": 8124,
      "lish": 8125,
      "ä¸ºä¸»è¦ģ": 8126,
      "å¤§åĪ©": 8127,
      "ĠOne": 8128,
      "äºĭä¸ļåįķä½į": 8129,
      "Ġthough": 8130,
      "çĶµå½±": 8131,
      "yg": 8132,
      "æĸ¹æ³ķçļĦ": 8133,
      "å¿ĥçĲĨåŃ¦": 8134,
      "Ġvess": 8135,
      "----------------------------": 8136,
      "ĠGen": 8137,
      "è¿½ç©¶": 8138,
      "Ġanother": 8139,
      "åĸĦäºİ": 8140,
      "èĩ³äºİ": 8141,
      "âĹ": 8142,
      "åĩłä½ķ": 8143,
      "ä¸»æĮģ": 8144,
      "éĢļè®¯": 8145,
      "çļĦç»Ħç»ĩ": 8146,
      "èĢķåľ°": 8147,
      "ä»Ģä¹Īæĺ¯": 8148,
      "éŀ": 8149,
      "åĪĨæŀĲåĴĮ": 8150,
      "çī©ä½ĵ": 8151,
      "ems": 8152,
      "çłĶç©¶ä¸Ń": 8153,
      "Ġcontribute": 8154,
      "Ġdistinc": 8155,
      "å¾½": 8156,
      "Ġchann": 8157,
      "rog": 8158,
      "åıĳæĢ§": 8159,
      "å¾Īå¤§çļĦ": 8160,
      "erate": 8161,
      "ćĆ": 8162,
      "æ¶Ĥ": 8163,
      "Ġadults": 8164,
      "MR": 8165,
      "æĬ¥éħ¬": 8166,
      "çļĦæĶ¿çŃĸ": 8167,
      "åĿļå®ŀ": 8168,
      "åĽŃåĮº": 8169,
      "rs": 8170,
      "æķĻåŃ¦ä¸Ń": 8171,
      "ç³ĸå°¿çĹħ": 8172,
      "ç»ĵåĲĪèµ·æĿ¥": 8173,
      "Ġfile": 8174,
      "Ġmolecules": 8175,
      "ä¸įåıĹ": 8176,
      "å¤±ä¸ļ": 8177,
      "æ¢³çĲĨ": 8178,
      "è¿Ļä¸ĢçĤ¹": 8179,
      "çļĦçĶŁæ´»": 8180,
      "ç³»ç»ŁæĢ§": 8181,
      "å¿ĥèĦı": 8182,
      "ä¸´æĹ¶": 8183,
      "ethod": 8184,
      "Ġespecially": 8185,
      "rated": 8186,
      "çĽĳæĬ¤": 8187,
      "éĤ£æł·": 8188,
      "åĬłä¸Ĭ": 8189,
      "Ġleuk": 8190,
      "ç®Ģä»ĭ": 8191,
      "ä¼łæŁĵ": 8192,
      "çľģçº§": 8193,
      "Ġmicroscop": 8194,
      "æ±Łèĭı": 8195,
      "pite": 8196,
      "æ·¡": 8197,
      "çŃīäºİ": 8198,
      "Ġfluid": 8199,
      "Ġdifficult": 8200,
      "ç«Ń": 8201,
      "2007": 8202,
      "Ġincidence": 8203,
      "åįķçº¯": 8204,
      "è·µè¡Į": 8205,
      "Ġexist": 8206,
      "ä¸īç»´": 8207,
      "tered": 8208,
      "Ġtoward": 8209,
      "å®ŀè®Ń": 8210,
      "æĬļ": 8211,
      "Ġresearchers": 8212,
      "æī©æķ£": 8213,
      "Ġquantit": 8214,
      "Ġneeded": 8215,
      "å°±è¦ģ": 8216,
      "ili": 8217,
      "for": 8218,
      "èĪĨè®º": 8219,
      "åĪĹå®ģ": 8220,
      "ä¸ºæł¸å¿ĥçļĦåħļä¸Ńå¤®": 8221,
      "å®£å¸ĥ": 8222,
      "ä»¥ä¹łè¿ĳå¹³åĲĮå¿Ĺ": 8223,
      "istry": 8224,
      "Ġemerg": 8225,
      "Ġmalign": 8226,
      "left": 8227,
      "ĠCo": 8228,
      "æ»¡æĦı": 8229,
      "æľºæŀĦçļĦ": 8230,
      "åįıå®ļ": 8231,
      "/âĪĴ": 8232,
      "ä¼ĺçĤ¹": 8233,
      "èĤ¤": 8234,
      "æĭľ": 8235,
      "æĿĲæĸĻçļĦ": 8236,
      "ame": 8237,
      "å¤§å¤ļ": 8238,
      "ä½ĽæķĻ": 8239,
      "erve": 8240,
      "å·¥ä½ľäººåĳĺ": 8241,
      "Ġinteractions": 8242,
      "ä¾¯": 8243,
      "Ġneu": 8244,
      "}$": 8245,
      "çİ¯å¢ĥä¸Ń": 8246,
      "æł·åĵģ": 8247,
      "å§Ĩ": 8248,
      "æłĩè¯Ĩ": 8249,
      "tt": 8250,
      "Ġsecondary": 8251,
      "Ġ37": 8252,
      "å¯Ĵ": 8253,
      "Ġstrategies": 8254,
      "æīĢå¾Ĺç¨İ": 8255,
      "CN": 8256,
      "å°±èĥ½": 8257,
      "éĥ¨ä½į": 8258,
      "Ġdyn": 8259,
      "Ġprost": 8260,
      "äºīåıĸ": 8261,
      "Ġoxygen": 8262,
      "çī²": 8263,
      "çĶ¨éĢĶ": 8264,
      "ä¸įå¼Ģ": 8265,
      "èµ«": 8266,
      "æŁĶ": 8267,
      "ç¬¬åħ«": 8268,
      "GA": 8269,
      "èĩ³åħ³": 8270,
      "Ġtransfer": 8271,
      "åľ¨ä¸Ģä¸ª": 8272,
      "é£Łçī©": 8273,
      "Ġapproxim": 8274,
      "è¾ĥé«ĺçļĦ": 8275,
      "å½°æĺ¾": 8276,
      "###": 8277,
      "otypes": 8278,
      "è¯ģå®ŀ": 8279,
      "chem": 8280,
      "âĨ": 8281,
      "eling": 8282,
      "è§Ħå®ļäºĨ": 8283,
      "å¸ĪçĶŁ": 8284,
      "æ¨¡å¼ıçļĦ": 8285,
      "è·Łè¸ª": 8286,
      "åį°åıĳ": 8287,
      "ä¸Ģæ®µ": 8288,
      "çº¿ä¸Ĭ": 8289,
      "æľĢåĪĿ": 8290,
      "å°ºåº¦": 8291,
      "LS": 8292,
      "è¯ļä¿¡": 8293,
      "Ġhome": 8294,
      "ĠInc": 8295,
      "ä¸¾åĬŀ": 8296,
      "æĪ´": 8297,
      "å¯¹å¤ĸå¼ĢæĶ¾": 8298,
      "ä¸įåºĶ": 8299,
      "å¥ĳçº¦": 8300,
      "è¡Ģåİĭ": 8301,
      "bor": 8302,
      "2005": 8303,
      "ä¸Ńåįİä¼ĺç§Ģ": 8304,
      "ä¸Ĭçº§": 8305,
      "èįīæ¡Ī": 8306,
      "Ġve": 8307,
      "å¯¹å¾ħ": 8308,
      "Ġcardiovascular": 8309,
      "èĪį": 8310,
      "Ġpulmonary": 8311,
      "åħ¨æ°ĳ": 8312,
      "Ġmonitor": 8313,
      "åı¯çĶ¨": 8314,
      "================================": 8315,
      "è§£æŀĲ": 8316,
      "Ġcharacterized": 8317,
      "æĹ¶æķĪ": 8318,
      "Ġsupported": 8319,
      "æĹłäº§éĺ¶çº§": 8320,
      "Ġmaxim": 8321,
      "å¼ķå¯¼åŃ¦çĶŁ": 8322,
      "åĺī": 8323,
      "åħ³å¿ĥ": 8324,
      "æĥĬ": 8325,
      "å¸¦æľī": 8326,
      "Ġpref": 8327,
      "é»İ": 8328,
      "Ġinvestigate": 8329,
      "ç»ıæµİåıĳå±ķçļĦ": 8330,
      "èĥº": 8331,
      "tle": 8332,
      "ç¡®å®ŀ": 8333,
      "æľªèĥ½": 8334,
      "è¡ĮæĶ¿æ³ķè§Ħ": 8335,
      "è°¨": 8336,
      "æ¢ħ": 8337,
      "éĶ»": 8338,
      "Ġview": 8339,
      "ç°": 8340,
      "ç»ıçĲĨ": 8341,
      "ä¸Ģæµģ": 8342,
      "æĴŀ": 8343,
      "åįģåħŃæĿ¡": 8344,
      "æľ¬åľ°": 8345,
      "åĲ«æľī": 8346,
      "åıĳå±ķæĪĺçķ¥": 8347,
      "aid": 8348,
      "çıį": 8349,
      "è¿Ļé¡¹": 8350,
      "ifically": 8351,
      "æĦıä¹īçļĦ": 8352,
      "Ġuseful": 8353,
      "äºĳè®¡ç®Ĺ": 8354,
      "Ġliterature": 8355,
      "Ġinduction": 8356,
      "äº«åıĹ": 8357,
      "Ġtrac": 8358,
      "åŁºåĩĨ": 8359,
      "åĩıæİĴ": 8360,
      "ä¿ĥè¿ĽäºĨ": 8361,
      "æ®ĭçĸ¾": 8362,
      "å·¥ä½ľä¸Ń": 8363,
      "onic": 8364,
      "æĸ¥": 8365,
      "ç»Īç«¯": 8366,
      "Ġpaper": 8367,
      "ãĢĤ[": 8368,
      "CH": 8369,
      "èħĬ": 8370,
      "Ġhours": 8371,
      "æĪĲåĥı": 8372,
      "æŀģç«¯": 8373,
      "arding": 8374,
      "Ġrespiratory": 8375,
      "rm": 8376,
      "Ġsumm": 8377,
      "çļĦå¸Ĥåľº": 8378,
      "Ġmigration": 8379,
      "Ġerr": 8380,
      "Ġupon": 8381,
      "Ġprovides": 8382,
      "åľ¨åĽ½éĻħ": 8383,
      "Ġdisorder": 8384,
      "åķĨä¸ļéĵ¶è¡Į": 8385,
      "Ġtrig": 8386,
      "éĻĲåº¦": 8387,
      "olester": 8388,
      "ik": 8389,
      "åľ°ä¸ĭ": 8390,
      "é¥±": 8391,
      "çĶµæºĲ": 8392,
      "çļĦæĢ§è´¨": 8393,
      "åħ¨ç¤¾ä¼ļ": 8394,
      "è¦ģæĬĬ": 8395,
      "oding": 8396,
      "éĺĲéĩĬ": 8397,
      "æī«æıı": 8398,
      "åħ´èµ·": 8399,
      "ĠSD": 8400,
      "èĴĭ": 8401,
      "Ġestablished": 8402,
      "Ġderived": 8403,
      "rich": 8404,
      "çļĦæĦıä¹ī": 8405,
      "æĦıåĽ¾": 8406,
      "ĠDr": 8407,
      "document": 8408,
      "Ġagents": 8409,
      "Ġcarcinoma": 8410,
      "hood": 8411,
      "åıĺè¿ģ": 8412,
      "æ³ķå¾ĭè§Ħå®ļ": 8413,
      "Ġincubated": 8414,
      "åŃĿ": 8415,
      "leep": 8416,
      "âī": 8417,
      "å¯Ĩçłģ": 8418,
      "Ġcytokines": 8419,
      "Ġbiomark": 8420,
      "èµ°åĩº": 8421,
      "Ġmeans": 8422,
      "çļĦæľ¬è´¨": 8423,
      "%),": 8424,
      "rup": 8425,
      "çºłæŃ£": 8426,
      "ĠSim": 8427,
      "Ġpossi": 8428,
      "åĲİç»Ń": 8429,
      "éĺ¶æ®µçļĦ": 8430,
      "Ġimpair": 8431,
      "Ġdirec": 8432,
      "æĽ¾ç»ı": 8433,
      "ä½¿åŃ¦çĶŁ": 8434,
      "çĽĹ": 8435,
      "Ġdensity": 8436,
      "èĩªæ²»åĮº": 8437,
      "Ġbeta": 8438,
      "ç§ģäºº": 8439,
      "Ġmacrophages": 8440,
      "å®ĹæĹ¨": 8441,
      "Ġperipheral": 8442,
      "Ġtop": 8443,
      "Ġhypothesis": 8444,
      "çłĶç©¶åĴĮ": 8445,
      "Ġä¸ŃåĽ½": 8446,
      "otic": 8447,
      "group": 8448,
      "Ġscreening": 8449,
      "Ġ**(": 8450,
      "ç¡ħ": 8451,
      "æ¶µçĽĸ": 8452,
      "Ġhyd": 8453,
      "eting": 8454,
      "æĿĤå¿Ĺ": 8455,
      "Ġ22": 8456,
      "ĠMedical": 8457,
      "æľĢä½³": 8458,
      "fold": 8459,
      "Ġmetabolism": 8460,
      "Ġcauses": 8461,
      "ä¹ĭä¸º": 8462,
      "åı¸æ³ķè§£éĩĬ": 8463,
      "èĢĥèĻĳåĪ°": 8464,
      "æīĢæľīåĪ¶": 8465,
      "Ġinterventions": 8466,
      "èĻļåģĩ": 8467,
      "ãĢĭ(": 8468,
      "Ġwhole": 8469,
      "Ġdon": 8470,
      "èĦ±ç¦»": 8471,
      "å±Ī": 8472,
      "åĮ»çĶŁ": 8473,
      "éģĹåĿĢ": 8474,
      "ĠWT": 8475,
      "rolog": 8476,
      "æĢ»ç»Ł": 8477,
      "çłĶç©¶èĢħ": 8478,
      "æļ´åĬĽ": 8479,
      "é«ĺç«¯": 8480,
      "Ġyoung": 8481,
      "çļĦåĪ©çĽĬ": 8482,
      "Ġprote": 8483,
      "SH": 8484,
      "è·ĳ": 8485,
      "icians": 8486,
      "ĠAmeric": 8487,
      "æĸĩä¹¦": 8488,
      "åĲĪéĢĤ": 8489,
      "è¡¨çİ°åĩº": 8490,
      "Ġcorresponding": 8491,
      "æĺİç¡®äºĨ": 8492,
      "åĻªå£°": 8493,
      "Ġlog": 8494,
      "åıĹä½ĵ": 8495,
      "çļĦä¸Ń": 8496,
      "ç¤¾ä¼ļæ²»çĲĨ": 8497,
      "Ġmid": 8498,
      "éľ¸": 8499,
      "cepti": 8500,
      "Ġdri": 8501,
      "Ġalone": 8502,
      "002": 8503,
      "ä¸įå¹³è¡¡": 8504,
      "çº²è¦ģ": 8505,
      "ç²¹": 8506,
      "å»ºæ¨¡": 8507,
      "operative": 8508,
      "Ġrecru": 8509,
      "ĠMRI": 8510,
      "Ġlimit": 8511,
      "çļĦåľ°æĸ¹": 8512,
      "Ġinhibitors": 8513,
      "çļĦéĩįè¦ģæĢ§": 8514,
      "ogenous": 8515,
      "åįģä¸ĥæĿ¡": 8516,
      "ä¿Ŀå¯Ĩ": 8517,
      "åŃ¦æ´¾": 8518,
      "éĽķ": 8519,
      "LP": 8520,
      "çĤ¸": 8521,
      "ä¸įåŃĺåľ¨": 8522,
      "Ġent": 8523,
      "å¯¹çħ§": 8524,
      "Ġadministration": 8525,
      "Ġwild": 8526,
      "Ġconc": 8527,
      "æľīåħ³çļĦ": 8528,
      "åı¯åĪĨä¸º": 8529,
      "2006": 8530,
      "Ġmuch": 8531,
      "æľªç»ı": 8532,
      "Ġimproved": 8533,
      "Ġtog": 8534,
      "immun": 8535,
      "ĠAss": 8536,
      "Ġneuronal": 8537,
      "éĥ¨ä»¶": 8538,
      "èĲ¥ä¸ļ": 8539,
      "ird": 8540,
      "æ³ķå¾ĭçļĦ": 8541,
      "çº¿çļĦ": 8542,
      "åįĵ": 8543,
      "umor": 8544,
      "åĽ°å¢ĥ": 8545,
      "ç¥Ń": 8546,
      "Ġexerc": 8547,
      "ç²ĴåŃĲ": 8548,
      "çĻĮçĹĩ": 8549,
      "Ġaction": 8550,
      "éĴĻ": 8551,
      "ä½ľä¸ºä¸Ģç§į": 8552,
      "å¼¹æĢ§": 8553,
      "ĊĠĠĠ": 8554,
      "çķľ": 8555,
      "ä¾ĽåºĶåķĨ": 8556,
      "Ġtogether": 8557,
      "ç«łç¨ĭ": 8558,
      "è¿ĺåİŁ": 8559,
      "çļĩå¸Ŀ": 8560,
      "Ġposition": 8561,
      "ä¸İæŃ¤åĲĮæĹ¶": 8562,
      "å°ıé¼ł": 8563,
      "æĹĹå¸ľ": 8564,
      "æĭ¨": 8565,
      "Ġpower": 8566,
      "çĲĨè®ºä¸İ": 8567,
      "æķĳæµİ": 8568,
      "å¸¸å¸¸": 8569,
      "å¥łå®ļäºĨ": 8570,
      "ĠComp": 8571,
      "0001": 8572,
      "Ġsignals": 8573,
      "åĽłæŀľ": 8574,
      "æĺİäºĨ": 8575,
      "éĻĲäºİ": 8576,
      "åįļçī©": 8577,
      "lobal": 8578,
      "Ġ48": 8579,
      "éĴ¥": 8580,
      "åĪ·": 8581,
      "echn": 8582,
      "å¼Ģæĭĵ": 8583,
      "ales": 8584,
      "ĠÂµ": 8585,
      "icacy": 8586,
      "åĩ¯": 8587,
      "mL": 8588,
      "åįģäºĶæĿ¡": 8589,
      "è¦ģåĿļæĮģ": 8590,
      "å»¶éķ¿": 8591,
      "åīįèĢħ": 8592,
      "äºĨå¯¹": 8593,
      "åħ¨éĿ¢æ·±åĮĸ": 8594,
      "ĠRT": 8595,
      "çŁ¥è¯ĨåĴĮ": 8596,
      "å®ļéĩı": 8597,
      "é«ĺæ°´å¹³": 8598,
      "éĿĴå°ĳå¹´": 8599,
      "Ġsmok": 8600,
      "ae": 8601,
      "CE": 8602,
      "å·¥ä¼ļ": 8603,
      "ä¹ĭæĹ¥èµ·": 8604,
      "å¹¶åıĳ": 8605,
      "ä¸ªäººçļĦ": 8606,
      "Ġmust": 8607,
      "ä»¤äºº": 8608,
      "æĶ¿åįı": 8609,
      "Ġdeveloping": 8610,
      "ergic": 8611,
      "æĹ¶åĪ»": 8612,
      "æĸ¹å¼ıçļĦ": 8613,
      "Ġelevated": 8614,
      "äºļæ´²": 8615,
      "Ġplat": 8616,
      "éĩįè¦ģçļĦæĺ¯": 8617,
      "åĬŁèĥ½çļĦ": 8618,
      "éĺ²æĬ¤": 8619,
      "åľ³": 8620,
      "èĲ½åĲİ": 8621,
      "çº¦å®ļçļĦ": 8622,
      "çºªå¿µ": 8623,
      "åĸ·": 8624,
      "éĥ½åľ¨": 8625,
      "åĪĨæĶ¯": 8626,
      "åĳ½è¿Ĳåħ±åĲĮä½ĵ": 8627,
      "éķ¿è¿ľ": 8628,
      "Ġcortex": 8629,
      "SF": 8630,
      "Ġinduce": 8631,
      "åįĩé«ĺ": 8632,
      "åĳ¨è¾¹": 8633,
      "Ġplac": 8634,
      "ä¸Ĭæĺ¯": 8635,
      "é£ŀè¡Į": 8636,
      "Ġcombined": 8637,
      "å£°éŁ³": 8638,
      "Ġcontext": 8639,
      "æĢ»æĺ¯": 8640,
      "çŃĶæ¡Ī": 8641,
      "æµĨ": 8642,
      "åıĹçĽĬ": 8643,
      "æļ´éľ²": 8644,
      "ĠAb": 8645,
      "Ġfood": 8646,
      "ĠĠĠĠĠĠĠĠĠĠĠĠĠĠĠĠĠĠĠĠ": 8647,
      "èİ±": 8648,
      "å½±åĥı": 8649,
      "Ġaden": 8650,
      "artment": 8651,
      "é¦ĸè¦ģ": 8652,
      "Ca": 8653,
      "éģ£": 8654,
      "æĹ¶ç©º": 8655,
      "âĳ£": 8656,
      "Ġcycl": 8657,
      "è´¯å½»èĲ½å®ŀ": 8658,
      "ÂłÂł": 8659,
      "æĢķ": 8660,
      "æ°Ķè±¡": 8661,
      "åħ¶ä¸ŃçļĦ": 8662,
      "inflammatory": 8663,
      "Ġunderlying": 8664,
      "[^": 8665,
      "Ġlat": 8666,
      "æķĻå¸ĪçļĦ": 8667,
      "......": 8668,
      "åĽŀé¡¾": 8669,
      "æĸĳ": 8670,
      "çĶŁäº§çļĦ": 8671,
      "ç¤¾ä¼ļä¸»ä¹īæł¸å¿ĥä»·åĢ¼è§Ĥ": 8672,
      "å¸¦æĿ¥äºĨ": 8673,
      "çīĪæľ¬": 8674,
      "Ġstrains": 8675,
      "åįģåħ«æĿ¡": 8676,
      "den": 8677,
      "é¤Ĳ": 8678,
      "æ¨¡ç³Ĭ": 8679,
      "æ·±åľ³": 8680,
      "Ġalcohol": 8681,
      "Ġphenotype": 8682,
      "èģĶåĬ¨": 8683,
      "æ¸Ķ": 8684,
      "Ġparen": 8685,
      "Ġterms": 8686,
      "çŁ©éĺµ": 8687,
      "Ġcomplete": 8688,
      "Ġadi": 8689,
      "Ġenhanced": 8690,
      "Ġrecently": 8691,
      "Ġmeasurements": 8692,
      "Ġsaf": 8693,
      "Ġpoints": 8694,
      "åıĸåĲĳ": 8695,
      "çļĦèĮĥåĽ´": 8696,
      "ä¸įäºĪ": 8697,
      "ä¾Ľç»Ļä¾§": 8698,
      "æĸ°ä¸ŃåĽ½æĪĲç«ĭ": 8699,
      "CIT": 8700,
      "Ġconsider": 8701,
      "é£ŀæľº": 8702,
      "ĠInstitute": 8703,
      "Ġcapac": 8704,
      "ĠPT": 8705,
      "æĭĺ": 8706,
      "ä¿¡æģ¯ç³»ç»Ł": 8707,
      "ä½ľé£İ": 8708,
      "éļıåĲİ": 8709,
      "éļĶç¦»": 8710,
      "çļĦçİ°è±¡": 8711,
      "åıĸæ¶Ī": 8712,
      "æĹ¢è¦ģ": 8713,
      "pp": 8714,
      "etic": 8715,
      "æ°ĽåĽ´": 8716,
      "åīįåĲİ": 8717,
      "äºĶä¸ª": 8718,
      "çļĦçĲĨè§£": 8719,
      "enz": 8720,
      "èĲ½åľ°": 8721,
      "Ġdesigned": 8722,
      "ç¥ĸåĽ½": 8723,
      "Ġessential": 8724,
      "ä¸Ļ": 8725,
      "è´¤": 8726,
      "äººæķ°": 8727,
      "ä¹łè¿ĳå¹³æĢ»ä¹¦è®°åľ¨": 8728,
      "æ·±è¿ľ": 8729,
      "åħļçļĦå»ºè®¾": 8730,
      "ä»¥ä¹łè¿ĳå¹³åĲĮå¿Ĺä¸ºæł¸å¿ĥçļĦåħļä¸Ńå¤®": 8731,
      "éķ¿åº¦": 8732,
      "åħ±äº§ä¸»ä¹ī": 8733,
      "åĪĿçº§": 8734,
      "ilt": 8735,
      "æĽ´å¥½çļĦ": 8736,
      "Ġcertain": 8737,
      "ii": 8738,
      "emic": 8739,
      "Ġmel": 8740,
      "co": 8741,
      "çŃīé¢ĨåŁŁ": 8742,
      "çļĦåŃĺåľ¨": 8743,
      "Ġaccess": 8744,
      "æķĪèĥ½": 8745,
      "åıĺæį¢": 8746,
      "å®ŀä½ĵç»ıæµİ": 8747,
      "ç¾İä¸½": 8748,
      "ç§ĳåŃ¦éĻ¢": 8749,
      "åĨĴ": 8750,
      "åĬ©åĬĽ": 8751,
      "äººçĶŁ": 8752,
      "èĪĴ": 8753,
      "åĬ¿åĬĽ": 8754,
      "IR": 8755,
      "ç»ĵæŀĦåĴĮ": 8756,
      "ĠPre": 8757,
      "cers": 8758,
      "èĩ´åĬĽ": 8759,
      "Ġbre": 8760,
      "åįģä¹ĿæĿ¡": 8761,
      "Ġlay": 8762,
      "å¹´åºķ": 8763,
      "å¹¶å¯¹": 8764,
      "âĦĥ": 8765,
      "otal": 8766,
      "GFR": 8767,
      "çļĦå®ŀéĻħ": 8768,
      "è¿ľç¨ĭ": 8769,
      "Ġtemperature": 8770,
      "Ġproperties": 8771,
      "çļĦè§ĤçĤ¹": 8772,
      "ç»Ħä»¶": 8773,
      "Ġobj": 8774,
      "ç¤¾ä¼ļä¸»ä¹īå¸Ĥåľºç»ıæµİ": 8775,
      "åı¯éĿłæĢ§": 8776,
      "å¸¸åĬ¡": 8777,
      "æ¶ĪçģŃ": 8778,
      "äºĴèģĶ": 8779,
      "éļ¾çĤ¹": 8780,
      "åŁ¹åħ»åŃ¦çĶŁ": 8781,
      "Ġcompos": 8782,
      "Ġactivities": 8783,
      "å®¶éķ¿": 8784,
      "ĠSh": 8785,
      "åľ¨å¯¹": 8786,
      "éľį": 8787,
      "Ġapproaches": 8788,
      "Ġtechniques": 8789,
      "åĽŀåºĶ": 8790,
      "åħ¬è·¯": 8791,
      "æĢ»é¢Ŀ": 8792,
      "æ±¡æŁĵçī©": 8793,
      "æĢ»ä¹ĭ": 8794,
      "Pro": 8795,
      "Ġapproved": 8796,
      "ç¾İåĽ½çļĦ": 8797,
      "taining": 8798,
      "Ġwhat": 8799,
      "Ġblot": 8800,
      "æıĲåīį": 8801,
      "Ġsignificance": 8802,
      "èĤ¢": 8803,
      "åĿĲæłĩ": 8804,
      "åħ¨éĿ¢å»ºæĪĲå°ıåº·ç¤¾ä¼ļ": 8805,
      "roke": 8806,
      "Ġdysfunction": 8807,
      "çļĦå®ŀè·µ": 8808,
      "LT": 8809,
      "åĪĨè¾¨": 8810,
      "au": 8811,
      "ç¿¼": 8812,
      "æĢģåĬ¿": 8813,
      "åħ¬åħĥ": 8814,
      "åıĳèµ·": 8815,
      "æĶ¶è´Ń": 8816,
      "æµģåĬ¨æĢ§": 8817,
      "é¸Ł": 8818,
      "åĬ³åĬ¡": 8819,
      "çĶµç£ģ": 8820,
      "åıįå°Ħ": 8821,
      "å¹²ç»Ĩèĥŀ": 8822,
      "èĢ¦": 8823,
      "å®¡è®®": 8824,
      "olesterol": 8825,
      "çī©ç§į": 8826,
      "çļĦéĩįè¦ģç»ĦæĪĲéĥ¨åĪĨ": 8827,
      "Ġcontent": 8828,
      "å»¶ç»Ń": 8829,
      "è¯ĹæŃĮ": 8830,
      "ĈĈ": 8831,
      "åĪ°åºķ": 8832,
      "åĨľæĪ·": 8833,
      "åĩłç§į": 8834,
      "æİ¨çĲĨ": 8835,
      "åĪĨæ³Į": 8836,
      "Ġconcer": 8837,
      "æĺİç¡®çļĦ": 8838,
      "ä¼Ļä¼´": 8839,
      "æĿł": 8840,
      "äº©": 8841,
      "ç¬¬äºĮæ¬¡": 8842,
      "çĲĨè®ºåĴĮ": 8843,
      "ä¸ŃåĽ½ç»ıæµİ": 8844,
      "æĮĩåĲĳ": 8845,
      "ground": 8846,
      "Ġappropriate": 8847,
      "derived": 8848,
      "irus": 8849,
      "\"}),": 8850,
      "åľ¨åĨħçļĦ": 8851,
      "çļĦä¸Ģéĥ¨åĪĨ": 8852,
      "Ġcommunity": 8853,
      "æľŁåĪĬ": 8854,
      "Ġshowing": 8855,
      "çİĭæľĿ": 8856,
      "æĶ¾å°Ħ": 8857,
      "Ġreference": 8858,
      "SV": 8859,
      "éĩıåĮĸ": 8860,
      "çĿĢçľ¼": 8861,
      "pect": 8862,
      "æĦıæĦ¿": 8863,
      "ijms": 8864,
      "å¢ĥçķĮ": 8865,
      "ä½¿çĶ¨æĿĥ": 8866,
      "ãĢį": 8867,
      "ä»ĬåĲİ": 8868,
      "åĬ¨åĳĺ": 8869,
      "ãĢĮ": 8870,
      "Ġâī¥": 8871,
      "æĪĲçļĦ": 8872,
      "åıĺåĮĸçļĦ": 8873,
      "çİ»": 8874,
      "Ġoverex": 8875,
      "è¿ª": 8876,
      "FA": 8877,
      "Ġfree": 8878,
      "å°ºå¯¸": 8879,
      "Ġintensity": 8880,
      "äº§èĥ½": 8881,
      "æľŁçļĦ": 8882,
      "æĤ²": 8883,
      "çħ¤çĤŃ": 8884,
      "Ġphosphorylation": 8885,
      "æīŃ": 8886,
      "Ġult": 8887,
      "éģĩåĪ°": 8888,
      "å®īåħ¨æĢ§": 8889,
      "æĸ°å¢ŀ": 8890,
      "Ġsurgical": 8891,
      "æľĢéĩįè¦ģçļĦ": 8892,
      "duce": 8893,
      "king": 8894,
      "æĤ¬": 8895,
      "å®ŀäºĭ": 8896,
      "ä¹¦åĨĻ": 8897,
      "Ġconsequ": 8898,
      "è¢«è®¤ä¸º": 8899,
      "åįĹåĮĹ": 8900,
      "æĸ¹çļĦ": 8901,
      "Ġrelatively": 8902,
      "oz": 8903,
      "reshold": 8904,
      "Ġproduced": 8905,
      "å¸ĮèħĬ": 8906,
      "çłĶåĪ¶": 8907,
      "è¢«åĬ¨": 8908,
      "Ġear": 8909,
      "Ġregard": 8910,
      "æĶ¾å¤§": 8911,
      "éĢŁçİĩ": 8912,
      "æĸĩåĮĸéģĹäº§": 8913,
      "Ġdos": 8914,
      "ä¸ŃåĽ½å¼ıçİ°ä»£åĮĸ": 8915,
      "Ġventric": 8916,
      "åİŁæĸĻ": 8917,
      "HA": 8918,
      "æĸ°å¾ģç¨ĭ": 8919,
      "neum": 8920,
      "èµ¶": 8921,
      "åĪ°è¾¾": 8922,
      "Ġalong": 8923,
      "é«ĺèģĮ": 8924,
      "æ»ĭ": 8925,
      "ç§Ĵ": 8926,
      "çłĶç©¶ä¸Ńå¿ĥ": 8927,
      "è¯ŀçĶŁ": 8928,
      "ĠNe": 8929,
      "éģŃåıĹ": 8930,
      "Ġprocedure": 8931,
      "ç»ĵç®Ĺ": 8932,
      "ç´¯è®¡": 8933,
      "æĹ¶éĹ´çļĦ": 8934,
      "ories": 8935,
      "ç«Ļåľ¨": 8936,
      "éĥ½åı¯ä»¥": 8937,
      "åıĪæĺ¯": 8938,
      "åĴĮåĪĽæĸ°": 8939,
      "luded": 8940,
      "ĠNF": 8941,
      "ä¸įç¬¦åĲĪ": 8942,
      "ä¼ģä¸ļåľ¨": 8943,
      "Ġmedian": 8944,
      "æĬĽ": 8945,
      "æĽ´é«ĺçļĦ": 8946,
      "Ġsix": 8947,
      "ç®¡æİ§": 8948,
      "ç»Ħç»ĩåĴĮ": 8949,
      "urg": 8950,
      "Ġemploy": 8951,
      "Ġele": 8952,
      "éĩįå»º": 8953,
      "elf": 8954,
      "erase": 8955,
      "åĮħå®¹": 8956,
      "æľºåĬ¨": 8957,
      "çĽ¸éĢĤåºĶ": 8958,
      "å¹´ç¬¬": 8959,
      "çĶŁèĤ²": 8960,
      "Ġnecessary": 8961,
      "ĠThey": 8962,
      "åħ¸åŀĭçļĦ": 8963,
      "å®¾": 8964,
      "Ġhumans": 8965,
      "åĳ¨å¹´": 8966,
      "Ġmarker": 8967,
      "Ġduration": 8968,
      "Ġneural": 8969,
      "ĠWhen": 8970,
      "å®¶çļĦ": 8971,
      "US": 8972,
      "åĽ½åľŁ": 8973,
      "å°±æĺ¯è¦ģ": 8974,
      "eral": 8975,
      "å®ŀçİ°çļĦ": 8976,
      "2004": 8977,
      "ä¸įåĲĮäºİ": 8978,
      "Ġey": 8979,
      "Ġnuclear": 8980,
      "Ġappear": 8981,
      "å½¢çĬ¶": 8982,
      "Ġexpected": 8983,
      "åĨ³å®ļçļĦ": 8984,
      "Ġload": 8985,
      "æ¶Īå¤±": 8986,
      "å¯º": 8987,
      "æľĢæĸ°": 8988,
      "åĪ¶å¤ĩ": 8989,
      "è¦ģæ±ĤçļĦ": 8990,
      "è´ŁéĿ¢": 8991,
      "éĿĻèĦī": 8992,
      "Ġkidney": 8993,
      "PR": 8994,
      "ç½Ĺé©¬": 8995,
      "Ġdisplay": 8996,
      "åıĮéĩį": 8997,
      "çĬ¯ç½ªçļĦ": 8998,
      "å£³": 8999,
      "Ġreli": 9000,
      "ä¸įä»ħä»ħ": 9001,
      "è¿Ļæ¬¡": 9002,
      "åĮĸåĲĪçī©": 9003,
      "Ġexperience": 9004,
      "ĠNK": 9005,
      "åĢ¼çļĦ": 9006,
      "Ġaltern": 9007,
      "æįŁå®³èµĶåģ¿": 9008,
      "çĥŃçĤ¹": 9009,
      "Ġlength": 9010,
      "æĪĳä»¬åľ¨": 9011,
      "çĤİçĹĩ": 9012,
      "ç´«": 9013,
      "ious": 9014,
      "Ġeng": 9015,
      "ä½ľåĩºäºĨ": 9016,
      "èĳ¡": 9017,
      "èĥ°": 9018,
      "cal": 9019,
      "å¤ļåħĥåĮĸ": 9020,
      "çĽĳçĿ£ç®¡çĲĨ": 9021,
      "éĶĲ": 9022,
      "last": 9023,
      "mia": 9024,
      "æı´åĬ©": 9025,
      "pective": 9026,
      "Ġfull": 9027,
      "ä»£æĽ¿": 9028,
      "é©¬åħĭæĢĿä¸»ä¹īä¸ŃåĽ½": 9029,
      "Ġsw": 9030,
      "å¢ŀéķ¿çļĦ": 9031,
      "ç¦»å©ļ": 9032,
      "æķĳåĬ©": 9033,
      "Ġrather": 9034,
      "ights": 9035,
      "Ġestimated": 9036,
      "ils": 9037,
      "ĠLe": 9038,
      "å·¥ä½ľèĢħ": 9039,
      "åįģåĽĽäºĶ": 9040,
      "Ġsuscepti": 9041,
      "Ġtreat": 9042,
      "ç»ĨåĮĸ": 9043,
      "ostic": 9044,
      "çªĦ": 9045,
      "åħ¨éĿ¢ä»İä¸¥": 9046,
      "ured": 9047,
      "å°½éĩı": 9048,
      "ç±»çļĦ": 9049,
      "åħ¨éĿ¢åıĳå±ķ": 9050,
      "æ¼ĶåĮĸ": 9051,
      "ç¼ºå¤±": 9052,
      "Ġmutant": 9053,
      "here": 9054,
      "--------------------------------------------------------------------------------------------------------------------------------": 9055,
      "æľīä¸Ģ": 9056,
      "Ġclos": 9057,
      "æ°´åĪ©": 9058,
      "Ġmotor": 9059,
      "åĳĬçŁ¥": 9060,
      "Ġwid": 9061,
      "éĺ¶å±Ĥ": 9062,
      "æ°¸è¿ľ": 9063,
      "æīĭæľº": 9064,
      "ä¸ĭéĿ¢": 9065,
      "Ġassays": 9066,
      "Ġproblems": 9067,
      "Ġhaving": 9068,
      "çīº": 9069,
      "å¼Ĥè®®": 9070,
      "Ġä»İ": 9071,
      "çªģåıĳ": 9072,
      "uth": 9073,
      "éĥ¨éĹ¨çļĦ": 9074,
      "2003": 9075,
      "TO": 9076,
      "å½¼æŃ¤": 9077,
      "ME": 9078,
      "å¹³æĸ¹": 9079,
      "ç¼ºå°ĳ": 9080,
      "Ġgran": 9081,
      "åĮĢ": 9082,
      "åĽĽå·Ŀ": 9083,
      "ç»ĦæĪĲçļĦ": 9084,
      "hyd": 9085,
      "ç±»åĪ«": 9086,
      "Ġsoftware": 9087,
      "Ġlearning": 9088,
      "plantation": 9089,
      "è¿Ľç¨ĭä¸Ń": 9090,
      "}\\": 9091,
      "åĭĺ": 9092,
      "mb": 9093,
      "ç¨ĭåº¦çļĦ": 9094,
      "éĺ»ç¢į": 9095,
      "å¯¹è±¡çļĦ": 9096,
      "ä¹īåĬ¡æķĻèĤ²": 9097,
      "æľĢå°ı": 9098,
      "æ´»è·ĥ": 9099,
      "ä¹ĭå¤§": 9100,
      "åħīè°±": 9101,
      "ç¥ŀç»ıåħĥ": 9102,
      "åĪłéĻ¤": 9103,
      "Ġtranscrip": 9104,
      "åĢŁè´·": 9105,
      "BL": 9106,
      "oti": 9107,
      "éĥŃ": 9108,
      "Ġcluster": 9109,
      "Ġindicating": 9110,
      "ç¼©å°ı": 9111,
      "Ġbiop": 9112,
      "***": 9113,
      "ä»¥ä¸ĭç®Ģç§°": 9114,
      "ç¬¬ä¹Ŀ": 9115,
      "Ġwater": 9116,
      "Ġrecogn": 9117,
      "ç»ĺçĶ»": 9118,
      "ä¸Ĭçľĭ": 9119,
      "èµ·ä¹ī": 9120,
      "æ»´": 9121,
      "Ac": 9122,
      "è¿Ļä¸¤ä¸ª": 9123,
      "å¢ŀå¤§": 9124,
      "åĴĮç»ıæµİ": 9125,
      "PE": 9126,
      "è¿ĺéľĢè¦ģ": 9127,
      "åĩ¸æĺ¾": 9128,
      "æĬĢå·§": 9129,
      "known": 9130,
      "åĽ¾çīĩ": 9131,
      "Ġcourse": 9132,
      "ä¸įä»ħæĺ¯": 9133,
      "uter": 9134,
      "çħĮ": 9135,
      "è¾ĥå°ĳ": 9136,
      "éĩįçļĦ": 9137,
      "Ġsequences": 9138,
      "å®¹åĻ¨": 9139,
      "sm": 9140,
      "æºĲäºİ": 9141,
      "æº¶æ¶²": 9142,
      "åħħåĪĨåĪ©çĶ¨": 9143,
      "æīİå®ŀ": 9144,
      "Ġfra": 9145,
      "yth": 9146,
      "éĻµ": 9147,
      "è·¨è¶Ĭ": 9148,
      "ç¥¨æį®": 9149,
      "IO": 9150,
      "å®ŀè¯ģ": 9151,
      "Ġalpha": 9152,
      "ä»¥ä¸º": 9153,
      "çļ®èĤ¤": 9154,
      "çļĦä¼Łå¤§": 9155,
      "çĶŁç´ł": 9156,
      "ä¸įä½Ĩ": 9157,
      "Ġbir": 9158,
      "åĸ»": 9159,
      "å¹¿å·ŀ": 9160,
      "Ġapplication": 9161,
      "é¢Ħè®¡": 9162,
      "çīĪæĿĥ": 9163,
      "æłª": 9164,
      "poral": 9165,
      "çĽ¸ä¿¡": 9166,
      "åıĪæľī": 9167,
      "beta": 9168,
      "Ġreaction": 9169,
      "æī¿è½½": 9170,
      "è¿«åĪĩ": 9171,
      "è£ģåĨ³": 9172,
      "åĲĪä¼Ļ": 9173,
      "æŃ¤ç±»": 9174,
      "cium": 9175,
      "é«ĺåº¦éĩįè§Ĩ": 9176,
      "Ġcut": 9177,
      "çĿ¡": 9178,
      "è¿ĲåĬ¨çļĦ": 9179,
      "æĸ¹æ³ķåĴĮ": 9180,
      "Ġgood": 9181,
      "åŀĴ": 9182,
      "Ġway": 9183,
      "è°ĥåº¦": 9184,
      "Ġhead": 9185,
      "çļĦè´£ä»»": 9186,
      "åľ¨ä¸įåĲĮ": 9187,
      "å¦Ĥä»Ĭ": 9188,
      "encies": 9189,
      "urop": 9190,
      "æ»¥çĶ¨": 9191,
      "åį¢": 9192,
      "Ġ28": 9193,
      "çĶ³æĬ¥": 9194,
      "æĲ¬": 9195,
      "èĩ´åĬĽäºİ": 9196,
      "ash": 9197,
      "æĸ¯åĿ¦": 9198,
      "Ġcomponent": 9199,
      "ets": 9200,
      "ç¢°": 9201,
      "Ġpanc": 9202,
      "Ġmeasurement": 9203,
      "Ġadded": 9204,
      "çīºçī²": 9205,
      "åĳĬè¯ī": 9206,
      "120": 9207,
      "è¥¿åĮĹ": 9208,
      "åİĭç¼©": 9209,
      "Ġhorm": 9210,
      "è¯Ħè®º": 9211,
      "Ġseverity": 9212,
      "Ġenergy": 9213,
      "æĮģæľī": 9214,
      "çļĦä¸»ä½ĵ": 9215,
      "åľ°éĿ¢": 9216,
      "æķ¦": 9217,
      "èĮĥå¼ı": 9218,
      "åĩºäºİ": 9219,
      "æĹłéĻĲ": 9220,
      "åĪ¶å®ļçļĦ": 9221,
      "å¯¿åĳ½": 9222,
      "HT": 9223,
      "ocamp": 9224,
      "è¡ĮæĶ¿å¤Ħç½ļ": 9225,
      "é©³": 9226,
      "Ġimportance": 9227,
      "ä¸įéľĢè¦ģ": 9228,
      "Ġonset": 9229,
      "è±ª": 9230,
      "ologies": 9231,
      "å¹¿æ³ĽçļĦ": 9232,
      "ĠĠĠĠĠĠĠĠĠĠĠĠĠĠĠĠĠĠĠĠĠ": 9233,
      "æ¨¡åŀĭçļĦ": 9234,
      "å³»": 9235,
      "xt": 9236,
      "å¤©æ´¥": 9237,
      "Ġknock": 9238,
      "å¯ĨéĽĨ": 9239,
      "Ġsitu": 9240,
      "Ġmatrix": 9241,
      "åĴĮæĸĩåĮĸ": 9242,
      "åıĺå¼Ĥ": 9243,
      "Ġcultured": 9244,
      "æµ¸": 9245,
      "Ġefficacy": 9246,
      "åºŀ": 9247,
      "æľºçĲĨ": 9248,
      "éĻ¤å¤ĸ": 9249,
      "éģĤ": 9250,
      "å¾Īå°ĳ": 9251,
      "Ġcancers": 9252,
      "éŁ§": 9253,
      "Ġdistinct": 9254,
      "æĽ´å¤§çļĦ": 9255,
      "å¤®è¡Į": 9256,
      "çŃīåĽłç´ł": 9257,
      "èĩªæĦ¿": 9258,
      "æĮģä¹ħ": 9259,
      "ava": 9260,
      "rine": 9261,
      "stric": 9262,
      "elines": 9263,
      "arily": 9264,
      "Ġarticle": 9265,
      "âĢĿãĢģ": 9266,
      "æ¬£": 9267,
      "å½±åĵįçļĦ": 9268,
      "Ġmental": 9269,
      "çĶŁäº§ç»ıèĲ¥": 9270,
      "Ġcost": 9271,
      "äº§ä¸ļç»ĵæŀĦ": 9272,
      "æĸ°çĸĨ": 9273,
      "Ġside": 9274,
      "Wh": 9275,
      "ä»»æĦı": 9276,
      "èŀº": 9277,
      "çĽ¸å½ĵäºİ": 9278,
      "åĶ¯çī©ä¸»ä¹ī": 9279,
      "å·²ç»ıæĪĲä¸º": 9280,
      "æł¼æĸ¯": 9281,
      "åı¯è¡Į": 9282,
      "åĳĪçİ°åĩº": 9283,
      "ä¸Ńå°ıåŃ¦": 9284,
      "æĦ¿æĦı": 9285,
      "æĿłæĿĨ": 9286,
      "Ġexercise": 9287,
      "Ġintracellular": 9288,
      "ąĆ": 9289,
      "çķĮéĿ¢": 9290,
      "å®ŀæĸ½çļĦ": 9291,
      "atient": 9292,
      "æĺ¯ä¸ºäºĨ": 9293,
      "çĦĬ": 9294,
      "ä¸ĵçĶ¨": 9295,
      "è¥¿èĹı": 9296,
      "æķĻèĤ²æķĻåŃ¦": 9297,
      "ä¹ĭä¸Ĭ": 9298,
      "è¡ĮæĶ¿ç®¡çĲĨ": 9299,
      "æ±¡æ°´": 9300,
      "Ġcountries": 9301,
      "äººä¸İèĩªçĦ¶": 9302,
      "otyp": 9303,
      "Ġsleep": 9304,
      "æİ¨åĩº": 9305,
      "å¤§çº¦": 9306,
      "è¡¨çİ°åľ¨": 9307,
      "ä¼ĺèī¯": 9308,
      "isted": 9309,
      "éĢĢåĩº": 9310,
      "media": 9311,
      "åįļçī©é¦Ĩ": 9312,
      "LE": 9313,
      "å®ŀåĬ¡": 9314,
      "åľ¨åħ¨åĽ½": 9315,
      "å¤įè®®": 9316,
      "ochemical": 9317,
      "lasts": 9318,
      "ulted": 9319,
      "çĹħçĲĨ": 9320,
      "ä¸Ĭå¸Ĥåħ¬åı¸": 9321,
      "å®īåħ¨çļĦ": 9322,
      "Ġmuc": 9323,
      "ä¼ĺæĥł": 9324,
      "çªĥ": 9325,
      "Ġpoly": 9326,
      "ä¸įç§»": 9327,
      "GT": 9328,
      "åħ¶åľ¨": 9329,
      "day": 9330,
      "æ£Ģç´¢": 9331,
      "Ġamount": 9332,
      "å®ļä»·": 9333,
      "Ġdil": 9334,
      "åĬłåī§": 9335,
      "Ġcoron": 9336,
      "ç®Ń": 9337,
      "ĠNO": 9338,
      "rit": 9339,
      "åįķä¸ª": 9340,
      "çļĦè¯Ŀ": 9341,
      "åı¯åĨįçĶŁ": 9342,
      "ĠTGF": 9343,
      "ç¦»ä¸įå¼Ģ": 9344,
      "éĺ²å¾¡": 9345,
      "ĊĊ": 9346,
      "Ġdemonstrate": 9347,
      "ç¾İåŃ¦": 9348,
      "lab": 9349,
      "Ġgenome": 9350,
      "æĬĹæĪĺ": 9351,
      "æ¯ķä¸ļçĶŁ": 9352,
      "Ġmitochondrial": 9353,
      "icial": 9354,
      "frac": 9355,
      "ĠDe": 9356,
      "å°ģéĹŃ": 9357,
      "Ġ--------------------------------": 9358,
      "armac": 9359,
      "æĻ¯è§Ĥ": 9360,
      "å»ºç«ĭåľ¨": 9361,
      "çİ°æľīçļĦ": 9362,
      "oxid": 9363,
      "èİ·å¾ĹäºĨ": 9364,
      "ä¸ŃåŃ¦": 9365,
      "è¿Ļä¹Łæĺ¯": 9366,
      "å°ıç»ĵ": 9367,
      "çļĦä¸Ģé¡¹": 9368,
      "åĨľä¸ļåĨľæĿĳ": 9369,
      "çļĦæĢ»": 9370,
      "æĢ§éĹ®é¢ĺ": 9371,
      "Ġlater": 9372,
      "ä¸ŃæĸŃ": 9373,
      "åľ°çĤ¹": 9374,
      "Ġprocessing": 9375,
      "Ġ23": 9376,
      "Ġdepression": 9377,
      "åĿļå¼º": 9378,
      "è¡ĮæĶ¿åĮº": 9379,
      "Ġmetastasis": 9380,
      "ĠÂ°": 9381,
      "æĦıä¹īä¸ĬçļĦ": 9382,
      "æ³¨åħ¥": 9383,
      "Ġç¬¬ä¸ĢèĬĤ": 9384,
      "Ġapproximately": 9385,
      "é¼»": 9386,
      "Ġeffec": 9387,
      "å¿«éĢŁåıĳå±ķ": 9388,
      "Ġnat": 9389,
      "é¢ľèī²": 9390,
      "èĩªçĦ¶èµĦæºĲ": 9391,
      "Ġnumbers": 9392,
      "æĶ¶åĪ°": 9393,
      "æ¸ħç®Ĺ": 9394,
[...]
