{
  "version": "1.0",
  "truncation": null,
  "padding": null,
  "added_tokens": [
    {
      "id": 0,
      "content": "<|endoftext|>",
      "single_word": false,
      "lstrip": false,
      "rstrip": false,
      "normalized": false,
      "special": true
    },
    {
      "id": 1,
      "content": "<|im_user|>",
      "single_word": false,
      "lstrip": false,
      "rstrip": false,
      "normalized": false,
      "special": true
    },
    {
      "id": 2,
      "content": "<|im_assistant|>",
      "single_word": false,
      "lstrip": false,
      "rstrip": false,
      "normalized": false,
      "special": true
    },
    {
      "id": 3,
      "content": "<|im_end|>",
      "single_word": false,
      "lstrip": false,
      "rstrip": false,
      "normalized": false,
      "special": true
    }
  ],
  "normalizer": null,
  "pre_tokenizer": {
    "type": "ByteLevel",
    "add_prefix_space": false,
    "trim_offsets": true,
    "use_regex": true
  },
  "post_processor": {
    "type": "ByteLevel",
    "add_prefix_space": true,
    "trim_offsets": false,
    "use_regex": true
  },
  "decoder": {
    "type": "ByteLevel",
    "add_prefix_space": true,
    "trim_offsets": true,
    "use_regex": true
  },
  "model": {
    "type": "BPE",
    "dropout": null,
    "unk_token": null,
    "continuing_subword_prefix": null,
    "end_of_word_suffix": null,
    "fuse_unk": false,
    "byte_fallback": false,
    "ignore_merges": false,
    "vocab": {
      "<|endoftext|>": 0,
      "<|im_user|>": 1,
      "<|im_assistant|>": 2,
      "<|im_end|>": 3,
      "!": 4,
      "\"": 5,
      "#": 6,
      "%": 7,
      "&": 8,
      "'": 9,
      "(": 10,
      ")": 11,
      "*": 12,
      "+": 13,
      ",": 14,
      "-": 15,
      ".": 16,
      "/": 17,
      "0": 18,
      "1": 19,
      "2": 20,
      "3": 21,
      "4": 22,
      "5": 23,
      "6": 24,
      "7": 25,
      "8": 26,
      "9": 27,
      ":": 28,
      ";": 29,
      "<": 30,
      "=": 31,
      ">": 32,
      "?": 33,
      "@": 34,
      "A": 35,
      "B": 36,
      "C": 37,
      "D": 38,
      "E": 39,
      "F": 40,
      "G": 41,
      "H": 42,
      "I": 43,
      "J": 44,
      "K": 45,
      "L": 46,
      "M": 47,
      "N": 48,
      "O": 49,
      "P": 50,
      "Q": 51,
      "R": 52,
      "S": 53,
      "T": 54,
      "U": 55,
      "V": 56,
      "W": 57,
      "X": 58,
      "Y": 59,
      "Z": 60,
      "[": 61,
      "\\": 62,
      "]": 63,
      "^": 64,
      "_": 65,
      "`": 66,
      "a": 67,
      "b": 68,
      "c": 69,
      "d": 70,
      "e": 71,
      "f": 72,
      "g": 73,
      "h": 74,
      "i": 75,
      "j": 76,
      "k": 77,
      "l": 78,
      "m": 79,
      "n": 80,
      "o": 81,
      "p": 82,
      "q": 83,
      "r": 84,
      "s": 85,
      "t": 86,
      "u": 87,
      "v": 88,
      "w": 89,
      "x": 90,
      "y": 91,
      "z": 92,
      "{": 93,
      "|": 94,
      "}": 95,
      "~": 96,
      "¡": 97,
      "¢": 98,
      "£": 99,
      "¤": 100,
      "¥": 101,
      "¦": 102,
      "§": 103,
      "¨": 104,
      "©": 105,
      "ª": 106,
      "«": 107,
      "¬": 108,
      "®": 109,
      "¯": 110,
      "°": 111,
      "±": 112,
      "²": 113,
      "³": 114,
      "´": 115,
      "µ": 116,
      "¶": 117,
      "·": 118,
      "¸": 119,
      "¹": 120,
      "º": 121,
      "»": 122,
      "¼": 123,
      "½": 124,
      "¾": 125,
      "¿": 126,
      "Â": 127,
      "Ã": 128,
      "Ä": 129,
      "Å": 130,
      "Ç": 131,
      "É": 132,
      "Ê": 133,
      "Ë": 134,
      "Ì": 135,
      "Ð": 136,
      "Ñ": 137,
      "Ò": 138,
      "à": 139,
      "á": 140,
      "â": 141,
      "ã": 142,
      "ä": 143,
      "å": 144,
      "æ": 145,
      "ç": 146,
      "è": 147,
      "é": 148,
      "ê": 149,
      "ë": 150,
      "ì": 151,
      "í": 152,
      "ï": 153,
      "ð": 154,
      "ó": 155,
      "Ĉ": 156,
      "Ċ": 157,
      "Ġ": 158,
      "Ģ": 159,
      "ģ": 160,
      "Ĥ": 161,
      "ĥ": 162,
      "Ħ": 163,
      "ħ": 164,
      "Ĩ": 165,
      "ĩ": 166,
      "Ī": 167,
      "ī": 168,
      "Ĭ": 169,
      "ĭ": 170,
      "Į": 171,
      "į": 172,
      "İ": 173,
      "ı": 174,
      "Ĳ": 175,
      "ĳ": 176,
      "Ĵ": 177,
      "ĵ": 178,
      "Ķ": 179,
      "ķ": 180,
      "ĸ": 181,
      "Ĺ": 182,
      "ĺ": 183,
      "Ļ": 184,
      "ļ": 185,
      "Ľ": 186,
      "ľ": 187,
      "Ŀ": 188,
      "ŀ": 189,
      "Ł": 190,
      "ł": 191,
      "Ń": 192,
      "ï¼": 193,
      "ä¸": 194,
      "ï¼Į": 195,
      "ãĢ": 196,
      "äº": 197,
      "çļ": 198,
      "çļĦ": 199,
      "å®": 200,
      "ãĢĤ": 201,
      "åħ": 202,
      "åĲ": 203,
      "ä¹": 204,
      "ä»": 205,
      "å¹": 206,
      "æľ": 207,
      "å¤": 208,
      "åı": 209,
      "çĶ": 210,
      "æĹ": 211,
      "å¹´": 212,
      "æĪ": 213,
      "åľ": 214,
      "æŃ": 215,
      "åĽ": 216,
      "å°": 217,
      "åĪ": 218,
      "åĨ": 219,
      "è¿": 220,
      "ç»": 221,
      "æĿ": 222,
      "å®¶": 223,
      "æ°": 224,
      "æĺ": 225,
      "ä½": 226,
      "åį": 227,
      "ä¸º": 228,
      "ï¼Ī": 229,
      "ï¼ī": 230,
      "åĬ": 231,
      "âĢ": 232,
      "æĶ": 233,
      "ä¿": 234,
      "ãĢģ": 235,
      "åŁ": 236,
      "å·": 237,
      "ä¸Ģ": 238,
      "ä¹ĭ": 239,
      "æĸ": 240,
      "éķ": 241,
      "èĩ": 242,
      "åº": 243,
      "åľ¨": 244,
      "çĶ°": 245,
      "å±": 246,
      "åŁİ": 247,
      "åĲİ": 248,
      "å¤§": 249,
      "æ°ı": 250,
      "éķ¿": 251,
      "ç§": 252,
      "ä¼": 253,
      "å¾": 254,
      "ä¿¡": 255,
      "æĪĺ": 256,
      "å¯": 257,
      "åĩ": 258,
      "åŃ": 259,
      "åĨĽ": 260,
      "åĽ½": 261,
      "éĩ": 262,
      "æĺ¯": 263,
      "æī": 264,
      "å¼": 265,
      "éĥ": 266,
      "æĹ¶": 267,
      "è¯": 268,
      "äºĨ": 269,
      "è®": 270,
      "ä¸İ": 271,
      "çĽ": 272,
      "èĢ": 273,
      "åİ": 274,
      "æĹ¥": 275,
      "ä¸Ń": 276,
      "äºİ": 277,
      "èµ": 278,
      "éĢ": 279,
      "è´": 280,
      "ä¸Ĭ": 281,
      "äºº": 282,
      "å·Ŀ": 283,
      "å±±": 284,
      "æľĪ": 285,
      "æ²": 286,
      "ä¹ī": 287,
      "15": 288,
      "å½": 289,
      "ä¸ī": 290,
      "èĥ": 291,
      "ä¸į": 292,
      "å°Ĩ": 293,
      "éĺ": 294,
      "åŃĲ": 295,
      "ä»¥": 296,
      "å¿": 297,
      "ç§Ģ": 298,
      "åĮ": 299,
      "åĩº": 300,
      "æľī": 301,
      "å¥": 302,
      "è¢": 303,
      "æŃ£": 304,
      "âĢľ": 305,
      "âĢĿ": 306,
      "æŃ¦": 307,
      "åħĥ": 308,
      "ä¸ĭ": 309,
      "æĶ¿": 310,
      "åĲį": 311,
      "ä»£": 312,
      "éĻ": 313,
      "å¤©": 314,
      "æĬ": 315,
      "éģ": 316,
      "çŃ": 317,
      "éĹ": 318,
      "åī": 319,
      "æĪĲ": 320,
      "æľ¬": 321,
      "è§": 322,
      "æµ": 323,
      "å²": 324,
      "åľ°": 325,
      "èĢĮ": 326,
      "æķ": 327,
      "æŃ¤": 328,
      "åħ¶": 329,
      "é¢": 330,
      "æ´": 331,
      "åĪ©": 332,
      "è¢«": 333,
      "åĴ": 334,
      "å¸": 335,
      "è¡": 336,
      "æĻ": 337,
      "**": 338,
      "##": 339,
      "èĩ£": 340,
      "åĴĮ": 341,
      "çİ": 342,
      "éļ": 343,
      "çº": 344,
      "è¾": 345,
      "æ³": 346,
      "åįģ": 347,
      "çŁ": 348,
      "åīį": 349,
      "åĲī": 350,
      "ä¸»": 351,
      "è¶": 352,
      "æĸ¹": 353,
      "ç«": 354,
      "æ±": 355,
      "é¢Ĩ": 356,
      "åĨħ": 357,
      "è°": 358,
      "ä¾": 359,
      "åĲĮ": 360,
      "èĹ": 361,
      "å¯¹": 362,
      "å®Ī": 363,
      "ä»ĸ": 364,
      "èĩª": 365,
      "å¹¶": 366,
      "æ¯": 367,
      "æ¬": 368,
      "æĮ": 369,
      "åĳ": 370,
      "éĩį": 371,
      "åİŁ": 372,
      "åĽł": 373,
      "è¿Ļ": 374,
      "å°ı": 375,
      "æĿ¥": 376,
      "åĪ°": 377,
      "åº·": 378,
      "ç¦": 379,
      "åħµ": 380,
      "æĶ»": 381,
      "åĮĹ": 382,
      "äº²": 383,
      "çŃī": 384,
      "æĭ": 385,
      "åĬĽ": 386,
      "å¯º": 387,
      "ãģ": 388,
      "æİ": 389,
      "çĶŁ": 390,
      "äºĮ": 391,
      "é«": 392,
      "æ¬¡": 393,
      "é«ĺ": 394,
      "å®Ĺ": 395,
      "æ¸": 396,
      "ï¼īï¼Į": 397,
      "çĪ": 398,
      "ä¿¡éķ¿": 399,
      "è¡Į": 400,
      "éĥ¨": 401,
      "ä½ľ": 402,
      "ä¹Ł": 403,
      "éĿ": 404,
      "éĩİ": 405,
      "ç»ĩ": 406,
      "å½ĵ": 407,
      "åħ¥": 408,
      "çķ": 409,
      "èĥľ": 410,
      "æĢ": 411,
      "ä½Ĩ": 412,
      "æĸĩ": 413,
      "åħ³": 414,
      "ç»ĩçĶ°": 415,
      "çĿ": 416,
      "æīĢ": 417,
      "çĦ": 418,
      "å¿ł": 419,
      "æł": 420,
      "ä¹ħ": 421,
      "è¿Ľ": 422,
      "è¦": 423,
      "åıĳ": 424,
      "ä»»": 425,
      "å¹³": 426,
      "æĿ¡": 427,
      "å¦": 428,
      "å°±": 429,
      "è¦ģ": 430,
      "ç«ĭ": 431,
      "ä¸ľ": 432,
      "åĲĳ": 433,
      "çŁ³": 434,
      "å®ļ": 435,
      "çĦ¶": 436,
      "æı": 437,
      "å¾·": 438,
      "èĩ³": 439,
      "æŀ": 440,
      "æľĿ": 441,
      "å²Ľ": 442,
      "ç§ĢåĲī": 443,
      "ç»§": 444,
      "å§": 445,
      "çĶ±": 446,
      "åĬ¿": 447,
      "å®ī": 448,
      "å¾Ĺ": 449,
      "äºĭ": 450,
      "æŃ¦çĶ°": 451,
      "çĽ´": 452,
      "ç¥": 453,
      "å¤ļ": 454,
      "è½": 455,
      "æ°¸": 456,
      "ä¼Ĭ": 457,
      "æĹ¶ä»£": 458,
      "ç¬": 459,
      "æĺİ": 460,
      "æĥ": 461,
      "çī": 462,
      "éĥ½": 463,
      "ï¼ļ": 464,
      "é©": 465,
      "æĦ": 466,
      "è¯´": 467,
      "ä¸°": 468,
      "æŃ»": 469,
      "æĻ¯": 470,
      "æ²³": 471,
      "æĿ¾": 472,
      "èĻ": 473,
      "ç§°": 474,
      "èĥ½": 475,
      "ä½į": 476,
      "æĽ": 477,
      "å®ŀ": 478,
      "çĪ¶": 479,
      "éģĵ": 480,
      "åĿ": 481,
      "ãĢĭ": 482,
      "ãĢĬ": 483,
      "æ±Ł": 484,
      "æį": 485,
      "ä»İ": 486,
      "äºĶ": 487,
      "ç¾": 488,
      "åĩ»": 489,
      "æ²»": 490,
      "å»": 491,
      "åºľ": 492,
      "éĹ´": 493,
      "åĽĽ": 494,
      "åı¯": 495,
      "å®¶åº·": 496,
      "åĬł": 497,
      "äºķ": 498,
      "å£": 499,
      "æ´¥": 500,
      "åıĬ": 501,
      "èĹ¤": 502,
      "çľ": 503,
      "èī": 504,
      "è®°": 505,
      "è¶³": 506,
      "èµĸ": 507,
      "æĿī": 508,
      "å®¶èĩ£": 509,
      "è§ģ": 510,
      "å¾·å·Ŀ": 511,
      "æľĢ": 512,
      "ä½Ĳ": 513,
      "ä¸ĸ": 514,
      "éĹ¨": 515,
      "è¿ĩ": 516,
      "ç»ı": 517,
      "åĪĨ": 518,
      "èģ": 519,
      "å¤©æŃ£": 520,
      "å¼Ģ": 521,
      "çĻ": 522,
      "è¿ĳ": 523,
      "ä»Ĭ": 524,
      "ä¸ĬæĿī": 525,
      "éĺµ": 526,
      "èº": 527,
      "ï¼Ľ": 528,
      "¥¿": 529,
      "çĽ¸": 530,
      "è¥¿": 531,
      "éĽ": 532,
      "ä¼Ĺ": 533,
      "èµ·": 534,
      "æľŁ": 535,
      "ä¹ĭæĪĺ": 536,
      "æ¯Ľ": 537,
      "èº«": 538,
      "éĢļ": 539,
      "éĿ¢": 540,
      "æĿĳ": 541,
      "ä¸ª": 542,
      "å¤ĸ": 543,
      "åħī": 544,
      "åİ»": 545,
      "äº¬": 546,
      "å¹ķ": 547,
      "è¶Ĭ": 548,
      "æĹł": 549,
      "æ¯ĽåĪ©": 550,
      "ä¸¤": 551,
      "åĲĪ": 552,
      "æ¸ħ": 553,
      "16": 554,
      "åĬ¨": 555,
      "è·": 556,
      "è±": 557,
      "æĬ¤": 558,
      "åĪĻ": 559,
      "éĥ¡": 560,
      "æ³ķ": 561,
      "æį®": 562,
      "åĳ½": 563,
      "å·²": 564,
      "éļı": 565,
      "ç¦Ħ": 566,
      "æĪ·": 567,
      "åľŁ": 568,
      "çģ": 569,
      "æŁ": 570,
      "åħŃ": 571,
      "åĮĹæĿ¡": 572,
      "æī¿": 573,
      "å¦Ĥ": 574,
      "èĢħ": 575,
      "ä½¿": 576,
      "æĮģ": 577,
      "åıĪ": 578,
      "é¦": 579,
      "ç¬¬": 580,
      "äº¦": 581,
      "ä¼ļ": 582,
      "æľ¨": 583,
      "åħ«": 584,
      "åį«": 585,
      "è¶³åĪ©": 586,
      "åħ¬": 587,
      "æĪĲä¸º": 588,
      "æ¡": 589,
      "æĹı": 590,
      "åºĨ": 591,
      "å°¾": 592,
      "æĿĥ": 593,
      "åĽŀ": 594,
      "çĿĢ": 595,
      "å¹ķåºľ": 596,
      "ç®": 597,
      "èĲ": 598,
      "æĪĺåĽ½": 599,
      "éĥİ": 600,
      "ä¹Ŀ": 601,
      "é©¬": 602,
      "å¼Ł": 603,
      "00": 604,
      "ä½ľä¸º": 605,
      "æģ": 606,
      "è¾¾": 607,
      "ä»ĵ": 608,
      "éļĨ": 609,
      "ä¹±": 610,
      "åĢ": 611,
      "å¥½": 612,
      "å£«": 613,
      "ç¤": 614,
      "çĶ¨": 615,
      "ä¸ĩ": 616,
      "ç³": 617,
      "æĹ¥æľ¬": 618,
      "éª": 619,
      "åįĥ": 620,
      "çİ°": 621,
      "ä¼ł": 622,
      "åºĶ": 623,
      "åıĹ": 624,
      "å®¶çļĦ": 625,
      "æĸ°": 626,
      "ç»Ł": 627,
      "å±ħ": 628,
      "èĬ": 629,
      "ç½": 630,
      "é¾": 631,
      "èİ": 632,
      "æ»": 633,
      "ï¼īãĢĤ": 634,
      "éĤ": 635,
      "ç³»": 636,
      "å¾¡": 637,
      "é¡": 638,
      "æ´¾": 639,
      "åł": 640,
      "è´¥": 641,
      "å¤§åĲį": 642,
      "åıį": 643,
      "æĿĢ": 644,
      "èĮ": 645,
      "åıĸ": 646,
      "æīĭ": 647,
      "ä»¤": 648,
      "çĽĽ": 649,
      "æ®": 650,
      "å¿ĥ": 651,
      "ä¸°èĩ£": 652,
      "ç»ĵ": 653,
      "å¤ĩ": 654,
      "æĶ¯": 655,
      "èĭ": 656,
      "åħĪ": 657,
      "èĪ": 658,
      "ä¹¦": 659,
      "ä¸ĥ": 660,
      "äº¤": 661,
      "å¾Ģ": 662,
      "çİĩ": 663,
      "éĺŁ": 664,
      "åĨį": 665,
      "åįĹ": 666,
      "åĪ¶": 667,
      "è¿ĺ": 668,
      "è´º": 669,
      "çĶº": 670,
      "æĻ´": 671,
      "åıĭ": 672,
      "åį³": 673,
      "âĢĶ": 674,
      "å´": 675,
      "å¥³": 676,
      "å¸Ĥ": 677,
      "å±±åŁİ": 678,
      "ä¾¿": 679,
      "ç¥ŀ": 680,
      "åħ´": 681,
      "æº": 682,
      "éĢĢ": 683,
      "å¢": 684,
      "æ°´": 685,
      "ç»§æī¿": 686,
      "å°ĨåĨĽ": 687,
      "å¤Ħ": 688,
      "åħ¨": 689,
      "çŁ¥": 690,
      "ç»Ī": 691,
      "åıĤ": 692,
      "å»º": 693,
      "çľŁ": 694,
      "çĲ": 695,
      "ç¨": 696,
      "14": 697,
      "æ¶": 698,
      "èİ·": 699,
      "ä¿Ŀ": 700,
      "åĬŁ": 701,
      "æĦı": 702,
      "çº²": 703,
      "å®ĪæĬ¤": 704,
      "å·ŀ": 705,
      "158": 706,
      "æĽ¾": 707,
      "æĪĳ": 708,
      "æµģ": 709,
      "ç»ĩçĶ°ä¿¡éķ¿": 710,
      "å¥ī": 711,
      "æµĵ": 712,
      "çĿ£": 713,
      "ç»Ĩ": 714,
      "ç»Ļ": 715,
      "æľª": 716,
      "æ²¡": 717,
      "ç¾½": 718,
      "157": 719,
      "æķĮ": 720,
      "çł": 721,
      "å¾ģ": 722,
      "æ·": 723,
      "çĤ": 724,
      "æ°ıçļĦ": 725,
      "åİĨ": 726,
      "æİ¥": 727,
      "å®¤": 728,
      "æĹ©": 729,
      "åģ": 730,
      "å®«": 731,
      "ãĤ": 732,
      "åº¦": 733,
      "åį´": 734,
      "è®¤": 735,
      "çļĩ": 736,
      "æĶ¹": 737,
      "äº¬éĥ½": 738,
      "å§ĭ": 739,
      "èį": 740,
      "çĶ²": 741,
      "çĭ": 742,
      "æ°¸ç¦Ħ": 743,
      "å¤ª": 744,
      "å¹¿": 745,
      "èĹ©": 746,
      "éĩĮ": 747,
      "èĻİ": 748,
      "æµ·": 749,
      "ä»¬": 750,
      "åĸ": 751,
      "çŃĳ": 752,
      "åı²": 753,
      "å·¦": 754,
      "éĻ¢": 755,
      "ç»Ń": 756,
      "åĿĤ": 757,
      "åĪĿ": 758,
      "âĢĿï¼Į": 759,
      "éĵ": 760,
      "æĭħ": 761,
      "å®ĺ": 762,
      "æķĻ": 763,
      "å¤©æĸĩ": 764,
      "åĦ": 765,
      "ç»Ĩå·Ŀ": 766,
      "å¸¸": 767,
      "åĵ": 768,
      "è´ŀ": 769,
      "###": 770,
      "æ¦": 771,
      "æŃ¦å°Ĩ": 772,
      "æ³¢": 773,
      "æı´": 774,
      "ä¸¸": 775,
      "çī©": 776,
      "156": 777,
      "å·±": 778,
      "è¶³åĪ©ä¹ī": 779,
      "åĬ¿åĬĽ": 780,
      "æĴ": 781,
      "æĮĩ": 782,
      "ä»Ĭå·Ŀ": 783,
      "å«": 784,
      "å®¶çĿ£": 785,
      "éĶ": 786,
      "çİĦ": 787,
      "è°·": 788,
      "èī¯": 789,
      "å¼ł": 790,
      "æīĵ": 791,
      "è¾ī": 792,
      "èĤ": 793,
      "è¿ľ": 794,
      "ç¾İ": 795,
      "å²Ľæ´¥": 796,
      "èĻ½": 797,
      "åĬ©": 798,
      "åıª": 799,
      "10": 800,
      "æĪĺåĽ½æĹ¶ä»£": 801,
      "å¾·å·Ŀå®¶åº·": 802,
      "åľº": 803,
      "åĨĪ": 804,
      "è®©": 805,
      "çĲĨ": 806,
      "é¢Ĩåľ°": 807,
      "åĦ¿": 808,
      "æĪĸ": 809,
      "ç¼": 810,
      "åºĨéķ¿": 811,
      "è¿ŀ": 812,
      "æ±ŁæĪ·": 813,
      "çĻ¾": 814,
      "æºĲ": 815,
      "åĽ´": 816,
      "æ»¡": 817,
      "äºī": 818,
      "èģĮ": 819,
      "æ¦Ĥ": 820,
      "è¯¸": 821,
      "é¦ĸ": 822,
      "äº¡": 823,
      "åı£": 824,
      "ç§į": 825,
      "å´İ": 826,
      "åħ»": 827,
      "æĪ¿": 828,
      "èģĶ": 829,
      "çĬ": 830,
      "åıĺ": 831,
      "æ±Ĥ": 832,
      "æ¨": 833,
      "æĢ»": 834,
      "åı³": 835,
      "åı¤": 836,
      "åŁİä¸»": 837,
      "åĨ³": 838,
      "é£": 839,
      "è·¯": 840,
      "12": 841,
      "åĭ": 842,
      "æĳ": 843,
      "èĩªå·±": 844,
      "å±ŀ": 845,
      "åħĦ": 846,
      "çĦ¶èĢĮ": 847,
      "çĮ": 848,
      "çķĻ": 849,
      "éģĤ": 850,
      "å²ģ": 851,
      "å±ĭ": 852,
      "æĺĮ": 853,
      "å¹¸": 854,
      "è½¬": 855,
      "è¯·": 856,
      "éħ": 857,
      "æķ°": 858,
      "èĢģ": 859,
      "å½ĵæĹ¶": 860,
      "å¤±": 861,
      "è±«": 862,
      "å¤´": 863,
      "èĲ½": 864,
      "âĢĿãĢĤ": 865,
      "ä»ħ": 866,
      "æŁ´": 867,
      "åĮĹæĿ¡æ°ı": 868,
      "éĢĥ": 869,
      "æĶ¶": 870,
      "åį«éĹ¨": 871,
      "å¼º": 872,
      "ï¼ļâĢľ": 873,
      "é»": 874,
      "è®¨": 875,
      "çª": 876,
      "è½½": 877,
      "Ġæ¦Ĥ": 878,
      "åĮĸ": 879,
      "éĻ·": 880,
      "æł·": 881,
      "èĹı": 882,
      "éģŃ": 883,
      "åĮħ": 884,
      "11": 885,
      "å¼ĺ": 886,
      "æ£": 887,
      "Ġæ¦Ĥè¦ģ": 888,
      "ä»į": 889,
      "å¼Ģå§ĭ": 890,
      "ç¡": 891,
      "æĭħä»»": 892,
      "ä¿¡çİĦ": 893,
      "åĲĦ": 894,
      "ç®¡": 895,
      "è¨": 896,
      "ä¸īå¥½": 897,
      "ä¸¾": 898,
      "åİ¿": 899,
      "å°ģ": 900,
      "åŁº": 901,
      "è¡¨": 902,
      "è¨Ģ": 903,
      "å°¼": 904,
      "åħ³ä¸ľ": 905,
      "å½¢": 906,
      "ä¼Ĳ": 907,
      "éĻį": 908,
      "çĪ¶äº²": 909,
      "å½Ĵ": 910,
      "é¾Ļ": 911,
      "13": 912,
      "äºĮåįģ": 913,
      "å¤§åĨħ": 914,
      "åħ¼": 915,
      "å¤§åıĭ": 916,
      "ç©": 917,
      "æĬķ": 918,
      "éĺ²": 919,
      "åĽ½çļĦ": 920,
      "éĤ£": 921,
      "è§Ĩ": 922,
      "åŃĺ": 923,
      "èµĲ": 924,
      "æıĲ": 925,
      "çķ¥": 926,
      "åĮº": 927,
      "å®ĩ": 928,
      "èĬ±": 929,
      "å½¹": 930,
      "åĲĮå¹´": 931,
      "éĢł": 932,
      "æł¹": 933,
      "æĺ¥": 934,
      "åı¦": 935,
      "çİĭ": 936,
      "åİ»ä¸ĸ": 937,
      "è®®": 938,
      "åħĥå¹´": 939,
      "è¾¹": 940,
      "è£": 941,
      "èĳ": 942,
      "159": 943,
      "æĺ¾": 944,
      "è®¤ä¸º": 945,
      "åĽ¾": 946,
      "æĶ¾": 947,
      "å¤©çļĩ": 948,
      "æľį": 949,
      "ä¹ĭåĲİ": 950,
      "éĩĳ": 951,
      "çĹ": 952,
      "è°¦": 953,
      "ä»ķ": 954,
      "èĩ´": 955,
      "æĥħ": 956,
      "æµħ": 957,
      "æĽ´": 958,
      "æĸĭ": 959,
      "ä½ĵ": 960,
      "éķĩ": 961,
      "ä¹ĭåŃĲ": 962,
      "å¤į": 963,
      "å°ĳ": 964,
      "å¸¦": 965,
      "æĬĹ": 966,
      "å«¡": 967,
      "ç¦ı": 968,
      "è°¦ä¿¡": 969,
      "åĥ": 970,
      "èĭ¥": 971,
      "åĪ«": 972,
      "çģŃ": 973,
      "å¼ı": 974,
      "æ®¿": 975,
      "å¯Į": 976,
      "ç±": 977,
      "æĿ¾å¹³": 978,
      "åĽłä¸º": 979,
      "çĤ¹": 980,
      "çĻ½": 981,
      "æļ": 982,
      "çĥ": 983,
      "ä½Ļ": 984,
      "åĽłæŃ¤": 985,
      "æĪĺæŃ»": 986,
      "ç«¹": 987,
      "å¸ĥ": 988,
      "çĶ·": 989,
      "æ¯į": 990,
      "åĲİæĿ¥": 991,
      "å½ĵä¸»": 992,
      "åı·": 993,
      "ãĥ": 994,
      "å¤º": 995,
      "åºĦ": 996,
      "Â·": 997,
      "æľº": 998,
      "çªģ": 999,
      "è§Ĵ": 1000,
      "è¿ĽæĶ»": 1001,
      "æ±ł": 1002,
      "ç¿": 1003,
      "éľ": 1004,
      "éĻĨ": 1005,
      "äº«": 1006,
      "ç¦»": 1007,
      "æ²¡æľī": 1008,
      "æ¿": 1009,
      "ç¤¾": 1010,
      "å°¼åŃĲ": 1011,
      "155": 1012,
      "å¨": 1013,
      "éĽĨ": 1014,
      "ä¸Ķ": 1015,
      "æĹ§": 1016,
      "è¯Ń": 1017,
      "è´Ł": 1018,
      "è¯¥": 1019,
      "æĸŃ": 1020,
      "æĻº": 1021,
      "åĲĪæĪĺ": 1022,
      "è§£": 1023,
      "çº¦": 1024,
      "ä»½": 1025,
      "æĦ¿": 1026,
      "æĤ": 1027,
      "éº": 1028,
      "æīį": 1029,
      "ä¹¡": 1030,
      "çĽ®": 1031,
      "è¢Ń": 1032,
      "éĺ¿": 1033,
      "æĸ¹éĿ¢": 1034,
      "åħ³ç³»": 1035,
      "çģ«": 1036,
      "å²©": 1037,
      "æĺŃ": 1038,
      "ç²": 1039,
      "æŀģ": 1040,
      "å±ķ": 1041,
      "å§ĵ": 1042,
      "ä¼Ĭè¾¾": 1043,
      "æŀľ": 1044,
      "æŃ¤æĹ¶": 1045,
      "æĬĬ": 1046,
      "ãĢį": 1047,
      "ãĢĮ": 1048,
      "åŃĻ": 1049,
      "é»ĳ": 1050,
      "è´£": 1051,
      "ä¾µ": 1052,
      "çĽŁ": 1053,
      "æŃ¦å£«": 1054,
      "åŁİçļĦ": 1055,
      "è°ĭ": 1056,
      "éĻ¤": 1057,
      "çļĦæŃ¦å°Ĩ": 1058,
      "ãĢĤâĢĿ": 1059,
      "åŃĿ": 1060,
      "åĲĮæĹ¶": 1061,
      "è®°è½½": 1062,
      "èµĦ": 1063,
      "æ´»": 1064,
      "åħ±": 1065,
      "ç¡®": 1066,
      "éĿŀ": 1067,
      "åĳ¨": 1068,
      "äºĳ": 1069,
      "æĥ³": 1070,
      "ä¸°èĩ£ç§ĢåĲī": 1071,
      "ä¸¹": 1072,
      "éķ°": 1073,
      "æ¯Ķ": 1074,
      "äºĽ": 1075,
      "åıĽ": 1076,
      "åŃĹ": 1077,
      "ä¸īæ²³": 1078,
      "æ°ĳ": 1079,
      "åĪ°äºĨ": 1080,
      "æĢ§": 1081,
      "åĬ¡": 1082,
      "é¹": 1083,
      "æķħ": 1084,
      "åĨĽçļĦ": 1085,
      "æ·±": 1086,
      "19": 1087,
      "æľĿä»ĵ": 1088,
      "éªı": 1089,
      "åĸľ": 1090,
      "è¿½": 1091,
      "çķł": 1092,
      "ä¹ĭä¹±": 1093,
      "äºİæĺ¯": 1094,
      "ä¸īå¹´": 1095,
      "èĦ": 1096,
      "çĬ¶": 1097,
      "çĹħ": 1098,
      "è®¾": 1099,
      "çºª": 1100,
      "ä¸Ģä¸ª": 1101,
      "ä¸Ģæı": 1102,
      "å°½": 1103,
      "ä¸ĢæıĨ": 1104,
      "è®¸": 1105,
      "äºĮå¹´": 1106,
      "ä»¶": 1107,
      "æĸĻ": 1108,
      "é¾Ł": 1109,
      "çľĭ": 1110,
      "18": 1111,
      "é¥": 1112,
      "éļ¾": 1113,
      "çĸ": 1114,
      "å°ļ": 1115,
      "ç¾İæµĵ": 1116,
      "å¥¥": 1117,
      "ç»Ŀ": 1118,
      "å¢ŀ": 1119,
      "ä¸ĢåĲĮ": 1120,
      "ä½Ĩæĺ¯": 1121,
      "æĸĲ": 1122,
      "åħĥå°±": 1123,
      "éĢĲ": 1124,
      "èµ¤": 1125,
      "çł´": 1126,
      "å®¤çĶº": 1127,
      "æĸĹ": 1128,
      "èīº": 1129,
      "è¿Ľåħ¥": 1130,
      "æİ¨": 1131,
      "éĩįèĩ£": 1132,
      "éķ°ä»ĵ": 1133,
      "ä½ı": 1134,
      "æ³½": 1135,
      "éĴ": 1136,
      "è¿ĳæ±Ł": 1137,
      "å¸Ī": 1138,
      "åŃ¦": 1139,
      "ä»¥åıĬ": 1140,
      "å¾Ī": 1141,
      "å®Į": 1142,
      "æĺĵ": 1143,
      "154": 1144,
      "æľĢç»Ī": 1145,
      "ä¸ĩçŁ³": 1146,
      "å°¾å¼ł": 1147,
      "ä¿®": 1148,
      "å°ıçĶ°": 1149,
      "é²": 1150,
      "çĶ²æĸĲ": 1151,
      "åŀ": 1152,
      "åįĬ": 1153,
      "åīįå¾Ģ": 1154,
      "èī²": 1155,
      "è®¡": 1156,
      "ç¾½æŁ´": 1157,
      "å²Ĳ": 1158,
      "å¤§åĿĤ": 1159,
      "åķ": 1160,
      "ä¾į": 1161,
      "ç¤º": 1162,
      "ä¿¡æµĵ": 1163,
      "èĮĤ": 1164,
      "ä¼ĬåĬ¿": 1165,
      "å¿Ĺ": 1166,
      "æµ¦": 1167,
      "èº«ä»½": 1168,
      "å¯¼": 1169,
      "ç§ĭ": 1170,
      "å¼ķ": 1171,
      "å®½": 1172,
      "ä¾Ŀ": 1173,
      "éĻĦ": 1174,
      "éĻħ": 1175,
      "æŃ¤åĲİ": 1176,
      "æ¢": 1177,
      "å°±æĺ¯": 1178,
      "åĽ½äºº": 1179,
      "çĶ±äºİ": 1180,
      "æĴ¤": 1181,
      "éģĹ": 1182,
      "æĶ»åĩ»": 1183,
      "çŃīäºº": 1184,
      "å®īåľŁ": 1185,
      "æ´Ľ": 1186,
      "å¦»": 1187,
      "è´¤": 1188,
      "åĪĢ": 1189,
      "é¡»": 1190,
      "åĩºåħµ": 1191,
      "æĬµ": 1192,
      "éĹ®": 1193,
      "ä¸įè¿ĩ": 1194,
      "å»¶": 1195,
      "ç¹": 1196,
      "ç¹ģ": 1197,
      "æĭ¥": 1198,
      "é¸": 1199,
      "åĲĽ": 1200,
      "åĪĩ": 1201,
      "é£İ": 1202,
      "âĢĶâĢĶ": 1203,
      "ä¸ļ": 1204,
      "æ£®": 1205,
      "ç»ĩçĶ°ä¿¡": 1206,
      "ç½®": 1207,
      "è¿Ļä¸Ģ": 1208,
      "åĽ¢": 1209,
      "åħīç§Ģ": 1210,
      "èĪ¹": 1211,
      "ä¼ı": 1212,
      "ç´": 1213,
      "æĹĹ": 1214,
      "éļıåĲİ": 1215,
      "éģ£": 1216,
      "è¶ĬåĲİ": 1217,
      "éĽĦ": 1218,
      "åħ·": 1219,
      "è¿Ķ": 1220,
      "æµħäºķ": 1221,
      "ä¸ŃçļĦ": 1222,
      "è¿Ľè¡Į": 1223,
      "åħ³åİŁ": 1224,
      "åĳĺ": 1225,
      "é¦Ĩ": 1226,
      "ä¹ĭä¸Ģ": 1227,
      "æĹ¶æľŁ": 1228,
      "æĸ¹çļĦ": 1229,
      "å¤«": 1230,
      "æ¡¥": 1231,
      "ä¹Ŀå·ŀ": 1232,
      "ä»ĸä»¬": 1233,
      "ä¸ºäºĨ": 1234,
      "20": 1235,
      "ç¥ĸ": 1236,
      "æľĽ": 1237,
      "éªĳ": 1238,
      "åłĤ": 1239,
      "åħ»åŃĲ": 1240,
      "éĹ»": 1241,
      "ï¼Ł": 1242,
      "éķ¿å°¾": 1243,
      "å®ª": 1244,
      "ä»ĭ": 1245,
      "æĸĭèĹ¤": 1246,
      "æ¸¡": 1247,
      "è¿İ": 1248,
      "è¿Ĳ": 1249,
      "éĢģ": 1250,
      "çĽĬ": 1251,
      "åħµåį«": 1252,
      "å±Ģ": 1253,
      "åĳĬ": 1254,
      "ä¾§": 1255,
      "èĥĮ": 1256,
      "èĮ¶": 1257,
      "çŃĸ": 1258,
      "éħį": 1259,
      "è±ª": 1260,
      "æŃ¦çĶ°ä¿¡çİĦ": 1261,
      "æĬ¥": 1262,
      "æ±ŁæĪ·æĹ¶ä»£": 1263,
      "éĵģ": 1264,
      "è½»": 1265,
      "ç«ĭèĬ±": 1266,
      "éļĲ": 1267,
      "åĩĨ": 1268,
      "æĦŁ": 1269,
      "èµ°": 1270,
      "èĤ¥": 1271,
      "ä»ĸçļĦ": 1272,
      "çľŁçĶ°": 1273,
      "é²ľ": 1274,
      "åľ°åĮº": 1275,
      "è´¨": 1276,
      "åĨ²": 1277,
      "ï¼īãĢģ": 1278,
      "ä»ģ": 1279,
      "å·¦åį«éĹ¨": 1280,
      "åıĮ": 1281,
      "éĩı": 1282,
      "åĩºçĶŁ": 1283,
      "ĠçĶŁ": 1284,
      "æĶ¯æĮģ": 1285,
      "éī": 1286,
      "ç§°ä¸º": 1287,
      "éī´": 1288,
      "åįł": 1289,
      "çķłå±±": 1290,
      "æ¶Ī": 1291,
      "17": 1292,
      "æ¡ĥ": 1293,
      "çº³": 1294,
      "çħ": 1295,
      "çļĦä¸Ģ": 1296,
      "æŀª": 1297,
      "ç»Łæ²»": 1298,
      "èı": 1299,
      "æ³ī": 1300,
      "å¤ľ": 1301,
      "çļĦå¤§": 1302,
      "è¯¦": 1303,
      "æĶ¿æĿĥ": 1304,
      "å½ķ": 1305,
      "èħ": 1306,
      "æĸ¯": 1307,
      "æ¨¡": 1308,
      "è§Ĥ": 1309,
      "å¥īè¡Į": 1310,
      "ä¸īæĪĲ": 1311,
      "è¿«": 1312,
      "æľ«": 1313,
      "é¡º": 1314,
      "è´Łè´£": 1315,
      "åĪĹ": 1316,
      "è¶Ĭåīį": 1317,
      "**ï¼Ī": 1318,
      "å·²ç»ı": 1319,
      "åĦ¿åŃĲ": 1320,
      "ä¸ĢæĹı": 1321,
      "åĵį": 1322,
      "è°±": 1323,
      "ç¿Į": 1324,
      "æŃ¤å¤ĸ": 1325,
      "æľĢåĲİ": 1326,
      "å®£": 1327,
      "å½±": 1328,
      "çº¿": 1329,
      "æĹ¥è¯Ń": 1330,
      "æķ´": 1331,
      "æľĿé²ľ": 1332,
      "å¾ħ": 1333,
      "çĪ¶åŃĲ": 1334,
      "äººçī©": 1335,
      "ç§»": 1336,
      "çĻ»": 1337,
      "å·¥": 1338,
      "ãĥ»": 1339,
      "è¿ĻäºĽ": 1340,
      "åı¯èĥ½": 1341,
      "åĮħåĽ´": 1342,
      "çİĩé¢Ĩ": 1343,
      "æľĪåįģ": 1344,
      "å©": 1345,
      "å³": 1346,
      "ä¹Ī": 1347,
      "ä¸ĭçļĦ": 1348,
      "éķ¿æĶ¿": 1349,
      "çī¹": 1350,
      "æŃ¥": 1351,
      "æĺİæĻº": 1352,
      "éĢļè¿ĩ": 1353,
      "ç±³": 1354,
      "åĽĽå¹´": 1355,
      "ä¸¥": 1356,
      "éĩįè¦ģ": 1357,
      "åħ¬æĸ¹": 1358,
      "è¾ħ": 1359,
      "æ¾": 1360,
      "åłĢ": 1361,
      "åĭĩ": 1362,
      "çĶ°åŁİ": 1363,
      "ä¹Ĳ": 1364,
      "åıĳçĶŁ": 1365,
      "æŃ»åĲİ": 1366,
      "åĩł": 1367,
      "ä¸Ĭæ´Ľ": 1368,
      "å«¡åŃĲ": 1369,
      "ä¸Ĭéĩİ": 1370,
      "å¹¡": 1371,
      "æ¯ĽåĪ©æ°ı": 1372,
      "åİĭ": 1373,
      "æŀĹ": 1374,
      "å¤§å°Ĩ": 1375,
      "èĥľèµĸ": 1376,
      "åĨĽäºĭ": 1377,
      "åĢĴ": 1378,
      "å¿ħ": 1379,
      "ä¹ĭæĪĺä¸Ń": 1380,
      "åĳ½ä»¤": 1381,
      "000": 1382,
      "æĳĦ": 1383,
      "éªıæ²³": 1384,
      "åķĨ": 1385,
      "ä¹ĭéĹ´": 1386,
      "å°ıçĶ°åİŁ": 1387,
      "é©»": 1388,
      "ä½ķ": 1389,
      "èĲ¥": 1390,
      "çļĨ": 1391,
      "æŃ¢": 1392,
      "ãģ®": 1393,
      "è¿Ļä¸ª": 1394,
      "æĶ¿å®Ĺ": 1395,
      "åı³åį«éĹ¨": 1396,
      "ä¹ĥ": 1397,
      "åıĤä¸İ": 1398,
      "ä¸ĬæĿīè°¦ä¿¡": 1399,
      "éĶĭ": 1400,
      "è§Ħ": 1401,
      "è°ĥ": 1402,
      "æľ¯": 1403,
      "å®³": 1404,
      "å¨ģ": 1405,
      "åĶ": 1406,
      "çĪ±": 1407,
      "å°Ĭ": 1408,
      "è¾īåħĥ": 1409,
      "çº§": 1410,
      "è®¨ä¼Ĳ": 1411,
      "æ°Ķ": 1412,
      "å¾ģä¼Ĳ": 1413,
      "çĭ¬": 1414,
      "åı¶": 1415,
      "ä¿Ĭ": 1416,
      "æ¡ĥå±±": 1417,
      "æ¼": 1418,
      "é¢Ĩä¸»": 1419,
      "å¹¼": 1420,
      "çĨ": 1421,
      "ç®¡é¢Ĩ": 1422,
      "çĪĨ": 1423,
      "åģļ": 1424,
      "åħµåĬĽ": 1425,
      "æĹ©å·Ŀ": 1426,
      "ä»¥åĲİ": 1427,
      "åįģä¸Ģ": 1428,
      "153": 1429,
      "çħ§": 1430,
      "æ¶¯": 1431,
      "åħŃè§Ĵ": 1432,
      "çº·": 1433,
      "éĽª": 1434,
      "æ¡ĥå±±æĹ¶ä»£": 1435,
      "æİ§": 1436,
      "æĮ¥": 1437,
      "æŀĦ": 1438,
      "åĨ³å®ļ": 1439,
      "èĳĹ": 1440,
      "çĶļ": 1441,
      "æĸĩä¹¦": 1442,
      "ä¹ĺ": 1443,
      "æ¾Ħ": 1444,
      "å®īåľŁæ¡ĥå±±æĹ¶ä»£": 1445,
      "åīįçĶ°": 1446,
      "çĪĨåıĳ": 1447,
      "äºĶå¹´": 1448,
      "èĥ¤": 1449,
      "å¢ĥ": 1450,
      "æĦ¿å¯º": 1451,
      "é¢ĺ": 1452,
      "åº§": 1453,
      "æī©": 1454,
      "å°ıæĹ©å·Ŀ": 1455,
      "æĬķéĻį": 1456,
      "åĪĴ": 1457,
      "æ°¸æŃ£": 1458,
      "å»·": 1459,
      "åĩºçİ°": 1460,
      "åħį": 1461,
      "æľĪäºĮåįģ": 1462,
      "åĽº": 1463,
      "åıĤåĬł": 1464,
      "éĨ": 1465,
      "æŃ¦çĶ°æ°ı": 1466,
      "è¿¹": 1467,
      "åħ¶ä¸Ń": 1468,
      "åĢĻ": 1469,
      "èĮĥ": 1470,
      "åħĥé¾Ł": 1471,
      "ä½Ĳç«¹": 1472,
      "è®º": 1473,
      "æİĮ": 1474,
      "è¿°": 1475,
      "æĶ¿æ²»": 1476,
      "æĻ¯èĥľ": 1477,
      "èĻ½çĦ¶": 1478,
      "åĺ": 1479,
      "é»ĳçĶ°": 1480,
      "åİĨåı²": 1481,
      "åĿļ": 1482,
      "ä»»åĳ½": 1483,
      "å®īèīº": 1484,
      "åħĦå¼Ł": 1485,
      "æľ¬æĦ¿å¯º": 1486,
      "äº§": 1487,
      "å¤©ä¸ĭ": 1488,
      "éĥ¨åĪĨ": 1489,
      "ç¤¼": 1490,
      "ä¹īåħĥ": 1491,
      "æĸĩç¦Ħ": 1492,
      "æģ¯": 1493,
      "ç»Ħ": 1494,
      "åĨµ": 1495,
      "æł¼": 1496,
      "èĩªå·±çļĦ": 1497,
      "æħ": 1498,
      "ç¬ł": 1499,
      "æ¿Ģ": 1500,
      "ĠçĶŁæ¶¯": 1501,
      "åı¸": 1502,
      "è¥¿åĨĽ": 1503,
      "éĥ¨éĺŁ": 1504,
      "æīĢä»¥": 1505,
      "çĭŃ": 1506,
      "æ¸Ĳ": 1507,
      "å¼ĥ": 1508,
      "160": 1509,
      "åı°": 1510,
      "æĪĳéĥ¨": 1511,
      "ä¼¤": 1512,
      "åı¦ä¸Ģ": 1513,
      "èĴ": 1514,
      "å®Ŀ": 1515,
      "å¤©æŃ£åįģ": 1516,
      "é¸Ł": 1517,
      "çĤ®": 1518,
      "ä¹ĭå¥³": 1519,
      "æľĿå»·": 1520,
      "å§¬": 1521,
      "å®ĹæĪĳéĥ¨": 1522,
      "ç£": 1523,
      "ç¾½æŁ´ç§ĢåĲī": 1524,
      "åĸĦ": 1525,
      "è®¿": 1526,
      "è·Ł": 1527,
      "è¯´æ³ķ": 1528,
      "çļĦæĪĺ": 1529,
      "å¯¹ç«ĭ": 1530,
      "ä¹Łæĺ¯": 1531,
      "**ãĢĤ": 1532,
      "èİ·å¾Ĺ": 1533,
      "åľ°æĸ¹": 1534,
      "ä¸ŃåĽ½": 1535,
      "åı²æĸĻ": 1536,
      "æ¨ª": 1537,
      "çģŃäº¡": 1538,
      "æĸ½": 1539,
      "åįı": 1540,
      "äººçļĦ": 1541,
      "è¯ģ": 1542,
      "åĨĻ": 1543,
      "å®¶æĹı": 1544,
      "æĢģ": 1545,
      "è¯Ŀ": 1546,
      "éĢĶ": 1547,
      "æ³°": 1548,
      "å®¤çĶºå¹ķåºľ": 1549,
      "éĢŁ": 1550,
      "æĺ¯æĪĺåĽ½æĹ¶ä»£": 1551,
      "ä½ľæĪĺ": 1552,
      "æļĹ": 1553,
      "ä½Ľ": 1554,
      "ä¾ĭ": 1555,
      "åĥ§": 1556,
      "æ²¼": 1557,
      "çĮ®": 1558,
      "å¯Ĩ": 1559,
      "ä»ķäºİ": 1560,
      "æĶ»æīĵ": 1561,
      "å¼Ĥ": 1562,
      "æĸ©": 1563,
      "éĺª": 1564,
      "åħ¶åŃĲ": 1565,
      "äº¤æĪĺ": 1566,
      "æī§": 1567,
      "éķ¿å®ĹæĪĳéĥ¨": 1568,
      "åľ°ä½į": 1569,
      "èµı": 1570,
      "äº«å¹´": 1571,
      "ç»§ç»Ń": 1572,
      "ç¬¬ä¸Ģ": 1573,
      "éĢĿ": 1574,
      "åĬĿ": 1575,
      "å±±åĲį": 1576,
      "è§Ĩä¸º": 1577,
      "åĹ": 1578,
      "åĽŃ": 1579,
      "æ¿ĳ": 1580,
      "å¼¥": 1581,
      "ä»Ĭå·Ŀæ°ı": 1582,
      "åĪĽ": 1583,
      "ä¸įè¯¦": 1584,
      "åĢŁ": 1585,
      "åı¬": 1586,
      "**ï¼Į": 1587,
      "çļĦæĺ¯": 1588,
      "æľŁéĹ´": 1589,
      "å®¶èĢģ": 1590,
      "æķĳ": 1591,
      "å®ħ": 1592,
      "æĪĲåĬŁ": 1593,
      "å±ħåŁİ": 1594,
      "åĥı": 1595,
      "ç®Ĺ": 1596,
      "éķ¿åŃĲ": 1597,
      "äºĭä»¶": 1598,
      "å²³": 1599,
      "è§ī": 1600,
      "æĹłæ³ķ": 1601,
      "åĩºèº«": 1602,
      "éħĴ": 1603,
      "åĨįæ¬¡": 1604,
      "ä¸ĢåĲĳ": 1605,
      "æĢ¥": 1606,
      "åı¯ä»¥": 1607,
      "èĪ¬": 1608,
      "æŁ´çĶ°": 1609,
      "ä»ĺ": 1610,
      "åĲįä¸º": 1611,
      "åıĳåĬ¨": 1612,
      "å±±åĨħ": 1613,
      "ç¨ĭ": 1614,
      "çŁ³çĶ°": 1615,
      "åįĴ": 1616,
      "ä¹ĭåıĺ": 1617,
      "æ¬¡åŃĲ": 1618,
      "æ´¾éģ£": 1619,
      "åĬłè´º": 1620,
      "æĪĺåĲİ": 1621,
      "è°Ī": 1622,
      "å¤§åĴĮ": 1623,
      "æĲ": 1624,
      "åĲīå·Ŀ": 1625,
      "æŃ¦çĶ°åĨĽ": 1626,
      "æĶ»éĻ·": 1627,
      "å¼Łå¼Ł": 1628,
      "èª": 1629,
      "åĪ»": 1630,
      "å½±åĵį": 1631,
      "å°ĨåĨĽè¶³åĪ©ä¹ī": 1632,
      "ç§Ģå¿ł": 1633,
      "æĿ¥çļĦ": 1634,
      "æĴŃ": 1635,
      "ä¸´": 1636,
      "æŃ¦çĶ°å®¶": 1637,
      "æĪĲäºĨ": 1638,
      "ä¹İ": 1639,
      "æŃĮ": 1640,
      "æ»¨": 1641,
      "è¿ĶåĽŀ": 1642,
      "çķª": 1643,
      "å¡": 1644,
      "åįģäºĮ": 1645,
      "éĻ¶": 1646,
      "ç»´": 1647,
      "æĴ¤éĢĢ": 1648,
      "å£°": 1649,
      "ä¼¼": 1650,
      "æ®µ": 1651,
      "æĳ©": 1652,
      "å¹³å®ļ": 1653,
      "åį°": 1654,
      "åĹ£": 1655,
      "ç¦ģ": 1656,
      "éĿł": 1657,
      "å¾Ĵ": 1658,
      "åĲĮçĽŁ": 1659,
      "èĥľå®¶": 1660,
      "ä½įäºİ": 1661,
      "ä»£å½ĵä¸»": 1662,
      "åħĥäº²": 1663,
      "ä¸»åĲĽ": 1664,
      "éĩĩ": 1665,
      "æ²³åĨħ": 1666,
      "ç»Łä¸Ģ": 1667,
      "ä¸»è¦ģ": 1668,
      "èĥ½å¯º": 1669,
      "æ¸¸": 1670,
      "åĲ¬": 1671,
      "è¯·æ±Ĥ": 1672,
      "ç£¨": 1673,
      "åĸľå¤ļ": 1674,
      "å¤§çļĦ": 1675,
      "å¹´éĹ´": 1676,
      "å¤§éĺª": 1677,
      "åĲİçļĦ": 1678,
      "éĢłå¯º": 1679,
      "ä¸ĢçĽ´": 1680,
      "ä¸įä¹ħ": 1681,
      "çĮĽ": 1682,
      "é¾ĻéĢłå¯º": 1683,
      "æŃ¦çĶ°ä¿¡": 1684,
      "æĿĳä¸Ĭ": 1685,
      "è´µ": 1686,
      "æĺİæĻºåħīç§Ģ": 1687,
      "çĸĳ": 1688,
      "ï¼ĪãĢĬ": 1689,
      "åĬłåħ¥": 1690,
      "1582": 1691,
      "ç»ĩçĶ°åĨĽ": 1692,
      "ä½ł": 1693,
      "å°Ĩåħ¶": 1694,
      "å¯¹æĬĹ": 1695,
      "åĨľ": 1696,
      "æľ¬èĥ½å¯º": 1697,
      "éº¾": 1698,
      "ä¾Ľ": 1699,
      "æµİ": 1700,
      "æ¬²": 1701,
      "ç»ĵæŀľ": 1702,
      "éŁ": 1703,
      "ç¿Įå¹´": 1704,
      "æĳĦæ´¥": 1705,
      "è¿Ļæł·": 1706,
      "è¿ľæ±Ł": 1707,
      "åıĮæĸ¹": 1708,
      "æŁ³": 1709,
      "éļĲå±ħ": 1710,
      "è·ĥ": 1711,
      "éĵģçĤ®": 1712,
      "èħ¹": 1713,
      "ï¼ģ": 1714,
      "æľĢä¸Ĭ": 1715,
      "æ¯ĽåĪ©åħĥå°±": 1716,
      "æŃ¦èĹı": 1717,
      "å¦¹": 1718,
      "ä¸ľåĨĽ": 1719,
      "è±ªæĹı": 1720,
      "ç¬łåİŁ": 1721,
      "è¿ģ": 1722,
      "é¥Ń": 1723,
      "æĸ¯æ³¢": 1724,
      "èĴ²": 1725,
      "åħŃå¹´": 1726,
      "æĭ¬": 1727,
      "ç¬¬äºĮ": 1728,
      "éķ¿åºĨ": 1729,
      "çķ¿": 1730,
      "æĿĤ": 1731,
      "åħ±åĲĮ": 1732,
      "éĺ³": 1733,
      "åħ³åİŁä¹ĭæĪĺ": 1734,
      "æı´åĨĽ": 1735,
      "åģľ": 1736,
      "å®ĩåĸľå¤ļ": 1737,
      "é¹¿": 1738,
      "èĹ©ä¸»": 1739,
      "ä¸ĬçļĦ": 1740,
      "æĹ¥æľ¬æĪĺåĽ½æĹ¶ä»£": 1741,
      "åħ³äºİ": 1742,
      "å¥Ī": 1743,
      "åĨĽéĺŁ": 1744,
      "éģĩ": 1745,
      "åįĹéĥ¨": 1746,
      "åıĹåĪ°": 1747,
      "å¤§åĨĽ": 1748,
      "ç»ĩçĶ°å®¶": 1749,
      "åĩ»è´¥": 1750,
      "ä¸ĬæĿīå®¶": 1751,
      "è¦ģæ±Ĥ": 1752,
      "çļĦå®¶èĩ£": 1753,
      "å®¿": 1754,
      "çľ¼": 1755,
      "ç¥ŀç¤¾": 1756,
      "æĹ¶éĹ´": 1757,
      "åĺī": 1758,
      "å®ĩéĥ½": 1759,
      "æİĪ": 1760,
      "å¥ĭ": 1761,
      "æİ§åĪ¶": 1762,
      "ä½¿çĶ¨": 1763,
      "å¾ĹåĪ°": 1764,
      "å¥³åĦ¿": 1765,
      "è¯¹": 1766,
      "æĥŁ": 1767,
      "å®ĩéĥ½å®«": 1768,
      "å¿«": 1769,
      "èįĴ": 1770,
      "åĪ¤": 1771,
      "ç©¶": 1772,
      "æ¼Ķ": 1773,
      "æŃ£å¼ı": 1774,
      "å®¹": 1775,
      "ä¹ĭéĺµ": 1776,
      "çī§": 1777,
      "æľ¬å¤ļ": 1778,
      "ä¸īäºº": 1779,
      "èį£": 1780,
      "ç¥Ĳ": 1781,
      "æĿŁ": 1782,
      "åĩºéĺµ": 1783,
      "ç»§æī¿å®¶çĿ£": 1784,
      "åĩĨå¤ĩ": 1785,
      "åĮħæĭ¬": 1786,
      "åŃĺåľ¨": 1787,
      "åĵģ": 1788,
      "å²¸": 1789,
      "åħĪéĶĭ": 1790,
      "æĪĺåĽ½å¤§åĲį": 1791,
      "åĪĿæľŁ": 1792,
      "åĻ": 1793,
      "è¶ģ": 1794,
      "æ±łçĶ°": 1795,
      "ç§Ģæ¬¡": 1796,
      "ä¼¯": 1797,
      "æĻ¯èĻİ": 1798,
      "è¯Ħ": 1799,
      "152": 1800,
      "åĨħçļĦ": 1801,
      "è¿ĺæĺ¯": 1802,
      "èµŀ": 1803,
      "å®ĪæĬ¤ä»£": 1804,
      "å¯¼èĩ´": 1805,
      "æ°ıå®¶èĩ£": 1806,
      "è±¡": 1807,
      "ä¹ĭéĻħ": 1808,
      "æĻ´ä¿¡": 1809,
      "æĵ": 1810,
      "ä¼ĳ": 1811,
      "èĭ±": 1812,
      "è´¯": 1813,
      "æĸĩåĮĸ": 1814,
      "åįİ": 1815,
      "æĢĴ": 1816,
      "é¦Ļ": 1817,
      "åħ¶ä»ĸ": 1818,
      "è¢«ç§°ä¸º": 1819,
      "å°Ħ": 1820,
      "å°ıç¬łåİŁ": 1821,
      "ç²¾": 1822,
      "èµ¤æĿ¾": 1823,
      "æ¥": 1824,
      "å±Ĥ": 1825,
      "æĭĴ": 1826,
      "éļĨæĻ¯": 1827,
      "ç¨»": 1828,
      "ä½¿èĢħ": 1829,
      "çĥĪ": 1830,
      "èµ´": 1831,
      "åħ«å¹´": 1832,
      "å®ŀéĻħ": 1833,
      "åı¤æ²³": 1834,
      "æķĪ": 1835,
      "æĹ¶åĢĻ": 1836,
      "ä¼ĺ": 1837,
      "åľ¨æŃ¤": 1838,
      "äº²èĩª": 1839,
      "æ¯ģ": 1840,
      "ä¸īéĥİ": 1841,
      "å¤§åĨħä¹ī": 1842,
      "æĴŃç£¨": 1843,
      "äººè´¨": 1844,
      "ä¸ĥå¹´": 1845,
      "æĪĺæĸĹ": 1846,
      "æĻļ": 1847,
      "çĶ°æ°ı": 1848,
      "çº¯": 1849,
      "æĮĩæĮ¥": 1850,
      "æ³·": 1851,
      "äºĨä¸Ģ": 1852,
      "å±ķå¼Ģ": 1853,
      "ç¢": 1854,
      "èģĶåĲĪ": 1855,
      "ç¼ĸ": 1856,
      "éģŃåĪ°": 1857,
      "èģĶåĨĽ": 1858,
      "ç§¯": 1859,
      "æ··": 1860,
      "æł¹æį®": 1861,
      "è¯¹è®¿": 1862,
      "éĢļç§°": 1863,
      "èĬĤ": 1864,
      "èįī": 1865,
      "è¡ĮåĬ¨": 1866,
      "åħļ": 1867,
      "åĬłèĹ¤": 1868,
      "å®½æ°¸": 1869,
      "çĶ±æŃ¤": 1870,
      "1600": 1871,
      "åŃ£": 1872,
      "èĲ¨": 1873,
      "è±Ĩ": 1874,
      "å¦ĤæŃ¤": 1875,
      "çŁ³çĶ°ä¸īæĪĲ": 1876,
      "è´¸": 1877,
      "å¼¹": 1878,
      "å«ģ": 1879,
      "ä¹īæĺŃ": 1880,
      "æ¤": 1881,
      "èĬ¦": 1882,
      "ä¿¡éķ¿çļĦ": 1883,
      "çĽĳ": 1884,
      "ç²®": 1885,
      "æºĥ": 1886,
      "æĪĺåĬŁ": 1887,
      "åºķ": 1888,
      "å¹²": 1889,
      "åħĦéķ¿": 1890,
      "æľīä¸Ģ": 1891,
      "ä¹ħç§Ģ": 1892,
      "è®°å½ķ": 1893,
      "æ°´åĨĽ": 1894,
      "éĢī": 1895,
      "çķĮ": 1896,
      "å¼ĵ": 1897,
      "ï¼į": 1898,
      "å¦Ļ": 1899,
      "ä¸Ģåº¦": 1900,
      "éĢ¼": 1901,
      "æ´»è·ĥ": 1902,
      "æį®çĤ¹": 1903,
      "æĭľ": 1904,
      "å¾¡æīĢ": 1905,
      "åĨ¬": 1906,
      "æģ¶": 1907,
      "è¾ĥ": 1908,
      "ä½Ĳä¹ħ": 1909,
      "ä¹Ŀå¹´": 1910,
      "ãģ«": 1911,
      "éĻĦè¿ĳ": 1912,
      "éĺ¶": 1913,
      "åįķ": 1914,
      "æŃ£å®¤": 1915,
      "å¿į": 1916,
      "éĻ·åħ¥": 1917,
      "ç½Ĺ": 1918,
      "çīĩ": 1919,
      "æ²¿": 1920,
      "é¢Ĩæľī": 1921,
      "éĺ¿æ³¢": 1922,
      "èĦ±": 1923,
      "è½®": 1924,
      "è£ħ": 1925,
      "æĪĺäºī": 1926,
      "çİĩåĨĽ": 1927,
      "çĨĬ": 1928,
      "è°ĵ": 1929,
      "åĪ©å®¶": 1930,
      "ä¸Ģèµ·": 1931,
      "è®³": 1932,
      "æłĩ": 1933,
      "åĿĩ": 1934,
      "ä¹īå¼ĺ": 1935,
      "è¡°": 1936,
      "å¾·å·Ŀå®¶": 1937,
      "æĪĺåľº": 1938,
      "æĻ´åħĥ": 1939,
      "åĩºäºĳ": 1940,
      "çł¦": 1941,
      "ç¦ıå²Ľ": 1942,
      "åĻ¨": 1943,
      "æ´²": 1944,
      "è´¸æĺĵ": 1945,
      "å¥Ķ": 1946,
      "å±ŀäºİ": 1947,
      "å¥ĩ": 1948,
      "ä¸ĬæĿīæ°ı": 1949,
      "éľĢ": 1950,
      "éĩĮè§ģ": 1951,
      "çŃĶ": 1952,
      "åįĩ": 1953,
      "èĢĥ": 1954,
      "ä¸įæĺ¯": 1955,
      "è¶Ĭä¸Ń": 1956,
      "åİŁæľ¬": 1957,
      "å¼±": 1958,
      "åºŁ": 1959,
      "ä¸įå¾Ĺ": 1960,
      "éĺ»": 1961,
      "æĶ¯éħį": 1962,
      "ç§Ģèµĸ": 1963,
      "ä»Ĭå·Ŀä¹īåħĥ": 1964,
      "åŁŁ": 1965,
      "æĿ¾æ°¸": 1966,
      "23": 1967,
      "ç¨Ļ": 1968,
      "åŀ£": 1969,
      "ä»·": 1970,
      "éĺģ": 1971,
      "æĿĥåĬĽ": 1972,
      "ç±»": 1973,
      "è¡Ģ": 1974,
      "æĬµæĬĹ": 1975,
      "ä¹ĭå½¹": 1976,
      "è´¢": 1977,
      "æ£Ģ": 1978,
      "åĩ»éĢĢ": 1979,
      "æ¹": 1980,
      "åį·": 1981,
      "è¯ķ": 1982,
      "åŁİä¹ĭæĪĺ": 1983,
      "äºĶéĥİ": 1984,
      "æĭ¥æľī": 1985,
      "åº¶": 1986,
      "å¨¶": 1987,
      "é£ŀ": 1988,
      "ç»ĵåŁİ": 1989,
      "åĲĦåľ°": 1990,
      "è¯ļ": 1991,
      "åıĶ": 1992,
      "ä¹ĭä¸ĭ": 1993,
      "é¦ĸçº§": 1994,
      "ä¹ĭå¼Ł": 1995,
      "æĸĩæĺİ": 1996,
      "å»ºç«ĭ": 1997,
      "æĶ¯æı´": 1998,
      "çĶ»": 1999,
      "æµª": 2000,
      "åıĤæĪĺ": 2001,
      "è¿Ļç§į": 2002,
      "éº¾ä¸ĭ": 2003,
      "è£Ĥ": 2004,
      "25": 2005,
      "ä¸ĭä»¤": 2006,
      "çİī": 2007,
      "å¢ĵ": 2008,
      "èµĸæľĿ": 2009,
      "çļĦäºº": 2010,
      "å¯Ħ": 2011,
      "åį¿": 2012,
      "åĤ": 2013,
      "æĺİæ²»": 2014,
      "éĢĲæ¸Ĳ": 2015,
      "æŃ¦çĶ°èĥľèµĸ": 2016,
      "æķĮåĨĽ": 2017,
      "çŃĳåīį": 2018,
      "èĢĮæĺ¯": 2019,
      "æ¬¡éĥİ": 2020,
      "éĹ®é¢ĺ": 2021,
      "ä½Ĳä½Ĳ": 2022,
      "èµĲè±«": 2023,
      "åħ¶åĲİ": 2024,
      "æ³¨": 2025,
      "ä¸¹æ³¢": 2026,
      "å®Įåħ¨": 2027,
      "æľ¬éĺµ": 2028,
      "21": 2029,
      "æīĩ": 2030,
      "åĩºä»ķ": 2031,
      "æĢĢ": 2032,
      "æį®è¯´": 2033,
      "ç«Ł": 2034,
      "ç¨³": 2035,
      "ç»į": 2036,
      "æİ¥åıĹ": 2037,
      "ç§ĢåĲīçļĦ": 2038,
      "ä¹Łæľī": 2039,
      "è¢«è§Ĩä¸º": 2040,
      "åľŁä½Ĳ": 2041,
      "åģı": 2042,
      "ä»ª": 2043,
      "æķ£": 2044,
      "åı¯è§ģ": 2045,
      "æıĲåĩº": 2046,
      "æĥħåĨµ": 2047,
      "ä¼ıè§ģ": 2048,
      "å¤±åİ»": 2049,
      "ç©º": 2050,
      "ä¸ĢåĲĳä¸ĢæıĨ": 2051,
      "å¾Ĺä»¥": 2052,
      "éĴ±": 2053,
      "èµ¶": 2054,
      "çĥ§": 2055,
      "èľ": 2056,
      "å§»": 2057,
      "éģĵéĽª": 2058,
      "æį¢": 2059,
      "çĶļèĩ³": 2060,
      "éĻ·èĲ½": 2061,
      "éĿĴ": 2062,
      "èĩ³æ±ŁæĪ·æĹ¶ä»£": 2063,
      "é¬": 2064,
      "è¿ĽåĨĽ": 2065,
      "22": 2066,
      "å½ĵåľ°": 2067,
      "çĽ´æİ¥": 2068,
      "åı¦ä¸Ģæĸ¹éĿ¢": 2069,
      "å¹´çļĦ": 2070,
      "éĤ¸": 2071,
      "æİĴ": 2072,
      "ãģĹ": 2073,
      "ç½²": 2074,
      "ä¸°åĲİ": 2075,
      "åįĥä»£": 2076,
      "æľ¬èĥ½å¯ºä¹ĭåıĺ": 2077,
      "å®¶ä¸Ń": 2078,
      "æĢĿ": 2079,
      "èĹ¤åİŁ": 2080,
      "ç»Īäºİ": 2081,
      "æµĭ": 2082,
      "éŁ³": 2083,
      "æĹ¢": 2084,
      "ä¹ĭåīį": 2085,
      "åįĥçŁ³": 2086,
      "ç½ª": 2087,
      "åŁİæ±ł": 2088,
      "150": 2089,
      "æ¯įäº²": 2090,
      "æı¡": 2091,
      "ä»Ļ": 2092,
      "æĶ¿çļĦ": 2093,
      "å¯¿": 2094,
      "éĩİæ°ı": 2095,
      "æĭĽ": 2096,
      "æĶ»çķ¥": 2097,
      "å°ıå±±": 2098,
      "éļıçĿĢ": 2099,
      "æŃ¦å®¶": 2100,
      "ä¹ĭä½į": 2101,
      "ç«ĭä¸ĭ": 2102,
      "å¿µ": 2103,
      "æī©å¼ł": 2104,
      "é«ĺåĽ½": 2105,
      "ä¸įæ»¡": 2106,
      "åĽĽéĥİ": 2107,
      "è¡¨ç¤º": 2108,
      "å°Ĭæ°ı": 2109,
      "åºĶä»ģ": 2110,
      "å·¦åı³": 2111,
      "çªģçĦ¶": 2112,
      "åħģ": 2113,
      "é¼": 2114,
      "æĹĹæľ¬": 2115,
      "æĿĲ": 2116,
      "åĨįåº¦": 2117,
      "çŁ¢": 2118,
      "æĭ¥ç«ĭ": 2119,
      "éĻĲ": 2120,
      "ç¯": 2121,
      "åŁİä¸ĭ": 2122,
      "çŁ³å·Ŀ": 2123,
      "é¬¼": 2124,
      "æł¸": 2125,
      "éºŁ": 2126,
      "ç¬Ķ": 2127,
      "ä¸¹ç¾½": 2128,
      "æĺ¯åľ¨": 2129,
      "å¤ªçĶ°": 2130,
      "çı": 2131,
      "æĬĺ": 2132,
      "åħĥåĴĮ": 2133,
      "èĴ²çĶŁ": 2134,
      "èĬ¦åĲį": 2135,
      "å®ĹèĮĤ": 2136,
      "åį±": 2137,
      "åĩºå®¶": 2138,
      "ä¹īåħī": 2139,
      "éĵ¶": 2140,
      "é¢ĨåĽ½": 2141,
      "åĨħéĥ¨": 2142,
      "éĺ´": 2143,
      "çĽĲ": 2144,
      "æĭĴç»Ŀ": 2145,
      "24": 2146,
      "æģ©": 2147,
      "åĪļ": 2148,
      "çĽ¸æ¨¡": 2149,
      "å¹¶ä¸Ķ": 2150,
      "æ®ĭ": 2151,
      "å¸Į": 2152,
      "åĪĩèħ¹": 2153,
      "ç§ģ": 2154,
      "éģĵä¸ī": 2155,
      "æŃ¤äºĭ": 2156,
      "åıĸå¾Ĺ": 2157,
      "æİ¢": 2158,
      "è¿½åĩ»": 2159,
      "å´©": 2160,
      "æĭī": 2161,
      "ä½Ĩåľ¨": 2162,
      "åħ¶çĪ¶": 2163,
      "ç¦ħ": 2164,
      "æ¸ħæŃ£": 2165,
      "ä»»åĳ½ä¸º": 2166,
      "åĨħèĹ¤": 2167,
      "å©ļ": 2168,
      "è¶³åĪ©ä¹īæĺŃ": 2169,
      "ä¸īæĹ¥": 2170,
      "ãģ¨": 2171,
      "å¤ºåıĸ": 2172,
      "æŁ´çĶ°èĥľå®¶": 2173,
      "æĥł": 2174,
      "çŃĴ": 2175,
      "æĽ¿": 2176,
      "ä¹īä¹ħ": 2177,
      "æ¶Īæģ¯": 2178,
      "ç¼ĺ": 2179,
      "çłĶ": 2180,
      "èİ·èµĲ": 2181,
      "åĨĪå´İ": 2182,
      "è®¸å¤ļ": 2183,
      "åı«": 2184,
      "è§Ħæ¨¡": 2185,
      "å¸ĥéĺµ": 2186,
      "éĢĥå¾Ģ": 2187,
      "ãĢĭï¼Į": 2188,
      "è¾ŀ": 2189,
      "ä¾įå¥ī": 2190,
      "å¹¶éĿŀ": 2191,
      "å°ī": 2192,
      "å®¤çĶºæĹ¶ä»£": 2193,
      "åħħ": 2194,
      "æ´»åĬ¨": 2195,
      "èĭ¦": 2196,
      "æļĤ": 2197,
      "èĽ": 2198,
      "ä¼Ĭä¸ľ": 2199,
      "åĲ¦": 2200,
      "è¯Ĩ": 2201,
      "èģļ": 2202,
      "å®īåľŁæ¡ĥå±±æĹ¶ä»£çļĦæŃ¦å°Ĩ": 2203,
      "æģĴ": 2204,
      "æĿĢå®³": 2205,
      "èĥľåĪ©": 2206,
      "ä¸īåįģ": 2207,
      "æ³·å·Ŀ": 2208,
      "åı¦å¤ĸ": 2209,
      "è®¡åĪĴ": 2210,
      "ç»ıè¿ĩ": 2211,
      "æĿ¿": 2212,
      "28": 2213,
      "æ¯ĽåĪ©å®¶": 2214,
      "åħ¥ä¾µ": 2215,
      "å¤©æĸĩåįģ": 2216,
      "äº¦æľī": 2217,
      "åıĽä¹±": 2218,
      "ç«Ļ": 2219,
      "æ¯ĽåĪ©è¾īåħĥ": 2220,
      "æľªèĥ½": 2221,
      "åĳ¼": 2222,
      "åĳ¨è¾¹": 2223,
      "èĤ¥åĲİ": 2224,
      "å°§": 2225,
      "ï¼ĮâĢľ": 2226,
      "ä¸ĬæĿīæĻ¯èĥľ": 2227,
      "éĢ¸": 2228,
      "æ¯ĽåĪ©åĨĽ": 2229,
      "åľŁå²Ĳ": 2230,
      "1590": 2231,
      "æĶ¿åħĥ": 2232,
      "åĲīçĶ°": 2233,
      "ç¦»å¼Ģ": 2234,
      "æ¯ı": 2235,
      "ä¼Ĭè±Ĩ": 2236,
      "ä¹ĭåĲį": 2237,
      "ç§ĳ": 2238,
      "çĵ": 2239,
      "ä¸ĢéĹ¨": 2240,
      "ä¹ĭåĳ½": 2241,
      "åĲĮæł·": 2242,
      "ä¸Ģå¸¦": 2243,
      "ä¸įæĺİ": 2244,
      "ä¸ĭéĩİ": 2245,
      "éĤ»": 2246,
      "èĨ": 2247,
      "ç¥ĸçĪ¶": 2248,
      "åĽ½ä¼Ĺ": 2249,
      "è¢«è¿«": 2250,
      "æĹ¥åĲĳ": 2251,
      "ä¸Ńå²Ľ": 2252,
      "å¼ĺæ²»": 2253,
      "èĤ¥åīį": 2254,
      "æ½": 2255,
      "ä¾µæĶ»": 2256,
      "åīĳ": 2257,
      "ä¸ĸçºª": 2258,
      "å©¿": 2259,
      "ç®Ń": 2260,
      "ç»ĺ": 2261,
      "åıĳå±ķ": 2262,
      "åĽĽåĽ½": 2263,
      "å¯¹äºİ": 2264,
      "çŁ¥è¡Į": 2265,
      "çĹħéĢĿ": 2266,
      "ä¸ĢæĹ¥": 2267,
      "ä¸ĵ": 2268,
      "ãģŁ": 2269,
      "ãģĦ": 2270,
      "å®ĹéºŁ": 2271,
      "æ¡¶": 2272,
      "åıĳèµ·": 2273,
      "åĿĬ": 2274,
      "ä¸ĢçĽĬ": 2275,
      "äºķä¼Ĭ": 2276,
      "éģ¿": 2277,
      "æĮģç»Ń": 2278,
      "æł¸å¿ĥ": 2279,
      "åħĭ": 2280,
      "æľĢåĪĿ": 2281,
      "æĶ¹åĲį": 2282,
      "æĪĺä¸Ń": 2283,
      "æ±¤": 2284,
      "æĮī": 2285,
      "åħ«æľĪ": 2286,
      "å¸ĮæľĽ": 2287,
      "ä»Ģ": 2288,
      "è¿Ļæĺ¯": 2289,
      "å®ŀåĬĽ": 2290,
      "çļĦåĲį": 2291,
      "æºĲæ°ı": 2292,
      "ç´§": 2293,
      "æ´¾åĩº": 2294,
      "èĥģ": 2295,
      "ç¬¬ä¸ī": 2296,
      "åıªæĺ¯": 2297,
      "ä¸¾åħµ": 2298,
      "âĢĿï¼Ī": 2299,
      "è¿ĺæľī": 2300,
      "å¤§åĨħæ°ı": 2301,
      "å¹¶åľ¨": 2302,
      "å¸¸éĻĨ": 2303,
      "æĮĩåĩº": 2304,
      "åŃĲåŃĻ": 2305,
      "åħĥæĺ¥": 2306,
      "åĩłä¹İ": 2307,
      "æĹĭ": 2308,
      "ä¼Ĭè´º": 2309,
      "éĥ½æĺ¯": 2310,
      "äº¬æŀģ": 2311,
      "æľīåĬĽ": 2312,
      "åĽ°": 2313,
      "å¯Ł": 2314,
      "ä»Ģä¹Ī": 2315,
      "ä¸ĢèĪ¬": 2316,
      "ä¼Ĭè¾¾æĶ¿å®Ĺ": 2317,
      "äºĶæľĪ": 2318,
      "Ġäººçī©": 2319,
      "ä»ĸåľ¨": 2320,
      "ä¼ļæ´¥": 2321,
      "ä½įä¸ĭ": 2322,
      "ä¸ĢæĿ¡": 2323,
      "ä¸Ģè¯´": 2324,
      "è¡¥": 2325,
      "çļĦä¸ī": 2326,
      "åħ«å¹¡": 2327,
      "åįıåĬ©": 2328,
      "çļĦå°ı": 2329,
      "éĻ¤äºĨ": 2330,
      "äºĶæĹ¥": 2331,
      "å¤ĸäº¤": 2332,
      "æĪĺè´¥": 2333,
      "åĩºä»»": 2334,
      "ãĢĭï¼īãĢĤ": 2335,
      "ä¿ĥ": 2336,
      "æµģæĶ¾": 2337,
      "æĪĺå½¹": 2338,
      "å¤§æ°¸": 2339,
      "ä¸įåĲĮ": 2340,
      "ä¸īæľĪ": 2341,
      "åĮĹæĿ¡æ°ıåº·": 2342,
      "çłĶç©¶": 2343,
      "ä¸»åĬĽ": 2344,
      "ä¸ĬæĿīå®ª": 2345,
      "è°ĭåıį": 2346,
      "ä¸īäººä¼Ĺ": 2347,
      "æĺİåºĶ": 2348,
      "ç»ıæµİ": 2349,
      "æĺĮå¹¸": 2350,
      "åħ³çĻ½": 2351,
      "æĿĳéĩį": 2352,
      "è¯¸å°Ĩ": 2353,
      "çļĦé¢Ĩåľ°": 2354,
      "æĬµè¾¾": 2355,
      "åĪĳ": 2356,
      "äºĶåįģ": 2357,
      "å®ĮæĪĲ": 2358,
      "éķ¿ç§Ģ": 2359,
      "è¢«è®¤ä¸º": 2360,
      "ç»§æī¿äºº": 2361,
      "é£Ł": 2362,
      "åħĥæľį": 2363,
      "åĲįçļĦ": 2364,
      "149": 2365,
      "ç«ĭåį³": 2366,
      "ä½Ĳä¹ħéĹ´": 2367,
      "ç»ĵæĿŁ": 2368,
      "å¤ªéĥİ": 2369,
      "æĻ®": 2370,
      "åħ¸": 2371,
      "åĩı": 2372,
      "èĲ¨æĳ©": 2373,
      "1570": 2374,
      "ä¹ħä¿Ŀ": 2375,
      "åįĥäºº": 2376,
      "ä¸ĢæŃ¥": 2377,
      "æīĺ": 2378,
      "å®Īå¤ĩ": 2379,
      "åħŃæľĪ": 2380,
      "ä¼łè¯´": 2381,
      "å®ĺä½į": 2382,
      "ç¾¤": 2383,
      "åĳ¨éĺ²": 2384,
      "å¤ĩåīį": 2385,
      "åħ¨éĥ¨": 2386,
      "ä¹ĿæľĪ": 2387,
      "æŃ»åİ»": 2388,
      "èĳ¬": 2389,
      "åºµ": 2390,
      "éĢĶä¸Ń": 2391,
      "åĪĥ": 2392,
      "å°Ĩé¢Ĩ": 2393,
      "åıªæľī": 2394,
      "å£«åħµ": 2395,
      "ä¸¾è¡Į": 2396,
      "çĭŃéĹ´": 2397,
      "åİŁåĽł": 2398,
      "åħ³ä¸ľç®¡é¢Ĩ": 2399,
      "å¹¶äºİ": 2400,
      "å¹´ä¸įè¯¦": 2401,
      "ä¸įåı¯": 2402,
      "çŁ³è§ģ": 2403,
      "ä¸įä»ħ": 2404,
      "é©±": 2405,
      "å«¡çĶ·": 2406,
      "å¤ºåĽŀ": 2407,
      "éĿŀå¸¸": 2408,
      "åľ¨äº¬éĥ½": 2409,
      "åī²": 2410,
      "ç»§ä»»": 2411,
      "å¤ĩä¸Ń": 2412,
      "èĩªå°½": 2413,
      "éĺľ": 2414,
      "é¢ģ": 2415,
      "å¸Ń": 2416,
      "è¢Ńåĩ»": 2417,
      "åĪº": 2418,
      "æīĩè°·": 2419,
      "åŁİåĨħ": 2420,
      "éķ¿æľŁ": 2421,
      "å¾ĹçŁ¥": 2422,
      "ãĢĭãĢĬ": 2423,
      "å²ģçļĦ": 2424,
      "éľ¸": 2425,
      "å±¡": 2426,
      "çºªä¼Ĭ": 2427,
      "åıĶçĪ¶": 2428,
      "å½¦": 2429,
      "èĩªæĿĢ": 2430,
      "åī§": 2431,
      "å±±åı£": 2432,
      "ãĢİ": 2433,
      "åłº": 2434,
      "ä¸ĥæľĪ": 2435,
      "ä¸įèĥ½": 2436,
      "ç¬¼": 2437,
      "ä¹ĭä¸Ń": 2438,
      "åºĵ": 2439,
      "æ°ıä¸İ": 2440,
      "å¹¶æľª": 2441,
      "ãĢı": 2442,
      "æ°ıçŃī": 2443,
      "é¡¾": 2444,
      "åįģåĪĨ": 2445,
      "éķĩåİĭ": 2446,
      "ç»³": 2447,
      "å®ĪçļĦ": 2448,
      "ç¡Ģ": 2449,
      "åİļ": 2450,
      "åĮĹæľĿ": 2451,
      "ãģ¯": 2452,
      "å¤±è´¥": 2453,
      "çİ°åľ¨": 2454,
      "26": 2455,
      "å²Ĳéĺľ": 2456,
      "éļĨä¿¡": 2457,
      "æİ¨æµĭ": 2458,
      "åĲİä¸ĸ": 2459,
      "âĢ¦": 2460,
      "çĬ¬": 2461,
      "åĬłä¸Ĭ": 2462,
      "ä¼Ĭè±«": 2463,
      "ãĢĤãĢĬ": 2464,
      "è¿ħ": 2465,
      "å¹ķåºľçļĦ": 2466,
      "éĻĨå¥¥": 2467,
      "éĨį": 2468,
      "ä¸Ģæł·": 2469,
      "ä»²": 2470,
      "ä¹īæĻ¯": 2471,
      "è¡£": 2472,
      "1573": 2473,
      "åıĳçİ°": 2474,
      "ä¸Ńå¿ĥ": 2475,
      "æ¶ī": 2476,
      "çŃĴäºķ": 2477,
      "åīįæĿ¥": 2478,
      "çĽ¸å½ĵ": 2479,
      "éĨĲ": 2480,
      "éĨįéĨĲ": 2481,
      "åĩºå¾ģ": 2482,
      "éĿĻ": 2483,
      "æİĮæı¡": 2484,
      "èľĤ": 2485,
      "èµł": 2486,
      "ç§Ģéķ¿": 2487,
      "å°ıæĹ©å·ĿéļĨæĻ¯": 2488,
      "åĿĲ": 2489,
      "æ¡¶çĭŃéĹ´": 2490,
      "åĲİåĮĹæĿ¡æ°ı": 2491,
      "è°±ä»£": 2492,
      "åĪ©çĶ¨": 2493,
      "å¤§åĿĤåŁİ": 2494,
      "è´¡": 2495,
      "è¸": 2496,
      "åĽĽæľĪ": 2497,
      "ç»ıåİĨ": 2498,
      "æģĲ": 2499,
      "å¤·": 2500,
      "æĥĬ": 2501,
      "å²Ľæ´¥å®¶": 2502,
      "èªī": 2503,
      "äº²çİĭ": 2504,
      "åŁºç¡Ģ": 2505,
      "å¤§èĩ£": 2506,
      "èĥ½çĻ»": 2507,
      "è¯ķåĽ¾": 2508,
      "åħ¶å®ŀ": 2509,
      "æĥ¨": 2510,
      "çĽ´æĶ¿": 2511,
      "ä¸°åīį": 2512,
      "å¥¥å·ŀ": 2513,
      "å¾·å·ĿåĨĽ": 2514,
      "çĽ¸èī¯": 2515,
      "æĽ²": 2516,
      "çķĻä¸ĭ": 2517,
      "éķ¿ä¹ħ": 2518,
      "ä¸ĥæĹ¥": 2519,
      "è¾ħä½Ĳ": 2520,
      "é¡»è´º": 2521,
      "æľ¬äºº": 2522,
      "ç«¯": 2523,
      "åıįå¯¹": 2524,
      "æĶ¿çŃĸ": 2525,
      "**ãĢģ": 2526,
      "ä½Ļäºº": 2527,
      "é«ĺæ¡¥": 2528,
      "è¯ī": 2529,
      "åĩºåıĳ": 2530,
      "ä¸ĭæĢ»": 2531,
      "ä¹ł": 2532,
      "å¹¶ä¸į": 2533,
      "æļ´": 2534,
      "äºĮæĿ¡": 2535,
      "éĩįæĸ°": 2536,
      "åĮĹæĿ¡å®¶": 2537,
      "çĭ¬ç«ĭ": 2538,
      "å·¨": 2539,
      "å°¤": 2540,
      "åłµ": 2541,
      "äº®": 2542,
      "å½¢æĪĲ": 2543,
      "ä¸Ģæĸ¹": 2544,
      "åĭĺ": 2545,
      "ä¸ĬæĿīåĨĽ": 2546,
      "æķĳæı´": 2547,
      "å¥ĭæĪĺ": 2548,
      "åĩŃ": 2549,
      "è¯¯": 2550,
      "æĶ¹æĺĵ": 2551,
      "åĨ¢": 2552,
      "æĿ¡ä»¶": 2553,
      "å°¾å¼łåĽ½": 2554,
      "æĿ¾æ°¸ä¹ħç§Ģ": 2555,
      "èĩªç§°": 2556,
      "çļĦéķ¿": 2557,
      "åįļ": 2558,
      "27": 2559,
      "åĽłèĢĮ": 2560,
      "æĭĶ": 2561,
      "äºĴ": 2562,
      "åĶ¯": 2563,
      "ãģ¦": 2564,
      "æĶ»åħ¥": 2565,
      "åºŃ": 2566,
      "ç»ĻäºĨ": 2567,
      "éªıåºľ": 2568,
      "åľ£": 2569,
      "åħ«æĹ¥": 2570,
      "å±±åİ¿": 2571,
      "å¦Ĥæŀľ": 2572,
      "ä½İ": 2573,
      "è¶³è½»": 2574,
      "èªĵ": 2575,
      "å¤ı": 2576,
      "è£Ķ": 2577,
      "æįŁ": 2578,
      "ä¹¦ä¿¡": 2579,
      "çĿ¦": 2580,
      "ãĤĭ": 2581,
      "éĻ©": 2582,
      "åĢ¼": 2583,
      "1578": 2584,
      "åĩºç¾½": 2585,
      "1585": 2586,
      "é¹¤": 2587,
      "åĴĮæ³ī": 2588,
      "åīįåĲİ": 2589,
      "å¼ĢåŁİ": 2590,
      "çķĻå®Ī": 2591,
      "å¤©çİĭ": 2592,
      "è¢«ä»»åĳ½ä¸º": 2593,
      "çĽ¾": 2594,
      "åĽ½åĨħ": 2595,
      "åĩºäºĨ": 2596,
      "èĪį": 2597,
      "èĪŀ": 2598,
      "èıĬ": 2599,
      "åĩºèĩª": 2600,
      "éĥ¡çļĦ": 2601,
      "ä»ĩ": 2602,
      "30": 2603,
      "å¸®": 2604,
      "å·®": 2605,
      "èĩ³å®īåľŁæ¡ĥå±±æĹ¶ä»£çļĦæŃ¦å°Ĩ": 2606,
      "åŀĭ": 2607,
      "æŁĲ": 2608,
      "å¤Ł": 2609,
      "è¯ł": 2610,
      "ï¼ĮãĢĬ": 2611,
      "åıĻ": 2612,
      "éħĴäºķ": 2613,
      "éĺ²å¾¡": 2614,
      "1575": 2615,
      "åıĬåħ¶": 2616,
      "åįĹæľĿ": 2617,
      "åı¤æ²³åħ¬æĸ¹": 2618,
      "####": 2619,
      "åĩĢ": 2620,
      "éĺµèĲ¥": 2621,
      "è¾¾æĪĲ": 2622,
      "åľĨ": 2623,
      "è¿ħéĢŁ": 2624,
      "åĪ¶åº¦": 2625,
      "éľ²": 2626,
      "åįģä¸Ģå¹´": 2627,
      "ä½¿å¾Ĺ": 2628,
      "å²Ľæ´¥æ°ı": 2629,
      "ãģĭ": 2630,
      "è®¨åıĸ": 2631,
      "1584": 2632,
      "ç¨»åı¶": 2633,
      "åģıè®³": 2634,
      "ä¸¤ä¸ª": 2635,
      "ä¹ĿæĹ¥": 2636,
      "å±±ä¸Ń": 2637,
      "æľ¨ä¸ĭ": 2638,
      "éĶħ": 2639,
      "èĻĳ": 2640,
      "æįķ": 2641,
      "äºĮäºº": 2642,
      "çŁ³å±±": 2643,
      "å®¶åº·çļĦ": 2644,
      "æ¡Ĥ": 2645,
      "åŁİåŁİä¸»": 2646,
      "ç¼º": 2647,
      "29": 2648,
      "åĬŀ": 2649,
      "å½»": 2650,
      "åĲİæĿ¥çļĦ": 2651,
      "å®ļä¸º": 2652,
      "ä¿Ĺ": 2653,
      "ä¸°èĩ£æĶ¿æĿĥ": 2654,
      "å»ºçŃĳ": 2655,
      "åĽĽæĹ¥": 2656,
      "è¯±": 2657,
      "äºīå¤º": 2658,
      "æīĢåľ¨": 2659,
      "éĽ¨": 2660,
      "æŃ£åĪĻ": 2661,
      "è¿Ļæ¬¡": 2662,
      "ãĤĴ": 2663,
      "èŃ": 2664,
      "çģµ": 2665,
      "å®Ĺå®¶": 2666,
      "åħĪåĲİ": 2667,
      "çīĽ": 2668,
      "å¤ĩåĲİ": 2669,
      "è½¬å°ģ": 2670,
      "çºµ": 2671,
      "ç®Ģ": 2672,
      "çļĦåĲİ": 2673,
      "åĲĮæĹı": 2674,
      "å°ıéĩİ": 2675,
      "éĿ¢å¯¹": 2676,
      "ç½ĳ": 2677,
      "åĽ½å®ĪæĬ¤": 2678,
      "å°±åľ¨": 2679,
      "æłĭ": 2680,
      "å¤§å¤«": 2681,
      "æµħéĩİ": 2682,
      "æģ¢": 2683,
      "æ¢ħ": 2684,
      "èĢĮä¸Ķ": 2685,
      "æĹ©äºĳ": 2686,
      "å¾·å·Ŀç§Ģå¿ł": 2687,
      "éĶĻ": 2688,
      "æľºä¼ļ": 2689,
      "èŃ¦": 2690,
      "è¡¨çİ°": 2691,
      "æģ¢å¤į": 2692,
      "åįģæľĪ": 2693,
      "åĪĨåĪ«": 2694,
      "ç»ľ": 2695,
      "å®¶èĩ£åĽ¢": 2696,
      "æĻ´è´¤": 2697,
      "ä¸īå¥½éķ¿åºĨ": 2698,
      "ä»£è¡¨": 2699,
      "äºĮæĹ¥": 2700,
      "1568": 2701,
      "ç»ĩçĶ°ä¿¡éķ¿çļĦ": 2702,
      "é¢Ħ": 2703,
      "èĩªèº«": 2704,
      "å¤ļæ¬¡": 2705,
      "çīµ": 2706,
      "åĮĹçķł": 2707,
      "åĶĲ": 2708,
      "åĲİæľŁ": 2709,
      "é«ĺèĻİ": 2710,
      "èµ·æĿ¥": 2711,
      "ä¸¤å®¶": 2712,
      "å°¾åŁİ": 2713,
      "1569": 2714,
      "å½ĵæĹ¶çļĦ": 2715,
      "åĨ²çªģ": 2716,
      "èĭ¥çĭŃ": 2717,
      "ä¿¡å¿ł": 2718,
      "ä»¥æĿ¥": 2719,
      "åľ°çļĦ": 2720,
      "åĨħä¹±": 2721,
      "å¦»åŃĲ": 2722,
      "**ãĢģ**": 2723,
      "ä»Ĭå·Ŀå®¶": 2724,
      "æķ·": 2725,
      "æŃ£æĺ¯": 2726,
      "ãģª": 2727,
      "å¼ķåıĳ": 2728,
      "è¯Ħä»·": 2729,
      "çļĦå¤§åĲį": 2730,
      "åĬ³": 2731,
      "ä¹ĭä¸¸": 2732,
      "åĽŀåĪ°": 2733,
      "ä¸įæĸŃ": 2734,
      "ä»£å®ĺ": 2735,
      "åįĪ": 2736,
      "ä»¥ä¸ĭ": 2737,
      "æīĢæľī": 2738,
      "åĪĿä»£": 2739,
      "åħŃæĹ¥": 2740,
      "ï¼ģâĢĿ": 2741,
      "1560": 2742,
      "å³Ļ": 2743,
      "å®ļçļĦ": 2744,
      "æŃ£æĪĲ": 2745,
      "ç«¥": 2746,
      "å¯¹æŃ¤": 2747,
      "ç©¿": 2748,
      "çŁŃ": 2749,
      "ç»©": 2750,
      "èıħ": 2751,
      "è·Łéļı": 2752,
      "çķ¿åĨħ": 2753,
      "æĺ¯ä¸Ģ": 2754,
      "ä¿¡èĻİ": 2755,
      "çĽ¸ç»§": 2756,
      "ä¹ĭéĹ´çļĦ": 2757,
      "çĽ¸ä¼ł": 2758,
      "æķĮäºº": 2759,
      "æĮĤ": 2760,
      "ï¼ı": 2761,
      "ä¹ĭäºĭ": 2762,
      "ç¥Ń": 2763,
      "çŃĳåĲİ": 2764,
      "å³°": 2765,
      "åºĶä»ģä¹ĭä¹±": 2766,
      "æ··ä¹±": 2767,
      "çĦļ": 2768,
      "ä½ĵåĪ¶": 2769,
      "å±ĭåŁİ": 2770,
      "èįĴæľ¨": 2771,
      "æ¸©": 2772,
      "æ°ıä¹¡": 2773,
      "ç»ĩçĶ°æ°ı": 2774,
      "èĸ": 2775,
      "æĢ»å¤§å°Ĩ": 2776,
      "èĳĽ": 2777,
      "ç´ł": 2778,
      "éľĩ": 2779,
      "å¯¹å³Ļ": 2780,
      "åĬĽéĩı": 2781,
      "çĳ": 2782,
      "å±±å´İ": 2783,
      "ä¸īæµ¦": 2784,
      "å®īåłµ": 2785,
      "ä¾¿æĺ¯": 2786,
      "é»Ħ": 2787,
      "æłĹ": 2788,
      "æĥ£": 2789,
      "ä¿¡åº·": 2790,
      "æĪĳä»¬": 2791,
      "æĶ¾å¼ĥ": 2792,
      "æŃ£æľĪ": 2793,
      "æľ¨æĽ¾": 2794,
      "åħ¬å®¶": 2795,
      "èİ²": 2796,
      "åĲİéĨįéĨĲ": 2797,
      "148": 2798,
      "æµħäºķéķ¿æĶ¿": 2799,
      "æķ¢": 2800,
      "æ¸ħæ´²": 2801,
      "ä¹Łä¸į": 2802,
      "ç©´": 2803,
      "æĺ¯æĪĺåĽ½æĹ¶ä»£çļĦæŃ¦å°Ĩ": 2804,
      "163": 2805,
      "åīįçĶ°åĪ©å®¶": 2806,
      "éĺµäº¡": 2807,
      "éķ¿éĩİ": 2808,
      "æļĹæĿĢ": 2809,
      "æ¸¯": 2810,
      "ä¹ĭåľ°": 2811,
      "æĪĲæĶ¿": 2812,
      "æĸ¹åĲĳ": 2813,
      "æŁ¥": 2814,
      "åĴĮçĿ¦": 2815,
      "åŃ¤": 2816,
      "âĢĿâĢľ": 2817,
      "å®ģ": 2818,
      "äºĭåĬ¡": 2819,
      "ä¸ŃæĿĳ": 2820,
      "éķ¿éĹ¨": 2821,
      "äºĭå®ŀ": 2822,
      "ç»ķ": 2823,
      "æ³·å·Ŀä¸ĢçĽĬ": 2824,
      "è´±": 2825,
      "åĲīç»§": 2826,
      "çĶ°æĿĳ": 2827,
      "å¤®": 2828,
      "å¹¼åĲį": 2829,
      "å·Ŀä¸Ńå²Ľ": 2830,
      "çĥŃ": 2831,
      "å¤ªéĺģ": 2832,
      "èµ·åħµ": 2833,
      "çº¹": 2834,
      "è¾ĸ": 2835,
      "ä»İäºĶ": 2836,
      "æĿ¾åŁİ": 2837,
      "å¸¦çĿĢ": 2838,
      "200": 2839,
      "åįĥåı¶": 2840,
      "ãĢĢ": 2841,
      "è¶ħ": 2842,
      "èį¯": 2843,
      "å¤įåħ´": 2844,
      "ä¹Łåľ¨": 2845,
      "æĿĢæŃ»": 2846,
      "ç»ĵçĽŁ": 2847,
      "147": 2848,
      "å¤§åıĭæ°ı": 2849,
      "è®®åĴĮ": 2850,
      "å¿łèĥľ": 2851,
      "çĻ¾å§ĵ": 2852,
      "éĤĢ": 2853,
      "æĹ¥è®°": 2854,
      "å§Ĭ": 2855,
      "æ·¡": 2856,
      "æīĢè°ĵ": 2857,
      "æłĳ": 2858,
      "è¿ĳæ±ŁåĽ½": 2859,
      "çº·çº·": 2860,
      "æĪĺäºĭ": 2861,
      "èĥĮåıĽ": 2862,
      "åĲ§": 2863,
      "å¤¹": 2864,
      "æ²¡æĶ¶": 2865,
      "åĳ¢": 2866,
      "å®īä¸ľ": 2867,
      "æĹ¶çļĦ": 2868,
      "æ¤į": 2869,
      "æĶ¿éķ¿": 2870,
      "æĺ¯æĹ¥æľ¬æĪĺåĽ½æĹ¶ä»£": 2871,
      "çĽ¸åħ³": 2872,
      "å°ıçī§": 2873,
      "åĮĹéĥ¨": 2874,
      "èĩªåĪĥ": 2875,
      "ç®¡çĲĨ": 2876,
      "åľ°åĮºçļĦ": 2877,
      "ä»£å°ĨåĨĽè¶³åĪ©ä¹ī": 2878,
      "äºĶçĻ¾": 2879,
      "æĭ©": 2880,
      "éĢĥäº¡": 2881,
      "åŁİä»£": 2882,
      "ä¿¡éĽĦ": 2883,
      "åħĥéķ¿": 2884,
      "æľ¬ä¸¸": 2885,
      "æİĪè±«": 2886,
      "ç¾İæµĵåĽ½": 2887,
      "ä¾µåħ¥": 2888,
      "å¯»": 2889,
      "èĬ³": 2890,
      "äº«ç¦Ħ": 2891,
      "åĲĪæĪĺä¸Ń": 2892,
      "è¿Ľä¸ĢæŃ¥": 2893,
      "æĹ¥æľ¬çļĦ": 2894,
      "è¿ľå±±": 2895,
      "è¯ŀ": 2896,
      "æĸŃç»Ŀ": 2897,
      "ä¼Ĺå¤ļ": 2898,
      "çŁ¥éģĵ": 2899,
      "åĩ»çł´": 2900,
      "å¤§åıĭå®¶": 2901,
      "æŃ¤æ¬¡": 2902,
      "äºĮæľĪ": 2903,
      "å·¦è¿ĳ": 2904,
      "åħ¼ç»Ń": 2905,
      "æ¬¡çĶ·": 2906,
      "ä¿¡éķ¿åħ¬": 2907,
      "éĩĬ": 2908,
      "è£ģ": 2909,
      "ä¸ĬæĢ»": 2910,
      "åīįæľŁ": 2911,
      "å¯ºéĻ¢": 2912,
      "åľŁåľ°": 2913,
      "åı¥": 2914,
      "ä¸Ģä¸ĩ": 2915,
      "æĿĤè´º": 2916,
      "æľ±": 2917,
      "æµ¦ä¸Ĭ": 2918,
      "åģĩ": 2919,
      "æ°ıåº·": 2920,
      "å¿łæ¬¡": 2921,
      "ä¸įå¾Ĺä¸į": 2922,
      "åĿĢ": 2923,
      "èĹ¤åłĤ": 2924,
      "æĤ¬": 2925,
      "åĨĽåĬ¿": 2926,
      "åĽ½å¯º": 2927,
      "ä¸Ńå¤®": 2928,
      "ç§Ģå®¶": 2929,
      "éļıåį³": 2930,
      "ç¾İä½ľ": 2931,
      "è®²": 2932,
      "å»¶ç»Ń": 2933,
      "ç¯ł": 2934,
      "åĴĮè§£": 2935,
      "åıªèĥ½": 2936,
      "éĴĪ": 2937,
      "åĢŃ": 2938,
      "ä¸¥å²Ľ": 2939,
      "ä¸¤åĨĽ": 2940,
      "å°¼åŃĲæ°ı": 2941,
      "åħ¶å¼Ł": 2942,
      "åĴĮçĶ°": 2943,
      "éŀ": 2944,
      "æ¡Ī": 2945,
      "è¡Įéķ¿": 2946,
      "æľ¬åºĦ": 2947,
      "åºĦåĽŃ": 2948,
      "æĻļå¹´": 2949,
      "ç§Ģç§ĭ": 2950,
      "å¥¹": 2951,
      "åİ»ä¸ĸåĲİ": 2952,
      "æľ¬åŁİ": 2953,
      "å¤§è´¥": 2954,
      "æİī": 2955,
      "ç§ĭæľĪ": 2956,
      "æī¹": 2957,
      "1561": 2958,
      "å¿Ļ": 2959,
      "å¤©å®Ī": 2960,
      "çīĪ": 2961,
      "ç³»åĽ¾": 2962,
      "é½": 2963,
      "çļĦæŃ¦å£«": 2964,
      "æĢķ": 2965,
      "ï¼ŁâĢĿ": 2966,
      "æĶ»åĬ¿": 2967,
      "çĭ©": 2968,
      "èĨ³": 2969,
      "ä¸¤äºº": 2970,
      "å®¢": 2971,
      "çĶ³": 2972,
      "åįģå¹´": 2973,
      "ãģĨ": 2974,
      "146": 2975,
      "æ¯«": 2976,
      "ä¼´": 2977,
      "æ´¥åŁİ": 2978,
      "çģĮ": 2979,
      "å¤§åıĭåĨĽ": 2980,
      "çļĦå¥³åĦ¿": 2981,
      "å°ıçĶ°åİŁå¾ģä¼Ĳ": 2982,
      "ä¸»å¼ł": 2983,
      "å¾Īå¿«": 2984,
      "æģ¨": 2985,
      "ç¨İ": 2986,
      "ä¾§è¿ĳ": 2987,
      "ä¹ĭçĪ¶": 2988,
      "æŃ¤æĪĺ": 2989,
      "æ¨±": 2990,
      "åįłé¢Ĩ": 2991,
      "çŃĳåŁİ": 2992,
      "æĪ·æ¬¡": 2993,
      "ä¸īæ²³åĽ½": 2994,
      "èĢĮè¢«": 2995,
      "æĺ¥æĹ¥": 2996,
      "æ°ıçº²": 2997,
      "å°±ä»»": 2998,
      "æ£Ģåľ°": 2999,
      "ä¸¹ç¾½éķ¿ç§Ģ": 3000,
      "æ±ŁæĪ·å¹ķåºľ": 3001,
      "æĹģ": 3002,
      "æķı": 3003,
      "åħĥåº·": 3004,
      "æĬĢ": 3005,
      "ç¡®ç«ĭ": 3006,
      "ä»įçĦ¶": 3007,
      "çĶĺ": 3008,
      "åĨĽè®°": 3009,
      "æĹ¨": 3010,
      "åŁĭ": 3011,
      "åŁİä¸Ń": 3012,
      "ä»ĸä¸İ": 3013,
      "æµªäºº": 3014,
      "åĽłå¹¡": 3015,
      "åĪĻæĺ¯": 3016,
      "ä¼ĺåĬ¿": 3017,
      "ä¸Ģèī²": 3018,
      "æĸ¯æ³¢ä¹ī": 3019,
      "ä¸ĬçĶ°": 3020,
      "åħĥé¾Łåħĥå¹´": 3021,
      "æ¡ĳ": 3022,
      "ä¼łæķĻ": 3023,
      "æ©": 3024,
      "é±": 3025,
      "é«ĺéĩİ": 3026,
      "ãĤĬ": 3027,
      "è¯į": 3028,
      "è¿Ł": 3029,
      "ä¿£": 3030,
      "åľ¨å¤©æŃ£": 3031,
      "çķ¥åİĨ": 3032,
      "éļ¾ä»¥": 3033,
      "åĩºçĶŁäºİ": 3034,
      "éĢĨ": 3035,
      "å¤§åĨħä¹īéļĨ": 3036,
      "ä¸§": 3037,
      "èµ¦": 3038,
      "è¡Įä¸º": 3039,
      "æĹ§é¢Ĩ": 3040,
      "é±¼": 3041,
      "åĬ¨åĳĺ": 3042,
      "åİŁä¹ĭæĪĺ": 3043,
      "æ¸ħæ°´": 3044,
      "é©±éĢĲ": 3045,
      "çĳŀ": 3046,
      "éªļ": 3047,
      "å·Ŀä¹ĭæĪĺ": 3048,
      "é©¹": 3049,
      "å¾ĭ": 3050,
      "èĩªçĦ¶": 3051,
      "ç§¯æŀģ": 3052,
      "åĬłèĹ¤æ¸ħæŃ£": 3053,
      "1587": 3054,
      "å¯ºç¤¾": 3055,
      "ãģĮ": 3056,
      "æ¶ĪçģŃ": 3057,
      "åįģäºĮæľĪ": 3058,
      "å¤§éĩİ": 3059,
      "æķĮå¯¹": 3060,
      "å®īèīºåĽ½": 3061,
      "å¾·å·Ŀå®¶åº·çļĦ": 3062,
      "èĩ¼": 3063,
      "éķ¿ä¹ħæīĭ": 3064,
      "å°»": 3065,
      "å°½ç®¡": 3066,
      "å®ħéĤ¸": 3067,
      "èº«ä¸º": 3068,
      "æĪĺåĽ½æĹ¶æľŁ": 3069,
      "å¤ĦçĲĨ": 3070,
      "è¿Ļåľº": 3071,
      "çŁĽ": 3072,
      "éĤ¦": 3073,
      "åī©": 3074,
      "çīĻ": 3075,
      "ç»´æĮģ": 3076,
      "å¤§éĩı": 3077,
      "æī¬": 3078,
      "å²Ľæ´¥åĨĽ": 3079,
      "çļĦæĹ¶åĢĻ": 3080,
      "å±ħä½ı": 3081,
      "åºı": 3082,
      "å¹¿å¿ł": 3083,
      "è¾°": 3084,
      "åīįçļĦ": 3085,
      "éĵĥ": 3086,
      "ç»ıä¹ħ": 3087,
      "ç¼Ķ": 3088,
      "1592": 3089,
      "ä¹īç»§": 3090,
      "é¢ĩ": 3091,
      "é¢ĨåĨħ": 3092,
      "ä½Ĩé©¬": 3093,
      "åī¯": 3094,
      "å°ıè¥¿": 3095,
      "ç»§æī¿äºĨ": 3096,
      "å®ĪæĬ¤å¤§åĲį": 3097,
      "éļ¶": 3098,
      "åĮĹéĻĨ": 3099,
      "äºķä¸Ĭ": 3100,
      "æıĲä¾Ľ": 3101,
      "ä¹ĭæĹ¶": 3102,
      "å§Ĳ": 3103,
      "åħ¬åį¿": 3104,
      "åĲ«": 3105,
      "1583": 3106,
      "å¡Ķ": 3107,
      "çĶ¥": 3108,
      "å¤Ħäºİ": 3109,
      "1580": 3110,
      "åįłæį®": 3111,
      "æĮĳ": 3112,
      "è´¹": 3113,
      "ä¹Łè¢«": 3114,
      "åħ¥éģĵ": 3115,
      "1586": 3116,
      "å®ŀéĻħä¸Ĭ": 3117,
      "ä¹Ŀéĥİ": 3118,
      "æ°´éĩİ": 3119,
      "éĶ®": 3120,
      "ä½Ĳç«¹ä¹ī": 3121,
      "ä¿ĿæĮģ": 3122,
      "çĽ´èĩ³": 3123,
      "ä¾§å®¤": 3124,
      "èĻļ": 3125,
      "1581": 3126,
      "åĨ³æĪĺ": 3127,
      "åı¯æĺ¯": 3128,
      "æ³ķåı·": 3129,
      "çļĦåĦ¿åŃĲ": 3130,
      "èĩ£æľį": 3131,
      "ç»ĩçĶ°ä¿¡ç§Ģ": 3132,
      "çĶŁäºİ": 3133,
      "æĵħ": 3134,
      "ä¸īæľ¨": 3135,
      "æĶ¿åĬ¡": 3136,
      "æĶ»ä¸ĭ": 3137,
      "å°ĳè¾ħ": 3138,
      "å¹³å®ī": 3139,
      "âĢĺ": 3140,
      "âĢĻ": 3141,
      "æĶ¹åĲįä¸º": 3142,
      "å¤§åıĭä¹ī": 3143,
      "æŃ¦çĶ°ä¿¡èĻİ": 3144,
      "æī¾": 3145,
      "åĨľæ°ĳ": 3146,
      "ä¸Ģäºº": 3147,
      "çĶ°éķ¿": 3148,
      "éŃ": 3149,
      "åħ³éĶ®": 3150,
      "å¤§ä¹ħä¿Ŀ": 3151,
      "åĴĮæŃĮ": 3152,
      "åĮĹæĿ¡æ°ıæĶ¿": 3153,
      "æķ´ä¸ª": 3154,
      "ä¿ĿæĬ¤": 3155,
      "åĵ¥": 3156,
      "æĬķéĿł": 3157,
      "åīĬ": 3158,
      "çĽ´æ±Ł": 3159,
      "åįģä¸ĢæľĪ": 3160,
      "éļħ": 3161,
      "æĿ¥è¯´": 3162,
      "èµ·äºĨ": 3163,
      "æĿ¾å¹³å®¶": 3164,
      "è¿Ŀ": 3165,
      "éĤ£ä¹Ī": 3166,
      "ä¸Ģæ¬¡": 3167,
      "éķľ": 3168,
      "ä¿¡ç¹ģ": 3169,
      "æ´ŀ": 3170,
      "å½»åºķ": 3171,
      "è°¢": 3172,
      "é¼ĵ": 3173,
      "æµ·éģĵ": 3174,
      "ä¹īé¾Ļ": 3175,
      "å½ĵçĦ¶": 3176,
      "å®¶è°±": 3177,
      "éķ¿ç¯ł": 3178,
      "åŃĿé«ĺ": 3179,
      "ä»¥æŃ¤": 3180,
      "å°ıçĶ°åİŁåŁİ": 3181,
      "è¿Ļæł·çļĦ": 3182,
      "ä¹īéļĨ": 3183,
      "æľīé©¬": 3184,
      "åıĳåĩº": 3185,
      "äºİå¤©æŃ£": 3186,
      "èĦī": 3187,
      "Ġçķ¥åİĨ": 3188,
      "éļĶ": 3189,
      "å¼¹æŃ£": 3190,
      "ç¬¬åĽĽ": 3191,
      "åĲİèĹ¤": 3192,
      "è¿ĻæĹ¶": 3193,
      "ç¿¼": 3194,
      "æ¬¡å¹´": 3195,
      "å£ģ": 3196,
      "èĤ²": 3197,
      "æķ¬": 3198,
      "å¥īåħ¬": 3199,
      "ç¬ĳ": 3200,
      "èĥĮæĻ¯": 3201,
      "å¤©ç¥ŀ": 3202,
      "åķĨäºº": 3203,
      "ä»İäºĶä½įä¸ĭ": 3204,
      "æĪĲæ°ı": 3205,
      "åĪ°è¾¾": 3206,
      "åıįåĩ»": 3207,
      "çī©è¯Ń": 3208,
      "æĽ¾ç»ı": 3209,
      "1615": 3210,
      "çĽŁåıĭ": 3211,
      "èĥľåħĥ": 3212,
      "æĪĲä¸ºäºĨ": 3213,
      "æ§": 3214,
      "å¥ı": 3215,
      "è¾īå®Ĺ": 3216,
      "ä¿¡åŃĿ": 3217,
      "çĦ¶åĲİ": 3218,
      "æ¿ĢæĪĺ": 3219,
      "æĹ¥éĩİ": 3220,
      "èĥ½åĬĽ": 3221,
      "ç»įè¿Ĳ": 3222,
      "æŃ¦çĶ°æĻ´ä¿¡": 3223,
      "1614": 3224,
      "çİ°äºĨ": 3225,
      "éĶħå²Ľ": 3226,
      "ä¿¡éķ¿åħ¬è®°": 3227,
      "èĢĨ": 3228,
      "åĲīèī¯": 3229,
      "æĻ´ä¹ħ": 3230,
      "éº»": 3231,
      "äº§çĶŁ": 3232,
      "ãĤĤ": 3233,
      "éĽĨç»ĵ": 3234,
      "ãĢįãĢĤ": 3235,
      "ĠçĶŁå¹³": 3236,
      "åĲįåı¤": 3237,
      "èĢĮè¨Ģ": 3238,
      "çİ¯": 3239,
      "ä»ĸæĺ¯": 3240,
      "çĽĺ": 3241,
      "å§Ķ": 3242,
      "çĶ²æĸĲåĽ½": 3243,
      "æĬ¼": 3244,
      "åĪĨè£Ĥ": 3245,
      "1579": 3246,
      "åĲīå·Ŀåħĥæĺ¥": 3247,
      "å®¶äºº": 3248,
      "å±¥": 3249,
      "è¯Ľ": 3250,
      "ä¿¡æµĵåĽ½": 3251,
      "æ¹ĸ": 3252,
      "ä½ĨåĽł": 3253,
      "çŀ": 3254,
      "æĪĪ": 3255,
      "æ²³è¶Ĭ": 3256,
      "ä¼¯èĢĨ": 3257,
      "çĽ´åĪ°": 3258,
      "åıªå¾Ĺ": 3259,
      "©åĽº": 3260,
      "æĶ»åŁİ": 3261,
      "å·©åĽº": 3262,
      "æī«": 3263,
      "éĢīæĭ©": 3264,
      "èĩ³æ±ŁæĪ·æĹ¶ä»£åĪĿæľŁ": 3265,
      "è¿Ļä½į": 3266,
      "è´±å²³": 3267,
      "ä¸ºæĻ¯": 3268,
      "èĩ³ä»Ĭ": 3269,
      "ä¸ºé¦ĸ": 3270,
      "åĬ¿åĬĽçļĦ": 3271,
      "èĥ½å¤Ł": 3272,
      "ä¿¸": 3273,
      "ä¿®çŃĳ": 3274,
      "åĲİéĨįéĨĲå¤©çļĩ": 3275,
      "æ°ıåľ¨": 3276,
      "åºĶæ°¸": 3277,
      "æ°ıç¬¬": 3278,
      "50": 3279,
      "æĪĲç«ĭ": 3280,
      "ä¸°èĩ£å®¶": 3281,
      "ä¸ºåħ»åŃĲ": 3282,
      "å±±çļĦ": 3283,
      "ä¸īåįĥ": 3284,
      "å»ī": 3285,
      "ä¼ĹçļĦ": 3286,
      "æĸ©æĿĢ": 3287,
      "èµŀå²Ĳ": 3288,
      "æĪĲçļĦ": 3289,
      "åĬłå¢ŀ": 3290,
      "æľĿä»ĵä¹īæĻ¯": 3291,
      "å®ĥ": 3292,
      "èĢ³": 3293,
      "è¡Ĺ": 3294,
      "æ¾Ħåħĥ": 3295,
      "çĽ¸é©¬": 3296,
      "å¦Ĥä½ķ": 3297,
      "çľĭåĪ°": 3298,
      "å¤§è°·": 3299,
      "å¥ĩè¢Ń": 3300,
      "ä¸īçĻ¾": 3301,
      "æİ¥çĿĢ": 3302,
      "å¿ħé¡»": 3303,
      "éĻ¶æĻ´è´¤": 3304,
      "æĭ¿": 3305,
      "æĸ°çĶ°": 3306,
      "1574": 3307,
      "å±ĢåĬ¿": 3308,
      "æ±ī": 3309,
      "ç»ĩçĶ°ä¿¡éĽĦ": 3310,
      "çº³è¨Ģ": 3311,
      "åħ¶ä¸º": 3312,
      "çĽ®æłĩ": 3313,
      "å®ŀæĿĥ": 3314,
      "ä¸įè¶³": 3315,
      "æ²Ł": 3316,
      "åĪ«æīĢ": 3317,
      "æ¢ģ": 3318,
      "æ£®éķ¿": 3319,
      "çļĦæ¬¡åŃĲ": 3320,
      "æŃ£åľ¨": 3321,
      "å¤§å´İ": 3322,
      "é¦ĸåħĪ": 3323,
      "è§Ĵèī²": 3324,
      "æŃ¤åīį": 3325,
      "æĹ¥åĲİ": 3326,
      "ç¡®è®¤": 3327,
      "ãĤĮ": 3328,
      "1563": 3329,
      "1567": 3330,
      "ä¹īæ¸ħ": 3331,
      "ç¦ıå¯º": 3332,
      "å¹³æ°ı": 3333,
      "ä»¥ä¸º": 3334,
      "è½¦": 3335,
      "è¿ĩç¨ĭ": 3336,
      "åºĩ": 3337,
      "åĪĨä¸º": 3338,
      "1571": 3339,
      "éķ¿å®ĹæĪĳéĥ¨åħĥäº²": 3340,
      "æĺŁ": 3341,
      "çĵ¦": 3342,
      "ä¹īåħ´": 3343,
      "çķłå±±ä¹ī": 3344,
      "æĲº": 3345,
      "æĪĲåĳĺ": 3346,
      "å¹¶æ²¡æľī": 3347,
      "ç¬¼åŁİ": 3348,
      "åįģéĥİ": 3349,
      "åĲĦèĩª": 3350,
      "çļĦäºĭ": 3351,
      "èĹ¤åŃĿ": 3352,
      "é©»å®Ī": 3353,
      "ãĤī": 3354,
      "ç½¢": 3355,
      "1577": 3356,
      "ç¦ıå²ĽæŃ£åĪĻ": 3357,
      "çĽ´å®¶": 3358,
      "1572": 3359,
      "è°·åŁİ": 3360,
      "é¹°": 3361,
      "ç¬¬äºĮæ¬¡": 3362,
      "å®°": 3363,
      "è´¼": 3364,
      "ä¹īè¾ī": 3365,
      "éļĨåħĥ": 3366,
      "å°ĨåĨĽçļĦ": 3367,
      "æ²Ļ": 3368,
      "æ¸ħåº·": 3369,
      "é¡¶": 3370,
      "é½Ĳ": 3371,
      "å½ĵå¹´": 3372,
      "å®ŀæĸ½": 3373,
      "å¥³å©¿": 3374,
      "ç¬¬ä¸Ģæ¬¡": 3375,
      "è´°": 3376,
      "ä¹īè´¤": 3377,
      "çĶŁæ´»": 3378,
      "äº¬éĥ½çļĦ": 3379,
      "é¡¿": 3380,
      "é¥°": 3381,
      "éķ¿å²Ľ": 3382,
      "ç»Ĩå·ĿæĻ´åħĥ": 3383,
      "âĶ": 3384,
      "åĲ¾": 3385,
      "åĨ·": 3386,
      "ç§ĺ": 3387,
      "è¡¡": 3388,
      "éĥ¨å°Ĩ": 3389,
      "ä¿¡çĽĽ": 3390,
      "æĺ¯æĹ¥æľ¬": 3391,
      "åĲįåŃĹ": 3392,
      "åıĪç§°": 3393,
      "ä¼łç»Ł": 3394,
      "åĳ³": 3395,
      "å®´": 3396,
      "èĮĥåĽ´": 3397,
      "å·ĿåŁİ": 3398,
      "èĩªæŃ¤": 3399,
      "åĲįä¹ī": 3400,
      "å¸Ĳ": 3401,
      "ç¥ŀä¿Ŀ": 3402,
      "ä¸īæĸ¹": 3403,
      "åºĶè¯¥": 3404,
      "å¤§åıĭå®ĹéºŁ": 3405,
      "çī¹åĪ«": 3406,
      "æĺİæľĿ": 3407,
      "æ·Ģ": 3408,
      "å®Īå°Ĩ": 3409,
      "éģĵçģĮ": 3410,
      "ãĢĭï¼Ī": 3411,
      "çŁĽçĽ¾": 3412,
      "ç¤¾ä¼ļ": 3413,
      "ä¸ºçĶ±": 3414,
      "æł¹æľ¬": 3415,
      "è¯»": 3416,
      "éĽħ": 3417,
      "1576": 3418,
      "ç«ĭåĬŁ": 3419,
      "ç§»å°ģ": 3420,
      "å¹´ä»ħ": 3421,
      "ç§ĢæĶ¿": 3422,
      "å½¢å¼ı": 3423,
      "è¿«ä½¿": 3424,
      "å¹´åĲİ": 3425,
      "æĮ¯": 3426,
      "çĪµ": 3427,
      "æī©å¤§": 3428,
      "ä¹īæĶ¿": 3429,
      "èĢĮåľ¨": 3430,
      "è°Ĵ": 3431,
      "æī¿è®¤": 3432,
      "èĩ³æŃ¤": 3433,
      "æŃ¦çĶ°å®¶çļĦ": 3434,
      "å¾·å·Ŀæ°ı": 3435,
      "æĿĥå¨ģ": 3436,
      "åįĹåĮĹæľĿ": 3437,
      "éĹ°": 3438,
      "ä¸¹åĲİ": 3439,
      "ä¿¡çĽ´": 3440,
      "åĽ½å®¶": 3441,
      "è¡ĮæĶ¿": 3442,
      "ä¸ºä¸»": 3443,
      "æį®ç§°": 3444,
      "åħ¨åĨĽ": 3445,
      "æĦŁåĪ°": 3446,
      "è¯ŀçĶŁ": 3447,
      "å¢Ļ": 3448,
      "å¨ģèĥģ": 3449,
      "è®Ń": 3450,
      "å·¥ä½ľ": 3451,
      "ä¼ıè§ģåŁİ": 3452,
      "æ°ıçļĦå®¶èĩ£": 3453,
      "ç¿»": 3454,
      "éĥ¨ä¸ĭ": 3455,
      "ä¸ĸä»£": 3456,
      "åĬŁç»©": 3457,
      "éĤ£é¡»": 3458,
      "å°¤åħ¶": 3459,
      "åįģäºĶ": 3460,
      "æ°ıå½ĵä¸»": 3461,
      "å´Ľ": 3462,
      "ä½ĵç³»": 3463,
      "çľŁçĶ°æĺĮå¹¸": 3464,
      "ä¸īæĿ¡": 3465,
      "æĿ¥äºĨ": 3466,
      "å¤ªå¹³": 3467,
      "çļĦåħ»åŃĲ": 3468,
      "æĹ§èĩ£": 3469,
      "ãĢįï¼Į": 3470,
      "åŁºæľ¬": 3471,
      "çĪ±çŁ¥": 3472,
      "å¹´è½»": 3473,
      "éĩĩåıĸ": 3474,
      "çŁ©": 3475,
      "åĨħå®¹": 3476,
      "133": 3477,
      "èľĤé¡»è´º": 3478,
      "å¹½": 3479,
      "éĿ©": 3480,
      "è§¦": 3481,
      "çķĻåľ¨": 3482,
      "ä¼ª": 3483,
      "åŁºçĿ£": 3484,
      "è®¯": 3485,
      "è°ĥåģľ": 3486,
      ")ï¼Į": 3487,
      "å§ĭç»Ī": 3488,
      "æĸĭèĹ¤éģĵä¸ī": 3489,
      "æĳĩ": 3490,
      "ä¾ĭå¦Ĥ": 3491,
      "çİĭä¸¸": 3492,
      "æ¿ĢçĥĪ": 3493,
      "çļĦæ¶Īæģ¯": 3494,
      "æľĪå±±": 3495,
      "æĺŃåĴĮ": 3496,
      "æĤ£": 3497,
      "éľĢè¦ģ": 3498,
      "æĪĴ": 3499,
      "æĦ¤": 3500,
      "1555": 3501,
      "åĬ£": 3502,
      "è½¬èĢĮ": 3503,
      "ç±į": 3504,
      "æīįèĥ½": 3505,
      "åĿı": 3506,
      "åīįçĶ°åĪ©": 3507,
      "å®ĪåĨĽ": 3508,
      "1564": 3509,
      "æµģä¼ł": 3510,
      "ç»Ĩå·ĿæĶ¿åħĥ": 3511,
      "å¸Ŀ": 3512,
      "ä¾¯": 3513,
      "å¿łæĶ¿": 3514,
      "è¯º": 3515,
      "æĶ¾éĢĲ": 3516,
      "é©¬åľº": 3517,
      "åĢ¾": 3518,
      "çļĦè¯Ŀ": 3519,
      "åĪ©ä¼ĳ": 3520,
      "æĪ´": 3521,
      "æĻĭ": 3522,
      "æ¢¨": 3523,
      "åıįèĢĮ": 3524,
      "1562": 3525,
      "å®¶çĿ£ä¹ĭä½į": 3526,
      "çĶ²å·ŀ": 3527,
      "å´Ľèµ·": 3528,
      "éĩİåŁİ": 3529,
      "å²Ľæ´¥ä¹īå¼ĺ": 3530,
      "äºĪ": 3531,
      "æĬ¥åĳĬ": 3532,
      "æĢİ": 3533,
      "åº¶æµģ": 3534,
      "åľ°å¤´": 3535,
      "è¦Ĩ": 3536,
      "çļĦé«ĺ": 3537,
      "çļĦåħ³ç³»": 3538,
      "æĹ¦": 3539,
      "ä¸ĢåĽ½": 3540,
      "å¤©æĸĩäºĮåįģ": 3541,
      "å¥Īèī¯": 3542,
      "åĳĪ": 3543,
      "æĢģåº¦": 3544,
      "ä¼ģ": 3545,
      "åĽ½äººä¼Ĺ": 3546,
      "å·¦åį«éĹ¨å°ī": 3547,
      "ãĢĤ**": 3548,
      "è·ĳ": 3549,
      "æľĪå±±å¯Į": 3550,
      "ä¸Ģä»£": 3551,
      "ä»£å°ĨåĨĽ": 3552,
      "çŁ³é«ĺ": 3553,
      "å¾®": 3554,
      "ä¿¸ç¦Ħ": 3555,
      "ä»°": 3556,
      "è¥¿åĽ½": 3557,
      "åıįåıĽ": 3558,
      "å®¶åľ¨": 3559,
      "æŃ¤ä¸¾": 3560,
      "ç»Ħç»ĩ": 3561,
      "ä¿¡ä»»": 3562,
      "åįģä¸ī": 3563,
      "ä¸īå¥½ä¸īäººä¼Ĺ": 3564,
      "ä½Ļéªĳ": 3565,
      "éģį": 3566,
      "å½±åĵįåĬĽ": 3567,
      "åĴĮè®®": 3568,
      "åįģæ²³": 3569,
      "çĽ´ä¹ī": 3570,
      "æĪĺçķ¥": 3571,
      "æĢ¨": 3572,
      "è¿ĳåį«": 3573,
      "èıĬæ±ł": 3574,
      "ä¸Ģå¹´": 3575,
      "éļľ": 3576,
      "åı¦æľī": 3577,
      "¡æĹĭ": 3578,
      "ç«ĭèĬ±å®ĹèĮĤ": 3579,
      "æĸ¡æĹĭ": 3580,
      "ç«ĭåĪ»": 3581,
      "çĪ¶äº²æĺ¯": 3582,
      "çĽ®çļĦ": 3583,
      "åĮĹæĿ¡åĨĽ": 3584,
      "çĹĽ": 3585,
      "æĺł": 3586,
      "ä»¥ä¸Ĭ": 3587,
      "çļĦåĬ¿åĬĽ": 3588,
      "åħµåºĵ": 3589,
      "èº«è¾¹": 3590,
      "å¦Ĥä»Ĭ": 3591,
      "åĢĴæĪĪ": 3592,
      "æĤ²": 3593,
      "é¸Łå±ħ": 3594,
      "çĶ°ä¿¡": 3595,
      "ä¼ļåĲĪ": 3596,
      "1565": 3597,
      "é¢ĳ": 3598,
      "å¹¶ä¸İ": 3599,
      "ä¸ľè¥¿": 3600,
      "å£®": 3601,
      "ä¹ĭäºº": 3602,
      "æĸ¹å¼ı": 3603,
      "æ¬¢": 3604,
      "ä½ľåĵģ": 3605,
      "è§ĤçĤ¹": 3606,
      "èĦ±ç¦»": 3607,
      "å±±çĶ°": 3608,
      "å³ł": 3609,
      "ï½": 3610,
      "æĹ¬": 3611,
      "æ²ī": 3612,
      "ç»§ä½į": 3613,
      "æĹ¶ä»£çļĦ": 3614,
      "è·Ŀ": 3615,
      "æ³ķåĲį": 3616,
      "å½ĴéĻĦ": 3617,
      "ä¸ĭäºĨ": 3618,
      "æ¢¦": 3619,
      "è¿İå¨¶": 3620,
      "éĹ¨å¾Ĵ": 3621,
      "éĿ¢çļĦ": 3622,
      "éĵĥæľ¨": 3623,
      "åįģäºĮå¹´": 3624,
      "å¾ģå¤·": 3625,
      "æīĵç®Ĺ": 3626,
      "çļĦèº«ä»½": 3627,
      "è°ģ": 3628,
      "ãģķ": 3629,
      "æıı": 3630,
      "ç¨Ļå®Ĺ": 3631,
      "éļıåĨĽ": 3632,
      "500": 3633,
      "è´¥éĢĢ": 3634,
      "å¼ºåĮĸ": 3635,
      "çļĦéĩįè¦ģ": 3636,
      "ä¸ĭæĿ¥": 3637,
      "å®ĹæķĻ": 3638,
      "å°ĳè´°": 3639,
      "ä»ĭåħ¥": 3640,
      "å¤§åĨħä¹īåħ´": 3641,
      "ä¹Łå°±æĺ¯": 3642,
      "ç¼Ķç»ĵ": 3643,
      "ä¹ĭå¤ĸ": 3644,
      "å²Ľæ´¥ä¹īä¹ħ": 3645,
      "å¤«äºº": 3646,
      "æľ«æľŁ": 3647,
      "å°º": 3648,
      "åħ°": 3649,
      "ä¸İçĪ¶äº²": 3650,
      "æĶ¿æīĢ": 3651,
      "çŃīåľ°": 3652,
      "é¡¹": 3653,
      "çļĦæĥħåĨµ": 3654,
      "æīĭä¸Ń": 3655,
      "åºĩæĬ¤": 3656,
      "ä½ĳ": 3657,
      "æĺ¯åĲ¦": 3658,
      "æīĢé¢Ĩ": 3659,
      "èĭĹ": 3660,
      "ä¸ĥéĥİ": 3661,
      "å»ºæŃ¦": 3662,
      "ç»ĩçĶ°ä¿¡å¿ł": 3663,
      "çİĩé¢ĨçļĦ": 3664,
      "åħģè®¸": 3665,
      "éĺµä¸Ń": 3666,
      "ä¹¦çĬ¶": 3667,
      "çİĩåħµ": 3668,
      "å»ºéĢł": 3669,
      "èģĮåĬ¡": 3670,
      "çĬ¯": 3671,
      "çŃ±": 3672,
      "æĥ§": 3673,
      "èĦļ": 3674,
      "çĨŁ": 3675,
      "ãģ¾": 3676,
      "èı©": 3677,
      "æŃ¦èĹıåĽ½": 3678,
      "åł¡": 3679,
      "äº¤æ¶ī": 3680,
      "æ±ŁæĪ·åŁİ": 3681,
      "èģĶæīĭ": 3682,
      "å¯ºåŁİ": 3683,
      "1598": 3684,
      "åı¹": 3685,
      "å¹´å¹¼": 3686,
      "å¯Ĵ": 3687,
      "å¿łåħ´": 3688,
      "ç¥¥": 3689,
      "ä»İæŃ¤": 3690,
      "éķ°ä»ĵå¹ķåºľ": 3691,
      "ä¿¡ç§Ģ": 3692,
      "å°ıè·¯": 3693,
      "èį¡": 3694,
      "æĤī": 3695,
      "åīįçº¿": 3696,
      "åħ¨åĽ½": 3697,
      "éĥŃ": 3698,
      "è¯¸å¤§åĲį": 3699,
      "éķ¿å°¾æĻ¯èĻİ": 3700,
      "ä»ªå¼ı": 3701,
      "åĬłå¼º": 3702,
      "åį³ä¾¿": 3703,
      "åħĥå¿ł": 3704,
      "å¹´ä»£": 3705,
      "å¿Į": 3706,
      "çĻ½æ²³": 3707,
      "éĹ»åĲį": 3708,
      "ä»»ä½ķ": 3709,
      "æĺ¾ç¤º": 3710,
      "å°ıè¥¿è¡Įéķ¿": 3711,
      "æ°ıä¸ĢæĹı": 3712,
      "æľīäºº": 3713,
      "çľŁçĶ°å¹¸": 3714,
      "éĩįå»º": 3715,
      "éļıä¹ĭ": 3716,
      "çº³åħ¥": 3717,
      "åľ¨æ°¸ç¦Ħ": 3718,
      "ä¸įä¼ļ": 3719,
      "å¹¶å°Ĩ": 3720,
      "æ®Ĭ": 3721,
      "çĬ¶æĢģ": 3722,
      "è´¥åĮĹ": 3723,
      "å¯ĩ": 3724,
      "å¿§": 3725,
      "åĽ´æĶ»": 3726,
      "å®īåľŁåŁİ": 3727,
      "ä¸ĬéĩİåĽ½": 3728,
      "é«ĺéĩİå±±": 3729,
      "ä¹īè´ŀ": 3730,
      "çĶŁæ¯į": 3731,
      "æī¶": 3732,
      "åĮ¹": 3733,
      "æĴĳ": 3734,
      "å®ļäºĨ": 3735,
      "è¶³åĪ©å°Ĭæ°ı": 3736,
      "çīµåĪ¶": 3737,
      "åĽ½åı¸": 3738,
      "å¤§å°ĨåĨĽ": 3739,
      "å¤§è§Ħæ¨¡": 3740,
      "å¹¶æĹł": 3741,
      "æĦıåĽ¾": 3742,
      "å°Ķ": 3743,
      "å¾ĹåĪ°äºĨ": 3744,
      "æĶ¹ä¸º": 3745,
      "å®ĺèģĮ": 3746,
      "çªģè¢Ń": 3747,
      "ç´«": 3748,
      "ä»¥åīį": 3749,
      "æľ¬å®¶": 3750,
      "ä¸»å®¶": 3751,
      "åĪĨå®¶": 3752,
      "æ¥ł": 3753,
      "å¤§ä½Ľ": 3754,
      "åĲ¹": 3755,
      "æĶ¿åıĺ": 3756,
      "éª¨": 3757,
      "ç»Ĩå·Ŀé«ĺåĽ½": 3758,
      "çŁ³å±±æľ¬æĦ¿å¯º": 3759,
      "æ¸Ĭ": 3760,
      "æĮģæ°ı": 3761,
      "æĺ¯æĪĺåĽ½æĹ¶ä»£èĩ³å®īåľŁæ¡ĥå±±æĹ¶ä»£çļĦæŃ¦å°Ĩ": 3762,
      "å¤§å¤ļ": 3763,
      "å¤§äºķ": 3764,
      "é¢Ŀ": 3765,
      "è¾ĵ": 3766,
      "æī°": 3767,
      "ç«ł": 3768,
      "çĬ¹": 3769,
      "çİ°åŃĺ": 3770,
      "åĲĥ": 3771,
      "åĬ¨åĲĳ": 3772,
      "æĺĮæĻ¯": 3773,
      "æ¸¡è¾¹": 3774,
      "ç©´å±±": 3775,
      "å°¹": 3776,
      "å¯ºçļĦ": 3777,
      "æľĢä¸Ĭä¹īåħī": 3778,
      "æ½ľ": 3779,
      "èĥľä¹ħ": 3780,
      "è¯´æĺ¯": 3781,
      "éĴŁ": 3782,
      "æ³¢å¤ļ": 3783,
      "æķ¦": 3784,
      "è°ı": 3785,
      "ç»ĩçĶ°å®¶çļĦ": 3786,
      "é£ŀé©": 3787,
      "æĿİ": 3788,
      "ä¸ºä¸Ńå¿ĥ": 3789,
      "æ²³åİŁ": 3790,
      "ä¸Ī": 3791,
      "çļĦå«¡åŃĲ": 3792,
      "åħĨ": 3793,
      "ç®ķ": 3794,
      "å»ºè®®": 3795,
      "æºĲèµĸæľĿ": 3796,
      "å¤©æŃ£åįģå¹´": 3797,
      "å¤¹åĩ»": 3798,
      "æĭ¢": 3799,
      "å´ĩ": 3800,
      "é¡ºåºĨ": 3801,
      "çģŃäº¡åĲİ": 3802,
      "ä¸°èĩ£ç§Ģèµĸ": 3803,
      "èįĴæľ¨æĿĳéĩį": 3804,
      "æĺĶ": 3805,
      "éĻįä¼ı": 3806,
      "ä¿¡çº²": 3807,
      "åĢį": 3808,
      "åľ¨ä¸İ": 3809,
      "å£«æ°Ķ": 3810,
      "éªĳåħµ": 3811,
      "æŃ¦èĢħ": 3812,
      "ãģį": 3813,
      "åıįæĬĹ": 3814,
      "æ¸¸ä½Ĳ": 3815,
      "ç»Ĩå·Ŀæ°ı": 3816,
      "æļĤæĹ¶": 3817,
      "ä¼Ĺäºº": 3818,
      "å®½æĶ¿": 3819,
      "ä¸ºæŃ¤": 3820,
      "éĥ¡å±±åŁİ": 3821,
      "èĮ¶éģĵ": 3822,
      "é£ŀé©Ĵ": 3823,
      "âĢľ**": 3824,
      "å£¬": 3825,
      "å¤ªåĪĢ": 3826,
      "çĹħæŃ»": 3827,
      "æł¹æį®åľ°": 3828,
      "å¸®åĬ©": 3829,
      "åħ¶ä½Ļ": 3830,
      "èĩ³äºİ": 3831,
      "æ²¡èĲ½": 3832,
      "åįĬå²Ľ": 3833,
      "æİ¢é¢ĺ": 3834,
      "æĺ¯å®īåľŁæ¡ĥå±±æĹ¶ä»£": 3835,
      "ãģ§": 3836,
      "ç¦ģæŃ¢": 3837,
      "èĪŁ": 3838,
      "åĢĴåĲĳ": 3839,
      "èµ¦åħį": 3840,
      "ä¹ı": 3841,
      "æ´¾çļĦ": 3842,
      "çĽĸ": 3843,
      "ä¸įåĨį": 3844,
      "ä½Ĳç«¹æ°ı": 3845,
      "æ©¹": 3846,
      "æ°ıæĶ¿": 3847,
      "æľīçļĦ": 3848,
      "è¢«å®ĺ": 3849,
      "å¹³åİŁ": 3850,
      "ç½ļ": 3851,
      "å¤ıä¹ĭéĺµ": 3852,
      "åįģåħŃ": 3853,
      "ä½įç½®": 3854,
      "åºľä¸Ń": 3855,
      "ç«ĭä¸ĭæĪĺåĬŁ": 3856,
      "æ´Ĺ": 3857,
      "ä¸»å¯¼": 3858,
      "æĥľ": 3859,
      "åį±æľº": 3860,
      "æĪĺçļĦ": 3861,
      "æľ¬éĺŁ": 3862,
      "ä¼ļè®®": 3863,
      "åįĴå¹´ä¸įè¯¦": 3864,
      "åĩºåĩ»": 3865,
      "æ¯ķ": 3866,
      "å½¢åĬ¿": 3867,
      "éĩĩçĶ¨": 3868,
      "æĿ¥åĪ°": 3869,
      "æĳĨ": 3870,
      "åĲİåĮĹæĿ¡": 3871,
      "ä¸īä½į": 3872,
      "æ¸¡æµ·": 3873,
      "éķ¿çĶ·": 3874,
      "æĬļ": 3875,
      "å¹¶ä»¥": 3876,
      "æ´»è·ĥäºİ": 3877,
      "éķ°ä»ĵæĹ¶ä»£": 3878,
      "ä½ľçĶ¨": 3879,
      "ä¸ĩäºº": 3880,
      "å²Ľæ´¥å¿ł": 3881,
      "æĿ¾å¹³å¿ł": 3882,
      "å¤§èĢģ": 3883,
      "çľŁæŃ£": 3884,
      "çªģåĩ»": 3885,
      "åĲįåı¤å±ĭ": 3886,
      "ä¸İåħ¶": 3887,
      "æį®å®Ī": 3888,
      "åħ«éĥİ": 3889,
      "è§ģäºİ": 3890,
      "éĵł": 3891,
      "æĶ¾çģ«": 3892,
      "ä»¿": 3893,
      "é¾Ħ": 3894,
      "çĶ°ä¸Ń": 3895,
      "äº¦è¢«": 3896,
      "èĭı": 3897,
      "èĩ³æ±ŁæĪ·æĹ¶ä»£åĪĿæľŁçļĦæŃ¦å°Ĩ": 3898,
      "åĩºåŁİ": 3899,
      "å®īæİĴ": 3900,
      "æĸ°çļĦ": 3901,
      "åħ³ä¸ľçļĦ": 3902,
      "è´µæĹı": 3903,
      "åĮ»": 3904,
      "åİŁåŁİ": 3905,
      "æı´åĬ©": 3906,
      "èģĶç»ľ": 3907,
      "å±ĭæķ·": 3908,
      "æħ¢": 3909,
      "èĶ": 3910,
      "æĪĺæľ¯": 3911,
      "éĺ³åĨĽ": 3912,
      "æ°ıåĴĮ": 3913,
      "éģĵè·¯": 3914,
      "äº¤éĢļ": 3915,
      "ä¸īåĽ½": 3916,
      "ä¸įå°ĳ": 3917,
      "å½Ĵå±ŀ": 3918,
      "å±ı": 3919,
      "æĿ¥èĩª": 3920,
      "å¥īåĳ½": 3921,
      "éªıæ²³åĽ½": 3922,
      "äºİæŃ¤": 3923,
      "è¾Ī": 3924,
      "åıĳæĮ¥": 3925,
      "æĹłè®º": 3926,
      "åł¤": 3927,
      "æķķ": 3928,
      "çº¸": 3929,
      "ä¹īä¿¡": 3930,
      "è¢ĸ": 3931,
      "å´©æºĥ": 3932,
      "ä¸īåŃĲ": 3933,
      "å®ł": 3934,
      "ç¥Ī": 3935,
      "145": 3936,
      "éĶĲ": 3937,
      "å¿Ĺè´º": 3938,
      "åĵįåºĶ": 3939,
      "æľĪå±±å¯ĮçĶ°åŁİ": 3940,
      "å®¶ä¸İ": 3941,
      "ä¸ºåħ¶": 3942,
      "æŃ¦åĭĩ": 3943,
      "é¢ĨåľŁ": 3944,
      "ãģı": 3945,
      "æĬ±": 3946,
      "åĴĮè°Ī": 3947,
      "æİª": 3948,
      "çĶŁå¹´ä¸įè¯¦": 3949,
      "å¦Ĥæ°´": 3950,
      "é¸Łåıĸ": 3951,
      "å«ģç»Ļ": 3952,
      "è¢«è®¤ä¸ºæĺ¯": 3953,
      "ä¸ĬäºĨ": 3954,
      "åıĳå¸ĥ": 3955,
      "ä¸ľåĮĹ": 3956,
      "å±¥åİĨ": 3957,
      "è¢«æĿĢ": 3958,
      "é¦ĸæ¬¡": 3959,
      "ç«¹ä¸Ń": 3960,
      "åłĢè¶Ĭ": 3961,
      "æľ±åį°": 3962,
      "éªļåĬ¨": 3963,
      "è¿İåĩ»": 3964,
      "åĪĹä¸º": 3965,
      "èīĺ": 3966,
      "åİ»äºĨ": 3967,
      "åķĬ": 3968,
      "å¤ľè¢Ń": 3969,
      "éģŃéģĩ": 3970,
      "èŀ": 3971,
      "âĢĿãĢģ": 3972,
      "åº·æĶ¿": 3973,
      "äºķåŁİ": 3974,
      "çļĦæĪĺæĸĹ": 3975,
      "é©°": 3976,
      "æĸĭèĹ¤åĪ©": 3977,
      "ä¸įåĪ©": 3978,
      "æ»ĭ": 3979,
      "1566": 3980,
      "è¶ģæľº": 3981,
      "çĶŁå¹³": 3982,
      "ä¸ºä¿¡": 3983,
      "ä¸Ńå·Ŀ": 3984,
      "å®¶èĩ£çļĦ": 3985,
      "çĲĨçĶ±": 3986,
      "èĢĥèĻĳ": 3987,
      "èĢħçļĦ": 3988,
      "èĸĦ": 3989,
      "ä¹ĭè¯´": 3990,
      "å±±æľ¬": 3991,
      "åį³ä½¿": 3992,
      "æ°ıå®¶": 3993,
      "å¤©æŃ£åħĥå¹´": 3994,
      "èĹ©å£«": 3995,
      "åħ·ä½ĵ": 3996,
      "çļĦå¼Łå¼Ł": 3997,
      "å²Ń": 3998,
      "æįŁå¤±": 3999,
      "ä¸ºæį®çĤ¹": 4000,
      "åľ¨äºİ": 4001,
      "æĻ´å®Ĺ": 4002,
      "è¯·æĸĩ": 4003,
      "éķ¿æ²»": 4004,
      "å½¼": 4005,
      "è¡ĮçļĦ": 4006,
      "1588": 4007,
      "çĶµ": 4008,
      "ä¸ŃæľŁ": 4009,
      "ä½Ĳä¹ħéĹ´ä¿¡çĽĽ": 4010,
      "æĻ¨": 4011,
      "æĮ¡": 4012,
      "å¤§åĲįçļĦ": 4013,
      "çĪ±çŁ¥åİ¿": 4014,
      "å®Ĺåħ¨": 4015,
      "å®ŀä¸º": 4016,
      "èµ·åĪĿ": 4017,
      "ä½Ĳä½Ĳæľ¨": 4018,
      "å¥ĸ": 4019,
      "æ³Ľ": 4020,
      "åŁİä¸ĭçĶº": 4021,
      "æĦŁçĬ¶": 4022,
      "ä¼¼ä¹İ": 4023,
      "ä»¥å¤ĸ": 4024,
      "å¤§éĺªåŁİ": 4025,
      "åĨĪå´İåŁİ": 4026,
      "è®°è¿°": 4027,
      "éĺµåľ°": 4028,
      "èķ": 4029,
      "âĢķ": 4030,
      "å®ĪæĬ¤èģĮ": 4031,
      "éĩįè¦ģçļĦ": 4032,
      "éķ°ä»ĵåħ¬æĸ¹": 4033,
      "åķĨè®®": 4034,
      "åĨĽåľ¨": 4035,
      "é«ĺå±±": 4036,
      "èº«äº¡": 4037,
      "é¡ºåĪ©": 4038,
      "æĸ¥": 4039,
      "ä¸İä¿¡éķ¿": 4040,
      "çĲĥ": 4041,
      "1556": 4042,
      "å±Ī": 4043,
      "ä¸İæŃ¤": 4044,
      "ä¸įçŁ¥": 4045,
      "å®īèĹ¤": 4046,
      "1591": 4047,
      "1558": 4048,
      "çļĦéģĹ": 4049,
      "ä¸Ĭçļĩ": 4050,
      "ä¹īå°§": 4051,
      "èĢĮåĲİ": 4052,
      "ãĢĭãĢĤ": 4053,
      "å¾¡å®¶äºº": 4054,
      "è¶ĬåĲİåĽ½": 4055,
      "300": 4056,
      "æľ¬æĿ¥": 4057,
      "èµ·è¯·æĸĩ": 4058,
      "åľ¨è¿Ļ": 4059,
      "æĶ¯åŁİ": 4060,
      "æĤ¨": 4061,
      "åĩºæĪĺ": 4062,
      "åĭ¤": 4063,
      "ä¹ĭäºī": 4064,
      "æŃ£ä¿¡": 4065,
      "çĽ¸å¯¹": 4066,
      "éĺ²å®Ī": 4067,
      "æ´ĭ": 4068,
      "ä¸Ģä½į": 4069,
      "åıĸä»£": 4070,
      "é¢ģå¸ĥ": 4071,
      "æľīçĿĢ": 4072,
      "ä¸ľæµ·éģĵ": 4073,
      "äºĶåįĥ": 4074,
      "åĽŀå½Ĵ": 4075,
      "åįĸ": 4076,
      "äºİæ°¸ç¦Ħ": 4077,
      "ä¾£": 4078,
      "ç¼ĵ": 4079,
      "æ±Ĥæı´": 4080,
      "è®¾ç½®": 4081,
      "æĿµ": 4082,
      "éĹ²": 4083,
      "æĳĦæ´¥åĽ½": 4084,
      "ä¹Į": 4085,
      "æĪĺä¹±": 4086,
      "æ´¥è½»": 4087,
      "æĶ¹å§ĵ": 4088,
      "å¤±åİ»äºĨ": 4089,
      "åĲİè£Ķ": 4090,
      "éķ¿çļĦ": 4091,
      "æ·¡è·¯": 4092,
      "åĩºçļĦ": 4093,
      "å¥ł": 4094,
      "éļĪ": 4095,
      "ä»»åĬ¡": 4096,
      "æŁĵ": 4097,
      "å½ĴåĽ½": 4098,
      "èģĶç³»": 4099,
      "åĬª": 4100,
      "ä¸ľåĽ½": 4101,
      "æį®ä¼ł": 4102,
      "ç¦ıåİŁ": 4103,
      "ç²Ł": 4104,
      "ä»İèĢĮ": 4105,
      "æľ¬å¤ļå¿łèĥľ": 4106,
      "ï½ŀ": 4107,
      "æĩ": 4108,
      "æģ°": 4109,
      "éķ¿ä¹ħæīĭä¹ĭæĪĺ": 4110,
      "éĩįçļĦ": 4111,
      "éĥ¨å°ĳè¾ħ": 4112,
      "éªĮ": 4113,
      "å±±åŁİçļĦ": 4114,
      "å°ĨåĨĽå®¶": 4115,
      "çĮ¿": 4116,
      "æĺ¾å¦Ĥ": 4117,
      "è¹": 4118,
      "çļĦè®°è½½": 4119,
      "åĨĪåŁİ": 4120,
      "èĥĮåĲİ": 4121,
      "æ°¸äº«": 4122,
      "åı³è¿ĳ": 4123,
      "å¤©çļĩçļĦ": 4124,
      "ä½Ĳä½ĲæĪĲæĶ¿": 4125,
      "ä¸°èĩ£ç§ĢåĲīçļĦ": 4126,
      "çıŃ": 4127,
      "ä¿ĺ": 4128,
      "å¤©ä¸»": 4129,
      "æĬ¢": 4130,
      "åį´è¢«": 4131,
      "æİ¨è¿Ľ": 4132,
      "æģĴåħ´": 4133,
      "éĤĢè¯·": 4134,
      "æľĢé«ĺ": 4135,
      "çĻ¾äºº": 4136,
      "1554": 4137,
      "é¾ĻéĢłå¯ºéļĨä¿¡": 4138,
      "èĩ³æ±ŁæĪ·æĹ¶ä»£åīįæľŁ": 4139,
      "å¤©çİĭå¯º": 4140,
      "åĲįå°Ĩ": 4141,
      "é«ĺåŁİ": 4142,
      "å¾ģå¤·å¤§å°ĨåĨĽ": 4143,
      "ä¹ĭæĦı": 4144,
      "éĻª": 4145,
      "åłª": 4146,
      "æīĵåĩ»": 4147,
      "åºĨéķ¿ä¹ĭå½¹": 4148,
      "æºĲä¹ī": 4149,
      "ä¹ĥæĺ¯": 4150,
      "ãģĬ": 4151,
      "å²ĽåŁİ": 4152,
      "çĶ²éĺ³åĨĽ": 4153,
      "è¡¨æĺİ": 4154,
      "åı¬éĽĨ": 4155,
      "çĶ²éĺ³åĨĽéī´": 4156,
      "çļĦåľ°": 4157,
      "å¤©éĩİ": 4158,
      "åĲĮæĦı": 4159,
      "æĶ¯æĴĳ": 4160,
      "âĢ¦âĢ¦": 4161,
      "èĹ¤åłĤé«ĺèĻİ": 4162,
      "åı¡": 4163,
      "æ¡Ĳ": 4164,
      "æĹ©å·²": 4165,
      "èĤ¯": 4166,
      "ä½ĽæķĻ": 4167,
      "æļĹä¸Ń": 4168,
      "å®ľ": 4169,
      "éķ¿è°·": 4170,
      "éĹŃ": 4171,
      "çģ¾": 4172,
      "åºĨéķ¿åįģ": 4173,
      "ç±³æ³½": 4174,
      "ä»Ĭå·Ŀæ°ıçľŁ": 4175,
      "éķ¿äºķ": 4176,
      "éĻįæľį": 4177,
      "åįİæĹı": 4178,
      "èĵ": 4179,
      "ä¸ĢæĹ¶": 4180,
      "åħµç²®": 4181,
      "çĶ²åºľ": 4182,
      "æŀģä¸º": 4183,
      "ä¼Ĭè¾¾å®¶": 4184,
      "ä¸Ŀ": 4185,
      "åľ¨å¤§": 4186,
      "ç§Ģåº·": 4187,
      "çĽĽäº²": 4188,
      "æĹ©å¹´": 4189,
      "å¤§åĨħå®¶": 4190,
      "åĥ§ä¾£": 4191,
      "åıįæĺł": 4192,
      "å°ıæĹ©å·Ŀç§Ģç§ĭ": 4193,
      "å®ŀçİ°": 4194,
      "èİ·å¾ĹäºĨ": 4195,
      "åīĥ": 4196,
      "åľŁè±ª": 4197,
      "çĶ¨äºİ": 4198,
      "æĬķå¥Ķ": 4199,
      "æĹ¥åİ»ä¸ĸ": 4200,
      "æ²³éĩİ": 4201,
      "åĩºæĿ¥": 4202,
      "éļĨæĪ¿": 4203,
      "éķ¿å°¾æĻ¯": 4204,
      "å¿łè¯ļ": 4205,
      "æĽ°": 4206,
      "ä¸ĬæĿīå®¶çļĦ": 4207,
      "è¯¸ä¾¯": 4208,
      "èģĶå§»": 4209,
      "1559": 4210,
      "åĲ¯": 4211,
      "ä¸İåĬĽ": 4212,
      "æ²¹": 4213,
      "å±ħäºİ": 4214,
      "æŀĿ": 4215,
      "å®¶çĿ£çĶ±": 4216,
      "æ¹¾": 4217,
      "çĶ°åİŁ": 4218,
      "éĺ²å¤ĩ": 4219,
      "éĽĨåĽ¢": 4220,
      "æģ¶åĮĸ": 4221,
      "æĿĳä¸Ĭä¹īæ¸ħ": 4222,
      "éķ¿æ»¨": 4223,
      "åĨĽåĽ¢": 4224,
      "çºĤ": 4225,
      "å·¦äº¬": 4226,
      "ä¹ĭä¹±ä¸Ń": 4227,
      "é»ĳçĶ°éķ¿æĶ¿": 4228,
      "ä¸ĢåĲĳå®Ĺ": 4229,
      "é«ĺå¤©ç¥ŀ": 4230,
      "ç«ĭåľº": 4231,
      "åĮĹæĿ¡æ°ıçº²": 4232,
      "å¤§åĿĤä¹ĭéĺµ": 4233,
      "è¶ĬåīįåĽ½": 4234,
      "å°ıå¹¡": 4235,
      "ãģĻ": 4236,
      "ä½¿åħ¶": 4237,
      "çĮª": 4238,
      "ç³»è°±": 4239,
      "çĻ»éĻĨ": 4240,
      "åħµé©¬": 4241,
      "é«ĺè¿ľ": 4242,
      "ä¸ľéĥ¨": 4243,
      "ä¸¤åĽ½": 4244,
      "æī¿æĭħ": 4245,
      "æĥ¯": 4246,
      "å²©åŁİ": 4247,
      "åı¯èĥ½æĺ¯": 4248,
      "ä¸Ģå®ļ": 4249,
      "æľ¬èº«": 4250,
      "é¸£": 4251,
      "å§»äº²": 4252,
      "ãĢĤï¼Ī": 4253,
      "çŁ³åŀ£": 4254,
      "åıĳçĶŁäºĨ": 4255,
      "åĪĻåľ¨": 4256,
      "æĺ¾å®ļ": 4257,
      "å¯¡": 4258,
      "ç»ıèĲ¥": 4259,
      "æĦıè§ģ": 4260,
      "æĪĺåĽ½æĹ¶ä»£æŃ¦å°Ĩ": 4261,
      "å´İåŁİ": 4262,
      "ç´¢": 4263,
      "èµĭ": 4264,
      "çĭĤ": 4265,
      "1595": 4266,
      "è¿ľæ±ŁåĽ½": 4267,
      "æĹ¥åĨĽ": 4268,
      "æ´¥å·Ŀ": 4269,
      "è¶ĭ": 4270,
      "å°ļæľª": 4271,
      "éĢĤ": 4272,
      "å»¶åİĨ": 4273,
      "æŁĦ": 4274,
      "å±±åŁİä¸»": 4275,
      "1542": 4276,
      "éĻĦè¿ĳçļĦ": 4277,
      "ç¨³å®ļ": 4278,
      "éĩįçĶ¨": 4279,
      "164": 4280,
      "åīįéĩİ": 4281,
      "å¾ģè®¨": 4282,
      "èįĲ": 4283,
      "é¢Ĩåľ°çļĦ": 4284,
      "å±ĢéĿ¢": 4285,
      "æİĮæİ§": 4286,
      "ç»Ļè±«": 4287,
      "ä¾Ħ": 4288,
      "æ¬¾": 4289,
      "åį´åľ¨": 4290,
      "èĹ©çļĦ": 4291,
      "ç»ĦæĪĲ": 4292,
      "çīĮ": 4293,
      "ä¾ĿéĻĦ": 4294,
      "éº¾ä¸ĭçļĦ": 4295,
      "å®ĩåĸľå¤ļç§Ģå®¶": 4296,
      "çļĦè¯´æ³ķ": 4297,
      "å®īæĪ¿": 4298,
      "åħ»å¥³": 4299,
      "1551": 4300,
      "æ¯Ķåı¡": 4301,
      "ç½Ĺé©¬": 4302,
      "è®°ä¸º": 4303,
      "æī§äºĭ": 4304,
      "è¿ģèĩ³": 4305,
      "æ£®éķ¿åı¯": 4306,
      "æĿ°": 4307,
      "èĥ¡": 4308,
      "å°Ĩå£«": 4309,
      "éĩĮçļĦ": 4310,
      "è¡°èĲ½": 4311,
      "æĶ¿æĻ¯": 4312,
      "åħ¥åŁİ": 4313,
      "æ³ķå¸Ī": 4314,
      "çİ°ä»Ĭ": 4315,
      "éģ¿åħį": 4316,
      "é©¾": 4317,
      "ä¹Ŀé¬¼": 4318,
      "è¿ľå¾ģ": 4319,
      "åĭĩçĮĽ": 4320,
      "è¯ĽæĿĢ": 4321,
      "100": 4322,
      "åĲĹ": 4323,
      "ä¹ĭæŃ»": 4324,
      "åŃ©": 4325,
      "æľ¬æį®": 4326,
      "éĶģ": 4327,
      "åĮºåŁŁ": 4328,
      "é¢ģåıĳ": 4329,
      "èĳĽè¥¿": 4330,
      "èı©æıĲ": 4331,
      "Ġå±¥åİĨ": 4332,
      "æĸĩç¦Ħä¹ĭå½¹": 4333,
      "æĪª": 4334,
      "æŃ£èĥľ": 4335,
      "å¥¥ç¾½": 4336,
      "å¢ŀåĬł": 4337,
      "åıĤåĬłäºĨ": 4338,
      "ä¸»åħ¬": 4339,
      "åĲĮä¸º": 4340,
      "1557": 4341,
      "ãĤĪ": 4342,
      "ä¼ģåĽ¾": 4343,
      "ä½ĲåĴĮ": 4344,
      "åĪĽå»º": 4345,
      "ä¸ĢçĶŁ": 4346,
      "æ°ıä¸º": 4347,
      "å®ŀè´¨": 4348,
      "èµĦæĸĻ": 4349,
      "æľĿä»ĵæĻ¯": 4350,
      "åħ·æľī": 4351,
      "èĳĹç§°": 4352,
      "åĴĮå¹³": 4353,
      "æľĢå¤§": 4354,
      "å±ħå£«": 4355,
      "æİ¥è¿ĳ": 4356,
      "ãĢįï¼Ī": 4357,
      "å¾Īå¤ļ": 4358,
      "ä¼łæķĻå£«": 4359,
      "å®¶ä¸ļ": 4360,
      "åĽłåħ¶": 4361,
      "è§ĤéŁ³": 4362,
      "å®£å¸ĥ": 4363,
      "çĥ§æ¯ģ": 4364,
      "åŃĲçļĦ": 4365,
      "éĻ¢æ®¿": 4366,
      "è®©è±«": 4367,
      "é»ĳçĶ°åŃĿé«ĺ": 4368,
      "æŁ³çĶŁ": 4369,
      "å¿įèĢħ": 4370,
      "ãģĤ": 4371,
      "ä»İåĽĽ": 4372,
      "åįĴäºİ": 4373,
      "å¯ĮçĶ°": 4374,
      "æľĿä»ĵå®¶": 4375,
      "å±±åİ¿æĺĮæĻ¯": 4376,
      "ä¸Ĭäº¬": 4377,
      "ä¸°èĩ£ç§Ģæ¬¡": 4378,
      "åĥļ": 4379,
      "èĳĹåĲįçļĦ": 4380,
      "å°Ħåĩ»": 4381,
      "å¹´èĩ³": 4382,
      "åľ¨æĹ¥æľ¬": 4383,
      "äººæķ°": 4384,
      "ãģĵ": 4385,
      "æľĢæĹ©": 4386,
      "ï¼īï¼ļ": 4387,
      "æ°ıä¹ĭ": 4388,
      "æĪ·çĶ°": 4389,
      "éĺ¶å±Ĥ": 4390,
      "çļĦåīį": 4391,
      "åİ©": 4392,
      "éĿ¢åīį": 4393,
      "æĴ°": 4394,
      "ä¸ĬæĿīå®ªæĶ¿": 4395,
      "ç»Ĩå·ĿèĹ¤åŃĿ": 4396,
      "1548": 4397,
      "ä¸ĢèģĮ": 4398,
      "æľīæīĢ": 4399,
      "åĪ©çĽĬ": 4400,
      "è¥¿éĥ¨": 4401,
      "ä¹Ŀå·ŀå¾ģä¼Ĳ": 4402,
      "åľ¨å¤©æĸĩ": 4403,
      "ä¸İä¹ĭ": 4404,
      "å¯¹é©¬": 4405,
      "å¼ĢæĪĺ": 4406,
      "æ°ıæĺ¯": 4407,
      "äºĮä¹ĭä¸¸": 4408,
      "è¶³åĪ©ä¹īè¾ī": 4409,
      "ï¼Į**": 4410,
      "çĶ°éĥ¡": 4411,
      "åĲİæĸ¹": 4412,
      "ç§Ģçº²": 4413,
      "æĺİç¡®": 4414,
      "åĦ¿çİī": 4415,
      "é¾Ļåħ´": 4416,
      "åŃĿæĻ¯": 4417,
      "å¢¨": 4418,
      "ä¹ĭä¸ĢçļĦ": 4419,
      "äºļ": 4420,
      "ä¸ĢéĿ¢": 4421,
      "ä¸įåĪ°": 4422,
      "åĬĽäºİ": 4423,
      "æī®": 4424,
      "ä¾įä»İ": 4425,
      "çĦļæ¯ģ": 4426,
      "åĲĪä½ľ": 4427,
      "åĵª": 4428,
      "åĬĿè¯´": 4429,
      "çĨĬè°·": 4430,
      "å¤§éļħ": 4431,
      "æķħäºĭ": 4432,
      "Ġ(": 4433,
      "å®ĪåŁİ": 4434,
      "åįĹä¸ĭ": 4435,
      "åºĦåĨħ": 4436,
      "è²": 4437,
      "çļĦåĨĽäºĭ": 4438,
      "çĽ´èĮĤ": 4439,
      "åħīå¯º": 4440,
      "çĲ¼": 4441,
      "åĩºå¥Ķ": 4442,
      "ä¸Ĭè¿°": 4443,
      "æ¬¡æĹ¥": 4444,
      "å»»": 4445,
      "è°Ĵè§ģ": 4446,
      "æľ¬å±±": 4447,
      "æł¹æĿ¥": 4448,
      "1541": 4449,
      "åĿļå®Ī": 4450,
      "ä¸įå¦Ĥ": 4451,
      "1589": 4452,
      "åĩºçİ°äºĨ": 4453,
      "æĸĩç¦Ħåħĥå¹´": 4454,
      "éĿĻåĨĪ": 4455,
      "å¹ħ": 4456,
      "èĢĮå·²": 4457,
      "ç»Ĩå·Ŀèĥľåħĥ": 4458,
      "è°ĪåĪ¤": 4459,
      "åĽĽåįģ": 4460,
      "ç±»ä¼¼": 4461,
      "ä¸ºå¦»": 4462,
      "ä¸ªäºº": 4463,
      "æĪĸè®¸": 4464,
      "è½¬æĪĺ": 4465,
      "éļıä»İ": 4466,
      "è¿ŀæŃĮ": 4467,
      "åħ¼ä»»": 4468,
      "1550": 4469,
      "è¿½éļı": 4470,
      "åĮħåĽ´ç½ĳ": 4471,
      "ç«Ļåľ¨": 4472,
      "æ´¥çĶ°": 4473,
      "ä¼Ĭè¾¾æ°ı": 4474,
      "æĢİä¹Ī": 4475,
      "æĪı": 4476,
      "åĲĮæľĪ": 4477,
      "å¯¹åºĶ": 4478,
      "åĢŃå¯ĩ": 4479,
      "3000": 4480,
      "ï¼ī**": 4481,
      "æŃ£éĿ¢": 4482,
      "éķĩå®Ī": 4483,
      "åŀĴ": 4484,
      "çŃĳç´«": 4485,
      "å¾·å¯º": 4486,
      "å¤ªæĶ¿": 4487,
      "æĥ³è¦ģ": 4488,
      ")ãĢĤ": 4489,
      "ä¸¤ä½į": 4490,
      "1593": 4491,
      "æľĿä»ĵæ°ı": 4492,
      "å·¥ç¨ĭ": 4493,
      "å¤§ä¹ħä¿Ŀå¿ł": 4494,
      "æŃ£å¹³": 4495,
      "äº¬çķ¿": 4496,
      "çİĩåħĪ": 4497,
      "æ²¼çĶ°": 4498,
      "æ¯«æĹł": 4499,
      "æ¥łæľ¨": 4500,
      "çĽĹ": 4501,
      "æŃ¦åĻ¨": 4502,
      "çºł": 4503,
      "è¶³åĪ©æ°ı": 4504,
      "åĽ´ç»ķ": 4505,
      "çļĦä¹ī": 4506,
      "ä¸ĢæĹ¦": 4507,
      "ä¸ĬæľĪ": 4508,
      "å¯Įå£«": 4509,
      "æīİ": 4510,
      "æŃ£äº²": 4511,
      "æµ®": 4512,
      "å°¼åŃĲç»ıä¹ħ": 4513,
      "çŃĸåıį": 4514,
      "å¦¹å¦¹": 4515,
      "ä»Ĺ": 4516,
      "ç»ĥ": 4517,
      "éĢı": 4518,
      "çº¢": 4519,
      "ç¥Ŀ": 4520,
      "éĢłæĪĲ": 4521,
      "è¾¹å¢ĥ": 4522,
      "å°¼åŃĲå®¶": 4523,
      "èĢ¶": 4524,
      "åĪĿéĺµ": 4525,
      "å¥ĳ": 4526,
      "ä¸»åĬ¨": 4527,
      "éĢļå¸¸": 4528,
      "æĽ´æĺ¯": 4529,
      "åİŁä¸º": 4530,
      "åİĨä»£": 4531,
      "è¶³åĪ©ä¹īæĶ¿": 4532,
      "éĢĲåĩº": 4533,
      "ä¹ĭå¦»": 4534,
      "æŀļ": 4535,
      "åĽ¾è°ĭ": 4536,
      "æľįéĥ¨": 4537,
      "è§£éĩĬ": 4538,
      "ç«ĭèĬ±å®¶": 4539,
      "ç®±": 4540,
      "éļ¶å±ŀ": 4541,
      "ä¸ģ": 4542,
      "æĿ¾æµ¦": 4543,
      "è®¸åı¯": 4544,
      "--": 4545,
      "ä¸ĢåĲį": 4546,
      "æĶ¿ç§Ģ": 4547,
      "è¿ĩåİ»": 4548,
      "1553": 4549,
      "æ¯Ĵ": 4550,
      "ä¸ĸè¢Ń": 4551,
      "çªģçł´": 4552,
      "ç¡®ä¿Ŀ": 4553,
      "è®¾ç«ĭ": 4554,
      "èĳĹåĲį": 4555,
      "ä¹ĭèģĮ": 4556,
      "ä»ĵåŁİ": 4557,
      "åĩĢåľŁ": 4558,
      "çļĦçĪ¶äº²": 4559,
      "åįģæĹ¶": 4560,
      "æīĭæ®µ": 4561,
      "çģ«ç»³": 4562,
      "çĸ²": 4563,
      "ä¾Ŀæį®": 4564,
      "æĪĺåľºä¸Ĭ": 4565,
      "æĢ§çļĦ": 4566,
      "ç¢ĳ": 4567,
      "å¹¿å®¶": 4568,
      "ä¼ĬåĬ¿è´ŀ": 4569,
      "ä¸Ģä¸¾": 4570,
      "è¢«æĶ¹æĺĵ": 4571,
      "æĿ¥çľĭ": 4572,
      "åĨ³å¿ĥ": 4573,
      "çĮĽæĶ»": 4574,
      "åĨ¬ä¹ĭéĺµ": 4575,
      "è²Į": 4576,
      "æĸĩçĮ®": 4577,
      "èİ·èĥľ": 4578,
      "çºªå·ŀ": 4579,
      "åŃ¦èĢħ": 4580,
      "åĩĳ": 4581,
      "äº¬åħĨ": 4582,
      "åĨĪå±±": 4583,
      "åħ³åİŁä¹ĭæĪĺä¸Ń": 4584,
      "éĺ»æŃ¢": 4585,
      "å¥īåħ¬ä¼Ĺ": 4586,
      "èŀį": 4587,
      "çŁ³åŁİ": 4588,
      "æĿ¾äºķ": 4589,
      "å¥½çļĦ": 4590,
      "åı·ç§°": 4591,
      "éĺ¿å¼¥": 4592,
      "å¤§åĴĮåĽ½": 4593,
      "åĩŃåĢŁ": 4594,
      "æĺ¯ä¸º": 4595,
      "åĲįæĬ¤": 4596,
      "æĬĦ": 4597,
      "æŀ¶": 4598,
      "å¤§è¾ħ": 4599,
      "åĨħæĶ¿": 4600,
      "æİĺ": 4601,
      "çĮİ": 4602,
      "ä¸īå¥½å®¶": 4603,
      "æĸ¹éĿ¢çļĦ": 4604,
      "è¡°éĢĢ": 4605,
      "èĴ²çĶŁæ°ıä¹¡": 4606,
      "åŁºçĿ£æķĻ": 4607,
      "å¤©ä¸»æķĻ": 4608,
      "ç§Ģèĥľ": 4609,
      "éĩįæĶ¿": 4610,
      "ä¸°èĩ£æ°ı": 4611,
      "å·´": 4612,
      "ãģ¤": 4613,
      "è´Łä¼¤": 4614,
      "å¯¹æīĭ": 4615,
      "å°±æŃ¤": 4616,
      "ä¸°èĩ£åĨĽ": 4617,
      "éĢĢåĽŀ": 4618,
      "æµ·ä¸Ĭ": 4619,
      "è¿ŀç½²": 4620,
      "çŃĸçķ¥": 4621,
      "æĻ®è¯·": 4622,
      "ä¸īä¸ª": 4623,
      "å°ıå§ĵ": 4624,
      "å®¿èĢģ": 4625,
      "æ³¢å¤ļéĩİ": 4626,
      "ä¸½": 4627,
      "åĲŀ": 4628,
      "èĹ¤åĲī": 4629,
      "æ¶¦": 4630,
      "çĶ²è´º": 4631,
      "1552": 4632,
      "èµıèµĲ": 4633,
      "åĶ¯ä¸Ģ": 4634,
      "ä¹°": 4635,
      "ä¹īæ»¡": 4636,
      "æ²»çĲĨ": 4637,
      "è¿ĩç»§": 4638,
      "è¡Ĺéģĵ": 4639,
      "çĩ": 4640,
      "çļĦä¿¡": 4641,
      "ä¹ħçļĦ": 4642,
      "æĶ¹åıĺ": 4643,
      "å°¼åŃĲæĻ´ä¹ħ": 4644,
      "æ¡¶çĭŃéĹ´ä¹ĭæĪĺ": 4645,
      "åĩ¡": 4646,
      "åħĥä¿¡": 4647,
      "æī§è¡Į": 4648,
      "å±±åĲįæ°ı": 4649,
      "å®į": 4650,
      "çŃ¿": 4651,
      "æ´¾åħµ": 4652,
      "å«¡æµģ": 4653,
      "ä¾µçķ¥": 4654,
      "ä¸ĢçĻ¾": 4655,
      "ä¼łè¾¾": 4656,
      "æ¤İ": 4657,
      "å¤ķ": 4658,
      "æĶ¿çŁ¥": 4659,
      "æĿ¾çĶ°": 4660,
      "åĬłä¹ĭ": 4661,
      "å¦Ĥä¸ĭ": 4662,
      "å²©æĿĳ": 4663,
      "æĢ§åĳ½": 4664,
      "åĨł": 4665,
      "ä¸īçĶ·": 4666,
      "ç¬¦": 4667,
      "è¿ĳä¸ĸ": 4668,
      "æŁ±": 4669,
      "åıĪåľ¨": 4670,
      "åį³å°Ĩ": 4671,
      "éĵľ": 4672,
      "å©ļå§»": 4673,
      "æ§»": 4674,
      "æ¯Ķåı¡å±±": 4675,
      "åŃĲåĹ£": 4676,
      "144": 4677,
      "ä¸İæŃ¤åĲĮæĹ¶": 4678,
      "çĶŁé©¹": 4679,
      "éĹ´çļĦ": 4680,
      "ä¸¾åĬŀ": 4681,
      "åĳ¨éĺ²åĽ½": 4682,
      "æłħ": 4683,
      "åĿª": 4684,
      "ä»ĸä»¥": 4685,
      "åºĨéķ¿äºĶå¹´": 4686,
      "åŀĤ": 4687,
      "æĴŃç£¨åĽ½": 4688,
      "åľŁå²Ĳèµĸ": 4689,
      "åİŁçĶ°": 4690,
      "ä¹ĭåŃĲåĩºçĶŁ": 4691,
      "å¥¥å¹³": 4692,
      "ä¾ĿæĹ§": 4693,
      "æĭīæĭ¢": 4694,
      "ä¹ĭå¤Ħ": 4695,
      "è¿ĳå¹´": 4696,
      "åŁİåł¡": 4697,
      "ä¸īä¸ĩ": 4698,
      "ç§Ģåħĥ": 4699,
      "åľ°å½¢": 4700,
      "æĥ³åĪ°": 4701,
      "ç¼ĸçºĤ": 4702,
      "èĳ¬äºİ": 4703,
      "åŃ¦ä¹ł": 4704,
      "1546": 4705,
      "èķĥ": 4706,
      "æĹ¥çļĦ": 4707,
      "èĳ¡": 4708,
      "æĿ¾å¹³åħĥåº·": 4709,
      "ä¾ĿçĦ¶": 4710,
      "æĺ¯ä¸ª": 4711,
      "å¤ĸçĶ¥": 4712,
      "éĽĨä¸Ń": 4713,
      "ä»ĸä»¬çļĦ": 4714,
      "åĳĬç»Ī": 4715,
      "è§Ħå®ļ": 4716,
      "æ¿ĳæĪ·": 4717,
      "åħŃéĥİ": 4718,
      "ç½®äºİ": 4719,
      "åĬ£åĬ¿": 4720,
      "80": 4721,
      "Ġç»ıåİĨ": 4722,
      "ä¸Ģç§į": 4723,
      "ç¥ŀæĪ·": 4724,
      "èģĮä½į": 4725,
      "åı¤ä»£": 4726,
      "åĲ¬éĹ»": 4727,
      "åĭ¾": 4728,
      "ç§ĭå±±": 4729,
      "ä¸Ģè¾¹": 4730,
      "ç§©": 4731,
      "ä¿¡åıĭ": 4732,
      "å¯¹å¤ĸ": 4733,
      "äºĮéĺ¶": 4734,
      "æīĢçĶŁ": 4735,
      "å²ģæĹ¶": 4736,
      "å½Ĵé¡º": 4737,
      "å°¼åŃĲåĨĽ": 4738,
      "è´¡çĮ®": 4739,
      "åľ°çĲĨ": 4740,
      "ä¸ľå±±": 4741,
      "åĬłå°ģ": 4742,
      "è¿Ľè¡ĮäºĨ": 4743,
      "åĮħåĽ´äºĨ": 4744,
      "èĢĮæŃ»": 4745,
      "æĭĨ": 4746,
      "åģ¥": 4747,
      "çŃĳå±±": 4748,
      "ä»Ĭå·ĿåĨĽ": 4749,
      "éķ¿å°¾ä¸ºæĻ¯": 4750,
      "æ±łçĶ°æģĴåħ´": 4751,
      "æĢĢçĸĳ": 4752,
      "å¯¸": 4753,
      "è¿Ļä¹Ī": 4754,
      "åħµæ³ķ": 4755,
      "éĥ¡åĨħ": 4756,
      "è´¥èµ°": 4757,
      "åĨįåħ´": 4758,
      "ç»Ĩå·Ŀå®¶": 4759,
      "å¸¦é¢Ĩ": 4760,
      "è§£åĨ³": 4761,
      "åģľæŃ¢": 4762,
      "èıħæ²¼": 4763,
      "è¿ĩç¨ĭä¸Ń": 4764,
      "åĨħè®": 4765,
      "å¾¡é¦Ĩ": 4766,
      "æĶ¶åĪ°": 4767,
      "åĳ¨åĽ´": 4768,
      "æµħäºķå®¶": 4769,
      "åºĻ": 4770,
      "1599": 4771,
      "1549": 4772,
      "âĨ": 4773,
      "åĲİæĪĲä¸º": 4774,
      "éķ¿çŃ±": 4775,
      "ä¸įæķĮ": 4776,
      "åĲīå¼ĺ": 4777,
      "åİŁæ°ı": 4778,
      "åħ»çĪ¶": 4779,
      "æĽ´åĬł": 4780,
      "æĥ¨è´¥": 4781,
      "çļĦäººçī©": 4782,
      "åŁİéĥŃ": 4783,
      "å®īå®ħ": 4784,
      "èİ«": 4785,
      "åģ·": 4786,
      "ãĤĵ": 4787,
      "éºĵ": 4788,
      "å¼Ĥæ¯į": 4789,
      "éģµ": 4790,
      "åįģåĽĽ": 4791,
      "æĦĪ": 4792,
      "æľĢä¸º": 4793,
      "å¼ºå¤§": 4794,
      "åīĥåıĳ": 4795,
      "çļĦå®¶": 4796,
      "ãģ£": 4797,
      "æ¯Ķè¾ĥ": 4798,
      "æ¯ĽåĪ©æ°ıå®¶èĩ£": 4799,
      "åĨħè®§": 4800,
      "åĪĪ": 4801,
      "æłĩå¿Ĺ": 4802,
      "å¤§è°·åĲīç»§": 4803,
      "ä¸įæķ¢": 4804,
      "å¿ĺ": 4805,
      "åĲĳä¿¡éķ¿": 4806,
      "è¯¥åľ°": 4807,
      "åĹ£åŃĲ": 4808,
      "åħ«å¹¡å®«": 4809,
      "æŃ¦åĬŁ": 4810,
      "äºĮçĻ¾": 4811,
      "ç¹ģéķ¿": 4812,
      "åİĭåĪ¶": 4813,
      "å¡ŀ": 4814,
      "èĥľæĪĲ": 4815,
      "å¼ĢåĪĽ": 4816,
      "åħ¬åħĥ": 4817,
      "è¾īèĻİ": 4818,
      "æıĲåĪ°": 4819,
      "çĮĽå°Ĩ": 4820,
      "ä¹ĭåĬ©": 4821,
      "å¼Ĺ": 4822,
      "æĶ¿å¼ĺ": 4823,
      "åĮĹä¹Ŀå·ŀ": 4824,
      "çłį": 4825,
      "æĦ¿æĦı": 4826,
      "åħŃè§Ĵæ°ı": 4827,
      "ä¸İä¹ī": 4828,
      "èĪľ": 4829,
      "æĸĹäºī": 4830,
      "éªĳé©¬": 4831,
      "çŃĶåºĶ": 4832,
      "æľ±åį°çĬ¶": 4833,
      "çļĦäº²": 4834,
      "åŁİåħµ": 4835,
      "æĺİçŁ³": 4836,
      "åŁºæ¬¡": 4837,
      "çļĦæĸ°": 4838,
      "éķ¿å´İ": 4839,
      "æĺ¯åĽłä¸º": 4840,
      "æľīåħ³": 4841,
      "ç¥¢": 4842,
      "ç»ĵæŀĦ": 4843,
      "1547": 4844,
      "æŀĦæĪĲ": 4845,
      "èĬ¦åĲįçĽĽ": 4846,
      "éĩįå¤§": 4847,
      "åĸĬ": 4848,
      "æ½®": 4849,
      "è®¢": 4850,
      "èµ«": 4851,
      "å¿½": 4852,
      "å§¿": 4853,
      "å£ķ": 4854,
      "äº¤ç»Ļ": 4855,
      "èĤĥ": 4856,
      "èħ°": 4857,
      "æŁ³å·Ŀ": 4858,
      "åĩºäºĳåĽ½": 4859,
      "ä»ĻçŁ³": 4860,
      "ãĢĤâĢľ": 4861,
      "ä½©": 4862,
      "äºĭè¿¹": 4863,
      "åĪ«åĲį": 4864,
      "ç®ķè½®": 4865,
      "çļĦåĨĽéĺŁ": 4866,
      "å·Ŀæ°ı": 4867,
      "è®¤åı¯": 4868,
      "èĩ³æ±ŁæĪ·æĹ¶ä»£åīįæľŁçļĦæŃ¦å°Ĩ": 4869,
      "åıįæĺłäºĨ": 4870,
      "æīĳ": 4871,
      "çŃīå¾ħ": 4872,
      "éĩİå¿ĥ": 4873,
      "ä¿ĿçķĻ": 4874,
      "åĥ§äºº": 4875,
      "çĵ¦è§£": 4876,
      "âĢĿãĢģâĢľ": 4877,
      "è¿Ľé©»": 4878,
      "æĦıä¹ī": 4879,
      "åį´åĽł": 4880,
      "è¯¸åŁİ": 4881,
      "è·¯çº¿": 4882,
      "éķ¿äº«": 4883,
      "å¤©ä¸ĭçļĦ": 4884,
      "åĲĮä¸Ģ": 4885,
      "å¾¡åīį": 4886,
      "åıªè¦ģ": 4887,
      "æºĲäºİ": 4888,
      "è¯¸å¤ļ": 4889,
      "å§¬è·¯": 4890,
      "å¤ªçĶ°èµĦ": 4891,
      "åĬ¨æĳĩ": 4892,
      "åıĹå°ģ": 4893,
      "æĥłçĲ¼": 4894,
      "âĨĴ": 4895,
      "åĲ¸": 4896,
      "éĩįä¿®": 4897,
      "çĶŁåįĴå¹´ä¸įè¯¦": 4898,
      "ç¬Ķå¤´": 4899,
      "åĨħåºĶ": 4900,
      "ç¨į": 4901,
      "éĻĨç»Ń": 4902,
      "åĨľä¸ļ": 4903,
      "çļĦç»Łæ²»": 4904,
      "å·§": 4905,
      "ä¸Ģè·¯": 4906,
      "äººé©¬": 4907,
      "æ±ŁåŁİ": 4908,
      "åħ³åİŁä¹ĭæĪĺåĲİ": 4909,
      "æ°ıçľŁ": 4910,
      "è¯¢": 4911,
      "å¤±åĬ¿": 4912,
      "å§ĵæ°ı": 4913,
      "çķłå±±æ°ı": 4914,
      "å»¶åİĨå¯º": 4915,
      "ä¹ĭåŃĻ": 4916,
      "æľĢå¤§çļĦ": 4917,
      "å¾¡æ®¿": 4918,
      "çĽĽæĶ¿": 4919,
      "æĹ©æľŁ": 4920,
      "åĪĩæĸŃ": 4921,
      "æŁ¿": 4922,
      "è¶Ĭè¿ĩ": 4923,
      "æĹıäºº": 4924,
      "åĿļæĮģ": 4925,
      "æĸĩåĮĸè´¢": 4926,
      "æ¥¼": 4927,
      "èģļä¹Ĳ": 4928,
      "ä¸ĭéĩİåĽ½": 4929,
      "æł¡": 4930,
      "ç³»åĪĹ": 4931,
      "åıĸåĲį": 4932,
      "æ®ī": 4933,
      "139": 4934,
      "ä¸įåĴĮ": 4935,
      "ç¥Ģ": 4936,
      "åĭĭ": 4937,
      "ç´¯": 4938,
      "ç§»å±ħ": 4939,
      "æĸ©é¦ĸ": 4940,
      "éħĴäºķå¿łæ¬¡": 4941,
      "å°Ĩå®¶çĿ£": 4942,
      "ä½ĲèĹ¤": 4943,
      "æ¶©": 4944,
      "è´ŀèĥľ": 4945,
      "åĨĪéĥ¨": 4946,
      "å²³çĪ¶": 4947,
      "äºĭå®ŀä¸Ĭ": 4948,
      "åĽ½åĪĨ": 4949,
      "ä¸īä»£": 4950,
      "åĲīè§ģ": 4951,
      "åĪĻçĶ±": 4952,
      "æ²¦": 4953,
      "èĥĨ": 4954,
      "åįģä¸ĥ": 4955,
      "åĪĻä»¥": 4956,
      "ä¸ºé¦ĸçļĦ": 4957,
      "ä¸ŀ": 4958,
      "å¹³æĪĲ": 4959,
      "åĬłæ²»": 4960,
      "ä¹±ä¸ĸ": 4961,
      "å¾ģæĶ¶": 4962,
      "136": 4963,
      "1603": 4964,
      "çļĦåĨĽ": 4965,
      "çļĦåİŁåĽł": 4966,
      "åŁİæĹ¶": 4967,
      "æĻĵ": 4968,
      "æĺİåĨĽ": 4969,
      "ä½Ĳéĩİ": 4970,
      "éļıè¡Į": 4971,
      "åĦ¿å²Ľ": 4972,
      "åĪĿä»£èĹ©ä¸»": 4973,
      "åĬ±": 4974,
      "ä¸Ģä¸°": 4975,
      "èĢĹ": 4976,
      "ç¬¬äºĶ": 4977,
      "ä¸īå¥½æ°ı": 4978,
      "ç«¹åįĥä»£": 4979,
      "ç«ĭèĬ±å±±åŁİ": 4980,
      "äºķä¼ĬçĽ´æĶ¿": 4981,
      "æµħéĩİéķ¿æĶ¿": 4982,
      "å¤§å®Ŀ": 4983,
      "ä¼¸": 4984,
      "åŃ¦çķĮ": 4985,
      "åħŃè§Ĵå®¶": 4986,
      "ĠãĢĬ": 4987,
      "å½¢æĪĲäºĨ": 4988,
      "æīĢåľ¨çļĦ": 4989,
      "åĬªåĬĽ": 4990,
      "èĹ¤åĲīéĥİ": 4991,
      "æĪļ": 4992,
      "å¯¹æĸ¹": 4993,
      "åĩ»æºĥ": 4994,
      "æľĪåįģäºĶæĹ¥": 4995,
      "èĩ¼æĿµ": 4996,
      "æıĲä¾ĽäºĨ": 4997,
      "éĵłçĶ²": 4998,
      "ä½³": 4999,
      "æ´¼": 5000,
      "æĹłäºº": 5001,
      "æĬ¤åį«": 5002,
      "åĮĹæĿ¡æĹ©äºĳ": 5003,
      "åıĽåıĺ": 5004,
      "çĽ´æ±Łåħ¼ç»Ń": 5005,
      "æŃ¦åĬĽ": 5006,
      "å¦ĩ": 5007,
      "å®īåĽ½å¯º": 5008,
      "è¾±": 5009,
      "æĮº": 5010,
      "äºĶå¤§èĢģ": 5011,
      "èĪª": 5012,
      "æĥħæĬ¥": 5013,
      "æľºæŀĦ": 5014,
      "çļĦéķ¿åŃĲ": 5015,
      "åº·éķ¿": 5016,
      "å¾ģæľį": 5017,
      "çº¦å®ļ": 5018,
      "éĢģå¾Ģ": 5019,
      "æĿ¿åŀ£": 5020,
      "å±±éĺ´": 5021,
      "å®īåħ¨": 5022,
      "å·²è¢«": 5023,
      "æĽ¾ä»»": 5024,
      "ç¡®å®ŀ": 5025,
      "æħ°": 5026,
      "å±±åĨħä¸ĬæĿīå®¶": 5027,
      "æĮīçħ§": 5028,
      "çģ«ç»³æŀª": 5029,
      "éĩįè§Ĩ": 5030,
      "åħ¥äºĨ": 5031,
      "æ³ķåįİ": 5032,
      "åħ¨éĿ¢": 5033,
      "è¡¥ç»Ļ": 5034,
      "å²ĲéĺľåŁİ": 5035,
      "åĽ½åºľ": 5036,
      "çĽ´è¾ĸ": 5037,
      "æĭħå¿ĥ": 5038,
      "éĤ£æł·": 5039,
      "æĭŁ": 5040,
      "æĢª": 5041,
      "ãĢĭï¼ī": 5042,
      "æĪĸèĢħ": 5043,
      "å°ĳå¹´": 5044,
      "æĢ§æł¼": 5045,
      "è°ĥæŁ¥": 5046,
      "ä¸Ģçķª": 5047,
      "äºİåĲĮå¹´": 5048,
      "åħĪåīį": 5049,
      "è¯¸åĽ½": 5050,
      "1597": 5051,
      "çĽĳè§Ĩ": 5052,
      "æľ½": 5053,
      "ä¸įåıĬ": 5054,
      "åħ¶åľ¨": 5055,
      "éĩįæ²»": 5056,
      "è½©": 5057,
      "è¯´æĺİ": 5058,
      "æĿĥçļĦ": 5059,
      "èĢģèĩ£": 5060,
      "åĽºå®Ī": 5061,
      "ç¼ºä¹ı": 5062,
      "åĲİç»§": 5063,
      "å®ŀè¡Į": 5064,
      "ä¼ĬåĬ¿åĽ½": 5065,
      "ä¸Ģæĸ¹éĿ¢": 5066,
      "éĩľ": 5067,
      "ä¸ĭè¾¾": 5068,
      "æ¸ħç§Ģ": 5069,
      "æķĮéĺµ": 5070,
      "éĢ¼è¿ĳ": 5071,
      "å¹³å®īæĹ¶ä»£": 5072,
      "å°ıç¬łåİŁéķ¿": 5073,
      "è¢«å¤Ħ": 5074,
      "æ³ª": 5075,
      "é¢Ĩå¯¼": 5076,
      "é«ĺæĿ¾": 5077,
      "å®ĹæĻ¯": 5078,
      "çİ°ä»£": 5079,
      "çĲī": 5080,
      "çļĦæĶ¿æ²»": 5081,
      "å¹´è´¡": 5082,
      "çŃ¹": 5083,
      "æİ©": 5084,
      "åĿĤæľ¬": 5085,
      "èĪ¹åıª": 5086,
      "1601": 5087,
      "æĽ²è½®": 5088,
      "åľ¨åľ°": 5089,
      "ä¸İç§ĢåĲī": 5090,
      "äºİå¤©æĸĩ": 5091,
      "å¹³æģ¯": 5092,
      "æ¸ħåĴĮ": 5093,
      "è¾¾åĪ°": 5094,
      "å·ŀå®¶": 5095,
      "æĶ¹ç§°": 5096,
      "ç«ĭèĬ±éģĵéĽª": 5097,
      "äº¬æŀģé«ĺ": 5098,
      "çŃ¾": 5099,
      "1540": 5100,
      "å¢ĥåĨħ": 5101,
      "æ¸©æ³ī": 5102,
      "åĨĴ": 5103,
      "åĬłä»¥": 5104,
      "çļĦä¸Ń": 5105,
      "éĢ¢": 5106,
      "ä¹īæķĻ": 5107,
      "ä»İå±ŀ": 5108,
      "ç»Ĩå·Ŀå¿łåħ´": 5109,
      "çļĦåĽ½äºº": 5110,
      "å°¸": 5111,
      "è°Ĺ": 5112,
      "é¡½": 5113,
      "åĦĴ": 5114,
      "äº«å¾·": 5115,
      "å¤§éĥ¨åĪĨ": 5116,
      "æ¯ĽåĪ©å®¶çļĦ": 5117,
      "ä¼łæī¿": 5118,
      "äºīæĸĹ": 5119,
      "æĬķåĲĳ": 5120,
      "Ġäººçī©çĶŁå¹³": 5121,
      "çļĦåľ°ä½į": 5122,
      "ä¹ĭåĨħ": 5123,
      "ä¸İç»ĩçĶ°ä¿¡éķ¿": 5124,
      "æ³¨æĦı": 5125,
      "åŁİå¸Ĥ": 5126,
      "è¿ĳä¾į": 5127,
      "åį³ä½į": 5128,
      "ä¿ĿåŃĺ": 5129,
      "åĪĿåĲį": 5130,
      "æĴ¤åĽŀ": 5131,
      "è¯´æ³ķè®¤ä¸º": 5132,
      "Ġ-": 5133,
      "æĹ¥çĽĬ": 5134,
      "ç§Ģä¹ħ": 5135,
      "å¸ħ": 5136,
      "ãĢĭãĢģ": 5137,
      "è¿ĺä¿Ĺ": 5138,
      "ä½Ĩæĺ¯åľ¨": 5139,
      "è±¡å¾ģ": 5140,
      "70": 5141,
      "è¢ĭ": 5142,
      "å®¶èĩ£ä»¬": 5143,
      "çĽ¸åĲĮ": 5144,
      "å£«åįĴ": 5145,
      "ç§įå®ŀ": 5146,
      "ç°": 5147,
      "å®Ĺåĥı": 5148,
      "å¤ļæķ°": 5149,
      "ä¼ĬéĤ£": 5150,
      "è®©ç»Ļ": 5151,
      "å¼ºçĥĪ": 5152,
      "åĺīæĺİ": 5153,
      "åįļå¤ļ": 5154,
      "ä¸īå¥½ä¹īç»§": 5155,
      "ç©Ĺ": 5156,
      "è¿İæĪĺ": 5157,
      "ä¸ĢèĪ¬è®¤ä¸º": 5158,
      "åĲįéĹ¨": 5159,
      "äº²çİĩ": 5160,
      "è¿ľèĹ¤": 5161,
      "åĲīçĶ°éĥ¡å±±åŁİ": 5162,
      "åĮ¿": 5163,
      "å¤ļè´º": 5164,
      "è¯´éģĵ": 5165,
      "ä½Ĳç«¹ä¹īéĩį": 5166,
      "å¤§æ´¥": 5167,
      "éķ¿éĩį": 5168,
      "è¯Ĺ": 5169,
      "äºĨå¯¹": 5170,
      "è´§": 5171,
      "é¥®": 5172,
      "æŁ´çĶ°èĥľ": 5173,
      "éķ¿æĪ¿": 5174,
      "æĹ¶æľŁçļĦ": 5175,
      "åĳ¼åºĶ": 5176,
      "ç¨»åı¶å±±åŁİ": 5177,
      "ä¹ĭä¸Ĭ": 5178,
      "æĶ»åħĭ": 5179,
      "åıĪä¸İ": 5180,
      "çĸ¾": 5181,
      "æĿĤè´ºä¼Ĺ": 5182,
      "ä¿¡ä¹ĭ": 5183,
      "ä¸īå®¶": 5184,
      "å½ĵä¸Ń": 5185,
      "æŁı": 5186,
      "éĹ»è®¯": 5187,
      "èµ°åĲĳ": 5188,
      "åı³åį«éĹ¨å°ī": 5189,
      "ä¸ĢæľĪ": 5190,
      "çĶ°å±±": 5191,
      "åĩĮ": 5192,
      "çľģ": 5193,
      "æ»ŀ": 5194,
      "åĪ¤æĸŃ": 5195,
      "åºĶå¯¹": 5196,
      "äº¬éĥ½å¸Ĥ": 5197,
      "å·¦é©¬": 5198,
      "çļĦæĥħåĨµä¸ĭ": 5199,
      "æĦıæĢĿ": 5200,
      "åŃĺç»Ń": 5201,
      "ãģł": 5202,
      "è®©ä»ĸ": 5203,
      "éĢĥåĽŀ": 5204,
      "çĥŁ": 5205,
      "æľ¬èĥ½å¯ºä¹ĭåıĺåĲİ": 5206,
      "åĽłä¸İ": 5207,
      "é«ĺèµĸ": 5208,
      "ç§°åĳ¼": 5209,
      "çĭ¼": 5210,
      "åĭ¿": 5211,
      "æ¸¡è¿ĩ": 5212,
      "éĻĨå¥¥åĽ½": 5213,
      "èµĸéĩį": 5214,
      "ä»ĬæĹ¥": 5215,
      "ç¦ıåĨĪ": 5216,
      "åķĨä¸ļ": 5217,
      "çī§éĩİ": 5218,
      "æĵį": 5219,
      "çŃĴäºķé¡ºåºĨ": 5220,
      "çļĦä¸»": 5221,
      "ä¹ĭå¦¹": 5222,
      "é»ĺ": 5223,
      "ç¡¬": 5224,
      "ï¼ĪãĢİ": 5225,
      "åĲĮæĹ¥": 5226,
      "å°ıå¼ĵ": 5227,
      "æİł": 5228,
      "1543": 5229,
      "çĨĻ": 5230,
      "è´µä¹ħ": 5231,
      "åĤ¬": 5232,
      "æĶ¿åºľ": 5233,
      "ç»Łé¢Ĩ": 5234,
      "è´¥äºİ": 5235,
      "æ¢¶": 5236,
      "ç»§ä»»å®¶çĿ£": 5237,
      "5000": 5238,
      "çļĦéĩįèĩ£": 5239,
      "å¤§åŃ¦": 5240,
      "æĺ¯å®¤çĶºæĹ¶ä»£": 5241,
      "è¿ĳçķ¿": 5242,
      "æĹ©åľ¨": 5243,
      "ç¼©": 5244,
      "éĢĥèĩ³": 5245,
      "ç®Ĺæĺ¯": 5246,
      "åīĬå¼±": 5247,
      "å·¡": 5248,
      "æ¬§": 5249,
      "ç¨£": 5250,
      "èĤ©": 5251,
      "èĢ¶ç¨£": 5252,
      "åŁİåĲİ": 5253,
      "ä¸ĬæĿīæľĿ": 5254,
      "æ´¾äºº": 5255,
      "æīĭä¸ĭ": 5256,
      "1594": 5257,
      "å®ļèµĸ": 5258,
      "è¢«ä¿¡éķ¿": 5259,
      "éĽ·": 5260,
      "ä¾ĿéĿł": 5261,
      "åĺīéļĨ": 5262,
      "å¤ªå¹³è®°": 5263,
      "å¤§æĿĳ": 5264,
      "ä»£çĲĨ": 5265,
      "å°ıè°·åŁİ": 5266,
      "é©¬å»»": 5267,
      "æĸ°åıĳ": 5268,
      "äº¤åĩº": 5269,
      "è¿ĺåľ¨": 5270,
      "å¤ªå¤«": 5271,
      "æĿ¾å¹³æ°ı": 5272,
      "æ¤İåĲį": 5273,
      "ä¿¡éķ¿åľ¨": 5274,
      "ä½ĵçİ°äºĨ": 5275,
      "çŃĸåĪĴ": 5276,
      "çļ®": 5277,
      "ä¿®çĲĨ": 5278,
      "æĸ¯æ³¢æ°ı": 5279,
      "çļĦå±ħåŁİ": 5280,
      "ä¸Ģåįĥ": 5281,
      "å¤§èĨ³": 5282,
      "åĮł": 5283,
      "è¢«æµģæĶ¾": 5284,
      "å¹ķæľ«": 5285,
      "éĩĳå±±": 5286,
      "åīĳæľ¯": 5287,
      "æĺĶæĹ¥": 5288,
      "äºĮéĺ¶åłĤ": 5289,
      "ä¹Łæ²¡æľī": 5290,
      "ä¸ĩå¤§åĨĽ": 5291,
      "éĵŃ": 5292,
      "æĮĩç¤º": 5293,
      "å½Ĵè¿ĺ": 5294,
      "èĦĳ": 5295,
      "çł´åĿı": 5296,
      "éķ°ä»ĵåºľ": 5297,
      "éī´è¿ŀ": 5298,
      "çļĦæĪĺäºī": 5299,
      "åĲķ": 5300,
      "çģ°": 5301,
      "å®įæĪ·": 5302,
      "å¤§æĢĴ": 5303,
      "ä¸Ńæľī": 5304,
      "ä¹īæĺĮ": 5305,
      "äºĮæľ¬": 5306,
      "æĻ¯çº²": 5307,
      "åıĪåĽł": 5308,
      "é©¬ä¸Ĭ": 5309,
      "èĮ¶ä¼ļ": 5310,
      "ä¸īæĿĳ": 5311,
      "æŃ»äº¡": 5312,
      "ä½Ĳæ¸¡": 5313,
      "èĲĦ": 5314,
      "ä¹ĿæĪ·": 5315,
      "æ¦Ĭ": 5316,
      "ç²Łå±ĭ": 5317,
      "èĳ¡èĲĦ": 5318,
      "40": 5319,
      "æ£®åı¯": 5320,
      "äºİäº¬éĥ½": 5321,
      "åĮĹè¿ĳæ±Ł": 5322,
      "äºĶå¥īè¡Į": 5323,
      "æľ¨åŁİ": 5324,
      "åıĹé¢Ĩ": 5325,
      "åį³ä¸º": 5326,
      "èĩ´ä¹¦": 5327,
      "çıį": 5328,
      "åıĻä»»": 5329,
      "å®½æĶ¿éĩįä¿®": 5330,
      "äºĭåĲİ": 5331,
      "æ³īå¯º": 5332,
      "åĩºèº«çļĦ": 5333,
      "åĢ¼å¾Ĺ": 5334,
      "æ°ıçĽ´": 5335,
      "åĮĹä¿¡æµĵ": 5336,
      "æĿ¾ä¸¸": 5337,
      "èĤĿ": 5338,
      "éļĲå²Ĳ": 5339,
      "å¯¿ä¸¸": 5340,
      "é«ĺæĶ¿": 5341,
      "ä¼Ĭæĸ¯": 5342,
      "éĽªæĸĭ": 5343,
      "çĮ®ä¸Ĭ": 5344,
      "æ¥ļ": 5345,
      "çĩĥ": 5346,
      "å±±å½¢": 5347,
      "çŁ¶": 5348,
      "æ±ĩ": 5349,
      "éĵ¸": 5350,
      "è¯¸å®¶è°±": 5351,
      "æľĢåĲİçļĦ": 5352,
      "çĶ°éĩį": 5353,
      "ä¹īçĽ´": 5354,
      "èİ·å°ģ": 5355,
      "æĹ©éĢĿ": 5356,
      "è¾īæĶ¿": 5357,
      "ä¸Ķåħĥ": 5358,
      "äºĮæĿ¡åŁİ": 5359,
      "å¤ªæĶ¿å¤§èĩ£": 5360,
      "ä¹³": 5361,
      "ä¸ºäºº": 5362,
      "æĿ¾å¹³å¹¿å¿ł": 5363,
      "è¿İæİ¥": 5364,
      "åħŃè§Ĵä¹īè´¤": 5365,
      "æĭľé¢Ĩ": 5366,
      "æ²³è¶ĬåŁİ": 5367,
      "å¤§å¯º": 5368,
      "è¾©": 5369,
      "æĶ»åįł": 5370,
      "æķĮæĸ¹": 5371,
      "éĢ¸è¯Ŀ": 5372,
      "å®½æĶ¿éĩįä¿®è¯¸å®¶è°±": 5373,
      "2000": 5374,
      "åįģåħ«": 5375,
      "ä¿®å»º": 5376,
      "éĢĿä¸ĸ": 5377,
      "é¦Ļå·Ŀ": 5378,
      "ç§ĺå¯Ĩ": 5379,
      "ä»İåĽĽä½įä¸ĭ": 5380,
      "ä¸Ģåľº": 5381,
      "çĽĶ": 5382,
      "ä¸Ĭäºº": 5383,
      "ä¹īç»Ł": 5384,
      "åıĪåĲį": 5385,
      "æĻ´æ°ı": 5386,
      "å±±åŁİåĽ½": 5387,
      "ä»įåľ¨": 5388,
      "æŃ¤æĹ¶çļĦ": 5389,
      "ç§ĭçĶ°": 5390,
      "ä¸ĢæĹıçļĦ": 5391,
      "æ²³åĨħåĽ½": 5392,
      "æĹ¶æľº": 5393,
      "ä¸ŃæĿ¡": 5394,
      "ä¸Ńä¸ĸ": 5395,
      "è§Ī": 5396,
      "æľ¨æĿĳ": 5397,
      "åħ¬æĸ¹çļĦ": 5398,
      "ç»ĵæĪĲ": 5399,
      "å¾ĢæĿ¥": 5400,
      "éĤ£ä¸ª": 5401,
      "ä½ıäºĨ": 5402,
      "ä¸´ç»Ī": 5403,
      "å¸¸éĻĨåĽ½": 5404,
      "èı©æıĲå¯º": 5405,
      "åĬ«": 5406,
      "å¸ģ": 5407,
      "ä¼ĬéĽĨ": 5408,
      "ä½¿èĬĤ": 5409,
      "å»ºè®¾": 5410,
      "çļĩåŃĲ": 5411,
      "ä¼ĬéĽĨéĻ¢": 5412,
      "çŁ¿": 5413,
      "å¯¹åħ¶": 5414,
      "å¼Ģåıĳ": 5415,
      "æĴ¤åĨĽ": 5416,
      "çľŁçĶ°ä¿¡ç¹ģ": 5417,
      "åĩıå°ģ": 5418,
      "å¤§éĩİæ²»": 5419,
      "å¤§åŀ£": 5420,
      "å¤§çº³è¨Ģ": 5421,
      "äºİåºĨéķ¿": 5422,
      "å®ŀåľ¨": 5423,
      "åı²ç§°": 5424,
      "æ®¿ä¸ĭ": 5425,
      "æĶ¿æĿĥçļĦ": 5426,
      "åĪĽä½ľ": 5427,
      "é¦Ļè¥¿": 5428,
      "ä»Ļåı°": 5429,
      "ä¸ĢäºĽ": 5430,
      "åĲİåĽł": 5431,
      "å«Į": 5432,
      "è¯¥åŁİ": 5433,
      "èĮ¶èĮ¶": 5434,
      "èĤ¥åīįåĽ½": 5435,
      "èĳ¡èĲĦçīĻ": 5436,
      "ä¸Ģä¹ĺ": 5437,
      "æĪĺåĨµ": 5438,
      "è¯´æľį": 5439,
      "1545": 5440,
      "çĶ²æĸĲæŃ¦çĶ°æ°ı": 5441,
      "å»¶å¾·": 5442,
      "æŃ¦çĶ°ä¿¡çİĦçļĦ": 5443,
      "1536": 5444,
      "ä¸§å¤±": 5445,
      "åĲİåıĪ": 5446,
      "å¤§å®¶": 5447,
      "æĶ»çł´": 5448,
      "ä¼ļéĿ¢": 5449,
      "åĲĦç§į": 5450,
      "éĢĲæŃ¥": 5451,
      "æĬµå¾¡": 5452,
      "ä»ĭç»į": 5453,
      "ä¾Ľåħ»": 5454,
      "çĽ¸æ¨¡åĽ½": 5455,
      "ä¸ĭæĢ»åĽ½": 5456,
      "ä¸²": 5457,
      "ç»ª": 5458,
      "å¸ľ": 5459,
      "è¿ĳèĩ£": 5460,
      "èģļä¹Ĳç¬¬": 5461,
      "60": 5462,
      "æĿ¾å±±åŁİ": 5463,
      "åĲĪè®¡": 5464,
      "è®¾æľī": 5465,
      "ç¢į": 5466,
      "éĩĮè§ģæ°ı": 5467,
      "æĨ": 5468,
      "ï¼ī**ï¼Į": 5469,
      "ä¸ĢæĪĺ": 5470,
      "åīįè¿Ľ": 5471,
      "æĭ¼": 5472,
      "æŃ¦çĶ°æ°ıçļĦ": 5473,
      "å¾·å·Ŀå¹ķåºľ": 5474,
      "åĽŀçŃĶ": 5475,
      "çļĦåĲĮæĹ¶": 5476,
      "åıĤä¸İäºĨ": 5477,
      "å¯Łè§ī": 5478,
      "å¼ĢåŁİæĬķéĻį": 5479,
      "è¶ħè¿ĩ": 5480,
      "å¤§æ¦Ĥ": 5481,
      "ä¸Ńçº³è¨Ģ": 5482,
      "å±±ä¸Ĭ": 5483,
      "æ¬£": 5484,
      "ä¸ľäº¬": 5485,
      "åĪ¶ä½ľ": 5486,
      "ç»Īç»ĵ": 5487,
      "æĮĩå®ļ": 5488,
      "æľĿä»ĵåĨĽ": 5489,
      "çº·äºī": 5490,
      "æī®æ¼Ķ": 5491,
      "å±±ç§ĳ": 5492,
      "å°ıå¯º": 5493,
      "äº²æĹı": 5494,
      "çĶŁåīį": 5495,
      "æıĴ": 5496,
      "çĸİ": 5497,
      "åŃ¤ç«ĭ": 5498,
      "é«ĺæĿ¾åŁİ": 5499,
      "æĹ¥æľ¬åı²": 5500,
      "éģĤä»¥": 5501,
      "è·Ŀç¦»": 5502,
      "å¤§ä¹±": 5503,
      "æĪĺå±Ģ": 5504,
      "äº¤æį¢": 5505,
      "å¹¸çĽĽ": 5506,
      "ä¸°åĲİåĽ½": 5507,
      "å®¶ç³»": 5508,
      "åľ°æĸ¹çļĦ": 5509,
      "æĶ»éĺ²": 5510,
      "ç»Ŀå¯¹": 5511,
      "éģĹè¿¹": 5512,
      "åİĨåı²ä¸Ĭ": 5513,
      "å°ıå±±çĶ°": 5514,
      "çĵľ": 5515,
      "å¤ĩåĲİåĽ½": 5516,
      "åİħ": 5517,
      "æĭĸ": 5518,
      "åıĳåħµ": 5519,
      "è¦ģåĨ²": 5520,
      "åĳ½è¿Ĳ": 5521,
      "åľŁå±ĭ": 5522,
      "èĦ¸": 5523,
      "æ¦ĬåİŁ": 5524,
      "çļĦåĳ½ä»¤": 5525,
      "è®¼": 5526,
      "å¹ķåºľåĨĽ": 5527,
      "å®«åĨħ": 5528,
      "èĤ¡": 5529,
      "è°ĭçķ¥": 5530,
      "åłĢç§ĢæĶ¿": 5531,
      "1602": 5532,
      "äºķä¼ĬçĽ´": 5533,
      "æŃ¼": 5534,
      "ä¹īè§Ĩ": 5535,
      "å¯¹è±¡": 5536,
      "æĶ»åıĸ": 5537,
      "æīĵè´¥": 5538,
      "æŃ¤è¯´": 5539,
      "çķı": 5540,
      "å¤ļéĹ»": 5541,
      "å¤ĸçļĦ": 5542,
      "å®ĩä½Ĳ": 5543,
      "ä¸´æĹ¶": 5544,
      "çºµçģ«": 5545,
      "ä¹ĭéķ¿": 5546,
      "åĨħéĢļ": 5547,
      "éĩįæ¬¡": 5548,
      "çķ·": 5549,
      "åħ«ä»£": 5550,
      "æģ³": 5551,
      "ç¼´": 5552,
      "åıĺåĮĸ": 5553,
      "éĵģçĤ®éĺŁ": 5554,
      "æĬĢæľ¯": 5555,
      "çĶ«": 5556,
      "æľīåĪ©": 5557,
      "åħ¶éĹ´": 5558,
      "åıįæĶ»": 5559,
      "å°ıéĩİå¯º": 5560,
      "1000": 5561,
      "åĲĳç§ĢåĲī": 5562,
      "æ¯ĽåĪ©æ°ıçļĦ": 5563,
      "æĶ¶åħ¥": 5564,
      "æıĲè®®": 5565,
      "åŃĻåŃĲ": 5566,
      "ç½²åĲį": 5567,
      "ä¸įåľ¨": 5568,
      "è¶Ĭä¸ŃåĽ½": 5569,
      "éĺ¿èĭı": 5570,
      "ç²¾éĶĲ": 5571,
      "æ¯įäº²æĺ¯": 5572,
      "å¾ĭä»¤": 5573,
      "éķ¿ç¯łä¹ĭæĪĺ": 5574,
      "éķ¿è°·å·Ŀ": 5575,
      "éķ¿æŀª": 5576,
      "èĢ»": 5577,
      "èĢĮéĿŀ": 5578,
      "æĦıåĳ³": 5579,
      "è§£éĻ¤": 5580,
      "éķ¿å°¾æ°ı": 5581,
      "å¾ħéģĩ": 5582,
      "ä¸įåĬ¨": 5583,
      "éĥ¨å¤§è¾ħ": 5584,
      "æĺİæĺ¾": 5585,
      "è¥¿åĨĽçļĦ": 5586,
      "æŃ¦å£«çļĦ": 5587,
      "è´¢æĶ¿": 5588,
      "èģļéĽĨ": 5589,
      "éĴĪå¯¹": 5590,
      "é¢ĳç¹ģ": 5591,
      "çļĦä¿¡éķ¿": 5592,
      "åİī": 5593,
      "è¢«æ²¡æĶ¶": 5594,
      "æ³ķåº¦": 5595,
      "ç»Łçİĩ": 5596,
      "ä»Ĭå·Ŀå®¶çļĦ": 5597,
      "åĬĿéĻį": 5598,
      "æĻĭåįĩ": 5599,
      "èĢ¶ç¨£ä¼ļ": 5600,
      "µçĲ": 5601,
      "å¾Ħ": 5602,
      "åħĥçº²": 5603,
      "æĹ¥æľ¬æĪĺåĽ½": 5604,
      "çĲµçĲ": 5605,
      "æħĪ": 5606,
      "è¿ģå±ħ": 5607,
      "çĲµçĲ¶": 5608,
      "ä¸İå¾·å·Ŀå®¶åº·": 5609,
      "æĽ´ä¸º": 5610,
      "åıĽç¦»": 5611,
      "è¯Ħå®ļ": 5612,
      "å¼ĺæ²»åħĥå¹´": 5613,
      "è°±ä»£å®¶èĩ£": 5614,
      "è¿·": 5615,
      "å°ıä»ĵ": 5616,
      "èµĦæºĲ": 5617,
      "åĺīåĲī": 5618,
      "35": 5619,
      "åīįåİ»": 5620,
      "åĮĹä¸Ĭ": 5621,
      "æĻ´æĻ¯": 5622,
      "åħ´ç»ı": 5623,
      "çľŁçĶ°å¹¸æĿĳ": 5624,
      "æĹħ": 5625,
      "æľīäºĽ": 5626,
      "èĥľè´Ł": 5627,
      "åĽĽå¤©çİĭ": 5628,
      "èĩ´åĬĽäºİ": 5629,
      "ç§»èĩ³": 5630,
      "çĪĨåıĳçļĦ": 5631,
      "ä¾Ľå¥ī": 5632,
      "å¤§å®Ŀå¯º": 5633,
      "ä¸ºåħĪéĶĭ": 5634,
      "ä¸įä½Ĩ": 5635,
      "å®ĹçļĦ": 5636,
      "å¾·å·Ŀå®¶çļĦ": 5637,
      "å®«åŁİ": 5638,
      "å¼¹æŃ£å¿ł": 5639,
      "åĲ¾å¦»": 5640,
      "å®¶å½ĵä¸»": 5641,
      "çİ©": 5642,
      "å½ĵæĹ¥": 5643,
      "çģ«æŀª": 5644,
      "è¯¦ç»Ĩ": 5645,
      "æ»¨æĿ¾": 5646,
      "å·¨å¤§": 5647,
      "äºĴçĽ¸": 5648,
      "çĭ©éĩİ": 5649,
      "ä¿¡ä»°": 5650,
      "å¹¶ç§°": 5651,
      "æŃ¦çĶ°åĨĽçļĦ": 5652,
      "æĹłåĬĽ": 5653,
      "ç¬¬åħŃ": 5654,
      "éª¤": 5655,
      "éĢĢå¾Ģ": 5656,
      "135": 5657,
      "éķĩå¹¸": 5658,
      "å°ĨåĨĽè¶³åĪ©ä¹īè¾ī": 5659,
      "è®²åĴĮ": 5660,
      "èĤĥæ¸ħ": 5661,
      "ï¼īï¼Ľ": 5662,
      "éķ¿å®ī": 5663,
      "ãģ¡": 5664,
      "åĬ¨ä¹±": 5665,
      "è¶³åĪ©æĪĲæ°ı": 5666,
      "éĢĥåĩº": 5667,
      "çĲīçĲĥ": 5668,
      "çļĦåľ°æĸ¹": 5669,
      "ä¸»æĮģ": 5670,
      "åĨħæµ·": 5671,
      "é«ĺçļĦ": 5672,
      "çĶ±å¸ĥ": 5673,
      "èİ·åĩĨ": 5674,
      "åĩºèº«äºİ": 5675,
      "ä¸ºæŃ¢": 5676,
      "å½©": 5677,
      "ï¼ļãĢĮ": 5678,
      "éĢĥèµ°": 5679,
      "å¼ºå¤§çļĦ": 5680,
      "å¢ŀå¼º": 5681,
      "åĿļåĽº": 5682,
      "å®ĩéĥ½å®«æ°ı": 5683,
      "åŃ©åŃĲ": 5684,
      "åľ¨äºĨ": 5685,
      "çĽ¸æ¯Ķ": 5686,
      "åıĹåĳ½": 5687,
      "åįĹåĮĹ": 5688,
      "å°ĳæķ°": 5689,
      "åİĭåĬĽ": 5690,
      "éĿĴå±±": 5691,
      "åĲİè¢«": 5692,
      "ä¸įåı¯èĥ½": 5693,
      "è±«ä»¥": 5694,
      "æľĪåįģä¸īæĹ¥": 5695,
      "å¤©æŃ£åįģåħ«å¹´": 5696,
      "å±±åĲįå®Ĺåħ¨": 5697,
      "è§ĤçĤ¹è®¤ä¸º": 5698,
      "åľ°åŁŁ": 5699,
      "è¿ĻéĩĮ": 5700,
      "å®Ĺèĥľ": 5701,
      "åį´æĺ¯": 5702,
      "å¯ĮåŃĲ": 5703,
      "æ¾Ħä¹ĭ": 5704,
      "åĤĢ": 5705,
      "åłĢè¶Ĭåħ¬æĸ¹": 5706,
      "ï¼īï¼ī": 5707,
      "å·¢": 5708,
      "åľ¨åħ³ä¸ľ": 5709,
      "éĥ¨ç½²": 5710,
      "åĦ¡": 5711,
      "ç§įè¯´æ³ķ": 5712,
      "ä¸¹æ³¢åĽ½": 5713,
      "æĢĿæĥ³": 5714,
      "èĽ°": 5715,
      "ä¸ºæł¸å¿ĥ": 5716,
      "åľ¨åħ¶": 5717,
      "åľ¨ç§ĢåĲī": 5718,
      "ä¸įè¦ģ": 5719,
      "èĢĮæĿ¥": 5720,
      "å¹¶æĪĲä¸º": 5721,
      "ä¼Ĭä¸¹": 5722,
      "åĨįåĬłä¸Ĭ": 5723,
      "å¿Ĺæĳ©": 5724,
      "éģĹåĿĢ": 5725,
      "ç»´æĸ°": 5726,
      "æķĪå¿ł": 5727,
      "è¯īè®¼": 5728,
      "åĤĢåĦ¡": 5729,
      "ä¸ºæĿ¡ä»¶": 5730,
      "çĶŁä¸ĭ": 5731,
      "ç§°ä½ľ": 5732,
      "åıĺå¾Ĺ": 5733,
      "æĪĺæŃ»åĲİ": 5734,
      "æ¸¡æ²³": 5735,
      "å°ıæĿ¾": 5736,
      "æīĢè¿°": 5737,
      "èĻ¾": 5738,
      "çĽ¸åĲĮçĽŁ": 5739,
      "ä¿Ŀåħ¨": 5740,
      "åĬŁåĬ³": 5741,
      "æµ·éĩİ": 5742,
      "åĸĿ": 5743,
      "è¤": 5744,
      "ä¹ĭä»ĭ": 5745,
      "åĨĽå½¹": 5746,
      "å¾·å·Ŀæĸ¹": 5747,
      "åĪĨæĶ¯": 5748,
      "æ°¸ç¦Ħåħĥå¹´": 5749,
      "åħ·æķĻ": 5750,
      "çļĦä¹¦ä¿¡": 5751,
      "ä¸ĢåĪĩ": 5752,
      "åŃĲå¥³": 5753,
      "å¤ļå¹´": 5754,
      "ä¸¤æ¬¡": 5755,
      "å¤§ä¸º": 5756,
      "éĩİæĿĳ": 5757,
      "ç§ĢåĲīåľ¨": 5758,
      "çĿĢæīĭ": 5759,
      "æĬķåħ¥": 5760,
      "æīįæĺ¯": 5761,
      "çĽ¸å½ĵäºİ": 5762,
      "é«ĺå¤©ç¥ŀåŁİ": 5763,
      "çļĦæĶ¯æĮģ": 5764,
      "ä¿¡æĺĮ": 5765,
      "ä¸Ńè®°è½½": 5766,
      "æīĢåı¸": 5767,
      "éģĤä¸İ": 5768,
      "æĳĦåħ³": 5769,
      "é¥Ńå¯Į": 5770,
      "åĩ»è´¥äºĨ": 5771,
      "å¤ºåıĸäºĨ": 5772,
      "éŀį": 5773,
      "ä¹īéķĩ": 5774,
      "çĽ´ä¹ĭ": 5775,
      "èĮ¨": 5776,
      "è¾¹çļĦ": 5777,
      "æŀĦæĪĲäºĨ": 5778,
      "èĴĻ": 5779,
      "ä¿ĥæĪĲ": 5780,
      "å®Īåį«": 5781,
      "ãģ¿": 5782,
      "å¹ķåºľå°ĨåĨĽ": 5783,
      "å¤§åĨħåĨĽ": 5784,
      "éĤ»è¿ĳ": 5785,
      "èĬ³è´º": 5786,
      "ä½ĲåĴĮå±±åŁİ": 5787,
      "ä¸Ĭæ³ī": 5788,
      "åĽĽåŃĲ": 5789,
      "æľ¨æ³½": 5790,
      "ç¡®å®ļ": 5791,
      "æģ©èµı": 5792,
      "å±ıé£İ": 5793,
      "çļĦé¦ĸçº§": 5794,
      "åħµè´¥": 5795,
      "ãģĪ": 5796,
      "ãģĳ": 5797,
      "åıĪæľī": 5798,
      "å¤ĩä¸ŃåĽ½": 5799,
      "åĮħåĲ«": 5800,
      "å¤įæĿĤ": 5801,
      "æľĪåįģä¹ĿæĹ¥": 5802,
      "åĬłåħ¥äºĨ": 5803,
      "æİĴéĻ¤": 5804,
      "äººä»¬": 5805,
      "ä¸ĭéĹ´": 5806,
      "åĲīéĩİ": 5807,
      "å¹³æīĭ": 5808,
      "ä»İåĨĽ": 5809,
      "æī¿è¯º": 5810,
      "å®ĺéĢĶ": 5811,
      "é¼»": 5812,
      "ç½Ĺé©¬åĮĸ": 5813,
      "hi": 5814,
      "ä¿¡æĪ¿": 5815,
      "å®Ĺçĳŀ": 5816,
      "ä¸ĬæĿīå®ļ": 5817,
      "çļĦéĥ¨éĺŁ": 5818,
      "çªģåħ¥": 5819,
      "æĪĲä¹¦": 5820,
      "ä»Ĭäºķ": 5821,
      "ä¸ªæľĪ": 5822,
      "éĢĢèĩ³": 5823,
      "å·±æĸ¹": 5824,
      "åıĺä¸º": 5825,
      "ä½ıæĮģ": 5826,
      "æ³½åŁİ": 5827,
      "èĴ²æ±ł": 5828,
      "æĪĺæĸĹä¸Ń": 5829,
      "çŃĳå±±æ®¿": 5830,
      "31": 5831,
      "æŃ¤å½¹": 5832,
      "åĿĹ": 5833,
      "åĮĹæĿ¡æ°ıçĽ´": 5834,
      "1532": 5835,
      "æľĪäºĮåįģæĹ¥": 5836,
      "è§īå¯º": 5837,
      "ç²®é£Ł": 5838,
      "èªīä¸º": 5839,
      "æķ¦è´º": 5840,
      "çļĦæĸĩä¹¦": 5841,
      "ä¸Ģè¡Į": 5842,
      "ä¸ĢæĶ¯": 5843,
      "ä¿¡èĥľ": 5844,
      "å±±éĺ³": 5845,
      "å¤ļäºº": 5846,
      "èĹ©åĪĿä»£èĹ©ä¸»": 5847,
      "åĿĤäºķ": 5848,
      "ä¸¢": 5849,
      "è¾¨": 5850,
      "ç¥¸": 5851,
      "è¶³ä»¥": 5852,
      "èī¯äº²çİĭ": 5853,
      "æ¯įè¡£": 5854,
      "èµ¤å¤ĩ": 5855,
      "è¶ĬåĲİçļĦ": 5856,
      "æ°ıäº²": 5857,
      "åĲĮå¿ĥ": 5858,
      "çĽ´å±ŀ": 5859,
      "ä¹ĿæĿ¡": 5860,
      "åįĹæĿ¡": 5861,
      "æĶ¹éĿ©": 5862,
      "å®¶çĿ£ç»§æī¿": 5863,
      "ä¸¥éĩį": 5864,
      "æĢ¥å¿Ļ": 5865,
      "æĲľ": 5866,
      "éĻ¶éļĨæĪ¿": 5867,
      "æĵħèĩª": 5868,
      "åįĵ": 5869,
      "ä¸ĬçĶ°åŁİ": 5870,
      "äººä¼Ĺ": 5871,
      "âĢĿï¼Ľ": 5872,
      "æĬĵ": 5873,
      "ä¸»å°Ĩ": 5874,
      "ä¸¤ä¸ĩ": 5875,
      "å¤įä»ĩ": 5876,
      "ä¸īæ²³çļĦ": 5877,
      "å¼ķèµ·": 5878,
      "ç»ĩçĶ°ä¿¡åŃĿ": 5879,
      "æĹĹå¸ľ": 5880,
      "å¥ĭåĭĩ": 5881,
      "çļĦæľºä¼ļ": 5882,
      "ç§ĢéļĨ": 5883,
      "æĮ«": 5884,
      "æĭ¾": 5885,
      "é«ĺåŁº": 5886,
      "ä½Ĳè´º": 5887,
      "ä¼ļæĪĺ": 5888,
      "åħ´ç¦ıå¯º": 5889,
      "åıªå¥½": 5890,
      "ä»ħæľī": 5891,
      "ä¾įæīĢ": 5892,
      "ä»Ĭå·Ŀæ°ıäº²": 5893,
      "å®¡": 5894,
      "å¤Ń": 5895,
      "ä¸Ģä¸ĭ": 5896,
      "ä¼į": 5897,
      "å°ĨçĽĳ": 5898,
      "éĺħ": 5899,
      "è¶£": 5900,
      "è¿Ľè¨Ģ": 5901,
      "åħ¬åĽŃ": 5902,
      "æĶ¯æµģ": 5903,
      "å¹¿æ³Ľ": 5904,
      "è¡¨è¾¾": 5905,
      "è®¾è®¡": 5906,
      "ç¿ĮæĹ¥": 5907,
      "æľĪåįģäºĮæĹ¥": 5908,
      "ä¸įä¹ħåĲİ": 5909,
      "ä¸ĢéĹ¨ä¼Ĺ": 5910,
      "åįĹåĮĹæľĿæĹ¶ä»£": 5911,
      "éĻĢ": 5912,
      "æŃ»äºİ": 5913,
      "ãĢĭï¼īï¼Į": 5914,
      "å¤©æŃ£åħŃå¹´": 5915,
      "ä¸ĬæĿīæ°ıçļĦ": 5916,
      "æĿĢäºĨ": 5917,
      "ãĤĦ": 5918,
      "å¹¿å²Ľ": 5919,
      "å®½æŃ£": 5920,
      "è¸ı": 5921,
      "æŃ£äº²çĶº": 5922,
      "Ġä¸İ": 5923,
      "ï¼īï¼Ī": 5924,
      "ä¿¡åħĥ": 5925,
      "æŃ¦è£ħ": 5926,
      "åī¥": 5927,
      "æľ¬é¢Ĩ": 5928,
      "ä¸ĸçķĮ": 5929,
      "æĪ·æ³½": 5930,
      "åĵĢ": 5931,
      "åı³äº¬": 5932,
      "è¡¨éĿ¢": 5933,
      "å¡«": 5934,
      "Ġ**": 5935,
      "å®¶æł¼": 5936,
      "åĩºäºİ": 5937,
      "å¹¶è¢«": 5938,
      "ç§°åı·": 5939,
      "åıĤæĭľ": 5940,
      "éĤ£éĩĮ": 5941,
      "åį¿è®°": 5942,
      "åĨ¶": 5943,
      "ä¸ĭåħĭ": 5944,
      "éĻĪ": 5945,
      "è§ģåĪ°": 5946,
      "éĢĥèĦ±": 5947,
      "æĬĹäºī": 5948,
      "186": 5949,
      "æĸ©èİ·": 5950,
      "èµ¶åĪ°": 5951,
      "è¡ĮåĨĽ": 5952,
      "ä¸°åĽ½": 5953,
      "æĮĩå®ļä¸º": 5954,
      "çľĭæĿ¥": 5955,
      "æ£®åŁİ": 5956,
      "æĸĭèĹ¤ä¹īé¾Ļ": 5957,
      "å²³åŁİ": 5958,
      "åĲ¬è¯´": 5959,
      "æ®ĭåħļ": 5960,
      "æģĲæĢķ": 5961,
      "éļĻ": 5962,
      "å¾·æĶ¿": 5963,
      "äºĭæĥħ": 5964,
      "æ¶Į": 5965,
      "è½¬æĬķ": 5966,
      "æķ°æŃ£": 5967,
      "å®ĩåĸľå¤ļçĽ´å®¶": 5968,
      "å¹½ç¦ģ": 5969,
      "åĲįåı¤å±ĭå¸Ĥ": 5970,
      "å®¶æĶ¿": 5971,
      "éķ¿èµĸ": 5972,
      "ä¸İå®¶åº·": 5973,
      "åħ¶åħĦ": 5974,
      "äº²ä¿¡": 5975,
      "åĮĹæĿ¡å®¶çļĦ": 5976,
      "åįĥåĪ©ä¼ĳ": 5977,
      "éĤĳ": 5978,
      "åħĪæĺ¯": 5979,
      "æ°¸ç¦Ħä¸īå¹´": 5980,
      "å¤©ä¸ĭäºº": 5981,
      "ä¸įäºĨ": 5982,
      "åľ°å¸¦": 5983,
      "åı¯çŁ¥": 5984,
      "ä»¤äºº": 5985,
      "æİ¥è¿ŀ": 5986,
      "æıĲåıĬ": 5987,
      "å¤§åĿĤå¤ıä¹ĭéĺµ": 5988,
      "ä»·åĢ¼": 5989,
      "æĹ¥åĲĳåĽ½": 5990,
      "éªıåºľåŁİ": 5991,
      "éŃĶ": 5992,
      "åĵ¥åĵ¥": 5993,
      "âĶģ": 5994,
      "å¥ĳæľº": 5995,
      "åħĥæ¸ħ": 5996,
      "ç¬¬äºĮå¹´": 5997,
      "å®ĺåħµåį«": 5998,
      "é¸Łç¾½": 5999,
      "åĽ½çİĭ": 6000,
      "ä¸įé¡¾": 6001,
      "å½ĵåĪĿ": 6002,
      "å®ŀçļĦ": 6003,
      "è¥¿ä¸Ĭéĩİ": 6004,
      "æĿĳèĲ½": 6005,
      "ç¥ŀå®«": 6006,
      "å¼Ģå§ĭäºĨ": 6007,
      "ç©·": 6008,
      "åŃĺä¿Ŀ": 6009,
      "1544": 6010,
      "å¤©æŃ£åįģä¸īå¹´": 6011,
      "å¤©æŃ£åįģäºĮå¹´": 6012,
      "ç»ĵåŁİæ°ı": 6013,
      "é»Ħéĩĳ": 6014,
      "å¤§åıĭä¹īéķĩ": 6015,
      "ä¸ºä½ķ": 6016,
      "æĿ¡çĽ®": 6017,
      "å¤©æŃ£ä¸īå¹´": 6018,
      "æ¸ħçĽĽ": 6019,
      "è¯ģæĺİ": 6020,
      "é¹¿åĦ¿å²Ľ": 6021,
      "æĵĴ": 6022,
      "çļĦæĹ¥æľ¬": 6023,
      "çĪ¶äº²ä¸º": 6024,
      "199": 6025,
      "æ´Ľä¼Ĭæĸ¯": 6026,
      "éħįç½®": 6027,
      "ç¥Ńç¥Ģ": 6028,
      "èĤĿä»ĺ": 6029,
      "ãŃ": 6030,
      "å±±ä¹ĭæĪĺ": 6031,
      "ä¹īæ°ı": 6032,
      "ä¹īå¿ł": 6033,
      "éĻµ": 6034,
      "æľ¬åĲį": 6035,
      "åĴĮå°ļ": 6036,
      "çī¢": 6037,
      "ä½Ĳä¼¯": 6038,
      "çĶ¨çļĦ": 6039,
      "å¾Ģå¾Ģ": 6040,
      "æıĲæĭĶ": 6041,
      "æĺ¾èĳĹ": 6042,
      "æ°¸æŃ£åįģ": 6043,
      "åħĥé¾Łä¸īå¹´": 6044,
      "åı²æĸĻä¸Ń": 6045,
      "å®¤çĶºå¹ķåºľçļĦ": 6046,
      "ãŃ´": 6047,
      "èĿ": 6048,
      "æľŃ": 6049,
      "äºİå¤§": 6050,
      "æĹłåŃĲ": 6051,
      "åıįå¤į": 6052,
      "æĸĭèĹ¤é¾Ļåħ´": 6053,
      "æħĮ": 6054,
      "ä¸ĺ": 6055,
      "åºŀ": 6056,
      "å²Ĥ": 6057,
      "è¦ģå®³": 6058,
      "åĮĹæĿ¡æ°ıçļĦ": 6059,
      "ä½ľä¸ºäººè´¨": 6060,
      "ä¿Ŀè¯ģ": 6061,
      "è½¬åĲĳ": 6062,
      "åĲİæĿ¥æĪĲä¸º": 6063,
      "å¯ĨåĪĩ": 6064,
      "éĢ¸äºĭ": 6065,
      "ç§©åºı": 6066,
      "å·Ŀä¸Ĭ": 6067,
      "åįĬåħµåį«": 6068,
      "éħįåĲĪ": 6069,
      "éĺ¶æ®µ": 6070,
      "å¤ªçĶ°éģĵçģĮ": 6071,
      "éĩĳåŃĲ": 6072,
      "ä¼ıåħµ": 6073,
      "æĹĹä¸ĭ": 6074,
      "æŀĦçŃĳ": 6075,
      "å°ıç¬łåİŁæ°ı": 6076,
      "ä¸»ä»İ": 6077,
      "å°ıå·Ŀ": 6078,
      "å°ģéĶģ": 6079,
      "åħ³ç³»çļĦ": 6080,
      "æŀľçĦ¶": 6081,
      "ä¹īéĩį": 6082,
      "éĥ½è¢«": 6083,
      "éģĵçļĦ": 6084,
      "å£¤": 6085,
      "æ·±åħ¥": 6086,
      "éģĹèĩ£": 6087,
      "éĢģåĪ°": 6088,
      "å²¸çļĦ": 6089,
      "èĻ¾å¤·": 6090,
      "å®¶ä¹ħ": 6091,
      "ä¹ĭåħĦ": 6092,
      "ä¹ĭæīĢä»¥": 6093,
      "æĪĺçº¿": 6094,
      "åĪĨéħį": 6095,
      "åĢļ": 6096,
      "å§ĭç¥ĸ": 6097,
      "éģĤäºİ": 6098,
      "1596": 6099,
      "æ°ĳä¼Ĺ": 6100,
      "ä¾Ŀèµĸ": 6101,
      "åįľ": 6102,
      "çĽĨ": 6103,
      "åıĤéĺµ": 6104,
      "èĩªå·±åĪĻ": 6105,
      "ä¹ĭåĲİçļĦ": 6106,
      "å¤įå½Ĵ": 6107,
      "è¿Ľåħ¥äºĨ": 6108,
      "æķ´å¤ĩ": 6109,
      "ç¨ĭåº¦": 6110,
      "æķĪåĬĽ": 6111,
      "æ¸ħæ´²åŁİ": 6112,
      "ä¼¦": 6113,
      "ä½ľåĩº": 6114,
      "æĻ´æĶ¿": 6115,
      "æ°¸ç¦Ħåįģä¸Ģå¹´": 6116,
      "èĲ½åħ¥": 6117,
      "åĽ½äººé¢Ĩä¸»": 6118,
      "èį¯å¸Ī": 6119,
      "æłĩå¿ĹçĿĢ": 6120,
      "å®¶å®°": 6121,
      "ä¸Ńå±±": 6122,
      "ç§ĢåĮħ": 6123,
      "å¿łä¹ī": 6124,
      "åıĪæĺ¯": 6125,
      "æ°¸ç¦ĦåįģäºĮå¹´": 6126,
      "æĭħå½ĵ": 6127,
      "è¿ŀæİ¥": 6128,
      "èĹıäºº": 6129,
      "åħ³åİŁåĲĪæĪĺ": 6130,
      "æ¡¥åŁİ": 6131,
      "çī¹å¾ģ": 6132,
      "ä¼¯çĪ¶": 6133,
      "çŁ³è§ģåĽ½": 6134,
      "æ¿ĳæĪ·åĨħæµ·": 6135,
      "ä¸ºäººè´¨": 6136,
      "ä¸ľåĨĽçļĦ": 6137,
      "å½¢è±¡": 6138,
      "åĪ«åĬ¨": 6139,
      "æľĪåįģæĹ¥": 6140,
      "æīĺä»ĺ": 6141,
      "å½°": 6142,
      "ä¸įå®ī": 6143,
      "æĿ¥å²Ľ": 6144,
      "1538": 6145,
      "å«ģè±«": 6146,
      "æĪĺå½¹ä¸Ń": 6147,
      "ç§ĭæľĪç§įå®ŀ": 6148,
      "æııç»ĺ": 6149,
      "åħ°ä¸¸": 6150,
      "åİĮ": 6151,
      "æĹ¥æľŁ": 6152,
      "ä¸ĭåİ»": 6153,
      "åħŃåįģ": 6154,
      "å®ĪæĬ¤çļĦ": 6155,
      "æİ¥åĪ°": 6156,
      "åĨĪæľ¬": 6157,
      "æĸĭèĹ¤æ°ı": 6158,
      "å¯»æ±Ĥ": 6159,
      "æ¯ķç«Ł": 6160,
      "éĽ¶": 6161,
      "åĪ¶å®ļ": 6162,
      "å¤ĦæŃ»": 6163,
      "æĪĳçļĦ": 6164,
      "ç¹ģèį£": 6165,
      "æĵħéķ¿": 6166,
      "å®¶ä¸»": 6167,
      "ä¹īç¥Ĳ": 6168,
      "ä¸īå®ħ": 6169,
      "æŃ£å½ĵ": 6170,
      "å¤ĦçļĦ": 6171,
      "èīºæľ¯": 6172,
      "æľĪåįģåħ«æĹ¥": 6173,
      "ãģĹãģ¦": 6174,
      "ä¿¡èµĸ": 6175,
      "ä¸ľåįĹ": 6176,
      "èĬ¥": 6177,
      "çī©èµĦ": 6178,
      "æķ°éĩı": 6179,
      "ç«ŁçĦ¶": 6180,
      "èĭĹåŃĹ": 6181,
      "..": 6182,
      "åľ¨æĪĺåĽ½æĹ¶ä»£": 6183,
      "ä¸Ĭä¸ĭ": 6184,
      "ç»ĩçĶ°åĨĽçļĦ": 6185,
      "åı¯è°ĵ": 6186,
      "è½¬ä¸º": 6187,
      "æ£ĭ": 6188,
      "æħİ": 6189,
      "è¯´æ³ķç§°": 6190,
      "æĺ¥æĹ¥å±±åŁİ": 6191,
      "çĶŁäº§": 6192,
      "æķ°åįģ": 6193,
      "æ¼«": 6194,
      "åľ¨åºĨéķ¿": 6195,
      "åĲİèĢħ": 6196,
      "åĽ½äº²": 6197,
      "é¢ĨçļĦ": 6198,
      "æ´¾å¾Ģ": 6199,
      "åıĤè§ģ": 6200,
      "å°ģåľ°": 6201,
      "å¨ĺ": 6202,
      "å¤§åĴĮå®Ī": 6203,
      "ç²¾ç¥ŀ": 6204,
      "ä¸īæĸ¹åİŁ": 6205,
      "å¤§ç¤¾": 6206,
      "ä¹īæĹ¶": 6207,
      "æĶ»çģŃ": 6208,
      "åĪĨåĽ½": 6209,
      "ä¸¤åįĥ": 6210,
      "ç»ĩçĶ°ä¿¡éķ¿åľ¨": 6211,
      "èį·": 6212,
      "åĨĽäºĭè¡ĮåĬ¨": 6213,
      "åĲ¦å®ļ": 6214,
      "åŁĭä¼ı": 6215,
      "ä¹ĭç¥ĸ": 6216,
      "åľ¨ä¿¡éķ¿": 6217,
      "æĶ¿åĪĻ": 6218,
      "çķĳ": 6219,
      "éĥ½æľī": 6220,
      "éĢĥåĪ°": 6221,
      "ä»įæľī": 6222,
      "æ·±åİļ": 6223,
      "çī¹æ®Ĭ": 6224,
      "æľĪäºĮåįģåħ«æĹ¥": 6225,
      "ä¼¤äº¡": 6226,
      "çķłå±±ä¹īå°±": 6227,
      "å°Ŀ": 6228,
      "åĨĮ": 6229,
      "ä¹ĭæĸ¹": 6230,
      "è´Ń": 6231,
      "çļĩå®¤": 6232,
      "éĴµ": 6233,
      "é¾ĻéĢłå¯ºå®¶": 6234,
      "çļĦç§ĢåĲī": 6235,
      "åŁİå°Ĩ": 6236,
      "éĹ¨åı¸": 6237,
      "ç»ıå¸¸": 6238,
      "äº¤éĶĭ": 6239,
      "è¶³åĪ©ä¹īæĿĲ": 6240,
      "å¿ħè¦ģ": 6241,
      "çŃĳåīįåĽ½": 6242,
      "è°£": 6243,
      "äº²çĶŁ": 6244,
      "åıªåī©": 6245,
      "ä¼Ĭè¾¾è¾īå®Ĺ": 6246,
      "ä¸ĩçŁ³é¢Ĩåľ°": 6247,
      "é¸ŁåıĸåŁİ": 6248,
      "å¤§çº¦": 6249,
      "ä»£æĽ¿": 6250,
      "ä¸Ģäºĭ": 6251,
      "å¤§äºº": 6252,
      "åĩºèī²": 6253,
      "éģ¥": 6254,
      "è¶³åĪ©ä¹īæ»¡": 6255,
      "æīĩè°·ä¸ĬæĿīå®¶": 6256,
      "ä¸ĢåŃĹ": 6257,
      "ä¸Ģåº§": 6258,
      "ä¹ĭå®¶": 6259,
      "æĺ¯ä»¥": 6260,
      "ä¹īæĿĲ": 6261,
      "æŃ£ç»Ł": 6262,
      "å¤ĸæł·": 6263,
      "ä¸īå¥½åħĥéķ¿": 6264,
      "å¢ŀæı´": 6265,
      "ç¾½æŁ´åĨĽ": 6266,
      "çļĦä¸ĢåĲĳ": 6267,
      "éĩĩçº³": 6268,
      "æī«éĥ¨": 6269,
      "Ġå¤§": 6270,
      "ä¿¡å¾Ĵ": 6271,
      "è°¨": 6272,
      "æ¯Ļ": 6273,
      "ä½ĨçĶ±äºİ": 6274,
      "å¤ļçļĦ": 6275,
      "æľ¨æ´¥å·Ŀ": 6276,
      "éĢĢåĩº": 6277,
      "éģŃåĪ°äºĨ": 6278,
      "æµħäºķæ°ı": 6279,
      "åłĢå°¾": 6280,
      "æĲŀ": 6281,
      "çīĩæ¡Ĳ": 6282,
      "ç¨³åĽº": 6283,
      "å¹»": 6284,
      "äººå¿ĥ": 6285,
      "åħĥå¼ĺ": 6286,
      "æľ¬æŀª": 6287,
      "çĽ´çĽĽ": 6288,
      "ä¸ĬæĿīæĻ¯èĻİ": 6289,
      "éģŃåıĹ": 6290,
      "ä»ģç§ĳ": 6291,
      "è§īå¾Ĺ": 6292,
      "éķ¿éĹ¨åĽ½": 6293,
      "åīįçĶ°åĪ©éķ¿": 6294,
      "æŁ¿å´İ": 6295,
      "è¢«ç§ĢåĲī": 6296,
      "å°ıè¯´": 6297,
      "èĥľæ°¸": 6298,
      "å¥³åŃĲ": 6299,
      "æ°¸ç¦ĦåĽĽå¹´": 6300,
      "æıĲäº¤": 6301,
      "å¢ŀçĶ°éķ¿": 6302,
      "çļĦåĲįåŃĹ": 6303,
      "ä¹ĭæīĭ": 6304,
      "æĺ¯ä¸Ģä¸ª": 6305,
      "ä¸İåħĦéķ¿": 6306,
      "æľīäºĨ": 6307,
      "äºĮä¿£": 6308,
      "ç³»ç»Ł": 6309,
      "éĤ£åı¤": 6310,
      "éķ¿å®ĹæĪĳéĥ¨æ°ı": 6311,
      "åĬłèĹ¤åĺīæĺİ": 6312,
      "ä¸Ģèĩ´": 6313,
      "ä¸įçł´": 6314,
      "ä»¥åħ¶": 6315,
      "æĶ¿èĻİ": 6316,
      "çŃīåĪ°": 6317,
      "èĻı": 6318,
      "åĳ½åħ¶": 6319,
      "èģĮè´£": 6320,
      "æĶ¶å¤į": 6321,
      "æ»¨æĿ¾åŁİ": 6322,
      "ç®±æł¹": 6323,
      "äºĮæľ¬æĿ¾": 6324,
      "ĠåİĨåı²": 6325,
      "å®ĭ": 6326,
      "æĺ¯æ´»è·ĥäºİ": 6327,
      "éĢĴ": 6328,
      "ç«Ń": 6329,
      "ä½ľèĢħ": 6330,
      "æį®æŃ¤": 6331,
      "å®«éĥ¨": 6332,
      "åĬ¿åĬĽèĮĥåĽ´": 6333,
      "1537": 6334,
      "æľĪäºĮåįģä¸ĥæĹ¥": 6335,
      "ç©¶ç«Ł": 6336,
      "çļĦæĹ¶ä»£": 6337,
      "æŃ£å®¶": 6338,
      "å¹¶åĲĳ": 6339,
      "ç»ĩçĶ°æĸ¹": 6340,
      "è¥¿åĽŃ": 6341,
      "ä¸¤å¹´": 6342,
      "æĪĺåĽ½æĹ¶ä»£èĩ³å®īåľŁæ¡ĥå±±æĹ¶ä»£çļĦæŃ¦å°Ĩ": 6343,
      "è½¬ä»ķ": 6344,
      "çŃīäººçļĦ": 6345,
      "ç¥ĸåħĪ": 6346,
      "å¥īè¡Įäºº": 6347,
      "æľĪåįģåĽĽæĹ¥": 6348,
      "æ¥¯": 6349,
      "çļĦåĲİè£Ķ": 6350,
      "éĶħå²ĽçĽ´èĮĤ": 6351,
      "ä¿±": 6352,
      "è¯¾": 6353,
      "åıĪåħµåį«": 6354,
      "æ®ģ": 6355,
      "æµģäº¡": 6356,
      "æľĪåįģä¸ĥæĹ¥": 6357,
      "èĽ®": 6358,
      "å²Ľæ´¥å®¶ä¹ħ": 6359,
      "ä¸ĬæľĪåŁİ": 6360,
      "åľ¨æĪĺåĽ½": 6361,
      "ä¿¡å¹¸": 6362,
      "éĺĶ": 6363,
      "æĬ«": 6364,
      "é«ĺç»ı": 6365,
      "å¾¡åĿĬ": 6366,
      "éĩĮè§ģä¹īå°§": 6367,
      "èĭ¦æĪĺ": 6368,
      "å¢ŀçĶ°éķ¿çĽĽ": 6369,
      "åľĪ": 6370,
      "ä¸Ńéĥ¨": 6371,
      "å¹¶ä¸įæĺ¯": 6372,
      "ä»İå±ŀäºİ": 6373,
      "éĿ¢ä¸´": 6374,
      "å¹ķèĩ£": 6375,
      "å±ħé¦Ĩ": 6376,
      "çľŁå®Ĺ": 6377,
      "åŁºäºİ": 6378,
      "æ²¦ä¸º": 6379,
      "å®īåĽ½å¯ºæĥłçĲ¼": 6380,
      "çļĦç»ĩçĶ°ä¿¡éķ¿": 6381,
      "çī©é¦Ĩ": 6382,
      "è¿Ļä¸ªæĹ¶åĢĻ": 6383,
      "æ²¿æµ·": 6384,
      "å¼Ĺæ´Ľä¼Ĭæĸ¯": 6385,
      "Ġåĩºèĩª": 6386,
      "ä¸Ģå®¶": 6387,
      "æŃ¤äºº": 6388,
      "éļ¼": 6389,
      "å¯¹ä»ĺ": 6390,
      "æŃ»çļĦ": 6391,
      "è¿ĩäºİ": 6392,
      "åĮĹæĿ¡é«ĺ": 6393,
      "èĻ½ä¸º": 6394,
      "è´£ä»»": 6395,
      "åħĥé¾ŁäºĮå¹´": 6396,
      "ä¿¡æĸ¹": 6397,
      "æŃ£çº¯": 6398,
      "æĸĩæ²»": 6399,
      "ä»»å®ĺ": 6400,
      "èº²": 6401,
      "æĹłå¥Ī": 6402,
      "æĽ¾åľ¨": 6403,
      "åĽ´åĽ°": 6404,
      "çł´è£Ĥ": 6405,
      "å°ĨåĨĽè¶³åĪ©ä¹īæĺŃ": 6406,
      "ï¼īï¼īï¼Į": 6407,
      "éķ¿ç¦Ħ": 6408,
      "ä¿¡çļĦ": 6409,
      "ä¹īæĻ´": 6410,
      "æĿ¥æĶ»": 6411,
      "æ²³å°»": 6412,
      "çĽĽéĩį": 6413,
      "éĢĢåħµ": 6414,
      "æµģæµª": 6415,
      "æ·³": 6416,
      "çİĭåŃĲ": 6417,
      "åħŃè§Ĵé«ĺèµĸ": 6418,
      "éĻĲåĪ¶": 6419,
      "çıł": 6420,
      "åĽ½ä¸»": 6421,
      "ç§Ģæ²»": 6422,
      "å®ŀä¼ĳ": 6423,
      "èº«ä¸Ĭ": 6424,
      "åħ¨åĬĽ": 6425,
      "æ¶Ĥ": 6426,
      "æľĪäºĮåįģä¸ĢæĹ¥": 6427,
      "å¼ĵç®Ń": 6428,
      "å¯¨": 6429,
      "é¢ĨåŁŁ": 6430,
      "ãģĺ": 6431,
      "å¸ĤçļĦ": 6432,
      "åİĨç»ı": 6433,
      "ãĤģ": 6434,
      "è¿½è®¨": 6435,
      "ä½Ĳä¹ħéĥ¡": 6436,
      "èĬ¦åĲįæ°ı": 6437,
      "åĲİäºİ": 6438,
      "å±±åľ°": 6439,
      "æĬĽ": 6440,
      "å°ıåİ¿": 6441,
      "ä¹ŁåĽłæŃ¤": 6442,
      "åĽŀåĽ½": 6443,
      "å±ķç¤º": 6444,
      "ä¸ĢåĲĮè¢«": 6445,
      "åĪ«åĬ¨éĺŁ": 6446,
      "ä¹ĭå¿ĥ": 6447,
      "ä¿¡è¡Į": 6448,
      "è¿Ľåıĳ": 6449,
      "åĬ¨èį¡": 6450,
      "ä¸¾åĬ¨": 6451,
      "æľĪäºĮåįģåĽĽæĹ¥": 6452,
      "ä½łä»¬": 6453,
      "çļĦéķ¿çĶ·": 6454,
      "æ¸¯åı£": 6455,
      "åĽ½åºľåı°": 6456,
      "åĩ¶": 6457,
      "äºĮéĥİ": 6458,
      "1616": 6459,
      "æĿ¾å¹³æ¸ħåº·": 6460,
      "éĺ¿éĥ¨": 6461,
      "ç¢İ": 6462,
      "åĩºç¾½åĽ½": 6463,
      "äº§çĶŁäºĨ": 6464,
      "ãĢĭãĢģãĢĬ": 6465,
      "ï¼īâĢĶâĢĶ": 6466,
      "äºĮä½į": 6467,
      "å¦¥": 6468,
      "æľĿèĩ£": 6469,
      "å±ħçĦ¶": 6470,
      "æ³¢ç½Ĺ": 6471,
      "çİĦèķĥ": 6472,
      "åĭŁ": 6473,
      "äºĮåįģåĽĽ": 6474,
      "å®¶åĲį": 6475,
      "æ°ıæĹı": 6476,
      "ä¼°": 6477,
      "ä¹īä¸°": 6478,
      "ä¹īç¨Ļ": 6479,
      "çŃīçŃī": 6480,
      "ä¸ľå¤§å¯º": 6481,
      "ä»¤åħ¶": 6482,
      "åĵ²": 6483,
      "åĨ°": 6484,
      "åº¸": 6485,
      "æŃ£æľ¨": 6486,
      "ä¾¦": 6487,
      "ä¹ħæĶ¿": 6488,
      "å°±è¢«": 6489,
      "æŃ»å®Ī": 6490,
      "ä¼łéĹ»": 6491,
      "é¦ĸé¢Ĩ": 6492,
      "æĤŁ": 6493,
      "é»ĳå·Ŀ": 6494,
      "ç¾İæµĵçļĦ": 6495,
      "é«ĺæ¡¥ç»įè¿Ĳ": 6496,
      "è´±å²³ä¹ĭæĪĺ": 6497,
      "è¥¿åĽŃå¯º": 6498,
      "æĥ©": 6499,
      "èĢģä¸Ń": 6500,
      "åħŃè§Ĵå®ļèµĸ": 6501,
      "çĨĬæľ¬": 6502,
      "åį±éĻ©": 6503,
      "éĵ¶å±±": 6504,
      "åª": 6505,
      "å·Ŀä¹ĭæĪĺä¸Ń": 6506,
      "éĢļè¯´": 6507,
      "143": 6508,
      "éī´ç§į": 6509,
      "1605": 6510,
      "84": 6511,
      "æĹ¶åĪ»": 6512,
      "ä¹īéĺ³": 6513,
      "æĪĲéķ¿": 6514,
      "å¹¶å°Ĩåħ¶": 6515,
      "åĪ°æĿ¥": 6516,
      "äºķæ°ı": 6517,
      "çľŁéĩĮ": 6518,
      "ä¸įè¿ĩæĺ¯": 6519,
      "å¾·å·Ŀå®¶åħī": 6520,
      "å©¿åħ»åŃĲ": 6521,
      "è¸ª": 6522,
      "å£¬çĶŁ": 6523,
      "ä¸įå¹¸": 6524,
      "å¹³è´º": 6525,
      "éĽ¾": 6526,
      "æ·±åıĹ": 6527,
      "èĽĩ": 6528,
      "å®¶çº¹": 6529,
      "åŁİéĻ·èĲ½": 6530,
      "ä¹īéķ¿": 6531,
      "æłı": 6532,
      "æłĸ": 6533,
      "èĪħ": 6534,
      "ãĤı": 6535,
      "èģĶçĽŁ": 6536,
      "æľĪåįģä¸ĢæĹ¥": 6537,
      "å¯¹ç«ĭçļĦ": 6538,
      "æļĹéĢļ": 6539,
      "å¼Ĥè¯´": 6540,
      "åĢŁæŃ¤": 6541,
      "èĤ¥åĲİåĽ½": 6542,
      "åĲİèĹ¤åŁºæ¬¡": 6543,
      "å¾¡é¦Ĩä¹ĭä¹±": 6544,
      "å¤§å¹ħ": 6545,
      "æĪĺåīį": 6546,
      "å¯Ŀ": 6547,
      "åĩºçīĪ": 6548,
      "ä¸ĭæĹ¬": 6549,
      "æľĿæ¯Ķ": 6550,
      "å¾¡åĨħ": 6551,
      "åĪ¶çļĦ": 6552,
      "æ°´æĪ·": 6553,
      "1539": 6554,
      "çĽĳæĬ¤": 6555,
      "åıĳèµ·æĶ»åĩ»": 6556,
      "æľĿæ¯Ķå¥Ī": 6557,
      "ä¸ºåĲİ": 6558,
      "åºĬ": 6559,
      "å¤§å®«": 6560,
      "ä¹īå°±": 6561,
      "éģģ": 6562,
      "æĮ½": 6563,
      "é«ĺå¸Ī": 6564,
      "æŃ»ä¼¤": 6565,
      "è¥¿çıŃ": 6566,
      "éĺŁä¼į": 6567,
      "èĹ¤åİŁæ°ı": 6568,
      "å±¡æ¬¡": 6569,
      "æ»ĭè´º": 6570,
      "è¥¿çıŃçīĻ": 6571,
      "å®¶åħī": 6572,
      "ç»Ĩå·Ŀæ¾Ħåħĥ": 6573,
      "è®©ä¸İ": 6574,
      "çĲĨè§£": 6575,
      "ä¿¡æµĵçļĦ": 6576,
      "æľĪäºĮåįģäºĶæĹ¥": 6577,
      "å®¤çĶºå¹ķåºľç¬¬": 6578,
      "ä¼ĺç§Ģ": 6579,
      "åįļçī©é¦Ĩ": 6580,
      "åľ¨ä»ĸ": 6581,
      "åľ¨åĨħçļĦ": 6582,
      "ä¸Ńè¢«": 6583,
      "ä¹īå°ļ": 6584,
      "å®Ĺæ²»": 6585,
      "æ»´": 6586,
      "ç»ĵåĲĪ": 6587,
      "çºªå¿µ": 6588,
      "é¥ŃçĶ°": 6589,
      "æ°ıæ²»": 6590,
      "åĩºéĿ¢": 6591,
      "åĩºå¸Ń": 6592,
      "åĲĳå®¶åº·": 6593,
      "è¶³åĪ©ä¹īç¨Ļ": 6594,
      "éĺ²æŃ¢": 6595,
      "æİ¨è¡Į": 6596,
      "å®ĮæĪĲäºĨ": 6597,
      "æľĪåįģåħŃæĹ¥": 6598,
      "æī©å±ķ": 6599,
      "çºªä¼ĬåĽ½": 6600,
      "æĦıåĳ³çĿĢ": 6601,
      "çĲµçĲ¶æ¹ĸ": 6602,
      "çļĦè®°å½ķ": 6603,
      "ä¸Ģçīĩ": 6604,
      "éķ¿æĿŁ": 6605,
      "æĪĲå°±": 6606,
      "æĸ¹å¹¿": 6607,
      "æĸ¹éĴĪ": 6608,
      "é«ĺåĿĤ": 6609,
      "éĢļå¾Ģ": 6610,
      "åħŃæ³¢ç½Ĺ": 6611,
      "èĤī": 6612,
      "è¿ŀç»Ń": 6613,
      "è¾ŀä¸ĸ": 6614,
      "ç»ĵæĿŁåĲİ": 6615,
      "ãĢıï¼īãĢĤ": 6616,
      "éĵĥæľ¨éĩį": 6617,
      "ä¹īæ¾Ħ": 6618,
      "é¢Ĩæ°ĳ": 6619,
      "ãģ°": 6620,
      "å½ĵå®¶": 6621,
      "æ¯ĽåĪ©æĸ¹": 6622,
      "äº¦äºİ": 6623,
      "åħ¬å¼Ģ": 6624,
      "å¤Ħç½®": 6625,
      "æĶ¹åħĥ": 6626,
      "ä¿¡çİĦçļĦ": 6627,
      "è¨Ģç»§": 6628,
      "çĬ¶åĨµ": 6629,
      "æİ¨ä¸¾": 6630,
      "1530": 6631,
      "1533": 6632,
      "1534": 6633,
      "1535": 6634,
      "å¤©æŃ£åįģåĽĽå¹´": 6635,
      "æĶ»éĻ·äºĨ": 6636,
      "æ¸ħåĴĮæºĲæ°ı": 6637,
      "ä¹ĭåĬŁ": 6638,
      "ä¹ĭæ¯į": 6639,
      "ä»£çļĦ": 6640,
      "ä»£å®¶çĿ£": 6641,
      "ä»ĸå°Ĩ": 6642,
      "éĩİçĶ°": 6643,
      "åĽĽçĶ·": 6644,
      "åıĺæĪĲ": 6645,
      "éĤ£äºĽ": 6646,
      "é¾ĻéĢłå¯ºæ°ı": 6647,
      "åıĸå¾ĹäºĨ": 6648,
      "çļĦäºĭæĥħ": 6649,
      "ä¸ºä»Ģä¹Ī": 6650,
      "ä¸Ģè¯į": 6651,
      "åĨĽåĬŁ": 6652,
      "èĢĮä¸į": 6653,
      "ä¹Łå°±": 6654,
      "å®ĩæ²»": 6655,
      "æ¡ĳåĲį": 6656,
      "éļ¼äºº": 6657,
      "Ġåľ¨": 6658,
      "åĲı": 6659,
      "å¤§å±ħå£«": 6660,
      "åīįéĶĭ": 6661,
      "è¿Ļåº§": 6662,
      "é«ĺçĶ°": 6663,
      "èĩ³å°ĳ": 6664,
      "æĬ¤éĢģ": 6665,
      "åħ´åħĥ": 6666,
      "å¹¸æĿĳ": 6667,
      "åĳĬçŁ¥": 6668,
      "å»ºç«ĭäºĨ": 6669,
      "ä¸ºåĲį": 6670,
      "è¿ĽäºĨ": 6671,
      "ä¸°èĩ£å®¶çļĦ": 6672,
      "åĩłä¸ª": 6673,
      "å¢ĵæīĢ": 6674,
      "æĻ®éģį": 6675,
      "å·ĿçļĦ": 6676,
      "ä»ĸåıĪ": 6677,
      "äºĮåįĥ": 6678,
      "æŀ¢": 6679,
      "æµģçļĦ": 6680,
      "çĪ±åŃ£": 6681,
      "æľĪäºĮåįģä¸īæĹ¥": 6682,
      "å¨¶äºĨ": 6683,
      "ä¸Ńå°Ĩ": 6684,
      "è´Ŀ": 6685,
      "å±±æ¢¨": 6686,
      "å±±éºĵ": 6687,
      "ä¸ĭåĲĳ": 6688,
      "ãģĿ": 6689,
      "äºĮä¸ĩ": 6690,
      "ä½Ĩåħ¶": 6691,
      "å¦¾": 6692,
      "ä½įåĪĹ": 6693,
      "éĢļäº¤": 6694,
      "ç»Ļä»ĸ": 6695,
      "ä¸ĩçŁ³çļĦ": 6696,
      "å¤§åĿĤåĨ¬ä¹ĭéĺµ": 6697,
      "è°Ĺè¨Ģ": 6698,
      "è¥¿ä¹¡": 6699,
      "1611": 6700,
      "äº¦ä¸º": 6701,
      "æĸ°å®«": 6702,
      "æĿĢåħ¥": 6703,
      "ä¾¿åľ¨": 6704,
      "çĽ®åīį": 6705,
      "è°ĭæ±Ĥ": 6706,
      "éĺ¿æ³¢åĽ½": 6707,
      "èĪŀåı°": 6708,
      "85": 6709,
      "ä¼½": 6710,
      "ä¸İå¤§": 6711,
      "ä¸¤æ´¾": 6712,
      "ç»§æī¿å®¶ä¸ļ": 6713,
      "çº²æĪĲ": 6714,
      "éħ·": 6715,
      "ä»ħä»ħ": 6716,
      "æľ¬å¤ļæŃ£ä¿¡": 6717,
      "æĹ¢çĦ¶": 6718,
      "æī¶æĮģ": 6719,
      "ä¿ĺèĻı": 6720,
      "åħ¹": 6721,
      "ä¸ºæĢ»å¤§å°Ĩ": 6722,
      "ä¸Ńéĩİ": 6723,
      "æĬĳ": 6724,
      "é¢ľ": 6725,
      "æĿ¥æı´": 6726,
      "ä¸ľæĿ¡": 6727,
      "æĹłäºĭ": 6728,
      "å¼ŁåŃĲ": 6729,
      "å¤ĦåĪĨ": 6730,
      "çłĤ": 6731,
      "åĨĻéģĵ": 6732,
      "è¶ģçĿĢ": 6733,
      "æĺİæ²»ç»´æĸ°": 6734,
      "ä¸Ģè¯´ä¸º": 6735,
      "åī²æį®": 6736,
      "çľŁéĩĮè°·": 6737,
      "çļĦæĶ»åĩ»": 6738,
      "ä¿¡åĲĽ": 6739,
      "åľ°éľĩ": 6740,
      "æ¬¡å·Ŀä¸Ńå²Ľ": 6741,
      "çĽ´èĩ£": 6742,
      "èģª": 6743,
      "ä¸ĥæľ¬æŀª": 6744,
      "å²©ä»ĵ": 6745,
      "éĿĻåĨĪåİ¿": 6746,
      "ç§Ģä¿¡": 6747,
      "æĸĩåŃĹ": 6748,
      "æīĢèĹı": 6749,
      "è½¯": 6750,
      "èĲ©": 6751,
      "ä¹¦ä¸Ń": 6752,
      "çĶºçļĦ": 6753,
      "çľŁçļĦ": 6754,
      "çĻ½äºķ": 6755,
      "å°¼åŃĲèĥľä¹ħ": 6756,
      "éĴĵ": 6757,
      "çīĩä»ĵ": 6758,
      "è¡Ģç¼ĺ": 6759,
      "åĪºæĿĢ": 6760,
      "åĲįæĬ¤å±ĭåŁİ": 6761,
      "æª": 6762,
      "ä¹ĭé¦ĸ": 6763,
      "ä¸İå¹ķåºľ": 6764,
      "åĽłçĪ¶äº²": 6765,
      "å¹³å®¶": 6766,
      "æĿĳäºķ": 6767,
      "çľŁå®ŀ": 6768,
      "è¶³åĪ©ä¹īè§Ĩ": 6769,
      "å¤§åĨħæĶ¿å¼ĺ": 6770,
      "ä»ķç½®": 6771,
      "çĶ²æĸĲçļĦ": 6772,
      "éĻ·åħ¥äºĨ": 6773,
      "ç®Ģåįķ": 6774,
      "äº¬åħĨå®¶": 6775,
      "é¡½å¼º": 6776,
      "åĽ½ä¹ħ": 6777,
      "ä¸įæĦ¿": 6778,
      "éĥ½å¸Ĥ": 6779,
      "åħĪç¥ĸ": 6780,
      "æľĿä»ĵåŃĿæĻ¯": 6781,
      "1609": 6782,
      "ç¢§": 6783,
      "å½ĵåľ°çļĦ": 6784,
      "æĪĲçº²": 6785,
      "è¶³åĪ©æĮģæ°ı": 6786,
      "çĭ±": 6787,
      "æķĻèĤ²": 6788,
      "åĽ´åŁİ": 6789,
      "åĨ³æĦı": 6790,
      "éĺ²çº¿": 6791,
      "æĸ½è¡Į": 6792,
      "å®¹æĺĵ": 6793,
      "åĽ°éļ¾": 6794,
      "é¢ĩä¸º": 6795,
      "çĶ²å·ŀå¾ģä¼Ĳ": 6796,
      "å¯Ĵæ²³": 6797,
      "å¥łå®ļäºĨ": 6798,
      "æĥ¯ä¾ĭ": 6799,
      "ä¸ĭåħĭä¸Ĭ": 6800,
      "åĪ©éķ¿": 6801,
      "è¥¿åįĹ": 6802,
      "ä¸¤å¤§": 6803,
      "å§ĭäºİ": 6804,
      "æ°¸ç¦Ħä¸ĥå¹´": 6805,
      "è®©åĩº": 6806,
      "æıĲåįĩ": 6807,
      "çķłå±±æĶ¿éķ¿": 6808,
      "å®¶æĹıçļĦ": 6809,
      "å¤ĩåīįåĽ½": 6810,
      "ä¸įå·²": 6811,
      "å®Īå°±": 6812,
      "æĿ¥è¶Ĭ": 6813,
      "æĶ¶å½ķ": 6814,
      "æĤĶ": 6815,
      "å±ķçİ°äºĨ": 6816,
      "çĪĨåıĳäºĨ": 6817,
      "åĩºçİ°åľ¨": 6818,
      "æŁ³æľ¬": 6819,
      "åĽ°å¢ĥ": 6820,
      "èĶļ": 6821,
      "ãĢĤãĢį": 6822,
      "æĹ¥åľ¨": 6823,
      "å¯ºåĨħ": 6824,
      "èµĸçº²": 6825,
      "åħ¬éĩĮ": 6826,
      "æµ·è·¯": 6827,
      "ä»¬çļĦ": 6828,
      "æ¶Īå¤±": 6829,
      "åĭĩå£«": 6830,
      "çĭ¬èĩª": 6831,
      "å·©åĽºäºĨ": 6832,
      "åĤ¬ä¿ĥ": 6833,
      "å¤§æĺİ": 6834,
      "å¤§èĩ´": 6835,
      "çĦ¦": 6836,
      "äº¦åľ¨": 6837,
      "è¶³åĪ©ä¹īæĻ´": 6838,
      "åĭī": 6839,
      "æĤ¦": 6840,
      "é¹«": 6841,
      "èı±": 6842,
      "1531": 6843,
      "åįıè®®": 6844,
      "å¤ªéĺģè®°": 6845,
      "èŁ": 6846,
      "å¥¢": 6847,
      "å¸½": 6848,
      "åº·èĥ¤": 6849,
      "åĮĹæĸ¹": 6850,
      "æľ¨æĿĳéĩį": 6851,
      "ç»ŁèĻİ": 6852,
      "åĬłåħ¥è¥¿åĨĽ": 6853,
      "ç¬¬äºĮä»£": 6854,
      "æ±łçĶ°è¾īæĶ¿": 6855,
      "æĹĭåį³": 6856,
      "ä¸įåłª": 6857,
      "ä»£ä»£": 6858,
      "è¿Ļå°±æĺ¯": 6859,
      "è·³": 6860,
      "æĹ¥æľ¬äºº": 6861,
      "æ°¸ç¦ĦåħŃå¹´": 6862,
      "å°ļé¡º": 6863,
      "å§¿æĢģ": 6864,
      "an": 6865,
      "ä¸Ģå®«": 6866,
      "è¢«èµĲè±«": 6867,
      "ä»ĸè¿ĺ": 6868,
      "æŀŃ": 6869,
      "ä»İä¸īä½į": 6870,
      "äºĶåįĥçŁ³": 6871,
      "è¶ĬæĿ¥è¶Ĭ": 6872,
      "åĮĹæĿ¡æĹ¶": 6873,
      "æºº": 6874,
      "æķĮå°Ĩ": 6875,
      "ä¼Ĭè¾¾ç¨Ļå®Ĺ": 6876,
      "å®£åĳĬ": 6877,
      "æľĢä¸Ĭæ°ı": 6878,
      "1527": 6879,
      "å«ģç»ĻäºĨ": 6880,
      "åº¶åŃĲ": 6881,
      "è¯¢éĹ®": 6882,
      "æ»ŀçķĻ": 6883,
      "ä¸ºæŃ£å®¤": 6884,
      "åĩ½": 6885,
      "æĬ¬": 6886,
      "éĹ¹": 6887,
      "å²ĽåİŁ": 6888,
      "å¤©æŃ£ä¹Ŀå¹´": 6889,
      "æ¸ħå·ŀ": 6890,
      "è¯¸è¯´": 6891,
      "çĸĹ": 6892,
      "éģ£ä½¿": 6893,
      "äºĮæĿ¡å¾¡æīĢ": 6894,
      "ç¥ŀä¿Ŀéķ¿": 6895,
      "æĦ¤æĢĴ": 6896,
      "åĲĵ": 6897,
      "èĢķ": 6898,
      "ä¹īæ²»": 6899,
      "æ¸Ķ": 6900,
      "æŃ¦çĶ°åħĥ": 6901,
      "æ¯ĽåĪ©éļĨåħĥ": 6902,
      "æĿĥåĬ¿": 6903,
      "åı²è¿¹": 6904,
      "çĪ¶äº²çļĦ": 6905,
      "éĺ²éķ¿": 6906,
      "è°ĥè§£": 6907,
      "å¤§ä½Ľæ®¿": 6908,
      "ä¸Ńå·Ŀæ¸ħç§Ģ": 6909,
      "èļ": 6910,
      "æľ¬åĽ½": 6911,
      "è¢«èªīä¸º": 6912,
      "æ²³éĩİæ°ı": 6913,
      "1612": 6914,
      "éĢĢåį´": 6915,
      "åı·åı¬": 6916,
      "æľ¬åºĦç¹ģéķ¿": 6917,
      "åŁİéĹ¨": 6918,
      "éķ¿å¹´": 6919,
      "éķ¿è¾¾": 6920,
      "æĶ¿å®ŀ": 6921,
      "åħ«åįĥ": 6922,
      "140": 6923,
      "çª¥": 6924,
      "éķĩå®ŀ": 6925,
      "çļĦè¡Įä¸º": 6926,
      "ï¼īâĢĿ": 6927,
      "å¤©ç«¥": 6928,
      "åħ¶åĲį": 6929,
      "åīįè¿°": 6930,
      "éĩįä¼¤": 6931,
      "çĶŁçĪ¶": 6932,
      "æįĲ": 6933,
      "å¾¡éĹ¨": 6934,
      "è¿Ļä¸Ģæ¬¡": 6935,
      "æ±ŁæĪ·æĹ¶ä»£åĪĿæľŁ": 6936,
      "èħķ": 6937,
      "åĲ¬åĪ°": 6938,
      "çŀ¬": 6939,
      "åĪ«æīĢéķ¿æ²»": 6940,
      "æľ½æľ¨": 6941,
      "èĽ°å±ħ": 6942,
      "åľ¨æĪĺåľºä¸Ĭ": 6943,
      "éķ¿åħĦ": 6944,
      "è¿ĻæĹ¶åĢĻ": 6945,
      "çļĦæĪĺçķ¥": 6946,
      "çŁŃæļĤ": 6947,
      "ä¿¡éķ¿åĮħåĽ´ç½ĳ": 6948,
      "ç»ĩéĥ¨": 6949,
      "åĮĸä¸º": 6950,
      "åĪĽç«ĭ": 6951,
      "å¡Ļ": 6952,
      "çĶĺåĪ©": 6953,
      "1500": 6954,
      "å½ĵåľº": 6955,
      "åĽĽäºº": 6956,
      "çĽĽçļĦ": 6957,
      "æĭ¥æĪ´": 6958,
      "1606": 6959,
      "æī©å¼łåĬ¿åĬĽ": 6960,
      "ç¬¬ä¸īåŃĲ": 6961,
      "æīĢè°ĵçļĦ": 6962,
      "æŃ¼çģŃ": 6963,
      "æĪĺèĥľ": 6964,
      "è¾Ľ": 6965,
      "ä½Ĩä»ĸ": 6966,
      "è¿ĽèĢĮ": 6967,
      "äºĭåħĪ": 6968,
      "ä¼ĬèĹ¤": 6969,
      "åıĬåħ¶åŃĲ": 6970,
      "èµ·çļĦ": 6971,
      "äº¦ä»¥": 6972,
      "åıĸèĥľ": 6973,
      "äº¤çĶ±": 6974,
      "æĢ»æĶ»": 6975,
      "åĬłè´ºä¸ĢåĲĳä¸ĢæıĨ": 6976,
      "æİ¥åıĹäºĨ": 6977,
      "æĪĺè´¥åĲİ": 6978,
      "èĩ£æľįäºİ": 6979,
      "è¤Ĵ": 6980,
      "ä»¥æĿ¥çļĦ": 6981,
      "å¥Ĺ": 6982,
      "ä¸ĭèµĲ": 6983,
      "çĶŁæ¶¯": 6984,
      "å¹³éĩİ": 6985,
      "éĥ½æ²¡æľī": 6986,
      "æĿ¾å°¾": 6987,
      "åĽĽå¤Ħ": 6988,
      "æİ¥ä»»": 6989,
      "å¹¿éĹ¨": 6990,
      "åĲĦä¸ª": 6991,
      "ç®¡è¾ĸ": 6992,
      "çİĭæľĿ": 6993,
      "æ®¿åĨĽ": 6994,
      "è®¾æĸ½": 6995,
      "çĻ»åľº": 6996,
      "æ²¼çĶ°åŁİ": 6997,
      "åĭ¾ç»ĵ": 6998,
      "ãĢĪ": 6999,
      "ãĢī": 7000,
      "ä¹Ļ": 7001,
      "å¹´ä»½": 7002,
      "å±ł": 7003,
      "ä¿¡å®ļ": 7004,
      "èĢĢ": 7005,
      "æĸĩåºĵ": 7006,
      "æĳĦæĶ¿": 7007,
      "1523": 7008,
      "é¸Łå±ħåħĥå¿ł": 7009,
      "ä¸ľéĥ¡": 7010,
      "èµĸæĪ¿": 7011,
      "çĽĽä¿¡": 7012,
      "å«¡éķ¿åŃĲ": 7013,
      "å¼ķèµ·äºĨ": 7014,
      "æ¨ªçĶ°": 7015,
      "åı¬å¼Ģ": 7016,
      "æĲŃ": 7017,
      "èµŀèµı": 7018,
      "éĺ´è°ĭ": 7019,
      "1467": 7020,
      "æ£®åı¯æĪĲ": 7021,
      "æŃ£äº²çĶºå¤©çļĩ": 7022,
      "æĸ¹å¹¿å¯º": 7023,
      "æľĹ": 7024,
      "ä¹ĭåĬ¿": 7025,
      "å¤§æĪĺ": 7026,
      "æŃ¦èĹ¤": 7027,
      "é«ĺæ¢¨": 7028,
      "æĸĩé¾Ł": 7029,
      "æı½": 7030,
      "å®īæ²»": 7031,
      "ä¸¤åĲį": 7032,
      "æº¯": 7033,
      "æĦıè¯Ĩ": 7034,
      "çł²": 7035,
      "æľįä»İ": 7036,
      "ä¹ĥèĩ³": 7037,
      "1508": 7038,
      "éľ¸ä¸»": 7039,
      "ä»¥æŃ¤ä¸º": 7040,
      "æľ¨æ³½éķ¿æĶ¿": 7041,
      "âĶģâĶģ": 7042,
      "ä¸ĢåŃĺ": 7043,
      "ä¸ĬæĿ¡": 7044,
      "ä¸ľçħ§": 7045,
      "éĥ½ä¸į": 7046,
      "éªĤ": 7047,
      "æİ¨åĬ¨": 7048,
      "å®ªæĶ¿": 7049,
      "åĨ²çĶ°": 7050,
      "æ¯ĽåĪ©åħĥå°±çļĦ": 7051,
      "ä¸°åīįåĽ½": 7052,
      "å¤©å®Īéĺģ": 7053,
      "äºĺ": 7054,
      "æĹ¶è¢«": 7055,
      "èĩªçĶ±": 7056,
      "åİŁæĿ¥": 7057,
      "æĸĩåŃ¦": 7058,
      "è¿½æĶ¾": 7059,
      "ç¾½æŁ´ç§Ģéķ¿": 7060,
      "åĨĻä¿¡": 7061,
      "é¥ŃçĽĽ": 7062,
      "æĥħåĨµä¸ĭ": 7063,
      "ç¼ĺæķħ": 7064,
      "ä¼º": 7065,
      "è¯ı": 7066,
      "æĮĸ": 7067,
      "ç»ıçķ¥": 7068,
      "åģļåĩº": 7069,
      "æľĪäºĮåįģåħŃæĹ¥": 7070,
      "æī§æİĮ": 7071,
      "å¤§åıĭä¹īç»Ł": 7072,
      "åįģæ²³åŃĺä¿Ŀ": 7073,
      "ä¸Ģéĥ¨åĪĨ": 7074,
      "ä¸Ģæ®µ": 7075,
      "èĥĦ": 7076,
      "åĲįåı«": 7077,
      "æľ¬å§ĵ": 7078,
      "é¢Ĩåħµ": 7079,
      "åĽłåĬŁ": 7080,
      "è¿ĳä»£": 7081,
      "ä¿Ŀéļľ": 7082,
      "åĨ³è£Ĥ": 7083,
      "åĮĸçļĦ": 7084,
      "ä¹Ŀå·ŀå²Ľ": 7085,
      "åĲīå·Ŀå¹¿å®¶": 7086,
      "æ¨±äºķ": 7087,
      "è¿Ĥ": 7088,
      "ä¹ĭæľº": 7089,
      "éķ¿æķĻ": 7090,
      "åĨĽå¸Ī": 7091,
      "ç¬ĥ": 7092,
      "éĥ¡å±±": 7093,
      "æĿĥéĻĲ": 7094,
      "çĽĽæĹ¶": 7095,
      "æµ·è´¼": 7096,
      "æĺĮä¸°": 7097,
      "åħ¼å®ļ": 7098,
      "å²©å±ĭåŁİ": 7099,
      "å±±åĨħä¸ĬæĿīæ°ı": 7100,
      "æ¯ıå¹´": 7101,
      "éķ¿å°¾æĻ¯æĺ¥": 7102,
      "çļĦå½±åĵį": 7103,
      "å¹´é¾Ħ": 7104,
      "å¤§åįĬ": 7105,
      "ä¿¡äº²": 7106,
      "æĺ¯æĮĩ": 7107,
      "äººåĳĺ": 7108,
      "æĺİå¾·": 7109,
      "èµĸä¹ĭ": 7110,
      "æ²¡èĥ½": 7111,
      "ä»ģäº²çİĭ": 7112,
      "çļĦå±±": 7113,
      "ä¸Ģéĥİ": 7114,
      "æĺ¯çĶ±": 7115,
      "å¼ĳ": 7116,
      "è¿ĩæĿ¥": 7117,
      "æ¸ħæ¥ļ": 7118,
      "åıĤè®®": 7119,
      "èĻİæĺĮ": 7120,
      "é¥¥": 7121,
      "åĽ¢ç»ĵ": 7122,
      "å·¥äºĭ": 7123,
      "é¹¿ä¹ĭä»ĭ": 7124,
      "èµ¤æĿ¾æ°ı": 7125,
      "ä¼Ĭè±«åĽ½": 7126,
      "åĭĺåĬ©": 7127,
      "å£¬åįĪ": 7128,
      "ä¾ĦåŃĲ": 7129,
      "ä¹Ŀé¬¼åĺīéļĨ": 7130,
      "å£ķæ²Ł": 7131,
      "ãĢħ": 7132,
      "å¤§åĸľ": 7133,
      "è¯«": 7134,
      "åĩºåĬ¨": 7135,
      "å°ıè±Ĩ": 7136,
      "ä¸°èĩ£æĸ¹": 7137,
      "å¥³æĢ§": 7138,
      "å¼ĥåŁİ": 7139,
      "åĲİæĶ¹åĲį": 7140,
      "å¤§æ²³åĨħ": 7141,
      "åīįå¤ķ": 7142,
      "1610": 7143,
      "åħ»åĹ£åŃĲ": 7144,
      "æĶ¶èĹı": 7145,
      "çľĭåĩº": 7146,
      "é¸£æµ·": 7147,
      "çļĦåİĨåı²": 7148,
      "åį§": 7149,
      "åľ¨å½ĵæĹ¶": 7150,
      "æľ¬æĺ¯": 7151,
      "è¿Ļä¹Ł": 7152,
      "å°±ä¼ļ": 7153,
      "æĿ¾æľ¬": 7154,
      "ä¸¤ä»£": 7155,
      "åıĪè¢«": 7156,
      "äºĮåįģå¹´": 7157,
      "åı¦ä¸Ģä¸ª": 7158,
      "å°ĳå°Ĩ": 7159,
      "åĪ«å½ĵ": 7160,
      "å¹¼å¹´": 7161,
      "åģļäºĨ": 7162,
      "æī§æĿĥ": 7163,
      "åħħåĪĨ": 7164,
      "çļĦè¡ĮåĬ¨": 7165,
      "çļĦæł¸å¿ĥ": 7166,
      "åįģä½Ļ": 7167,
      "åĲīæĻ´": 7168,
      "åĲĮæ¯į": 7169,
      "å¯¹åĨ³": 7170,
      "äºĶåįĥäºº": 7171,
      "æĹłåıĮ": 7172,
      "æģŃ": 7173,
      "æĽ¾æł¹": 7174,
      "è´ŀæ²»": 7175,
      "éķ¿å°¾å®¶": 7176,
      "ä¼Ĭä¸ľæ°ı": 7177,
      "ä¹īæĺİ": 7178,
      "èĥ¶": 7179,
      "çĶ±åĪ©": 7180,
      "æĻ¯éļĨ": 7181,
      "ç§°åħ¶": 7182,
      "åĪĨç¦»": 7183,
      "å·²æĺ¯": 7184,
      "æİ¥æĶ¶": 7185,
      "äºīè®®": 7186,
      "å²ģä¹ħ": 7187,
      "ä»įä»¥": 7188,
      "åĽ¾ä¹¦": 7189,
      "è°ĭæĿĢ": 7190,
      "è¯¦æĥħ": 7191,
      "æ¸Ĳæ¸Ĳ": 7192,
      "å¯Ĵæ²³æ±Ł": 7193,
      "79": 7194,
      "æŃ¤å¤Ħ": 7195,
      "**âĢĿãĢĤ": 7196,
      "åĲīæĶ¿": 7197,
      "å®īçĶ°": 7198,
      "å®īç¥¥": 7199,
      "æĻ¯å®¶": 7200,
      "èµĸéļĨ": 7201,
      "åĪĨåħµ": 7202,
      "ç³Ł": 7203,
      "å¼ºè¡Į": 7204,
      "çĻ»ä¸Ĭ": 7205,
      "åĭĺåĲĪ": 7206,
      "ä¸īæľ¨åŁİ": 7207,
      "é¡¿æĹ¶": 7208,
      "æ»ĭè´ºåİ¿": 7209,
      "çļĦç¥ŀ": 7210,
      "å¤©çĦ¶": 7211,
      "åĮĹä¹ĭ": 7212,
      "ç¥ĩ": 7213,
      "è¯¸å®¶": 7214,
      "èĹıåĮ¿": 7215,
      "æĬµæĮ¡": 7216,
      "åĨ²éĶĭ": 7217,
      "èĢĮäº¡": 7218,
      "æŃ¤åľ°": 7219,
      "è¡Ļ": 7220,
      "å¹³äºķ": 7221,
      "æĿĳçļĦ": 7222,
      "ä¼łæĿ¥": 7223,
      "ä¸ĥå°¾åŁİ": 7224,
      "éĻ¢çļĦ": 7225,
      "åħµåį«å°ī": 7226,
      "ä¸ĬæĿīè°¦ä¿¡çļĦ": 7227,
      "1607": 7228,
      "æį¢åıĸ": 7229,
      "åħħå½ĵ": 7230,
      "çºłçº·": 7231,
      "åľ¨åŁİ": 7232,
      "æľīåĨĪåŁİ": 7233,
      "å°±è¿Ļæł·": 7234,
      "ä¸°å¯Į": 7235,
      "æĿīåİŁ": 7236,
      "å¤©æŃ£ä¸ĥå¹´": 7237,
      "æĹłçĸĳ": 7238,
      "é©¬åį°": 7239,
      "æľªè§ģ": 7240,
      "ç¿ģ": 7241,
      "ç¼ĸåħ¥": 7242,
      "æ¸©äºķ": 7243,
      "ç«ŀ": 7244,
      "æĶ»èĲ½": 7245,
      "æľĿæĹ¥": 7246,
      "éĥ½åľ¨": 7247,
      "åı¯ä¿¡": 7248,
      "æľ¨éĢł": 7249,
      "æľªè¢«": 7250,
      "æ°¸ç¦Ħåįģå¹´": 7251,
      "å½Ĵåħ¥": 7252,
      "å¼¥ä¸īéĥİ": 7253,
      "åĢŁåı£": 7254,
      "åħ³åİŁä¹ĭæĪĺæĹ¶": 7255,
      "å¥ĭåĬĽ": 7256,
      "1521": 7257,
      "ç²¾éĢļ": 7258,
      "åľŁä½ĲåĽ½": 7259,
      "åĢ¾åĲĳ": 7260,
      "83": 7261,
      "åĲİç§°": 7262,
      "å¤§æŃ£": 7263,
      "å¤§èĹı": 7264,
      "éķ¿å·ŀ": 7265,
      "èµ¢": 7266,
      "åģ¶": 7267,
      "è´Łæĭħ": 7268,
      "åħįéĻ¤": 7269,
      "æł¼å±Ģ": 7270,
      "æ¯įäº²ä¸º": 7271,
      "å®łçĪ±": 7272,
      "ä¹īæŃ¦": 7273,
      "ç«ĭä¸º": 7274,
      "æĺİçĻ½": 7275,
      "åįĹè¿ĳæ±Ł": 7276,
      "å±ŀä¸ĭ": 7277,
      "æĺĮä¿¡": 7278,
      "éĤ£å°±æĺ¯": 7279,
      "å±±åĨħä¸Ģä¸°": 7280,
      "æĺİæĻºåħīç§ĢçļĦ": 7281,
      "çŁ³å·Ŀæķ°æŃ£": 7282,
      "åĮĹéĥ¨çļĦ": 7283,
      "æĬļåħ»": 7284,
      "+âĢķ": 7285,
      "ä¸İåħ¶ä»ĸ": 7286,
      "ä¹īè¯ł": 7287,
      "æŃ¦èīº": 7288,
      "ä»ĸæĽ¾": 7289,
      "åĲĳå¹ķåºľ": 7290,
      "çľŁæĺ¯": 7291,
      "æķ°çĻ¾": 7292,
      "èĬ±æĬ¼": 7293,
      "æķħèĢĮ": 7294,
      "è§ĤåºĶ": 7295,
      "èĭ±éĽĦ": 7296,
      "çķĻä¸ĭäºĨ": 7297,
      "èĪįå¼ĥ": 7298,
      "åģĩåĲį": 7299,
      "å¤§å°ı": 7300,
      "æĿ¥è¢Ń": 7301,
      "å®¶çĿ£çļĦ": 7302,
      "çº·çº": 7303,
      "æľĪäºĮåįģä¹ĿæĹ¥": 7304,
      "ç®Ģä»ĭ": 7305,
      "æ¯«ä¸į": 7306,
      "ç»µ": 7307,
      "åĲİäºº": 7308,
      "åĲįç§°": 7309,
      "é¢Ĺ": 7310,
      "ä»ĸè¢«": 7311,
      "æĸĩæŃ¦": 7312,
      "æ³ķçļĩ": 7313,
      "ç¡®è¯ģ": 7314,
      "æķħæĦı": 7315,
      "è¡ĢèĦī": 7316,
      "åī¯å°Ĩ": 7317,
      "è°¢ç½ª": 7318,
      "æ®īæŃ»": 7319,
      "æīĢåı¸ä»£": 7320,
      "å¶": 7321,
      "æĿ¯": 7322,
      "ä¸įä¸ĭ": 7323,
      "ä¸įä½ı": 7324,
      "èĩ³å®īåľŁæ¡ĥå±±æĹ¶ä»£": 7325,
      "æĻ¯æĺ¥": 7326,
      "å¤©æŃ£äºĶå¹´": 7327,
      "æĹłè§Ĩ": 7328,
      "æĸ°çº³": 7329,
      "åıĸæ¬¡": 7330,
      "ä»¶äºĭ": 7331,
      "æľĢç»Īåľ¨": 7332,
      "æĴ¤åħµ": 7333,
      "åĨ²åħ¥": 7334,
      "è¿¹éĥ¨": 7335,
      "è·ŁçĿĢ": 7336,
      "æī§æĶ¿": 7337,
      "çĽĲè°·": 7338,
      "ä¼Ĭè±ĨåĽ½": 7339,
      "å®Īå¤ĩçļĦ": 7340,
      "è½¬å°ģèĩ³": 7341,
      "ä¸Īå¤«": 7342,
      "çº·çºŃ": 7343,
      "å¤§åĬŁ": 7344,
      "éķ¿åĨĪ": 7345,
      "æĬ½": 7346,
      "è¿Ļæ®µ": 7347,
      "é«ĺåº¦": 7348,
      "åĪĨåī²": 7349,
      "åįĹæĸ¹": 7350,
      "éĢĥç¦»": 7351,
      "æ¼Ĩ": 7352,
      "å¹¼åŃĲ": 7353,
      "åĥ§åħµ": 7354,
      "çĮĽçĥĪ": 7355,
      "å®¿æķĮ": 7356,
      "éľ¸æĿĥ": 7357,
      "æľ¨ä¸ĭèĹ¤åĲīéĥİ": 7358,
      "å¤¸": 7359,
      "ä¿¡åĲī": 7360,
      "åĨĽè®®": 7361,
      "äºĨè§£": 7362,
      "æľĪçļĦ": 7363,
      "ä¸įç®¡": 7364,
      "æľīåĬŁ": 7365,
      "æ´ª": 7366,
      "ç»§èĢĮ": 7367,
      "è¥¿ä¾§": 7368,
      "çĹķ": 7369,
      "æĤĦ": 7370,
      "æ··æĪĺ": 7371,
      "é¼İ": 7372,
      "æĸ°çĶ°ä¹īè´ŀ": 7373,
      "çī¹åĪ«æĺ¯": 7374,
      "æ·Ģæ®¿": 7375,
      "çĶ±å¸ĥæĥŁ": 7376,
      "åŁİä¸İ": 7377,
      "æĹ¶å¹´": 7378,
      "ç§Ģæ»¡": 7379,
      "æľīåĲį": 7380,
      "åİŁåħĪ": 7381,
      "çĶŁåĳ½": 7382,
      "åĽĽä¸ĩ": 7383,
      "èī°": 7384,
      "è¿ŀè´ŀ": 7385,
      "é¦ĸå¸Ń": 7386,
      "è®¨æŃ»": 7387,
      "çļĦå¤§åĨĽ": 7388,
      "è¿ģå¾Ģ": 7389,
      "å°ıå±±çĶ°ä¿¡": 7390,
      "èĲ¨æĳ©åĽ½": 7391,
      "èĤ¯å®ļ": 7392,
      "å®¶ä¸ŃçļĦ": 7393,
      "ä¸Ģéĵģ": 7394,
      "å¤§ä¸¾": 7395,
      "éķ¿éĢ¸": 7396,
      "åĨĽä¸Ń": 7397,
      "è¾¾å®ī": 7398,
      "ä¹¦éĻ¢": 7399,
      "ä¾¿ä»¥": 7400,
      "éĢĢå®Ī": 7401,
      "æ°¸ç¦Ħåħ«å¹´": 7402,
      "äºīæī§": 7403,
      "åĲ¬ä»İ": 7404,
      "å¢ĵåľ°": 7405,
      "åī¥å¤º": 7406,
      "å¶ĭ": 7407,
      "æĸ¹æ¡Ī": 7408,
      "åĲĮåĥļ": 7409,
      "å¤ļä¸ª": 7410,
      "çĽ¸åıį": 7411,
      "æĥŁæĶ¿": 7412,
      "1528": 7413,
      "åıĳæĮ¥äºĨ": 7414,
      "åĲİè§ģ": 7415,
      "ä¹īå®£": 7416,
      "ä¸īæ³½": 7417,
      "åįģä¹Ŀ": 7418,
      "è¿Ļä¸¤": 7419,
      "å²Ľå·¦è¿ĳ": 7420,
      "åºľåĨħ": 7421,
      "ä¸ĬæĿīæĪ¿": 7422,
      "ç»ŁåĪ¶": 7423,
      "åİĨä»»": 7424,
      "éģĤå°Ĩ": 7425,
      "æ®¿åĲİ": 7426,
      "å±ķçİ°": 7427,
      "æĭĴç»ĿäºĨ": 7428,
      "èĽİ": 7429,
      "æĥ¨éĩį": 7430,
      "çĽ¸èī¯æ°ı": 7431,
      "è§¦æĢĴ": 7432,
      "åĬłæ²»çĶ°": 7433,
      "75": 7434,
      "çļĦå¿ĥ": 7435,
      "ç»¼": 7436,
      "ç»¿": 7437,
      "å¤§çŁ³": 7438,
      "ä¿¡åħī": 7439,
      "èĩªæ²»": 7440,
      "ç»§å®¤": 7441,
      "ç»§æ¶¦": 7442,
      "è¥¿ä¸Ĭ": 7443,
      "åĭĴ": 7444,
      "å¹¸éķ¿": 7445,
      "åħ·è¶³": 7446,
      "ä¹ĺèĥľ": 7447,
      "æĺ¯æĪĺåĽ½æĹ¶ä»£èĩ³æ±ŁæĪ·æĹ¶ä»£åĪĿæľŁçļĦæŃ¦å°Ĩ": 7448,
      "å¹³å®ļäºĨ": 7449,
      "è´¯æĸĩ": 7450,
      "æĸĩæĺİåįģ": 7451,
      "æĮĳæĪĺ": 7452,
      "åĨ²çĶ°çķ·": 7453,
      "çĺ": 7454,
      "åĩī": 7455,
      "æľīéĻĲ": 7456,
      "ä»ĸä¹Ł": 7457,
      "ç«ĭæĪĺåĬŁ": 7458,
      "å¾ģæĪĺ": 7459,
      "æīĵåĢĴ": 7460,
      "æĸĭèĹ¤å®¶": 7461,
      "æľĿå»·çļĦ": 7462,
      "æĹ¥æľ¬æĪĺåĽ½æĹ¶ä»£æŃ¦å°Ĩ": 7463,
      "ãģĹãģŁ": 7464,
      "åŁºçĿ£å¾Ĵ": 7465,
      "æ¯įè¡£ä¼Ĺ": 7466,
      "å¹´å¯Ħ": 7467,
      "æ°ıçħ§": 7468,
      "æĹ¥æł¹": 7469,
      "æľ¬ä¸º": 7470,
      "è¢«ç»ĩçĶ°ä¿¡éķ¿": 7471,
      "èĥľéĩį": 7472,
      "ä½įçļĦ": 7473,
      "åĽŀå¸Ī": 7474,
      "è¾īå¼ĺ": 7475,
      "ä¸īå¥½åĨĽ": 7476,
      "åı¬è§ģ": 7477,
      "åºŁéĻ¤": 7478,
      "1507": 7479,
      "è¿ĩç»§ç»Ļ": 7480,
      "ä»ĻçŁ³ç§Ģä¹ħ": 7481,
      "ä¸ĭéĹ´èµĸ": 7482,
      "çļĦä¸ĭ": 7483,
      "åºĹ": 7484,
      "å¥´": 7485,
      "æĶ¿èĥľ": 7486,
      "è¾»": 7487,
      "ä»»èģĮ": 7488,
      "å¤©æŃ£åįģä¸Ģå¹´": 7489,
      "è¥¿åĮĹ": 7490,
      "å·²æľī": 7491,
      "èį»": 7492,
      "è¿Ļä¸ĢçĤ¹": 7493,
      "å¤©æŃ£åįģäºĶå¹´": 7494,
      "åģľæĪĺ": 7495,
      "åľ¨æŃ¤æľŁéĹ´": 7496,
      "å°ıéĩİéķĩå¹¸": 7497,
      "ä¹ĭè¯·": 7498,
      "äºĨä¸Ģä¸ª": 7499,
      "èĥŀ": 7500,
      "ä¸ĸäºº": 7501,
      "è¥¿æĸ¹": 7502,
      "åħ«çĻ¾": 7503,
      "éĺŁçļĦ": 7504,
      "ç¨Ģ": 7505,
      "å®ĺåĨĽ": 7506,
      "åŁºåľ°": 7507,
      "åģļæ³ķ": 7508,
      "éĢ¼è¿«": 7509,
      "çĽĲåĨ¶": 7510,
      "ç¦ħå¯º": 7511,
      "è¿Ŀåıį": 7512,
      "åħĥçĽĽ": 7513,
      "ä¸°èĩ£ç§Ģéķ¿": 7514,
      "èĪ°": 7515,
      "æ¶¨": 7516,
      "æľĪäºĮåįģäºĮæĹ¥": 7517,
      "åĬłè´ºåĽ½": 7518,
      "1524": 7519,
      "çº¯å¿ł": 7520,
      "æľ¨æĽ¾ä¹īæĺĮ": 7521,
      "âĶĢ": 7522,
      "éķ¿æĿŁæŃ£å®¶": 7523,
      "ä¼Ļ": 7524,
      "ä¸ŃéĹ´": 7525,
      "ä¸ĬæĿĳ": 7526,
      "å¥¸": 7527,
      "å¯¹ä»ĸ": 7528,
      "éĩįè¿Ķ": 7529,
      "æĥ¶": 7530,
      "èµ·ä¹ī": 7531,
      "ä¹ĭæĪĺåĲİ": 7532,
      "éĢļæĬ¥": 7533,
      "ä¼łä¸º": 7534,
      "æİ¥å¾ħ": 7535,
      "ç¼®": 7536,
      "èĲ½åŁİ": 7537,
      "æĺ¾çĦ¶": 7538,
      "ç»ĵåŁİç§Ģåº·": 7539,
      "æĹ¥éĩİå¯ĮåŃĲ": 7540,
      "æĢ¨æģ¨": 7541,
      "æľĭ": 7542,
      "å¹´åı·": 7543,
      "å¼¼": 7544,
      "åľ°åĲį": 7545,
      "è¿Ľèĩ³": 7546,
      "äºĭä¸ļ": 7547,
      "æĿĳå®Ĺ": 7548,
      "ä¾¿å°Ĩ": 7549,
      "å¹¿çº²": 7550,
      "å¤±åĪ©": 7551,
      "çĽŁçº¦": 7552,
      "é¹Ī": 7553,
      "åľŁå²Ĳæ°ı": 7554,
      "å§Ĭå·Ŀ": 7555,
      "çķıæĥ§": 7556,
      "çĽĨåľ°": 7557,
      "âĢĿï¼īãĢĤ": 7558,
      "æ³¥": 7559,
      "æĮŁ": 7560,
      "165": 7561,
      "åħ´æĪ¿": 7562,
      "ä»Ĭå·Ŀæ°ıçļĦ": 7563,
      "å¯ĮãŃ´": 7564,
      "æİĮç®¡": 7565,
      "èµıè¯Ĩ": 7566,
      "åĦ¿çİīå°±": 7567,
      "ç°Ĺ": 7568,
      "èĽİå´İ": 7569,
      "çļĦæĹ§": 7570,
      "ä¸Ģåĳĺ": 7571,
      "ä¸īéĩį": 7572,
      "âĢĿï¼ī": 7573,
      "æŃ¤ä¹ĥ": 7574,
      "å¤©æŃ£äºĮå¹´": 7575,
      "æĹłåı¯": 7576,
      "èĢħä¸º": 7577,
      "ç´§å¼ł": 7578,
      "åĬŀæ³ķ": 7579,
      "äºĺçĲĨ": 7580,
      "æĹ¥å¤ľ": 7581,
      "ä¸ŃåĬ¡": 7582,
      "å°ĨæĿ¥": 7583,
      "æľīåĲįçļĦ": 7584,
      "ä¸»äºº": 7585,
      "èĩªå¹¼": 7586,
      "ä¹Łå¼Ģå§ĭ": 7587,
      "å§ī": 7588,
      "ç¥·": 7589,
      "è·¨": 7590,
      "åľŁå±ħ": 7591,
      "åĨįèµ·": 7592,
      "åĪ¶éĢł": 7593,
      "å¸Ĥå·Ŀ": 7594,
      "æĪĳåĨĽ": 7595,
      "çķĻåŃĺ": 7596,
      "åŁºæ°ı": 7597,
      "é¾Łå±±": 7598,
      "è´¤æ²»": 7599,
      "çī¹æĿĥ": 7600,
      "éĩįè¦ģæĸĩåĮĸè´¢": 7601,
      "åĽĽåĽ½å¾ģä¼Ĳ": 7602,
      "çŁ¶éĩİ": 7603,
      "èį¯å¸Īå¯º": 7604,
      "åµ": 7605,
      "çļĦåı²æĸĻ": 7606,
      "ä¹ĭéģĵ": 7607,
      "å±±éĹ¨": 7608,
      "ä¹īç»ı": 7609,
      "æĪĲå®ŀ": 7610,
      "æ±Łé©¬": 7611,
      "å»¿": 7612,
      "åıĬæĹ¶": 7613,
      "çł¥": 7614,
      "æİ¥è§¦": 7615,
      "åĲĦåĽ½": 7616,
      "æĪĺæŃ»çļĦ": 7617,
      "èĦĩ": 7618,
      "æķ´ä½ĵ": 7619,
      "åįıåĬĽ": 7620,
      "æ¬§æ´²": 7621,
      "çļĦå¯¹ç«ĭ": 7622,
      "éĩįæĪĲ": 7623,
      "ä¹Łä¼ļ": 7624,
      "åħ³å®¿": 7625,
      "èµĸå¿ł": 7626,
      "åĪĻè¢«": 7627,
      "åħĪè¡Į": 7628,
      "åįĹèĽ®": 7629,
      "å¤ªåŃĲ": 7630,
      "äºīåıĸ": 7631,
      "å®Įå·¥": 7632,
      "ä¿®è¡Į": 7633,
      "ä¿®ç¼®": 7634,
      "åĭĩå°Ĩ": 7635,
      "åģļä¸º": 7636,
      "1526": 7637,
      "åĩ»éĢĢäºĨ": 7638,
      "æĶ¿åŃĲ": 7639,
      "æĽ¹": 7640,
      "åĪĨå¸ĥ": 7641,
      "äº¤å¥½": 7642,
      "åįĬèĹı": 7643,
      "åİĭè¿«": 7644,
      "åįĴå¹´": 7645,
      "èĳ¬ç¤¼": 7646,
      "å²Ĳéĺľåİ¿": 7647,
      "åįĥåı¶æ°ı": 7648,
      "å¤§å¾¡æīĢ": 7649,
      "ä¸ŃåĽ½çļĦ": 7650,
      "è´´": 7651,
      "æĿ¾åīį": 7652,
      "ä»ķå¥ī": 7653,
      "ç²ī": 7654,
      "èĳĹä½ľ": 7655,
      "æºĥè´¥": 7656,
      "åĲĮæĹıçļĦ": 7657,
      "ä¹Įå¸½": 7658,
      "73": 7659,
      "åŁ¼": 7660,
      "åŁİè¢«": 7661,
      "ç§Ł": 7662,
      "ä¸Ĭå±±": 7663,
      "åĽłç´ł": 7664,
      "äº²è¿ĳ": 7665,
      "ä¼łåħ¥": 7666,
      "å¿ĥä¸Ń": 7667,
      "æºĲèµĸ": 7668,
      "åı£ä¹ĭæĪĺ": 7669,
      "ãĢĮ**": 7670,
      "ä¹Ŀå·ŀçļĦ": 7671,
      "çħ½": 7672,
      "éļ¶å±ŀäºİ": 7673,
      "åĩĢåľŁçľŁå®Ĺ": 7674,
      "çŃ¿åİŁ": 7675,
      "é³": 7676,
      "åį¡": 7677,
      "æĽ¾åŃĻ": 7678,
      "è¶³åĪ©ä¹īæĺİ": 7679,
      "æĪ¿æĢ»": 7680,
      "æ±ŁæĪ·æĹ¶ä»£çļĦ": 7681,
      "åįĹéĥ¨çļĦ": 7682,
      "å¸ĥéĺµäºİ": 7683,
      "å®ģå¯º": 7684,
      "å°¤åħ¶æĺ¯": 7685,
      "éĻªèĩ£": 7686,
      "ä¸Ģå¤©": 7687,
      "æĹ¶ä»»": 7688,
      "æĹ¶åĪĨ": 7689,
      "èĢĮæĪĲä¸º": 7690,
      "çº½": 7691,
      "æ³Ħ": 7692,
      "ä»ĸä¸º": 7693,
      "çĪ·": 7694,
      "åħ¥åĹ£": 7695,
      "ä¼ĬäºĪ": 7696,
      "è¶ĬæĻº": 7697,
      "åħ¨çĻ»": 7698,
      "æ·»": 7699,
      "æ°¸ç¦ĦäºĶå¹´": 7700,
      "éģĹè¨Ģ": 7701,
      "è¿Ĳè¾ĵ": 7702,
      "åħĥåĴĮåħĥå¹´": 7703,
      "å±Īæľį": 7704,
      "ä¾¦å¯Ł": 7705,
      "çļĦåħµåĬĽ": 7706,
      "çļĦæı´åĨĽ": 7707,
      "çļĦæŃ£å®¤": 7708,
      "ä¹ĭä¸º": 7709,
      "çĶ°è¾¹": 7710,
      "åĲİä¸įä¹ħ": 7711,
      "ä¸ĬåİŁ": 7712,
      "ä¸ľä¾§": 7713,
      "å®īå®ļ": 7714,
      "ç§°èµŀ": 7715,
      "æ¡ĵ": 7716,
      "ç½ķ": 7717,
      "å¾Īå¤§": 7718,
      "çľŁçĶ°å®¶": 7719,
      "1604": 7720,
      "æĤīæķ°": 7721,
      "çļĦå«¡çĶ·": 7722,
      "ä»ĸå¯¹": 7723,
      "å¹¶åĪĹ": 7724,
      "å®Ĺæ»´": 7725,
      "çŁ³äºķ": 7726,
      "è¥¿ä¸īæ²³": 7727,
      "æĹłæķ°": 7728,
      "1613": 7729,
      "åıĪå°Ĩ": 7730,
      "æīĭæĮģ": 7731,
      "æĢ»é¢Ĩ": 7732,
      "çĻ½å·Ŀ": 7733,
      "ä¸ļæŃ£": 7734,
      "è¶ĬåīįçļĦ": 7735,
      "æ¤¿": 7736,
      "éģ¿éļ¾": 7737,
      "éķ¿éĩİåİ¿": 7738,
      "ä¸ĬæĢ»åĽ½": 7739,
      "èĥ¶çĿĢ": 7740,
      "åŁİäºķ": 7741,
      "ä»£è®°": 7742,
      "èĢĮæĿ¥çļĦ": 7743,
      "åĨħçĶ°": 7744,
      "å°ıè°·": 7745,
      "å®Ĺæ°ı": 7746,
      "æľĿçĿĢ": 7747,
      "æį·": 7748,
      "èµĸç»§": 7749,
      "æĹłåĹ£": 7750,
      "æģķ": 7751,
      "èµĦæł¼": 7752,
      "é¾Łäºķ": 7753,
      "é£İæł¼": 7754,
      "çļĦä¸Ģéĥ¨åĪĨ": 7755,
      "çĭ¬çī¹": 7756,
      "ä¸´æµİ": 7757,
      "çĨĬéĩİ": 7758,
      "éĺ´æµģ": 7759,
      "76": 7760,
      "89": 7761,
      "æľīæķĪ": 7762,
      "æŃ£èµĸ": 7763,
      "è¢«æįķ": 7764,
      "ãģ²": 7765,
      "æıŃ": 7766,
      "èĩ³æĪĺåĽ½æĹ¶ä»£": 7767,
      "è§ģçĬ¶": 7768,
      "è¿ĩäºĨ": 7769,
      "çĽ¸äºĴ": 7770,
      "æĮģåĽ½": 7771,
      "åħ«çİĭåŃĲ": 7772,
      "æĸ°åºĦ": 7773,
      "åħĪéĺµ": 7774,
      "åıĭå¥½": 7775,
      "å±±åŁİä¹ĭæĪĺ": 7776,
      "è¿ŀé¾Ļ": 7777,
      "æĶ¶ä¸º": 7778,
      "éĩĳæ³½": 7779,
      "æĥħåĬ¿": 7780,
      "ä¸īæ²³å®Ī": 7781,
      "å»¶ä¼¸": 7782,
      "ä¸Ĭæ´ĽçļĦ": 7783,
      "é©»æīİ": 7784,
      "éĿĴæľ¨": 7785,
      "æīĩè°·ä¸ĬæĿīæ°ı": 7786,
      "å±±ä¸Ńå¹¸çĽĽ": 7787,
      "36": 7788,
      "ä¿¡è´µ": 7789,
      "æĺ¯ä¸ºäºĨ": 7790,
      "åĲįåĪĨ": 7791,
      "æµ©": 7792,
      "ç«ĸ": 7793,
      "åĮĹéĿ¢": 7794,
      "æ¬¡äºİ": 7795,
      "æīĢè½½": 7796,
      "ä¸ĬæĿīè¾īèĻİ": 7797,
      "å¥½äºĨ": 7798,
      "åħ´çĽĽ": 7799,
      "éĵº": 7800,
      "å²Ľæ´¥å®¶çļĦ": 7801,
      "éĺ²åį«": 7802,
      "åĸľæ¬¢": 7803,
      "ä¿®å¤į": 7804,
      "æľĢä¸Ĭä¹ī": 7805,
      "åįķçĭ¬": 7806,
      "éŃĤ": 7807,
      "çļĦå¤ĸ": 7808,
      "ä¹ĭåĬĽ": 7809,
      "éķ¿å¥³": 7810,
      "æĿ¾å±±": 7811,
      "ç»ĵå±Ģ": 7812,
      "çİĦä»¥": 7813,
      "éĵģçł²": 7814,
      "å¤§åĨħä¹īéķ¿": 7815,
      "åı¤æ²³åħ¬æĸ¹è¶³åĪ©": 7816,
      "ä¸ŃæĿĳä¸Ģ": 7817,
      "å§Ĳå§Ĳ": 7818,
      "çĶµå½±": 7819,
      "å®īèĹ¤å®Īå°±": 7820,
      "æ¬¾å¾ħ": 7821,
      "ä¼ĬéĤ£éĥ¡": 7822,
      "çļĦæĹ¶éĹ´": 7823,
      "å®ı": 7824,
      "åľ¨ä¸ī": 7825,
      "ä¸İæ¯ĽåĪ©": 7826,
      "ä¹īå¹¿": 7827,
      "èĩ£ä»İ": 7828,
      "è¿Ļæīį": 7829,
      "éĩİçĶ°åŁİ": 7830,
      "ä½Ĩè¢«": 7831,
      "ä¸°å²Ľ": 7832,
      "èµ·äºĭ": 7833,
      "1620": 7834,
      "çģ¯": 7835,
      "æİ¥ç®¡": 7836,
      "æĮĩå¯¼": 7837,
      "èĤĸ": 7838,
      "åħ±æľī": 7839,
      "å¿Ĺéģĵ": 7840,
      "å¿ħçĦ¶": 7841,
      "ä½Ĳä¹ħéĹ´çĽĽæĶ¿": 7842,
      "ç½ĳç»ľ": 7843,
      "ç©¿çĿĢ": 7844,
      "åįģå¸Ĥ": 7845,
      "åĮĹä¼ĬåĬ¿": 7846,
      "ä¹ŁæĽ¾": 7847,
      "å½ĵä½ľ": 7848,
      "æīĢçĶ¨": 7849,
      "çĽ¸ä¼¼": 7850,
      "è¿ĺè¦ģ": 7851,
      "çĶ²èĥĦ": 7852,
      "åĵ¨": 7853,
      "åĭĥ": 7854,
      "åħ·å¤ĩ": 7855,
      "é¥Ńå°¾": 7856,
      "å®ĺä½įä¸º": 7857,
      "è¾¾æĪĲåĴĮçĿ¦": 7858,
      "æİ©æĬ¤": 7859,
      "çīĩæ¡Ĳä¸Ķåħĥ": 7860,
      "èŁ¹": 7861,
      "çļĦé¢Ĩä¸»": 7862,
      "åĽ½è¡Ļ": 7863,
      "å°Ĩä»ĸ": 7864,
      "å¹³æ°ĳ": 7865,
      "çī²": 7866,
      "ä¸ĬæĿīæĸ¹": 7867,
      "åıĹèµĲ": 7868,
      "åıĹåĪ°äºĨ": 7869,
      "æķĮåħµ": 7870,
      "æºĲèĩª": 7871,
      "é¾Ļçİĭä¸¸": 7872,
      "èµĲç»Ļ": 7873,
      "æĥ³æ³ķ": 7874,
      "æĲ¬": 7875,
      "1493": 7876,
      "ä¸Ģæĸ¹çļĦ": 7877,
      "å¤§çł´": 7878,
      "è´«": 7879,
      "åĮĹä¿¡": 7880,
      "åı¯æĥľ": 7881,
      "å¤©æŃ£å£¬åįĪ": 7882,
      "çĽ¸åĽ½å¯º": 7883,
      "è¥¿å°¾": 7884,
      "æį®å®ĪçļĦ": 7885,
      "æĪĲä¸ºåħ¶": 7886,
      "è®©ä½į": 7887,
      "èģĶåĲį": 7888,
      "æĢ»åħµåĬĽ": 7889,
      "å®ĩå¤ļ": 7890,
      "çķłå±±å®¶": 7891,
      "æ¨ªå±±åŁİ": 7892,
      "éķ¿å®ĹæĪĳéĥ¨çĽĽäº²": 7893,
      "æııè¿°": 7894,
      "æŃ§": 7895,
      "éĥĬ": 7896,
      "æĹ¥æĿ¡": 7897,
      "è¡Įäºĭ": 7898,
      "ä¸ľæµ·": 7899,
      "å¾·å·ĿèģĶåĨĽ": 7900,
      "éĢļåŃĹ": 7901,
      "äº¤çķĮ": 7902,
      "æĦıå¤ĸ": 7903,
      "å¼ºè°ĥ": 7904,
      "åīįçĶ°å®¶": 7905,
      "åĴĮæ³īåĽ½": 7906,
      "å§Ĭå°ıè·¯": 7907,
      "åįłé¢ĨäºĨ": 7908,
      "çŃĳç´«å¹¿éĹ¨": 7909,
      "å°ıå¼ĵåħ¬æĸ¹": 7910,
      "åĽļ": 7911,
      "ä¹ĭè·¯": 7912,
      "ä¹ĭä¸¾": 7913,
      "åŁİä¸º": 7914,
      "è¢«æĮĩå®ļä¸º": 7915,
      "è§ģçļĦ": 7916,
      "å¤©æŃ£åĽĽå¹´": 7917,
      "æ³ķä»¤": 7918,
      "åĽŀäºĨ": 7919,
      "æīĭåıĸ": 7920,
      "æ°¸ç¦Ħä¹Ŀå¹´": 7921,
      "å¤ªåİŁ": 7922,
      "åĿĤä¹ĭæĪĺ": 7923,
      "ç»Ĩå·ĿæĮģ": 7924,
      "æĭħä»»åħĪéĶĭ": 7925,
      "éģĹäº§": 7926,
      "è¶ĬåĲİå®ĪæĬ¤": 7927,
      "åłĤåħĦå¼Ł": 7928,
      "çľŁçĶ°ä¸¸": 7929,
      "ç§»å¾Ģ": 7930,
      "éĨĴ": 7931,
      "éĿłè¿ĳ": 7932,
      "æĶ¯éħįæĿĥ": 7933,
      "åĤ²": 7934,
      "è¡¥ä»»": 7935,
      "æİªæĸ½": 7936,
      "çħ½åĬ¨": 7937,
      "45": 7938,
      "çļĦå¦»åŃĲ": 7939,
      "åĲ´": 7940,
      "æĹ¥å¸¸": 7941,
      "èĢĮä¸İ": 7942,
      "å°ıå²Ľ": 7943,
      "åĿŁ": 7944,
      "å»Ĭ": 7945,
      "å¤©æŃ£åħ«å¹´": 7946,
      "æŁĶ": 7947,
      "ä¸ĥçĻ¾": 7948,
      "åİĨæĿ¥": 7949,
      "åĲĦå¤Ħ": 7950,
      "å°¼åŃĲå®¶çļĦ": 7951,
      "å±ķå¼ĢäºĨ": 7952,
      "æĺ¯å®īåľŁæ¡ĥå±±æĹ¶ä»£èĩ³æ±ŁæĪ·æĹ¶ä»£åīįæľŁçļĦæŃ¦å°Ĩ": 7953,
      "400": 7954,
      "çļĦéĹ®é¢ĺ": 7955,
      "å®¶å¿ł": 7956,
      "ä¸ºæķĮ": 7957,
      "åħĥç§Ģ": 7958,
      "çĶ±æĿ¥": 7959,
      "éĥ½ä¼ļ": 7960,
      "æĬ¥å¤į": 7961,
      "æİ§åĪ¶äºĨ": 7962,
      "ç¯ĩ": 7963,
      "è¿ľå±±æ°ı": 7964,
      "å°ĳè´°æ°ı": 7965,
      "å¼Ĥæ¯įå¼Ł": 7966,
      "èĮ¶èĮ¶ä¸¸": 7967,
      "«èĤ¥": 7968,
      "ä¹ĭåŁİ": 7969,
      "ä¹ĭåħµ": 7970,
      "å¤©èįī": 7971,
      "æŃ¦çĶ°ä¹īä¿¡": 7972,
      "ä»İäºĭ": 7973,
      "åĽĽåĽ½çļĦ": 7974,
      "åĪĻæľī": 7975,
      "å¦ĤåĲĮ": 7976,
      "æīĭèħķ": 7977,
      "æĶ¾åľ¨": 7978,
      "æĽ´å¤ļ": 7979,
      "æ¯įä¸º": 7980,
      "åıĳçĶŁçļĦ": 7981,
      "ç»ĦæĪĲçļĦ": 7982,
      "æĪĺäºīä¸Ń": 7983,
      "äº®æĶ¿": 7984,
      "æľ¨ä¸ĭç§ĢåĲī": 7985,
      "ä¸Ģå¹¶": 7986,
      "åľ¨è¿ĳæ±Ł": 7987,
      "ç§Ģå°±": 7988,
      "ç§Ģè´ŀ": 7989,
      "èĩªå®¶": 7990,
      "åĮĹçĶ°": 7991,
      "æŃ¦çĶ°æĸ¹": 7992,
      "ç§įåŃĲ": 7993,
      "è®¾ä¹Ĳ": 7994,
      "ä¾įå¥³": 7995,
      "çļĦåĲįä¹ī": 7996,
      "ä¿ĥä½¿": 7997,
      "çļĦéĩĳ": 7998,
      "ä¸Ģå¤ľ": 7999,
      "åľ¨ä½į": 8000,
      "äºĨä»ĸ": 8001,
      "æĦļ": 8002,
      "åĪĨå°ģ": 8003,
      "è¶³åĪ©å°ĨåĨĽå®¶": 8004,
      "æľįåĬ¡": 8005,
      "ä¸įè¿ĩåľ¨": 8006,
      "æĥ£é¢Ĩ": 8007,
      "é©°æı´": 8008,
      "çļĦä½¿èĢħ": 8009,
      "åĲĬ": 8010,
      "ä¸Ģä¸ĩçŁ³": 8011,
      "åľ¨æľĿé²ľ": 8012,
      "å¤§æ²³": 8013,
      "ä¼Ł": 8014,
      "æ³Ĭ": 8015,
      "æ¯ħ": 8016,
      "å°ıæłĹ": 8017,
      "åĪĨæķ£": 8018,
      "èĤĨ": 8019,
      "å±ĭå½¢": 8020,
      "èľĤå±ĭ": 8021,
      "èİ²å¦Ĥ": 8022,
      "æ¤İåĲįåº·èĥ¤": 8023,
      "å±±æ¢¨åİ¿": 8024,
      "å¤§æīĭ": 8025,
      "ä¸Ńä»ĭ": 8026,
      "ä¸Ĭæĸ¹": 8027,
      "æĪĲå¹´": 8028,
      "è¦ģåľ°": 8029,
      "æĺİå¯º": 8030,
      "ä¸ĬæĿīæĺ¾å®ļ": 8031,
      "ä»ģæľ¨": 8032,
      "è°±ç³»": 8033,
      "ä¹ĥç¾İ": 8034,
      "æħ¨": 8035,
      "æ¸¸æĪı": 8036,
      "æĭ¿ä¸ĭ": 8037,
      "æ²³éĩİéĢļ": 8038,
      "ãģ£ãģŁ": 8039,
      "å¤§èĥľ": 8040,
      "éķ¿åº·": 8041,
      "ä¹īçº²": 8042,
      "ä¸įåĩº": 8043,
      "ä¸įç¨³": 8044,
      "**âĢĿ": 8045,
      "é¢ĨåĨħçļĦ": 8046,
      "åĪ°åºķ": 8047,
      "åħ¥ä¸»": 8048,
      "å¹³æĪ·": 8049,
      "è®°ä½ľ": 8050,
      "ä¾įå¤§å°Ĩ": 8051,
      "è¾ŀåİ»": 8052,
      "æĿ¿ä»ĵ": 8053,
      "æĻ®éĢļ": 8054,
      "ä¸Ģå¤Ħ": 8055,
      "åľ¨ç»ĩçĶ°ä¿¡éķ¿": 8056,
      "è°Ĭ": 8057,
      "å®Ĺå®¶çļĦ": 8058,
      "åĽŀå¤į": 8059,
      "å®ĺèĩ³": 8060,
      "ç»Łæ²»çļĦ": 8061,
      "åĶ¤": 8062,
      "çļĦæĪĺäºĭ": 8063,
      "çĶ³è¯·": 8064,
      "è§ĤéŁ³å¯ºåŁİ": 8065,
      "åĲŀå¹¶": 8066,
      "ä¼ĬéĽĨéĻ¢å¿ł": 8067,
      "49": 8068,
      "ä¸ĢæŁ³": 8069,
      "æľīæĹ¶": 8070,
      "ä»£ä¹ĭ": 8071,
      "é«ĺä¿¡": 8072,
      "æīĢèĩ´": 8073,
      "çĪ¶ä¸º": 8074,
      "ä¸ĥåįģ": 8075,
      "ç²Ĺ": 8076,
      "çŃīäººä¸ĢåĲĮ": 8077,
      "è¶Ĭåīįå®Ī": 8078,
      "æŀĹå¯º": 8079,
      "ä¹ĺæľº": 8080,
      "æĪ·æ¬¡éī´è¿ŀ": 8081,
      "åĨ·æ³ī": 8082,
      "ç§»å°ģèĩ³": 8083,
      "éļıåĨĽåıĤåĬł": 8084,
      "æī°ä¹±": 8085,
      "71": 8086,
      "çļĦå®¶åº·": 8087,
      "çļĦå¾¡": 8088,
      "å®Ľ": 8089,
      "æľīæĦı": 8090,
      "æŃ¦åį«": 8091,
      "ãģ¸": 8092,
      "æŀĲ": 8093,
      "çīŁ": 8094,
      "æ¯ĽåĪ©èĥľæ°¸": 8095,
      "é©¬åĮ¹": 8096,
      "å¸Ĥåľº": 8097,
      "ä¿Ŀæľī": 8098,
      "å¤§åĨħå®¶çļĦ": 8099,
      "èĩ´ä¿¡": 8100,
      "æ·±æĦŁ": 8101,
      "ä»ĸä»¬åľ¨": 8102,
      "æ´¾éģ£ä½¿èĢħ": 8103,
      "éģĩå®³": 8104,
      "çŁ¥è¡Įåľ°": 8105,
      "è¹Ħ": 8106,
      "å¤ªçĶ°èµĦæŃ£": 8107,
      "æģ³è¯·": 8108,
      "éķ¿èī¯": 8109,
      "ä¸İä¸ī": 8110,
      "èĩªè¡Į": 8111,
      "è¿Ļä¹Łæĺ¯": 8112,
      "å°ıæŀĹ": 8113,
      "è¿Ľå±ķ": 8114,
      "ä¸¤è·¯": 8115,
      "åıĤèĢĥ": 8116,
      "æµģéĢļ": 8117,
      "åı¤æĸĩä¹¦": 8118,
      "å¤§åıĭå®¶çļĦ": 8119,
      "ç¦ıäºķ": 8120,
      "åĲİæĿ¥åľ¨": 8121,
      "å·¥èĹ¤": 8122,
      "éķ¿å®ĹæĪĳéĥ¨å®¶": 8123,
      "éŁ³ä¹Ĳ": 8124,
      "é¥°æ¼Ķ": 8125,
      "ç§¦": 8126,
      "ä¸İç»ĩçĶ°": 8127,
      "ä¸īåįĥäºº": 8128,
      "ãģļ": 8129,
      "æŃ»äºĨ": 8130,
      "ä¼ļè§ģ": 8131,
      "æ°¸ç¦Ħå¹´éĹ´": 8132,
      "æĶ¶åħ»": 8133,
      "çĶ·åŃĲ": 8134,
      "äº¬æŀģæ°ı": 8135,
      "ç¡®ç«ĭäºĨ": 8136,
      "æĲºå¸¦": 8137,
      "ç©´å±±ä¿¡åĲĽ": 8138,
      "æĩĪ": 8139,
      "å°ĺ": 8140,
      "ä¹ĭç§°": 8141,
      "æľīå¤ļ": 8142,
      "äºĭåıĺ": 8143,
      "ï¼ļâĢĺ": 8144,
      "è¶³åĪ©æĶ¿çŁ¥": 8145,
      "æİ¥æĽ¿": 8146,
      "è®¤è¯Ĩ": 8147,
      "éĩĳæ£®éķ¿": 8148,
      "æĥħå½¢": 8149,
      "çĥ¦": 8150,
      "æİ¨èįĲ": 8151,
      "è´¨çĸĳ": 8152,
      "ç»Łæ²»èĢħ": 8153,
      "ç¤¼ä»ª": 8154,
      "æĿĳä¸Ĭæ°ı": 8155,
      "çľ¼è§ģ": 8156,
      "æİĮæı¡äºĨ": 8157,
      "ä½Ĳç«¹ä¹īå®£": 8158,
      "ç¼´çº³": 8159,
      "42": 8160,
      "ºçī²": 8161,
      "çļĦå±ĢéĿ¢": 8162,
      "åŁ¹": 8163,
      "éķ¿éĩİæ°ı": 8164,
      "æĶ¿ç¹ģ": 8165,
      "æŃ¤åŁİ": 8166,
      "éĩįä¿¡": 8167,
      "åĮĹåĽ½": 8168,
      "å½ĵå¤©": 8169,
      "å®ļæŃ£": 8170,
      "çīºçī²": 8171,
      "åĽĽåįĥ": 8172,
      "å¤ĸéĥ¨": 8173,
      "åĢº": 8174,
      "æĹ©å°±": 8175,
      "åıĺæĪĲäºĨ": 8176,
      "å¤§åıĭäº²": 8177,
      "æ°ĳéĹ´": 8178,
      "é¥«èĤ¥": 8179,
      "åħ¶åŃĲåŃĻ": 8180,
      "åĬĿè°ı": 8181,
      "ç»´æĬ¤": 8182,
      "å¥Ķèµ°": 8183,
      "åĪĳéĥ¨": 8184,
      "å·®å¼Ĥ": 8185,
      "å®ģå®ģ": 8186,
      "åĿªåĨħ": 8187,
      "å¤§éĩİæ²»éķ¿": 8188,
      "è¿ĤåĽŀ": 8189,
      "åĮĹä¹ĭåºĦ": 8190,
      "700": 8191,
      "çļĦç»ĵæŀľ": 8192,
      "çļĦåıĶçĪ¶": 8193,
      "ä¸ĢçĤ¹": 8194,
      "åĲİä¹ĭ": 8195,
      "ä¸Ńä¸ĸçºª": 8196,
      "åľ°ä¸ĭ": 8197,
      "ä¸»æ°´": 8198,
      "ä»ĸäºº": 8199,
      "å®Ĺä¸¥": 8200,
      "å¿łéĩį": 8201,
      "å¾ĹåĲį": 8202,
      "åĿł": 8203,
      "1623": 8204,
      "äº¤ä»£": 8205,
      "æīĵå¾Ĺ": 8206,
      "å¼ºæĶ»": 8207,
      "åĶ±": 8208,
      "é»ĳçĶ°å®ĺåħµåį«": 8209,
      "åĿļåĨ³": 8210,
      "åĨĻä½ľ": 8211,
      "åı¯ä»¥è¯´": 8212,
      "åħ±åĲĮæŀĦæĪĲäºĨ": 8213,
      "æľ¬å¤ļå¿ł": 8214,
      "åĤħ": 8215,
      "å¿Ĺè´ºäº²": 8216,
      "ä¹³æ¯į": 8217,
      "å¤ŃæĬĺ": 8218,
      "åıł": 8219,
      "ä»¥å¾Ģ": 8220,
      "æŃ¦åĲī": 8221,
      "åİŁåĪĻ": 8222,
      "è¶Ĭä¸ŃçļĦ": 8223,
      "åĮĹæĿ¡æĸ¹": 8224,
      "è¶³åĪ©ä¹īæķĻ": 8225,
      "æīĵçł´": 8226,
      "çķĻæľī": 8227,
      "è®¨çģŃ": 8228,
      "æ·±å¾Ĺ": 8229,
      "è½»æĺĵ": 8230,
      "åĢŁåĬ©": 8231,
      "æĳ©éĥ¡": 8232,
      "æ²¿å²¸": 8233,
      "å¤ĩä¸Ńå®Ī": 8234,
      "åĲīèī¯æ°ı": 8235,
      "æĿ¿åŀ£ä¿¡æĸ¹": 8236,
      "å¾¡åĨħä¹¦": 8237,
      "äºŃ": 8238,
      "äºĨä¿Ĭ": 8239,
      "äººåľ¨": 8240,
      "å¹¶æĭħä»»": 8241,
      "é«ĺåı°": 8242,
      "åĬłæ·±": 8243,
      "å¼ĢäºĨ": 8244,
      "ä¸īæ²³ä¸ĢåĲĳä¸ĢæıĨ": 8245,
      "éĢģåĩº": 8246,
      "åĨ¬åº·": 8247,
      "èµ¶æĿ¥": 8248,
      "è°±ä»£éĩįèĩ£": 8249,
      "ä¸īæĸ¹åİŁä¹ĭæĪĺ": 8250,
      "78": 8251,
      "ä¸Ģç»Ł": 8252,
      "åĨĽåĬĽ": 8253,
      "æĹ¥åħī": 8254,
      "å¤©æ»¡": 8255,
      "æ¬º": 8256,
      "è¿ĩä¸ĸ": 8257,
      "åħŃåįĥ": 8258,
      "çĽ®ä»ĺ": 8259,
      "åı¤æ²³åŁİ": 8260,
      "ä¸¹ç¾½éķ¿éĩį": 8261,
      "åĲįä¹īä¸Ĭ": 8262,
      "åĪĬ": 8263,
      "éķ¿åĿĤ": 8264,
      "åĽ½æ¸ħ": 8265,
      "äººåı£": 8266,
      "ä»ĸä½ľä¸º": 8267,
      "æ¸ħéķ¿": 8268,
      "åĽŀåºĶ": 8269,
      "å¿ĥå¯º": 8270,
      "æĽ¾æĪĳ": 8271,
      "èĹ©èĹ©ä¸»": 8272,
      "è½¬ç§»": 8273,
      "å°¼å´İ": 8274,
      "éī´çĲĨ": 8275,
      "è¾ħåĬ©": 8276,
      "èıħæ²¼å®ļ": 8277,
      "çŀ¬éĹ´": 8278,
      "å®¾": 8279,
      "å®¶åĴĮ": 8280,
      "ä¸ĢæĹ¶éĹ´": 8281,
      "ä¸İå¼Łå¼Ł": 8282,
      "æĹ¥èĩ³": 8283,
      "è¡Įå¹¸": 8284,
      "è¯´çļĦ": 8285,
      "åĿĽ": 8286,
      "äºĶäºº": 8287,
      "åĽĽåĳ¨": 8288,
      "è¶³åĪ©çĽ´ä¹ī": 8289,
      "æĸ°ä»»": 8290,
      "åİĭåĢĴ": 8291,
      "å¿ħå®ļ": 8292,
      "å¼Ĥå¸¸": 8293,
      "è¿ĶåĽŀäºĨ": 8294,
      "æķĪæŀľ": 8295,
      "æŃ£å®¤ä¸º": 8296,
      "çĥŃçĶ°": 8297,
      "å°ıåİ¿éĥ¡": 8298,
      "ä¹Įå¸½åŃĲ": 8299,
      "åħľ": 8300,
      "ä¸ĢæĿ¥": 8301,
      "å±¯": 8302,
      "åĨĽä¸İ": 8303,
      "åĽ½å¢ĥ": 8304,
      "1520": 8305,
      "æĶ¿äº²": 8306,
      "åľ°çĽĺ": 8307,
      "èĢĮåĩº": 8308,
      "åĽłçĹħ": 8309,
      "å®īä¸Ń": 8310,
      "äºķçĶ°": 8311,
      "åħ¨å¢ĥ": 8312,
      "è¯ģæį®": 8313,
      "åĲīå·Ŀç»ı": 8314,
      "è¾ĥä¸º": 8315,
      "åĨħéĥ¨çļĦ": 8316,
      "ç¦ħç§Ģ": 8317,
      "èŃ¦æĪĴ": 8318,
      "å§»äº²åħ³ç³»": 8319,
      "çļĦä¸ĢåĲĳä¸ĢæıĨ": 8320,
      "72": 8321,
      "çĴ": 8322,
      "æĺı": 8323,
      "ä¹īä»²": 8324,
      "çİĸ": 8325,
      "åİŁå±ŀ": 8326,
      "çŃīä¸ĢåĲĮ": 8327,
      "å®ŀåĪĻ": 8328,
      "æ°´åĨĽçļĦ": 8329,
      "åºĨéķ¿ä¸īå¹´": 8330,
      "é¸Ń": 8331,
      "ï¼ŁâĢĶ": 8332,
      "å©Ĩ": 8333,
      "åĺ±": 8334,
      "åĤ»": 8335,
      "å·¨å¤§çļĦ": 8336,
      "åľŁå²Ĳèµĸèīº": 8337,
      "ç®ķè½®åŁİ": 8338,
      "è´§å¸ģ": 8339,
      "ä¸Ģä¹ĺè°·": 8340,
      "é¥Ńå¯ĮèĻİæĺĮ": 8341,
      "éĩĳæ£®éķ¿è¿ĳ": 8342,
      "çļĦä¸»è¦ģ": 8343,
      "å¤§éģĵ": 8344,
      "ä¿¡è´ŀ": 8345,
      "ä¸İçĪ¶": 8346,
      "ä¸ĬåįĪ": 8347,
      "å¯¹éĺµ": 8348,
      "å¦Ħ": 8349,
      "å®ŀä¹ħ": 8350,
      "ç»ıéªĮ": 8351,
      "ä»Ĭå¤©": 8352,
      "ç¬¬ä¸Ģä¸ª": 8353,
      "è¶³åĪ©ä¹īå°ļ": 8354,
      "åħ³ä¸ľåħ¬æĸ¹": 8355,
      "å¤§åĨħæ°ıçļĦ": 8356,
      "éĺ¿å¸Ĥ": 8357,
      "æ°ĳéĥ¨": 8358,
      "åĳĺæĺĮ": 8359,
      "ä¸¥æł¼": 8360,
      "å¯Ĩè°ĭ": 8361,
      "æĺ¯æĹ¥æľ¬æĪĺåĽ½æĹ¶ä»£çļĦæŃ¦å°Ĩ": 8362,
      "æĹ¨åľ¨": 8363,
      "æĤ£çĹħ": 8364,
      "æ¬¢è¿İ": 8365,
      "33": 8366,
      "çļĦæĸ¹å¼ı": 8367,
      "åįĳ": 8368,
      "ä¸ºå¤§å°Ĩ": 8369,
      "ä¹ĭä¸»": 8370,
      "å¤§æ±Ł": 8371,
      "ä¿¡æĺ¥": 8372,
      "è¯ĳ": 8373,
      "æŃ¤åĪ»": 8374,
      "çº¶": 8375,
      "å¤ļæľī": 8376,
      "å¤©æŃ£å¹´éĹ´": 8377,
      "è¥¿è¿Ľ": 8378,
      "ä¼łæİĪ": 8379,
      "ç»Łå¹¸": 8380,
      "æµ·æ´¥åŁİ": 8381,
      "ç§įç§į": 8382,
      "åı³å¤§èĩ£": 8383,
      "å°ģå»º": 8384,
      "èĩ´ä½¿": 8385,
      "éķĩä¹ħ": 8386,
      "èĭ¥æ±Ł": 8387,
      "å¸ĥæŃ¦": 8388,
      "ç²¾åħµ": 8389,
      "åĨĽè®°çī©": 8390,
      "å¥łå®ļ": 8391,
      "åıªåī©ä¸ĭ": 8392,
      "ä»¥ç¤º": 8393,
      "åĲīçĶ°åŁİ": 8394,
      "éĩįæķ´": 8395,
      "æ¬¡å¥³": 8396,
      "ä½Ĩä¹Ł": 8397,
      "ä»ĬçĪ±çŁ¥åİ¿": 8398,
      "åĲĪè®®": 8399,
      "åĽŀæĿ¥": 8400,
      "çĮľ": 8401,
      "å²©æ§»": 8402,
      "å¼ķè¯±": 8403,
      "è¿Ļä¸Ģå¹´": 8404,
      "ç¤¼å®ī": 8405,
      "1529": 8406,
      "æĵ¢": 8407,
      "èµ¤æĿ¾å®¶": 8408,
      "èĢĥè¯ģ": 8409,
      "åĳ¨è¾¹çļĦ": 8410,
      "ç«¥åŃĲ": 8411,
      "æķĮå¯¹çļĦ": 8412,
      "æī¬åĮĹ": 8413,
      "å§Ĳå¦¹": 8414,
      "ç¥Īç¥·": 8415,
      "åĲįæĬ¤å±ĭ": 8416,
      "65": 8417,
      "çļĦèĥľåĪ©": 8418,
      "ä¸İåĮĹæĿ¡æ°ı": 8419,
      "åľ°çĤ¹": 8420,
      "åħµå£«": 8421,
      "è¡ĮåĪĹ": 8422,
      "ç»ĩçĶ°æĶ¿æĿĥ": 8423,
      "æīĢå±ŀ": 8424,
      "ä¸¤å¹´åĲİ": 8425,
      "å¤ªåĲĪ": 8426,
      "åĵŃ": 8427,
      "æ£ļ": 8428,
      "ä¼Ĭè¾¾æĻ´å®Ĺ": 8429,
      "èµ¤å·Ŀ": 8430,
      "åį·åħ¥": 8431,
      "ç¯¡": 8432,
      "å¤©æĸĩåįģå¹´": 8433,
      "éĤ»åĽ½": 8434,
      "åĩıå°ĳ": 8435,
      "å§Ķæīĺ": 8436,
      "åĪĨè£Ĥä¸º": 8437,
      "ï¼ĪâĢľ": 8438,
      "åľ¨äº¬": 8439,
      "éķ¿æ°ı": 8440,
      "å±±æ°ı": 8441,
      "èĥľæŃ£": 8442,
      "æłĥ": 8443,
      "èº«ä½ĵ": 8444,
      "æ¯ĽåĪ©ç§Ģåħĥ": 8445,
      "æĶ¯ä¸¹": 8446,
      "å¤Ħç½ļ": 8447,
      "åĬŁåĭĭ": 8448,
      "æľªæĿ¥": 8449,
      "éĶĢ": 8450,
      "åı£åŁİ": 8451,
      "ä¸īå¥½ä¹ĭéķ¿": 8452,
      "æ¼Ĥ": 8453,
      "ä¸īåĽ½åĲĮçĽŁ": 8454,
      "æĸ°å®«åħļ": 8455,
      "800": 8456,
      "åľ¨åħ³åİŁ": 8457,
      "æľīä¹Ĳ": 8458,
      "æľ¬èĲ¥": 8459,
      "è¢«éĢĲåĩº": 8460,
      "åİŁåĲį": 8461,
      "æ²»å®ī": 8462,
      "æĪ·å·Ŀ": 8463,
      "äº¤æµģ": 8464,
      "æľªèİ·": 8465,
      "é¾Ļå¯º": 8466,
      "éģĹé¢Ĩ": 8467,
      "éĢģèĩ³": 8468,
      "èĮ¶äºº": 8469,
      "æķ´é¡¿": 8470,
      "èĮĥç¤¼å®ī": 8471,
      "è£ħé¥°": 8472,
      "åħ¶çĪ¶ä¸º": 8473,
      "æłĭæ¢ģ": 8474,
      "è¡¨çİ°æ´»è·ĥ": 8475,
      "ç¬¬åĽĽæ¬¡å·Ŀä¸Ńå²Ľ": 8476,
      "æ¦ĬåİŁåº·æĶ¿": 8477,
      "æ²³å°»ç§ĢéļĨ": 8478,
      "ä¸ºåĥ§": 8479,
      "ä¸ĭåįĪ": 8480,
      "æĶ¿ç»ı": 8481,
      "èĩªç«ĭ": 8482,
      "æŃ¦çĶ°çļĦ": 8483,
      "ä¸¤å®¶çļĦ": 8484,
      "1619": 8485,
      "åħ«å·ŀ": 8486,
      "éĢĢä½į": 8487,
      "çļĩæĹı": 8488,
      "è½¬åıĺ": 8489,
      "åĲĮæĹ¶ä¹Ł": 8490,
      "æ¾³": 8491,
      "çĬ¬å±±åŁİ": 8492,
      "æĿĢæŃ»äºĨ": 8493,
      "æĺ¯å®īåľŁæ¡ĥå±±æĹ¶ä»£èĩ³æ±ŁæĪ·æĹ¶ä»£åĪĿæľŁçļĦæŃ¦å°Ĩ": 8494,
      "èĢĥèĻĳåĪ°": 8495,
      "åŁ¼çİī": 8496,
      "å®¶æĸĩä¹¦": 8497,
      "ä¸Ģå¼Ģå§ĭ": 8498,
      "åĪ©æł¹": 8499,
      "åĲĮä¸Ģäºº": 8500,
      "å¿łåħĥ": 8501,
      "åĽĽéĿ¢": 8502,
      "èĹ¤çĶ°": 8503,
      "æĬ¤åŁİ": 8504,
      "ä¾¿ä¸İ": 8505,
      "ä¿Ŀç§ĳ": 8506,
      "çĭĹ": 8507,
      "ä¸īå¥½åº·éķ¿": 8508,
      "å²©æĿ¾": 8509,
      "å°¾å¼łçļĦ": 8510,
      "ä½Ĳç«¹ä¹īæĺŃ": 8511,
      "å®Ŀæ»¡": 8512,
      "æĸ¯æ³¢å®¶": 8513,
      "æĭĽåĭŁ": 8514,
      "ç´§å¯Ĩ": 8515,
      "ç»ĵæĿŁäºĨ": 8516,
      "åħ¸åŀĭ": 8517,
      "å±ıéļľ": 8518,
      "æłħæłı": 8519,
      "æ¡ĵæŃ¦": 8520,
      "ä¹ŀ": 8521,
      "ä»Ĩ": 8522,
      "åĲİéĢĢ": 8523,
      "æĺ¯ä¸į": 8524,
      "æľ¬åºĶ": 8525,
      "æĸ¹æ³ķ": 8526,
      "åĨħå¤§èĩ£": 8527,
      "æĥ«": 8528,
      "æĽ¾ä¸º": 8529,
      "æł¹åŁº": 8530,
      "è£ķ": 8531,
      "å¸¦æĿ¥": 8532,
      "èıľ": 8533,
      "æ²¼åŁİ": 8534,
      "è¡Ģç»Ł": 8535,
      "å®ĩä½Ĳç¾İ": 8536,
      "æĺ¯æ´»è·ĥäºİæĪĺåĽ½æĹ¶ä»£èĩ³å®īåľŁæ¡ĥå±±æĹ¶ä»£çļĦæŃ¦å°Ĩ": 8537,
      "ä¸ľçħ§å®«": 8538,
      "çļĦä¸Ģä¸ª": 8539,
      "åľ¨æ±ŁæĪ·": 8540,
      "éķ¿å¤§": 8541,
      "æīŃ": 8542,
      "éĢ®": 8543,
      "âĢĿï¼ĪãĢĬ": 8544,
      "çŃĭ": 8545,
      "å§ĳ": 8546,
      "éĽĩ": 8547,
      "åĮĹæĿ¡çº²æĪĲ": 8548,
      "åħ«åįģ": 8549,
      "æĸ°åŁİ": 8550,
      "åį´ä¸į": 8551,
      "è¶³åĪ©ä¹īæ¾Ħ": 8552,
      "é¥±": 8553,
      "ç¾İæµĵä¸īäººä¼Ĺ": 8554,
      "ä½ľæĪĺçļĦ": 8555,
      "è¸¯": 8556,
      "åĴĮæ³īå®Ī": 8557,
      "è¾¾æĪĲåĴĮè§£": 8558,
      "æ²Ļåĭ¿": 8559,
      "çĸ²æĥ«": 8560,
      "æ¶©å·Ŀ": 8561,
      "æ²Ļåĭ¿çķ¥": 8562,
      "çĶ°åĮĹ": 8563,
      "å¤§æĿĥ": 8564,
      "æĪĺæĹ¶": 8565,
      "æĹ¥èİ²": 8566,
      "æŃ¦æĸŃ": 8567,
      "æľ¬åľ°": 8568,
      "å¹ķåĲİ": 8569,
      "ç¬¬ä¸ĥ": 8570,
      "æ²¡æĥ³åĪ°": 8571,
      "æİ¥ä¸ĭæĿ¥": 8572,
      "å·¦ç¿¼": 8573,
      "è°¦ä¿¡çļĦ": 8574,
      "æĿ¾å¹³åº·": 8575,
      "çªģåĩº": 8576,
      "åıĮæĸ¹çļĦ": 8577,
      "åı¯èĥ½æĢ§": 8578,
      "çķ¿åĨħçļĦ": 8579,
      "éĻ·åħ¥æ··ä¹±": 8580,
      "åĲĦåľ°çļĦ": 8581,
      "ä¼Ĭè±Ĩå®Ī": 8582,
      "èľĤé¡»è´ºæŃ£èĥľ": 8583,
      "å¢¨ä¿£": 8584,
      "åĩĮæĻ¨": 8585,
      "è¸¯èº": 8586,
      "32": 8587,
      "å¹´å°ĳ": 8588,
      "åĲİåįĬ": 8589,
      "ä¸İå®¶èĩ£": 8590,
      "æŃ£éĩį": 8591,
      "å¯ºåºĻ": 8592,
      "ãģĽ": 8593,
      "äºĭæĢģ": 8594,
      "è½°": 8595,
      "æŃ»åīį": 8596,
      "æģ¼": 8597,
      "èĪĨ": 8598,
      "çľŁå£ģ": 8599,
      "å®ĺåĳĺ": 8600,
      "èĻ½æľī": 8601,
      "æķ°å¹´": 8602,
      "å¤´äºº": 8603,
      "éķĩæĪ¿": 8604,
      "1608": 8605,
      "ä¸ŃåĽ½åľ°æĸ¹": 8606,
      "éĺ³æĪĲ": 8607,
      "åĪļåĪļ": 8608,
      "è¿ĳåį«åīį": 8609,
      "å²©æĿĳåŁİ": 8610,
      "åĲ¸å¼ķ": 8611,
      "éĴµå½¢": 8612,
      "81": 8613,
      "çļĦåŃĲåŃĻ": 8614,
      "å¤§å¾·å¯º": 8615,
      "å¼Ħ": 8616,
      "åĮĨ": 8617,
      "åĲīåĪ©": 8618,
      "èĩªåı¤": 8619,
      "åıĳæİĺ": 8620,
      "çĶ¨åħµ": 8621,
      "å¾¡æĸĻ": 8622,
      "ä¸īæ²³çī©è¯Ń": 8623,
      "ä¹Ŀå·ŀæİ¢é¢ĺ": 8624,
      "åĨ²åĩ»": 8625,
      "è¡°å¼±": 8626,
      "1506": 8627,
      "æļ´åĬ¨": 8628,
      "çĽ¸ä¼łä¸º": 8629,
      "æŁ´çĶ°èĥľå®¶çļĦ": 8630,
      "åłĢå°¾åĲīæĻ´": 8631,
      "åĭīå¼º": 8632,
      "Ġäºº": 8633,
      "å¤§ä¹ī": 8634,
      "éķ¿åı¯": 8635,
      "è®½": 8636,
      "ä¸īä¹ĭä¸¸": 8637,
      "å°ıçļĦ": 8638,
      "çĿ¹": 8639,
      "å¹³æ¬¡": 8640,
      "åĬłåī§": 8641,
      "èµĸèīº": 8642,
      "1622": 8643,
      "è·µ": 8644,
      "åıĪä»¥": 8645,
      "å£«æĹı": 8646,
      "æµ·å²¸": 8647,
      "çªģåĽ´": 8648,
      "éªıæ²³çļĦ": 8649,
      "1525": 8650,
      "æĮĩæĮ¥å®ĺ": 8651,
      "åĪĩèħ¹èĩªå°½": 8652,
      "åıĳèµ·äºĨ": 8653,
      "è¾¾æĪĲåĴĮè®®": 8654,
      "è¦ĨçģŃ": 8655,
      "é«ĺå±±åı³è¿ĳ": 8656,
      "at": 8657,
      "çļĦå½¢å¼ı": 8658,
      "è¿Ń": 8659,
      "åľ¨ä¸Ģèµ·": 8660,
      "åľ¨åħ³åİŁä¹ĭæĪĺä¸Ń": 8661,
      "ä¸Ńæī®æ¼Ķ": 8662,
      "æŃ£çº²": 8663,
      "åĴı": 8664,
      "æ¸Ĺ": 8665,
      "ä¹Łéĥ½": 8666,
      "çŁ³çļĦ": 8667,
      "ç§ĢåĲīæŃ»åĲİ": 8668,
      "çĽ¸ä¿¡": 8669,
      "åĮĹæĿ¡æ°ıçħ§": 8670,
      "æĬĹæĪĺ": 8671,
      "ä¾§éĿ¢": 8672,
      "æĦŁè°¢": 8673,
      "åĬłåħ¥ä¸ľåĨĽ": 8674,
      "å¾Īå¿«å°±": 8675,
      "æ¶ĪçģŃäºĨ": 8676,
      "æ¸ĬæºĲ": 8677,
      "å±±æľ¬åĭĺåĬ©": 8678,
      "ä¹ĿæĪ·æĶ¿å®ŀ": 8679,
      "ĠéĢ¸äºĭ": 8680,
      "çļĦèĢģ": 8681,
      "çļĦæ¯įäº²": 8682,
      "å®¶ä¼ł": 8683,
      "ä¸ºä½¿èĢħ": 8684,
      "å¾ª": 8685,
      "äººæ°ĳ": 8686,
      "å±±åĨĪ": 8687,
      "æ²ĵ": 8688,
      "ä¿¡éķ¿ä¸İ": 8689,
      "ä¹ħçķĻ": 8690,
      "çĽ´æŃ£": 8691,
      "åĩ»æĿĢ": 8692,
      "åħīä¸¥": 8693,
      "éļıçĪ¶": 8694,
      "æĽ¾åĲĳ": 8695,
      "æĺ¾èµ«": 8696,
      "å²©ä»ĺ": 8697,
      "æľ¬æĦ¿å¯ºçļĦ": 8698,
      "æ½Ł": 8699,
      "çĬ¹è±«": 8700,
      "åºĨéķ¿åįģä¹Ŀå¹´": 8701,
      "æ¢¶åİŁ": 8702,
      "çº¶æĹ¨": 8703,
      "åŁİéĻ·": 8704,
      "å¤§æī¹": 8705,
      "éķ¿çĽĬ": 8706,
      "æĪĺçģ«": 8707,
      "æĹ¶æĶ¿": 8708,
      "é¢ĨåĨĽ": 8709,
      "åĨħåºľ": 8710,
      "ãģ©": 8711,
      "è¿ĽéĢĢ": 8712,
      "èµ·æºĲ": 8713,
      "ä¸¤èĢħ": 8714,
      "æ¸ħæĻ¨": 8715,
      "æºª": 8716,
      "äº¬éĥ½æīĢåı¸ä»£": 8717,
      "è¿ľå·ŀ": 8718,
      "å´İé¦Ĩ": 8719,
      "åı¤å¿Ĺ": 8720,
      "ä¼Ĭè¾¾åĨĽ": 8721,
      "åıĳåĬ¨äºĨ": 8722,
      "æłĩåĩĨ": 8723,
      "æĭĽèĩ´": 8724,
      "å¤§åıĭä¹īéī´": 8725,
      "åĲįåı¤å±ĭåŁİ": 8726,
      "å¢Ļå£ģ": 8727,
      "æ½ľä¼ı": 8728,
      "å°ıç¬łåİŁéķ¿æĹ¶": 8729,
      "è¸¯èºħ": 8730,
      "åľ¨åīį": 8731,
      "æī£": 8732,
      "èĢĮéĹ»åĲį": 8733,
      "æĻŁ": 8734,
      "åĲĮè¡Į": 8735,
      "ãģŃ": 8736,
      "é«ĺå±ĭåŁİ": 8737,
      "ä¸ľç¾İæµĵ": 8738,
      "åĪĨéĴŁ": 8739,
      "æ¯ĽåĪ©æ°´åĨĽ": 8740,
      "åĪĻä¸º": 8741,
      "åį³åı¯": 8742,
      "è®¨è®º": 8743,
      "éļ¾æ³¢": 8744,
      "å¢ŀæĹ¶": 8745,
      "ä»ĭéĶĻ": 8746,
      "è¿ĲçĶ¨": 8747,
      "ä¹Ĳå¸Ĥ": 8748,
      "åįķä½į": 8749,
      "éĻĲäºİ": 8750,
      "ç´§æİ¥çĿĢ": 8751,
      "æµ¦ä¸Ĭå®ĹæĻ¯": 8752,
      "åĲİç»§èĢħ": 8753,
      "çĶ«åºµ": 8754,
      "43": 8755,
      "90": 8756,
      "èł": 8757,
      "åľ¨æĪĺåĽ½æĹ¶æľŁ": 8758,
      "ä¸İä»ĸ": 8759,
      "ä¸İæ¯ĽåĪ©æ°ı": 8760,
      "ä¸ŃæĹ¬": 8761,
      "ä»£èĹ©ä¸»": 8762,
      "æŃ¤ç±»": 8763,
      "è¢«å¹ķåºľ": 8764,
      "æİĢ": 8765,
      "ä¸ľä¸īæ²³": 8766,
      "ä½įä¸Ĭ": 8767,
      "ç»ıçĶ±": 8768,
      "è¶³åĪ©å°ĨåĨĽ": 8769,
      "æĻ´æľĿ": 8770,
      "åħ´å»º": 8771,
      "æĴķ": 8772,
      "å²Ľæ´¥æ°ıçļĦ": 8773,
      "åı³é©¬": 8774,
      "åı¤ä»Ĭ": 8775,
      "åħ¼å¤ĩ": 8776,
      "å¤©æŃ£åįģåħŃå¹´": 8777,
      "æĿĳä¸Ĭæ°´åĨĽ": 8778,
      "å¯Ħè¿Ľ": 8779,
      "åĨĪå´İå¸Ĥ": 8780,
      "éĩľå±±": 8781,
      "ä¸ĢæıĲ": 8782,
      "åħ¶é¢Ĩåľ°": 8783,
      "è¢«åĪĹä¸º": 8784,
      "æĢľ": 8785,
      "è¿ĽéĢ¼": 8786,
      "è®°åħ¶": 8787,
      "ä»ĬåĲİ": 8788,
      "è¥¿ä¹ĭä¸¸": 8789,
      "æĪ·åŁİ": 8790,
      "åºĨéļĨ": 8791,
      "æĹ¥æľ¬æµ·": 8792,
      "å±ħæ°ĳ": 8793,
      "å¤ĦåĨ³": 8794,
      "å¤ĦåĪĳ": 8795,
      "èĹ©æĶ¿": 8796,
      "å²Ľæ´¥è´µä¹ħ": 8797,
      "ç¼Ŀ": 8798,
      "æ»¡ç¥Ĳ": 8799,
      "ä»ħåī©": 8800,
      "èµ¤äºķ": 8801,
      "è¿Ļä¸ĢæĹ¶æľŁ": 8802,
      "è¿İæĿ¥": 8803,
      "çĽ¸èī¯ä¹īéĺ³": 8804,
      "å°¤ä¸º": 8805,
      "èªĵä¹¦": 8806,
      "çĨŁæĤī": 8807,
      "å¤§åĬ¿": 8808,
      "æĺ¯å®īåľŁæ¡ĥå±±æĹ¶ä»£çļĦæŃ¦å°Ĩ": 8809,
      "ä¸įçĶ¨": 8810,
      "åħīéĻ¢": 8811,
      "ä¼łæĴŃ": 8812,
      "ç»ĵå©ļ": 8813,
      "è¿ĺæľīä¸Ģ": 8814,
      "å®ĪæĬ¤å®¶": 8815,
      "å®«å´İ": 8816,
      "æĪĺåĽ½æĹ¶ä»£çļĦ": 8817,
      "å¾·å·Ŀå®¶åº·åľ¨": 8818,
      "æİ¨ç¿»": 8819,
      "æĶ¯æĮģä¸ĭ": 8820,
      "å³¡": 8821,
      "åıĳçĶŁåľ¨": 8822,
      "åľ¨æŃ¤æĪĺä¸Ń": 8823,
      "ä¸įå¾Ĺå·²": 8824,
      "å¼ĺæ²»ä¸īå¹´": 8825,
      "1632": 8826,
      "çĽ¸åħ³çļĦ": 8827,
      "æĹłè®ºå¦Ĥä½ķ": 8828,
      "äº«å¾·ä¹ĭä¹±": 8829,
      "æ¾³éĹ¨": 8830,
      "çļĦåŁºç¡Ģ": 8831,
      "ä¸ĢæŃ»": 8832,
      "ä¹ĭä½Ļ": 8833,
      "åĲİä»£": 8834,
      "ä¹īéī´": 8835,
      "å¯¹ä¿¡éķ¿": 8836,
      "å°ıè§Ħæ¨¡": 8837,
      "æİŁ": 8838,
      "å®Ĺä¿¡": 8839,
      "ç»ĩçĶ°å®¶èĩ£": 8840,
      "å¾ĹäºĨ": 8841,
      "ä¼Ĭå¥Ī": 8842,
      "ä¸ĬæĿīæĶ¿èĻİ": 8843,
      "èº«åĪĨ": 8844,
      "åħŃæĿ¡": 8845,
      "éªĦ": 8846,
      "æĪĳæĸ¹": 8847,
      "æľªæŀľ": 8848,
      "å®¶çĿ£ä¹ĭäºī": 8849,
      "åĲĦå¤§åĲį": 8850,
      "åħ¼è§ģ": 8851,
      "æĬ¥ä»ĩ": 8852,
      "æĺİæĻºåĨĽ": 8853,
      "å°ĦæĿĢ": 8854,
      "èŃ¦å¤ĩ": 8855,
      "å¤§ä¹ħä¿Ŀå¿łä¸ĸ": 8856,
      "åĲ¾å¦»éķľ": 8857,
      "çĽĳæĬ¤äºº": 8858,
      "å¤ªåİŁéĽªæĸĭ": 8859,
      "41": 8860,
      "87": 8861,
      "å¤§å¤§": 8862,
      "æĶ¿å®¶": 8863,
      "æĪĲçĶ°": 8864,
      "çŃīäºİ": 8865,
      "é«ĺå²Ľ": 8866,
      "é«ĺæ§»": 8867,
      "ä¹ħéĢļ": 8868,
      "å°±æľī": 8869,
      "å®ļå±ħ": 8870,
      "è¿ĳä¹ł": 8871,
      "å¸¸è¢«": 8872,
      "çªĹ": 8873,
      "æĹ§ä¸»": 8874,
      "195": 8875,
      "äºİæĺ¯åľ¨": 8876,
      "é¾Łå±±åŁİ": 8877,
      "åĸĦåħīå¯º": 8878,
      "æ¨ªæ¿ĳ": 8879,
      "éĻ¶åĨĽ": 8880,
      "å¦Ļçº¯": 8881,
      "ä¼ļæ´¥å¾ģä¼Ĳ": 8882,
      "é¹¤åĨĪ": 8883,
      "ç¾İä½ľåĽ½": 8884,
      "æ°´éĩİèĥľæĪĲ": 8885,
      "è§ĤéŁ³å¯º": 8886,
      "éĹ¨åı¸åŁİ": 8887,
      "æĹ¥æł¹éĩİ": 8888,
      "ä¸īå¥īè¡Į": 8889,
      "ä¸įèĤ¯": 8890,
      "èĢĮåİ»": 8891,
      "å®ĹçŁ©": 8892,
      "å½ĵå¤ľ": 8893,
      "ä¹ħç±³": 8894,
      "æŃ»åĽł": 8895,
      "æĿĥåĪ©": 8896,
      "ç¥ŀçĪ¶": 8897,
      "çĤĬ": 8898,
      "åı²å®ŀ": 8899,
      "èģĶåĨĽçļĦ": 8900,
      "ä¼Ĭè¾¾å®¶çļĦ": 8901,
      "åĽ½äººä¸ĢæıĨ": 8902,
      "éªıæ²³å®Ī": 8903,
      "èĨĿ": 8904,
      "èĻļæŀĦ": 8905,
      "æĴ°åĨĻ": 8906,
      "å®¶äº²": 8907,
      "èĩĤ": 8908,
      "ä¸īåįĥçŁ³": 8909,
      "å°Ĩä¼ļ": 8910,
      "å¯¹å¾ħ": 8911,
      "çĶŁåŃĺ": 8912,
      "å¹³åŁİ": 8913,
      "æĽ¾ä¸İ": 8914,
      "ãĤĩ": 8915,
      "å¹¿æ¿ĳ": 8916,
      "è´ŀåºĨ": 8917,
      "å¤´çĽĶ": 8918,
      "è°ĭåĪĴ": 8919,
      "åŃ¦å®¶": 8920,
      "ä¼ĬåĬ¿å®Ī": 8921,
      "åĲĽä¸»": 8922,
      "æľĽæľĪ": 8923,
      "éī´éĢŁ": 8924,
      "æķ´åĲĪ": 8925,
      "åī²è®©": 8926,
      "åĩºç¾½å®Ī": 8927,
      "å±±å´İä¹ĭæĪĺ": 8928,
      "å±ħä½ıåľ¨": 8929,
      "èĵĿ": 8930,
      "å¤ļéĹ»éĻ¢": 8931,
      "éĤ£åı¤éĩİåŁİ": 8932,
      "çļĦåŃĺåľ¨": 8933,
      "æĺ¯ä»İ": 8934,
      "èĥ¸": 8935,
      "ä¸ĭé©¬": 8936,
      "æĶ¿åº·": 8937,
      "éĩįéķ¿": 8938,
      "çŃīçļĦ": 8939,
      "åĲĳè¥¿": 8940,
      "åħ´è¶£": 8941,
      "ç¦»åİ»": 8942,
      "éº¦": 8943,
      "å»¶åħĥ": 8944,
      "è¿Ľè¡ĮçļĦ": 8945,
      "ç¾½æŁ´ç§ĢåĲīçļĦ": 8946,
      "ç¢Ĺ": 8947,
      "ä¹ĭåīįçļĦ": 8948,
      "èĭ¥çĭŃåĽ½": 8949,
      "å§Ĭå·Ŀä¹ĭæĪĺ": 8950,
      "æ¸ħæ°´å®Ĺæ²»": 8951,
      "çļĦå¾·å·Ŀå®¶åº·": 8952,
      "æĿľ": 8953,
      "éĢ¾": 8954,
      "ä¸īæ³ķå¸Ī": 8955,
      "åĮĹä¹¡": 8956,
      "äºĶä¸ĩ": 8957,
      "æľĢå¼º": 8958,
      "éĥ¡ä¸Ĭ": 8959,
      "åħ´å¯º": 8960,
      "æķĮäººçļĦ": 8961,
      "æĪĸæĺ¯": 8962,
      "æ¨ĭ": 8963,
      "è¿Ľåħ¥äº¬éĥ½": 8964,
      "çļĨä¸º": 8965,
      "è§īä¹¦": 8966,
      "å¥Īå·Ŀ": 8967,
      "ä½¿çĶ¨çļĦ": 8968,
      "åºŃåĽŃ": 8969,
      "æ©ĺ": 8970,
      "åĲİåĮĹæĿ¡æ°ıçļĦ": 8971,
      "å°¸ä½ĵ": 8972,
      "éĢ®æįķ": 8973,
      "48": 8974,
      "ãĢĤï¼ī": 8975,
      "ä¹ĭå¢ĵ": 8976,
      "éķ¿äº²": 8977,
      "æĪĺæ³ķ": 8978,
      "äºĨåħ¶": 8979,
      "ä¸Ĭéĺµ": 8980,
      "é¢Ĩè¢ĸ": 8981,
      "åĬĽçļĦ": 8982,
      "å¿łçº²": 8983,
      "çĶ±åħ¶": 8984,
      "å·¦å¤§èĩ£": 8985,
      "è·¯æĺĵ": 8986,
      "120": 8987,
      "æµħåĪ©": 8988,
      "ç«ĭèĬ±åĨĽ": 8989,
      "è°ĥçķ¥": 8990,
      "è¯¹æĸ¹": 8991,
      "äºĶçĻ¾äºº": 8992,
      "ä¸Ľ": 8993,
      "åľ¨åĨĽäºĭ": 8994,
      "ä¿¡æĥł": 8995,
      "åŃķ": 8996,
      "å¤©çĽ®": 8997,
      "åī¿": 8998,
      "çº¬": 8999,
      "å¯¹æĪĺ": 9000,
      "çĶŁçļĦ": 9001,
      "æīĢè¨Ģ": 9002,
      "è½¶": 9003,
      "æĺİçŁ¥": 9004,
      "åĪĻç§°": 9005,
      "å®¶çļĦå®¶èĩ£": 9006,
      "æµģè¨Ģ": 9007,
      "çĭł": 9008,
      "ç»Ńåħī": 9009,
      "å¤įåİŁ": 9010,
      "å°½å¿ł": 9011,
      "éķ¿å°¾æĻ´æĻ¯": 9012,
      "æľĿé²ľçļĦ": 9013,
      "åīįçĶ°çİĦä»¥": 9014,
      "æ¿ĢåĮĸ": 9015,
      "æĢģåĬ¿": 9016,
      "èĪ¬çļĦ": 9017,
      "æĺİåºĶæĶ¿åıĺ": 9018,
      "çİ°åľ¨çļĦ": 9019,
      "ç§įåŃĲå²Ľ": 9020,
      "é¥¿": 9021,
      "ä½£": 9022,
      "ä½¯": 9023,
      "å¤§æ£®": 9024,
      "1517": 9025,
      "ä¸įå¤ļ": 9026,
      "åĴĮçº¦": 9027,
      "éĩįèĥľ": 9028,
      "åħ¥äº¬": 9029,
      "ä½Ĩä»į": 9030,
      "å°±è¦ģ": 9031,
      "èĥ½å²Ľ": 9032,
      "éĻ¢æĶ¿": 9033,
      "å¤©æĸĩå¹´éĹ´": 9034,
      "å¸¦åĪĢ": 9035,
      "å°¼åŃĲæ°ıçļĦ": 9036,
      "æ¯Ķå¦Ĥ": 9037,
      "åŃ¦æł¡": 9038,
      "éģĹä½ĵ": 9039,
      "æµħäºķåĨĽ": 9040,
      "èĮĥæ»¡": 9041,
      "åĬĿéĺ»": 9042,
      "é¾ĻéĢłå¯ºåĨĽ": 9043,
      "æĭľè°Ĵ": 9044,
      "ä¼Ĭä¸ľç¥Ĳ": 9045,
      "çĦļçĥ§": 9046,
      "åĮĹæĿ¡é«ĺå¹¿": 9047,
      "ĦĻ": 9048,
      "ä¹ĭè®¡": 9049,
      "åľ¨åĨħ": 9050,
      "åľ¨å¤§åĿĤ": 9051,
      "åĪ©èĥľ": 9052,
      "äºĮå®«": 9053,
      "åĲĳå¯¼": 9054,
      "çĶ±èī¯": 9055,
      "è¿ĳèĹ¤": 9056,
      "éĽĢ": 9057,
      "éªĹ": 9058,
      "ç¥ŀå¥Īå·Ŀ": 9059,
      "èĹıåħ¥": 9060,
      "éĩĳå´İ": 9061,
      "åºĦçļĦ": 9062,
      "å²©æīĭ": 9063,
      "åłĤæ´ŀ": 9064,
      "æĲı": 9065,
      "å¤§éĺªåºľ": 9066,
      "å®ĩåĸľå¤ļæ°ı": 9067,
      "éģĩåĪ°": 9068,
      "è¯¹è®¿èµĸéĩį": 9069,
      "1504": 9070,
      "ç´§æĢ¥": 9071,
      "ä¼Ĭè´ºå®Ī": 9072,
      "åľ¨äº¬éĥ½çļĦ": 9073,
      "åĶ¯æľī": 9074,
      "æĸ¯æ³¢ä¹īå»ī": 9075,
      "æī¾åĪ°": 9076,
      "è¿ĿèĥĮ": 9077,
      "ç½¢äºĨ": 9078,
      "1336": 9079,
      "ç¥ĪæĦ¿": 9080,
      "èĵĦ": 9081,
      "å·¦äº¬å¤§å¤«": 9082,
      "æĬ¤åŁİæ²³": 9083,
      "as": 9084,
      "ä¸ĢæĬĬ": 9085,
      "äºĨä¸İ": 9086,
      "äºĨä»ĸçļĦ": 9087,
      "ä¸Ńç«ĭ": 9088,
      "ä¹īæĿĳ": 9089,
      "åĲīåŁİ": 9090,
      "è°ķ": 9091,
      "æĭ¨": 9092,
      "éĿ¢ç§¯": 9093,
      "éĥ¡åı¸": 9094,
      "ç¬¬ä¹Ŀ": 9095,
      "åºĶåħģ": 9096,
      "åĬŁèĥ½": 9097,
      "åı³ç¿¼": 9098,
      "æĬĹè¡¡": 9099,
      "å¾Īåı¯èĥ½": 9100,
      "åŀ¦": 9101,
      "é¦ĨæŀĹ": 9102,
      "ä¸¥åİī": 9103,
      "ä¾ĭåŃĲ": 9104,
      "æŃ¦çĶ°ä¿¡ä¸°": 9105,
      "åįĹéĥ¨æ°ı": 9106,
      "éĺ¶çº§": 9107,
      "èµĲè±«åģıè®³": 9108,
      "è´¹çĶ¨": 9109,
      "å¤§å¤ļæķ°": 9110,
      "æĳĨèĦ±": 9111,
      "è½¬æĪĺåĲĦåľ°": 9112,
      "ak": 9113,
      "å¹´çºª": 9114,
      "å¤§äºĭ": 9115,
      "åĽ½çº²": 9116,
      "å±±å¸Ĥ": 9117,
      "1518": 9118,
      "ä¸įä¸Ģ": 9119,
      "æľīåı¯èĥ½": 9120,
      "ä¹Łè®¸": 9121,
      "èĥľéķ¿": 9122,
      "å¿łåĲī": 9123,
      "å¿łå¿ĥ": 9124,
      "åĲĳæľĿå»·": 9125,
      "ç»§åĹ£": 9126,
      "å®īç½®": 9127,
      "äºĶæĿ¡": 9128,
      "èº«çĿĢ": 9129,
      "æĶ¯æŁ±": 9130,
      "åħĪä¾ĭ": 9131,
      "ç¥ŀåĻ¨": 9132,
      "å²©å´İ": 9133,
      "å²©å±ĭ": 9134,
      "æĢ§è´¨": 9135,
      "éķ¿å°¾æĶ¿æĻ¯": 9136,
      "æ¿ĢæĢĴ": 9137,
      "åį°åº¦": 9138,
      "ç§ģä¸ĭ": 9139,
      "éĶĻè¯¯": 9140,
      "åºĶè¯¥æĺ¯": 9141,
      "æł¹æĿ¥å¯º": 9142,
      "ä¼ĬåĬ¿è´ŀäº²": 9143,
      "èĬ¥å·Ŀ": 9144,
      "è·¯æĺĵæĸ¯": 9145,
      "600": 9146,
      "çļĦå®¶èĢģ": 9147,
      "çļĦæĢģåº¦": 9148,
      "ç»ĳ": 9149,
      "åĲİä»»": 9150,
      "åĲİçĶ±": 9151,
      "æ°ıéĤ¦": 9152,
      "å¯Ĥ": 9153,
      "ä¹īä½ĳ": 9154,
      "1512": 9155,
      "æŃ£çĽ´": 9156,
      "å¤ļèī¯": 9157,
      "éĹ¨ä¸ĭ": 9158,
      "å¼Ģå±±": 9159,
      "æĹłä¸į": 9160,
      "ä¸¤åº¦": 9161,
      "åĲĪåĬĽ": 9162,
      "éĥ¡ä»£": 9163,
      "ä¸°èĩ£å§ĵ": 9164,
      "å¥īçº³": 9165,
      "éĢĥåħ¥": 9166,
      "èĳµ": 9167,
      "ä½ĵçİ°": 9168,
      "å¯Įå±±åŁİ": 9169,
      "åĽłæŃ¤åľ¨": 9170,
      "çģ«èį¯": 9171,
      "èħ¾": 9172,
      "è§Ĥå¯Ł": 9173,
      "å¥īè¡Įä¼Ĺ": 9174,
      "åĶ®": 9175,
      "ç»ĺçĶ»": 9176,
      "æĸ¯æ³¢ä¹īæķı": 9177,
      "åģ·è¢Ń": 9178,
      "åįĵè¶Ĭ": 9179,
      "çļĦæĿ¡ä»¶": 9180,
      "çļĦåľŁåľ°": 9181,
      "è¯Ī": 9182,
[...]
