{
  "version": "1.0",
  "truncation": null,
  "padding": null,
  "added_tokens": [
    {
      "id": 0,
      "content": "<|start_of_sentence|>",
      "single_word": false,
      "lstrip": false,
      "rstrip": false,
      "normalized": false,
      "special": true
    },
    {
      "id": 1,
      "content": "<|end_of_sentence|>",
      "single_word": false,
      "lstrip": false,
      "rstrip": false,
      "normalized": false,
      "special": true
    },
    {
      "id": 2,
      "content": "<|unk|>",
      "single_word": false,
      "lstrip": false,
      "rstrip": false,
      "normalized": false,
      "special": true
    },
    {
      "id": 3,
      "content": "<|pad|>",
      "single_word": false,
      "lstrip": false,
      "rstrip": false,
      "normalized": false,
      "special": true
    },
    {
      "id": 4,
      "content": "<|user|>",
      "single_word": false,
      "lstrip": false,
      "rstrip": false,
      "normalized": false,
      "special": true
    },
    {
      "id": 5,
      "content": "<|assistant|>",
      "single_word": false,
      "lstrip": false,
      "rstrip": false,
      "normalized": false,
      "special": true
    }
  ],
  "normalizer": null,
  "pre_tokenizer": {
    "type": "ByteLevel",
    "add_prefix_space": false,
    "trim_offsets": true,
    "use_regex": true
  },
  "post_processor": {
    "type": "ByteLevel",
    "add_prefix_space": true,
    "trim_offsets": false,
    "use_regex": true
  },
  "decoder": {
    "type": "ByteLevel",
    "add_prefix_space": true,
    "trim_offsets": true,
    "use_regex": true
  },
  "model": {
    "type": "BPE",
    "dropout": null,
    "unk_token": "<|unk|>",
    "continuing_subword_prefix": null,
    "end_of_word_suffix": null,
    "fuse_unk": false,
    "byte_fallback": false,
    "ignore_merges": false,
    "vocab": {
      "<|start_of_sentence|>": 0,
      "<|end_of_sentence|>": 1,
      "<|unk|>": 2,
      "<|pad|>": 3,
      "<|user|>": 4,
      "<|assistant|>": 5,
      "!": 6,
      "\"": 7,
      "#": 8,
      "$": 9,
      "%": 10,
      "&": 11,
      "'": 12,
      "(": 13,
      ")": 14,
      "*": 15,
      "+": 16,
      ",": 17,
      "-": 18,
      ".": 19,
      "/": 20,
      "0": 21,
      "1": 22,
      "2": 23,
      "3": 24,
      "4": 25,
      "5": 26,
      "6": 27,
      "7": 28,
      "8": 29,
      "9": 30,
      ":": 31,
      ";": 32,
      "<": 33,
      "=": 34,
      ">": 35,
      "?": 36,
      "@": 37,
      "A": 38,
      "B": 39,
      "C": 40,
      "D": 41,
      "E": 42,
      "F": 43,
      "G": 44,
      "H": 45,
      "I": 46,
      "J": 47,
      "K": 48,
      "L": 49,
      "M": 50,
      "N": 51,
      "O": 52,
      "P": 53,
      "Q": 54,
      "R": 55,
      "S": 56,
      "T": 57,
      "U": 58,
      "V": 59,
      "W": 60,
      "X": 61,
      "Y": 62,
      "Z": 63,
      "[": 64,
      "\\": 65,
      "]": 66,
      "^": 67,
      "_": 68,
      "`": 69,
      "a": 70,
      "b": 71,
      "c": 72,
      "d": 73,
      "e": 74,
      "f": 75,
      "g": 76,
      "h": 77,
      "i": 78,
      "j": 79,
      "k": 80,
      "l": 81,
      "m": 82,
      "n": 83,
      "o": 84,
      "p": 85,
      "q": 86,
      "r": 87,
      "s": 88,
      "t": 89,
      "u": 90,
      "v": 91,
      "w": 92,
      "x": 93,
      "y": 94,
      "z": 95,
      "{": 96,
      "|": 97,
      "}": 98,
      "~": 99,
      "¡": 100,
      "¢": 101,
      "£": 102,
      "¤": 103,
      "¥": 104,
      "¦": 105,
      "§": 106,
      "¨": 107,
      "©": 108,
      "ª": 109,
      "«": 110,
      "¬": 111,
      "®": 112,
      "¯": 113,
      "°": 114,
      "±": 115,
      "²": 116,
      "³": 117,
      "´": 118,
      "µ": 119,
      "¶": 120,
      "·": 121,
      "¸": 122,
      "¹": 123,
      "º": 124,
      "»": 125,
      "¼": 126,
      "½": 127,
      "¾": 128,
      "¿": 129,
      "Â": 130,
      "Ã": 131,
      "Ä": 132,
      "Å": 133,
      "Æ": 134,
      "Ç": 135,
      "È": 136,
      "É": 137,
      "Ê": 138,
      "Ë": 139,
      "Ì": 140,
      "Í": 141,
      "Î": 142,
      "Ï": 143,
      "Ð": 144,
      "Ñ": 145,
      "Ò": 146,
      "Ó": 147,
      "Ô": 148,
      "Õ": 149,
      "Ö": 150,
      "×": 151,
      "Ø": 152,
      "Ù": 153,
      "Ú": 154,
      "Û": 155,
      "Ü": 156,
      "Ý": 157,
      "ß": 158,
      "à": 159,
      "á": 160,
      "â": 161,
      "ã": 162,
      "ä": 163,
      "å": 164,
      "æ": 165,
      "ç": 166,
      "è": 167,
      "é": 168,
      "ê": 169,
      "ë": 170,
      "ì": 171,
      "í": 172,
      "î": 173,
      "ï": 174,
      "ð": 175,
      "ñ": 176,
      "ó": 177,
      "ô": 178,
      "Ā": 179,
      "ā": 180,
      "ă": 181,
      "ą": 182,
      "Ć": 183,
      "Ĉ": 184,
      "ĉ": 185,
      "Ċ": 186,
      "ċ": 187,
      "Č": 188,
      "č": 189,
      "ď": 190,
      "Đ": 191,
      "đ": 192,
      "Ē": 193,
      "Ė": 194,
      "ė": 195,
      "Ę": 196,
      "ę": 197,
      "Ě": 198,
      "ě": 199,
      "Ĝ": 200,
      "ĝ": 201,
      "ğ": 202,
      "Ġ": 203,
      "ġ": 204,
      "Ģ": 205,
      "ģ": 206,
      "Ĥ": 207,
      "ĥ": 208,
      "Ħ": 209,
      "ħ": 210,
      "Ĩ": 211,
      "ĩ": 212,
      "Ī": 213,
      "ī": 214,
      "Ĭ": 215,
      "ĭ": 216,
      "Į": 217,
      "į": 218,
      "İ": 219,
      "ı": 220,
      "Ĳ": 221,
      "ĳ": 222,
      "Ĵ": 223,
      "ĵ": 224,
      "Ķ": 225,
      "ķ": 226,
      "ĸ": 227,
      "Ĺ": 228,
      "ĺ": 229,
      "Ļ": 230,
      "ļ": 231,
      "Ľ": 232,
      "ľ": 233,
      "Ŀ": 234,
      "ŀ": 235,
      "Ł": 236,
      "ł": 237,
      "Ń": 238,
      "ä¸": 239,
      "ĠĠ": 240,
      "çļ": 241,
      "çļĦ": 242,
      "ï¼": 243,
      "äº": 244,
      "ï¼Į": 245,
      "ĠĠĠĠ": 246,
      "in": 247,
      "Ġa": 248,
      "Ġt": 249,
      "ãĢ": 250,
      "åħ": 251,
      "åı": 252,
      "re": 253,
      "æľ": 254,
      "ä»": 255,
      "å®": 256,
      "on": 257,
      "åĪ": 258,
      "he": 259,
      "--": 260,
      "ti": 261,
      "å¤": 262,
      "åĲ": 263,
      "ç»": 264,
      "çĶ": 265,
      "è¿": 266,
      "ä½": 267,
      "en": 268,
      "åľ": 269,
      "åĽ": 270,
      "åĬ": 271,
      "ãĢĤ": 272,
      "ä¹": 273,
      "Ġo": 274,
      "æĸ": 275,
      "te": 276,
      "æĺ": 277,
      "Ġc": 278,
      "Ġs": 279,
      "Ġthe": 280,
      "ĠĠĠĠĠĠĠĠ": 281,
      "al": 282,
      "å¹": 283,
      "æĪ": 284,
      "Ġin": 285,
      "Ġp": 286,
      "è®": 287,
      "Ġan": 288,
      "åŃ": 289,
      "or": 290,
      "ä¼": 291,
      "è¯": 292,
      "æĹ": 293,
      "Ġw": 294,
      "æĿ": 295,
      "er": 296,
      "Ġof": 297,
      "es": 298,
      "åº": 299,
      "ä¸Ģ": 300,
      "is": 301,
      "æĺ¯": 302,
      "åĨ": 303,
      "----": 304,
      "an": 305,
      "åľ¨": 306,
      "ä¸Ń": 307,
      "å°": 308,
      "ro": 309,
      "åį": 310,
      "åĴ": 311,
      "tion": 312,
      "æķ": 313,
      "å¯": 314,
      "åĴĮ": 315,
      "ãĢģ": 316,
      "Ġm": 317,
      "ed": 318,
      "æĶ": 319,
      "éĩ": 320,
      "åĽ½": 321,
      "ä¸º": 322,
      "å¼": 323,
      "åĮ": 324,
      "Ġand": 325,
      "Ġd": 326,
      "æĢ": 327,
      "Ġf": 328,
      "äºº": 329,
      "è¡": 330,
      "it": 331,
      "ic": 332,
      "å±": 333,
      "as": 334,
      "Ġb": 335,
      "æ°": 336,
      "ar": 337,
      "çĽ": 338,
      "èĢ": 339,
      "ç§": 340,
      "æľī": 341,
      "è§": 342,
      "âĢ": 343,
      "æī": 344,
      "éĢ": 345,
      "ing": 346,
      "æ³": 347,
      "å¾": 348,
      "æŃ": 349,
      "åĩ": 350,
      "å·": 351,
      "è´": 352,
      "at": 353,
      "ä¿": 354,
      "èĥ": 355,
      "çİ": 356,
      "åŁ": 357,
      "ä¸į": 358,
      "Ġ(": 359,
      "æĬ": 360,
      "le": 361,
      "å¤§": 362,
      "åŃ¦": 363,
      "Ġre": 364,
      "å¹´": 365,
      "ent": 366,
      "ä»¥": 367,
      "å½": 368,
      "å¸": 369,
      "åıĳ": 370,
      "æł": 371,
      "äºĨ": 372,
      "el": 373,
      "éĻ": 374,
      "èĩ": 375,
      "èµ": 376,
      "çĶŁ": 377,
      "¦ģ": 378,
      "ĠĠĠĠĠĠĠĠĠĠĠĠĠĠĠĠ": 379,
      "æ³ķ": 380,
      "Ġto": 381,
      "çĲ": 382,
      "Ġe": 383,
      "è¦ģ": 384,
      "æµ": 385,
      "å¯¹": 386,
      "éĿ": 387,
      "çŃ": 388,
      "çī": 389,
      "ation": 390,
      "ate": 391,
      "æŀ": 392,
      "è¡Į": 393,
      "æİ": 394,
      "äºİ": 395,
      "ä¸İ": 396,
      "å¿": 397,
      "éĹ": 398,
      "çĶ¨": 399,
      "çĲĨ": 400,
      "é¢": 401,
      "æĪĲ": 402,
      "æĹ¶": 403,
      "å®¶": 404,
      "us": 405,
      "èĥ½": 406,
      "åİ": 407,
      "ec": 408,
      "çº": 409,
      "åĮĸ": 410,
      "ä¸ļ": 411,
      "ä¼ļ": 412,
      "ä¸»": 413,
      "ul": 414,
      "å®ŀ": 415,
      "éĥ": 416,
      "ä½ľ": 417,
      "æĸ¹": 418,
      "æĮ": 419,
      "ä¸Ĭ": 420,
      "ä¹ĭ": 421,
      "--------": 422,
      "æĢ§": 423,
      "æ²": 424,
      "å®ļ": 425,
      "ä½ĵ": 426,
      "om": 427,
      "åĩº": 428,
      "ig": 429,
      "Ġth": 430,
      "åľ°": 431,
      "ac": 432,
      "Ġn": 433,
      "è¿Ľ": 434,
      "Ġh": 435,
      "ä¸ª": 436,
      "åĪĨ": 437,
      "ä¾": 438,
      "==": 439,
      "ly": 440,
      "åĪ¶": 441,
      "æľ¬": 442,
      "ĠT": 443,
      "åĬ¨": 444,
      "åĲĮ": 445,
      "è¾": 446,
      "ç«": 447,
      "çİ°": 448,
      "ç¨": 449,
      "åı¯": 450,
      "os": 451,
      "æĶ¿": 452,
      "åĳ": 453,
      "ç»ı": 454,
      "åĲİ": 455,
      "ç¤": 456,
      "è¿Ļ": 457,
      "åĬĽ": 458,
      "im": 459,
      "ur": 460,
      "ve": 461,
      "ol": 462,
      "äº§": 463,
      "åħ¶": 464,
      "æı": 465,
      "éķ": 466,
      "åĲĪ": 467,
      "å±ķ": 468,
      "id": 469,
      "çŃī": 470,
      "åħ³": 471,
      "èĢĮ": 472,
      "å»": 473,
      "un": 474,
      "éĩį": 475,
      "ç³": 476,
      "æ°ĳ": 477,
      "âĢľ": 478,
      "ä¿¡": 479,
      "æĸ°": 480,
      "âĢĿ": 481,
      "ith": 482,
      "Ġl": 483,
      "ï¼ī": 484,
      "ter": 485,
      "æ±": 486,
      "ï¼Ī": 487,
      "ä¹ī": 488,
      "éĺ": 489,
      "ä»£": 490,
      "ç®": 491,
      "é«": 492,
      "æĿ¥": 493,
      "Ġwith": 494,
      "ç³»": 495,
      "é«ĺ": 496,
      "åħ¨": 497,
      "res": 498,
      "åī": 499,
      "æį": 500,
      "èĩª": 501,
      "æĸĩ": 502,
      "è¿ĩ": 503,
      "et": 504,
      "Ġg": 505,
      "åºĶ": 506,
      "éķ¿": 507,
      "åĪ°": 508,
      "åº¦": 509,
      "æ´": 510,
      "èĤ": 511,
      "æĭ": 512,
      "ere": 513,
      "å·¥": 514,
      "æķĻ": 515,
      "å»º": 516,
      "00": 517,
      "å¥": 518,
      "ce": 519,
      "æĦ": 520,
      "æĥ": 521,
      "éģ": 522,
      "Ġfor": 523,
      "ä¸ĭ": 524,
      "Ġpro": 525,
      "ç¬": 526,
      "éĿ¢": 527,
      "il": 528,
      "è°": 529,
      "åĪ©": 530,
      "åıĳå±ķ": 531,
      "Ġst": 532,
      "æ¯": 533,
      "ot": 534,
      "åĨħ": 535,
      "æķ°": 536,
      "Ġ1": 537,
      "èĢħ": 538,
      "ç½": 539,
      "ĠC": 540,
      "ç¤¾": 541,
      "¦Ĥ": 542,
      "Ġcon": 543,
      "è½": 544,
      "æıĲ": 545,
      "çł": 546,
      "åŁº": 547,
      "ç¨ĭ": 548,
      "ati": 549,
      "çŁ": 550,
      "åĵ": 551,
      "ĠA": 552,
      "å¤ļ": 553,
      "Ġas": 554,
      "æīĢ": 555,
      "if": 556,
      "éĥ¨": 557,
      "ç©": 558,
      "ow": 559,
      "è®¾": 560,
      "éļ": 561,
      "æĪĺ": 562,
      "am": 563,
      "ä¸ī": 564,
      "å¢": 565,
      "åĽł": 566,
      "åŁİ": 567,
      "ell": 568,
      "Ġis": 569,
      "éĢļ": 570,
      "åĢ": 571,
      "[@": 572,
      "ç¡": 573,
      "èµĦ": 574,
      "Ġv": 575,
      "um": 576,
      "æľº": 577,
      "çī©": 578,
      "äºĭ": 579,
      "æĿĥ": 580,
      "çĽ¸": 581,
      "Ġex": 582,
      "ä¹Ł": 583,
      "ated": 584,
      "çķ": 585,
      "ĠI": 586,
      "æ¬": 587,
      "å°Ĩ": 588,
      "åıĬ": 589,
      "åĬł": 590,
      "uc": 591,
      "ç§į": 592,
      "æĹ¥": 593,
      "ç»Ł": 594,
      "åħ¬": 595,
      "åŃĲ": 596,
      "åĬ¡": 597,
      "æĽ": 598,
      "ç¤¾ä¼ļ": 599,
      "èģ": 600,
      "ĠS": 601,
      "è·": 602,
      "oc": 603,
      "å¹¶": 604,
      "è¶": 605,
      "æĻ": 606,
      "å½ĵ": 607,
      "od": 608,
      "éĩı": 609,
      "ut": 610,
      "ted": 611,
      "è§Ħ": 612,
      "å¹³": 613,
      "ab": 614,
      "åīį": 615,
      "æ²»": 616,
      "ä¿Ŀ": 617,
      "ç¬¬": 618,
      "æŃ¤": 619,
      "å¼Ģ": 620,
      "si": 621,
      "æį®": 622,
      "é¡": 623,
      "å°±": 624,
      "ä¸ŃåĽ½": 625,
      "ä»İ": 626,
      "ç«ĭ": 627,
      "éĹ´": 628,
      "æĺİ": 629,
      "æĪĳ": 630,
      "æŃ£": 631,
      "åĿ": 632,
      "ts": 633,
      "å¦Ĥ": 634,
      "æ¸": 635,
      "Ġthat": 636,
      "ç»ĵ": 637,
      "ri": 638,
      "**": 639,
      "ĠĠĠĠĠĠĠĠĠĠĠĠĠĠĠĠĠĠĠĠĠĠĠĠĠĠĠĠĠĠĠĠ": 640,
      "Ġde": 641,
      "ra": 642,
      "çĤ": 643,
      "å¼ı": 644,
      "tic": 645,
      "åħ¥": 646,
      "ä»ĸ": 647,
      "Ġbe": 648,
      "åĨĽ": 649,
      "ity": 650,
      "å¾Ĺ": 651,
      "æľŁ": 652,
      "ment": 653,
      "ag": 654,
      "ç®¡": 655,
      "çĶ±": 656,
      "ä½¿": 657,
      "è¢": 658,
      "æĪĸ": 659,
      "ud": 660,
      "èī": 661,
      "çľ": 662,
      "20": 663,
      "çłĶ": 664,
      "çĶ°": 665,
      "Ġwas": 666,
      "åİŁ": 667,
      "çī¹": 668,
      "çĦ": 669,
      "åģ": 670,
      "æľĪ": 671,
      "op": 672,
      "ç¾": 673,
      "Ġon": 674,
      "----------------": 675,
      ").": 676,
      "ver": 677,
      "Ġwere": 678,
      "äºĮ": 679,
      "è®¡": 680,
      "Ġal": 681,
      "ir": 682,
      "ĠP": 683,
      "æľ¯": 684,
      "åĲĳ": 685,
      "æĬĢ": 686,
      "ä»¬": 687,
      "æµİ": 688,
      "è§£": 689,
      "====": 690,
      "se": 691,
      "å¼º": 692,
      "ĠThe": 693,
      "æŁ": 694,
      "çĿ": 695,
      "yp": 696,
      "é¢ĺ": 697,
      "åįģ": 698,
      "å¤ĸ": 699,
      "è®º": 700,
      "æŀĦ": 701,
      "è¡¨": 702,
      "æĦı": 703,
      "å½¢": 704,
      "æģ": 705,
      "Ġcell": 706,
      "å¸Ĥ": 707,
      "è¢«": 708,
      "åħ±": 709,
      "æ°ı": 710,
      "ĠM": 711,
      "og": 712,
      "ç»ıæµİ": 713,
      "Ġby": 714,
      "é¢Ĩ": 715,
      "ç§ĳ": 716,
      "åıĺ": 717,
      "ç±": 718,
      "æº": 719,
      "ç©¶": 720,
      "è´¨": 721,
      "æľĢ": 722,
      "å¿ĥ": 723,
      "çĦ¶": 724,
      "çĽ®": 725,
      "æĿ¡": 726,
      "ç´": 727,
      "up": 728,
      "ys": 729,
      "éľ": 730,
      "éĽ": 731,
      "æĮģ": 732,
      "çĤ¹": 733,
      "åħļ": 734,
      "åĮº": 735,
      "ä½į": 736,
      "æłĩ": 737,
      "åħĥ": 738,
      "her": 739,
      "Ġac": 740,
      "ä»»": 741,
      "å°ı": 742,
      "æ¶": 743,
      "Ġ\\": 744,
      "å§": 745,
      "å¯¼": 746,
      "ä½Ĩ": 747,
      "çłĶç©¶": 748,
      "ĠH": 749,
      "15": 750,
      "èĤ²": 751,
      "Ġor": 752,
      "æ±Ĥ": 753,
      "Ġres": 754,
      "Ġcom": 755,
      "ure": 756,
      "åŀ": 757,
      "æĶ¹": 758,
      "éĹ®": 759,
      "rom": 760,
      "åħ·": 761,
      "å¤©": 762,
      "th": 763,
      "æĽ´": 764,
      "æķĪ": 765,
      "Ġ2": 766,
      "æ¡": 767,
      "ical": 768,
      "ç»Ħ": 769,
      "qu": 770,
      "åĲĦ": 771,
      "æĢĿ": 772,
      "è®¤": 773,
      "éª": 774,
      "å®ī": 775,
      "æĮĩ": 776,
      "æºĲ": 777,
      "ï¼ļ": 778,
      "åĪĽ": 779,
      "tr": 780,
      "å±±": 781,
      "ç¥": 782,
      "ä¼ł": 783,
      "åĲį": 784,
      "ä»¶": 785,
      "æ´»": 786,
      "æ¬¡": 787,
      "æĹł": 788,
      "Ġare": 789,
      "ents": 790,
      "éĥ½": 791,
      "åĪĻ": 792,
      "æ°´": 793,
      "ç¼": 794,
      "di": 795,
      "vel": 796,
      "ç±»": 797,
      "Ġim": 798,
      "ant": 799,
      "é£": 800,
      "åľº": 801,
      "ç¡®": 802,
      "æ·": 803,
      "æ¨": 804,
      "åĽ½å®¶": 805,
      "è¯´": 806,
      "èµ·": 807,
      "éģĵ": 808,
      "éľĢ": 809,
      "Ġexp": 810,
      "èĲ": 811,
      "è¿Ľè¡Į": 812,
      "éĩĳ": 813,
      "ä¸Ģä¸ª": 814,
      "ãĢĬ": 815,
      "è¯Ĩ": 816,
      "ãĢĭ": 817,
      "åĨ³": 818,
      "çĻ": 819,
      "æĥħ": 820,
      "ain": 821,
      "åı¯ä»¥": 822,
      "ä¸ĸ": 823,
      "çĸ": 824,
      "æİ¨": 825,
      "Ġr": 826,
      "ä¸»ä¹ī": 827,
      "çŁ¥": 828,
      "åŀĭ": 829,
      "çĶµ": 830,
      "Ġdis": 831,
      "å¢ŀ": 832,
      "è°ĥ": 833,
      "æŀľ": 834,
      "åĵģ": 835,
      "Ġus": 836,
      "æ®": 837,
      "ase": 838,
      "éĹ®é¢ĺ": 839,
      "ĠD": 840,
      "ä»·": 841,
      "èĬ": 842,
      "ine": 843,
      "äº¤": 844,
      "Ġ*": 845,
      "æĬĢæľ¯": 846,
      "æµģ": 847,
      "sion": 848,
      "ç²": 849,
      "éĢł": 850,
      "ä¼ģ": 851,
      "ad": 852,
      "çĹ": 853,
      "çĿĢ": 854,
      "ĠF": 855,
      "åı²": 856,
      "ff": 857,
      "ay": 858,
      "Ġat": 859,
      "å¤Ħ": 860,
      "),": 861,
      "ç»ĩ": 862,
      "æ¨¡": 863,
      "æİ¥": 864,
      "ess": 865,
      "éħ": 866,
      "åĳĺ": 867,
      "å²": 868,
      "##": 869,
      "è§Ĥ": 870,
      "Ġinc": 871,
      "äºĽ": 872,
      "åŃĺ": 873,
      "å¸¸": 874,
      "ä¸¤": 875,
      "Ġch": 876,
      "è¯ģ": 877,
      "Ġ0": 878,
      "æķĻèĤ²": 879,
      "ĠR": 880,
      "ore": 881,
      "ĠN": 882,
      "é©": 883,
      "å¥½": 884,
      "æĢģ": 885,
      "ç¦": 886,
      "Ġfrom": 887,
      "éĶ": 888,
      "åıĸ": 889,
      "è½¬": 890,
      "åĨľ": 891,
      "ĠB": 892,
      "åıĹ": 893,
      "åıį": 894,
      "ä¼ģä¸ļ": 895,
      "æĬ¤": 896,
      "èĮ": 897,
      "è¿Ĳ": 898,
      "Ġwh": 899,
      "19": 900,
      "Ġstud": 901,
      "ph": 902,
      "ï¼Ľ": 903,
      "æ¯Ķ": 904,
      "ä¹ł": 905,
      "å·Ŀ": 906,
      "ub": 907,
      "çİĩ": 908,
      "éĻ¢": 909,
      "ç®¡çĲĨ": 910,
      "äººæ°ĳ": 911,
      "è¿ĺ": 912,
      "æĶ¶": 913,
      "pl": 914,
      "10": 915,
      "ype": 916,
      "Ġne": 917,
      "ign": 918,
      "éĻħ": 919,
      "und": 920,
      "çİ¯": 921,
      "éĿ©": 922,
      "æģ¯": 923,
      "éĢļè¿ĩ": 924,
      "èĩ³": 925,
      "å¾ĭ": 926,
      "åĽĽ": 927,
      "èĭ": 928,
      "Ġcells": 929,
      "orm": 930,
      "èģĶ": 931,
      "ĠE": 932,
      "ref": 933,
      "éĵ": 934,
      "æľį": 935,
      "ers": 936,
      "åĩĨ": 937,
      "åİĨ": 938,
      "Ġpati": 939,
      "å»ºè®¾": 940,
      "æĶ¯": 941,
      "åºľ": 942,
      "ä¾Ľ": 943,
      "Ġ3": 944,
      "ç½ĳ": 945,
      "è¿ĳ": 946,
      "æĢ»": 947,
      "èĻ": 948,
      "ies": 949,
      "å£": 950,
      "ç¾İ": 951,
      "æĸ½": 952,
      "ä¹¦": 953,
      "æŃ¦": 954,
      "red": 955,
      "igh": 956,
      "ug": 957,
      "ç§Ģ": 958,
      "èĪ": 959,
      "ä¸ľ": 960,
      "Ġle": 961,
      "å·¥ä½ľ": 962,
      "Ġcomp": 963,
      "åķ": 964,
      "å·²": 965,
      "ĠIn": 966,
      "çĽ´": 967,
      "è¾¾": 968,
      "èį": 969,
      "çĬ": 970,
      "å¢ĥ": 971,
      "æĥ³": 972,
      "Ġhe": 973,
      "Ġad": 974,
      "ran": 975,
      "ib": 976,
      "por": 977,
      "åĢ¼": 978,
      "duc": 979,
      "åĮĹ": 980,
      "éĽĨ": 981,
      "åĬ¿": 982,
      "è·¯": 983,
      "éĩįè¦ģ": 984,
      "Ġse": 985,
      "è®°": 986,
      "ch": 987,
      "åħĪ": 988,
      "éĹ¨": 989,
      "çķĮ": 990,
      "åĳ½": 991,
      "ific": 992,
      "å®Į": 993,
      "Ġsh": 994,
      "å¾·": 995,
      "åĮħ": 996,
      "èº": 997,
      "ç³»ç»Ł": 998,
      "ous": 999,
      "Ġgen": 1000,
      "åįķ": 1001,
      "æĹı": 1002,
      "iz": 1003,
      "åķĨ": 1004,
      "çŃĸ": 1005,
      "ĊĠ": 1006,
      "æķ°æį®": 1007,
      "æĶ¾": 1008,
      "æŃ¥": 1009,
      "è¥": 1010,
      "åı¸": 1011,
      "çº§": 1012,
      "åŁŁ": 1013,
      "è®®": 1014,
      "åŃ¦çĶŁ": 1015,
      "æł·": 1016,
      "èī²": 1017,
      "å¿ħ": 1018,
      "å¤į": 1019,
      "pec": 1020,
      "æł¹": 1021,
      "æĸŃ": 1022,
      "é¡¹": 1023,
      "è¥¿": 1024,
      "ç´ł": 1025,
      "èº«": 1026,
      "æĿĳ": 1027,
      "éªĮ": 1028,
      "æ¡Ī": 1029,
      "ations": 1030,
      "tive": 1031,
      "åĸ": 1032,
      "Ġinf": 1033,
      "çĽĬ": 1034,
      "é¦": 1035,
      "æ·±": 1036,
      "æĸ¹éĿ¢": 1037,
      "\\]": 1038,
      "è±": 1039,
      "åĪ«": 1040,
      "äºĶ": 1041,
      "æķ´": 1042,
      "Ġcan": 1043,
      "tor": 1044,
      "](": 1045,
      "ä¸ĵ": 1046,
      "able": 1047,
      "å½±": 1048,
      "st": 1049,
      "tiv": 1050,
      "ence": 1051,
      "è£": 1052,
      "åº·": 1053,
      "Ġen": 1054,
      "è§ģ": 1055,
      "Ġper": 1056,
      "ä¸»è¦ģ": 1057,
      "åį³": 1058,
      "åĪ¶åº¦": 1059,
      "ä¿¡æģ¯": 1060,
      "ç¥ŀ": 1061,
      "èĮĥ": 1062,
      "å¼ķ": 1063,
      "ĠĠĠ": 1064,
      "ĠG": 1065,
      "èŀ": 1066,
      "èĦ": 1067,
      "æĸĩåĮĸ": 1068,
      "çģ": 1069,
      "ä½ľä¸º": 1070,
      "é£İ": 1071,
      "ç§°": 1072,
      "Ġcont": 1073,
      "åĻ": 1074,
      "åıĤ": 1075,
      "åĽ¾": 1076,
      "æĹ¶ä»£": 1077,
      "å®¹": 1078,
      "CR": 1079,
      "å¤ĩ": 1080,
      "){": 1081,
      "åĬŁ": 1082,
      "æľª": 1083,
      "éĿŀ": 1084,
      "ary": 1085,
      "å®ŀçİ°": 1086,
      "è¾ĥ": 1087,
      "æł¼": 1088,
      "ons": 1089,
      "æĪĳä»¬": 1090,
      "æī¿": 1091,
      "æµĭ": 1092,
      "Ġ\\[": 1093,
      "åħ³ç³»": 1094,
      "èŀį": 1095,
      "è¯¥": 1096,
      "Ġpatients": 1097,
      "Ġass": 1098,
      "çĹħ": 1099,
      "èģĮ": 1100,
      "ç»Ĩ": 1101,
      "çĪ": 1102,
      "åħ»": 1103,
      "åĵį": 1104,
      "ä¾Ŀ": 1105,
      "ç¡Ģ": 1106,
      "12": 1107,
      "è´£": 1108,
      "åŁºç¡Ģ": 1109,
      "type": 1110,
      "ç®Ĺ": 1111,
      "ĠL": 1112,
      "çº¿": 1113,
      "äºī": 1114,
      "ge": 1115,
      "ther": 1116,
      "èĢĥ": 1117,
      "ä¾ĭ": 1118,
      "ip": 1119,
      "æ¸ħ": 1120,
      "éĤ": 1121,
      "age": 1122,
      "em": 1123,
      "ä¼ĺ": 1124,
      "vi": 1125,
      "èĬĤ": 1126,
      "ç¤º": 1127,
      "è¯¾": 1128,
      "iff": 1129,
      "çº¦": 1130,
      "æľįåĬ¡": 1131,
      "ç»Ń": 1132,
      "åĻ¨": 1133,
      "æİ§": 1134,
      "è¿ĩç¨ĭ": 1135,
      "Ġha": 1136,
      "eren": 1137,
      "æ£": 1138,
      "æ»": 1139,
      "Ġsign": 1140,
      "ĠW": 1141,
      "å¸Ĥåľº": 1142,
      "å¸Ī": 1143,
      "èĩ£": 1144,
      "åľŁ": 1145,
      "]\\]": 1146,
      "åħī": 1147,
      "æĺĵ": 1148,
      "æµ·": 1149,
      "ression": 1150,
      "æīį": 1151,
      "ap": 1152,
      "å®ĥ": 1153,
      "Ġthis": 1154,
      "éľĢè¦ģ": 1155,
      "æĬĬ": 1156,
      "è¶³": 1157,
      "èĹ": 1158,
      "éĴ": 1159,
      "ç²¾": 1160,
      "æŀģ": 1161,
      "ä¸ŃçļĦ": 1162,
      "å±Ĥ": 1163,
      "Ġwe": 1164,
      "è¯Ń": 1165,
      "ich": 1166,
      "éĻ©": 1167,
      "åŃĹ": 1168,
      "=\"": 1169,
      "Ġcl": 1170,
      "olog": 1171,
      "å®Ī": 1172,
      "](#": 1173,
      "\"}": 1174,
      "Ġdi": 1175,
      "æīĭ": 1176,
      "ä¼Ĺ": 1177,
      "Ġco": 1178,
      "æĦŁ": 1179,
      "Ġnot": 1180,
      "æ²¡": 1181,
      "ular": 1182,
      "Ġ4": 1183,
      "è§Ĩ": 1184,
      "ç»´": 1185,
      "16": 1186,
      "åįı": 1187,
      "ia": 1188,
      "ffec": 1189,
      "est": 1190,
      "èĥ½åĬĽ": 1191,
      "å°ĳ": 1192,
      "æĺ¾": 1193,
      "æĬķ": 1194,
      "åıª": 1195,
      "Ġdiff": 1196,
      "æ®µ": 1197,
      "è¯Ħ": 1198,
      "ä¸įåĲĮ": 1199,
      "å½±åĵį": 1200,
      "åı£": 1201,
      "èĩ´": 1202,
      "ction": 1203,
      "åħ·æľī": 1204,
      "å¹¿": 1205,
      "åİĨåı²": 1206,
      "enti": 1207,
      "è¶Ĭ": 1208,
      "Ġ5": 1209,
      "èİ": 1210,
      "æł¸": 1211,
      "æĪĳåĽ½": 1212,
      "é©¬": 1213,
      "æĪĲä¸º": 1214,
      "çĲĨè®º": 1215,
      "ath": 1216,
      "Ġ\\[[@": 1217,
      "Ġpre": 1218,
      "ç»Ļ": 1219,
      "åĿļ": 1220,
      "è§Ħå®ļ": 1221,
      "æĸ¹æ³ķ": 1222,
      "ç»Ħç»ĩ": 1223,
      "è±¡": 1224,
      "å¾ģ": 1225,
      "åıĪ": 1226,
      "ved": 1227,
      "çĽĳ": 1228,
      "è¨": 1229,
      "Ġap": 1230,
      "çĶŁäº§": 1231,
      "åİ»": 1232,
      "and": 1233,
      "åĲī": 1234,
      "éļı": 1235,
      "çĥ": 1236,
      "ç»§": 1237,
      "æŀĲ": 1238,
      "reas": 1239,
      "NA": 1240,
      "========": 1241,
      "ä½İ": 1242,
      "åĪĴ": 1243,
      "çİ¯å¢ĥ": 1244,
      "ally": 1245,
      "ä½ĵç³»": 1246,
      "çķ¥": 1247,
      "ç§ĳåŃ¦": 1248,
      "æĻ¯": 1249,
      "ple": 1250,
      "æ°Ķ": 1251,
      "åĪĽæĸ°": 1252,
      "è¨Ģ": 1253,
      "å±Ģ": 1254,
      "ä½¿çĶ¨": 1255,
      "æ³ķå¾ĭ": 1256,
      "vid": 1257,
      "11": 1258,
      "æĬ¥": 1259,
      "æĶ¿åºľ": 1260,
      "Ġhave": 1261,
      "å®Ĺ": 1262,
      "ep": 1263,
      "åĽŀ": 1264,
      "èĲ¥": 1265,
      "åįĹ": 1266,
      "æĶ»": 1267,
      "ance": 1268,
      "çľĭ": 1269,
      "çª": 1270,
      "åŁºæľ¬": 1271,
      "ä¸ĩ": 1272,
      "å¸¦": 1273,
      "äºĴ": 1274,
      "å¿µ": 1275,
      "ä»¥åıĬ": 1276,
      "å§ĭ": 1277,
      "è¦ģæ±Ĥ": 1278,
      "éĢī": 1279,
      "ĠĠĠĠĠĠĠĠĠĠĠĠĠĠĠĠĠĠĠĠĠĠĠĠĠĠĠĠĠĠĠĠĠĠĠĠĠĠĠĠĠĠĠĠĠĠĠĠĠĠĠĠĠĠĠĠĠĠĠĠĠĠĠĠ": 1280,
      "è¡Įä¸º": 1281,
      "æ³¨": 1282,
      "ä½ķ": 1283,
      "æĪ·": 1284,
      "14": 1285,
      "æĸĻ": 1286,
      "Ġgro": 1287,
      "Ġpar": 1288,
      "çľŁ": 1289,
      "ĠO": 1290,
      "Ġwhich": 1291,
      "åĨµ": 1292,
      "å¸ĥ": 1293,
      "ill": 1294,
      "Ġstudy": 1295,
      "éĻĲ": 1296,
      "ä½ľçĶ¨": 1297,
      "çŁ³": 1298,
      "æıĲä¾Ľ": 1299,
      "ren": 1300,
      "rol": 1301,
      "åĨį": 1302,
      "å®īåħ¨": 1303,
      "åħ´": 1304,
      "åĬ©": 1305,
      "äº²": 1306,
      "çĭ": 1307,
      "æł¡": 1308,
      "åĸĦ": 1309,
      "éħį": 1310,
      "æĶ¹éĿ©": 1311,
      "--------------------------------": 1312,
      "ist": 1313,
      "ost": 1314,
      "Ġ[": 1315,
      "oci": 1316,
      "åºı": 1317,
      "å¤±": 1318,
      "åı¯èĥ½": 1319,
      "æ¶Ī": 1320,
      "ç©º": 1321,
      "åħµ": 1322,
      "éĩĩ": 1323,
      "æŁ¥": 1324,
      "åŃ¦ä¹ł": 1325,
      "ue": 1326,
      "æĤ": 1327,
      "çħ": 1328,
      "åĪĨæŀĲ": 1329,
      "Ġbet": 1330,
      "å¾Ī": 1331,
      "è´¹": 1332,
      "ç½®": 1333,
      "æķĻåŃ¦": 1334,
      "æ²¡æľī": 1335,
      "pro": 1336,
      "tions": 1337,
      "Ġanal": 1338,
      "éĢĤ": 1339,
      "çĬ¶": 1340,
      "rans": 1341,
      "æĶ¿æ²»": 1342,
      "æľĿ": 1343,
      "end": 1344,
      "éĻ¤": 1345,
      "ç§¯": 1346,
      "åįĩ": 1347,
      "Ġdifferen": 1348,
      "éĺ²": 1349,
      "æĸ¹å¼ı": 1350,
      "åĽ´": 1351,
      "13": 1352,
      "å®¡": 1353,
      "ä»ħ": 1354,
      "åħ¬åı¸": 1355,
      "å±ŀ": 1356,
      "Ġk": 1357,
      "æĴ": 1358,
      "æĭ¬": 1359,
      "åĲĮæĹ¶": 1360,
      "åįİ": 1361,
      "å½¢æĪĲ": 1362,
      "ç»ĵæŀĦ": 1363,
      "Ġab": 1364,
      "ative": 1365,
      "ä¸Ķ": 1366,
      "ä»Ĭ": 1367,
      "lec": 1368,
      "ion": 1369,
      "è´¢": 1370,
      "Ġinter": 1371,
      "ï¼īï¼Į": 1372,
      "Ġreg": 1373,
      "Ġit": 1374,
      "åĬ³": 1375,
      "ç»Ī": 1376,
      "Ġmod": 1377,
      "è¿°": 1378,
      "we": 1379,
      "æ±Ł": 1380,
      "èİ·": 1381,
      "ory": 1382,
      "æĢĿæĥ³": 1383,
      "éĢŁ": 1384,
      "Ġshow": 1385,
      "ress": 1386,
      "éĩĮ": 1387,
      "èĥľ": 1388,
      "èµĦæºĲ": 1389,
      "é¢Ħ": 1390,
      "ä¸ĸçķĮ": 1391,
      "å°±æĺ¯": 1392,
      "åŃĺåľ¨": 1393,
      "åģļ": 1394,
      "18": 1395,
      "ä¸Ģç§į": 1396,
      "è¯ķ": 1397,
      "è·µ": 1398,
      "éļ¾": 1399,
      "çİ°ä»£": 1400,
      "fig": 1401,
      "æ²³": 1402,
      "å¾Ģ": 1403,
      "é¡»": 1404,
      "åĽłæŃ¤": 1405,
      "ari": 1406,
      "éĺ¶": 1407,
      "è®©": 1408,
      "ding": 1409,
      "ç¤¾ä¼ļä¸»ä¹ī": 1410,
      "ata": 1411,
      "Ġ=": 1412,
      "Ġsub": 1413,
      "åħĭ": 1414,
      "åĪĹ": 1415,
      "Ġmet": 1416,
      "val": 1417,
      "åĳĬ": 1418,
      "åŁ¹": 1419,
      "æĻº": 1420,
      "Ġtrans": 1421,
      "Ġob": 1422,
      "Ġ[@": 1423,
      "åı°": 1424,
      "to": 1425,
      "Ġrec": 1426,
      "äººçļĦ": 1427,
      "Ġpl": 1428,
      "æĭħ": 1429,
      "æıĲåĩº": 1430,
      "éĩİ": 1431,
      "ting": 1432,
      "low": 1433,
      "ç»ľ": 1434,
      "å·±": 1435,
      "Fig": 1436,
      "æĶ¿çŃĸ": 1437,
      "ç¢": 1438,
      "Ġme": 1439,
      "Ġtre": 1440,
      "ĠĠĠĠĠĠĠĠĠĠĠĠ": 1441,
      "è¿ĻäºĽ": 1442,
      "é¦ĸ": 1443,
      "åĮħæĭ¬": 1444,
      "æŃ»": 1445,
      "Ġmic": 1446,
      "å®ŀè·µ": 1447,
      "æ¦Ĥ": 1448,
      "åĽ½éĻħ": 1449,
      "äº§ä¸ļ": 1450,
      "\",": 1451,
      "çĽ¸åħ³": 1452,
      "æıĲé«ĺ": 1453,
      "çŁ¥è¯Ĩ": 1454,
      "æ´»åĬ¨": 1455,
      "ome": 1456,
      "åºĶçĶ¨": 1457,
      "ç¾¤": 1458,
      "ĠU": 1459,
      "ä¹ħ": 1460,
      "åħ¶ä»ĸ": 1461,
      "Ġeffec": 1462,
      "pon": 1463,
      "è®¤ä¸º": 1464,
      "Ġprote": 1465,
      "æ£Ģ": 1466,
      "mun": 1467,
      "so": 1468,
      "åĨħå®¹": 1469,
      "éĺŁ": 1470,
      "ä¸°": 1471,
      "ä¿ĿæĬ¤": 1472,
      "all": 1473,
      "åĦ": 1474,
      "tem": 1475,
      "ong": 1476,
      "åĩ»": 1477,
      "åĶ": 1478,
      "éĻį": 1479,
      "åħŃ": 1480,
      "çĻ¾": 1481,
      "ven": 1482,
      "Ġactiv": 1483,
      "Ġanti": 1484,
      "éĥ¨åĪĨ": 1485,
      "ç¦»": 1486,
      "ween": 1487,
      "ä¹ĭéĹ´": 1488,
      "åĪĿ": 1489,
      "è®¾è®¡": 1490,
      "å¯º": 1491,
      "å»ºç«ĭ": 1492,
      "åı·": 1493,
      "ä¸¥": 1494,
      "ose": 1495,
      "ä»·åĢ¼": 1496,
      "ear": 1497,
      "æī§": 1498,
      "enc": 1499,
      "çĽ®æłĩ": 1500,
      "Ġbetween": 1501,
      "çªģ": 1502,
      "17": 1503,
      "å¼ł": 1504,
      "ãģ": 1505,
      "ight": 1506,
      "ates": 1507,
      "åĪ¤": 1508,
      "ĠTh": 1509,
      "Ġwhe": 1510,
      "åı¤": 1511,
      "ä¹Ī": 1512,
      "ç½ĳç»ľ": 1513,
      "ast": 1514,
      "]\\].": 1515,
      "é»": 1516,
      "èĳ": 1517,
      "tim": 1518,
      "æĥħåĨµ": 1519,
      "åħ«": 1520,
      "ial": 1521,
      "ach": 1522,
      "åıĳçĶŁ": 1523,
      "æłĩåĩĨ": 1524,
      "å¿«": 1525,
      "çħ§": 1526,
      "äº¬": 1527,
      "è¯·": 1528,
      "æ°ĳæĹı": 1529,
      "Ġlevel": 1530,
      "Ġind": 1531,
      "èĩªå·±": 1532,
      "âĢĶ": 1533,
      "æł¹æį®": 1534,
      "âĢĿï¼Į": 1535,
      "è´Ł": 1536,
      "form": 1537,
      "rib": 1538,
      "åĽ¢": 1539,
      "çĲĥ": 1540,
      "ors": 1541,
      "Ġcons": 1542,
      "å±ħ": 1543,
      "cer": 1544,
      "Ġsc": 1545,
      "æ¿": 1546,
      "lud": 1547,
      "å®³": 1548,
      "ak": 1549,
      "ç¨İ": 1550,
      "Ġsignific": 1551,
      "éļľ": 1552,
      "Ġmay": 1553,
      "å¹²": 1554,
      "tes": 1555,
      "Ġexpression": 1556,
      "åħ¨éĿ¢": 1557,
      "åħħ": 1558,
      "å£«": 1559,
      "å§Ķ": 1560,
      "Ġ6": 1561,
      "åĮ»": 1562,
      "Ġalso": 1563,
      "Ġresul": 1564,
      "å¯Į": 1565,
      "åĬ³åĬ¨": 1566,
      "åł": 1567,
      "åĿĩ": 1568,
      "ä¿ĥ": 1569,
      "æĪĸèĢħ": 1570,
      "æ°¸": 1571,
      "Ġfac": 1572,
      "000": 1573,
      "ä¹¡": 1574,
      "åį«": 1575,
      "å¯¹äºİ": 1576,
      "è¯ī": 1577,
      "Ġcor": 1578,
      "çĸĹ": 1579,
      "åĳ¨": 1580,
      "ugh": 1581,
      "å¿ł": 1582,
      "uld": 1583,
      "èĲ½": 1584,
      "Ġ-": 1585,
      "å²Ľ": 1586,
      "åĪĩ": 1587,
      "Ġthese": 1588,
      "ä¿¡éķ¿": 1589,
      "å¯Ĩ": 1590,
      "åĩı": 1591,
      "æīĵ": 1592,
      "ulation": 1593,
      "è¡ĮæĶ¿": 1594,
      "],": 1595,
      "ä¾¿": 1596,
      "å¿ħé¡»": 1597,
      "Ġun": 1598,
      "Ġanalys": 1599,
      "å®ĺ": 1600,
      "æİ§åĪ¶": 1601,
      "Ġdise": 1602,
      "ä¿®": 1603,
      "Ġhas": 1604,
      "Ġgroup": 1605,
      "æ¬¾": 1606,
      "Ġusing": 1607,
      "ç¬¬ä¸Ģ": 1608,
      "ç«ł": 1609,
      "æĹ¶éĹ´": 1610,
      "è¿Ļç§į": 1611,
      "çĶŁæ´»": 1612,
      "æĬĹ": 1613,
      "ied": 1614,
      "unction": 1615,
      "our": 1616,
      "æ¯ı": 1617,
      "å¿Ĺ": 1618,
      "Ġph": 1619,
      "è¿Ļä¸Ģ": 1620,
      "å¼Ĥ": 1621,
      "Ġbeen": 1622,
      "èĢģ": 1623,
      "çºª": 1624,
      "Ġdata": 1625,
      "åħļçļĦ": 1626,
      "lo": 1627,
      "alth": 1628,
      "å®ŀæĸ½": 1629,
      "è®¸": 1630,
      "Ġ([@": 1631,
      "èĥŀ": 1632,
      "æĿĲ": 1633,
      "çĮ": 1634,
      "éĤ£": 1635,
      "ä¸¾": 1636,
      "Ġpres": 1637,
      "Ġsignificant": 1638,
      "å¤®": 1639,
      "min": 1640,
      "ä¹Ŀ": 1641,
      "æİ¢": 1642,
      "åĥ": 1643,
      "ound": 1644,
      "æŁĲ": 1645,
      "è§Ĵ": 1646,
      "çĿ£": 1647,
      "The": 1648,
      "port": 1649,
      "è¿ŀ": 1650,
      "å·®": 1651,
      "çĶ±äºİ": 1652,
      "Ġinv": 1653,
      "äº§çĶŁ": 1654,
      "æİ¨è¿Ľ": 1655,
      "è¿ľ": 1656,
      "äº§åĵģ": 1657,
      "åľ°åĮº": 1658,
      "æĿ¾": 1659,
      "rain": 1660,
      "ual": 1661,
      "æľºåĪ¶": 1662,
      "è´£ä»»": 1663,
      "gen": 1664,
      "Ġrel": 1665,
      "æ»¡": 1666,
      "Ġca": 1667,
      "æİĴ": 1668,
      "åĪ©çĶ¨": 1669,
      "ating": 1670,
      "æĮī": 1671,
      "é¢ĨåŁŁ": 1672,
      "å¤Ł": 1673,
      "è´¨éĩı": 1674,
      "iti": 1675,
      "ä¸įæĸŃ": 1676,
      "åĢº": 1677,
      "rap": 1678,
      "atment": 1679,
      "åĬŀ": 1680,
      "èīº": 1681,
      "å¤ĦçĲĨ": 1682,
      "é£İéĻ©": 1683,
      "ç»ĩçĶ°": 1684,
      "åĦ¿": 1685,
      "åħ±åĲĮ": 1686,
      "çĭ¬": 1687,
      "æ¿Ģ": 1688,
      "è¡Ģ": 1689,
      "æ¢": 1690,
      "Ġno": 1691,
      "éĩĳèŀį": 1692,
      "ä¼łç»Ł": 1693,
      "ç§»": 1694,
      "çĻ½": 1695,
      "..": 1696,
      "å¦": 1697,
      "fter": 1698,
      "è§£åĨ³": 1699,
      "åı¦": 1700,
      "Ġy": 1701,
      "Ġ{": 1702,
      "æĿ¡ä»¶": 1703,
      "Ġused": 1704,
      "æ¼": 1705,
      "æĸ¯": 1706,
      "ä¼Ĭ": 1707,
      "one": 1708,
      "ç»Ĩèĥŀ": 1709,
      "ä»¤": 1710,
      "Ġprotein": 1711,
      "velop": 1712,
      "çĪ¶": 1713,
      "ility": 1714,
      "æ´¾": 1715,
      "ç¨³": 1716,
      "å®ŀéĻħ": 1717,
      "çł´": 1718,
      "Ġspec": 1719,
      "åĭ": 1720,
      "ech": 1721,
      "Ġsur": 1722,
      "å¤´": 1723,
      "jec": 1724,
      "æ°´å¹³": 1725,
      "èī¯": 1726,
      "pt": 1727,
      "ä¸Ńå¤®": 1728,
      "æľīæķĪ": 1729,
      "ros": 1730,
      "åĿļæĮģ": 1731,
      "å®ļçļĦ": 1732,
      "èµĸ": 1733,
      "æľºæŀĦ": 1734,
      "éŁ": 1735,
      "æİ¨åĬ¨": 1736,
      "ç½ª": 1737,
      "mo": 1738,
      "åİĭ": 1739,
      "ten": 1740,
      "åĲ¦": 1741,
      "æĳ": 1742,
      "äºĪ": 1743,
      "ew": 1744,
      "æ¯Ľ": 1745,
      "ä¸ĬçļĦ": 1746,
      "Ġinclud": 1747,
      "åģ¥": 1748,
      "æįŁ": 1749,
      "æĪ¿": 1750,
      "uch": 1751,
      "âĪ": 1752,
      "ç²¾ç¥ŀ": 1753,
      "è¶ħ": 1754,
      "ang": 1755,
      "ä»ĸä»¬": 1756,
      "ç¬¬äºĮ": 1757,
      "å¤ª": 1758,
      "oth": 1759,
      "æĢ§çļĦ": 1760,
      "åĬŁèĥ½": 1761,
      "Ġassoci": 1762,
      "Ġother": 1763,
      "Ġmed": 1764,
      "è¾¹": 1765,
      "æ³¢": 1766,
      "åĩł": 1767,
      "é¾": 1768,
      "é¡¹çĽ®": 1769,
      "ä¸įèĥ½": 1770,
      "Ġsup": 1771,
      "çİĭ": 1772,
      "Ġcontrol": 1773,
      "è½½": 1774,
      "yn": 1775,
      "æ¨¡å¼ı": 1776,
      "Ġsam": 1777,
      "å·ŀ": 1778,
      "åĬłå¼º": 1779,
      "Ġpos": 1780,
      "æķħ": 1781,
      "ä¸ĥ": 1782,
      "åĩºçİ°": 1783,
      "duced": 1784,
      "å¯Ł": 1785,
      "ç§ĢåĲī": 1786,
      "èį¯": 1787,
      "åĲĪåĲĮ": 1788,
      "osis": 1789,
      "Ġthan": 1790,
      "ç¼ĸ": 1791,
      "Ġund": 1792,
      "Ġtreatment": 1793,
      "å¥³": 1794,
      "dition": 1795,
      ".\"": 1796,
      "æĶ¯æĮģ": 1797,
      "æĪĺçķ¥": 1798,
      "æĹ©": 1799,
      "åıĮ": 1800,
      "èħ": 1801,
      "åıĳå±ķçļĦ": 1802,
      "Ġacc": 1803,
      "çĶŁæĢģ": 1804,
      "ack": 1805,
      "Ġ7": 1806,
      "ĠV": 1807,
      "ass": 1808,
      "Ġdevelop": 1809,
      "tal": 1810,
      "æĻ®": 1811,
      "æŃ¦çĶ°": 1812,
      "ĠÂ": 1813,
      "å¦Ĥæŀľ": 1814,
      "äººåĳĺ": 1815,
      "èĩªçĦ¶": 1816,
      "çº³": 1817,
      "åįĥ": 1818,
      "è®¡ç®Ĺ": 1819,
      "ä»į": 1820,
      "åıĺåĮĸ": 1821,
      "Ġ{#": 1822,
      "æĮ¥": 1823,
      "Ġro": 1824,
      "out": 1825,
      "å®¤": 1826,
      "è¿Ļä¸ª": 1827,
      "çļĦä¸Ģ": 1828,
      "Ġall": 1829,
      "æĬķèµĦ": 1830,
      "Ġvari": 1831,
      "ç»ĵåĲĪ": 1832,
      "ä¸´": 1833,
      "çŃĳ": 1834,
      "anc": 1835,
      "åĽłä¸º": 1836,
      "ree": 1837,
      "æ´¥": 1838,
      "åºĶå½ĵ": 1839,
      "30": 1840,
      "Ġstudies": 1841,
      "åįł": 1842,
      "Ġtum": 1843,
      "æħ": 1844,
      "åħį": 1845,
      "å¤§çļĦ": 1846,
      "å¼Ģå§ĭ": 1847,
      "Ġincreas": 1848,
      "æ²»çĲĨ": 1849,
      "ystem": 1850,
      "è´§": 1851,
      "æł¸å¿ĥ": 1852,
      "inical": 1853,
      "ever": 1854,
      "25": 1855,
      "å·²ç»ı": 1856,
      "âĢĿãĢĤ": 1857,
      "èĤ¡": 1858,
      "ard": 1859,
      "]).": 1860,
      "ä¿ĥè¿Ľ": 1861,
      "ym": 1862,
      "Ġdes": 1863,
      "Ġhigh": 1864,
      "Ġmore": 1865,
      "Ġag": 1866,
      "æĹ¥æľ¬": 1867,
      "Ġli": 1868,
      "éĩĬ": 1869,
      "Ġman": 1870,
      "åħ³äºİ": 1871,
      "æī©": 1872,
      "ms": 1873,
      "Ġmodel": 1874,
      "Ġfunction": 1875,
      "åĨľä¸ļ": 1876,
      "Ġanalysis": 1877,
      "21": 1878,
      "Ġ10": 1879,
      "Ġdisease": 1880,
      "hib": 1881,
      "Ġtheir": 1882,
      "æīĢæľī": 1883,
      "åŁİå¸Ĥ": 1884,
      "å·¥ç¨ĭ": 1885,
      "Ġar": 1886,
      "ct": 1887,
      "å½¢å¼ı": 1888,
      "ases": 1889,
      "çī¹èī²": 1890,
      "æķ°åŃĹ": 1891,
      "æī¹": 1892,
      "ä¸ĵä¸ļ": 1893,
      "Ġcol": 1894,
      "éĺ¶æ®µ": 1895,
      "ç»ĵæŀľ": 1896,
      "è£ħ": 1897,
      "ni": 1898,
      "éĺµ": 1899,
      "äº«": 1900,
      "æĸĹ": 1901,
      "ç§ĳæĬĢ": 1902,
      "èĪ¬": 1903,
      "åĤ": 1904,
      "éĥ¨éĹ¨": 1905,
      "äº¦": 1906,
      "åĨĻ": 1907,
      "éĢĲ": 1908,
      "ä¸ĢæŃ¥": 1909,
      "Ġ20": 1910,
      "çľģ": 1911,
      "æŃ¢": 1912,
      "Ġbut": 1913,
      "é¢Ĩå¯¼": 1914,
      "çļĦæĺ¯": 1915,
      "Ġpr": 1916,
      "Ġpath": 1917,
      "ç»¼": 1918,
      "ç¼º": 1919,
      "äºķ": 1920,
      "ä¸Ńåįİ": 1921,
      "èĻ½": 1922,
      "ult": 1923,
      "Ġcar": 1924,
      "Ġgene": 1925,
      "cl": 1926,
      "wo": 1927,
      "Ġtim": 1928,
      "åĲĪä½ľ": 1929,
      "Ġid": 1930,
      "ä¿Ŀéļľ": 1931,
      "æĹ¶æľŁ": 1932,
      "åİŁåĪĻ": 1933,
      "èµ°": 1934,
      "50": 1935,
      "æļ": 1936,
      "çļĦåıĳå±ķ": 1937,
      "èĥ½å¤Ł": 1938,
      "ä¸Ńå¿ĥ": 1939,
      "ä¾µ": 1940,
      "ç®Ģ": 1941,
      "Ġafter": 1942,
      "è®¨": 1943,
      "Ġimmun": 1944,
      "ogen": 1945,
      "ox": 1946,
      "ç¾İåĽ½": 1947,
      "ber": 1948,
      "è¯¾ç¨ĭ": 1949,
      "ä»ĭ": 1950,
      "Ġfactor": 1951,
      "ures": 1952,
      "200": 1953,
      "uring": 1954,
      "lu": 1955,
      "ile": 1956,
      "åıĤä¸İ": 1957,
      "å®¢": 1958,
      "Ġdec": 1959,
      "ä»£è¡¨": 1960,
      "æķĻå¸Ī": 1961,
      "entif": 1962,
      "åľ°æĸ¹": 1963,
      "åŁ¹åħ»": 1964,
      "Ġqu": 1965,
      "æĵ": 1966,
      "Ġ9": 1967,
      "åħ·ä½ĵ": 1968,
      "è¯Ŀ": 1969,
      "è¡¥": 1970,
      "ä¸»ä½ĵ": 1971,
      "ne": 1972,
      "ä¸įæĺ¯": 1973,
      "Ġ\"": 1974,
      "æ³ķéĻ¢": 1975,
      "ç»Łä¸Ģ": 1976,
      "rial": 1977,
      "å½Ĵ": 1978,
      "è¾ĵ": 1979,
      "åĽº": 1980,
      "éĢĢ": 1981,
      "act": 1982,
      "Ġstr": 1983,
      "Ġhealth": 1984,
      "ĠThis": 1985,
      "æĭ©": 1986,
      "22": 1987,
      "ser": 1988,
      "de": 1989,
      "åıĳçİ°": 1990,
      "Ġpo": 1991,
      "Â·": 1992,
      "atory": 1993,
      "åħ¸": 1994,
      "ä½Ĩæĺ¯": 1995,
      "å®ĮåĸĦ": 1996,
      "å°½": 1997,
      "å¨": 1998,
      "åĥı": 1999,
      "æĦıä¹ī": 2000,
      "âĪĴ": 2001,
      "iss": 2002,
      "ä¹Łæĺ¯": 2003,
      "uman": 2004,
      "cep": 2005,
      "der": 2006,
      "åħ¨çĲĥ": 2007,
      "æľ¨": 2008,
      "Ġ8": 2009,
      "æĸ°çļĦ": 2010,
      "ĠK": 2011,
      "èµĦæľ¬": 2012,
      "å¢ŀåĬł": 2013,
      "åį´": 2014,
      "ared": 2015,
      "åİ¿": 2016,
      "entr": 2017,
      "åĲ«": 2018,
      "äººç±»": 2019,
      "å¾®": 2020,
      "æĿĤ": 2021,
      "Ġout": 2022,
      "èĭ±": 2023,
      "ays": 2024,
      "tain": 2025,
      "è½¦": 2026,
      "Ġlevels": 2027,
      "ç´¢": 2028,
      "isk": 2029,
      "çĽ´æİ¥": 2030,
      "å®¶åº·": 2031,
      "åħ¨åĽ½": 2032,
      "æŁĵ": 2033,
      "é£Ł": 2034,
      "Ġcancer": 2035,
      "vely": 2036,
      "å½ķ": 2037,
      "éĶ®": 2038,
      "ãĢĢ": 2039,
      "ä»½": 2040,
      "ork": 2041,
      "yl": 2042,
      "ç¬¬ä¸ī": 2043,
      "åįķä½į": 2044,
      "åĪ©çĽĬ": 2045,
      "ä»ĺ": 2046,
      "ail": 2047,
      "åĪĳ": 2048,
      "Ġmo": 2049,
      "èĳĹ": 2050,
      "éľĢæ±Ĥ": 2051,
      "per": 2052,
      "æĺİç¡®": 2053,
      "ized": 2054,
      "å¢ŀéķ¿": 2055,
      "amm": 2056,
      "Ġsystem": 2057,
      "çķĻ": 2058,
      "çļĦéĩįè¦ģ": 2059,
      "èĹ¤": 2060,
      "æĤ£": 2061,
      "ä¸ªäºº": 2062,
      "Ġval": 2063,
      "ide": 2064,
      "ä½Ĳ": 2065,
      "Ġfol": 2066,
      "ased": 2067,
      "å¡": 2068,
      "æ¹": 2069,
      "åħ¶ä¸Ń": 2070,
      "çĥŃ": 2071,
      "ç§¯æŀģ": 2072,
      "è´¥": 2073,
      "è¿Ľä¸ĢæŃ¥": 2074,
      "åĨ³å®ļ": 2075,
      "æĿī": 2076,
      "æŀĹ": 2077,
      "ä¹±": 2078,
      "éĵ¶": 2079,
      "æį¢": 2080,
      "ological": 2081,
      "Ġrespon": 2082,
      "æľīåħ³": 2083,
      "Ġhyp": 2084,
      "éĢīæĭ©": 2085,
      "éģĹ": 2086,
      "Ġsuch": 2087,
      "arg": 2088,
      "ues": 2089,
      "ä¸ºäºĨ": 2090,
      "é¢Ŀ": 2091,
      "ï¼īãĢĤ": 2092,
      "å·¥ä¸ļ": 2093,
      "Ġlow": 2094,
      "æĮģç»Ń": 2095,
      "Ġmeas": 2096,
      "Ġ**": 2097,
      "å°Ķ": 2098,
      "æıĲåįĩ": 2099,
      "å¯¼èĩ´": 2100,
      "å¾ĹåĪ°": 2101,
      "æĹ¢": 2102,
      "æĽ¾": 2103,
      "å¼Ģåıĳ": 2104,
      "ens": 2105,
      "ä½ı": 2106,
      "å®¶èĩ£": 2107,
      "å¸ģ": 2108,
      "å¤§åŃ¦": 2109,
      "çĬ¯": 2110,
      "Ġclinical": 2111,
      "ç»¼åĲĪ": 2112,
      "èĮĥåĽ´": 2113,
      "æī§è¡Į": 2114,
      "ç©ºéĹ´": 2115,
      "å¾·å·Ŀ": 2116,
      "cess": 2117,
      "æĿ¥çļĦ": 2118,
      "è®Ń": 2119,
      "å¹ķ": 2120,
      "å°Ħ": 2121,
      "éĵ¾": 2122,
      "atic": 2123,
      "åĮĸçļĦ": 2124,
      "ild": 2125,
      "Ġtwo": 2126,
      "éĩįå¤§": 2127,
      "rel": 2128,
      "Ġboth": 2129,
      "ä»Ģ": 2130,
      "æı¡": 2131,
      "Ġresults": 2132,
      "ä¸ĢèĪ¬": 2133,
      "å´": 2134,
      "è¯»": 2135,
      "è¯Ħä»·": 2136,
      "Ġcy": 2137,
      "23": 2138,
      "äººæīį": 2139,
      "Ġsp": 2140,
      "è¿½": 2141,
      "Ġperform": 2142,
      "Ġover": 2143,
      "åį±": 2144,
      "å¤©æŃ£": 2145,
      "è´¸": 2146,
      "èİ·å¾Ĺ": 2147,
      "Ġser": 2148,
      "acter": 2149,
      "ä½Ļ": 2150,
      "å®ŀéªĮ": 2151,
      "å¦Ĥä½ķ": 2152,
      "owever": 2153,
      "ç«ŀ": 2154,
      "ä¸ĢäºĽ": 2155,
      "ãĢĤâĢĿ": 2156,
      "é©¬åħĭ": 2157,
      "éĴĪ": 2158,
      "Ġmice": 2159,
      "ä¹Ĳ": 2160,
      "å¼ĢæĶ¾": 2161,
      "é¥": 2162,
      "Ġpartic": 2163,
      "éĿ©åĳ½": 2164,
      "çĶŁçī©": 2165,
      "Ġbi": 2166,
      "åºĨ": 2167,
      "éķĩ": 2168,
      "agn": 2169,
      "ĠÎ": 2170,
      "è¡¨çİ°": 2171,
      "åĽłç´ł": 2172,
      "ç«¯": 2173,
      "Ġinfec": 2174,
      "åħ³éĶ®": 2175,
      "hed": 2176,
      "'s": 2177,
      "Ġwill": 2178,
      "è¿ĩç¨ĭä¸Ń": 2179,
      "ici": 2180,
      "ç¨ĭåºı": 2181,
      "åģ¿": 2182,
      "24": 2183,
      "ä¸ĬæĿī": 2184,
      "é©¬åħĭæĢĿ": 2185,
      "own": 2186,
      "ç»ıèĲ¥": 2187,
      "Ġappro": 2188,
      "ĠÂ±": 2189,
      "ä»Ģä¹Ī": 2190,
      "å·¦": 2191,
      "Ġinhib": 2192,
      "Ġidentif": 2193,
      "Ġexper": 2194,
      "èĭ¥": 2195,
      "Ġins": 2196,
      "çīĪ": 2197,
      "tical": 2198,
      "åĢŁ": 2199,
      "ark": 2200,
      "Ġnum": 2201,
      "å°ģ": 2202,
      "ology": 2203,
      "å¼Ģå±ķ": 2204,
      "æĿĥåĪ©": 2205,
      "è¿Ľåħ¥": 2206,
      "åıĳæĮ¥": 2207,
      "tern": 2208,
      "Ġmeth": 2209,
      "CA": 2210,
      "æİª": 2211,
      "plic": 2212,
      "RNA": 2213,
      "æ½": 2214,
      "Ġhuman": 2215,
      "inal": 2216,
      "çĮ®": 2217,
      "ater": 2218,
      "åĮºåŁŁ": 2219,
      "Ġrisk": 2220,
      "ä¹ĭæĪĺ": 2221,
      "çī¹å¾ģ": 2222,
      ".,": 2223,
      "æ¶ī": 2224,
      "ble": 2225,
      "inding": 2226,
      "èı": 2227,
      "è¿Ŀ": 2228,
      "åħħåĪĨ": 2229,
      "Ġfollow": 2230,
      "In": 2231,
      "Ġsec": 2232,
      "\"}).": 2233,
      "ä»»åĬ¡": 2234,
      "è®²": 2235,
      "ĠWe": 2236,
      "æľĽ": 2237,
      "40": 2238,
      "éĥ¡": 2239,
      "çĶ²": 2240,
      "Ġassociated": 2241,
      "åħ¬åħ±": 2242,
      "æ¸¸": 2243,
      "ä¸¤ä¸ª": 2244,
      "åĨľæĿĳ": 2245,
      "ï¼Ł": 2246,
      "ç»§æī¿": 2247,
      "çĽĽ": 2248,
      "èĥĮ": 2249,
      "ormal": 2250,
      "ans": 2251,
      "Ġinto": 2252,
      "Ġam": 2253,
      "æīĢä»¥": 2254,
      "ç¦ı": 2255,
      "Ġtime": 2256,
      "Ġindic": 2257,
      "Ġduring": 2258,
      "Ġmon": 2259,
      "Ġone": 2260,
      "ä¼°": 2261,
      "è®¤è¯Ĩ": 2262,
      "ond": 2263,
      "èģļ": 2264,
      "æ¤": 2265,
      "Ġobser": 2266,
      "åĲĦç§į": 2267,
      "æĸĩæĺİ": 2268,
      "éŁ³": 2269,
      "Ġprog": 2270,
      "\".": 2271,
      "è¿Ļæł·": 2272,
      "ç»Ŀ": 2273,
      "è¯¸": 2274,
      "è§ī": 2275,
      "Ġprovid": 2276,
      "Ġdifferent": 2277,
      "æĿĢ": 2278,
      "éļĨ": 2279,
      "use": 2280,
      "ants": 2281,
      "æĪĲæľ¬": 2282,
      "å»¶": 2283,
      "äº¡": 2284,
      "å°¾": 2285,
      "å®£": 2286,
      "æ¶Īè´¹": 2287,
      "Ġsug": 2288,
      "ĠAl": 2289,
      "è§ĦèĮĥ": 2290,
      "çīĩ": 2291,
      "Ġrep": 2292,
      "ke": 2293,
      "ĠCD": 2294,
      "med": 2295,
      "ines": 2296,
      "åıĭ": 2297,
      "æİĪ": 2298,
      "æ¯ĽåĪ©": 2299,
      "è¡¡": 2300,
      "è®¡åĪĴ": 2301,
      "ä¸įä»ħ": 2302,
      "æ¼Ķ": 2303,
      "Ġuse": 2304,
      "ç¡®å®ļ": 2305,
      "çĨ": 2306,
      "åĪ»": 2307,
      "%)": 2308,
      "ç¬¦": 2309,
      "ould": 2310,
      "Ġdef": 2311,
      "åºķ": 2312,
      "å£°": 2313,
      "hen": 2314,
      "ord": 2315,
      "ä»ĵ": 2316,
      "çļĦå¤§": 2317,
      "ution": 2318,
      "Ġeach": 2319,
      "ä»İèĢĮ": 2320,
      "Ġtiss": 2321,
      "ç¦Ħ": 2322,
      "äºĳ": 2323,
      "Ġsugg": 2324,
      "é²": 2325,
      "hem": 2326,
      "è§Ħæ¨¡": 2327,
      "Ġfound": 2328,
      "éĿĴ": 2329,
      "çĽ®åīį": 2330,
      "åĨ²": 2331,
      "ite": 2332,
      "Ġnon": 2333,
      "çº²": 2334,
      "ç¿": 2335,
      "éļıçĿĢ": 2336,
      "å®¶çļĦ": 2337,
      "æ¨¡åŀĭ": 2338,
      ",\"": 2339,
      "ä¸ŃåĽ½çī¹èī²": 2340,
      "å¼Ł": 2341,
      "æĦıè¯Ĩ": 2342,
      "èģĮä¸ļ": 2343,
      "æ¦Ĥå¿µ": 2344,
      "duction": 2345,
      "80": 2346,
      "èµĦäº§": 2347,
      "åľŁåľ°": 2348,
      "åŃ¦æł¡": 2349,
      "ace": 2350,
      "GF": 2351,
      "æĿĲæĸĻ": 2352,
      "Ġexam": 2353,
      "çİ°ä»£åĮĸ": 2354,
      "ç¨ĭåº¦": 2355,
      "ä¹ĭä¸Ģ": 2356,
      "è£ģ": 2357,
      "åĲ¸": 2358,
      "ä¸ĸçºª": 2359,
      "å¾ħ": 2360,
      "éĩįçĤ¹": 2361,
      "Ġincreased": 2362,
      "ĠJ": 2363,
      "è¿ĳå¹³": 2364,
      "å¾¡": 2365,
      "æĻºèĥ½": 2366,
      "Ġ([": 2367,
      "Ġup": 2368,
      "åıĸå¾Ĺ": 2369,
      "ä¹łè¿ĳå¹³": 2370,
      "ï¼ļâĢľ": 2371,
      "ç¢³": 2372,
      "éĶĢ": 2373,
      "åĢĻ": 2374,
      "åŁºäºİ": 2375,
      "ä¹ĭéĹ´çļĦ": 2376,
      "åĪĽéĢł": 2377,
      "åºŃ": 2378,
      "åħ±äº§": 2379,
      "çī¹åĪ«": 2380,
      "é¼": 2381,
      "ization": 2382,
      "çĸ«": 2383,
      "æ±ī": 2384,
      "åįĬ": 2385,
      "Ġrepor": 2386,
      "è®¼": 2387,
      "è§ĦåĪĴ": 2388,
      "ç«ŀäºī": 2389,
      "Ġunder": 2390,
      "åĽ°": 2391,
      "æĺ¯åĲ¦": 2392,
      "Ġend": 2393,
      "æ¸©": 2394,
      "æĲ": 2395,
      "Ġaut": 2396,
      "éĩĩçĶ¨": 2397,
      "Ġhad": 2398,
      "pos": 2399,
      "çļĦäºº": 2400,
      "åĮĹæĿ¡": 2401,
      "æ¯Ķè¾ĥ": 2402,
      "Ġtherap": 2403,
      "çĦ¶èĢĮ": 2404,
      "å®ĮæĪĲ": 2405,
      "åı³": 2406,
      "27": 2407,
      "are": 2408,
      "æĪĺåĽ½": 2409,
      "èĬ±": 2410,
      "SC": 2411,
      "çĲĨè§£": 2412,
      "æĵį": 2413,
      "urther": 2414,
      "Ġour": 2415,
      "è¯īè®¼": 2416,
      "Ġsim": 2417,
      "åľ°ä½į": 2418,
      "éĥİ": 2419,
      "éī": 2420,
      "èĹı": 2421,
      "ä¼Ł": 2422,
      "ä½ĵçİ°": 2423,
      "ron": 2424,
      "ute": 2425,
      "âĳ": 2426,
      "60": 2427,
      "è¿ĲåĬ¨": 2428,
      "æĮĩå¯¼": 2429,
      "æµĵ": 2430,
      "cri": 2431,
      "mon": 2432,
      "ä¹ĭåĲİ": 2433,
      "lood": 2434,
      "ç»ıéªĮ": 2435,
      "éī´": 2436,
      "ç£": 2437,
      "è¾¾åĪ°": 2438,
      "èĨ": 2439,
      "ft": 2440,
      "äºļ": 2441,
      "tit": 2442,
      "æŀĦå»º": 2443,
      "è¿Ļæĺ¯": 2444,
      "Ġet": 2445,
      "å¹³åı°": 2446,
      "ç±³": 2447,
      "Ġcompared": 2448,
      "ocy": 2449,
      "èĥ½æºĲ": 2450,
      "Ġdeter": 2451,
      "art": 2452,
      "æľºåħ³": 2453,
      "å¾Ħ": 2454,
      "åłĤ": 2455,
      "ä¼¼": 2456,
      "Ġtest": 2457,
      "åĽ½åĨħ": 2458,
      "è´¸æĺĵ": 2459,
      "çģ«": 2460,
      "Ġgener": 2461,
      "Ġactivity": 2462,
      "è½»": 2463,
      "éĺ³": 2464,
      "Ġcomple": 2465,
      "çĶ³": 2466,
      "åĤ¨": 2467,
      "05": 2468,
      "çĶ»": 2469,
      "CT": 2470,
      "çĶļ": 2471,
      "æīĺ": 2472,
      "ulated": 2473,
      "çļĩ": 2474,
      "ces": 2475,
      "å½ĵæĹ¶": 2476,
      "æ²»çĸĹ": 2477,
      "ential": 2478,
      "éĻĦ": 2479,
      "Ġonly": 2480,
      "æĦ¿": 2481,
      "åıĬåħ¶": 2482,
      "åĪ¶éĢł": 2483,
      "è¶³åĪ©": 2484,
      "çĽ®çļĦ": 2485,
      "åĽŃ": 2486,
      "æĴŃ": 2487,
      "Ġwell": 2488,
      "othe": 2489,
      "æĶ¶åħ¥": 2490,
      "28": 2491,
      "Ġtumor": 2492,
      "åį°": 2493,
      "anis": 2494,
      "26": 2495,
      "å¹ķåºľ": 2496,
      "åºĵ": 2497,
      "Ġinte": 2498,
      "ä½ĵåĪ¶": 2499,
      "æĬ¥åĳĬ": 2500,
      "Ġsyn": 2501,
      "éĿł": 2502,
      "ex": 2503,
      "å°ļ": 2504,
      "ments": 2505,
      "Ġrese": 2506,
      "rough": 2507,
      "ears": 2508,
      "Ġpot": 2509,
      "è¡Įä¸ļ": 2510,
      "æĮĩåĩº": 2511,
      "cc": 2512,
      "å®ª": 2513,
      "ely": 2514,
      "Ġmeasure": 2515,
      "èĩªå·±çļĦ": 2516,
      "reg": 2517,
      "ä¼¤": 2518,
      "äº¤æĺĵ": 2519,
      "çĶ¨äºİ": 2520,
      "Ġits": 2521,
      "æĸ¹åĲĳ": 2522,
      "æķĮ": 2523,
      "éĢłæĪĲ": 2524,
      "æİĮ": 2525,
      "ç¨³å®ļ": 2526,
      "Ġdem": 2527,
      "ability": 2528,
      "èĩªçĶ±": 2529,
      "ature": 2530,
      "çī¹çĤ¹": 2531,
      "æ°ĳä¸»": 2532,
      "ç´§": 2533,
      "Ġmin": 2534,
      "Ġmut": 2535,
      "Ġ$": 2536,
      "èĻĳ": 2537,
      "è´«": 2538,
      "éķ¿æľŁ": 2539,
      "è´Ń": 2540,
      "29": 2541,
      "ä»¥ä¸ĭ": 2542,
      "è¯į": 2543,
      "åģ¥åº·": 2544,
      "Ġmost": 2545,
      "plement": 2546,
      "ä»¥æĿ¥": 2547,
      "ough": 2548,
      "æĤ£èĢħ": 2549,
      "çĹĩ": 2550,
      "urren": 2551,
      "çº¢": 2552,
      "ages": 2553,
      "ition": 2554,
      "Ġdiagn": 2555,
      "tro": 2556,
      "Ġmethod": 2557,
      "Ġpatient": 2558,
      "ency": 2559,
      "çŁŃ": 2560,
      "pit": 2561,
      "li": 2562,
      "äº¿": 2563,
      "éĢģ": 2564,
      "bib": 2565,
      "ç»¿": 2566,
      "æľīçļĦ": 2567,
      "Ġkn": 2568,
      "Ġem": 2569,
      "å¼ºè°ĥ": 2570,
      "æĺ¯åľ¨": 2571,
      "Ġdete": 2572,
      "irst": 2573,
      "ram": 2574,
      "ined": 2575,
      "arch": 2576,
      "Ġnumber": 2577,
      "Ġsignal": 2578,
      "Ġblood": 2579,
      "ational": 2580,
      "çĪ±": 2581,
      "æİªæĸ½": 2582,
      "çĽĳçĿ£": 2583,
      "æĮīçħ§": 2584,
      "æľĢç»Ī": 2585,
      "äººä»¬": 2586,
      "æ¯Ĵ": 2587,
      "Ġimport": 2588,
      "rease": 2589,
      "co": 2590,
      "éĻ·": 2591,
      "çı": 2592,
      "æ¬§": 2593,
      "åŃ¦ç§ĳ": 2594,
      "åĽ½çļĦ": 2595,
      "èĴ": 2596,
      "éĻĨ": 2597,
      "Ġ(*": 2598,
      "æ¯į": 2599,
      "æĪĲæŀľ": 2600,
      "ä¸ŃåĽ½çī¹èī²ç¤¾ä¼ļä¸»ä¹ī": 2601,
      "å¨ģ": 2602,
      "ric": 2603,
      "å¤«": 2604,
      "æĽ´åĬł": 2605,
      "ä¾ĭå¦Ĥ": 2606,
      "æĸ¹æ¡Ī": 2607,
      "SA": 2608,
      "Ġneur": 2609,
      "ä¼ĺåĬ¿": 2610,
      "æ¤į": 2611,
      "Ġ19": 2612,
      "iv": 2613,
      "å®«": 2614,
      "vers": 2615,
      "éĵ¶è¡Į": 2616,
      "æł¹æľ¬": 2617,
      "æ³ķæ²»": 2618,
      "åİŁåĽł": 2619,
      "Ġwho": 2620,
      "ĠHowever": 2621,
      "endent": 2622,
      "].": 2623,
      "vious": 2624,
      "70": 2625,
      "äºĮåįģ": 2626,
      "Ġassess": 2627,
      "Ġform": 2628,
      "ise": 2629,
      "Ġshown": 2630,
      "çĭ¬ç«ĭ": 2631,
      "æĭī": 2632,
      "Ġmech": 2633,
      "lic": 2634,
      "ä¸Ģå®ļ": 2635,
      "ock": 2636,
      "çĻ»": 2637,
      "é¡º": 2638,
      "Ġhig": 2639,
      "åĬ±": 2640,
      "Ġ\\<": 2641,
      "================": 2642,
      "èīºæľ¯": 2643,
      "å§Ķåĳĺ": 2644,
      "ceptor": 2645,
      "åĬĽéĩı": 2646,
      "Ġprocess": 2647,
      "åħ¼": 2648,
      "è´¯": 2649,
      "é©¬åħĭæĢĿä¸»ä¹ī": 2650,
      "ung": 2651,
      "æĬµ": 2652,
      "Ġeffects": 2653,
      "åıĹåĪ°": 2654,
      "uro": 2655,
      "æ³Ľ": 2656,
      "åĪ¶å®ļ": 2657,
      "Ġbl": 2658,
      "éĶĻ": 2659,
      "æ¸Ĳ": 2660,
      "Ġcould": 2661,
      "trac": 2662,
      "èĢĮä¸Ķ": 2663,
      "æĺŁ": 2664,
      "è®¾å¤ĩ": 2665,
      "Ġrole": 2666,
      "ci": 2667,
      "90": 2668,
      "èĽ": 2669,
      "æı´": 2670,
      "Ġresponse": 2671,
      "ĠĠĠĠĠĠĠĠĠĠĠĠĠĠĠ": 2672,
      "åĲĪçĲĨ": 2673,
      "æ±¡": 2674,
      "è§£éĩĬ": 2675,
      "å¥ī": 2676,
      "è¡¨ç¤º": 2677,
      "les": 2678,
      "Ġindi": 2679,
      "åı¸æ³ķ": 2680,
      "çĽŁ": 2681,
      "Ġthere": 2682,
      "Ġthrough": 2683,
      "å¾ª": 2684,
      "lamm": 2685,
      "Ġaddition": 2686,
      "å¢ŀå¼º": 2687,
      "ody": 2688,
      "æĢ¥": 2689,
      "qui": 2690,
      "æĺ¯æĮĩ": 2691,
      "çī©è´¨": 2692,
      "35": 2693,
      "éģ¿": 2694,
      "èĻ½çĦ¶": 2695,
      "Ġsignificantly": 2696,
      "åıªæľī": 2697,
      "Ġperformed": 2698,
      "æĢ§åĴĮ": 2699,
      "æĹłæ³ķ": 2700,
      "éĵģ": 2701,
      "Ġwhen": 2702,
      "æŀ¶": 2703,
      "æĿŁ": 2704,
      "Ġpred": 2705,
      "nal": 2706,
      "åĬĽçļĦ": 2707,
      "ions": 2708,
      "æķ£": 2709,
      "çĬ¶æĢģ": 2710,
      "arly": 2711,
      "Ġeffect": 2712,
      "é¢ĳ": 2713,
      "è¯Ńè¨Ģ": 2714,
      "Ġgenes": 2715,
      "å°¼": 2716,
      "å²ģ": 2717,
      "æĺ¥": 2718,
      "çļĦåŁºæľ¬": 2719,
      "Ġmem": 2720,
      "ç§°ä¸º": 2721,
      "ä¸Ģæĸ¹éĿ¢": 2722,
      "è´º": 2723,
      "éĥ½æĺ¯": 2724,
      "é¾Ļ": 2725,
      "å±ĭ": 2726,
      "100": 2727,
      "çļĦåŁºç¡Ģ": 2728,
      "éļĲ": 2729,
      "ulti": 2730,
      "onstr": 2731,
      "Ġdevelopment": 2732,
      "éĢĶ": 2733,
      "Ġdist": 2734,
      "imal": 2735,
      "ef": 2736,
      "æŀĦæĪĲ": 2737,
      "çĽ¸å¯¹": 2738,
      "å«": 2739,
      "èĦ±": 2740,
      "sive": 2741,
      "æĸ°æĹ¶ä»£": 2742,
      "Ġdep": 2743,
      "å»ºçŃĳ": 2744,
      "æĹ§": 2745,
      "ç«Ļ": 2746,
      "å±ŀäºİ": 2747,
      "æ±ĩ": 2748,
      "å¥ĭ": 2749,
      "Ġtr": 2750,
      "è¯Ĺ": 2751,
      "ç¾¤ä¼Ĺ": 2752,
      "ä¿Ŀè¯ģ": 2753,
      "til": 2754,
      "âĢĶâĢĶ": 2755,
      "è¯¯": 2756,
      "å¹´çļĦ": 2757,
      "å¯¹è±¡": 2758,
      "Ġconc": 2759,
      "ç¯": 2760,
      "Ġspecific": 2761,
      "Ġop": 2762,
      "valu": 2763,
      "æĵįä½ľ": 2764,
      "èģĶç½ĳ": 2765,
      "è´§å¸ģ": 2766,
      "åĨħéĥ¨": 2767,
      "ç¹": 2768,
      "Ġvir": 2769,
      "ä¾§": 2770,
      "ĠĠĠĠĠ": 2771,
      "æ±ł": 2772,
      "çĽ¸äºĴ": 2773,
      "---": 2774,
      "lym": 2775,
      "è®¸å¤ļ": 2776,
      "Ġprim": 2777,
      "Ġantib": 2778,
      "ç§ģ": 2779,
      "Ġpresent": 2780,
      "ĠSt": 2781,
      "åĿĹ": 2782,
      "å®½": 2783,
      "ma": 2784,
      "ä¸°èĩ£": 2785,
      "çļĦéĹ®é¢ĺ": 2786,
      "å©": 2787,
      "ç»ĦæĪĲ": 2788,
      "çĶµåŃĲ": 2789,
      "èĭı": 2790,
      "çİ°å®ŀ": 2791,
      "vidual": 2792,
      "ange": 2793,
      "é»ĳ": 2794,
      "ä»»ä½ķ": 2795,
      "å¤įæĿĤ": 2796,
      "èĦĳ": 2797,
      "tig": 2798,
      "ä¿ĿéĻ©": 2799,
      "Ġconf": 2800,
      "å®Įåħ¨": 2801,
      "Ġbrain": 2802,
      "ive": 2803,
      "Ġage": 2804,
      "ĠĠĠĠĠĠĠĠĠĠĠĠĠĠĠĠĠĠĠĠĠĠĠĠĠĠĠĠĠĠĠĠĠĠĠĠĠĠĠĠĠĠĠĠĠĠĠĠĠĠĠĠĠĠĠĠĠĠĠĠĠĠĠĠĠĠĠĠĠĠĠĠĠĠĠĠĠĠĠĠĠĠĠĠĠĠĠĠĠĠĠĠĠĠĠĠĠĠĠĠĠĠĠĠĠĠĠĠĠĠĠĠĠĠĠĠĠĠĠĠĠĠĠĠĠĠĠĠ": 2805,
      "view": 2806,
      "Ġgl": 2807,
      "###": 2808,
      "è¾ĳ": 2809,
      "æ´²": 2810,
      "å³": 2811,
      "åºĶè¯¥": 2812,
      "è®¢": 2813,
      "åħ±äº§åħļ": 2814,
      "äºĭå®ŀ": 2815,
      "çĬ¯ç½ª": 2816,
      "uct": 2817,
      "aracter": 2818,
      "ä»¥ä¸Ĭ": 2819,
      "åīĤ": 2820,
      "ities": 2821,
      "èĩªèº«": 2822,
      "æĻ´": 2823,
      "Ġfactors": 2824,
      "ä¸ļåĬ¡": 2825,
      "itive": 2826,
      "Ġloc": 2827,
      "Ġinvol": 2828,
      "Ġobserved": 2829,
      "è¶ĭ": 2830,
      "Ġpop": 2831,
      "èĢĥèĻĳ": 2832,
      "è´¢äº§": 2833,
      "ç¹ģ": 2834,
      "çļĦçłĶç©¶": 2835,
      "æĭ¥": 2836,
      "Ġimp": 2837,
      "è´Łè´£": 2838,
      "Ġreceptor": 2839,
      "çĶº": 2840,
      "sy": 2841,
      "ä¸įåı¯": 2842,
      "å½ĵäºĭ": 2843,
      "å°ĨåĨĽ": 2844,
      "ĠThese": 2845,
      "AT": 2846,
      "æĭŁ": 2847,
      "Ġthey": 2848,
      "è°·": 2849,
      "ä¼ļè®®": 2850,
      "çļĦå½±åĵį": 2851,
      "ä¸¥éĩį": 2852,
      "Ġra": 2853,
      "è°Ī": 2854,
      "tively": 2855,
      "çĽ¾": 2856,
      "è¯Ħä¼°": 2857,
      "ters": 2858,
      "åĬłå¿«": 2859,
      "crib": 2860,
      "åģĩ": 2861,
      "è½¯": 2862,
      "è¡ĮåĬ¨": 2863,
      "æİ¢ç´¢": 2864,
      "33": 2865,
      "å±¥": 2866,
      "è¿ĲçĶ¨": 2867,
      "ä¸įåĲĮçļĦ": 2868,
      "Ġmicro": 2869,
      "Ġincluding": 2870,
      "åĲİçļĦ": 2871,
      "ĠIL": 2872,
      "erg": 2873,
      "æĺł": 2874,
      "Ġshowed": 2875,
      "Ġchang": 2876,
      "å¥½çļĦ": 2877,
      "å·¨": 2878,
      "éħ¸": 2879,
      "ale": 2880,
      "åŁºåĽł": 2881,
      "asc": 2882,
      "æīįèĥ½": 2883,
      "èģĶåĲĪ": 2884,
      "Ġexperim": 2885,
      "Ġnormal": 2886,
      "æĶ¹åıĺ": 2887,
      "åĲ¯": 2888,
      "å¼±": 2889,
      "è°ĥæķ´": 2890,
      "åĩıå°ĳ": 2891,
      "ç»ĥ": 2892,
      "ort": 2893,
      "å±±åŁİ": 2894,
      "tics": 2895,
      "é»Ħ": 2896,
      "Ġes": 2897,
      "its": 2898,
      "Ġfirst": 2899,
      "oma": 2900,
      "éĴĪå¯¹": 2901,
      "ä¹¡æĿĳ": 2902,
      "æī¿æĭħ": 2903,
      "CC": 2904,
      "Ġmechanis": 2905,
      "éº": 2906,
      "æ¡Īä»¶": 2907,
      "Figure": 2908,
      "Ġref": 2909,
      "raph": 2910,
      "ç½Ĺ": 2911,
      "ç»§ç»Ń": 2912,
      "éĺ¿": 2913,
      "éĻįä½İ": 2914,
      "Ġmedi": 2915,
      "ĠĠĠĠĠĠ": 2916,
      "éģŃ": 2917,
      "åĨľæ°ĳ": 2918,
      "èĻļ": 2919,
      "ä½ľåĩº": 2920,
      "Ġindividual": 2921,
      "æ·±åħ¥": 2922,
      "èŀįåĲĪ": 2923,
      "ery": 2924,
      "æĺİæĺ¾": 2925,
      "ä¹īåĬ¡": 2926,
      "çģŃ": 2927,
      "èµĦéĩĳ": 2928,
      "ples": 2929,
      "äºĭä¸ļ": 2930,
      "arget": 2931,
      "çĶļèĩ³": 2932,
      "led": 2933,
      "æ³½": 2934,
      "ä¼Łå¤§": 2935,
      "èįī": 2936,
      "èģĶç³»": 2937,
      "Ġhigher": 2938,
      "ç»´æĬ¤": 2939,
      "ently": 2940,
      "Ġevalu": 2941,
      "ä½ĵçļĦ": 2942,
      "æŃ¤å¤ĸ": 2943,
      "å¤§åĲį": 2944,
      "old": 2945,
      ":\"": 2946,
      "çº·": 2947,
      "ependent": 2948,
      "å¹¸": 2949,
      "äºĭä»¶": 2950,
      "å®ĩ": 2951,
      "åĵ²": 2952,
      "Ġreported": 2953,
      "éģĩ": 2954,
      "éĩįè¦ģçļĦ": 2955,
      "æĪĲç«ĭ": 2956,
      "äººæ°ĳæ³ķéĻ¢": 2957,
      "æ¥": 2958,
      "usion": 2959,
      "Ġdo": 2960,
      "éĩĩåıĸ": 2961,
      "åįļ": 2962,
      "è®¾æĸ½": 2963,
      "Ġchild": 2964,
      "çĸ¾": 2965,
      "æĪĲåĬŁ": 2966,
      "AP": 2967,
      "çŁĽ": 2968,
      "çĲĨå¿µ": 2969,
      "å¸®": 2970,
      "Ġtissue": 2971,
      "æ¶²": 2972,
      "ä¾Ŀæį®": 2973,
      "ä¿ĿæĮģ": 2974,
      "Ġprevious": 2975,
      "ize": 2976,
      "par": 2977,
      "æķĳ": 2978,
      "estig": 2979,
      "ix": 2980,
      "è¿ĺæĺ¯": 2981,
      "æĽ²": 2982,
      "é¸": 2983,
      "Ġinform": 2984,
      "ination": 2985,
      "Ġimportant": 2986,
      "çİ°è±¡": 2987,
      "åıįåºĶ": 2988,
      "è¾ī": 2989,
      "è°ĵ": 2990,
      "é¦ĸåħĪ": 2991,
      "Ġdr": 2992,
      "è°ĭ": 2993,
      "æīĭæ®µ": 2994,
      "vir": 2995,
      "çĽĳç®¡": 2996,
      "ind": 2997,
      "ha": 2998,
      "èĢħçļĦ": 2999,
      "45": 3000,
      "è¿Ĳè¡Į": 3001,
      "Ġma": 3002,
      "çŁĽçĽ¾": 3003,
      "ucle": 3004,
      "ç¾½": 3005,
      "\\*": 3006,
      "å®ĪæĬ¤": 3007,
      "åĪ°äºĨ": 3008,
      "Ġcharacter": 3009,
      "ä»·æł¼": 3010,
      "ä¸ĭçļĦ": 3011,
      "æľªæĿ¥": 3012,
      "æ··": 3013,
      "éĺ»": 3014,
      "æķĪçİĩ": 3015,
      "çĺ": 3016,
      "ï¼ĮâĢľ": 3017,
      "åĨ³çŃĸ": 3018,
      "Ġyears": 3019,
      "çŃĶ": 3020,
      "è´·": 3021,
      "äºĨè§£": 3022,
      "----------------------------------------------------------------": 3023,
      "Ġthree": 3024,
      "Ġgrow": 3025,
      "Ġstim": 3026,
      "95": 3027,
      "èĻİ": 3028,
      "æĽ´å¤ļ": 3029,
      "æİ¥åıĹ": 3030,
      "å§Ķåĳĺä¼ļ": 3031,
      "Ġsome": 3032,
      "Ġwithin": 3033,
      "æĿĥçļĦ": 3034,
      "36": 3035,
      "æİĮæı¡": 3036,
      "38": 3037,
      "ving": 3038,
      "è°ĥæŁ¥": 3039,
      "ç±»åŀĭ": 3040,
      "å¹¿æ³Ľ": 3041,
      "ob": 3042,
      "çļĦæĸ°": 3043,
      "æĢĿç»´": 3044,
      "lis": 3045,
      "éĿŀå¸¸": 3046,
      "%,": 3047,
      "æĮ¯": 3048,
      "åºĬ": 3049,
      "å¤§éĩı": 3050,
      "åķĨä¸ļ": 3051,
      "è°±": 3052,
      "èĹ©": 3053,
      "æĦıè§ģ": 3054,
      "ç»ĩçĶ°ä¿¡éķ¿": 3055,
      "è§Ħå¾ĭ": 3056,
      "Ġnew": 3057,
      "Ġdemonstr": 3058,
      "Ġbec": 3059,
      "Ġresearch": 3060,
      "ç¬Ķ": 3061,
      "ä¹°": 3062,
      "å¿ĥçĲĨ": 3063,
      "ins": 3064,
      "å¤©æĸĩ": 3065,
      "çĸĳ": 3066,
      "Ġthose": 3067,
      "Ġinvestig": 3068,
      "æľŁéĹ´": 3069,
      "çģµ": 3070,
      "ry": 3071,
      "Ġwork": 3072,
      "urrent": 3073,
      "æĿ¿": 3074,
      "è¦ģç´ł": 3075,
      "Ġocc": 3076,
      "atis": 3077,
      "ä¹¦è®°": 3078,
      "æ°§": 3079,
      "CD": 3080,
      "ĠĠĠĠĠĠĠ": 3081,
      "ered": 3082,
      "å¸Ŀ": 3083,
      "cle": 3084,
      "è·¨": 3085,
      "å°Ĭ": 3086,
      "Ġpathw": 3087,
      "oph": 3088,
      "table": 3089,
      "ãĤ": 3090,
      "æłĳ": 3091,
      "ç³»åĪĹ": 3092,
      "å½¹": 3093,
      "åįıè°ĥ": 3094,
      "æľ«": 3095,
      "åįıè®®": 3096,
      "æĪĺäºī": 3097,
      "æŃ£ç¡®": 3098,
      "Ġgroups": 3099,
      "158": 3100,
      "äººåı£": 3101,
      "ressed": 3102,
      "ç¬¦åĲĪ": 3103,
      "001": 3104,
      "34": 3105,
      "çľ¼": 3106,
      "ç½ļ": 3107,
      "01": 3108,
      "èĪª": 3109,
      "è§ĦåĪĻ": 3110,
      "ä¹İ": 3111,
      "æķ´ä½ĵ": 3112,
      "è¿«": 3113,
      "Ġmulti": 3114,
      "å°¤": 3115,
      "æıı": 3116,
      "èµ·æĿ¥": 3117,
      "Ġcal": 3118,
      "è¯ģæį®": 3119,
      "åĪĨéħį": 3120,
      "å½»": 3121,
      "ĠAn": 3122,
      "ented": 3123,
      "çİĦ": 3124,
      "Ġcorrel": 3125,
      "ä¼ĺåĮĸ": 3126,
      "éĽĨä¸Ń": 3127,
      "com": 3128,
      "å¹¶ä¸Ķ": 3129,
      "å½ĵäºĭäºº": 3130,
      "ç¤¼": 3131,
      "åĵ²åŃ¦": 3132,
      "é¦Ĩ": 3133,
      "è¯ģæĺİ": 3134,
      "å¼ķå¯¼": 3135,
      "Ġchanges": 3136,
      "Ġimpro": 3137,
      "Ġtarget": 3138,
      "é²ľ": 3139,
      "æľĢé«ĺ": 3140,
      "è´¢æĶ¿": 3141,
      "Ġinhibit": 3142,
      "ä½ł": 3143,
      "ived": 3144,
      "éĻĲåĪ¶": 3145,
      "Ġfe": 3146,
      "çłģ": 3147,
      "çĶ³è¯·": 3148,
      "ĠCh": 3149,
      "ption": 3150,
      "éĹ»": 3151,
      "æ´ĭ": 3152,
      "Ġrem": 3153,
      "äº¬éĥ½": 3154,
      "Î²": 3155,
      "vention": 3156,
      "åĪĨä¸º": 3157,
      "æıĲä¾ĽäºĨ": 3158,
      "æĥħåĨµä¸ĭ": 3159,
      "ited": 3160,
      "éĢĥ": 3161,
      "åħ³æ³¨": 3162,
      "arge": 3163,
      "Ġrespec": 3164,
      "Ġparticip": 3165,
      "ç«¥": 3166,
      "åķĨåĵģ": 3167,
      "åĪĨåĪ«": 3168,
      "onal": 3169,
      "RI": 3170,
      "Ġneed": 3171,
      "è®¿": 3172,
      "37": 3173,
      "èĢĮæĺ¯": 3174,
      "éĢĤåºĶ": 3175,
      "éģĵå¾·": 3176,
      "æľĢåĲİ": 3177,
      "ç»¿èī²": 3178,
      "é£ŀ": 3179,
      "åĢºåĬ¡": 3180,
      "rect": 3181,
      "åºĦ": 3182,
      "Ġpredic": 3183,
      "Ġdescrib": 3184,
      "å¼ĺ": 3185,
      "åľ¨äºİ": 3186,
      "æ¸¯": 3187,
      "Ġrepres": 3188,
      "action": 3189,
      "Ġlead": 3190,
      "çĽĸ": 3191,
      "####": 3192,
      "æ®Ĭ": 3193,
      "æĺĮ": 3194,
      "åĮ»çĸĹ": 3195,
      "Ġpotential": 3196,
      "çļĦä¸»è¦ģ": 3197,
      "ç«ĭæ³ķ": 3198,
      "åĲ¬": 3199,
      "tivity": 3200,
      "requ": 3201,
      "éĢļå¸¸": 3202,
      "Ġconsid": 3203,
      "èĦī": 3204,
      "åģı": 3205,
      "è·Ŀ": 3206,
      "+^": 3207,
      "ç»ıè¿ĩ": 3208,
      "ental": 3209,
      "åıįæĺł": 3210,
      "ves": 3211,
      "è¡¨è¾¾": 3212,
      "Ġset": 3213,
      "the": 3214,
      "éª¨": 3215,
      "aining": 3216,
      "tained": 3217,
      "],[@": 3218,
      "èĽĭ": 3219,
      "ä¾Ŀæ³ķ": 3220,
      "æ°ıçļĦ": 3221,
      "éĨ": 3222,
      "sible": 3223,
      "Ġfinding": 3224,
      "II": 3225,
      "ä¼Ĳ": 3226,
      "éģĵè·¯": 3227,
      "æ°¸ç¦Ħ": 3228,
      "Sec": 3229,
      "çĵ": 3230,
      "ä¸įå¾Ĺ": 3231,
      "è´ŀ": 3232,
      "æ²¿": 3233,
      "éĢĤçĶ¨": 3234,
      "æķĪæŀľ": 3235,
      "Ġincrease": 3236,
      "åŃ¦çĶŁçļĦ": 3237,
      "åª": 3238,
      "Ġcases": 3239,
      "Ġmain": 3240,
      "mall": 3241,
      "ai": 3242,
      "ĠFor": 3243,
      "åĬ¿åĬĽ": 3244,
      "ores": 3245,
      "éĢı": 3246,
      "æ»¡è¶³": 3247,
      "unt": 3248,
      "ç¼©": 3249,
      "sis": 3250,
      "æī©å¤§": 3251,
      "IV": 3252,
      "ĠAs": 3253,
      "Ġbas": 3254,
      "æ¶īåıĬ": 3255,
      "Ġmus": 3256,
      "Ġmolec": 3257,
      "157": 3258,
      "upplement": 3259,
      "çī©çļĦ": 3260,
      "æĮĳ": 3261,
      "ensi": 3262,
      "æĿİ": 3263,
      "MP": 3264,
      "ann": 3265,
      "è§ĤçĤ¹": 3266,
      "Ġinfection": 3267,
      "ink": 3268,
      "zed": 3269,
      "31": 3270,
      "ä¸Ńåįİæ°ĳæĹı": 3271,
      "è¯·æ±Ĥ": 3272,
      "ĠĠĠĠĠĠĠĠĠĠĠĠĠĠĠĠĠĠĠĠĠĠĠĠ": 3273,
      "Ġsubjec": 3274,
      "ç½²": 3275,
      "ood": 3276,
      "åı¶": 3277,
      "å½ĵåīį": 3278,
      "å±¥è¡Į": 3279,
      "åıĮæĸ¹": 3280,
      "èĪ¹": 3281,
      "ä¸ŃåĽ½åħ±äº§åħļ": 3282,
      "è¾ħ": 3283,
      "å¸Į": 3284,
      "åĿĤ": 3285,
      "å¤º": 3286,
      "å®ĥä»¬": 3287,
      "æī¾": 3288,
      "åĶ®": 3289,
      "Ġcare": 3290,
      "çŃ¹": 3291,
      "Ġsequ": 3292,
      "ç¥ĸ": 3293,
      "Ġpost": 3294,
      "Ġinflamm": 3295,
      "è´µ": 3296,
      "Cs": 3297,
      "å¹´ä»£": 3298,
      "Ġactivation": 3299,
      "ame": 3300,
      "å¹¼": 3301,
      "çŃ¾": 3302,
      "éĹ®é¢ĺçļĦ": 3303,
      "çĶ·": 3304,
      "äºĨä¸Ģ": 3305,
      "ypes": 3306,
      "é¼ĵ": 3307,
      "Ġlim": 3308,
      "ä¸¸": 3309,
      "ause": 3310,
      "åī§": 3311,
      "Ġapp": 3312,
      "å·¥åħ·": 3313,
      "å¹´æĿ¥": 3314,
      "è¿ģ": 3315,
      "Ġrequi": 3316,
      "osph": 3317,
      "ek": 3318,
      "éģį": 3319,
      "å®¶åºŃ": 3320,
      "çĶ¨æĪ·": 3321,
      "è¡¨æĺİ": 3322,
      "ice": 3323,
      "eration": 3324,
      "ä¸°å¯Į": 3325,
      "å¿ħè¦ģ": 3326,
      "åģľ": 3327,
      "ilar": 3328,
      "Ġresp": 3329,
      "å¼ºåĮĸ": 3330,
      "åĶ¯": 3331,
      "åĳĪ": 3332,
      "å§ĵ": 3333,
      "åĪĨåŃĲ": 3334,
      "æĺ¯ä¸Ģä¸ª": 3335,
      "æķ´ä¸ª": 3336,
      "åį·": 3337,
      "Ġmor": 3338,
      "å½¢æĢģ": 3339,
      "olic": 3340,
      "èµĦæĸĻ": 3341,
      "ateg": 3342,
      "äºĴèģĶç½ĳ": 3343,
      "ically": 3344,
      "æĭħä»»": 3345,
      "_{": 3346,
      "Ġmean": 3347,
      "AS": 3348,
      "åĮĸåŃ¦": 3349,
      "åĲĽ": 3350,
      "Ġtype": 3351,
      "äº¤éĢļ": 3352,
      "æ³¨æĦı": 3353,
      "ç»Ĩå·Ŀ": 3354,
      "ascular": 3355,
      "èµĶ": 3356,
      "éģĤ": 3357,
      "æ½ľ": 3358,
      "oid": 3359,
      "æ±¡æŁĵ": 3360,
      "å·´": 3361,
      "åŃĻ": 3362,
      "æ°ĳäºĭ": 3363,
      "Ġcardi": 3364,
      "å¼ķèµ·": 3365,
      "Ġrat": 3366,
      "Ġcri": 3367,
      "32": 3368,
      "las": 3369,
      "æĢ§è´¨": 3370,
      "roph": 3371,
      "Ġsuggest": 3372,
      "èĲ½å®ŀ": 3373,
      "Ġsamples": 3374,
      "æŃ¦å°Ĩ": 3375,
      "é«ĺåº¦": 3376,
      "Ġmark": 3377,
      "Ġevid": 3378,
      "Ġj": 3379,
      "çĨŁ": 3380,
      "Ġfib": 3381,
      "åĨĽäºĭ": 3382,
      "æ³ķè§Ħ": 3383,
      "å¹¶ä¸į": 3384,
      "ograph": 3385,
      "æ£®": 3386,
      "Ġcult": 3387,
      "åĨĪ": 3388,
      "éĢ»": 3389,
      "AR": 3390,
      "Ġconcentr": 3391,
      "ä¼ļè®¡": 3392,
      "èº«ä»½": 3393,
      "è¯´æĺİ": 3394,
      "åĳ³": 3395,
      "Ġdrug": 3396,
      "æķ°éĩı": 3397,
      "æĸĩåŃ¦": 3398,
      "Î±": 3399,
      "int": 3400,
      "åªĴ": 3401,
      "éĩįè§Ĩ": 3402,
      "Ġdifferenti": 3403,
      "æĸ¹éĿ¢çļĦ": 3404,
      "âĢ¦": 3405,
      "æ¾": 3406,
      "æľīåĪ©": 3407,
      "è¶³åĪ©ä¹ī": 3408,
      "èĨľ": 3409,
      "ç¥ŀç»ı": 3410,
      "ä»Ĭå·Ŀ": 3411,
      "cin": 3412,
      "ross": 3413,
      "Ġav": 3414,
      "Ġcontrib": 3415,
      "Ġsever": 3416,
      "Ġidentified": 3417,
      "å®¶çĿ£": 3418,
      "ptom": 3419,
      "è¥¿æĸ¹": 3420,
      "Ġbased": 3421,
      "Ġlong": 3422,
      "Ġneuro": 3423,
      "çĶŁåĳ½": 3424,
      "è´¡": 3425,
      "aterial": 3426,
      "ÃĹ": 3427,
      "ãĢĭï¼Į": 3428,
      "å¥¥": 3429,
      "å®ŀè¡Į": 3430,
      "con": 3431,
      "ä¸īä¸ª": 3432,
      "çĥĪ": 3433,
      "over": 3434,
      "å·®å¼Ĥ": 3435,
      "44": 3436,
      "ie": 3437,
      "éĢ»è¾ĳ": 3438,
      "èĽĭçĻ½": 3439,
      "ç§Ł": 3440,
      "çī¹æ®Ĭ": 3441,
      "tis": 3442,
      "åħĦ": 3443,
      "Ġfurther": 3444,
      "èıĮ": 3445,
      "ake": 3446,
      "Ġev": 3447,
      "Ġ200": 3448,
      "ç¦ģ": 3449,
      "æ¶µ": 3450,
      "ç»©": 3451,
      "å°±ä¸ļ": 3452,
      "è¶ħè¿ĩ": 3453,
      "èĢĮè¨Ģ": 3454,
      "Ġso": 3455,
      "199": 3456,
      "æĽ¿": 3457,
      "éĢĲæ¸Ĳ": 3458,
      "é¡¾": 3459,
      "ĠDNA": 3460,
      "ness": 3461,
      "Ġaffec": 3462,
      "æ²¹": 3463,
      "39": 3464,
      "ful": 3465,
      "upplementary": 3466,
      "ording": 3467,
      "æĿĥåĬĽ": 3468,
      "ç»į": 3469,
      "æĺ¾ç¤º": 3470,
      "AC": 3471,
      "aging": 3472,
      "å¸®åĬ©": 3473,
      "è¯Ĭ": 3474,
      "ä¼łæĴŃ": 3475,
      "æ·±åĮĸ": 3476,
      "å²©": 3477,
      "åĮĹäº¬": 3478,
      "å»ºè®®": 3479,
      "æĿ¥è¯´": 3480,
      "çĽ¸åºĶ": 3481,
      "æĮĩæłĩ": 3482,
      "ä¹ı": 3483,
      "abe": 3484,
      "æĴ¤": 3485,
      "Ġgrowth": 3486,
      "åĽ½æ°ĳ": 3487,
      "sec": 3488,
      "åĶĲ": 3489,
      "èĩªæĪĳ": 3490,
      "æŃĮ": 3491,
      "èŃ": 3492,
      "æķ°åŃ¦": 3493,
      "åĪĨå¸ĥ": 3494,
      "though": 3495,
      "]^": 3496,
      "ç¼ĵ": 3497,
      "Ġinformation": 3498,
      "æĪĺåĽ½æĹ¶ä»£": 3499,
      "å²Ľæ´¥": 3500,
      "156": 3501,
      "è¿Ķ": 3502,
      "^[@": 3503,
      "æµħ": 3504,
      "åĪ¸": 3505,
      "ĠIt": 3506,
      "Ġrate": 3507,
      "49": 3508,
      "å¥Ĺ": 3509,
      "ural": 3510,
      "åįģäºĮ": 3511,
      "Ġdetermin": 3512,
      "ä¸ºä¸»": 3513,
      "uce": 3514,
      "é¢Ĩåľ°": 3515,
      "æģ¶": 3516,
      "èĩªä¸»": 3517,
      "ç»Łæ²»": 3518,
      "ä»ª": 3519,
      "çī©çĲĨ": 3520,
      "48": 3521,
      "Ġfrequ": 3522,
      "å¾·å·Ŀå®¶åº·": 3523,
      "æĸĩä»¶": 3524,
      "Ġrele": 3525,
      "ç²®": 3526,
      "fec": 3527,
      "ç¯ĩ": 3528,
      "ç´¯": 3529,
      "åºŁ": 3530,
      "anti": 3531,
      "çļĦåİĨåı²": 3532,
      "æĶ¯ä»ĺ": 3533,
      "åįģåħ«": 3534,
      "æ£Ģæµĭ": 3535,
      "åĸľ": 3536,
      "------------": 3537,
      "çĩ": 3538,
      "éĤ£ä¹Ī": 3539,
      "Ġ12": 3540,
      "ç³»ç»ŁçļĦ": 3541,
      "åĬ¨åĬĽ": 3542,
      "spec": 3543,
      "æľĢå¤§": 3544,
      "æĬĢèĥ½": 3545,
      "ä»¥åĲİ": 3546,
      "ç¥¨": 3547,
      "53": 3548,
      "åı¬": 3549,
      "æĢ»ä¹¦è®°": 3550,
      "eng": 3551,
      "Ġclass": 3552,
      "Ġtherapy": 3553,
      "ication": 3554,
      "Ġcaus": 3555,
      "åĪĨç±»": 3556,
      "CI": 3557,
      "æĭĵ": 3558,
      "è¦": 3559,
      "Ġpopulation": 3560,
      "ç¬¬åĽĽ": 3561,
      "èį£": 3562,
      "çĺ¤": 3563,
      "äº¤æµģ": 3564,
      "Ġanaly": 3565,
      "ĠUni": 3566,
      "åĬª": 3567,
      "æĹĹ": 3568,
      "å¤Ħäºİ": 3569,
      "æ±ŁæĪ·": 3570,
      "åıĤåĬł": 3571,
      "åºĨéķ¿": 3572,
      "ä½ľèĢħ": 3573,
      "cted": 3574,
      "tex": 3575,
      "å´İ": 3576,
      "ç§ĭ": 3577,
      "éĻĪ": 3578,
      "Ġthen": 3579,
      "ĠRes": 3580,
      "çºł": 3581,
      "Ġint": 3582,
      "çľŁæŃ£": 3583,
      "Ġproteins": 3584,
      "cent": 3585,
      "Ġsym": 3586,
      "ä½¿å¾Ĺ": 3587,
      "Ġshould": 3588,
      "æŁ´": 3589,
      "è¯¦": 3590,
      "æįŁå®³": 3591,
      "ä»ĸçļĦ": 3592,
      "æĺ¯ä¸Ģç§į": 3593,
      "Ġpub": 3594,
      "ĠÎ¼": 3595,
      "havi": 3596,
      "Ġcomb": 3597,
      "çº¯": 3598,
      "....": 3599,
      "io": 3600,
      "Ġmy": 3601,
      "Ġel": 3602,
      "ES": 3603,
      "è¿ĺæľī": 3604,
      "ouse": 3605,
      "èĥĮæĻ¯": 3606,
      "lected": 3607,
      "ä¸´åºĬ": 3608,
      "Ġcommon": 3609,
      "Ġtotal": 3610,
      "å¾Īå¤ļ": 3611,
      "çĸ¾çĹħ": 3612,
      "ç¡®ä¿Ŀ": 3613,
      "ulin": 3614,
      "ä¸įè¶³": 3615,
      "åŃ¦æľ¯": 3616,
      "air": 3617,
      "47": 3618,
      "eth": 3619,
      "ä»²": 3620,
      "æ³ķçļĦ": 3621,
      "ĠHe": 3622,
      "vere": 3623,
      "èĤ¿": 3624,
      "é¦Ļ": 3625,
      "å±Ĭ": 3626,
      "Ġ15": 3627,
      "åĪ¤æĸŃ": 3628,
      "æįŁå¤±": 3629,
      "å¼ĥ": 3630,
      "Ġtech": 3631,
      "çªģåĩº": 3632,
      "Ġacid": 3633,
      "è¾©": 3634,
      "Ġsurvi": 3635,
      "å®ļä¹ī": 3636,
      "åĨħçļĦ": 3637,
      "åĿı": 3638,
      "æŃ¤æĹ¶": 3639,
      "Ġamong": 3640,
      "*,": 3641,
      "éģµ": 3642,
      "æ¡¥": 3643,
      "è½®": 3644,
      "Ġstruct": 3645,
      "ä¸»åĬ¨": 3646,
      "ov": 3647,
      "ified": 3648,
      "ä¸»å¼ł": 3649,
      "è¿Ľç¨ĭ": 3650,
      "åĩºçīĪ": 3651,
      "éĿ¢ä¸´": 3652,
      "æĬĺ": 3653,
      "ä¸įè¿ĩ": 3654,
      "èµĭ": 3655,
      "Ġeff": 3656,
      "Ġ+": 3657,
      "å°¤åħ¶": 3658,
      "pital": 3659,
      "æ·±åĪ»": 3660,
      "Ġcap": 3661,
      "å®¢è§Ĥ": 3662,
      "åī¯": 3663,
      "lial": 3664,
      "Ġsimilar": 3665,
      "ospital": 3666,
      "åŁİä¸»": 3667,
      "Ġmemb": 3668,
      "æĮĳæĪĺ": 3669,
      "è½¬ç§»": 3670,
      "Ġmi": 3671,
      "Ġfollowing": 3672,
      "çĤİ": 3673,
      "è½¬åıĺ": 3674,
      "jor": 3675,
      "ĠPro": 3676,
      "Ġsmall": 3677,
      "ĠTo": 3678,
      "éĺ¶çº§": 3679,
      "46": 3680,
      "è®°è½½": 3681,
      "è§Ĵåº¦": 3682,
      "Ġep": 3683,
      "ately": 3684,
      "Ġdid": 3685,
      "é©±": 3686,
      "ested": 3687,
      "ç®Ģåįķ": 3688,
      "å¹³è¡¡": 3689,
      "refore": 3690,
      "æĶ¹åĸĦ": 3691,
      "èµĶåģ¿": 3692,
      "ç»Łè®¡": 3693,
      "åĵª": 3694,
      "Ġdue": 3695,
      "èĤ¥": 3696,
      "è§Ĥå¿µ": 3697,
      "Ġlower": 3698,
      "ä¿¡åı·": 3699,
      "è®°å½ķ": 3700,
      "Ġabout": 3701,
      "åĦ¿ç«¥": 3702,
      "ä¹Łæľī": 3703,
      "lymph": 3704,
      "ç¡¬": 3705,
      "ä¾ĽåºĶ": 3706,
      "hip": 3707,
      "çļ®": 3708,
      "ä¸Ĭè¿°": 3709,
      "å¹ħ": 3710,
      "åįĸ": 3711,
      "è£Ĥ": 3712,
      "ä½ľåĵģ": 3713,
      "çļĦç¤¾ä¼ļ": 3714,
      "å¤įåħ´": 3715,
      "ç¢į": 3716,
      "PS": 3717,
      "éĽĦ": 3718,
      "Ġevidence": 3719,
      "Ġprimary": 3720,
      "éģ¿åħį": 3721,
      "Ġchildren": 3722,
      "Ġgre": 3723,
      "Ġpers": 3724,
      "è®¡ç®Ĺæľº": 3725,
      "ences": 3726,
      "æľ¬è´¨": 3727,
      "è®¨è®º": 3728,
      "æ´Ľ": 3729,
      "ator": 3730,
      "ä¸Ģæĺ¯": 3731,
      "è½¬åŀĭ": 3732,
      "è·Ł": 3733,
      "éĽ¶": 3734,
      "NF": 3735,
      "Ġox": 3736,
      "æĴĳ": 3737,
      "Ġi": 3738,
      "éĿĻ": 3739,
      "åİŁçĲĨ": 3740,
      "é¹": 3741,
      "omen": 3742,
      "éĢĲæŃ¥": 3743,
      "Ġwhile": 3744,
      "Ġreview": 3745,
      "Ġæ¦Ĥ": 3746,
      "Ġrespectively": 3747,
      "Ġvis": 3748,
      "çİ°åľ¨": 3749,
      "Ġexpos": 3750,
      "Ġsame": 3751,
      "åĩ½": 3752,
      "è¿¹": 3753,
      "ä¸ĢçĽ´": 3754,
      "å©ļ": 3755,
      "Ġwould": 3756,
      "å¿«éĢŁ": 3757,
      "AD": 3758,
      "åĬªåĬĽ": 3759,
      "æ£ĢæŁ¥": 3760,
      "^+^": 3761,
      "uff": 3762,
      "èŃ¦": 3763,
      "éľ²": 3764,
      "åº§": 3765,
      "ï¼İ": 3766,
      "çıŃ": 3767,
      "ä¸Ģèĩ´": 3768,
      "è½¯ä»¶": 3769,
      "Ġprol": 3770,
      "æħ§": 3771,
      "Ġmat": 3772,
      "Ġany": 3773,
      "çĪ¶äº²": 3774,
      "æĪĲåĳĺ": 3775,
      "å®Ŀ": 3776,
      "cell": 3777,
      "è§¦": 3778,
      "èĸ": 3779,
      "57": 3780,
      "åĭĩ": 3781,
      "Ġstand": 3782,
      "Ġfindings": 3783,
      "ä»ģ": 3784,
      "erm": 3785,
      "è¦Ĩ": 3786,
      "Ġearly": 3787,
      "ä¸¤ç§į": 3788,
      "ï¼īãĢģ": 3789,
      "Ġmetab": 3790,
      "å±Ĥæ¬¡": 3791,
      "Ġpe": 3792,
      "Ġimmune": 3793,
      "ä¹ĥ": 3794,
      "ics": 3795,
      "Ġexpl": 3796,
      "å®ı": 3797,
      "å®ĭ": 3798,
      "ST": 3799,
      "Ġplas": 3800,
      "æĻ®éģį": 3801,
      "Ġcompar": 3802,
      "çī¹åĪ«æĺ¯": 3803,
      "åĲĮå¹´": 3804,
      "å¤ļç§į": 3805,
      "è®¤å®ļ": 3806,
      "çļĦåħ³ç³»": 3807,
      "é«ĺæł¡": 3808,
      "è¶ĭåĬ¿": 3809,
      "äº§æĿĥ": 3810,
      "cop": 3811,
      "Ġmajor": 3812,
      "ced": 3813,
      "å¦»": 3814,
      "çŃĸçķ¥": 3815,
      "ãĢĮ": 3816,
      "Ġpat": 3817,
      "æ¸¡": 3818,
      "Ġdel": 3819,
      "åıĬæĹ¶": 3820,
      "æĶ¯æĴĳ": 3821,
      "æĺ¾èĳĹ": 3822,
      "Ġline": 3823,
      "Ġregul": 3824,
      "æµĭè¯ķ": 3825,
      "åģ¥åħ¨": 3826,
      "æľ¬èº«": 3827,
      "ãĢį": 3828,
      "åħ±äº«": 3829,
      "åįģä¸Ģ": 3830,
      "åĮĹæĿ¡æ°ı": 3831,
      "å¯»": 3832,
      "Ġdescribed": 3833,
      "];": 3834,
      "éĽĨä½ĵ": 3835,
      "Ġcyt": 3836,
      "Ġcurrent": 3837,
      "è¢Ń": 3838,
      "Ġwithout": 3839,
      "Ġtranscri": 3840,
      "èµĲ": 3841,
      "Ġvit": 3842,
      "è§Ĥå¯Ł": 3843,
      "Ġnucle": 3844,
      "æĹ¶åĢĻ": 3845,
      "Ġpositive": 3846,
      "ĠFig": 3847,
      "versity": 3848,
      "Ġlung": 3849,
      "åĲİæĿ¥": 3850,
      "éĻ¤äºĨ": 3851,
      "eu": 3852,
      "Ġsecond": 3853,
      "éĢŁåº¦": 3854,
      "è¿İ": 3855,
      "çĽ¸åĲĮ": 3856,
      "åŁ¹è®Ń": 3857,
      "56": 3858,
      "tre": 3859,
      "ER": 3860,
      "ãĥ": 3861,
      "sequ": 3862,
      "eg": 3863,
      "è®¾ç½®": 3864,
      "æľīéĻĲ": 3865,
      "sych": 3866,
      "æĢ»ä½ĵ": 3867,
      "42": 3868,
      "esis": 3869,
      "èĵ": 3870,
      "ardi": 3871,
      "åĺ": 3872,
      "éŃ": 3873,
      "tin": 3874,
      "Ġbehavi": 3875,
      "ism": 3876,
      "åħ¨éĥ¨": 3877,
      "æīĢè°ĵ": 3878,
      "ç«¹": 3879,
      "induced": 3880,
      "Ġauth": 3881,
      "æĿ¥æºĲ": 3882,
      "æĶ»åĩ»": 3883,
      "ä¸¹": 3884,
      "éħįç½®": 3885,
      "medi": 3886,
      "Ġlymph": 3887,
      "ä½Ľ": 3888,
      "istr": 3889,
      "Ġinflu": 3890,
      "è¿Ľè¡ĮäºĨ": 3891,
      "éļ¾ä»¥": 3892,
      "åħ°": 3893,
      "åħ¬å¹³": 3894,
      "åŃ¦èĢħ": 3895,
      "åį«éĹ¨": 3896,
      "ocytes": 3897,
      "æĬĬæı¡": 3898,
      "Ġif": 3899,
      "æ®¿": 3900,
      "ç»ķ": 3901,
      "åı¥": 3902,
      "ä¹łè¿ĳå¹³æĢ»ä¹¦è®°": 3903,
      "å¾Ģå¾Ģ": 3904,
      "è½¬åĮĸ": 3905,
      "Ġflu": 3906,
      "Ġdifferences": 3907,
      "Ġoccur": 3908,
      "ĠY": 3909,
      "é«ĺè´¨éĩı": 3910,
      "Ġæ¦Ĥè¦ģ": 3911,
      "æıĲåĩºäºĨ": 3912,
      "æļ´": 3913,
      "å¥ĭæĸĹ": 3914,
      "SD": 3915,
      "æĭĽ": 3916,
      "ä¸īå¹´": 3917,
      "å¾ªçİ¯": 3918,
      "Ġcomplex": 3919,
      "Ġiniti": 3920,
      "ane": 3921,
      "éĺħ": 3922,
      "55": 3923,
      "av": 3924,
      "é½": 3925,
      "æĳĦ": 3926,
      "ä¿¡çİĦ": 3927,
      "åħĥå¹´": 3928,
      "fer": 3929,
      "éĴ±": 3930,
      "æķı": 3931,
      "ä¼ģä¸ļçļĦ": 3932,
      "æĹħ": 3933,
      "æī¬": 3934,
      "çĻĮ": 3935,
      "çİ¯èĬĤ": 3936,
      "Ġwhether": 3937,
      "ä¼ı": 3938,
      "Ġdecreas": 3939,
      "åħ³ä¸ľ": 3940,
      "ä¸īå¥½": 3941,
      "å§ĭç»Ī": 3942,
      "Ġanimal": 3943,
      "Ġperi": 3944,
      "ä¹ĭåīį": 3945,
      "æĿ¥çľĭ": 3946,
      "è¯¾åłĤ": 3947,
      "äºĮæĺ¯": 3948,
      "ingle": 3949,
      "Ġ30": 3950,
      "ĠMed": 3951,
      "ç²Ĵ": 3952,
      "Ġhyper": 3953,
      "åıĳå¸ĥ": 3954,
      "Ġunders": 3955,
      "æ¯Ķå¦Ĥ": 3956,
      "è´¡çĮ®": 3957,
      "å¤ļæķ°": 3958,
      "43": 3959,
      "åĢĴ": 3960,
      "äºİæĺ¯": 3961,
      "æĬĳ": 3962,
      "æĿĥçĽĬ": 3963,
      "ains": 3964,
      "æĬĵ": 3965,
      "çĪĨ": 3966,
      "åįģä¹Ŀ": 3967,
      "ĠĊ": 3968,
      "æŃ£å¼ı": 3969,
      "è¡°": 3970,
      "æ¹ĸ": 3971,
      "Ġvol": 3972,
      "ackage": 3973,
      "æĺ¯ä¸Ģ": 3974,
      "æĭ¥æľī": 3975,
      "Ġwhere": 3976,
      "æĢ§èĥ½": 3977,
      "Ġelec": 3978,
      "åĴĮåıĳå±ķ": 3979,
      "Ġmodels": 3980,
      "ality": 3981,
      "åĴĮåĽ½": 3982,
      "Table": 3983,
      "åŃĿ": 3984,
      "Ġdesign": 3985,
      "ä½įç½®": 3986,
      "åİ»ä¸ĸ": 3987,
      "ety": 3988,
      "åĩĨå¤ĩ": 3989,
      "å¼¹": 3990,
      "æĢ»ç»ĵ": 3991,
      "Ġvirus": 3992,
      "mis": 3993,
      "gr": 3994,
      "ditions": 3995,
      "è¯ĳ": 3996,
      "è¯ķéªĮ": 3997,
      "ç¼ºä¹ı": 3998,
      "æľīæľº": 3999,
      "è°¦": 4000,
      "å®ģ": 4001,
      "mit": 4002,
      "ests": 4003,
      "åı¦ä¸Ģæĸ¹éĿ¢": 4004,
      "çĶ±æŃ¤": 4005,
      "Ġprof": 4006,
      "Ġorg": 4007,
      "iel": 4008,
      "çģ¾": 4009,
      "æ¯ıä¸ª": 4010,
      "è¿ĽæŃ¥": 4011,
      "Ġtrial": 4012,
      "çļĦæĸ¹æ³ķ": 4013,
      "äººå·¥": 4014,
      "åĢºæĿĥ": 4015,
      "æĬķåħ¥": 4016,
      "Ġvalues": 4017,
      "è¯ļ": 4018,
      "Ġreduced": 4019,
      "èĢĹ": 4020,
      "Ġcir": 4021,
      "IP": 4022,
      "ä¼¦": 4023,
      "Ġdisc": 4024,
      "å¯¹å¤ĸ": 4025,
      "Ġsymptom": 4026,
      "æĥł": 4027,
      "å¸Ń": 4028,
      "ä»ķ": 4029,
      "erv": 4030,
      "åįıåĲĮ": 4031,
      "ä¸ĭéĻį": 4032,
      "other": 4033,
      "tero": 4034,
      "ths": 4035,
      "Ġavail": 4036,
      "ä¼´": 4037,
      "èª": 4038,
      "è¿ĽæĶ»": 4039,
      "æĻºæħ§": 4040,
      "ç¼ĺ": 4041,
      "ither": 4042,
      "è§Ħå®ļçļĦ": 4043,
      "Ġdiabe": 4044,
      "å¥ĩ": 4045,
      "è¿ħ": 4046,
      "ior": 4047,
      "èĮ¶": 4048,
      "Ġradi": 4049,
      "åĨĮ": 4050,
      "å¹²éĥ¨": 4051,
      "æģ¢": 4052,
      "41": 4053,
      "Ġ(**": 4054,
      "Ġincluded": 4055,
      "ç³ĸ": 4056,
      "Ġconditions": 4057,
      "å®ªæ³ķ": 4058,
      "åĩĨç¡®": 4059,
      "çļĦæĸ¹å¼ı": 4060,
      "Ġestim": 4061,
      "99": 4062,
      "èµ¤": 4063,
      "gative": 4064,
      "å¦ĤæŃ¤": 4065,
      "å±ĤéĿ¢": 4066,
      "å±ħæ°ĳ": 4067,
      "ä¿¡çĶ¨": 4068,
      "æĢĢ": 4069,
      "æµģåĬ¨": 4070,
      "ä¾Ľç»Ļ": 4071,
      "åĩĿ": 4072,
      "åıªæĺ¯": 4073,
      "åĲĮæł·": 4074,
      "br": 4075,
      "ä»įçĦ¶": 4076,
      "Ġpresence": 4077,
      "Ġdiagnos": 4078,
      "åĴĮç¤¾ä¼ļ": 4079,
      "Ġknown": 4080,
      "lished": 4081,
      "ogni": 4082,
      "ained": 4083,
      "Ġabs": 4084,
      "OS": 4085,
      ");": 4086,
      "åħģ": 4087,
      "ä»ĭç»į": 4088,
      "ade": 4089,
      "å¿ħçĦ¶": 4090,
      "åĿĢ": 4091,
      "Ġfam": 4092,
      "xim": 4093,
      "ĠAd": 4094,
      "75": 4095,
      "èĩªåĬ¨": 4096,
      "ä¸¥æł¼": 4097,
      "åį«çĶŁ": 4098,
      "Ġobtained": 4099,
      "Ġrelated": 4100,
      "åİĤ": 4101,
      "åľ¨æŃ¤": 4102,
      "ä¿Ĺ": 4103,
      "ç»ıæµİåıĳå±ķ": 4104,
      "Ġless": 4105,
      "åŃ£": 4106,
      "åŃ¦éĻ¢": 4107,
      "ä¸ŃåĽ½çļĦ": 4108,
      "Ġsensi": 4109,
      "æĸĭ": 4110,
      "æľīåĪ©äºİ": 4111,
      "æī¶": 4112,
      "æ±½": 4113,
      "ĠĠĠĠĠĠĠĠĠĠĠĠĠ": 4114,
      "è¶£": 4115,
      "åĮħåĲ«": 4116,
      "AG": 4117,
      "å¤©çļĩ": 4118,
      "å¤§ä¼ļ": 4119,
      "acy": 4120,
      "åĢ¾": 4121,
      "Ġphen": 4122,
      "çªģçł´": 4123,
      "Ġphosph": 4124,
      "çĻ»è®°": 4125,
      "å¸¦æĿ¥": 4126,
      "![": 4127,
      "ification": 4128,
      "è·ĥ": 4129,
      "of": 4130,
      "Ġâ": 4131,
      "åį±æľº": 4132,
      "é¼ĵåĬ±": 4133,
      "ronic": 4134,
      "æĸĩçĮ®": 4135,
      "EM": 4136,
      "Ġsurvival": 4137,
      "ĠCom": 4138,
      "oss": 4139,
      "ĠĠĠĠĠĠĠĠĠĠĠĠĠĠ": 4140,
      "hy": 4141,
      "æĸĹäºī": 4142,
      "åĢį": 4143,
      "æ¡Īä¾ĭ": 4144,
      "Ġdiagnosis": 4145,
      "åıĤèĢĥ": 4146,
      "ä¼ĳ": 4147,
      "æĬ¼": 4148,
      "65": 4149,
      "ä¸Ģèµ·": 4150,
      "ust": 4151,
      "æ¡Ĩ": 4152,
      "67": 4153,
      "Ġgenetic": 4154,
      "å¤ļæł·": 4155,
      "row": 4156,
      "åĩºåıĳ": 4157,
      "æ®ĭ": 4158,
      "æľ¬æĸĩ": 4159,
      "ĠĠĠĠĠĠĠĠĠĠĠĠĠĠĠĠĠĠĠĠĠĠĠĠĠĠĠĠĠĠĠĠĠĠĠĠĠĠĠĠĠĠĠĠĠĠĠĠ": 4160,
      "æĢĿèĢĥ": 4161,
      "è®Ńç»ĥ": 4162,
      "åĽ¢éĺŁ": 4163,
      "tered": 4164,
      "æģ¢å¤į": 4165,
      "Ġmany": 4166,
      "Ġparticular": 4167,
      "ç»ĺ": 4168,
      "æľŁçļĦ": 4169,
      "éĩıçļĦ": 4170,
      "åİļ": 4171,
      "åĽ½å®¶çļĦ": 4172,
      "åĽ½æľī": 4173,
      "åºĶå¯¹": 4174,
      "Ġrepresent": 4175,
      "çĦ¶åĲİ": 4176,
      "Ġcle": 4177,
      "Ġpromo": 4178,
      "ä¸Ĭæµ·": 4179,
      "èĤº": 4180,
      "els": 4181,
      "åĳ¼": 4182,
      "åħ·å¤ĩ": 4183,
      "Ġsignaling": 4184,
      "é«ĺçŃī": 4185,
      "çĬ¶åĨµ": 4186,
      "ä¹ĭåŃĲ": 4187,
      "Ġbecause": 4188,
      "Ġadd": 4189,
      "æŃ£åľ¨": 4190,
      "Ġgra": 4191,
      "çľŁå®ŀ": 4192,
      "æĿ¥èĩª": 4193,
      "æ¶¦": 4194,
      "å¤§åĨħ": 4195,
      "éĩįæĸ°": 4196,
      "åĩºäºĨ": 4197,
      "ç´łè´¨": 4198,
      "ç§ĳçłĶ": 4199,
      "åĩºçļĦ": 4200,
      "Ġisol": 4201,
      "æĺŃ": 4202,
      "ld": 4203,
      "ife": 4204,
      "Ġtra": 4205,
      "å®ľ": 4206,
      "æ¯Ķä¾ĭ": 4207,
      "åĪº": 4208,
      "Ġdays": 4209,
      "Ġsingle": 4210,
      "æĢİ": 4211,
      "ET": 4212,
      "åŃĶ": 4213,
      "åį¡": 4214,
      "Ġmal": 4215,
      "æŃ£å¸¸": 4216,
      "Ġsurg": 4217,
      "åĲĪæ³ķ": 4218,
      "å¤§åıĭ": 4219,
      "usep": 4220,
      "Ġprovide": 4221,
      "Ġlab": 4222,
      "\\'": 4223,
      "uted": 4224,
      "ĠĠĠĠĠĠĠĠĠ": 4225,
      "èį¯çī©": 4226,
      "è®¾ç«ĭ": 4227,
      "usepackage": 4228,
      "ily": 4229,
      "fore": 4230,
      "hes": 4231,
      "CP": 4232,
      "88": 4233,
      "Ġagain": 4234,
      "Ġseveral": 4235,
      "å«¡": 4236,
      "Ġinvolved": 4237,
      "èŀįèµĦ": 4238,
      "æĬ½": 4239,
      "based": 4240,
      "åĪĢ": 4241,
      "ä¸Ģæ¬¡": 4242,
      "ĠCon": 4243,
      "é«ĺçļĦ": 4244,
      "ield": 4245,
      "Ġweek": 4246,
      "work": 4247,
      "æ¨ª": 4248,
      "æķĪåºĶ": 4249,
      "ä¸Ģæł·": 4250,
      "åįģåĪĨ": 4251,
      "éĢļä¿¡": 4252,
      "è®¤çŁ¥": 4253,
      "ç©¿": 4254,
      "aren": 4255,
      "Ġexpressed": 4256,
      "çĽ¸å½ĵ": 4257,
      "çļĨ": 4258,
      "ĠQ": 4259,
      "Ġtreated": 4260,
      "åħĪè¿Ľ": 4261,
      "Ġperiod": 4262,
      "ward": 4263,
      "ax": 4264,
      "Ġmechanisms": 4265,
      "å·¥ä½ľçļĦ": 4266,
      "Ġpattern": 4267,
      "Ġculture": 4268,
      "{\\": 4269,
      "ults": 4270,
      "åįģåĽĽ": 4271,
      "och": 4272,
      "æħ¢": 4273,
      "æĿ¥è¶Ĭ": 4274,
      "çļĦè§Ħå®ļ": 4275,
      "tand": 4276,
      "odies": 4277,
      "ä¸Ģå®ļçļĦ": 4278,
      "ning": 4279,
      "Ġneurons": 4280,
      "Ġenh": 4281,
      "ä¸įä¼ļ": 4282,
      "è¶ĬæĿ¥è¶Ĭ": 4283,
      "å¹³åĿĩ": 4284,
      "è´¦": 4285,
      "æĶ¹éĿ©å¼ĢæĶ¾": 4286,
      "ç¤¾åĮº": 4287,
      "Ġmeasured": 4288,
      "åĩ½æķ°": 4289,
      "reast": 4290,
      "ick": 4291,
      "è´¯å½»": 4292,
      "Ġdemonstrated": 4293,
      "Ġpart": 4294,
      "åŁºéĩĳ": 4295,
      "icient": 4296,
      "Ġresist": 4297,
      "Ġrece": 4298,
      "vant": 4299,
      "ç£ģ": 4300,
      "åħįçĸ«": 4301,
      "set": 4302,
      "çŃīäºº": 4303,
      "ĠĠĠĠĠĠĠĠĠĠ": 4304,
      "Ġcontr": 4305,
      "ä¹ĺ": 4306,
      "æķĻæİĪ": 4307,
      "æĸ¹çļĦ": 4308,
      "ç»ıæµİåŃ¦": 4309,
      "è°Ĳ": 4310,
      "Ġstatis": 4311,
      "å®Įæķ´": 4312,
      "Ġstress": 4313,
      "éĺĲ": 4314,
      "\"\"": 4315,
      "åıĺéĿ©": 4316,
      "otype": 4317,
      "Ġdirect": 4318,
      "è°¦ä¿¡": 4319,
      "å¹³çŃī": 4320,
      "very": 4321,
      "æł¼å±Ģ": 4322,
      "Ġmultiple": 4323,
      "æ³¨éĩį": 4324,
      "ç¿»": 4325,
      "æĽ´å¥½": 4326,
      "å³°": 4327,
      "æģ©": 4328,
      "veal": 4329,
      "åĨ·": 4330,
      "æĿ¾å¹³": 4331,
      "Ġregion": 4332,
      "åĲĦä¸ª": 4333,
      "éĿ¢å¯¹": 4334,
      "Ġele": 4335,
      "è§Ĩä¸º": 4336,
      "Ġlik": 4337,
      "å®¡æŁ¥": 4338,
      "\",\"": 4339,
      "Ġliver": 4340,
      "Ġcalc": 4341,
      "æĪı": 4342,
      "åĬ¡éĻ¢": 4343,
      "ĠAll": 4344,
      "åħ¬æ°ĳ": 4345,
      "Ġpreviously": 4346,
      "æ½®": 4347,
      "ening": 4348,
      "å°½ç®¡": 4349,
      "Ġsol": 4350,
      "åĪĳäºĭ": 4351,
      "erc": 4352,
      "æľºåĻ¨": 4353,
      "Ġ24": 4354,
      "æĪĺæŃ»": 4355,
      "å®īæİĴ": 4356,
      "Ġ100": 4357,
      "çļĦä½ľçĶ¨": 4358,
      "è´¹çĶ¨": 4359,
      "line": 4360,
      "Ġserum": 4361,
      "Ġphys": 4362,
      "è´¤": 4363,
      "Ġinj": 4364,
      "Ġinteres": 4365,
      "elf": 4366,
      "èĤ¡ä¸ľ": 4367,
      "çĽĳæµĭ": 4368,
      "çĲĨæĥ³": 4369,
      "ty": 4370,
      "æĥħå½¢": 4371,
      "å¤ļä¸ª": 4372,
      "ç¤¾ä¼ļçļĦ": 4373,
      "Ġbefore": 4374,
      "åı¦å¤ĸ": 4375,
      "Ġ.": 4376,
      "Ġvalue": 4377,
      "Ġnec": 4378,
      "onses": 4379,
      "58": 4380,
      "æµĭéĩı": 4381,
      "é¢Ħæµĭ": 4382,
      "kin": 4383,
      "ID": 4384,
      "Ġidentify": 4385,
      "çĻ¾å¹´": 4386,
      "çĽĺ": 4387,
      "è¿ŀæİ¥": 4388,
      "Ġdiseases": 4389,
      "æ¹¾": 4390,
      "å¤©ä¸ĭ": 4391,
      "äººçī©": 4392,
      "69": 4393,
      "é¾Ħ": 4394,
      "æĹ¨": 4395,
      "Ġsample": 4396,
      "åı¯è§ģ": 4397,
      "Ġcase": 4398,
      "éħĴ": 4399,
      "è®ºæĸĩ": 4400,
      "Ġprolif": 4401,
      "å¤ľ": 4402,
      "que": 4403,
      "å®¹æĺĵ": 4404,
      "Ġstandard": 4405,
      "æĻļ": 4406,
      "BS": 4407,
      "ç¡®ç«ĭ": 4408,
      "çļĦä¸Ģä¸ª": 4409,
      "Ġreveal": 4410,
      "68": 4411,
      "å½ĵä¸»": 4412,
      "å²¸": 4413,
      "ç®Ĺæ³ķ": 4414,
      "ually": 4415,
      "çĩĥ": 4416,
      "ä¸Ģä½ĵ": 4417,
      "lation": 4418,
      "åĨĽçļĦ": 4419,
      "ĠRNA": 4420,
      "çĹħæ¯Ĵ": 4421,
      "è¸": 4422,
      "çº¦å®ļ": 4423,
      "ĠHIV": 4424,
      "ĠEx": 4425,
      "Ġdom": 4426,
      "èĴĻ": 4427,
      "åĨĽéĺŁ": 4428,
      "æĹłè®º": 4429,
      "Ġavailable": 4430,
      "Ġexperiments": 4431,
      "è¯¢": 4432,
      "ä¼¯": 4433,
      "Ġbody": 4434,
      "åıĽ": 4435,
      "ties": 4436,
      "pression": 4437,
      "åıªèĥ½": 4438,
      "Ġlarge": 4439,
      "èĭ¦": 4440,
      "å°Ĩåħ¶": 4441,
      "è¿ĩåİ»": 4442,
      "ä¸ĵåĪ©": 4443,
      "åĽ°éļ¾": 4444,
      "MI": 4445,
      "NP": 4446,
      "æ²Ł": 4447,
      "åĪļ": 4448,
      "Ġben": 4449,
      "Ġ50": 4450,
      "}}": 4451,
      "éģ£": 4452,
      "æ¯ķ": 4453,
      "Ġtem": 4454,
      "Ġresponses": 4455,
      "åīįæıĲ": 4456,
      "Ġhow": 4457,
      "Ġresult": 4458,
      "ĠHealth": 4459,
      "ç§©": 4460,
      "mine": 4461,
      "Ġprob": 4462,
      "æ³ī": 4463,
      "å°¼åŃĲ": 4464,
      "ok": 4465,
      "åĪĺ": 4466,
      "æ¢°": 4467,
      "åŁİä¹¡": 4468,
      "æĶ¶çĽĬ": 4469,
      "å¸ĮæľĽ": 4470,
      "78": 4471,
      "æ²Ļ": 4472,
      "])": 4473,
      "etwork": 4474,
      "æ²ī": 4475,
      "atus": 4476,
      "è°¢": 4477,
      "åĽ½åĬ¡éĻ¢": 4478,
      "ĠIm": 4479,
      "æĸ°åŀĭ": 4480,
      "æĥ¯": 4481,
      "Ġ18": 4482,
      "æııè¿°": 4483,
      "specific": 4484,
      "ĠFurther": 4485,
      "ellular": 4486,
      "èĤ¿çĺ¤": 4487,
      "çĹĽ": 4488,
      "viron": 4489,
      "ury": 4490,
      "anced": 4491,
      "**)": 4492,
      "ç»ŁçŃ¹": 4493,
      "Ġcharacteris": 4494,
      "Ġdeath": 4495,
      "round": 4496,
      "éĢĴ": 4497,
      "Ġpathway": 4498,
      "ĠĠĠĠĠĠĠĠĠĠĠ": 4499,
      "We": 4500,
      "é½Ĳ": 4501,
      "){#": 4502,
      "åħ¬å¼Ģ": 4503,
      "DNA": 4504,
      "æ¬²": 4505,
      "æķĻæĿĲ": 4506,
      "ç§ĺ": 4507,
      "æµª": 4508,
      "åĲĦç±»": 4509,
      "çļĦé«ĺ": 4510,
      "æ·±åº¦": 4511,
      "Ġprac": 4512,
      "Ġeither": 4513,
      "æłĩå¿Ĺ": 4514,
      "related": 4515,
      "å·¦åı³": 4516,
      "Ġpossible": 4517,
      "Ġed": 4518,
      "Ġgluc": 4519,
      "Ġmethods": 4520,
      "åħ¸åŀĭ": 4521,
      "Ġmight": 4522,
      "Ġsubjects": 4523,
      "MS": 4524,
      "98": 4525,
      "ĠNo": 4526,
      "omy": 4527,
      "åĽłèĢĮ": 4528,
      "ogenesis": 4529,
      "Ġlocal": 4530,
      "Th": 4531,
      "ä¸ĢåĪĩ": 4532,
      "çĽ¸æ¯Ķ": 4533,
      "åıĳè¡¨": 4534,
      "Ġdistrib": 4535,
      "face": 4536,
      "Ġmedical": 4537,
      "Ġbreast": 4538,
      "Ġmembran": 4539,
      "åĦĴ": 4540,
      "è¿½æ±Ĥ": 4541,
      "éĢĶå¾Ħ": 4542,
      "Ġimprove": 4543,
      "Ġter": 4544,
      "å±ķå¼Ģ": 4545,
      "Ġsi": 4546,
      "éļıåĲİ": 4547,
      "äºĭåĬ¡": 4548,
      "Ġindependent": 4549,
      "Ġchronic": 4550,
      "Ġauthors": 4551,
      "ä¸Ńåħ±": 4552,
      "åİĭåĬĽ": 4553,
      "PP": 4554,
      "çºµ": 4555,
      "å¸ĥå±Ģ": 4556,
      "tosis": 4557,
      "çłĶåıĳ": 4558,
      "ä»İäºĭ": 4559,
      "åħļä¸Ńå¤®": 4560,
      "çŁ¿": 4561,
      "Ġapproach": 4562,
      "Ġpri": 4563,
      "çī¢": 4564,
      "ä¼ĺç§Ģ": 4565,
      "åĨįæ¬¡": 4566,
      "Ġest": 4567,
      "åľ°çļĦ": 4568,
      "è¯ĨåĪ«": 4569,
      "Ġloss": 4570,
      "Ġdys": 4571,
      "åŁºå±Ĥ": 4572,
      "æķ´åĲĪ": 4573,
      "Ġtumors": 4574,
      "æķ°åŃĹåĮĸ": 4575,
      "çļĦåŁºç¡Ģä¸Ĭ": 4576,
      "é©»": 4577,
      "çĦ¦": 4578,
      "Ġindividuals": 4579,
      "ĠUniversity": 4580,
      "åĲĪæĪĺ": 4581,
      "åĬłåħ¥": 4582,
      "Ġred": 4583,
      "ĠâĪĴ": 4584,
      "å¤ĸéĥ¨": 4585,
      "Ġheart": 4586,
      "åĲĦåĽ½": 4587,
      "åī²": 4588,
      "lob": 4589,
      "Ġ11": 4590,
      "é¡µ": 4591,
      "è¡¨éĿ¢": 4592,
      "çĳ": 4593,
      "è¯º": 4594,
      "äº§çĶŁçļĦ": 4595,
      "åĨ²çªģ": 4596,
      "CL": 4597,
      "Ġconsidered": 4598,
      "äºĶå¹´": 4599,
      "]\\],": 4600,
      "Ġanalyzed": 4601,
      "Ġsus": 4602,
      "èĭ±åĽ½": 4603,
      "Ġåľ¨": 4604,
      "Ġunderstand": 4605,
      "èĩªæ²»": 4606,
      "åŃĺåĤ¨": 4607,
      "æ¡Ĩæŀ¶": 4608,
      "èĤĮ": 4609,
      "Ġvi": 4610,
      "ä»²è£ģ": 4611,
      "åŁİéķĩ": 4612,
      "verse": 4613,
      "æİĴæĶ¾": 4614,
      "æ®ĸ": 4615,
      "Ġrati": 4616,
      "èĪŀ": 4617,
      "tric": 4618,
      "æĺ¯å¯¹": 4619,
      "çī¹å®ļ": 4620,
      "åı¯æĮģç»Ń": 4621,
      "éĹŃ": 4622,
      "ĠAD": 4623,
      "æľºä¼ļ": 4624,
      "PD": 4625,
      "Ġcirc": 4626,
      "Ġchange": 4627,
      "éķľ": 4628,
      "åŁºç¡Ģè®¾æĸ½": 4629,
      "æĻ®éĢļ": 4630,
      "è´¢åĬ¡": 4631,
      "Ġdetermine": 4632,
      "æ°§åĮĸ": 4633,
      "åĬ¨æĢģ": 4634,
      "Ġwomen": 4635,
      "ision": 4636,
      "Ġste": 4637,
      "atin": 4638,
      "çŁ¥éģĵ": 4639,
      "Ġfoc": 4640,
      "AL": 4641,
      "ç§©åºı": 4642,
      "ä¸ĵå®¶": 4643,
      "é£Łåĵģ": 4644,
      "Ġagainst": 4645,
      "å¤ı": 4646,
      "tory": 4647,
      "åĲĮå¿Ĺ": 4648,
      "Ġallow": 4649,
      "oles": 4650,
      "Ġgu": 4651,
      "ĠmRNA": 4652,
      "ince": 4653,
      "å¥ĸ": 4654,
      "Ġcompon": 4655,
      "å®ŀä½ĵ": 4656,
      "iven": 4657,
      "æŃ¤åĲİ": 4658,
      "59": 4659,
      "å®ŀéĻħä¸Ĭ": 4660,
      "çļĦä¸»": 4661,
      "éŁ³ä¹Ĳ": 4662,
      "å¡ĳ": 4663,
      "æĪĲå°±": 4664,
      "Ġ16": 4665,
      "amin": 4666,
      "æĬĢæľ¯çļĦ": 4667,
      "é¡¶": 4668,
      "CS": 4669,
      "Ġpress": 4670,
      "Ġmouse": 4671,
      "Ġimaging": 4672,
      "æĶ¿æĿĥ": 4673,
      "åħ±åĴĮåĽ½": 4674,
      "ä¸Ńå°ı": 4675,
      "Ġmonths": 4676,
      "æŃ¦å£«": 4677,
      "æĭĴ": 4678,
      "Ġfunctional": 4679,
      "ationship": 4680,
      "è¿ħéĢŁ": 4681,
      "åŁİçļĦ": 4682,
      "æµ¦": 4683,
      "Ġconduc": 4684,
      "éļĶ": 4685,
      "ä¼Ĭè¾¾": 4686,
      "éĶĻè¯¯": 4687,
      "è¿Ļæł·çļĦ": 4688,
      "Ġsize": 4689,
      "Ġdecreased": 4690,
      "åĽ¢ç»ĵ": 4691,
      "åįģä¸ī": 4692,
      "æĹ¶ä»£çļĦ": 4693,
      "Ġlip": 4694,
      "arc": 4695,
      "è±ª": 4696,
      "ules": 4697,
      "^âĪĴ": 4698,
      "åĽ´ç»ķ": 4699,
      "Ġinduced": 4700,
      "è½¨": 4701,
      "çĽĲ": 4702,
      "Ġparticipants": 4703,
      "ä¸ªä½ĵ": 4704,
      "åĨħæ¶µ": 4705,
      "ium": 4706,
      "åŃ¦çļĦ": 4707,
      "erence": 4708,
      "åľ°çĲĨ": 4709,
      "Ġhis": 4710,
      "Ġconfir": 4711,
      "2020": 4712,
      "ä¾µæĿĥ": 4713,
      "Ġstimul": 4714,
      "å»·": 4715,
      "åĴĮå¹³": 4716,
      "æķĻèĤ²çļĦ": 4717,
      "åĳ½ä»¤": 4718,
      "Ġmg": 4719,
      "çļĦæķ°æį®": 4720,
      "çļĦè¡Įä¸º": 4721,
      "Ġbinding": 4722,
      "OR": 4723,
      "æ±½è½¦": 4724,
      "ists": 4725,
      "çŀ": 4726,
      "Ġmac": 4727,
      "èĤĿ": 4728,
      "è¾ĸ": 4729,
      "Ġaccording": 4730,
      "%.": 4731,
      "ene": 4732,
      "ised": 4733,
      "ç»ıåİĨ": 4734,
      "è¿ĻéĩĮ": 4735,
      "éĶĢåĶ®": 4736,
      "ä¼ĺåħĪ": 4737,
      "Ġsoci": 4738,
      "ä¹ĭä¸Ń": 4739,
      "Ġextrac": 4740,
      "è¡ĮçļĦ": 4741,
      "omic": 4742,
      "come": 4743,
      "å®¡è®¡": 4744,
      "éĥ¨ç½²": 4745,
      "éĺ´": 4746,
      "Ġdetected": 4747,
      "tok": 4748,
      "Ġvs": 4749,
      "æĦıåĳ³": 4750,
      "Ġrecom": 4751,
      "åĬ³åĬ¨èĢħ": 4752,
      "å¼ķé¢Ĩ": 4753,
      "Ġhel": 4754,
      "èĮĤ": 4755,
      "Ġdetermined": 4756,
      "\"(": 4757,
      "èĶ": 4758,
      "Ġver": 4759,
      "æµģç¨ĭ": 4760,
      "ĠCI": 4761,
      "acc": 4762,
      "åıįå¯¹": 4763,
      "è¿Ĳè¾ĵ": 4764,
      "ĠX": 4765,
      "çİī": 4766,
      "èĥľåĪ©": 4767,
      "Ġsymptoms": 4768,
      "æľīæīĢ": 4769,
      "æ¬§æ´²": 4770,
      "ç»ĻäºĪ": 4771,
      "æĹĭ": 4772,
      "èİ·åıĸ": 4773,
      "åħ¬ä¼Ĺ": 4774,
      "vironment": 4775,
      "åĳ¨æľŁ": 4776,
      "asis": 4777,
      "æĮ¯åħ´": 4778,
      "ĠCT": 4779,
      "bl": 4780,
      "å®ŀè·µä¸Ń": 4781,
      "éĻ¶": 4782,
      "Ġsupport": 4783,
      "ä¹ĭä¹±": 4784,
      "Ġinsulin": 4785,
      "cy": 4786,
      "âĢĿãĢģ": 4787,
      "åĴĮè°Ĳ": 4788,
      "amp": 4789,
      "Â°": 4790,
      "å¾Ĵ": 4791,
      "æµ·æ´ĭ": 4792,
      "Ġpur": 4793,
      "lection": 4794,
      "51": 4795,
      "å¤ļåħĥ": 4796,
      "ç¡®è®¤": 4797,
      "åĬŀæ³ķ": 4798,
      "åĩĢ": 4799,
      "02": 4800,
      "èµı": 4801,
      "respon": 4802,
      "è¯ĬæĸŃ": 4803,
      "verage": 4804,
      "Ġapop": 4805,
      "Ġbeing": 4806,
      "å½¢åĬ¿": 4807,
      "å®ŀè´¨": 4808,
      "å½©": 4809,
      "Ġdown": 4810,
      "atal": 4811,
      "åĪĽä¸ļ": 4812,
      "æ°ĶåĢĻ": 4813,
      "åº¦çļĦ": 4814,
      "Ġmutations": 4815,
      "æļĹ": 4816,
      "åĬłå·¥": 4817,
      "éªı": 4818,
      "arm": 4819,
      "Ġcontrols": 4820,
      "åĳĪçİ°": 4821,
      "Ġepit": 4822,
      "ey": 4823,
      "ĠIns": 4824,
      "éĽĨåĽ¢": 4825,
      "åªĴä½ĵ": 4826,
      "åıĳè¾¾": 4827,
      "Ġç¬¬": 4828,
      "å®£ä¼ł": 4829,
      "éķ°": 4830,
      "aps": 4831,
      "epti": 4832,
      "æ£Ģå¯Ł": 4833,
      "äºĪä»¥": 4834,
      "Ġviv": 4835,
      "ç¾İåħĥ": 4836,
      "å®ĹæķĻ": 4837,
      "ĠmiR": 4838,
      "æĦŁæŁĵ": 4839,
      "éļľç¢į": 4840,
      "Ġmolecular": 4841,
      "ä¸īæ²³": 4842,
      "åľĨ": 4843,
      "LA": 4844,
      "plication": 4845,
      "Ġantibody": 4846,
      "198": 4847,
      "ï½": 4848,
      "pha": 4849,
      "ä¸°èĩ£ç§ĢåĲī": 4850,
      "æŃ£æĺ¯": 4851,
      "çº³åħ¥": 4852,
      "ner": 4853,
      "54": 4854,
      "åĲĮä¸Ģ": 4855,
      "Ġdifference": 4856,
      "Ġext": 4857,
      "å½ĵçĦ¶": 4858,
      "Ġexample": 4859,
      "ä¾į": 4860,
      "eline": 4861,
      "æīĢåľ¨": 4862,
      "sc": 4863,
      "æº¶": 4864,
      "çºłçº·": 4865,
      "52": 4866,
      "è·¯å¾Ħ": 4867,
      "æĸĲ": 4868,
      "ç¨İæĶ¶": 4869,
      "åı¤ä»£": 4870,
      "å¹¶éĿŀ": 4871,
      "å°º": 4872,
      "ables": 4873,
      "åĪ¶åº¦çļĦ": 4874,
      "å®ıè§Ĥ": 4875,
      "æĹ¥çĽĬ": 4876,
      "è¿Ŀæ³ķ": 4877,
      "RP": 4878,
      "å½¢æĪĲäºĨ": 4879,
      "Ġstrateg": 4880,
      "ä¾Ŀèµĸ": 4881,
      "äºīè®®": 4882,
      "éľĩ": 4883,
      "Ġrelationship": 4884,
      "çŃīæĸ¹éĿ¢": 4885,
      "Ġpsych": 4886,
      "åĬłå¤§": 4887,
      "Ġdeg": 4888,
      "éĶĭ": 4889,
      "Ġcommun": 4890,
      "é¾Ł": 4891,
      "æĽ´ä¸º": 4892,
      "æī°": 4893,
      "SP": 4894,
      "Ġles": 4895,
      "èĥģ": 4896,
      "Ġfour": 4897,
      "TP": 4898,
      "omet": 4899,
      "Ġnegative": 4900,
      "Ġassociation": 4901,
      "åŃĲçļĦ": 4902,
      "ull": 4903,
      "łéģĵ": 4904,
      "åīįå¾Ģ": 4905,
      "Ġlikely": 4906,
      "çĽ¸åħ³çļĦ": 4907,
      "éĽª": 4908,
      "idence": 4909,
      "åĩºçĶŁ": 4910,
      "Ġproduction": 4911,
      "å®ļä½į": 4912,
      "å®ħ": 4913,
      "ysi": 4914,
      "ä¸ĢåĲĮ": 4915,
      "å®¢æĪ·": 4916,
      "Ġstrong": 4917,
      "Ġbone": 4918,
      "æ³°": 4919,
      "ä¸Ńåįİäººæ°ĳ": 4920,
      ")ï¼Į": 4921,
      "è¦ĨçĽĸ": 4922,
      "Ġvivo": 4923,
      "æľĿä»ĵ": 4924,
      "éĤ¦": 4925,
      "èģĮèĥ½": 4926,
      "Ġmm": 4927,
      "æĶ¹éĢł": 4928,
      "è´·æ¬¾": 4929,
      "åįģå¹´": 4930,
      "çĪĨåıĳ": 4931,
      "truc": 4932,
      "ä¸ŃåĽ½äººæ°ĳ": 4933,
      "çķł": 4934,
      "Ġhospital": 4935,
      "ogenic": 4936,
      "03": 4937,
      "éªĳ": 4938,
      "çĽ¸ç»ĵåĲĪ": 4939,
      "æĸĩç«ł": 4940,
      "Ġblock": 4941,
      "66": 4942,
      "è°ĥèĬĤ": 4943,
      "åħ³ç³»çļĦ": 4944,
      "Ġconsist": 4945,
      "Ġtranscription": 4946,
      "Ġexc": 4947,
      "rome": 4948,
      "æıĨ": 4949,
      "ç¾¤ä½ĵ": 4950,
      "Ġsa": 4951,
      "âĢ¦âĢ¦": 4952,
      "atively": 4953,
      "bility": 4954,
      "åįĩçº§": 4955,
      "Ġhem": 4956,
      "Ġassay": 4957,
      "çľĭåĪ°": 4958,
      "ä¹Łå°±æĺ¯": 4959,
      "Ġanalyses": 4960,
      "77": 4961,
      "Ġadmin": 4962,
      "çīĮ": 4963,
      "çĶ¨çļĦ": 4964,
      "comes": 4965,
      "rop": 4966,
      "ored": 4967,
      "Ġparame": 4968,
      "ä¹Łä¸į": 4969,
      "Ġmetast": 4970,
      "æĭħä¿Ŀ": 4971,
      "CO": 4972,
      "Ġdiabetes": 4973,
      "rac": 4974,
      "çĭŃ": 4975,
      "ators": 4976,
      "åĢ¡": 4977,
      "erative": 4978,
      "åĩºåı£": 4979,
      "ä¹Łåı¯ä»¥": 4980,
      "Ġques": 4981,
      "ume": 4982,
      "Ġhep": 4983,
      "âĢĿâĢľ": 4984,
      "Ġ14": 4985,
      "æĬĳåĪ¶": 4986,
      "æŃ»äº¡": 4987,
      "çł´åĿı": 4988,
      "æ³ķå®ļ": 4989,
      "æıŃ": 4990,
      "Ġexposure": 4991,
      "ä½ľæĪĺ": 4992,
      "æ´ŀ": 4993,
      "ove": 4994,
      "ç±į": 4995,
      "Ġfail": 4996,
      "èħĲ": 4997,
      "å¼¥": 4998,
      "éĺħè¯»": 4999,
      "çĶŁæĢģçİ¯å¢ĥ": 5000,
      "Ġcontrast": 5001,
      "Ġvarious": 5002,
      "éĥ½æľī": 5003,
      "è¿ŀç»Ń": 5004,
      "cept": 5005,
      "æ¤įçī©": 5006,
      "åĲĦçº§": 5007,
      "åĮºåĪ«": 5008,
      "åĬ¨çī©": 5009,
      "ĠAm": 5010,
      "uration": 5011,
      "ä¸Ĭåįĩ": 5012,
      "åĪ©çİĩ": 5013,
      "FP": 5014,
      "ï¼ģ": 5015,
      "err": 5016,
      "çļĦèĥ½åĬĽ": 5017,
      "åĽ½äºº": 5018,
      "åĽĽä¸ª": 5019,
      "æŁĲäºĽ": 5020,
      "CM": 5021,
      "\\<": 5022,
      "ç±»ä¼¼": 5023,
      "earch": 5024,
      "Ġday": 5025,
      "Ġtissues": 5026,
      "Ġantigen": 5027,
      "å·¥èīº": 5028,
      "è¢«åĳĬ": 5029,
      "tically": 5030,
      "æ¡£": 5031,
      "çļĦè¿ĩç¨ĭ": 5032,
      "çĶŁæĪĲ": 5033,
      "æļĤ": 5034,
      "ĠZ": 5035,
      "Ġnetwork": 5036,
      "æľºæ¢°": 5037,
      "ulations": 5038,
      "å®¶æĹı": 5039,
      "æ¥ļ": 5040,
      "itor": 5041,
      "ams": 5042,
      "æŀª": 5043,
      "ä¸Ģæĸ¹": 5044,
      "inc": 5045,
      "Ġtypes": 5046,
      "åĪĬ": 5047,
      "åı«": 5048,
      "æľĿé²ľ": 5049,
      "âĢ²": 5050,
      "--------------------": 5051,
      "Ġarter": 5052,
      "åħĥå°±": 5053,
      "Ġstrain": 5054,
      "ç¾İæµĵ": 5055,
      "ä¸ĵéĹ¨": 5056,
      "*-": 5057,
      "ãĢĤâĢľ": 5058,
      "äº¤æį¢": 5059,
      "Ġchem": 5060,
      "ä¿Ħ": 5061,
      "Ġlo": 5062,
      "read": 5063,
      "Ġadj": 5064,
      "å°±ä¼ļ": 5065,
      "Ġinjury": 5066,
      "çī¹æĢ§": 5067,
      "ä½įäºİ": 5068,
      "ä¸»è¦ģæĺ¯": 5069,
      "ysis": 5070,
      "æ¯Ľæ³½": 5071,
      "tein": 5072,
      "åĨł": 5073,
      "ocum": 5074,
      "Ġproced": 5075,
      "éħ¶": 5076,
      "åĬ©äºİ": 5077,
      "å®¤çĶº": 5078,
      "Ġinclude": 5079,
      "æĢģåº¦": 5080,
      "å¼ºåĪ¶": 5081,
      "åĪ¶éĢłä¸ļ": 5082,
      "æ¯Ľæ³½ä¸ľ": 5083,
      "ean": 5084,
      "éĩįèĩ£": 5085,
      "çī©æµģ": 5086,
      "çļĦå·¥ä½ľ": 5087,
      "åıĳåĬ¨": 5088,
      "RT": 5089,
      "===": 5090,
      "çļĦæ³ķå¾ĭ": 5091,
      "å¦Ĥä¸ĭ": 5092,
      "æĦıåĳ³çĿĢ": 5093,
      "å»ºæĪĲ": 5094,
      "é«ĺæķĪ": 5095,
      "éĢĨ": 5096,
      "ä»¿": 5097,
      "å½ĵä»£": 5098,
      "å¤§æķ°æį®": 5099,
      "Ġindicated": 5100,
      "éĥ¨éĺŁ": 5101,
      "èħ¹": 5102,
      "çļĦçĲĨè®º": 5103,
      "èģĮè´£": 5104,
      "08": 5105,
      "posed": 5106,
      "DP": 5107,
      "Ġcytok": 5108,
      "ll": 5109,
      "Ġmuscle": 5110,
      "Ġsuppor": 5111,
      "Ġpressure": 5112,
      "çļĦåĨħå®¹": 5113,
      "ç§¦": 5114,
      "Ġtrain": 5115,
      "å£¤": 5116,
      "atures": 5117,
      "ru": 5118,
      "åĲĦåľ°": 5119,
      "Ġhypothe": 5120,
      "è§£æĶ¾": 5121,
      "é©±åĬ¨": 5122,
      "ä¹ĭå¤ĸ": 5123,
      "æģĴ": 5124,
      "79": 5125,
      "åħģè®¸": 5126,
      "ian": 5127,
      "Ġret": 5128,
      "Ġhelp": 5129,
      "Ġresistance": 5130,
      "Ġcause": 5131,
      "åĿļå®ļ": 5132,
      "ä½Ĩåľ¨": 5133,
      "è¯ģåĪ¸": 5134,
      "çī§": 5135,
      "åĩłä¸ª": 5136,
      "Ġdeveloped": 5137,
      "pone": 5138,
      "Ġbel": 5139,
      "ä¸Ģå¸¦": 5140,
      "mission": 5141,
      "\\[": 5142,
      "eutic": 5143,
      "orders": 5144,
      "è¿ĳæ±Ł": 5145,
      "åķĨæłĩ": 5146,
      "Ġglucose": 5147,
      "Ġyo": 5148,
      "Ġproliferation": 5149,
      "å¡ŀ": 5150,
      "nec": 5151,
      "otherap": 5152,
      "Ġmit": 5153,
      "Ġpercent": 5154,
      "è¯±": 5155,
      "ule": 5156,
      "entral": 5157,
      "å²Ĳ": 5158,
      "æĸĩä¹¦": 5159,
      "roup": 5160,
      "Ġantibodies": 5161,
      "Ġflow": 5162,
      "åįģåħŃ": 5163,
      "Ġleast": 5164,
      "çĶ¨äºº": 5165,
      "åĽ¾åĥı": 5166,
      "éķ°ä»ĵ": 5167,
      "Ġpul": 5168,
      "ĠII": 5169,
      "äº¿åħĥ": 5170,
      "éĺ²æŃ¢": 5171,
      "åĩłä¹İ": 5172,
      "å¯¹ç«ĭ": 5173,
      "Ġexperi": 5174,
      "åŁ¹èĤ²": 5175,
      "ç»ıæµİçļĦ": 5176,
      "ĠRe": 5177,
      "çĥ§": 5178,
      "æĹ©æľŁ": 5179,
      "åĲ¸æĶ¶": 5180,
      "ä»ĸäºº": 5181,
      "éĿĴå¹´": 5182,
      "æĳ©": 5183,
      "æ¢ģ": 5184,
      "åĳ¢": 5185,
      "ä¸ĩçŁ³": 5186,
      "ä¼į": 5187,
      "09": 5188,
      "ended": 5189,
      "æĺ¯ä»¥": 5190,
      "æ¸©åº¦": 5191,
      "ä¿®æĶ¹": 5192,
      "Ġfocus": 5193,
      "åį±éĻ©": 5194,
      "Ġinten": 5195,
      "ĠCl": 5196,
      "æ°¢": 5197,
      "åĽºå®ļ": 5198,
      "andom": 5199,
      "ä¸ĢæıĨ": 5200,
      "æĸĩåĮĸçļĦ": 5201,
      "æĸĩåŃĹ": 5202,
      "fn": 5203,
      "åħļåĴĮ": 5204,
      "Ġ'": 5205,
      "å²Ĺ": 5206,
      "ably": 5207,
      "Ġvery": 5208,
      "Ġvitro": 5209,
      "Ġproble": 5210,
      "åģļå¥½": 5211,
      "éĿ¢ç§¯": 5212,
      "63": 5213,
      "èĢķ": 5214,
      "ĠMore": 5215,
      "è¡Įä½¿": 5216,
      "Ġgeneral": 5217,
      "$$": 5218,
      "NS": 5219,
      "è´«åĽ°": 5220,
      "Ġstatus": 5221,
      "å°ıçĶ°": 5222,
      "ç»´æĮģ": 5223,
      "Ġcoun": 5224,
      "CG": 5225,
      "ãĢĤï¼Ī": 5226,
      "å¹¶åľ¨": 5227,
      "æĩ": 5228,
      "å¤ĸäº¤": 5229,
      "è¿ĽèĢĮ": 5230,
      "Ġoutcomes": 5231,
      "çĶ²æĸĲ": 5232,
      "è´´": 5233,
      "å°¾å¼ł": 5234,
      "MD": 5235,
      "å®ĥçļĦ": 5236,
      "ople": 5237,
      "ĠPD": 5238,
      "Ġtechni": 5239,
      "æ¿ĢåĬ±": 5240,
      "BP": 5241,
      "Ġvia": 5242,
      "64": 5243,
      "æ°ĳæ³ķ": 5244,
      "ç»ĵæĿŁ": 5245,
      "math": 5246,
      "åĹ": 5247,
      "Ġstate": 5248,
      "ç¾½æŁ´": 5249,
      "dependent": 5250,
      "Ġdose": 5251,
      "åľ£": 5252,
      "è½¬è®©": 5253,
      "Ġestab": 5254,
      "å½ĵåľ°": 5255,
      "å¾Ĺä»¥": 5256,
      "Ġscre": 5257,
      "aneous": 5258,
      "äººå·¥æĻºèĥ½": 5259,
      "çĸ«æĥħ": 5260,
      "RA": 5261,
      "zym": 5262,
      "æĶ¶éĽĨ": 5263,
      "term": 5264,
      "Ġadv": 5265,
      "Ġlines": 5266,
      "ãĥ»": 5267,
      "Ġformation": 5268,
      "Ġrange": 5269,
      "pr": 5270,
      "è£ķ": 5271,
      "è®¯": 5272,
      "Ġarea": 5273,
      "ç»ıæµİç¤¾ä¼ļ": 5274,
      "ish": 5275,
      "Ġinflammatory": 5276,
      "ĠÃĹ": 5277,
      "Ġcellular": 5278,
      "04": 5279,
      "å»ºè®¾çļĦ": 5280,
      "Ġmechanism": 5281,
      "Ġequ": 5282,
      "]--": 5283,
      "toc": 5284,
      "å¤Ħç½ļ": 5285,
      "Ġinjec": 5286,
      "æĮĩæĮ¥": 5287,
      "]--[@": 5288,
      "çŁ¥è¯Ĩäº§æĿĥ": 5289,
      "çļĦä¸į": 5290,
      "æķĪçĽĬ": 5291,
      "å¥ĳ": 5292,
      "]),": 5293,
      "ĊĊĠ": 5294,
      "çº¦æĿŁ": 5295,
      "Ġrequired": 5296,
      "ds": 5297,
      "plications": 5298,
      "ognitive": 5299,
      "æĻ¶": 5300,
      "Ġacute": 5301,
      "å¦ĩ": 5302,
      "åĩºåħµ": 5303,
      "çłĶç©¶çļĦ": 5304,
      "Ġorder": 5305,
      "åįıåķĨ": 5306,
      "Ġintegr": 5307,
      "è½¬æį¢": 5308,
      "åĮ»åŃ¦": 5309,
      "owled": 5310,
      "73": 5311,
      "Ġthem": 5312,
      "å°ĳæķ°": 5313,
      "åħ¶æ¬¡": 5314,
      "èµŀ": 5315,
      "å°¤åħ¶æĺ¯": 5316,
      "IL": 5317,
      "èľ": 5318,
      "åĿĲ": 5319,
      "ãĢĤãĢĬ": 5320,
      "Ġlife": 5321,
      "åıĤæķ°": 5322,
      "Ġregions": 5323,
      "æĹħæ¸¸": 5324,
      "ä¸Ģç³»åĪĹ": 5325,
      "Ġcontin": 5326,
      "æ´ģ": 5327,
      "æĺ¯çĶ±": 5328,
      "å®¡åĪ¤": 5329,
      "ĊĠĠ": 5330,
      "è¾¨": 5331,
      "enter": 5332,
      "ĠOn": 5333,
      "ä¸Ńåįİäººæ°ĳåħ±åĴĮåĽ½": 5334,
      "çħ¤": 5335,
      "ä¼ĬåĬ¿": 5336,
      "app": 5337,
      "ä¸ºæł¸å¿ĥ": 5338,
      "å¼ķåıĳ": 5339,
      "Ġu": 5340,
      "text": 5341,
      "æ¿Ģåıĳ": 5342,
      "Ġsynd": 5343,
      "ĊĠĠĠĠĠĠĠĠĠĠĠĠĠĠĠ": 5344,
      "Ġhowever": 5345,
      "more": 5346,
      "Ġbenef": 5347,
      "çĽ¸åºĶçļĦ": 5348,
      "Ġpain": 5349,
      "é¢ĨåŁŁçļĦ": 5350,
      "Ġmembrane": 5351,
      "å·©": 5352,
      "æ¢¦": 5353,
      "ä¼łç»ŁçļĦ": 5354,
      "Ġbehavior": 5355,
      "rogen": 5356,
      "RS": 5357,
      "éĽ¨": 5358,
      "æ¡ĥ": 5359,
      "çļĦè¦ģæ±Ĥ": 5360,
      "Ġsevere": 5361,
      "*~": 5362,
      "Ġratio": 5363,
      "Ġacross": 5364,
      "å¿½": 5365,
      "DL": 5366,
      "æĥħæĦŁ": 5367,
      "opath": 5368,
      "ĠIg": 5369,
      "ices": 5370,
      "èµĦæľ¬ä¸»ä¹ī": 5371,
      "Ġhy": 5372,
      "çļĦæĥħåĨµä¸ĭ": 5373,
      "ç²®é£Ł": 5374,
      "ours": 5375,
      "Ġplasma": 5376,
      "tality": 5377,
      ")**": 5378,
      "ç»ĦåĲĪ": 5379,
      "å¯¼åĲĳ": 5380,
      "ask": 5381,
      "æİ¨å¹¿": 5382,
      "ä¿¡æµĵ": 5383,
      "çļĦåħ³éĶ®": 5384,
      "IT": 5385,
      "IF": 5386,
      "æī©å¼ł": 5387,
      "åĩºæĿ¥": 5388,
      "æ¶Īè´¹èĢħ": 5389,
      "Ġpathways": 5390,
      "Ġbar": 5391,
      "é¢Ħéĺ²": 5392,
      "olar": 5393,
      "mic": 5394,
      "æİĺ": 5395,
      "Ġsurface": 5396,
      "çĶµæ±ł": 5397,
      "æľ±": 5398,
      "like": 5399,
      "Ġlink": 5400,
      "é¸Ł": 5401,
      "å®īåľŁ": 5402,
      "éĿ¢åĲĳ": 5403,
      "åıĻ": 5404,
      "Ġoften": 5405,
      "ä¹Ļ": 5406,
      "ditional": 5407,
      "Ġprior": 5408,
      "èĻļæĭŁ": 5409,
      "Ġscore": 5410,
      "çļĦä¸Ģç§į": 5411,
      "92": 5412,
      "æĪĲçĨŁ": 5413,
      "Ġfamily": 5414,
      "Ġatt": 5415,
      "Ġeven": 5416,
      "åį³ä½¿": 5417,
      "çŃīçŃī": 5418,
      "vent": 5419,
      "Ġorgan": 5420,
      "éĽ·": 5421,
      "çĶŁåŃĺ": 5422,
      "Ġ13": 5423,
      "åĪĽä½ľ": 5424,
      "æĹ¶çļĦ": 5425,
      "Ġ25": 5426,
      "èĭĹ": 5427,
      "å¤§åĬĽ": 5428,
      "ä½ĵèĤ²": 5429,
      "ĠThus": 5430,
      "è¿ĳå¹´æĿ¥": 5431,
      "Â±": 5432,
      "onic": 5433,
      "MA": 5434,
      "Ġdam": 5435,
      "çļĦåĲĮæĹ¶": 5436,
      "71": 5437,
      "%ï¼Į": 5438,
      "åĩŃ": 5439,
      "2021": 5440,
      "å£ģ": 5441,
      "åŃ©": 5442,
      "åĪĽå»º": 5443,
      "ï¼ĮãĢĬ": 5444,
      "Ġhealthy": 5445,
      "Ġrevealed": 5446,
      "Cl": 5447,
      "èį·": 5448,
      "Ġaim": 5449,
      "æĹ¦": 5450,
      "å°¿": 5451,
      "åĨħåľ¨": 5452,
      "Ġ95": 5453,
      "62": 5454,
      "è¾ŀ": 5455,
      "çº¤": 5456,
      "å·©åĽº": 5457,
      "2017": 5458,
      "Ġmetabol": 5459,
      "åįģäºĶ": 5460,
      "normal": 5461,
      "æĪĺæĸĹ": 5462,
      "äººä¸İ": 5463,
      "tional": 5464,
      "æľīæķĪçļĦ": 5465,
      "Ġincub": 5466,
      "è¿ĲèĲ¥": 5467,
      "plant": 5468,
      "Ġinflammation": 5469,
      "å¹¿å¤§": 5470,
      "é¦ĸæ¬¡": 5471,
      "è¯¾é¢ĺ": 5472,
      "åŁºåľ°": 5473,
      "è¿Ŀåıį": 5474,
      "ography": 5475,
      "å¾·åĽ½": 5476,
      "çº¸": 5477,
      "Ġproduc": 5478,
      "ç´łåħ»": 5479,
      "ä¼łè¾ĵ": 5480,
      "ison": 5481,
      "æ¯ģ": 5482,
      "Ġill": 5483,
      "å®ŀçİ°äºĨ": 5484,
      "go": 5485,
      ")ãĢĤ": 5486,
      "åħ¶å®ŀ": 5487,
      "çļĦæľĢ": 5488,
      "ĠThere": 5489,
      "Ġrandom": 5490,
      "æĶ¹è¿Ľ": 5491,
      "Ġhist": 5492,
      "ml": 5493,
      "ances": 5494,
      "åĬĽåº¦": 5495,
      "fected": 5496,
      "æīĢå¾Ĺ": 5497,
      "æľīçĿĢ": 5498,
      "ĠEn": 5499,
      "å¸¸è§ģ": 5500,
      "72": 5501,
      "ĠPh": 5502,
      "Ġconcentration": 5503,
      "è´Ńä¹°": 5504,
      "Ġbacter": 5505,
      "æľŁéĻĲ": 5506,
      "Ġang": 5507,
      "trans": 5508,
      "ä¸ºä¸Ńå¿ĥ": 5509,
      "å¤§åĿĤ": 5510,
      "åħīç§Ģ": 5511,
      "ä¸īæĺ¯": 5512,
      "ä¹Ŀå·ŀ": 5513,
      "ode": 5514,
      "MO": 5515,
      "ç»ĩçĶ°ä¿¡": 5516,
      "cence": 5517,
      "äºĮå¹´": 5518,
      "è®¸åı¯": 5519,
      "Ġ&": 5520,
      "Ġdat": 5521,
      "Ġprovided": 5522,
      "å£®": 5523,
      "è¡¥åģ¿": 5524,
      "å¯ĨåĪĩ": 5525,
      "å¹¼åĦ¿": 5526,
      "åģļåĪ°": 5527,
      "å·¨å¤§": 5528,
      "Ġte": 5529,
      "ä»£çĲĨ": 5530,
      "è¾¾æĪĲ": 5531,
      "agement": 5532,
      "iat": 5533,
      "èĭ¥å¹²": 5534,
      "Ġeffective": 5535,
      "Ġquality": 5536,
      "é¢ģ": 5537,
      "ä¸Ŀ": 5538,
      "Ġpublic": 5539,
      "Ġreac": 5540,
      "Ġinhibition": 5541,
      "Ġleft": 5542,
      "ä»·åĢ¼è§Ĥ": 5543,
      "utes": 5544,
      "Ġpresented": 5545,
      "Ġprogression": 5546,
      "èĬĤçĤ¹": 5547,
      "æ£ĢéªĮ": 5548,
      "TT": 5549,
      "æĭĵå±ķ": 5550,
      "èªī": 5551,
      "61": 5552,
      "æµħäºķ": 5553,
      "äºĭæķħ": 5554,
      "è·¯çº¿": 5555,
      "æ°ĳéĹ´": 5556,
      "ç¬¬äºĶ": 5557,
      "äº®": 5558,
      "ä¿¡æģ¯åĮĸ": 5559,
      "å½¢è±¡": 5560,
      "åħ³èģĶ": 5561,
      "IS": 5562,
      "Ġepithe": 5563,
      "è·Ŀç¦»": 5564,
      "93": 5565,
      "Ġcriter": 5566,
      "Ġability": 5567,
      "èĢĮä¸į": 5568,
      "å¤ļçļĦ": 5569,
      "Ġmortality": 5570,
      "å§»": 5571,
      ".](": 5572,
      "æİ¢è®¨": 5573,
      "ste": 5574,
      "St": 5575,
      "Ġimages": 5576,
      "åĪ©æ¶¦": 5577,
      "Ġdisorders": 5578,
      "Ġweeks": 5579,
      "Ġdefined": 5580,
      "åħ³åİŁ": 5581,
      "inf": 5582,
      "åĬłä»¥": 5583,
      "Ġapoptosis": 5584,
      "éĴŁ": 5585,
      "Ġstage": 5586,
      "Ġcharacteristics": 5587,
      "Ġadditional": 5588,
      "eric": 5589,
      "2018": 5590,
      "èµ°åĲĳ": 5591,
      "ateral": 5592,
      "Ġwhereas": 5593,
      "ä¼Łå¤§å¤įåħ´": 5594,
      "Ġweight": 5595,
      "çĲĨæĢ§": 5596,
      "åĳ½è¿Ĳ": 5597,
      "âĢĻ": 5598,
      "éĿŀæ³ķ": 5599,
      "èĲ¨": 5600,
      "æĪª": 5601,
      "çļĦç»ıæµİ": 5602,
      "Ġvalid": 5603,
      "å®¿": 5604,
      "Ġol": 5605,
      "urs": 5606,
      "Ġrates": 5607,
      "è¿Ľå±ķ": 5608,
      "po": 5609,
      "Ġassessed": 5610,
      "itation": 5611,
      "owledge": 5612,
      "äººå¤§": 5613,
      "ç»ĵè®º": 5614,
      "åĪĨç¦»": 5615,
      "cript": 5616,
      "äººåľ¨": 5617,
      "ength": 5618,
      "Ġfrequency": 5619,
      "éĽĨæĪĲ": 5620,
      "ç§»åĬ¨": 5621,
      "åī©": 5622,
      "Ġche": 5623,
      "AB": 5624,
      "ç£¨": 5625,
      "07": 5626,
      "Ġcorrelation": 5627,
      "éķ¿å°¾": 5628,
      "éĩĳå±ŀ": 5629,
      "Ġphase": 5630,
      "ĠAlthough": 5631,
      "ĠCO": 5632,
      "ä¸½": 5633,
      "åľŁå£¤": 5634,
      "å¤§å¤ļæķ°": 5635,
      "éĤ»": 5636,
      "èįĴ": 5637,
      "ç¨»": 5638,
      "èĥ½éĩı": 5639,
      "çīĽ": 5640,
      "èķ": 5641,
      "Ġ<": 5642,
      "ĠResearch": 5643,
      "ä½³": 5644,
      "plied": 5645,
      "èĤī": 5646,
      "å¯¹æĬĹ": 5647,
      "è¢«ç§°ä¸º": 5648,
      "æī§æ³ķ": 5649,
      "åįķåħĥ": 5650,
      "Ġcarcin": 5651,
      "éĢļçŁ¥": 5652,
      "put": 5653,
      "Ġpeople": 5654,
      "roscop": 5655,
      "Ġdifferentiation": 5656,
      "çĶŁéķ¿": 5657,
      "é²ģ": 5658,
      "æĿ¡ä¾ĭ": 5659,
      "ject": 5660,
      "è°ĥæİ§": 5661,
      "ray": 5662,
      "ressing": 5663,
      "pre": 5664,
      "Ġsecre": 5665,
      "let": 5666,
      "æĪĲéķ¿": 5667,
      "åħ´è¶£": 5668,
      "ĠçļĦ": 5669,
      "Ġtherapeutic": 5670,
      "aking": 5671,
      "LC": 5672,
      "ession": 5673,
      "ä»°": 5674,
      "Ġax": 5675,
      "è¾ĥä¸º": 5676,
      "é¡¿": 5677,
      "Ġfem": 5678,
      "Ġimpact": 5679,
      "Ġrelative": 5680,
      "Ġcardiac": 5681,
      "Ġgiven": 5682,
      "èĸĦ": 5683,
      "æĻĭ": 5684,
      "åŃĺåľ¨çļĦ": 5685,
      "ä»ĸä»¬çļĦ": 5686,
      "Ġ--": 5687,
      "è¡Ģç®¡": 5688,
      "åħĥç´ł": 5689,
      "Ġder": 5690,
      "è§Ĵèī²": 5691,
      "åľ°åĮºçļĦ": 5692,
      "éª¤": 5693,
      "åı¯éĿł": 5694,
      "ä¸įåĨį": 5695,
      "æľīåĬĽ": 5696,
      "é¥°": 5697,
      "tice": 5698,
      "å°Ĭéĩį": 5699,
      "èĩªè§ī": 5700,
      "ether": 5701,
      "éģµå¾ª": 5702,
      "ĠUSA": 5703,
      "Ġgreater": 5704,
      "tors": 5705,
      "äººæ°ĳç¾¤ä¼Ĺ": 5706,
      "è¯´æ³ķ": 5707,
      "å¯¹åħ¶": 5708,
      "######": 5709,
      "Ġlarg": 5710,
      "76": 5711,
      "Ġfollowed": 5712,
      "å¯¹æŃ¤": 5713,
      "ç«Ł": 5714,
      "As": 5715,
      "SCs": 5716,
      "æķ°æį®åºĵ": 5717,
      "ä¸ªäººä¿¡æģ¯": 5718,
      "Ġanimals": 5719,
      "ration": 5720,
      "åĪĻæĺ¯": 5721,
      "åĤ¬": 5722,
      "ä¾ĿéĿł": 5723,
      "éĺŁä¼į": 5724,
      "åĪ¤åĨ³": 5725,
      "çļĦåıĺåĮĸ": 5726,
      "otherapy": 5727,
      "æĿĥå¨ģ": 5728,
      "order": 5729,
      "çļĦæĹ¶éĹ´": 5730,
      "å¯¹åºĶ": 5731,
      "æĸĭèĹ¤": 5732,
      "Ġâī": 5733,
      "åħ»åŃĲ": 5734,
      "Ġrecent": 5735,
      "äºĴåĬ¨": 5736,
      "*^": 5737,
      "åħµåį«": 5738,
      "æķ¢": 5739,
      "inant": 5740,
      "Ġcoh": 5741,
      "æ¶¯": 5742,
      "Ġreceptors": 5743,
      "2016": 5744,
      "éĴ¢": 5745,
      "çļĦæł¸å¿ĥ": 5746,
      "idem": 5747,
      "è¡¥åħħ": 5748,
      "é¥®": 5749,
      "94": 5750,
      "å¢¨": 5751,
      "ocyte": 5752,
      "Ġexamined": 5753,
      "âĢĿãĢģâĢľ": 5754,
      "èĥĢ": 5755,
      "Ġbetter": 5756,
      "ps": 5757,
      "æĶ¯éħį": 5758,
      "å·¥èµĦ": 5759,
      "Ġindicate": 5760,
      "ä¸»å¯¼": 5761,
      "å¯¿": 5762,
      "Ġinterac": 5763,
      "Ġrats": 5764,
      "To": 5765,
      "çĶŁçļĦ": 5766,
      "ç»Ŀå¯¹": 5767,
      "å¾Īå¤§": 5768,
      "Ġsuc": 5769,
      "å¯Ħ": 5770,
      "åĦ¿åŃĲ": 5771,
      "èĦı": 5772,
      "æĹ¥å¸¸": 5773,
      "ãĢĲ": 5774,
      "æįķ": 5775,
      "mok": 5776,
      "PCR": 5777,
      "ç¼´": 5778,
      "å±ŀæĢ§": 5779,
      "å¼ºçļĦ": 5780,
      "lying": 5781,
      "Ġdistribution": 5782,
      "oh": 5783,
      "åıªè¦ģ": 5784,
      "Ġvacc": 5785,
      "çĤ®": 5786,
      "Ġconcentrations": 5787,
      "Ġpoly": 5788,
      "Ch": 5789,
      "ĠTherefore": 5790,
      "æľīåĬ©äºİ": 5791,
      "ä¸»é¢ĺ": 5792,
      "ancy": 5793,
      "ols": 5794,
      "é¦Ļæ¸¯": 5795,
      "çĶ¨äººåįķä½į": 5796,
      "ä¸ľè¥¿": 5797,
      "åĺī": 5798,
      "ç»ª": 5799,
      "æīĵéĢł": 5800,
      "ä½ĵéªĮ": 5801,
      "åı¬å¼Ģ": 5802,
      "Ġvolume": 5803,
      "ç¤¾ä¼ļä¸»ä¹īçİ°ä»£åĮĸ": 5804,
      "Ġreduction": 5805,
      "æ³¨åĨĮ": 5806,
      "oy": 5807,
      "åįģä¸ĥ": 5808,
      "ãĢĳ": 5809,
      "äºĭé¡¹": 5810,
      "å¹´éĹ´": 5811,
      "des": 5812,
      "supplementary": 5813,
      "æŃ¦çĶ°ä¿¡çİĦ": 5814,
      "ĠOur": 5815,
      "iciency": 5816,
      "itis": 5817,
      "Ġsensitivity": 5818,
      ".(": 5819,
      "Ġproper": 5820,
      "åħ»èĢģ": 5821,
      "97": 5822,
      "ints": 5823,
      "åīįçļĦ": 5824,
      "å¸Ĥåľºç»ıæµİ": 5825,
      "æī§æĶ¿": 5826,
      "è¿ĶåĽŀ": 5827,
      "ç§¯ç´¯": 5828,
      "06": 5829,
      "ta": 5830,
      "ä¸ĢæĿ¡": 5831,
      "ynam": 5832,
      "ä¿Ĭ": 5833,
      "ĠçĶŁ": 5834,
      "åĮħåĽ´": 5835,
      "Ġcur": 5836,
      "Ġlack": 5837,
      "å´ĩ": 5838,
      "Ġpreval": 5839,
      "Ġcondition": 5840,
      "ĠFurthermore": 5841,
      "æ¨¡æĭŁ": 5842,
      "Ġaccur": 5843,
      "é±": 5844,
      "åĳĺå·¥": 5845,
      "Ġsupp": 5846,
      "Ġconducted": 5847,
      "ĠSci": 5848,
      "ochem": 5849,
      "Ġemb": 5850,
      "ĠInstit": 5851,
      "æŁĲç§į": 5852,
      "Ġprogram": 5853,
      "material": 5854,
      "ressive": 5855,
      "Ġdetection": 5856,
      "èĦĤ": 5857,
      "Ġenvironment": 5858,
      "Ġz": 5859,
      "æ¹¿": 5860,
      "åĨ¬": 5861,
      "Ġincreasing": 5862,
      "åľ¨ä¸ŃåĽ½": 5863,
      "æİ¢ç©¶": 5864,
      "cho": 5865,
      "æĿ¡æ¬¾": 5866,
      "é±¼": 5867,
      "EP": 5868,
      "é«ĺè´¨éĩıåıĳå±ķ": 5869,
      "ä¸Ńåįİæ°ĳæĹıä¼Łå¤§å¤įåħ´": 5870,
      "Ġir": 5871,
      "96": 5872,
      "man": 5873,
      "æ¯«": 5874,
      "åŀĦ": 5875,
      "ç«ĭèĬ±": 5876,
      "ĠST": 5877,
      "åı²æĸĻ": 5878,
      "Ġkey": 5879,
      "Ġfeatures": 5880,
      "ling": 5881,
      "Ġmacroph": 5882,
      "Ġhighly": 5883,
      "Ġnovel": 5884,
      "2015": 5885,
      "pri": 5886,
      "EC": 5887,
      "è¿ĳä»£": 5888,
      "Ġabove": 5889,
      "åĵªäºĽ": 5890,
      "ä¼łæĦŁ": 5891,
      "éģĹäº§": 5892,
      "åĲĮæĦı": 5893,
      "å½¢æĪĲçļĦ": 5894,
      "MT": 5895,
      "ologic": 5896,
      "Ġthus": 5897,
      "âĢĺ": 5898,
      "åĲĦé¡¹": 5899,
      "Ġparameters": 5900,
      "uk": 5901,
      "ä¸ĩåħĥ": 5902,
      "][@": 5903,
      "çľŁçĶ°": 5904,
      "ä½¿åĳ½": 5905,
      "æģĲ": 5906,
      "An": 5907,
      "çĵ¦": 5908,
      "Ġcognitive": 5909,
      "åħļåĳĺ": 5910,
      "Ġsyndrome": 5911,
      "ç¤ºèĮĥ": 5912,
      "Ġgo": 5913,
      "çĶµè·¯": 5914,
      "osom": 5915,
      "åĩ¡": 5916,
      "èµ¢": 5917,
      "å®ŀéªĮå®¤": 5918,
      "way": 5919,
      "æĪĲå¹´": 5920,
      "æĿ¡è§Ħå®ļ": 5921,
      "ä¹łæĥ¯": 5922,
      "ä¼¸": 5923,
      "çļĦæ¦Ĥå¿µ": 5924,
      "æĪĲäºĨ": 5925,
      "ixed": 5926,
      "èģĮä¸ļæķĻèĤ²": 5927,
      "åĲįä¸º": 5928,
      "ä¸ºä»Ģä¹Ī": 5929,
      "\"},": 5930,
      "æķħäºĭ": 5931,
      "è¾ĥå¤§": 5932,
      "SS": 5933,
      "çļĦæĢĿæĥ³": 5934,
      "**ï¼Ī": 5935,
      "çİĩé¢Ĩ": 5936,
      "rim": 5937,
      "85": 5938,
      "ä»Ĭå¤©": 5939,
      "çīĻ": 5940,
      "æĿ¡ä»¶ä¸ĭ": 5941,
      "åŀĦæĸŃ": 5942,
      "Ġ\\>": 5943,
      "ĠCa": 5944,
      "è¶ĬåĲİ": 5945,
      "Ġpap": 5946,
      "èī¯å¥½çļĦ": 5947,
      "Ġtub": 5948,
      "bi": 5949,
      "Ġstimulation": 5950,
      "çļĦæĶ¿æ²»": 5951,
      "åħ¬åı¸çļĦ": 5952,
      "è¾ĵåħ¥": 5953,
      "ĠAfter": 5954,
      "ĠMD": 5955,
      "å¢ĵ": 5956,
      "IC": 5957,
      "èĢĥæł¸": 5958,
      "2019": 5959,
      "Ġdoes": 5960,
      "Ġsystems": 5961,
      "èĢĥå¯Ł": 5962,
      "è¡Įä¸ºçļĦ": 5963,
      "GG": 5964,
      "Ġstaining": 5965,
      "æ¸łéģĵ": 5966,
      "encing": 5967,
      "å¨ģèĥģ": 5968,
      "éĢĤå½ĵ": 5969,
      "ĠCell": 5970,
      "ĠAt": 5971,
      "æ´»åĬ¨çļĦ": 5972,
      "vement": 5973,
      "èĩªä¿¡": 5974,
      "åĬłéĢŁ": 5975,
      "utions": 5976,
      "äººæīįåŁ¹åħ»": 5977,
      "Ġplay": 5978,
      "æī£": 5979,
      "åħ±åĲĮä½ĵ": 5980,
      "Ġmig": 5981,
      "å¥īè¡Į": 5982,
      "å¼ķåħ¥": 5983,
      "å§Ķæīĺ": 5984,
      "Ġdet": 5985,
      "èĮĥåĽ´åĨħ": 5986,
      "ible": 5987,
      "éĤ£äºĽ": 5988,
      "Ġoutcome": 5989,
      "ĠCA": 5990,
      "Ġcorrespon": 5991,
      "Ġviral": 5992,
      "è²": 5993,
      "æī©å±ķ": 5994,
      "æŁ±": 5995,
      "çķłå±±": 5996,
      "Ġorig": 5997,
      "åħ¨ä¼ļ": 5998,
      "éģĹä¼ł": 5999,
      "Ġinteraction": 6000,
      "Ġendothe": 6001,
      "ĠÎ²": 6002,
      "icine": 6003,
      "uture": 6004,
      "å·¦åį«éĹ¨": 6005,
      "çļĦå°ı": 6006,
      "ij": 6007,
      "Ġself": 6008,
      "Ġevaluated": 6009,
      "æ¾³": 6010,
      "èī°": 6011,
      "ç¨ĭåº¦ä¸Ĭ": 6012,
      "Ġtrials": 6013,
      "antit": 6014,
      "åĬ³åĬ¨åĲĪåĲĮ": 6015,
      "é©¾": 6016,
      "çģµæ´»": 6017,
      "ä¹ĭè·¯": 6018,
      "æĳĨ": 6019,
      "Ġassessment": 6020,
      "æľīäºĽ": 6021,
      "ler": 6022,
      "treated": 6023,
      "Ġright": 6024,
      "æľīäºĨ": 6025,
      "*.": 6026,
      "åħĪåĲİ": 6027,
      "åľºæĻ¯": 6028,
      "HC": 6029,
      "çļĦç»ĵæŀľ": 6030,
      "Ġclus": 6031,
      "Ġguid": 6032,
      "èµĽ": 6033,
      "æĸ¹éĴĪ": 6034,
      "Ġneut": 6035,
      "é¢Ħç®Ĺ": 6036,
      "èĥ¡": 6037,
      "Ġstructure": 6038,
      "å¤±åİ»": 6039,
      "å¥ł": 6040,
      "Ġsite": 6041,
      "åŁºç¡Ģä¸Ĭ": 6042,
      "Ġfield": 6043,
      "istration": 6044,
      "æĸ°éĹ»": 6045,
      "æĢĿè·¯": 6046,
      "Ġkin": 6047,
      "eta": 6048,
      "äºĭçī©": 6049,
      "Ġ17": 6050,
      "Ġinvas": 6051,
      "ension": 6052,
      "çļĦæĹ¶åĢĻ": 6053,
      "Ġcomplete": 6054,
      "hers": 6055,
      "èĤ¡æĿĥ": 6056,
      "gl": 6057,
      "æĸ°æĹ¶ä»£ä¸ŃåĽ½çī¹èī²ç¤¾ä¼ļä¸»ä¹ī": 6058,
      "ä¼¦çĲĨ": 6059,
      "function": 6060,
      "ä½ĵçİ°äºĨ": 6061,
      "bo": 6062,
      "å¼Ĥå¸¸": 6063,
      "èĥ¶": 6064,
      "91": 6065,
      "æģ°": 6066,
      "åı°æ¹¾": 6067,
      "æĹ¥è¯Ń": 6068,
      "Ġoverall": 6069,
      "Ġregulation": 6070,
      "ä¹ĭä¸ĭ": 6071,
      "Ġcritical": 6072,
      "éªĮè¯ģ": 6073,
      "ç¿Į": 6074,
      "èĢĮä¸įæĺ¯": 6075,
      "Ġdiet": 6076,
      "ĠTable": 6077,
      "æĪĳä»¬åħļ": 6078,
      "âĳł": 6079,
      "èĤ¯": 6080,
      "æ¾Ħ": 6081,
      "Ġcre": 6082,
      "æĥ©": 6083,
      "çĹĩçĬ¶": 6084,
      "rosis": 6085,
      "Ġsuper": 6086,
      "éĹ´çļĦ": 6087,
      "kn": 6088,
      "Ġvisual": 6089,
      "oplas": 6090,
      "åĵĪ": 6091,
      "Ġenzym": 6092,
      "æĪĳä»¬çļĦ": 6093,
      "Ġ^": 6094,
      "Ġcriteria": 6095,
      "è°ģ": 6096,
      "Ġareas": 6097,
      "als": 6098,
      "EGF": 6099,
      "Ġconnec": 6100,
      "Ġchrom": 6101,
      "Con": 6102,
      "åĴĮåħ¶ä»ĸ": 6103,
      "åĲĦèĩª": 6104,
      "]^.": 6105,
      "ç»ıå¸¸": 6106,
      "Ġread": 6107,
      "æī¿åĮħ": 6108,
      "ä¸īæĪĲ": 6109,
      "Ġremo": 6110,
      "ĠWh": 6111,
      "Ġintervention": 6112,
      "æĭĶ": 6113,
      "æ¨¡åĿĹ": 6114,
      "æĿĨ": 6115,
      "Ġcoll": 6116,
      "èĢĥè¯ķ": 6117,
      "olution": 6118,
      "æ··åĲĪ": 6119,
      "åĪĳæ³ķ": 6120,
      "åį±å®³": 6121,
      "Ġatten": 6122,
      "éĿ¢çļĦ": 6123,
      "çĶµåĬĽ": 6124,
      "åľ°çĲĥ": 6125,
      "Ġprogn": 6126,
      "ochond": 6127,
      "å¯Įè£ķ": 6128,
      "åĪ°çļĦ": 6129,
      "ç»ıæµİå¢ŀéķ¿": 6130,
      "ina": 6131,
      "ç¬¬ä¸Ģæ¬¡": 6132,
      "æĭĴç»Ŀ": 6133,
      "ancer": 6134,
      "åīĬ": 6135,
      "ä¸§": 6136,
      "Ġfil": 6137,
      "Ġsubst": 6138,
      "ä¹¡æĿĳæĮ¯åħ´": 6139,
      "å±ķç¤º": 6140,
      "itud": 6141,
      "This": 6142,
      "Ġartic": 6143,
      "pose": 6144,
      "æĺİæĻº": 6145,
      "å°ģå»º": 6146,
      "çĶĺ": 6147,
      "åĮ¹": 6148,
      "èļ": 6149,
      "æī¹åĩĨ": 6150,
      "çĪ¶åŃĲ": 6151,
      "Ġobserv": 6152,
      "till": 6153,
      "å¥ı": 6154,
      "äººåĬĽ": 6155,
      "å¿Ĩ": 6156,
      "åľĪ": 6157,
      "æľĿå»·": 6158,
      "hold": 6159,
      "ä½ľä¸ļ": 6160,
      "Ġx": 6161,
      "èī¯å¥½": 6162,
      "èĳ£": 6163,
      "FN": 6164,
      "ands": 6165,
      "ç¦»åŃĲ": 6166,
      "Ġsocial": 6167,
      "è¡£": 6168,
      "åħĦå¼Ł": 6169,
      "Ġsepar": 6170,
      "Ġsynthe": 6171,
      "æ¸Ĺ": 6172,
      "PA": 6173,
      "ä¸ºåŁºç¡Ģ": 6174,
      "æķĪåĬĽ": 6175,
      "Ġpepti": 6176,
      "Ġpoint": 6177,
      "Ġunderstanding": 6178,
      "Ġtraining": 6179,
      "å¤±è´¥": 6180,
      "Ġtherefore": 6181,
      "èĦļ": 6182,
      "Ġul": 6183,
      "Ġcount": 6184,
      "Ġhom": 6185,
      "æ´¾éģ£": 6186,
      "Ġvascular": 6187,
      "regulated": 6188,
      "Ġcalculated": 6189,
      "ç²¾åĩĨ": 6190,
      "æĭľ": 6191,
      "otor": 6192,
      "åĩºçİ°äºĨ": 6193,
      "åĲįçļĦ": 6194,
      "Ġevents": 6195,
      "ä¸ĢæĹı": 6196,
      "çĲĨçĶ±": 6197,
      "Ġcollected": 6198,
      "ides": 6199,
      "ä¸įå°ĳ": 6200,
      "Ġlimited": 6201,
      "åĢ¼å¾Ĺ": 6202,
      "Ġsites": 6203,
      "åıĺéĩı": 6204,
      "uscript": 6205,
      "ower": 6206,
      "æĦĪ": 6207,
      "):": 6208,
      "Ġalter": 6209,
      "çķª": 6210,
      "å¤§è§Ħæ¨¡": 6211,
      "åĻ¨çļĦ": 6212,
      "ä¼łæī¿": 6213,
      "è§£éĻ¤": 6214,
      "BM": 6215,
      "Ġmarkers": 6216,
      "Ġdecrease": 6217,
      "åį«æĺŁ": 6218,
      "Ġsour": 6219,
      "å¤ļæ¬¡": 6220,
      "å»ī": 6221,
      "æŃ»åĲİ": 6222,
      "æĪ¿å±ĭ": 6223,
      "å¡Ķ": 6224,
      "ocument": 6225,
      "Ġprec": 6226,
      "ä»»åĳ½": 6227,
      "Ġrecord": 6228,
      "å¹¶æ²¡æľī": 6229,
      "Ġdiffic": 6230,
      "Ġfat": 6231,
      "éĩıåŃĲ": 6232,
      "è¿Ł": 6233,
      "ĠStud": 6234,
      "åĮĸåĴĮ": 6235,
      "æĭ¿": 6236,
      "æĬµæĬ¼": 6237,
      "Ġgly": 6238,
      "èĳĹä½ľ": 6239,
      "Ġsurgery": 6240,
      "Ġabnormal": 6241,
      "åŃ¦å®¶": 6242,
      "ãĢĭãĢģ": 6243,
      "âĢĿï¼Ī": 6244,
      "Ġexpec": 6245,
      "å¥¹": 6246,
      "åħµåĬĽ": 6247,
      "åĥ§": 6248,
      "Ġelectro": 6249,
      "è¯ķçĤ¹": 6250,
      "trol": 6251,
      "çŁ©": 6252,
      "ãģ®": 6253,
      "çĿĢåĬĽ": 6254,
      "PC": 6255,
      "Ġimage": 6256,
      "ä¾ĽåºĶéĵ¾": 6257,
      "Ġdamage": 6258,
      "Ġ40": 6259,
      "å°ıç»Ħ": 6260,
      "Ġtested": 6261,
      "Ġrecomm": 6262,
      "âĳ¡": 6263,
      "right": 6264,
      "ensity": 6265,
      "izing": 6266,
      "çĤ¼": 6267,
      "å®ŀåĬĽ": 6268,
      "Supplementary": 6269,
      "mm": 6270,
      "æĶ¹éĿ©çļĦ": 6271,
      "iratory": 6272,
      "çļĦä¿¡æģ¯": 6273,
      "Ġmanuscript": 6274,
      "æ±ŁæĪ·æĹ¶ä»£": 6275,
      "Ġmutation": 6276,
      "ä¸Ģè·¯": 6277,
      "urn": 6278,
      "umm": 6279,
      "è¾ĵåĩº": 6280,
      "Ġbaseline": 6281,
      "è½´": 6282,
      "çĭ¬çī¹": 6283,
      "èĢ³": 6284,
      "Ġprocesses": 6285,
      "Ġtesting": 6286,
      "mediated": 6287,
      "Ġdrugs": 6288,
      "ç¦ģæŃ¢": 6289,
      "Ġperformance": 6290,
      "iting": 6291,
      "æĽ¿ä»£": 6292,
      "ĠSc": 6293,
      "ipher": 6294,
      "èħº": 6295,
      "Ġelev": 6296,
      "ä¼Ļ": 6297,
      "Ġmen": 6298,
      "Ġprotoc": 6299,
      "ids": 6300,
      "ç§ĳæĬĢåĪĽæĸ°": 6301,
      "Ġtests": 6302,
      "ä¼ª": 6303,
      "entric": 6304,
      "æīİ": 6305,
      "Ġmeasures": 6306,
      "amine": 6307,
      "IN": 6308,
      "Ġdev": 6309,
      "gn": 6310,
      "åħ¨ä½ĵ": 6311,
      "åħ¬æĸ¹": 6312,
      "æıŃç¤º": 6313,
      "ç®¡çĲĨçļĦ": 6314,
      "åģļåĩº": 6315,
      "çĶŁäº§åĬĽ": 6316,
      "å¤ªéĺ³": 6317,
      "74": 6318,
      "ylation": 6319,
      "ä½ĵç³»çļĦ": 6320,
      "æĮĤ": 6321,
      "Ġcontaining": 6322,
      "Ġcombination": 6323,
      "Ġactive": 6324,
      "åĪºæ¿Ģ": 6325,
      "æĪĺåĲİ": 6326,
      "Ġur": 6327,
      "coh": 6328,
      "Ġshows": 6329,
      "Ġvariables": 6330,
      "å®¡çĲĨ": 6331,
      "inary": 6332,
      "=======": 6333,
      "HD": 6334,
      "æ¯ķä¸ļ": 6335,
      "monary": 6336,
      "å¹¶æľª": 6337,
      "éķ¿æĶ¿": 6338,
      "Ġcarri": 6339,
      "ney": 6340,
      "antif": 6341,
      "æ¬¢": 6342,
      ".[@": 6343,
      "Ġaverage": 6344,
      "aken": 6345,
      "Ġä¸Ģ": 6346,
      "ç´§å¯Ĩ": 6347,
      "------------------------": 6348,
      "AA": 6349,
      ")-": 6350,
      "ulate": 6351,
      "Ġå¹´": 6352,
      "å®ļäºĨ": 6353,
      "Ġchall": 6354,
      "æ²ŁéĢļ": 6355,
      "Ġach": 6356,
      "åłĢ": 6357,
      "çĶ°åŁİ": 6358,
      "æıĲåĩºçļĦ": 6359,
      "æľĢå¤§çļĦ": 6360,
      "ware": 6361,
      "äººä¸º": 6362,
      "åĪĿæŃ¥": 6363,
      "Ġcere": 6364,
      "ä¸Ģä»£": 6365,
      "åĲĪæĪĲ": 6366,
      "Ġinvestigated": 6367,
      "86": 6368,
      "ĠBi": 6369,
      "NO": 6370,
      "å¤§å°Ĩ": 6371,
      "Ġdiscus": 6372,
      "ques": 6373,
      "å¦Ļ": 6374,
      "Ġoff": 6375,
      "å¹¡": 6376,
      "ocardi": 6377,
      "Ġresid": 6378,
      "äº§åĵģçļĦ": 6379,
      "æ¯ĽåĪ©æ°ı": 6380,
      "mi": 6381,
      "çĮĽ": 6382,
      "æī«": 6383,
      "èĤ¾": 6384,
      "æ´»è·ĥ": 6385,
      "èĥ½åĬĽçļĦ": 6386,
      "åĽ½å®¶å®īåħ¨": 6387,
      "ä¾Ŀçħ§": 6388,
      "ĠSD": 6389,
      "Ġphysical": 6390,
      "Ġhetero": 6391,
      "Ġsuggesting": 6392,
      "æĸ½å·¥": 6393,
      "Ġintra": 6394,
      "æĤī": 6395,
      "Ġdiagnostic": 6396,
      ".[": 6397,
      "çīµ": 6398,
      "Ġcross": 6399,
      "åĬŀçĲĨ": 6400,
      "ä¸Ĭæ´Ľ": 6401,
      "å¸¦æĿ¥çļĦ": 6402,
      "Ġmade": 6403,
      "æķ°æį®çļĦ": 6404,
      "Ġparen": 6405,
      "ovascular": 6406,
      "]{": 6407,
      "åĪĩå®ŀ": 6408,
      "æĹłæķĪ": 6409,
      "Ġampl": 6410,
      "trum": 6411,
      "å¼ºåĽ½": 6412,
      "87": 6413,
      "è¶Ĭåīį": 6414,
      "æĢİæł·": 6415,
      "å¤ĸçļĦ": 6416,
      "æŀ¶æŀĦ": 6417,
      "Ġpolym": 6418,
      "æĻ°": 6419,
      "Ġpoor": 6420,
      "Ġfunctions": 6421,
      "å«¡åŃĲ": 6422,
      "ä¸Ĭéĩİ": 6423,
      "åĽĽå¹´": 6424,
      "æĮĸ": 6425,
      "Î³": 6426,
      "ygen": 6427,
      "Ġsequence": 6428,
      "æŃ¥éª¤": 6429,
      "éĽħ": 6430,
      "ĠPCR": 6431,
      "aired": 6432,
      "ç«ĭåľº": 6433,
      "é¥Ń": 6434,
      "ä¹ĭæĪĺä¸Ń": 6435,
      "åħħåĪĨåıĳæĮ¥": 6436,
      "åįĴ": 6437,
      "è±Ĩ": 6438,
      "Ġachie": 6439,
      "é¢Ĩä¸»": 6440,
      "Ġstill": 6441,
      "Ġlear": 6442,
      "ĠER": 6443,
      "åıĳè¡Į": 6444,
      "æĬķéĻį": 6445,
      "åĬĿ": 6446,
      "åĮ»éĻ¢": 6447,
      "æŃ£å½ĵ": 6448,
      "2000": 6449,
      "Ġstem": 6450,
      "çŃ¾è®¢": 6451,
      "åı¯èĥ½ä¼ļ": 6452,
      "æĬ½è±¡": 6453,
      "æĿ¨": 6454,
      "åħļçļĦåįģåħ«": 6455,
      "å°ıçĶ°åİŁ": 6456,
      "abil": 6457,
      "ially": 6458,
      "lex": 6459,
      "çļĦæĬĢæľ¯": 6460,
      "èĢĮåľ¨": 6461,
      "Ġindex": 6462,
      "éªıæ²³": 6463,
      "any": 6464,
      "test": 6465,
      "å½¼": 6466,
      "èĢĲ": 6467,
      "estern": 6468,
      "Ġ%": 6469,
      "èĥľèµĸ": 6470,
      "æĦıæĢĿ": 6471,
      "less": 6472,
      "ering": 6473,
      "èµĦæºĲçļĦ": 6474,
      "æĶ¿å®Ĺ": 6475,
      "iatric": 6476,
      "Ġamo": 6477,
      "åĪ¶çļĦ": 6478,
      "ãĢĭãĢĬ": 6479,
      "Ġrenal": 6480,
      "å·®è·Ŀ": 6481,
      "å¤§éĥ¨åĪĨ": 6482,
      "Ġtimes": 6483,
      "ĠMoreover": 6484,
      "åĮºåĪĨ": 6485,
      "ä¿®å¤į": 6486,
      "Ġrap": 6487,
      "å°ļæľª": 6488,
      "Ġselected": 6489,
      "clusion": 6490,
      "Ġbiom": 6491,
      "åĲ¯åĬ¨": 6492,
      "åĢ¾åĲĳ": 6493,
      "å¾ģä¼Ĳ": 6494,
      "ä¸įä¹ħ": 6495,
      "gene": 6496,
      "ä¸ĬæĿīè°¦ä¿¡": 6497,
      "Ġproposed": 6498,
      "inally": 6499,
      "è®¨ä¼Ĳ": 6500,
      "ture": 6501,
      "Ġnecess": 6502,
      "ç»Ħç»ĩçļĦ": 6503,
      "åı¦ä¸Ģ": 6504,
      "ulating": 6505,
      "ED": 6506,
      "éĶģ": 6507,
      "åĩºçīĪç¤¾": 6508,
      "æĸĩæľ¬": 6509,
      "è®ºè¿°": 6510,
      "åıĳçĶŁçļĦ": 6511,
      "æ»ŀ": 6512,
      "\\[[@": 6513,
      "Ġsubsequ": 6514,
      "åĭĴ": 6515,
      "æľīäºº": 6516,
      "Ġsex": 6517,
      "éħįåĲĪ": 6518,
      "500": 6519,
      "å¼ºåº¦": 6520,
      "ĠData": 6521,
      "*)": 6522,
      "éĢĤåĲĪ": 6523,
      "è®¿éĹ®": 6524,
      "Ġmedium": 6525,
      "tif": 6526,
      "æĸ°åħ´": 6527,
      "LR": 6528,
      "Ġlesions": 6529,
      "åĲ´": 6530,
      "é¢ĦæľŁ": 6531,
      "oratory": 6532,
      "åĪ¶ä½ľ": 6533,
      "åĪ¶çº¦": 6534,
      "è®©åŃ¦çĶŁ": 6535,
      "æİ¥è§¦": 6536,
      "omp": 6537,
      "rad": 6538,
      "Ġexperimental": 6539,
      "çĥŁ": 6540,
      "èµł": 6541,
      "çļĦå½¢å¼ı": 6542,
      "çĸı": 6543,
      "Ġtechn": 6544,
      "ital": 6545,
      "æī¿è®¤": 6546,
      "89": 6547,
      "Ġcaused": 6548,
      "éªĹ": 6549,
      "ä¸Ĭå¸Ĥ": 6550,
      "Ġcentral": 6551,
      "è¡¨çİ°ä¸º": 6552,
      "me": 6553,
      "éī´å®ļ": 6554,
      "å¹´é¾Ħ": 6555,
      "åİŁå§ĭ": 6556,
      "lect": 6557,
      "åı³åį«éĹ¨": 6558,
      "Ġwor": 6559,
      "ä¸ģ": 6560,
      "æŁ³": 6561,
      "åĵįåºĶ": 6562,
      "Ġvers": 6563,
      "ĠTNF": 6564,
      "å»ºæŀĦ": 6565,
      "å±ħä½ı": 6566,
      "éĩĳèŀįæľºæŀĦ": 6567,
      "atients": 6568,
      "ä¸Ńåħ±ä¸Ńå¤®": 6569,
      "å²³": 6570,
      "è¾īåħĥ": 6571,
      "Ġcr": 6572,
      "Ġphosphory": 6573,
      "Ġoxid": 6574,
      "Ġsetting": 6575,
      "åŃ¤": 6576,
      "ä¸ĢæĹ¦": 6577,
      "æ¥¼": 6578,
      "str": 6579,
      "åĲ¸å¼ķ": 6580,
      "ĠUn": 6581,
      "Ġfr": 6582,
      "èµĦæł¼": 6583,
      "âĢķ": 6584,
      "Ġrelease": 6585,
      "æĥŁ": 6586,
      "Ġdepend": 6587,
      "æµģéĢļ": 6588,
      "äº§ä¸ļéĵ¾": 6589,
      "Ġinterest": 6590,
      "æ¡ĥå±±": 6591,
      "æĦıå¿Ĺ": 6592,
      "ones": 6593,
      "Ġpublished": 6594,
      "ä¸İåħ¶": 6595,
      "Ġprevent": 6596,
      "çļĦæķĻåŃ¦": 6597,
      "çļĦæĥħåĨµ": 6598,
      "ç¼ºéĻ·": 6599,
      "pp": 6600,
      "Ġmitochond": 6601,
      "Ġinhibitor": 6602,
      "æĺ¯ä¸į": 6603,
      "æ¶Īæģ¯": 6604,
      "ç®¡é¢Ĩ": 6605,
      "éĻ·åħ¥": 6606,
      "2022": 6607,
      "åģ¶": 6608,
      "è²Į": 6609,
      "æľīä¸Ģ": 6610,
      "Ġ$\\": 6611,
      "Ġisolated": 6612,
      "itu": 6613,
      "ç¬ĶèĢħ": 6614,
      "Ġenc": 6615,
      "Ġcontinu": 6616,
      "çº¹": 6617,
      "Ġrepe": 6618,
      "ergy": 6619,
      "éĻ¢æł¡": 6620,
      "EN": 6621,
      "Ġquestion": 6622,
      "Ġscores": 6623,
      "æ´»åĬĽ": 6624,
      "çĳŀ": 6625,
      "not": 6626,
      "83": 6627,
      "Ġinfected": 6628,
      "Ġprevalence": 6629,
      "Ġalthough": 6630,
      "Ġreduc": 6631,
      "äºĨä¸Ģä¸ª": 6632,
      "è¿Ŀçº¦": 6633,
      "Ġfew": 6634,
      "éħ¬": 6635,
      "çļĦéķ¿": 6636,
      "Ġ|": 6637,
      "è£ħå¤ĩ": 6638,
      "èģĮå·¥": 6639,
      "è¯¦ç»Ĩ": 6640,
      "æŃ£ä¹ī": 6641,
      "Ġknowledge": 6642,
      "ĠRec": 6643,
      "æĶ¯åĩº": 6644,
      "âĢ¢": 6645,
      "Ġinfluence": 6646,
      "Ġsuggested": 6647,
      "éŁ©": 6648,
      "ense": 6649,
      "Ġcer": 6650,
      "icity": 6651,
      "Ġ60": 6652,
      "ĠNational": 6653,
      "tension": 6654,
      "rob": 6655,
      "åĩºåı°": 6656,
      "æĽ´æĸ°": 6657,
      "æľĪäºĮåįģ": 6658,
      "HR": 6659,
      "äº«æľī": 6660,
      "ç²ī": 6661,
      "æĲľ": 6662,
      "Ġtyp": 6663,
      "Ġseen": 6664,
      "\"}.": 6665,
      "ipp": 6666,
      "ots": 6667,
      "ç»©æķĪ": 6668,
      "åĪĴåĪĨ": 6669,
      "Ġpractice": 6670,
      "åħŃè§Ĵ": 6671,
      "ç»ĦæĪĲéĥ¨åĪĨ": 6672,
      "æµĻ": 6673,
      "ĠCo": 6674,
      "ä¹³": 6675,
      "ociated": 6676,
      "æ²¼": 6677,
      "Ġcohort": 6678,
      "çģŃäº¡": 6679,
      "ä¹Łä¼ļ": 6680,
      "Ġeth": 6681,
      "ML": 6682,
      "ĠDe": 6683,
      "å¸ĤåľºçļĦ": 6684,
      "è¡Ķ": 6685,
      "å·§": 6686,
      "åĶ¯ä¸Ģ": 6687,
      "Ġyear": 6688,
      "è¿ĺè¦ģ": 6689,
      "éĢĿ": 6690,
      "æĹ©å·Ŀ": 6691,
      "Ġcateg": 6692,
      "æľªèĥ½": 6693,
      "ï¼į": 6694,
      "æľĢåĪĿ": 6695,
      "æ½ľåľ¨": 6696,
      "åħ¬åħ±æľįåĬ¡": 6697,
      "éĻĦè¿ĳ": 6698,
      "rix": 6699,
      "Ġmemory": 6700,
      "åľ¨è¿Ļ": 6701,
      "Ġfl": 6702,
      "Ġmass": 6703,
      "äººæ°ĳå¸ģ": 6704,
      "Ġadhe": 6705,
      "Ġutil": 6706,
      "orph": 6707,
      "aw": 6708,
      "åľ°äº§": 6709,
      "ĠmM": 6710,
      "èĵĿ": 6711,
      "ä½¿åħ¶": 6712,
      "èĻ«": 6713,
      "agen": 6714,
      "2014": 6715,
      "æĽ´å¥½åľ°": 6716,
      "Ġsens": 6717,
      "virus": 6718,
      "VA": 6719,
      "Ġsuff": 6720,
      "åįļå£«": 6721,
      "ç¬¬ä¸Ģä¸ª": 6722,
      "IR": 6723,
      "é«ĺçº§": 6724,
      "æ¸ħæ¥ļ": 6725,
      "æ°¨": 6726,
      "çĽ¸ä¼¼": 6727,
      "odes": 6728,
      "ç§ĺå¯Ĩ": 6729,
      "Ġback": 6730,
      "BV": 6731,
      "çģĮ": 6732,
      "è¯Ī": 6733,
      "åıī": 6734,
      "èĭ±è¯Ń": 6735,
      "å½»åºķ": 6736,
      "é¢ĳçİĩ": 6737,
      "æµ®": 6738,
      "èµ´": 6739,
      "è®¤åĲĮ": 6740,
      "emia": 6741,
      "çļĦçī¹çĤ¹": 6742,
      "Ġinitial": 6743,
      "Ġfailure": 6744,
      "Ġclear": 6745,
      "èĥ¤": 6746,
      "èµ¶": 6747,
      "ä¸ºæŃ¤": 6748,
      "SM": 6749,
      "az": 6750,
      "è¿Ļå°±": 6751,
      "éº»": 6752,
      "Ġincreases": 6753,
      "å¹²é¢Ħ": 6754,
      "æī¹åĪ¤": 6755,
      "ä¸ĩäºº": 6756,
      "Ġdispl": 6757,
      "Ġobes": 6758,
      "Ġabsence": 6759,
      "åĽłåŃĲ": 6760,
      "ĠAc": 6761,
      "Ġadult": 6762,
      "ä¸įåĪ°": 6763,
      "éĢ¼": 6764,
      "Ġexhib": 6765,
      "Ġbiological": 6766,
      "Ġeduc": 6767,
      "urse": 6768,
      "çļĦä»·åĢ¼": 6769,
      "æİ¥è¿ĳ": 6770,
      "ĠFigure": 6771,
      "Ġshort": 6772,
      "ank": 6773,
      "æ¦": 6774,
      "Ġhand": 6775,
      "æĮĩæķ°": 6776,
      "è¯ķåĽ¾": 6777,
      "è¿Ī": 6778,
      "åįıåĬ©": 6779,
      "åģĩè®¾": 6780,
      "ä¸Ģå¹´": 6781,
      "è¾Ĳ": 6782,
      "ç®Ģç§°": 6783,
      "éĺĶ": 6784,
      "ä¿¡æģ¯æĬĢæľ¯": 6785,
      "åĲĥ": 6786,
      "enced": 6787,
      "DM": 6788,
      "èĤł": 6789,
      "terior": 6790,
      "Ġintrac": 6791,
      "Ġreport": 6792,
      "åı¯ä»¥éĢļè¿ĩ": 6793,
      "é¢Ĺ": 6794,
      "Ġcat": 6795,
      "æĸ°æĹ¶ä»£ä¸ŃåĽ½çī¹èī²ç¤¾ä¼ļä¸»ä¹īæĢĿæĥ³": 6796,
      "åºıåĪĹ": 6797,
      "ier": 6798,
      "Ġperipher": 6799,
      "rag": 6800,
      "å®īåľŁæ¡ĥå±±": 6801,
      "ä¸ľåĮĹ": 6802,
      "Ġconfirmed": 6803,
      "èĩ³å°ĳ": 6804,
      "Ġsl": 6805,
      "æłĳç«ĭ": 6806,
      "å¾ĹåĪ°äºĨ": 6807,
      "Ad": 6808,
      "æºĥ": 6809,
      "ç¹ģèį£": 6810,
      "ĠĠĠĠĠĠĠĠĠĠĠĠĠĠĠĠĠ": 6811,
      "Ġinfections": 6812,
      "çļĦä¸ī": 6813,
      "è¯Ńæĸĩ": 6814,
      "é»ĺ": 6815,
      "çĸĨ": 6816,
      "å®Ļ": 6817,
      "activ": 6818,
      "çİ°çĬ¶": 6819,
      "æ»¨": 6820,
      "Ġserv": 6821,
      "Ġdeli": 6822,
      "Ġresearc": 6823,
      "Ġable": 6824,
      "æī¹è¯Ħ": 6825,
      "çİ°æľī": 6826,
      "ä»¥æŃ¤": 6827,
      "rection": 6828,
      "åĨ°": 6829,
      "åķĨåĬ¡": 6830,
      "å±ĢéĿ¢": 6831,
      "åĬ³åĬ¨åĬĽ": 6832,
      "ä¸Ńæľī": 6833,
      "éĺģ": 6834,
      "Ġclin": 6835,
      "Ġapplied": 6836,
      "ä½¿çĶ¨çļĦ": 6837,
      "åĳ¨è¾¹": 6838,
      "Ġcolon": 6839,
      "Ġresulting": 6840,
      "ä¸¾è¡Į": 6841,
      "å¡«": 6842,
      "åĬłä¸Ĭ": 6843,
      "Ġtask": 6844,
      "å·¥äºº": 6845,
      "èĥĨ": 6846,
      "Ġly": 6847,
      "Ġsoft": 6848,
      "Ġevaluation": 6849,
      "Ġreceived": 6850,
      "Ġstudied": 6851,
      "Ġsurve": 6852,
      "OD": 6853,
      "åĲįä¹ī": 6854,
      "æ¶ĪéĻ¤": 6855,
      "åīįçĶ°": 6856,
      "ä¸»ä¹īçļĦ": 6857,
      "Ġmetabolic": 6858,
      "åĿĩè¡¡": 6859,
      "è°ĥè§£": 6860,
      "æ¼ı": 6861,
      "è¡Ĺ": 6862,
      "æĸ©": 6863,
      "èĦ±è´«": 6864,
      "ä¸Ńåħ¨ä¼ļ": 6865,
      "èµĭäºĪ": 6866,
      "Ġhistory": 6867,
      "Ġcomponents": 6868,
      "aged": 6869,
      "Ġendothelial": 6870,
      "äº§çĶŁäºĨ": 6871,
      "Ġmanagement": 6872,
      "åĽŀçŃĶ": 6873,
      "èĩ³ä»Ĭ": 6874,
      "kg": 6875,
      "éļ¶": 6876,
      "è¯ŀ": 6877,
      "Ġpopulations": 6878,
      "ries": 6879,
      "84": 6880,
      "å¼ºçĥĪ": 6881,
      "Ġfive": 6882,
      "è¾ħåĬ©": 6883,
      "Ġfacil": 6884,
      "æĸ°åıĳå±ķ": 6885,
      "åŃ©åŃĲ": 6886,
      "Ġphysi": 6887,
      "æ°¸æŃ£": 6888,
      "éĩįå¤į": 6889,
      "ç«ĭåį³": 6890,
      "åĩĨåĪĻ": 6891,
      "å¼ºå¤§": 6892,
      "TA": 6893,
      "æĦ¿å¯º": 6894,
      "å°ıåº·": 6895,
      "è´Ŀ": 6896,
      "å¤©çĦ¶": 6897,
      "Ġpropor": 6898,
      "Ġdirectly": 6899,
      "çĶŁæ´»çļĦ": 6900,
      "Ġpregn": 6901,
      "Ġinterval": 6902,
      "TR": 6903,
      "%ãĢĤ": 6904,
      "åħ¬æŃ£": 6905,
      "Ġplace": 6906,
      "ä¹Į": 6907,
      "Ġliter": 6908,
      "éĩĬæĶ¾": 6909,
      "Ġsuggests": 6910,
      "æĺ¯ä¸ŃåĽ½": 6911,
      "tial": 6912,
      "EG": 6913,
      "çŃīçº§": 6914,
      "Res": 6915,
      "istic": 6916,
      "ä¿¡ä»°": 6917,
      "éķ¿çļĦ": 6918,
      "åĢŁéī´": 6919,
      "èµģ": 6920,
      "regulation": 6921,
      "ä¼łç»ŁæĸĩåĮĸ": 6922,
      "æ³ķåĽ½": 6923,
      "æ³ķäºº": 6924,
      "ral": 6925,
      "uble": 6926,
      "Ġair": 6927,
      "æĪĺåľº": 6928,
      "æ´Ĺ": 6929,
      "ä¸»è§Ĥ": 6930,
      "Ġversus": 6931,
      "å®ĩå®Ļ": 6932,
      "ç§Łèµģ": 6933,
      "leep": 6934,
      "Ġepithelial": 6935,
      "æŃ¦çĶ°æ°ı": 6936,
      "Ġcorrelated": 6937,
      "ave": 6938,
      "isc": 6939,
      "å¤§å¹ħ": 6940,
      "ä¸Ĭä¸ĭ": 6941,
      "Ġlight": 6942,
      "çļĦçĽ®æłĩ": 6943,
      "Ġaffected": 6944,
      "æķ¬": 6945,
      "å¹¶ä¸įæĺ¯": 6946,
      "ä¹ĭéĻħ": 6947,
      "^{": 6948,
      "Ġpatterns": 6949,
      "ransi": 6950,
      "Ġskin": 6951,
      "è§Ĩè§Ĵ": 6952,
      "è¸ª": 6953,
      "çļĦç§ĳåŃ¦": 6954,
      "æ»ĳ": 6955,
      "åİŁåŃĲ": 6956,
      "}$": 6957,
      "å°Ŀ": 6958,
      "ä¼łæĦŁåĻ¨": 6959,
      "ĠĠĠĠĠĠĠĠĠĠĠĠĠĠĠĠĠĠĠĠĠĠĠĠĠĠĠĠĠĠĠĠĠĠĠĠĠĠĠĠĠĠĠĠĠĠĠĠĠĠĠĠĠĠĠĠĠĠĠĠĠĠĠĠĠĠĠĠĠĠĠĠĠĠĠĠĠĠĠĠĠĠĠĠĠĠĠĠĠĠĠĠĠĠĠĠĠĠĠĠĠĠĠĠĠĠĠĠĠĠĠĠĠĠĠĠĠĠĠĠĠĠĠĠĠĠĠĠĠĠĠĠĠĠĠĠĠĠĠĠĠĠĠĠĠĠĠĠĠĠĠĠĠĠĠĠĠĠĠĠĠĠĠĠĠĠĠĠĠĠĠĠĠĠĠĠĠĠĠĠĠĠĠĠĠĠĠĠĠĠĠĠĠĠĠĠĠĠĠĠĠĠĠĠĠĠĠĠĠĠĠĠĠĠĠĠĠĠĠĠĠĠĠĠĠĠĠĠĠĠĠĠĠĠĠĠĠĠĠĠĠĠĠĠĠĠĠĠĠĠĠĠĠĠĠĠ": 6960,
      "Ab": 6961,
      "åıĺæĽ´": 6962,
      "Ġmorph": 6963,
      "ä»¥åīį": 6964,
      "åıĸå¾ĹäºĨ": 6965,
      "çļĦåħ·ä½ĵ": 6966,
      "èĲ¥åħ»": 6967,
      "å§¬": 6968,
      "è½¬åĲĳ": 6969,
      "Ġaffect": 6970,
      "ĠĠĠĠĠĠĠĠĠĠĠĠĠĠĠĠĠĠ": 6971,
      "åįķä¸Ģ": 6972,
      "orb": 6973,
      "ä½Ĳç«¹": 6974,
      "Ġparticularly": 6975,
      "Ġsal": 6976,
      "Al": 6977,
      "æĽ´å¤ļçļĦ": 6978,
      "é¼ł": 6979,
      "å¥Ī": 6980,
      "ä¼łéĢĴ": 6981,
      "Ġess": 6982,
      "Ġ21": 6983,
      "æ¶¨": 6984,
      "äººæ°ĳæĶ¿åºľ": 6985,
      "è¯¸å¤ļ": 6986,
      "æł·æľ¬": 6987,
      "\\*\\*": 6988,
      "çļĦåİŁåĪĻ": 6989,
      "Ġfund": 6990,
      "Ġacco": 6991,
      "Ġagg": 6992,
      "ĠÎ±": 6993,
      "åĩºèº«": 6994,
      "ocal": 6995,
      "ĠäºĮ": 6996,
      "åĲİæŀľ": 6997,
      "LI": 6998,
      "Ġ\\*": 6999,
      "Ġreduce": 7000,
      "èŀįåħ¥": 7001,
      "Ġconsistent": 7002,
      "Ġinduc": 7003,
      "/-": 7004,
      "åıĳæĺİ": 7005,
      "positive": 7006,
      "adi": 7007,
      "ify": 7008,
      "åīįè¿Ľ": 7009,
      "2013": 7010,
      "æĥĬ": 7011,
      "ç»ıåħ¸": 7012,
      "åĪĿæľŁ": 7013,
      "å¤§å°ı": 7014,
      "Ġkinase": 7015,
      "Ġoper": 7016,
      "82": 7017,
      "Ġremains": 7018,
      "Ġhere": 7019,
      "priate": 7020,
      "rec": 7021,
      "==========": 7022,
      "ä¿ĿçķĻ": 7023,
      "æ¯ıå¹´": 7024,
      "å±Ģéĥ¨": 7025,
      "éĩĩè´Ń": 7026,
      "erve": 7027,
      "åįĹéĥ¨": 7028,
      "\"})": 7029,
      "Ġleading": 7030,
      "æĥħå¢ĥ": 7031,
      "RNAs": 7032,
      "Ġsince": 7033,
      "ç¼ĸåĪ¶": 7034,
      "çº¤ç»´": 7035,
      "omas": 7036,
      "orescence": 7037,
      "Ġdetail": 7038,
      "tation": 7039,
      "Ġdetect": 7040,
      "å§Ķä¼ļ": 7041,
      "Ġrapid": 7042,
      "Ġcomparison": 7043,
      "ä¹Łåľ¨": 7044,
      "åħ¨å±Ģ": 7045,
      "ogn": 7046,
      "ä¸ªæĢ§": 7047,
      "inflamm": 7048,
      "Ġiss": 7049,
      "Ġve": 7050,
      "å²Ĺä½į": 7051,
      "81": 7052,
      "Ġsuccess": 7053,
      "Ġadap": 7054,
      "ä¸ªæľĪ": 7055,
      "å°ıæĹ©å·Ŀ": 7056,
      "åµ": 7057,
      "ĠĠĠĠĠĠĠĠĠĠĠĠĠĠĠĠĠĠĠ": 7058,
      "arrow": 7059,
      "è¾©è¯ģ": 7060,
      "åħĥé¾Ł": 7061,
      "å¿į": 7062,
      "çļĦåİŁåĽł": 7063,
      "ä»£è¡¨å¤§ä¼ļ": 7064,
      "ç¨¿": 7065,
      "æ°ĳçĶŁ": 7066,
      "Ġoste": 7067,
      "ç¬¬åħŃ": 7068,
      "rolog": 7069,
      "ä¸įåĪ©": 7070,
      "Ġpan": 7071,
      "ographic": 7072,
      "ç¬ł": 7073,
      "1000": 7074,
      "æ¦Ĥæĭ¬": 7075,
      "é©¶": 7076,
      "æĪĲåĪĨ": 7077,
      "åĲįç§°": 7078,
      "Ġaccum": 7079,
      "è¿Ľåı£": 7080,
      "ns": 7081,
      "Ġseg": 7082,
      "ze": 7083,
      "PV": 7084,
      "ploy": 7085,
      "èįĲ": 7086,
      "otypes": 7087,
      "Ġrelevant": 7088,
      "Ġuni": 7089,
      "Ġalle": 7090,
      "æĻ¯èĥľ": 7091,
      "Ġfuture": 7092,
      "æľīåºı": 7093,
      "åĢºåĪ¸": 7094,
      "åİĨåı²ä¸Ĭ": 7095,
      "ĠCR": 7096,
      "å¤įåĲĪ": 7097,
      "åĪĨè£Ĥ": 7098,
      "ä¹ĭåıĺ": 7099,
      "vari": 7100,
      "éľ¸": 7101,
      "åĭ¤": 7102,
      "åĽŀå½Ĵ": 7103,
      "}{": 7104,
      "ä¸İæŃ¤": 7105,
      "etal": 7106,
      "cohol": 7107,
      "Ġcall": 7108,
      "æĶ¾å¼ĥ": 7109,
      "æľ¬æĦ¿å¯º": 7110,
      "å¤§å®¶": 7111,
      "é»ĳçĶ°": 7112,
      "åħ¨åħļ": 7113,
      "éģŃåĪ°": 7114,
      "è¢«è®¤ä¸º": 7115,
      "by": 7116,
      "ãĢĭï¼Ī": 7117,
      "Ġstatistical": 7118,
      "ä»£è°¢": 7119,
      "è¥¿åĨĽ": 7120,
      "å¤Ħç½®": 7121,
      "BD": 7122,
      "CF": 7123,
      "æĸĩç¦Ħ": 7124,
      "verex": 7125,
      "ä¸ºæł¸å¿ĥçļĦ": 7126,
      "èº«ä½ĵ": 7127,
      "æĹ¶æľŁçļĦ": 7128,
      "è´Łæĭħ": 7129,
      "Ġlig": 7130,
      "åĮºåĿĹ": 7131,
      "ä¹īåħĥ": 7132,
      "ä¸įåĬ¨": 7133,
      "Ġgenerated": 7134,
      "Ġactivated": 7135,
      "åĢºæĿĥäºº": 7136,
      "èİ«": 7137,
      "bers": 7138,
      "çĻ¾å§ĵ": 7139,
      "åĨ²åĩ»": 7140,
      "Ġscreening": 7141,
      "æ§": 7142,
      "åı¯ä»¥åľ¨": 7143,
      "æĽ°": 7144,
      "ä¹ĭå¥³": 7145,
      "Ġoptim": 7146,
      "çļĦæĿĥåĪ©": 7147,
      "pecially": 7148,
      "ĠçĶŁæ¶¯": 7149,
      "éĨĴ": 7150,
      "é«ĺäºİ": 7151,
      "ç¬¦åı·": 7152,
      "utri": 7153,
      "éĢīä¸¾": 7154,
      "2012": 7155,
      "åıĳèµ·": 7156,
      "æİĴéĻ¤": 7157,
      "Ġfile": 7158,
      "Ġtox": 7159,
      "Ġrequire": 7160,
      "ä¼Ĺå¤ļ": 7161,
      "æĪĳéĥ¨": 7162,
      "Ġchann": 7163,
      "èĪį": 7164,
      "Ġregression": 7165,
      "è´¢å¯Į": 7166,
      "Ġanother": 7167,
      "ä¾µå®³": 7168,
      "ä¾ĿçĦ¶": 7169,
      "çº³ç¨İ": 7170,
      "èĭıèģĶ": 7171,
      "erate": 7172,
      "Ġincidence": 7173,
      "åĨ³è®®": 7174,
      "ĠDi": 7175,
      "è½¬åĮĸä¸º": 7176,
      "...": 7177,
      "å©ļå§»": 7178,
      "Ġdisorder": 7179,
      "----------------------------": 7180,
      "å¸¦åĬ¨": 7181,
      "ç®Ń": 7182,
      "Ġquantif": 7183,
      "åħļçļĦåįģåħ«å¤§": 7184,
      "åĲĮæŃ¥": 7185,
      "åıĳå±ķåĴĮ": 7186,
      "ä¹łè¿ĳå¹³æĸ°æĹ¶ä»£ä¸ŃåĽ½çī¹èī²ç¤¾ä¼ļä¸»ä¹īæĢĿæĥ³": 7187,
      "Ġmaterial": 7188,
      "æİ¥æĶ¶": 7189,
      "time": 7190,
      "ä¸¾æİª": 7191,
      "åºĶæĢ¥": 7192,
      "åıĳèĤ²": 7193,
      "Ġvess": 7194,
      "æ¢ħ": 7195,
      "æİĪæĿĥ": 7196,
      "æ·¡": 7197,
      "Ġthough": 7198,
      "çļĦåºĶçĶ¨": 7199,
      "Ġevaluate": 7200,
      "sity": 7201,
      "çļĦåĽ½å®¶": 7202,
      "çķ´": 7203,
      "**ãĢĤ": 7204,
      "MR": 7205,
      "éŀ": 7206,
      "æįŁä¼¤": 7207,
      "é£İæł¼": 7208,
      "æ´»æĢ§": 7209,
      "åĴ¨": 7210,
      "èį¡": 7211,
      "æĭį": 7212,
      "associated": 7213,
      "Ġcontribute": 7214,
      "ä¸ŃéĹ´": 7215,
      "sh": 7216,
      "åĿļåĨ³": 7217,
      "Ġspecies": 7218,
      "Ġfinal": 7219,
      "Ġreas": 7220,
      "Ġpref": 7221,
      "æİī": 7222,
      "èĢģå¸Ī": 7223,
      "ĠCol": 7224,
      "aches": 7225,
      "Ġinteractions": 7226,
      "__": 7227,
      "éĢļéģĵ": 7228,
      "ä¸Ģæī¹": 7229,
      "Ġdomain": 7230,
      "çĶŁæĢģæĸĩæĺİ": 7231,
      "çļĦç²¾ç¥ŀ": 7232,
      "Ġmacrophages": 7233,
      "Ġ**(": 7234,
      "éĺ²æ²»": 7235,
      "æĶ»æīĵ": 7236,
      "å®ĹæĪĳéĥ¨": 7237,
      "ç¾½æŁ´ç§ĢåĲī": 7238,
      "Ġplate": 7239,
      "çİ¯ä¿Ŀ": 7240,
      "è¾Ĳå°Ħ": 7241,
      "aff": 7242,
      "å¯¹æ¯Ķ": 7243,
      "ç®¡è¾ĸ": 7244,
      "/âĪĴ": 7245,
      "è¯Ŀè¯Ń": 7246,
      "å°ĳå¹´": 7247,
      "èĬ¯": 7248,
      "hyd": 7249,
      "çļĦæķĻèĤ²": 7250,
      "Ġmolecules": 7251,
      "æĪ¿åľ°äº§": 7252,
      "å¥Ķ": 7253,
      "Ġtransi": 7254,
      "æľīæĿĥ": 7255,
      "çļĦçĽ®çļĦ": 7256,
      "æĶ¾åľ¨": 7257,
      "é²ľæĺİ": 7258,
      "äºĭæĥħ": 7259,
      "å®¡ç¾İ": 7260,
      "åīįåĲİ": 7261,
      "pite": 7262,
      "èĥĮæĻ¯ä¸ĭ": 7263,
      "äººæĸĩ": 7264,
      "æĲŀ": 7265,
      "Ġcycle": 7266,
      "è®¤çľŁ": 7267,
      "å¤§å¤§": 7268,
      "Ġexist": 7269,
      "ä¸įåı¯èĥ½": 7270,
      "éŃı": 7271,
      "éĵľ": 7272,
      "æ±ĩçİĩ": 7273,
      "Ġleuk": 7274,
      "ä¸»ç®¡": 7275,
      "èħĶ": 7276,
      "ustr": 7277,
      "Ġstrategies": 7278,
      "ä¸Ģä½ĵåĮĸ": 7279,
      "æĤ¨": 7280,
      "åĶ¯çī©": 7281,
      "Ġlike": 7282,
      "åĲĮçĽŁ": 7283,
      "Ġinvestigate": 7284,
      "equ": 7285,
      "åĵ¥": 7286,
      "è¥¿éĥ¨": 7287,
      "èĢģå¹´": 7288,
      "CV": 7289,
      "Ġneeded": 7290,
      "æĶ»åĿļ": 7291,
      "äº²èĩª": 7292,
      "åĨľäº§åĵģ": 7293,
      "ĠDr": 7294,
      "formation": 7295,
      "æ³ķå®ĺ": 7296,
      "entially": 7297,
      "chem": 7298,
      "ç©ºæ°Ķ": 7299,
      "Ġmicroscop": 7300,
      "ili": 7301,
      "Ġphenotype": 7302,
      "æľįåĬ¡çļĦ": 7303,
      "çłĶç©¶æīĢ": 7304,
      "å¤§åŀĭ": 7305,
      "å¤ļå¹´": 7306,
      "å¦¹": 7307,
      "ä¸ĵé¡¹": 7308,
      "Ġadults": 7309,
      "åıĳçĶŁäºĨ": 7310,
      "åħĪéĶĭ": 7311,
      "å¼ıçļĦ": 7312,
      "éĺª": 7313,
      "ç¦»å¼Ģ": 7314,
      "åįĹåĮĹ": 7315,
      "Ġquantit": 7316,
      "mia": 7317,
      "opro": 7318,
      "Ġuseful": 7319,
      "Ġoxygen": 7320,
      "æĢİä¹Ī": 7321,
      "ĠOne": 7322,
      "Ġhost": 7323,
      "æľĢä¸º": 7324,
      "ç©·": 7325,
      "Ġperipheral": 7326,
      "lish": 7327,
      "300": 7328,
      "Ġtemper": 7329,
      "Ġangi": 7330,
      "Ġsupported": 7331,
      "æ¸ħæĻ°": 7332,
      "Ġdysfunction": 7333,
      "éĺ²èĮĥ": 7334,
      "åİŁæľ¬": 7335,
      "åıĳçĶµ": 7336,
      "äºĭå®ŀä¸Ĭ": 7337,
      "æľĢé«ĺäººæ°ĳæ³ķéĻ¢": 7338,
      "æĬµæĬĹ": 7339,
      "åıĳåĩº": 7340,
      "åľ°æĸ¹æĶ¿åºľ": 7341,
      "Ġmalign": 7342,
      "å®¤çĶºå¹ķåºľ": 7343,
      "åĽ¾ä¹¦": 7344,
      "åĬ£": 7345,
      "ventions": 7346,
      "Ġemerg": 7347,
      "Ġact": 7348,
      "åŃ¦ä¼ļ": 7349,
      "ä»ĸåľ¨": 7350,
      "Ġespecially": 7351,
      "çĤ¹çļĦ": 7352,
      "Ġincubated": 7353,
      "Ġpulmonary": 7354,
      "GA": 7355,
      "äº¤æĪĺ": 7356,
      "çĽĳå¯Ł": 7357,
      "å·¨å¤§çļĦ": 7358,
      "Ġreal": 7359,
      "åĲİæľŁ": 7360,
      "ifically": 7361,
      "ãĢĭãĢģãĢĬ": 7362,
      "æīĭæľ¯": 7363,
      "å±ı": 7364,
      "çłĶç©¶äººåĳĺ": 7365,
      "Ġmeans": 7366,
      "bor": 7367,
      "Ġdifficult": 7368,
      "åģļæ³ķ": 7369,
      "èĮĥçķ´": 7370,
      "æĳĺ": 7371,
      "Ġapproxim": 7372,
      "ä½İäºİ": 7373,
      "æĢĴ": 7374,
      "çļĦæĸĩåĮĸ": 7375,
      "document": 7376,
      "åĵģè´¨": 7377,
      "Ġ37": 7378,
      "åĹ£": 7379,
      "ç»ĵæŀĦçļĦ": 7380,
      "eling": 7381,
      "è£ħç½®": 7382,
      "Ġsumm": 7383,
      "åħ±è¯Ĩ": 7384,
      "è¹": 7385,
      "å±ķçİ°": 7386,
      "Ġhours": 7387,
      "éļıæľº": 7388,
      "æ¡£æ¡Ī": 7389,
      "Ġkid": 7390,
      "æľĢæĹ©": 7391,
      "ĠInc": 7392,
      "æħİ": 7393,
      "è¾Ł": 7394,
      "Ġrespiratory": 7395,
      "æīĢéľĢ": 7396,
      "Ġyoung": 7397,
      "Ġneu": 7398,
      "Ġsci": 7399,
      "Ġimpair": 7400,
      "eding": 7401,
      "åħ¬çĽĬ": 7402,
      "æĺ¯æĪĺåĽ½æĹ¶ä»£": 7403,
      "left": 7404,
      "ĠGen": 7405,
      "çļĦåŃ¦ä¹ł": 7406,
      "OC": 7407,
      "Ġestablished": 7408,
      "æ°ĳä¼Ĺ": 7409,
      "Ġhypothesis": 7410,
      "åĪĨå·¥": 7411,
      "æ°ĳæ³ķåħ¸": 7412,
      "åĿ¦": 7413,
      "Ġposition": 7414,
      "çĶ¨æĿ¥": 7415,
      "æĺ¾çĦ¶": 7416,
      "**ï¼Į": 7417,
      "Ġcharacterized": 7418,
      "ĠIFN": 7419,
      "èģĶåĲĪåĽ½": 7420,
      "éĢĤçĶ¨äºİ": 7421,
      "Ġtoward": 7422,
      "åıł": 7423,
      "åħ±åĲĮå¯Įè£ķ": 7424,
      "oding": 7425,
      "ä¿¡æģ¯çļĦ": 7426,
      "éº¦": 7427,
      "Ġdim": 7428,
      "å¢Ļ": 7429,
      "ï½ŀ": 7430,
      "GDP": 7431,
      "ä¸Ģé¡¹": 7432,
      "Ġmid": 7433,
      "Ġpossi": 7434,
      "Ġpaper": 7435,
      "cepti": 7436,
      "ĠMedical": 7437,
      "Ġinterpre": 7438,
      "è¶ħè¶Ĭ": 7439,
      "æ´ª": 7440,
      "ä¿¡ä»»": 7441,
      "ä»ķäºİ": 7442,
      "Ġimproved": 7443,
      "çļĦä¸ŃåĽ½": 7444,
      "æľºéģĩ": 7445,
      "arding": 7446,
      "Ġsecondary": 7447,
      "Ex": 7448,
      "æıĴ": 7449,
      "éĺĲè¿°": 7450,
      "é¹¿": 7451,
      "ä¸»å¸Ń": 7452,
      "Ġderived": 7453,
      "å½°": 7454,
      "Ġcauses": 7455,
      "Ġview": 7456,
      "è§Ĥæµĭ": 7457,
      "æľ¬èĥ½": 7458,
      "è¾Ĩ": 7459,
      "ä¸įè¯¦": 7460,
      "åĬŀåħ¬": 7461,
      "è¾¹çķĮ": 7462,
      "ä¸įèī¯": 7463,
      "è®°å¿Ĩ": 7464,
      "åĽ½å¤ĸ": 7465,
      "ĠAL": 7466,
      "Ġtransfer": 7467,
      "2010": 7468,
      "care": 7469,
      "åĮºçļĦ": 7470,
      "Ġneuronal": 7471,
      "Ġupon": 7472,
      "åĲĹ": 7473,
      "è§Ī": 7474,
      "æĽ´æĺ¯": 7475,
      "åĲĪå¹¶": 7476,
      "icacy": 7477,
      "æķıæĦŁ": 7478,
      "================================": 7479,
      "åĴĮå®ŀè·µ": 7480,
      "æĬķèµĦèĢħ": 7481,
      "å¾Īéļ¾": 7482,
      "çļĦé£İéĻ©": 7483,
      "ethod": 7484,
      "åįłæľī": 7485,
      "æıĲäº¤": 7486,
      "Ġliterature": 7487,
      "åİħ": 7488,
      "æ¸ĹéĢı": 7489,
      "%),": 7490,
      "Ġtrig": 7491,
      "icians": 7492,
      "ĠAr": 7493,
      "PR": 7494,
      "hood": 7495,
      "èĥ¸": 7496,
      "äººæ°ĳçļĦ": 7497,
      "æ¯Ķéĩį": 7498,
      "istry": 7499,
      "ĊĠĠĠ": 7500,
      "å¸¦é¢Ĩ": 7501,
      "ĠPre": 7502,
      "Ġerr": 7503,
      "äº«å¹´": 7504,
      "cal": 7505,
      "ä¸»ä»»": 7506,
      "Ġwhole": 7507,
      "operative": 7508,
      "Ġhyd": 7509,
      "æ¼Ķåıĺ": 7510,
      "ç¥Ń": 7511,
      "æĶ¿åĬ¡": 7512,
      "Ġdon": 7513,
      "ising": 7514,
      "Ġadministration": 7515,
      "æĲŃ": 7516,
      "é«ĺçŃīæķĻèĤ²": 7517,
      "rich": 7518,
      "ç«ĭè¶³": 7519,
      "å®īèīº": 7520,
      "ergic": 7521,
      "æīĢè¿°": 7522,
      "Ġmonitor": 7523,
      "åĴ¨è¯¢": 7524,
      "å¿§": 7525,
      "èµ·è¯ī": 7526,
      "otox": 7527,
      "çĨĬ": 7528,
      "ç«ŀäºīåĬĽ": 7529,
      "æĺ¯ä»Ģä¹Ī": 7530,
      "è£ģåĪ¤": 7531,
      "Ġ,": 7532,
      "æīĢæľīæĿĥ": 7533,
      "çĴ": 7534,
      "åĲ«ä¹ī": 7535,
      "Ġcardiovascular": 7536,
      "ĠInte": 7537,
      "å¤§åĽ½": 7538,
      "Ġtog": 7539,
      "é«ĺéĢŁ": 7540,
      "åĳ¨åĽ´": 7541,
      "ç¿»è¯ĳ": 7542,
      "Ġprovides": 7543,
      "æ·»": 7544,
      "å¾ģæĶ¶": 7545,
      "è®¤è¯ģ": 7546,
      "æıĲèµ·": 7547,
      "åĭĺ": 7548,
      "æī¾åĪ°": 7549,
      "Ġexerc": 7550,
      "Ġtogether": 7551,
      "ole": 7552,
      "å»ºç«ĭäºĨ": 7553,
      "rin": 7554,
      "Ġunderlying": 7555,
      "Ġpoints": 7556,
      "Ġresearchers": 7557,
      "äº§çī©": 7558,
      "mented": 7559,
      "Ġbiomark": 7560,
      "Ġagents": 7561,
      "è½½ä½ĵ": 7562,
      "ä¸Ģå¸¦ä¸Ģè·¯": 7563,
      "åŀĤ": 7564,
      "Ġelectr": 7565,
      "æĪĲæķĪ": 7566,
      "å¿ĺ": 7567,
      "ç§ĳåŃ¦å®¶": 7568,
      "æ·Ģ": 7569,
      "Ġrecru": 7570,
      "Ġbeta": 7571,
      "terol": 7572,
      "é¦Ī": 7573,
      "chool": 7574,
      "æĦıè¯Ĩå½¢æĢģ": 7575,
      "ç»Łä¸ĢçļĦ": 7576,
      "ç¼Ķ": 7577,
      "å¤įæĿĤçļĦ": 7578,
      "Ġcytokines": 7579,
      "Ġdeveloping": 7580,
      "Ġstrains": 7581,
      "ĠNF": 7582,
      "æĤŁ": 7583,
      "èģĮåĬ¡": 7584,
      "éĤĵ": 7585,
      "immun": 7586,
      "åı¯èĥ½æĺ¯": 7587,
      "Ġä¸ī": 7588,
      "é¢ģå¸ĥ": 7589,
      "tle": 7590,
      "æĬ¢": 7591,
      "Ġinduction": 7592,
      "ä¾Ŀæ³ķæ²»": 7593,
      "ĠMRI": 7594,
      "Ġinhibitors": 7595,
      "ä»Ĭå·Ŀæ°ı": 7596,
      "Ġmuch": 7597,
      "è¾ĥä½İ": 7598,
      "è®¤åı¯": 7599,
      "éĢļè¿ĩå¯¹": 7600,
      "ä¿®è®¢": 7601,
      "umor": 7602,
      "Ġsignals": 7603,
      "Ġdensity": 7604,
      "è¢«è§Ĩä¸º": 7605,
      "Ġelevated": 7606,
      "rup": 7607,
      "Ġtop": 7608,
      "åıĺå¾Ĺ": 7609,
      "âĳ¢": 7610,
      "Ġcombined": 7611,
      "èĳ¬": 7612,
      "æ¼«": 7613,
      "Ġsleep": 7614,
      "å®ĥæĺ¯": 7615,
      "ä»£çłģ": 7616,
      "æĲº": 7617,
      "Ġalone": 7618,
      "çĶ¨åľ°": 7619,
      "inflammatory": 7620,
      "Ġdistin": 7621,
      "roid": 7622,
      "äººæł¼": 7623,
      "çĽ¸åıį": 7624,
      "Ġwild": 7625,
      "ream": 7626,
      "ogenous": 7627,
      "åħļåĴĮåĽ½å®¶": 7628,
      "ä¸ĭæĿ¥": 7629,
      "åĿ¡": 7630,
      "æ³¥": 7631,
      "æĽ´é«ĺ": 7632,
      "æĮĸæİĺ": 7633,
      "æľªæĪĲå¹´": 7634,
      "çĽ´åĪ°": 7635,
      "Ġprost": 7636,
      "ä¸ĭåĪĹ": 7637,
      "å±±åĲį": 7638,
      "å«ģ": 7639,
      "for": 7640,
      "åĩĿèģļ": 7641,
      "Ġcycl": 7642,
      "ä»Ĭå¹´": 7643,
      "Ġinduce": 7644,
      "Ġlimit": 7645,
      "å±ĢéĻĲ": 7646,
      "æµĵåº¦": 7647,
      "èµµ": 7648,
      "ä¸īç§į": 7649,
      "äº¤åıī": 7650,
      "Ġdri": 7651,
      "æĸĩèīº": 7652,
      "ales": 7653,
      "fold": 7654,
      "0001": 7655,
      "å¤§åŃ¦çĶŁ": 7656,
      "group": 7657,
      "åħ¶å®ĥ": 7658,
      "æľ¬ä¹¦": 7659,
      "æŀģå¤§": 7660,
      "çļĦè®¤è¯Ĩ": 7661,
      "Ġpower": 7662,
      "Ġcarcinoma": 7663,
      "Ġcortex": 7664,
      "åĲ¨": 7665,
      "å±ħåŁİ": 7666,
      "å®¶èĢģ": 7667,
      "Ġcorresponding": 7668,
      "BI": 7669,
      "Ġmetabolism": 7670,
      "èķ´": 7671,
      "ĠSim": 7672,
      "éĵģè·¯": 7673,
      "002": 7674,
      "Ġrecently": 7675,
      "åıĺåĬ¨": 7676,
      "æĴ¤éĢĢ": 7677,
      "Ġ22": 7678,
      "åħļçļĦé¢Ĩå¯¼": 7679,
      "ä¸ĢåĲĳ": 7680,
      "Ġproperties": 7681,
      "ä»ħä»ħ": 7682,
      "Ġaden": 7683,
      "å¼Łå¼Ł": 7684,
      "Ġhome": 7685,
      "çķħ": 7686,
      "æĿ¡ä»¶çļĦ": 7687,
      "éĹ²": 7688,
      "cers": 7689,
      "è¿Ĳä½ľ": 7690,
      "bral": 7691,
      "åĪĨåī²": 7692,
      "ä¸Ģåº¦": 7693,
      "çī©èģĶç½ĳ": 7694,
      "æĪĴ": 7695,
      "clus": 7696,
      "ĠAss": 7697,
      "Ġcapac": 7698,
      "å¯Ĵ": 7699,
      "æĹ¥èµ·": 7700,
      "æĶ¿çŃĸçļĦ": 7701,
      "Ġmust": 7702,
      "æī¶è´«": 7703,
      "è°ĪåĪ¤": 7704,
      "çİ°åľº": 7705,
      "éĢ¸": 7706,
      "åį¿": 7707,
      "å¸ĿåĽ½": 7708,
      "ĠĠĠĠĠĠĠĠĠĠĠĠĠĠĠĠĠĠĠĠ": 7709,
      "Pro": 7710,
      "ĠWT": 7711,
      "Î¼": 7712,
      "æ°Ķä½ĵ": 7713,
      "Ġobjec": 7714,
      "Ġvec": 7715,
      "æ¸¸æĪı": 7716,
      "rh": 7717,
      "Ġdynam": 7718,
      "ĠInstitute": 7719,
      "artment": 7720,
      "å¯Ĩåº¦": 7721,
      "Ġinterventions": 7722,
      "ç¨³å®ļçļĦ": 7723,
      "çŁ¢": 7724,
      "çļĦè¿ĩç¨ĭä¸Ń": 7725,
      "æĸ°ä¸ŃåĽ½": 7726,
      "åħļåĨħ": 7727,
      "æľįåĬ¡ä¸ļ": 7728,
      "Ġsignificance": 7729,
      "Ġdos": 7730,
      "ä¾¯": 7731,
      "å´©": 7732,
      "èĤ¡ç¥¨": 7733,
      "Ġplac": 7734,
      "è¯´çļĦ": 7735,
      "æīĢç¤º": 7736,
      "BC": 7737,
      "éĹ´æİ¥": 7738,
      "åĮºåĿĹéĵ¾": 7739,
      "Ġessential": 7740,
      "Ġconsider": 7741,
      "å¹²æī°": 7742,
      "èĴ²": 7743,
      "Ġreference": 7744,
      "PT": 7745,
      "çł´äº§": 7746,
      "é«ĵ": 7747,
      "Ġbre": 7748,
      "ä¾µçĬ¯": 7749,
      "æī¿è¯º": 7750,
      "ä¾Ŀæīĺ": 7751,
      "çº³ç±³": 7752,
      "æĶ»éĻ·": 7753,
      "Ġterms": 7754,
      "mL": 7755,
      "çº¿æĢ§": 7756,
      "èĥİ": 7757,
      "åľ°åŁŁ": 7758,
      "urrence": 7759,
      "è¿Ľè¡ĮçļĦ": 7760,
      "ç¦ħ": 7761,
      "å¹¸ç¦ı": 7762,
      "åľ¨ä¸Ģèµ·": 7763,
      "å¦ĩå¥³": 7764,
      "Ġcontext": 7765,
      "å¾®çĶŁçī©": 7766,
      "Ġintr": 7767,
      "èĩ³äºİ": 7768,
      "ä¹Łå°±": 7769,
      "Ġ48": 7770,
      "[^": 7771,
      "èĽĭçĻ½è´¨": 7772,
      "ring": 7773,
      "ä½İç¢³": 7774,
      "åĳ¼åĲ¸": 7775,
      "âĢĲ": 7776,
      "è¡į": 7777,
      "Ġenhanced": 7778,
      "éĺ²å¾¡": 7779,
      "å¤·": 7780,
      "æĮĩåįĹ": 7781,
      "Ġlog": 7782,
      "éķ¿å®ĹæĪĳéĥ¨": 7783,
      "Ġcompos": 7784,
      "ird": 7785,
      "æŁ´çĶ°": 7786,
      "ä¼°è®¡": 7787,
      "ä¸¤èĢħ": 7788,
      "Ġapproaches": 7789,
      "åıįæĺłäºĨ": 7790,
      "eting": 7791,
      "çŃīéĹ®é¢ĺ": 7792,
      "rs": 7793,
      "åīĳ": 7794,
      "den": 7795,
      "Ġaccess": 7796,
      "reshold": 7797,
      "æĢĿæĥ³æĶ¿æ²»": 7798,
      "Ġsaf": 7799,
      "å»¶ç»Ń": 7800,
      "çŁ³çĶ°": 7801,
      "ç¤¾ä¼ļç§ĳåŃ¦": 7802,
      "èĤ¡ä»½": 7803,
      "PI": 7804,
      "çĻ¾åĪĨ": 7805,
      "æĴ°": 7806,
      "é¬": 7807,
      "Ġfood": 7808,
      "Ġaction": 7809,
      "ä¸İåħ¶ä»ĸ": 7810,
      "Ġcertain": 7811,
      "å±±åĨħ": 7812,
      "Ġshowing": 7813,
      "åłĨ": 7814,
      "ĠPT": 7815,
      "Ġmedian": 7816,
      "æĪĺå½¹": 7817,
      "èĢĥåı¤": 7818,
      "æĳĩ": 7819,
      "Ġalcohol": 7820,
      "åħ¬éĩĮ": 7821,
      "âĨ": 7822,
      "å¤§æ°Ķ": 7823,
      "æĢ»éĩı": 7824,
      "Ġdesigned": 7825,
      "lobal": 7826,
      "ä½ĵç³»åĴĮ": 7827,
      "beta": 7828,
      "Ġapproved": 7829,
      "æŃ¦çĶ°åĨĽ": 7830,
      "åı¦ä¸Ģä¸ª": 7831,
      "åĲīå·Ŀ": 7832,
      "æŁĲä¸Ģ": 7833,
      "èĥ½åĬĽåĴĮ": 7834,
      "å¥´": 7835,
      "Ġmigration": 7836,
      "CH": 7837,
      "æīĵåĩ»": 7838,
      "active": 7839,
      "Ġmeasurements": 7840,
      "é¡ºåĪ©": 7841,
      "æīĢæľīçļĦ": 7842,
      "åĨįçĶŁ": 7843,
      "åģľæŃ¢": 7844,
      "æķ°é¢Ŀ": 7845,
      "å¿ħè¦ģçļĦ": 7846,
      "åĲĪçĲĨçļĦ": 7847,
      "å¯¸": 7848,
      "Ġventric": 7849,
      "åħ¬å¸ĥ": 7850,
      "åľ°åĿĢ": 7851,
      "æĦŁçŁ¥": 7852,
      "Ġappropriate": 7853,
      "æĴ¤éĶĢ": 7854,
      "dom": 7855,
      "RF": 7856,
      "éĵ¸": 7857,
      "taining": 7858,
      "ä»¥ä¸ĬçļĦ": 7859,
      "derived": 7860,
      "æ¿ĳ": 7861,
      "Ġcontent": 7862,
      "Ġblot": 7863,
      "æĤ¬": 7864,
      "æŃ¦çĶ°å®¶": 7865,
      "çĽĳæİ§": 7866,
      "åĬłè´º": 7867,
      "åıĳå°Ħ": 7868,
      "Ġwhat": 7869,
      "åŃĺåľ¨çĿĢ": 7870,
      "å®ŀæĹ¶": 7871,
      "èģĶçĽŁ": 7872,
      "å¹¶å°Ĩ": 7873,
      "åī¥": 7874,
      "eff": 7875,
      "ç¾İå¥½": 7876,
      "æĢ§ä¸İ": 7877,
      "Ġneural": 7878,
      "ç§Ģå¿ł": 7879,
      "æµĻæ±Ł": 7880,
      "Ġdefec": 7881,
      "OX": 7882,
      "Ġâī¥": 7883,
      "Ġtechniques": 7884,
      "è¿Ļæ¬¡": 7885,
      "ocamp": 7886,
      "æĢķ": 7887,
      "äºĴçĽ¸": 7888,
      "æķ´çĲĨ": 7889,
      "æ³ķåŃ¦": 7890,
      "ç§įç±»": 7891,
      "Ġnecessary": 7892,
      "Ġestimated": 7893,
      "æ»¤": 7894,
      "AI": 7895,
      "duce": 7896,
      "Ġduration": 7897,
      "éĩĩéĽĨ": 7898,
      "æĽ¾ç»ı": 7899,
      "ç¼ĸè¾ĳ": 7900,
      "åı¯ä»¥è¯´": 7901,
      ")ãĢģ": 7902,
      "å°ĨåĨĽè¶³åĪ©ä¹ī": 7903,
      "æĬ¥éģĵ": 7904,
      "Ġproduced": 7905,
      "åĪĨæķ£": 7906,
      "Ġaff": 7907,
      "æŃ§": 7908,
      "æ¬¡åŃĲ": 7909,
      "æĸ¹ä½į": 7910,
      "ĠÂµ": 7911,
      "åľºæīĢ": 7912,
      "æĬļ": 7913,
      "\"}),": 7914,
      "æĸ°æĬĢæľ¯": 7915,
      "ä»Ļ": 7916,
      "è®°èĢħ": 7917,
      "aptic": 7918,
      "åĽ¢ä½ĵ": 7919,
      "æĿ°": 7920,
      "æ±¤": 7921,
      "å¥³åĦ¿": 7922,
      "ä¼¼ä¹İ": 7923,
      "è¡Ķæİ¥": 7924,
      "Ġmarker": 7925,
      "æĪĲç»©": 7926,
      "æĿľ": 7927,
      "Ġmotor": 7928,
      "åĲİèĢħ": 7929,
      "æ¬§çĽŁ": 7930,
      "æį·": 7931,
      "æİ¨è¡Į": 7932,
      "AN": 7933,
      "ç¡¬ä»¶": 7934,
      "æºĲäºİ": 7935,
      "åħ¥ä¾µ": 7936,
      "Ġactivities": 7937,
      "ä¸²": 7938,
      "çªģåıĺ": 7939,
      "Ġsurgical": 7940,
      "SF": 7941,
      "æĥħç»ª": 7942,
      "æ¶ĪçģŃ": 7943,
      "Ġprocedure": 7944,
      "Ġconsequ": 7945,
      "çī©æĿĥ": 7946,
      "Ġfree": 7947,
      "æľ¬äºº": 7948,
      "Ġintensity": 7949,
      "æľįåĬ¡åĻ¨": 7950,
      "åĢŁæ¬¾": 7951,
      "è¿Ļå°±æĺ¯": 7952,
      "åľ¨åħ¶": 7953,
      "åĩºèµĦ": 7954,
      "ä»·åĢ¼çļĦ": 7955,
      "ç®±": 7956,
      "å¤§åĨĽ": 7957,
      "luded": 7958,
      "åĽ½éĺ²": 7959,
      "ĠThey": 7960,
      "ä¹ĭæīĢä»¥": 7961,
      "çªģçĦ¶": 7962,
      "å¦¥": 7963,
      "è§Ĩè§ī": 7964,
      "Ġadi": 7965,
      "ä¿ĿåŃĺ": 7966,
      "æĶ¿åħļ": 7967,
      "Ġey": 7968,
      "æĭĨ": 7969,
      "åĢŁåĬ©": 7970,
      "ĠSp": 7971,
      "day": 7972,
      "Ġwater": 7973,
      "æ£®æŀĹ": 7974,
      "æľīåı¯èĥ½": 7975,
      "Ġselec": 7976,
      "è´§çī©": 7977,
      "ç¦ıåĪ©": 7978,
      "Ġprotocol": 7979,
      "Ġintest": 7980,
      "èĪªå¤©": 7981,
      "çĪ±åĽ½": 7982,
      "åĿĬ": 7983,
      "Ġembry": 7984,
      "Co": 7985,
      "æľĹ": 7986,
      "çĽĪ": 7987,
      "Ġsuscepti": 7988,
      "Ġload": 7989,
      "Ġexpected": 7990,
      "Ġpanc": 7991,
      "Ġoverex": 7992,
      "çļĦéĩįå¤§": 7993,
      "Ġear": 7994,
      "åı¯èĥ½æĢ§": 7995,
      "Ġrather": 7996,
      "ĠRT": 7997,
      "Ġnuclear": 7998,
      "ik": 7999,
      "æĬ«": 8000,
      "å¾ĭå¸Ī": 8001,
      "åı¯æĮģç»Ńåıĳå±ķ": 8002,
      "åıĸä»£": 8003,
      "å¢ŀåĢ¼": 8004,
      "Ġwid": 8005,
      "ostic": 8006,
      "ĠWhen": 8007,
      "æĪ´": 8008,
      "Ġdefin": 8009,
      "Ġrelatively": 8010,
      "åĵģçīĮ": 8011,
      "å¤ĸåĽ½": 8012,
      "Ġcommunity": 8013,
      "Ġconcer": 8014,
      "é¡ºåºı": 8015,
      "å¼ĵ": 8016,
      "......": 8017,
      "Ġappear": 8018,
      "æ¯ıä¸Ģä¸ª": 8019,
      "ĠAmeric": 8020,
      "fac": 8021,
      "è½¨éģĵ": 8022,
      "æĻ®åıĬ": 8023,
      "è§Ĩé¢ĳ": 8024,
      "ä¹ĭå¤Ħ": 8025,
      "ä¸įåıĺ": 8026,
      "æĽ²çº¿": 8027,
      "fusion": 8028,
      "Ġsk": 8029,
      "ĠNK": 8030,
      "èĤĥ": 8031,
      "ç»Īäºİ": 8032,
      "Ġbir": 8033,
      "ĠĠĠĠĠĠĠĠĠĠĠĠĠĠĠĠĠĠĠĠĠ": 8034,
      "å°ıåŃ¦": 8035,
      "elines": 8036,
      "æĮĩä»¤": 8037,
      "å·²æľī": 8038,
      "ton": 8039,
      "ä¹Łè¦ģ": 8040,
      "mb": 8041,
      "Ġtemperature": 8042,
      "å°ıæĹ¶": 8043,
      "å°±åı¯ä»¥": 8044,
      "è¾Ľ": 8045,
      "çİ°ä»£åĮĸçļĦ": 8046,
      "Ġalong": 8047,
      "åĬ¨åĳĺ": 8048,
      "Ġlay": 8049,
      "Ġpercentage": 8050,
      "äº¤å¾Ģ": 8051,
      "èĥľå®¶": 8052,
      "çŁ¥è¯ĨçļĦ": 8053,
      "çľĭæĿ¥": 8054,
      "å¤ºåıĸ": 8055,
      "å¤§éĩıçļĦ": 8056,
      "ï¼ĪãĢĬ": 8057,
      "au": 8058,
      "Ġclos": 8059,
      "è¡ĮæĶ¿æľºåħ³": 8060,
      "Ġcut": 8061,
      "è¾ĥé«ĺ": 8062,
      "æİ¢æµĭ": 8063,
      "ä¸ºä¾ĭ": 8064,
      "ils": 8065,
      "Ġhead": 8066,
      "Ġcomponent": 8067,
      "Ġhumans": 8068,
      "ä¹łè¿ĳå¹³åĲĮå¿Ĺ": 8069,
      "çļĦä¸įåĲĮ": 8070,
      "ctive": 8071,
      "æ¯įäº²": 8072,
      "ç¾İæľ¯": 8073,
      "çķ¿": 8074,
      "å¤§éĺª": 8075,
      "éĥ½ä¼ļ": 8076,
      "olesterol": 8077,
      "åĢºåĬ¡äºº": 8078,
      "Ġmental": 8079,
      "èģļçĦ¦": 8080,
      "å°ĸ": 8081,
      "çº½": 8082,
      "Ġregard": 8083,
      "æĢĿæĶ¿": 8084,
      "é¢ľ": 8085,
      "èĳ£äºĭ": 8086,
      "ç»§æī¿äºº": 8087,
      "Ġlength": 8088,
      "Ġalpha": 8089,
      "Ġproblems": 8090,
      "Ġsw": 8091,
      "åħ¨è¿ĩç¨ĭ": 8092,
      "otal": 8093,
      "èĩªèº«çļĦ": 8094,
      "çŁŃæľŁ": 8095,
      "Ġreli": 8096,
      "å¯¹æĸ¹": 8097,
      "enz": 8098,
      "Ġç¬¬äºĮ": 8099,
      "Ġphosphorylation": 8100,
      "erase": 8101,
      "ogene": 8102,
      "çº¢èī²": 8103,
      "Ġlearning": 8104,
      "ç¢ĳ": 8105,
      "Ġindicating": 8106,
      "è®²è¯Ŀ": 8107,
      "å¾Ĳ": 8108,
      "åħ¶åŃĲ": 8109,
      "æĽ¼": 8110,
      "Ġgran": 8111,
      "Ġcancers": 8112,
      "Ġlat": 8113,
      "æĪĳåĽ½çļĦ": 8114,
      "åĨĻä½ľ": 8115,
      "plantation": 8116,
      "Ġsequences": 8117,
      "åİĨç¨ĭ": 8118,
      "--------------------------------------------------------------------------------------------------------------------------------": 8119,
      "åįĪ": 8120,
      "æīĩ": 8121,
      "ground": 8122,
      "Ġfluid": 8123,
      "ä¸īå¤§": 8124,
      "èĨ¨": 8125,
      "å°Ŀè¯ķ": 8126,
      "ĠNe": 8127,
      "encies": 8128,
      "çļĦåĬŁèĥ½": 8129,
      "èĪĨ": 8130,
      "ights": 8131,
      "æĶ¯æı´": 8132,
      "äººç¾¤": 8133,
      "Ġcourse": 8134,
      "Ġgenome": 8135,
      "Ġonset": 8136,
      "æłĩåĩĨåĮĸ": 8137,
      "éĿ¶": 8138,
      "èį¯åĵģ": 8139,
      "Ġaltern": 8140,
      "åºĹ": 8141,
      "æĤ²": 8142,
      "Ġdisplay": 8143,
      "2008": 8144,
      "Ġefficacy": 8145,
      "}\\": 8146,
      "æĮĩå®ļ": 8147,
      "å¯»æī¾": 8148,
      "Ġnerve": 8149,
      "AM": 8150,
      "Ġhaving": 8151,
      "pective": 8152,
      "åħĥäº²": 8153,
      "Ġbiop": 8154,
      "æ³¢åĬ¨": 8155,
      "èĴĻåı¤": 8156,
      "çºªå¾ĭ": 8157,
      "ippocamp": 8158,
      "ĠSh": 8159,
      "Ġnat": 8160,
      "é«ĺä¸Ń": 8161,
      "åĩ»è´¥": 8162,
      "åįıä½ľ": 8163,
      "Ġknock": 8164,
      "ä»£å½ĵä¸»": 8165,
      "æ³¡": 8166,
      "æĹģ": 8167,
      "Ġrecogn": 8168,
      "æŃ¦è£ħ": 8169,
      "poral": 8170,
      "èĵĦ": 8171,
      "ĠLe": 8172,
      "otic": 8173,
      "Ġsix": 8174,
      "ä¸ľåĨĽ": 8175,
      "ĠAb": 8176,
      "Ġsoftware": 8177,
      "çĽ®çļĦæĺ¯": 8178,
      "ä¸ŃåĽ½å¼ı": 8179,
      "ç²Ĺ": 8180,
      "imer": 8181,
      "çļĦä¸Ń": 8182,
      "èģĺ": 8183,
      "Ġseem": 8184,
      "åħļçļĦåįģåħ«å¤§ä»¥æĿ¥": 8185,
      "éĢłå¯º": 8186,
      "ç½ĳç»ľå®īåħ¨": 8187,
      "é¢Ī": 8188,
      "éħįå¥Ĺ": 8189,
      "éº¾": 8190,
      "æŃ£ç¡®çļĦ": 8191,
      "è·ĳ": 8192,
      "Ġimportance": 8193,
      "ä¸īè§Ĵ": 8194,
      "ets": 8195,
      "ç¿Įå¹´": 8196,
      "æŃ¦çĶ°ä¿¡": 8197,
      "Ġemploy": 8198,
      "1582": 8199,
      "å¢ŀéĢŁ": 8200,
      "Ġlater": 8201,
      "åħ¨çĲĥåĮĸ": 8202,
      "Ġvariants": 8203,
      "è¶ģ": 8204,
      "Ġreaction": 8205,
      "Ġexperience": 8206,
      "ä¿®æŃ£": 8207,
      "Ġmyel": 8208,
      "atient": 8209,
      ";(": 8210,
      "æľīæĹ¶": 8211,
      "ç»ĩçĶ°åĨĽ": 8212,
      "Ġseverity": 8213,
      "Ġcost": 8214,
      "åį°åº¦": 8215,
      "Ġauto": 8216,
      "SE": 8217,
      "åĸľå¤ļ": 8218,
      "çľŁçĲĨ": 8219,
      "éļĲå±ħ": 8220,
      "æĺ¯ä»İ": 8221,
      "DR": 8222,
      "GFR": 8223,
      "Ġfull": 8224,
      "BL": 8225,
      "çļĦåĪ¶åº¦": 8226,
      "äºĨå¯¹": 8227,
      "éĤ£æł·": 8228,
      "æĬĹæĹ¥": 8229,
      "èĬĤèĥ½": 8230,
      "Ġadded": 8231,
      "known": 8232,
      "æ²³åĨħ": 8233,
      "æŃ¦åĻ¨": 8234,
      "æĺİæĻºåħīç§Ģ": 8235,
      "Ġway": 8236,
      "Ġmatrix": 8237,
      "èĥ½åĲ¦": 8238,
      "fection": 8239,
      "éĥĳ": 8240,
      "éģµå®Ī": 8241,
      "CIT": 8242,
      "Ġdistinct": 8243,
      "ï¼Ľï¼Ī": 8244,
      "ä¿¡å¿µ": 8245,
      "Ġexercise": 8246,
      "ae": 8247,
      "æİ¨èįĲ": 8248,
      "æīĵçł´": 8249,
      "Ġgood": 8250,
      "æĿĳä¸Ĭ": 8251,
      "ä¸§å¤±": 8252,
      "Ġside": 8253,
      "arily": 8254,
      "é¾ĻéĢłå¯º": 8255,
      "æº¯": 8256,
      "åıĶ": 8257,
      "xi": 8258,
      "çĽ¸äºĴä½ľçĶ¨": 8259,
      "Ġassays": 8260,
      "âĦ": 8261,
      "è¿·": 8262,
      "æľīéĻĲåħ¬åı¸": 8263,
      "Ġeng": 8264,
      "æľ¬èĥ½å¯º": 8265,
      "ä¸ĸçķĮä¸Ĭ": 8266,
      "alysis": 8267,
      "çļĦç®¡çĲĨ": 8268,
      "çĤŃ": 8269,
      "æķ°åŃĹç»ıæµİ": 8270,
      "å·¡": 8271,
      "ç¨³å®ļæĢ§": 8272,
      "å¤ļæł·æĢ§": 8273,
      "ä¸ĸçķĮçļĦ": 8274,
      "èĢĮéĿŀ": 8275,
      "åĤ¨å¤ĩ": 8276,
      "Ġsitu": 8277,
      "Ġcultured": 8278,
      "çĪ¶æ¯į": 8279,
      "éĢłæĪĲçļĦ": 8280,
      "èıľ": 8281,
      "uth": 8282,
      "ured": 8283,
      "Ġkidney": 8284,
      "åĬĽåĴĮ": 8285,
      "sp": 8286,
      "çķĻä¸ĭ": 8287,
      "å¤«å¦»": 8288,
      "Ġarticle": 8289,
      "è±ªæĹı": 8290,
      "SI": 8291,
      "Ġdisco": 8292,
      "æĥħèĬĤ": 8293,
      "éļ¾é¢ĺ": 8294,
      "æĹłäºº": 8295,
      "Ġmutant": 8296,
      "media": 8297,
      "ĠĠĠĠĠĠĠĠĠĠĠĠĠĠĠĠĠĠĠĠĠĠ": 8298,
      "Ġdemonstrate": 8299,
      "è¶³å¤Ł": 8300,
      "otyp": 8301,
      "å»¶ä¼¸": 8302,
      "year": 8303,
      "here": 8304,
      "æľīæķĪåľ°": 8305,
      "æĦŁè§ī": 8306,
      "Ġapplication": 8307,
      "Ġdele": 8308,
      "ä¹°åįĸ": 8309,
      "é¢ĩ": 8310,
      "æĹ¨åľ¨": 8311,
      "éĺ²æİ§": 8312,
      "èĲ¥éĢł": 8313,
      "ä»¥ä¸º": 8314,
      "Ġamin": 8315,
      "æ¬º": 8316,
      "Ġ--------------------------------": 8317,
      "åĩºæĿ¥çļĦ": 8318,
      "èģĶåĨĽ": 8319,
      "ä¹Łåı¯": 8320,
      "Ġcountries": 8321,
      "emic": 8322,
      "åħļçļĦåįģä¹Ŀ": 8323,
      "æİ¥åı£": 8324,
      "åıįé¦Ī": 8325,
      "è¿ľæ±Ł": 8326,
      "cium": 8327,
      "Ġdiscuss": 8328,
      "Ġintracellular": 8329,
      "åıĳè¾¾åĽ½å®¶": 8330,
      "åŃ¦ä¹łçļĦ": 8331,
      "ä¸īäºº": 8332,
      "æĸ¯æ³¢": 8333,
      "è¾¹ç¼ĺ": 8334,
      "Ġcapacity": 8335,
      "åĶ±": 8336,
      "Ġtargets": 8337,
      "Ġpeak": 8338,
      "æĸ¥": 8339,
      "çī¹å®ļçļĦ": 8340,
      "æľ¬ç§ĳ": 8341,
      "ologies": 8342,
      "çĲĨè®ºçļĦ": 8343,
      "alpha": 8344,
      "çĶµåİĭ": 8345,
      "åıĳå±ķä¸ŃåĽ½": 8346,
      "éĵģçĤ®": 8347,
      "åĪ°è¾¾": 8348,
      "Ġstatistically": 8349,
      "asp": 8350,
      "Ġthreshold": 8351,
      "ä½ıæĪ¿": 8352,
      "Ġfram": 8353,
      "èĬ¦": 8354,
      "urop": 8355,
      "Ġprocessing": 8356,
      "æ¯ĽåĪ©åħĥå°±": 8357,
      "èĦ±ç¦»": 8358,
      "åıįå¤į": 8359,
      "ĠĠĠĠĠĠĠĠĠĠĠĠĠĠĠĠĠĠĠĠĠĠĠĠĠĠ": 8360,
      "ç¬łåİŁ": 8361,
      "Ġstudents": 8362,
      "å¤ĦåĪĨ": 8363,
      "Ġlipid": 8364,
      "gor": 8365,
      "åıĳçĹħ": 8366,
      "åŁĥ": 8367,
      "æı´åĨĽ": 8368,
      "Ġmeasurement": 8369,
      "å¤§åĴĮ": 8370,
      "è¯ŀçĶŁ": 8371,
      "Ġnumbers": 8372,
      "æ°´å¹³çļĦ": 8373,
      "é¬¼": 8374,
      "Ġinjection": 8375,
      "tras": 8376,
      "2011": 8377,
      "ç¬¬äºĮæ¬¡": 8378,
      "äº¤äºĴ": 8379,
      "ESM": 8380,
      "rine": 8381,
      "çĶŁçĲĨ": 8382,
      "armac": 8383,
      "LD": 8384,
      "argeted": 8385,
      "æµģåŁŁ": 8386,
      "ç¿¼": 8387,
      "åĪĨè§£": 8388,
      "Ġcategor": 8389,
      "å¹³å®ļ": 8390,
      "èħĲè´¥": 8391,
      "åº¶": 8392,
      "Ġevery": 8393,
      "Ġmetastasis": 8394,
      "Ca": 8395,
      "è¦ģåľ¨": 8396,
      "ĠĠĠĠĠĠĠĠĠĠĠĠĠĠĠĠĠĠĠĠĠĠĠĠĠ": 8397,
      "Ġher": 8398,
      "ç¥Ĳ": 8399,
      "SH": 8400,
      "å¼ĢåĪĽ": 8401,
      "ä¾¿æĺ¯": 8402,
      "oly": 8403,
      "Ġ28": 8404,
      "åĽ½æĥħ": 8405,
      "ç½Ĺæĸ¯": 8406,
      "ç¨Ģ": 8407,
      "åıįæĢĿ": 8408,
      "åİŁåĳĬ": 8409,
      "å®£å¸ĥ": 8410,
      "åĪĽéĢłæĢ§": 8411,
      "äººåĴĮ": 8412,
      "Ġtri": 8413,
      "oti": 8414,
      "Ġhippocamp": 8415,
      "Ġbest": 8416,
      "å«Į": 8417,
      "æĳĦæ´¥": 8418,
      "CN": 8419,
      "æĻĵ": 8420,
      "lasts": 8421,
      "atitis": 8422,
      "çĽ¸ç»§": 8423,
      "af": 8424,
      "åĴĮå®ĮåĸĦ": 8425,
      "äººä½ĵ": 8426,
      "åħ³åİŁä¹ĭæĪĺ": 8427,
      "ometry": 8428,
      "isted": 8429,
      "erred": 8430,
      "tag": 8431,
      "Ġapproximately": 8432,
      "äººæķ°": 8433,
      "æ°¸ä¹ħ": 8434,
      "åĲ«éĩı": 8435,
      "ophag": 8436,
      "åĲ¦åĪĻ": 8437,
      "ä¸įå¤Ł": 8438,
      "urg": 8439,
      "åıĸåĨ³": 8440,
      "ç»ĩçĶ°å®¶": 8441,
      "åĵģç§į": 8442,
      "ä½ĵçİ°åľ¨": 8443,
      "æĹłçĸĳ": 8444,
      "å¥³æĢ§": 8445,
      "ĠÎ¼g": 8446,
      "GT": 8447,
      "æĦıåĽ¾": 8448,
      "Ġfact": 8449,
      "èĹ©ä¸»": 8450,
      "ä¹ĥèĩ³": 8451,
      "æķħæĦı": 8452,
      "åĽ½åĨħå¤ĸ": 8453,
      "éķ¿åºĨ": 8454,
      "ç£·": 8455,
      "åįıä¼ļ": 8456,
      "ĠIgG": 8457,
      "Ġoral": 8458,
      "ĠHospital": 8459,
      "ç¥ŀç¤¾": 8460,
      "å°Ĩä¼ļ": 8461,
      "åĮ¹éħį": 8462,
      "åĦĴå®¶": 8463,
      "Ġmale": 8464,
      "åŃĲå¥³": 8465,
      "lab": 8466,
      "æĹ¥æľ¬æĪĺåĽ½æĹ¶ä»£": 8467,
      "å¿½è§Ĩ": 8468,
      "ä¼ĺè´¨": 8469,
      "çĽ®æłĩçļĦ": 8470,
      "æľīä¸Ģä¸ª": 8471,
      "Ġhorm": 8472,
      "å°ıçļĦ": 8473,
      "å¤ļå°ĳ": 8474,
      "æ¿Ģæ´»": 8475,
      "åĮ»èį¯": 8476,
      "Ġdepression": 8477,
      "see": 8478,
      "ãĢĭãĢĤ": 8479,
      "å®ĩåĸľå¤ļ": 8480,
      "Ġmel": 8481,
      "neum": 8482,
      "gorith": 8483,
      "ä¸ĬæĿīå®¶": 8484,
      "Ġcompound": 8485,
      "èĨ¨èĥĢ": 8486,
      "çĶµæµģ": 8487,
      "Ġgas": 8488,
      "å¤§éĻĨ": 8489,
      "è´ŁåĢº": 8490,
      "eral": 8491,
      "æŃ¦èĹı": 8492,
      "ochemical": 8493,
      "Ġmul": 8494,
      "æľĢä¸Ĭ": 8495,
      "ç»ıè´¹": 8496,
      "åıĸåĨ³äºİ": 8497,
      "åĪ©çĽĬçļĦ": 8498,
      "åľ¨è¿Ļä¸ª": 8499,
      "Ġproblem": 8500,
      "åħ·ä½ĵçļĦ": 8501,
      "agne": 8502,
      "ç»´åº¦": 8503,
      "uter": 8504,
      "Ġmitochondrial": 8505,
      "osome": 8506,
      "çĶµå½±": 8507,
      "Ġbro": 8508,
      "æ¦Ĥçİĩ": 8509,
      "usted": 8510,
      "ä¸»ä½ĵçļĦ": 8511,
      "æĭħå½ĵ": 8512,
      "å¤§å¤ļ": 8513,
      "ä¸»è¦ģæľī": 8514,
      "æŀĦéĢł": 8515,
      "ĠWith": 8516,
      "çģ°": 8517,
      "Ġmuc": 8518,
      "rit": 8519,
      "å¼ºå¤§çļĦ": 8520,
      "troph": 8521,
      "åįķçĭ¬": 8522,
      "å¾ħéģĩ": 8523,
      "èĲ¥éĶĢ": 8524,
      "Ġcoron": 8525,
      "å¾ģç¨ĭ": 8526,
      "Ġsmok": 8527,
      "Ġsolution": 8528,
      "ii": 8529,
      "ä¾¦": 8530,
      "ä½ĽæķĻ": 8531,
      "MOESM": 8532,
      "oxid": 8533,
      "å¸ĤåľºåĮĸ": 8534,
      "æĸ¹ç¨ĭ": 8535,
      "Ġprocedures": 8536,
      "Ġfacilit": 8537,
      "èĬ¯çīĩ": 8538,
      "Ġresulted": 8539,
      "Ġcluster": 8540,
      "åĬ¨ä½ľ": 8541,
      "Ġdil": 8542,
      "åĿĽ": 8543,
      "æĥ³è±¡": 8544,
      "å¤§ä¼Ĺ": 8545,
      "å®ĩéĥ½": 8546,
      "éĺ¶å±Ĥ": 8547,
      "Ġminim": 8548,
      "åĲĪæ³ķæĿĥçĽĬ": 8549,
      "aily": 8550,
      "Ġintro": 8551,
      "ĠTGF": 8552,
      "1600": 8553,
      "Ġbasis": 8554,
      "Ġamount": 8555,
      "æ°ĳäºĭè¯īè®¼": 8556,
      "å®ļæľŁ": 8557,
      "çļĦæł¹æľ¬": 8558,
      "çİ°éĩĳ": 8559,
      "Ġnow": 8560,
      "ä¿ĥä½¿": 8561,
      "ä½¿èĢħ": 8562,
      "å®ŀçİ°ä¸Ńåįİæ°ĳæĹıä¼Łå¤§å¤įåħ´": 8563,
      "Ġdecl": 8564,
      "reng": 8565,
      "æıĲåıĸ": 8566,
      "Ġtreatments": 8567,
      "ç´«": 8568,
      "icial": 8569,
      "Ġmake": 8570,
      "åĽ½å®¶æ²»çĲĨ": 8571,
      "ä¹¦éĿ¢": 8572,
      "æ¬ł": 8573,
      "çķĮå®ļ": 8574,
      "frac": 8575,
      "Ġregarding": 8576,
      "Ġresponsible": 8577,
      "Ġscale": 8578,
      "ä¸įæĺİ": 8579,
      "åĲĪçī©": 8580,
      "Ġ------------": 8581,
      "éĽĩ": 8582,
      "Ġsecretion": 8583,
      "çĸ«èĭĹ": 8584,
      "äº§éĩı": 8585,
      "Ġleads": 8586,
      "çļĦæĹ¶ä»£": 8587,
      "çģ¯": 8588,
      "roke": 8589,
      "éĤĢ": 8590,
      "éķ¿æ±Ł": 8591,
      "ĠĊĠĠĠĠĠĠĠĠĠĠĠĠĠĠĠ": 8592,
      "å·¥ä¸ļåĮĸ": 8593,
      "ä½ĵåĪ¶æĶ¹éĿ©": 8594,
      "éĩįå»º": 8595,
      "Ġischem": 8596,
      "åŃĺæ¬¾": 8597,
      "down": 8598,
      "Ġrespond": 8599,
      "çľĭåĩº": 8600,
      "istered": 8601,
      "è§£åĨ³æĸ¹æ¡Ī": 8602,
      "æĶ¿åºľçļĦ": 8603,
      "ĠÂ°": 8604,
      "æİĪäºĪ": 8605,
      "æ¶ĪèĢĹ": 8606,
      "åĬ¨èĦī": 8607,
      "åĤ¬åĮĸ": 8608,
      "ãĢĤ$": 8609,
      "ĠCancer": 8610,
      "åĻª": 8611,
      "Ġ23": 8612,
      "SV": 8613,
      "izes": 8614,
      "ĠĠĠĠĠĠĠĠĠĠĠĠĠĠĠĠĠĠĠĠĠĠĠ": 8615,
      "FA": 8616,
      "å¢ŀåĬłäºĨ": 8617,
      "å¤¹": 8618,
      "ĠPatients": 8619,
      "Ġsections": 8620,
      "æŀ¢": 8621,
      "pared": 8622,
      "Ġlaboratory": 8623,
      "Ġevent": 8624,
      "æľ¬å¤ļ": 8625,
      "è¿Ļç±»": 8626,
      "åħĪçĶŁ": 8627,
      "ĠWhile": 8628,
      "Ġenergy": 8629,
      "è¯ł": 8630,
      "äººèº«": 8631,
      "Ġstep": 8632,
      "ä¹ĭéĺµ": 8633,
      "è´§å¸ģæĶ¿çŃĸ": 8634,
      "uit": 8635,
      "ĠIV": 8636,
      "æĪĳä»¬è¦ģ": 8637,
      "ĠAnal": 8638,
      "æ·ĭ": 8639,
      "å®¡æī¹": 8640,
      "Ġsource": 8641,
      "æ°Ľ": 8642,
      "Ġlarger": 8643,
      "å°ıè¯´": 8644,
      "Ġindicates": 8645,
      "çĶ°æ°ı": 8646,
      "å¼ķè¿Ľ": 8647,
      "Ġ80": 8648,
      "æĹłè®ºæĺ¯": 8649,
      "åĴĮç®¡çĲĨ": 8650,
      "Ġ--------": 8651,
      "ä¸İç¤¾ä¼ļ": 8652,
      "è¯¾åłĤæķĻåŃ¦": 8653,
      "Ġthrom": 8654,
      "ä¸ŃæīĢ": 8655,
      "çļĦæľīæķĪ": 8656,
      "æĪĺåĬŁ": 8657,
      "æ¸ħæ´ģ": 8658,
      "ä¸įå¾Ĺä¸į": 8659,
      "å¦Ĥä»Ĭ": 8660,
      "çıł": 8661,
      "aring": 8662,
      "åħ¶åĲİ": 8663,
      "Ġdra": 8664,
      "è§Ĩéĩİ": 8665,
      "Ġdelivery": 8666,
      "ä¸»åĲĽ": 8667,
      "è¯¹": 8668,
      "æµģè¡Į": 8669,
      "åıĪç§°": 8670,
      "Ġradiation": 8671,
      "çļĦè§Ĵåº¦": 8672,
      "åºĶçĶ¨äºİ": 8673,
      "ĠSNP": 8674,
      "åĩºéĺµ": 8675,
      "Ġsubsequent": 8676,
      "ä¸įæ»¡": 8677,
      "å·²æĪĲä¸º": 8678,
      "çģ¾å®³": 8679,
      "äºĨä¸ŃåĽ½": 8680,
      "Ġobesity": 8681,
      "Ġpeptide": 8682,
      "ON": 8683,
      "åĩ¸": 8684,
      "éķ¿åŃĲ": 8685,
      "åħ¨éĿ¢å»ºæĪĲ": 8686,
      "Ġreports": 8687,
      "ĠAT": 8688,
      "æĸ¹ä¾¿": 8689,
      "ethods": 8690,
      "Ġsynthesis": 8691,
      "ç»§æī¿å®¶çĿ£": 8692,
      "aling": 8693,
      "Ġdegree": 8694,
      "ck": 8695,
      "åħ¬åħĥ": 8696,
      "äº¿ç¾İåħĥ": 8697,
      "æĪĺåĽ½å¤§åĲį": 8698,
      "Ġcop": 8699,
      "åłµ": 8700,
      "Ġ90": 8701,
      "Ġolder": 8702,
      "Ġselection": 8703,
      "æĿĳæ°ĳ": 8704,
      "æĿ¡çº¦": 8705,
      "è®³": 8706,
      "Ġrestric": 8707,
      "éģ¥": 8708,
      "ĠSec": 8709,
      "ä¸¾åĬŀ": 8710,
      "Ġç¬¬ä¸Ģ": 8711,
      "ç»ĵæŀĦæĢ§": 8712,
      "åĬłå¼ºå¯¹": 8713,
      "Ġng": 8714,
      "Ġspe": 8715,
      "Ġtransmission": 8716,
      "æķ¦": 8717,
      "è®¢ç«ĭ": 8718,
      "ç½Ĺé©¬": 8719,
      "é©¾é©¶": 8720,
      "çĩĥæĸĻ": 8721,
      "å±±ä¸ľ": 8722,
      "ç¼ĸçłģ": 8723,
      "æľºåĻ¨äºº": 8724,
      "Ġbuff": 8725,
      "sing": 8726,
      "åĩıè½»": 8727,
      "çĻ¾å¹´å¥ĭæĸĹ": 8728,
      "Ġsubstanti": 8729,
      "æĪĲçļĦ": 8730,
      "Ġstrategy": 8731,
      "åĽŀåĪ°": 8732,
      "æĻºèĥ½åĮĸ": 8733,
      "å±Ī": 8734,
      "oint": 8735,
      "åĬ¨æľº": 8736,
      "Ġhypox": 8737,
      "Ġproportion": 8738,
      "ched": 8739,
      "å®ĩéĥ½å®«": 8740,
      "ç§Ģæ¬¡": 8741,
      "åįłæį®": 8742,
      "æĸľ": 8743,
      "çļĦçĽ¸åħ³": 8744,
      "äººåĿĩ": 8745,
      "Ġenhance": 8746,
      "æĮĩç¤º": 8747,
      "åħŃå¹´": 8748,
      "ç°": 8749,
      "ç§ĳåŃ¦æĬĢæľ¯": 8750,
      "ç»ıæµİç¤¾ä¼ļåıĳå±ķ": 8751,
      "ç½ĳç«Ļ": 8752,
      "æĻ¯èĻİ": 8753,
      "ç¢İ": 8754,
      "2009": 8755,
      "çĽ®å½ķ": 8756,
      "hest": 8757,
      "ĠInteres": 8758,
      "Ġprofil": 8759,
      "åĲİä¸ĸ": 8760,
      "plicated": 8761,
      "Ġcarried": 8762,
      "Ġspecificity": 8763,
      "Ġdatas": 8764,
      "åĴĮæĸ¹æ³ķ": 8765,
      "çļĦåīį": 8766,
      "Ġcm": 8767,
      "è®¤è¯ĨåĪ°": 8768,
      "ç¡®å®ļçļĦ": 8769,
      "stream": 8770,
      "å·¥åİĤ": 8771,
      "å¼Ĭ": 8772,
      "003": 8773,
      "Ġaspec": 8774,
      "ious": 8775,
      "æ°®": 8776,
      "å¯»æ±Ĥ": 8777,
      "ä¿±": 8778,
      "Ġstructures": 8779,
      "å¹´è½»": 8780,
      "çļĦçĶŁäº§": 8781,
      "æ³Ħ": 8782,
      "éŃĤ": 8783,
      "æłĩçļĦ": 8784,
      "åĴĮè§£": 8785,
      "å¾Īå¿«": 8786,
      "è®ºè¯ģ": 8787,
      "èģĶéĤ¦": 8788,
      "ĠCenter": 8789,
      "èµ«": 8790,
      "è¢«è¿«": 8791,
      "è¿ĩåº¦": 8792,
      "æ¶Į": 8793,
      "åħ¬å®ī": 8794,
      "ç¢±": 8795,
      "ç¬¬ä¸ĥ": 8796,
      "iving": 8797,
      "Îº": 8798,
      "acture": 8799,
      "æ©": 8800,
      "Ġstages": 8801,
      "å¹¿ä¸ľ": 8802,
      "çļĦè¯Ŀ": 8803,
      "***": 8804,
      "éĥŃ": 8805,
      "çº·çº·": 8806,
      "Ġmaxim": 8807,
      "ĊĊ": 8808,
      "Ġmembers": 8809,
      "åľ¨ä¸Ģå®ļ": 8810,
      "çĶŁæķĪ": 8811,
      "ĠĠĠĠĠĠĠĠĠĠĠĠĠĠĠĠĠĠĠĠĠĠĠĠĠĠĠ": 8812,
      "Ġmyocardi": 8813,
      "åĽ½å®¶åĴĮ": 8814,
      "å½ĵæĹ¶çļĦ": 8815,
      "æĻ´ä¿¡": 8816,
      "ç¬¼": 8817,
      "Ġpotentially": 8818,
      "åĲĮæĹ¶ä¹Ł": 8819,
      "å·®åĪ«": 8820,
      "çŃĽ": 8821,
      "Ġshe": 8822,
      "å®ĪæĬ¤ä»£": 8823,
      "éĶĲ": 8824,
      "Ġexperiment": 8825,
      "LP": 8826,
      "ifferen": 8827,
      "èī²å½©": 8828,
      "éģĹåĿĢ": 8829,
      "Ġtechnique": 8830,
      "çļĦçŁ¥è¯Ĩ": 8831,
      "å®ŀçĶ¨": 8832,
      "æ¿Ģåħī": 8833,
      "yg": 8834,
      "åĪĨäº«": 8835,
      "èµ¤æĿ¾": 8836,
      "Ġdatab": 8837,
      "Ġalgorith": 8838,
      "åŁİéķĩåĮĸ": 8839,
      "æ°ıå®¶èĩ£": 8840,
      "æ»¥": 8841,
      "Ġexamine": 8842,
      "be": 8843,
      "ç¡®å®ŀ": 8844,
      "ĠIf": 8845,
      "çļĦåīįæıĲ": 8846,
      "HO": 8847,
      "ibr": 8848,
      "US": 8849,
      "çļĦå®īåħ¨": 8850,
      "ç¨İåĬ¡": 8851,
      "aternal": 8852,
      "Ġcomplications": 8853,
      "å¤ªå¹³": 8854,
      "CE": 8855,
      "ä»¥å¾Ģ": 8856,
      "æĺ¯æĪĳåĽ½": 8857,
      "ĠÎ¼m": 8858,
      "Ġeducation": 8859,
      "æĺİæĺ¾çļĦ": 8860,
      "å¤įåĪ¶": 8861,
      "å¤§äºİ": 8862,
      "å¼ĺæī¬": 8863,
      "éļĨæĻ¯": 8864,
      "è·³": 8865,
      "å¯¹ç§°": 8866,
      "====================": 8867,
      "bit": 8868,
      "æ³ķåĪ¶": 8869,
      "åªĴä»ĭ": 8870,
      "ä¸ºä»£è¡¨": 8871,
      "rm": 8872,
      "ä¸İæŃ¤åĲĮæĹ¶": 8873,
      "ĠĠĠĠĠĠĠĠĠĠĠĠĠĠĠĠĠĠĠĠĠĠĠĠĠĠĠĠĠĠĠĠĠĠĠĠĠĠĠĠĠĠĠĠĠĠĠĠĠĠĠĠĠĠĠĠĠĠĠĠĠĠĠĠĠĠĠĠĠĠĠĠĠĠĠĠĠĠĠĠĠĠĠĠĠĠĠĠĠĠĠĠĠĠĠĠ": 8874,
      "Ġcalcium": 8875,
      "ĠImmun": 8876,
      "éĢļç§°": 8877,
      "åŃŁ": 8878,
      "å¤ĸæ±ĩ": 8879,
      "æ³ķå¾ĭæ³ķè§Ħ": 8880,
      "ognition": 8881,
      "çªĹ": 8882,
      "åı¤æ²³": 8883,
      "ä¸ĢåĽ½": 8884,
      "å®ĺåĳĺ": 8885,
      "Ġbecome": 8886,
      "çļĦéľĢæ±Ĥ": 8887,
      "Ġguidelines": 8888,
      "Ġoccurs": 8889,
      "ĠHCC": 8890,
      "åľ¨çº¿": 8891,
      "ä»¥ä¾¿": 8892,
      "çıį": 8893,
      "åľ¨æĪĳåĽ½": 8894,
      "èĤ¯å®ļ": 8895,
      "wn": 8896,
      "åµĮ": 8897,
      "agnetic": 8898,
      "åĮĸè§£": 8899,
      "amma": 8900,
      "å°ıå¹³": 8901,
      "æĩĤ": 8902,
      "ç§¯æŀģæĢ§": 8903,
      "èĩªåĬ¨åĮĸ": 8904,
      "ä¸įè¦ģ": 8905,
      "å¸ľ": 8906,
      "Ġrol": 8907,
      "æıĲä¾ĽçļĦ": 8908,
      "ĠIII": 8909,
      "è¿ĽåĨĽ": 8910,
      "ä½ľçī©": 8911,
      "èĪªç©º": 8912,
      "igma": 8913,
      "termin": 8914,
      "titution": 8915,
      "Ġvariable": 8916,
      "Ġdiagnosed": 8917,
      "æ¢¯": 8918,
      "Ġepidem": 8919,
      "æĦŁåıĹ": 8920,
      "off": 8921,
      "çĽĹ": 8922,
      "æ±łçĶ°": 8923,
      "Ġrecommend": 8924,
      "Ġlys": 8925,
      "Ġartery": 8926,
      "ohist": 8927,
      "åİĨåı²çļĦ": 8928,
      "nai": 8929,
      "æł¸ç®Ĺ": 8930,
      "Ġtransl": 8931,
      "çĶŁåĬ¨": 8932,
      "plementation": 8933,
      "æ¡Ĥ": 8934,
      "Wh": 8935,
      "mitted": 8936,
      "åį³åı¯": 8937,
      "æ»ĭ": 8938,
      "Ġantibio": 8939,
      "æıĲé«ĺäºĨ": 8940,
      "Ġstroke": 8941,
      "åŁĭ": 8942,
      "éĥ½è¦ģ": 8943,
      "ä¸¤å¤§": 8944,
      "ä¹ĭéĹ´çļĦåħ³ç³»": 8945,
      "ritis": 8946,
      "ä¸´æĹ¶": 8947,
      "Ġprevention": 8948,
      "å±¡": 8949,
      "Ġsystemic": 8950,
      "ä¸»è¦ģåĮħæĭ¬": 8951,
      "çĭ¬ç«ĭçļĦ": 8952,
      "è§£è¯»": 8953,
      "æŃ£å¦Ĥ": 8954,
      "Ġtaken": 8955,
      "ä¸īéĥİ": 8956,
      "äººå¯¹": 8957,
      "Ġpromoter": 8958,
      "Ġphysiological": 8959,
      "å¹³éĿ¢": 8960,
      "åĲ¦å®ļ": 8961,
      "å®¹éĩı": 8962,
      "Ġheterogene": 8963,
      "truct": 8964,
      "å½ĵä»Ĭ": 8965,
      "Ġmamm": 8966,
      "è¿ĩæ¸¡": 8967,
      "éĩįè¦ģä½ľçĶ¨": 8968,
      "Ġcollection": 8969,
      "éĢıæĺİ": 8970,
      "DH": 8971,
      "éĩĳé¢Ŀ": 8972,
      "LE": 8973,
      "è¡¨è¿°": 8974,
      "çļĦä¸ĢäºĽ": 8975,
      "orts": 8976,
      "è°¨": 8977,
      "èĦĬ": 8978,
      "æĽ´å¤§": 8979,
      "éĩįçļĦ": 8980,
      "anning": 8981,
      "æ½ľåĬĽ": 8982,
      "free": 8983,
      "åĬŀåŃ¦": 8984,
      "LT": 8985,
      "âī": 8986,
      "rected": 8987,
      "æĴŃç£¨": 8988,
      "ä¹Łå°±æĺ¯è¯´": 8989,
      "ethyl": 8990,
      "è®¡éĩı": 8991,
      "artic": 8992,
      "Ġconsum": 8993,
      "ç¡«": 8994,
      "Ġfemale": 8995,
      "æ¿ĢçĥĪ": 8996,
      "è½¦è¾Ĩ": 8997,
      "ä¸İåıĳå±ķ": 8998,
      "Tab": 8999,
      "åĪĨåĮĸ": 9000,
      "Ġidentification": 9001,
      "æ··ä¹±": 9002,
      "ĠSpec": 9003,
      "ä¿¡è´·": 9004,
      "^*": 9005,
      "uf": 9006,
      "çİ¯å¢ĥçļĦ": 9007,
      "ä¸ĢéĹ¨": 9008,
      "Ġfrag": 9009,
      "Ġconfirm": 9010,
      "take": 9011,
      "Ġpathogenesis": 9012,
      "ä¸Ģéĥ¨åĪĨ": 9013,
      "ites": 9014,
      "imens": 9015,
      "éĺ¿æ³¢": 9016,
      "ç»ĨèĥŀçļĦ": 9017,
      "entific": 9018,
      "è´¯ç©¿": 9019,
      "Ġrepresents": 9020,
      "æĺ¯æľĢ": 9021,
      "Ġlit": 9022,
      "çĶŁæĢģç³»ç»Ł": 9023,
      "åħħæ»¡": 9024,
      "æŃ¤æ¬¡": 9025,
      "yroid": 9026,
      "åĢ¡å¯¼": 9027,
      "èĬ³": 9028,
      "went": 9029,
      "ä¸ĭä»¤": 9030,
      "orpor": 9031,
      "è¾½": 9032,
      "åħ«æľĪ": 9033,
      "ä½¿åŃ¦çĶŁ": 9034,
      "åŀ£": 9035,
      "Ġbur": 9036,
      "Ġspati": 9037,
      "åĽ½æľīä¼ģä¸ļ": 9038,
      "æĺ¯æľī": 9039,
      "ç«Ļåľ¨": 9040,
      "Ġinst": 9041,
      "åĬłèĹ¤": 9042,
      "èĩ´åĬĽ": 9043,
      "Ġmes": 9044,
      "é¡¹çĽ®çļĦ": 9045,
      "yr": 9046,
      "èĳ¡": 9047,
      "æı´åĬ©": 9048,
      "æĺİæ²»": 9049,
      "ully": 9050,
      "åĨĴ": 9051,
      "PE": 9052,
      "åıĺæĪĲ": 9053,
      "eled": 9054,
      "çļĦåľ°æĸ¹": 9055,
      "Ġcholesterol": 9056,
      "cm": 9057,
      "å¿ĥçĲĨåŃ¦": 9058,
      "å¤§æĬ¥åĳĬ": 9059,
      "ä¸įç¡®å®ļ": 9060,
      "æ¡ĳ": 9061,
      "ulf": 9062,
      "çļĦä½¿çĶ¨": 9063,
      "outh": 9064,
      "Ġcortical": 9065,
      "ä¿¡æīĺ": 9066,
      "åħĭæľį": 9067,
      "Ġothers": 9068,
      "ç¼ĸåĨĻ": 9069,
      "Ġsuccessful": 9070,
      "å¹´åº¦": 9071,
      "çłĶç©¶éĻ¢": 9072,
      "Ġinternal": 9073,
      "åĨħå®¹çļĦ": 9074,
      "Ġenzyme": 9075,
      "æ³Į": 9076,
      "æ°´åĨĽ": 9077,
      "æķħéļľ": 9078,
      "Ġgenerally": 9079,
      "ä¸°å¯ĮçļĦ": 9080,
      "åľ°éľĩ": 9081,
      "Ġcytokine": 9082,
      "Ġservices": 9083,
      "åī©ä½Ļ": 9084,
      "ĠMS": 9085,
      "ç§įæ¤į": 9086,
      "ĠPBS": 9087,
      "æ°ĶåĢĻåıĺåĮĸ": 9088,
      "Ġsubset": 9089,
      "å®īè£ħ": 9090,
      "ape": 9091,
      "ĠPA": 9092,
      "çļĦå®¶èĩ£": 9093,
      "è¿ĩç¨ĭä¸ŃçļĦ": 9094,
      "ç¼ĵè§£": 9095,
      "åĭĥ": 9096,
      "éĤ®": 9097,
      "è¡¡éĩı": 9098,
      "ç§ĳåŃ¦çļĦ": 9099,
      "æł·çļĦ": 9100,
      "çĽĳæĬ¤": 9101,
      "Ġ26": 9102,
      "yst": 9103,
      "eness": 9104,
      "çŃīçļĦ": 9105,
      "åĪ©æģ¯": 9106,
      "FS": 9107,
      "åŃĶåŃĲ": 9108,
      "å¼ķèµ·çļĦ": 9109,
      "Ġlate": 9110,
      "çİ¯å¢ĥä¿ĿæĬ¤": 9111,
      "DA": 9112,
      "Ġdependent": 9113,
      "Ġmarked": 9114,
      "æľĢä½İ": 9115,
      "Ġsequencing": 9116,
      "ç±»åŀĭçļĦ": 9117,
      "èĸª": 9118,
      "åľ°ä¸ĭ": 9119,
      "æľĢè¿ĳ": 9120,
      "åħ±æľī": 9121,
      "Ġaround": 9122,
      "âħ": 9123,
      "åĬŁçİĩ": 9124,
      "Ġinvasion": 9125,
      "ç¢³æİĴæĶ¾": 9126,
      "åĩºçİ°çļĦ": 9127,
      "å¼ĢåĲ¯": 9128,
      "æ¸Ĭ": 9129,
      "ä¸¥éĩįçļĦ": 9130,
      "istent": 9131,
      "Ġpregnancy": 9132,
      "Ġchalleng": 9133,
      "æµģéĩı": 9134,
      "Ġrepro": 9135,
      "MRI": 9136,
      "Ġstreng": 9137,
      "å°ī": 9138,
      "å¤§èĩ£": 9139,
      "Ġbacterial": 9140,
      "åı¤åħ¸": 9141,
      "Ġproduce": 9142,
      "èĤ²äºº": 9143,
      "âĶ": 9144,
      "def": 9145,
      "Ġspinal": 9146,
      "åħ¬çº¦": 9147,
      "èľĤ": 9148,
      "Ġinfants": 9149,
      "Ġexposed": 9150,
      "å¨¶": 9151,
      "å¾Īå¤§çļĦ": 9152,
      "Ġmediated": 9153,
      "Ġbo": 9154,
      "Ġaccuracy": 9155,
      "æ´»åĬ¨ä¸Ń": 9156,
      "çŃĴ": 9157,
      "Ġexamination": 9158,
      "ç»ĥä¹ł": 9159,
      "Ġfraction": 9160,
      "ç³Ĭ": 9161,
      "Ġspecifically": 9162,
      "Ġfibrosis": 9163,
      "çŁ³çĶ°ä¸īæĪĲ": 9164,
      "æŀģä¸º": 9165,
      "Ġspecial": 9166,
      "Ġmajority": 9167,
      "atistical": 9168,
      "å»ºéĢł": 9169,
      "Ġconst": 9170,
      "æļĸ": 9171,
      "Ġ35": 9172,
      "Ġsubject": 9173,
      "itude": 9174,
      "æµ·å¤ĸ": 9175,
      "¤Ĳ": 9176,
      "Ġbelow": 9177,
      "è¯¹è®¿": 9178,
      "æĸ°åĨł": 9179,
      "Ġbirth": 9180,
      "Ġextracellular": 9181,
      "umin": 9182,
      "åĨħåŃĺ": 9183,
      "ception": 9184,
      "Ġ70": 9185,
      "ç¤¾ä¼ļä¿Ŀéļľ": 9186,
      "infected": 9187,
      "Ġversion": 9188,
      "ä¾¿åĪ©": 9189,
      "çĽ¸åĲĮçļĦ": 9190,
      "gan": 9191,
      "ãģ«": 9192,
      "ç«Ń": 9193,
      "ä¹īæĺŃ": 9194,
      "çļĦåıĳçĶŁ": 9195,
      "çļĦæŃ¦å°Ĩ": 9196,
      "============": 9197,
      "idity": 9198,
      "åł¡": 9199,
      "land": 9200,
      "äºĮèĢħ": 9201,
      "Ġusually": 9202,
      "Ġadoles": 9203,
      "Ġinhibited": 9204,
      "last": 9205,
      "Ġled": 9206,
      "çĬ¹": 9207,
      "åħļå§Ķ": 9208,
      "igned": 9209,
      "rant": 9210,
      "Ġvaccine": 9211,
      "NK": 9212,
      "åĬĽåŃ¦": 9213,
      "ä¹īå¼ĺ": 9214,
      "Ġrecover": 9215,
      "çļĦçĶŁæ´»": 9216,
      "çİĩåĨĽ": 9217,
      "ç»ĨèıĮ": 9218,
      "å¯¹è¯Ŀ": 9219,
      "åıĳéĢģ": 9220,
      "åĽĬ": 9221,
      "è¿ĩéĶĻ": 9222,
      "mod": 9223,
      "ä¹ĿæľĪ": 9224,
      "çļĦæĪĺçķ¥": 9225,
      "çļĦåĽ½éĻħ": 9226,
      "äº¤ä»ĺ": 9227,
      "çļĦå¤ļ": 9228,
      "Ġ(%)": 9229,
      "è´µæĹı": 9230,
      "Ġforms": 9231,
      "ç²¾åº¦": 9232,
      "æŁĶ": 9233,
      "å®¶ä¸Ń": 9234,
      "range": 9235,
      "åľ°è´¨": 9236,
      "å°ıç¬łåİŁ": 9237,
      "idate": 9238,
      "éĻµ": 9239,
      "going": 9240,
      "çļĦæĦıä¹ī": 9241,
      "çĹħäºº": 9242,
      "ä¸ĥå¹´": 9243,
      "åĿļæĮģä»¥": 9244,
      "çİ°è¡Į": 9245,
      "åīĸ": 9246,
      "å®½æ°¸": 9247,
      "ä¸»æĮģ": 9248,
      "åĨľä¸ļçĶŁäº§": 9249,
      "ä¹ĭä¸º": 9250,
      "åŃķ": 9251,
      "Ġhypertension": 9252,
      "Ġinn": 9253,
      "ä¸īæľĪ": 9254,
      "Ġvariation": 9255,
      "Ġmagn": 9256,
      "ĠWestern": 9257,
      "ĠMedicine": 9258,
      "Ġseries": 9259,
      "éĨĩ": 9260,
      "ç³»æķ°": 9261,
      "è¿ĺåı¯ä»¥": 9262,
      "æĹ¢æľī": 9263,
      "Ġï¼Ī": 9264,
      "wh": 9265,
      "Ġregulatory": 9266,
      "Ġaccumulation": 9267,
      "%;": 9268,
      "åĨħå¤ĸ": 9269,
      "wide": 9270,
      "äººå£«": 9271,
      "Ġpor": 9272,
      "æĶ¿çļĦ": 9273,
      "æľ¬æ³ķ": 9274,
      "åĨįåº¦": 9275,
      "äºĶæľĪ": 9276,
      "ĠåĴĮ": 9277,
      "åĽ½æ°ĳç»ıæµİ": 9278,
      "ope": 9279,
      "è¡Ģæ¶²": 9280,
      "äººåĬĽèµĦæºĲ": 9281,
      "Ġworld": 9282,
      "ä»¤äºº": 9283,
      "Ġcoronary": 9284,
      "120": 9285,
      "æķĮäºº": 9286,
      "æĬĢæľ¯åĴĮ": 9287,
      "å¤§èĦĳ": 9288,
      "ä½Ĳä¹ħ": 9289,
      "åľ¨è¿Ļç§į": 9290,
      "èĢħåĴĮ": 9291,
      "éºŁ": 9292,
      "æĹ¢æĺ¯": 9293,
      "çļĦçī¹å¾ģ": 9294,
      "Ġtumour": 9295,
      "äººæ°ĳä»£è¡¨å¤§ä¼ļ": 9296,
      ".**": 9297,
      "ĠâĢľ": 9298,
      "HA": 9299,
      "èİ·å¾ĹäºĨ": 9300,
      "èĩªè¡Į": 9301,
      "å¾¡æīĢ": 9302,
      "Ġdecision": 9303,
      "ä¼łè¯´": 9304,
      "çĨŁæĤī": 9305,
      "èĲ½åĲİ": 9306,
      "2007": 9307,
      "ĠSe": 9308,
      "Ġpneum": 9309,
      "æ¯ıä¸Ģ": 9310,
      "åīįæ²¿": 9311,
      "å¸ĪèĮĥ": 9312,
      "è¡¥è´´": 9313,
      "åħĦéķ¿": 9314,
      "èµĦäº§éĺ¶çº§": 9315,
      "Ġrecorded": 9316,
      "ĠNew": 9317,
      "Ġglut": 9318,
      "ä½ĵåĪ¶æľºåĪ¶": 9319,
      "åĴĮæĬĢæľ¯": 9320,
      "èµĲäºĪ": 9321,
      "æŃ£å®¤": 9322,
      "cytes": 9323,
      "brid": 9324,
      "åŃ¦è¯´": 9325,
      "ä¾ĭåŃĲ": 9326,
      "ä¸ĥæľĪ": 9327,
      "å½¢å¼ıçļĦ": 9328,
      "Ġconsent": 9329,
      "è°ĥåĬ¨": 9330,
      "Ġstar": 9331,
      "å¾®è§Ĥ": 9332,
      "Im": 9333,
      "å®³äºº": 9334,
      "Ġç¬¬ä¸ī": 9335,
      "iltr": 9336,
      "Ġpanel": 9337,
      "æĵħ": 9338,
      "åįļçī©": 9339,
      "å½Ĵçº³": 9340,
      "GC": 9341,
      "éĢļçĶ¨": 9342,
      "å°±è¦ģ": 9343,
      "ç¦ıå²Ľ": 9344,
      "æĦŁåĪ°": 9345,
      "åħ¨åĽ½äººå¤§": 9346,
      "ä»ĭåħ¥": 9347,
      "UC": 9348,
      "é»Ħæ²³": 9349,
      "Ġtrigg": 9350,
      "æŁĵèī²": 9351,
      "Ġitem": 9352,
      "ç¡ķ": 9353,
      "çŃīæĸ¹éĿ¢çļĦ": 9354,
      "çļĦå½¢æĪĲ": 9355,
      "bb": 9356,
      "ĠUnited": 9357,
      "äº¦æľī": 9358,
      "ecause": 9359,
      "Ġrare": 9360,
      "tensive": 9361,
      "pir": 9362,
      "è¿Ĳç®Ĺ": 9363,
      "åħ¶åľ¨": 9364,
      "lim": 9365,
      "å¼Ĺ": 9366,
      "ä¿¡å¿ĥ": 9367,
      "çļĦè®¾è®¡": 9368,
      "Ġneutroph": 9369,
      "ĠpH": 9370,
      "lor": 9371,
      "å¥łå®ļäºĨ": 9372,
      "è´£ä»»çļĦ": 9373,
      "Ġlinked": 9374,
      "For": 9375,
      "ining": 9376,
      "Ġyou": 9377,
      "ĠPR": 9378,
      "åħŃæľĪ": 9379,
      "å¾½": 9380,
      "005": 9381,
      "osomal": 9382,
      "Ġ27": 9383,
      "Ġglobal": 9384,
      "Ġhal": 9385,
      "é»İ": 9386,
      "ĠAp": 9387,
      "è´¦æĪ·": 9388,
      "çļĦç»ĵæŀĦ": 9389,
      "ijms": 9390,
      "æķĮåĨĽ": 9391,
      "å®ŀä¾ĭ": 9392,
      "Ġconver": 9393,
      "åįķçº¯": 9394,
      "åıĤæĪĺ": 9395,
      "150": 9396,
      "æ¶Ĥ": 9397,
      "åĲ¾": 9398,
      "æľ¬æ¡Ī": 9399,
      "Ġquantitative": 9400,
      "å¾Ĺåĩº": 9401,
      "çĶµè§Ĩ": 9402,
      "äº§ä¸ļåıĳå±ķ": 9403,
      "Ġalterations": 9404,
      "Ġrang": 9405,
      "æĤ£èĢħçļĦ": 9406,
      "Ľèµ·": 9407,
      "åıĹçĲĨ": 9408,
      "èĬĤçº¦": 9409,
      "æķĳæı´": 9410,
      "]:": 9411,
      "Ġpromote": 9412,
      "äººè´¨": 9413,
      "æĸ°èĥ½æºĲ": 9414,
      "åĪ©å®¶": 9415,
      "æĥ¨": 9416,
      "ĠPI": 9417,
      "EV": 9418,
      "ç²¾ç¡®": 9419,
      "æĬĵä½ı": 9420,
      "è¾ĥå¤§çļĦ": 9421,
      "HT": 9422,
      "Ġtool": 9423,
[...]
