{
  "version": "1.0",
  "truncation": null,
  "padding": null,
  "added_tokens": [
    {
      "id": 0,
      "content": "<|endoftext|>",
      "single_word": false,
      "lstrip": false,
      "rstrip": false,
      "normalized": false,
      "special": true
    },
    {
      "id": 1,
      "content": "<|im_user|>",
      "single_word": false,
      "lstrip": false,
      "rstrip": false,
      "normalized": false,
      "special": true
    },
    {
      "id": 2,
      "content": "<|im_assistant|>",
      "single_word": false,
      "lstrip": false,
      "rstrip": false,
      "normalized": false,
      "special": true
    },
    {
      "id": 3,
      "content": "<|im_end|>",
      "single_word": false,
      "lstrip": false,
      "rstrip": false,
      "normalized": false,
      "special": true
    }
  ],
  "normalizer": null,
  "pre_tokenizer": {
    "type": "ByteLevel",
    "add_prefix_space": false,
    "trim_offsets": true,
    "use_regex": true
  },
  "post_processor": {
    "type": "ByteLevel",
    "add_prefix_space": true,
    "trim_offsets": false,
    "use_regex": true
  },
  "decoder": {
    "type": "ByteLevel",
    "add_prefix_space": true,
    "trim_offsets": true,
    "use_regex": true
  },
  "model": {
    "type": "BPE",
    "dropout": null,
    "unk_token": "<|unk|>",
    "continuing_subword_prefix": null,
    "end_of_word_suffix": null,
    "fuse_unk": false,
    "byte_fallback": false,
    "ignore_merges": false,
    "vocab": {
      "<|endoftext|>": 0,
      "<|im_user|>": 1,
      "<|im_assistant|>": 2,
      "<|im_end|>": 3,
      "!": 4,
      "\"": 5,
      "#": 6,
      "$": 7,
      "%": 8,
      "&": 9,
      "'": 10,
      "(": 11,
      ")": 12,
      "*": 13,
      "+": 14,
      ",": 15,
      "-": 16,
      ".": 17,
      "/": 18,
      "0": 19,
      "1": 20,
      "2": 21,
      "3": 22,
      "4": 23,
      "5": 24,
      "6": 25,
      "7": 26,
      "8": 27,
      "9": 28,
      ":": 29,
      ";": 30,
      "<": 31,
      "=": 32,
      ">": 33,
      "?": 34,
      "@": 35,
      "A": 36,
      "B": 37,
      "C": 38,
      "D": 39,
      "E": 40,
      "F": 41,
      "G": 42,
      "H": 43,
      "I": 44,
      "J": 45,
      "K": 46,
      "L": 47,
      "M": 48,
      "N": 49,
      "O": 50,
      "P": 51,
      "Q": 52,
      "R": 53,
      "S": 54,
      "T": 55,
      "U": 56,
      "V": 57,
      "W": 58,
      "X": 59,
      "Y": 60,
      "Z": 61,
      "[": 62,
      "\\": 63,
      "]": 64,
      "^": 65,
      "_": 66,
      "`": 67,
      "a": 68,
      "b": 69,
      "c": 70,
      "d": 71,
      "e": 72,
      "f": 73,
      "g": 74,
      "h": 75,
      "i": 76,
      "j": 77,
      "k": 78,
      "l": 79,
      "m": 80,
      "n": 81,
      "o": 82,
      "p": 83,
      "q": 84,
      "r": 85,
      "s": 86,
      "t": 87,
      "u": 88,
      "v": 89,
      "w": 90,
      "x": 91,
      "y": 92,
      "z": 93,
      "{": 94,
      "|": 95,
      "}": 96,
      "~": 97,
      "¡": 98,
      "¢": 99,
      "£": 100,
      "¤": 101,
      "¥": 102,
      "¦": 103,
      "§": 104,
      "¨": 105,
      "©": 106,
      "ª": 107,
      "«": 108,
      "¬": 109,
      "®": 110,
      "¯": 111,
      "°": 112,
      "±": 113,
      "²": 114,
      "³": 115,
      "´": 116,
      "µ": 117,
      "¶": 118,
      "·": 119,
      "¸": 120,
      "¹": 121,
      "º": 122,
      "»": 123,
      "¼": 124,
      "½": 125,
      "¾": 126,
      "¿": 127,
      "Â": 128,
      "Ã": 129,
      "Ä": 130,
      "Å": 131,
      "Æ": 132,
      "Ç": 133,
      "È": 134,
      "É": 135,
      "Ê": 136,
      "Ë": 137,
      "Ì": 138,
      "Í": 139,
      "Î": 140,
      "Ï": 141,
      "Ð": 142,
      "Ñ": 143,
      "Ò": 144,
      "Ó": 145,
      "Ô": 146,
      "Õ": 147,
      "Ö": 148,
      "×": 149,
      "Ø": 150,
      "Ù": 151,
      "Ú": 152,
      "Û": 153,
      "Ý": 154,
      "Þ": 155,
      "ß": 156,
      "à": 157,
      "á": 158,
      "â": 159,
      "ã": 160,
      "ä": 161,
      "å": 162,
      "æ": 163,
      "ç": 164,
      "è": 165,
      "é": 166,
      "ê": 167,
      "ë": 168,
      "ì": 169,
      "í": 170,
      "î": 171,
      "ï": 172,
      "ð": 173,
      "ó": 174,
      "ô": 175,
      "Ā": 176,
      "ā": 177,
      "Ă": 178,
      "ă": 179,
      "Ą": 180,
      "ą": 181,
      "Ć": 182,
      "ć": 183,
      "Ĉ": 184,
      "ĉ": 185,
      "Ċ": 186,
      "ċ": 187,
      "Č": 188,
      "č": 189,
      "Ď": 190,
      "ď": 191,
      "Đ": 192,
      "đ": 193,
      "Ē": 194,
      "ē": 195,
      "Ĕ": 196,
      "ĕ": 197,
      "Ė": 198,
      "ė": 199,
      "Ę": 200,
      "ę": 201,
      "Ě": 202,
      "ě": 203,
      "Ĝ": 204,
      "ĝ": 205,
      "Ğ": 206,
      "ğ": 207,
      "Ġ": 208,
      "ġ": 209,
      "Ģ": 210,
      "ģ": 211,
      "Ĥ": 212,
      "ĥ": 213,
      "Ħ": 214,
      "ħ": 215,
      "Ĩ": 216,
      "ĩ": 217,
      "Ī": 218,
      "ī": 219,
      "Ĭ": 220,
      "ĭ": 221,
      "Į": 222,
      "į": 223,
      "İ": 224,
      "ı": 225,
      "Ĳ": 226,
      "ĳ": 227,
      "Ĵ": 228,
      "ĵ": 229,
      "Ķ": 230,
      "ķ": 231,
      "ĸ": 232,
      "Ĺ": 233,
      "ĺ": 234,
      "Ļ": 235,
      "ļ": 236,
      "Ľ": 237,
      "ľ": 238,
      "Ŀ": 239,
      "ŀ": 240,
      "Ł": 241,
      "ł": 242,
      "Ń": 243,
      "ä¸": 244,
      "ï¼": 245,
      "çļ": 246,
      "çļĦ": 247,
      "ĠĠ": 248,
      "ï¼Į": 249,
      "äº": 250,
      "ãĢ": 251,
      "åħ": 252,
      "åı": 253,
      "æľ": 254,
      "ä»": 255,
      "å®": 256,
      "åĪ": 257,
      "ãĢĤ": 258,
      "å¤": 259,
      "in": 260,
      "åĲ": 261,
      "ĠĠĠĠ": 262,
      "ç»": 263,
      "Ġa": 264,
      "Ġt": 265,
      "çĶ": 266,
      "è¿": 267,
      "ä½": 268,
      "åĬ": 269,
      "åĽ": 270,
      "åľ": 271,
      "ä¹": 272,
      "re": 273,
      "æĸ": 274,
      "æĺ": 275,
      "on": 276,
      "he": 277,
      "æĪ": 278,
      "å¹": 279,
      "--": 280,
      "ti": 281,
      "è®": 282,
      "ãĢģ": 283,
      "ä¼": 284,
      "åŃ": 285,
      "è¯": 286,
      "æĹ": 287,
      "æĿ": 288,
      "åº": 289,
      "ä¸Ģ": 290,
      "en": 291,
      "æĺ¯": 292,
      "åĨ": 293,
      "ä¸Ń": 294,
      "åĴ": 295,
      "åľ¨": 296,
      "åį": 297,
      "æķ": 298,
      "åĴĮ": 299,
      "å°": 300,
      "å¯": 301,
      "æĶ": 302,
      "éĩ": 303,
      "å¼": 304,
      "åĽ½": 305,
      "Ġo": 306,
      "åĮ": 307,
      "er": 308,
      "ä¸º": 309,
      "æĢ": 310,
      "Ġc": 311,
      "Ġs": 312,
      "Ġthe": 313,
      "äºº": 314,
      "è¡": 315,
      "ed": 316,
      "al": 317,
      "âĢ": 318,
      "å±": 319,
      "ĠĠĠĠĠĠĠĠ": 320,
      "æ°": 321,
      "çĽ": 322,
      "è§": 323,
      "èĢ": 324,
      "æľī": 325,
      "ç§": 326,
      "æī": 327,
      "éĢ": 328,
      "Ġin": 329,
      "æ³": 330,
      "Ġp": 331,
      "at": 332,
      "å¾": 333,
      "åĩ": 334,
      "æŃ": 335,
      "å·": 336,
      "è´": 337,
      "es": 338,
      "Ġan": 339,
      "or": 340,
      "ä¿": 341,
      "èĥ": 342,
      "æĬ": 343,
      "åŁ": 344,
      "çİ": 345,
      "ä¸į": 346,
      "Ġw": 347,
      "å¤§": 348,
      "Ġof": 349,
      "åŃ¦": 350,
      "ä»¥": 351,
      "is": 352,
      "æł": 353,
      "å¹´": 354,
      "å½": 355,
      "åıĳ": 356,
      "å¸": 357,
      "äºĨ": 358,
      "an": 359,
      "----": 360,
      "éĻ": 361,
      "tion": 362,
      "èµ": 363,
      "¦ģ": 364,
      "ro": 365,
      "çĲ": 366,
      "èĩ": 367,
      "Ġm": 368,
      "æ³ķ": 369,
      "çĶŁ": 370,
      "it": 371,
      "è¦ģ": 372,
      "æµ": 373,
      "å¯¹": 374,
      "éĿ": 375,
      "Ġand": 376,
      "çŃ": 377,
      "Ġd": 378,
      "çī": 379,
      "æŀ": 380,
      "æİ": 381,
      "è¡Į": 382,
      "Ġf": 383,
      "çĶ¨": 384,
      "ä¸İ": 385,
      "äºİ": 386,
      "çĲĨ": 387,
      "å¿": 388,
      "ic": 389,
      "éĹ": 390,
      "é¢": 391,
      "as": 392,
      "æĪĲ": 393,
      "Ġb": 394,
      "èĥ½": 395,
      "æĹ¶": 396,
      "ar": 397,
      "çº": 398,
      "å®¶": 399,
      "ä¸ļ": 400,
      "åĮĸ": 401,
      "åİ": 402,
      "ä¼ļ": 403,
      "ä¸»": 404,
      "ä½ľ": 405,
      "å®ŀ": 406,
      "ing": 407,
      "æĮ": 408,
      "éĥ": 409,
      "æĸ¹": 410,
      "æĢ§": 411,
      "ä¸Ĭ": 412,
      "æ²": 413,
      "ä¹ĭ": 414,
      "å®ļ": 415,
      "ä½ĵ": 416,
      "åĩº": 417,
      "el": 418,
      "åľ°": 419,
      "è¿Ľ": 420,
      "Ġ(": 421,
      "ent": 422,
      "ä¸ª": 423,
      "åĪĨ": 424,
      "ä¾": 425,
      "åĪ¶": 426,
      "Ġre": 427,
      "æľ¬": 428,
      "åĬ¨": 429,
      "ç«": 430,
      "åĳ": 431,
      "è¾": 432,
      "åĲĮ": 433,
      "åı¯": 434,
      "ç¨": 435,
      "æĶ¿": 436,
      "çİ°": 437,
      "ç»ı": 438,
      "le": 439,
      "ç¤": 440,
      "åĬĽ": 441,
      "äº§": 442,
      "åĲİ": 443,
      "è¿Ļ": 444,
      "âĢľ": 445,
      "æı": 446,
      "ï¼ī": 447,
      "âĢĿ": 448,
      "å±ķ": 449,
      "åĲĪ": 450,
      "ï¼Ī": 451,
      "åħ¶": 452,
      "éķ": 453,
      "å»": 454,
      "åħ³": 455,
      "çŃī": 456,
      "ç³": 457,
      "Ġto": 458,
      "ec": 459,
      "éĩį": 460,
      "ç®": 461,
      "æ°ĳ": 462,
      "ä¿¡": 463,
      "æĸ°": 464,
      "èĢĮ": 465,
      "ä¹ī": 466,
      "ĠĠĠĠĠĠĠĠĠĠĠĠĠĠĠĠ": 467,
      "éĺ": 468,
      "æ±": 469,
      "ation": 470,
      "é«": 471,
      "ä»£": 472,
      "ç³»": 473,
      "åħ¨": 474,
      "Ġe": 475,
      "é«ĺ": 476,
      "æį": 477,
      "æĿ¥": 478,
      "åºĶ": 479,
      "èĩª": 480,
      "åī": 481,
      "è¿ĩ": 482,
      "å·¥": 483,
      "æĸĩ": 484,
      "åº¦": 485,
      "å»º": 486,
      "åĪ°": 487,
      "éķ¿": 488,
      "æĭ": 489,
      "èĤ": 490,
      "us": 491,
      "æ´": 492,
      "æķĻ": 493,
      "ç¬": 494,
      "å¥": 495,
      "æĥ": 496,
      "æķ°": 497,
      "ä¸ĭ": 498,
      "æĦ": 499,
      "ul": 500,
      "éģ": 501,
      "éĿ¢": 502,
      "åıĳå±ķ": 503,
      "åĪ©": 504,
      "ç½": 505,
      "è°": 506,
      "åĨħ": 507,
      "æ¯": 508,
      "èĢħ": 509,
      "--------": 510,
      "ç¤¾": 511,
      "è½": 512,
      "åŁº": 513,
      "¦Ĥ": 514,
      "ç¨ĭ": 515,
      "æıĲ": 516,
      "åĵ": 517,
      "om": 518,
      "çł": 519,
      "è®¾": 520,
      "éĥ¨": 521,
      "çŁ": 522,
      "å¤ļ": 523,
      "ig": 524,
      "Ġth": 525,
      "ac": 526,
      "æīĢ": 527,
      "ç©": 528,
      "æĪĺ": 529,
      "Ġn": 530,
      "ä¸ī": 531,
      "éļ": 532,
      "æľº": 533,
      "å¢": 534,
      "ç¡": 535,
      "èµĦ": 536,
      "åĽł": 537,
      "éĢļ": 538,
      "et": 539,
      "åĢ": 540,
      "åŁİ": 541,
      "Ġh": 542,
      "æĿĥ": 543,
      "åĬ¡": 544,
      "==": 545,
      "çĽ¸": 546,
      "çī©": 547,
      "ol": 548,
      "äºĭ": 549,
      "çķ": 550,
      "ĠT": 551,
      "åĬł": 552,
      "ç»Ł": 553,
      "å°Ĩ": 554,
      "åıĬ": 555,
      "æ¬": 556,
      "ä¹Ł": 557,
      "èģ": 558,
      "åħ¬": 559,
      "ç¤¾ä¼ļ": 560,
      "os": 561,
      "éĩı": 562,
      "ç¬¬": 563,
      "æ²»": 564,
      "è·": 565,
      "ç§į": 566,
      "æĹ¥": 567,
      "å½ĵ": 568,
      "æĽ": 569,
      "å¹¶": 570,
      "æĻ": 571,
      "åŃĲ": 572,
      "ä¿Ŀ": 573,
      "è§Ħ": 574,
      "æį®": 575,
      "å¹³": 576,
      "è¶": 577,
      "ä¸ŃåĽ½": 578,
      "å¼Ģ": 579,
      "ur": 580,
      "im": 581,
      "é¡": 582,
      "åīį": 583,
      "ve": 584,
      "00": 585,
      "åĿ": 586,
      "ly": 587,
      "ä»İ": 588,
      "æŃ¤": 589,
      "å°±": 590,
      "ç«ĭ": 591,
      "éĹ´": 592,
      "ç»ĵ": 593,
      "id": 594,
      "æĪĳ": 595,
      "å¦Ĥ": 596,
      "æŃ£": 597,
      "æĺİ": 598,
      "un": 599,
      "å¼ı": 600,
      "æ¸": 601,
      "çĤ": 602,
      "ç®¡": 603,
      "åħ¥": 604,
      "Ġl": 605,
      "ith": 606,
      "åĨĽ": 607,
      "æĪĸ": 608,
      "ä»ĸ": 609,
      "å¾Ĺ": 610,
      "æľŁ": 611,
      "ä½¿": 612,
      "èī": 613,
      "çĶ±": 614,
      "ere": 615,
      "è¢": 616,
      "Ġwith": 617,
      "çī¹": 618,
      "çľ": 619,
      "åģ": 620,
      "çłĶ": 621,
      "åİŁ": 622,
      "æĬĢ": 623,
      "çĶ°": 624,
      "è®¡": 625,
      "æľ¯": 626,
      "äºĮ": 627,
      "çĦ": 628,
      "ç¾": 629,
      "æľĪ": 630,
      "Ġg": 631,
      "åĲĳ": 632,
      "å¼º": 633,
      "åħļ": 634,
      "ot": 635,
      "æŁ": 636,
      "Ġ1": 637,
      "æŀĦ": 638,
      "è§£": 639,
      "ä»¬": 640,
      "åįģ": 641,
      "æµİ": 642,
      "åħ±": 643,
      "res": 644,
      "è¡¨": 645,
      "é¢ĺ": 646,
      "çĿ": 647,
      "Ġst": 648,
      "æģ": 649,
      "é¢Ĩ": 650,
      "å¤ĸ": 651,
      "ce": 652,
      "è®º": 653,
      "å½¢": 654,
      "æĿ¡": 655,
      "æº": 656,
      "åıĺ": 657,
      "æĦı": 658,
      "è¢«": 659,
      "å¸Ĥ": 660,
      "Ġfor": 661,
      "ç±": 662,
      "ç»ıæµİ": 663,
      "æłĩ": 664,
      "æĮģ": 665,
      "è´¨": 666,
      "Ġpro": 667,
      "ç§ĳ": 668,
      "éĽ": 669,
      "éľ": 670,
      "æ°ı": 671,
      "çĽ®": 672,
      "å¿ĥ": 673,
      "il": 674,
      "åĮº": 675,
      "ç´": 676,
      "æľĢ": 677,
      "ï¼ļ": 678,
      "çĤ¹": 679,
      "ç©¶": 680,
      "ut": 681,
      "ĠC": 682,
      "çĦ¶": 683,
      "ä½į": 684,
      "20": 685,
      "ä»»": 686,
      "ter": 687,
      "å¯¼": 688,
      "åħĥ": 689,
      "Ġcon": 690,
      "æ¶": 691,
      "ati": 692,
      "ĠA": 693,
      "åŀ": 694,
      "å§": 695,
      "å°ı": 696,
      "æ±Ĥ": 697,
      "if": 698,
      "**": 699,
      "æĶ¹": 700,
      "Ġas": 701,
      "èĤ²": 702,
      "ä½Ĩ": 703,
      "éĹ®": 704,
      "ow": 705,
      "çłĶç©¶": 706,
      "am": 707,
      "ç»Ħ": 708,
      "ell": 709,
      "åħ·": 710,
      "å®ī": 711,
      "æĽ´": 712,
      "æķĪ": 713,
      "Ġis": 714,
      "æºĲ": 715,
      "åĲĦ": 716,
      "æĢĿ": 717,
      "Ġv": 718,
      "æ¡": 719,
      "å¤©": 720,
      "[@": 721,
      "ä»¶": 722,
      "æĮĩ": 723,
      "um": 724,
      "éª": 725,
      "ĠI": 726,
      "åĪĽ": 727,
      "è®¤": 728,
      "Ġex": 729,
      "ated": 730,
      "ä¼ł": 731,
      "uc": 732,
      "ĠS": 733,
      "ï¼Ľ": 734,
      "od": 735,
      "ç¼": 736,
      "15": 737,
      "ãĢĬ": 738,
      "ãĢĭ": 739,
      "å±±": 740,
      "æ°´": 741,
      "ç¥": 742,
      "ç±»": 743,
      "æĹł": 744,
      "æ¨": 745,
      "oc": 746,
      "åĪĻ": 747,
      "æ¬¡": 748,
      "åĲį": 749,
      "åĽ½å®¶": 750,
      "ç¡®": 751,
      "æ´»": 752,
      "éĥ½": 753,
      "é£": 754,
      "åľº": 755,
      "éľĢ": 756,
      "ab": 757,
      "æ·": 758,
      "ä¸»ä¹ī": 759,
      "åĨ³": 760,
      "èĲ": 761,
      "ä¸Ģä¸ª": 762,
      "åŀĭ": 763,
      "è¿Ľè¡Į": 764,
      "èµ·": 765,
      "åı¯ä»¥": 766,
      "si": 767,
      "éĩĳ": 768,
      "st": 769,
      "éģĵ": 770,
      "æİ¨": 771,
      "è¯Ĩ": 772,
      "æĥħ": 773,
      "çĶµ": 774,
      "è¯´": 775,
      "åĵģ": 776,
      "æŀľ": 777,
      "æĬĢæľ¯": 778,
      "èĬ": 779,
      "è°ĥ": 780,
      "çĻ": 781,
      "çĸ": 782,
      "æ®": 783,
      "ä¸ĸ": 784,
      "çŁ¥": 785,
      "å¢ŀ": 786,
      "éĹ®é¢ĺ": 787,
      "Ġthat": 788,
      "ä¼ģ": 789,
      "ra": 790,
      "å¤Ħ": 791,
      "æµģ": 792,
      "äº¤": 793,
      "æ¨¡": 794,
      "åĳĺ": 795,
      "ä»·": 796,
      "éĢł": 797,
      "ts": 798,
      "ç»ĩ": 799,
      "ç²": 800,
      "tic": 801,
      "ment": 802,
      "æİ¥": 803,
      "éħ": 804,
      "ity": 805,
      "Ġbe": 806,
      "çĹ": 807,
      "ag": 808,
      "åı²": 809,
      "ĠĠĠĠĠĠĠĠĠĠĠĠĠĠĠĠĠĠĠĠĠĠĠĠĠĠĠĠĠĠĠĠ": 810,
      "çĿĢ": 811,
      "åŃĺ": 812,
      "éĶ": 813,
      "æĢģ": 814,
      "å¸¸": 815,
      "è½¬": 816,
      "ä¼ģä¸ļ": 817,
      "ç®¡çĲĨ": 818,
      "äºĽ": 819,
      "å²": 820,
      "ud": 821,
      "æķĻèĤ²": 822,
      "åıĸ": 823,
      "è¯ģ": 824,
      "é©": 825,
      "è§Ĥ": 826,
      "æĬ¤": 827,
      "è¿Ĳ": 828,
      "å¥½": 829,
      "ä¸¤": 830,
      "op": 831,
      "åıį": 832,
      "åıĹ": 833,
      "äººæ°ĳ": 834,
      "ç¦": 835,
      "åĨľ": 836,
      "èĮ": 837,
      "Ġwas": 838,
      "ĠP": 839,
      "ir": 840,
      "ver": 841,
      "ri": 842,
      "ä¹ł": 843,
      "Ġon": 844,
      "éĿ©": 845,
      "----------------": 846,
      "æľį": 847,
      "æ¯Ķ": 848,
      "Ġal": 849,
      "æģ¯": 850,
      "çİĩ": 851,
      ").": 852,
      "çİ¯": 853,
      "å·Ŀ": 854,
      "Ġwere": 855,
      "åĩĨ": 856,
      "ç½ĳ": 857,
      "åĽĽ": 858,
      "å»ºè®¾": 859,
      "éĻħ": 860,
      "æĶ¶": 861,
      "og": 862,
      "éĻ¢": 863,
      "ĠThe": 864,
      "éĢļè¿ĩ": 865,
      "è¿ĺ": 866,
      "å¾ĭ": 867,
      "èģĶ": 868,
      "se": 869,
      "====": 870,
      "ĠM": 871,
      "yp": 872,
      "ä¾Ľ": 873,
      "ate": 874,
      "æĶ¯": 875,
      "éĵ": 876,
      "åİĨ": 877,
      "æĸ½": 878,
      "å·¥ä½ľ": 879,
      "èĭ": 880,
      "èĩ³": 881,
      "Ġcell": 882,
      "åºľ": 883,
      "æĢ»": 884,
      "Ġby": 885,
      "æķ°æį®": 886,
      "èĻ": 887,
      "åķ": 888,
      "è¿ĳ": 889,
      "å£": 890,
      "ä¸ľ": 891,
      "çĬ": 892,
      "éĽĨ": 893,
      "ç¾İ": 894,
      "æŃ¦": 895,
      "å¢ĥ": 896,
      "up": 897,
      "ç³»ç»Ł": 898,
      "è·¯": 899,
      "èĪ": 900,
      "ä¹¦": 901,
      "ç§Ģ": 902,
      "åĳ½": 903,
      "æĥ³": 904,
      "è±": 905,
      "çĽ´": 906,
      "åĢ¼": 907,
      "è¾¾": 908,
      "em": 909,
      "19": 910,
      "çº§": 911,
      "Ġ2": 912,
      "å·²": 913,
      "her": 914,
      "##": 915,
      "éĩįè¦ģ": 916,
      "å®Į": 917,
      "åĬ¿": 918,
      "éĹ¨": 919,
      "èį": 920,
      "åįķ": 921,
      "Ġac": 922,
      "åħĪ": 923,
      "åķĨ": 924,
      "è®°": 925,
      "ted": 926,
      "åĮħ": 927,
      "åĮĹ": 928,
      "æĶ¾": 929,
      "çķĮ": 930,
      "çŃĸ": 931,
      "èº": 932,
      "åŁŁ": 933,
      "ĠH": 934,
      "èī²": 935,
      "é¡¹": 936,
      "å¿ħ": 937,
      "æł¹": 938,
      "æŃ¥": 939,
      "ay": 940,
      "å¤į": 941,
      "å¾·": 942,
      "Ġ\\": 943,
      "æł·": 944,
      "åı¸": 945,
      "Ġor": 946,
      "ure": 947,
      "æĹı": 948,
      "æĸŃ": 949,
      "è®®": 950,
      "ç´ł": 951,
      "éªĮ": 952,
      "th": 953,
      "Ġcom": 954,
      "rom": 955,
      "è¥": 956,
      "èº«": 957,
      "çĽĬ": 958,
      "äºĶ": 959,
      "æ¡Ī": 960,
      "ä¸ĵ": 961,
      "åĪ«": 962,
      "è¥¿": 963,
      "æķ´": 964,
      "åĸ": 965,
      "æ·±": 966,
      "qu": 967,
      "æĿĳ": 968,
      "ä¿¡æģ¯": 969,
      "ical": 970,
      "å½±": 971,
      "æĸ¹éĿ¢": 972,
      "åŃ¦çĶŁ": 973,
      "åĽ¾": 974,
      "åĻ": 975,
      "åĪ¶åº¦": 976,
      "10": 977,
      "é¦": 978,
      "å¼ķ": 979,
      "è£": 980,
      "èĮĥ": 981,
      "Ġres": 982,
      "åº·": 983,
      "ä¸»è¦ģ": 984,
      "èŀ": 985,
      "åıĤ": 986,
      "é£İ": 987,
      "å¤ĩ": 988,
      "èģĮ": 989,
      "å®ŀçİ°": 990,
      "ç¥ŀ": 991,
      "è§ģ": 992,
      "èĦ": 993,
      "æĸĩåĮĸ": 994,
      "åį³": 995,
      "å®¹": 996,
      "çģ": 997,
      "ä½ľä¸º": 998,
      "æµĭ": 999,
      "è´£": 1000,
      "åĬŁ": 1001,
      "ents": 1002,
      "æĪĳä»¬": 1003,
      "Ġare": 1004,
      "æľª": 1005,
      "ç®Ĺ": 1006,
      "ä¾Ŀ": 1007,
      "æĹ¶ä»£": 1008,
      "èĬĤ": 1009,
      "æł¼": 1010,
      "ç§°": 1011,
      "éĿŀ": 1012,
      "è¾ĥ": 1013,
      "èŀį": 1014,
      "è¯¥": 1015,
      "æľįåĬ¡": 1016,
      "di": 1017,
      "çº¿": 1018,
      "ç¡Ģ": 1019,
      "vel": 1020,
      "åŁºç¡Ģ": 1021,
      "åĵį": 1022,
      "ant": 1023,
      "åħ³ç³»": 1024,
      "Ġim": 1025,
      "çĹħ": 1026,
      "ç»Ĩ": 1027,
      "æī¿": 1028,
      "åĻ¨": 1029,
      "äºī": 1030,
      "ä¼ĺ": 1031,
      "åħ»": 1032,
      "æİ§": 1033,
      "çĪ": 1034,
      "ä¾ĭ": 1035,
      "èĢĥ": 1036,
      "éĤ": 1037,
      "Ġde": 1038,
      "Ġexp": 1039,
      "æ¸ħ": 1040,
      "ç¤º": 1041,
      "ain": 1042,
      "æ£": 1043,
      "è¿ĩç¨ĭ": 1044,
      "ran": 1045,
      "éĻ©": 1046,
      "å±Ĥ": 1047,
      "ç»Ń": 1048,
      "åľŁ": 1049,
      "æ»": 1050,
      "çº¦": 1051,
      "ĠD": 1052,
      "Ġdis": 1053,
      "éľĢè¦ģ": 1054,
      "å¸Ī": 1055,
      "æĺĵ": 1056,
      "ä¸ŃçļĦ": 1057,
      "),": 1058,
      "ç²¾": 1059,
      "ase": 1060,
      "å¸Ĥåľº": 1061,
      "æĬĬ": 1062,
      "è¯¾": 1063,
      "æīį": 1064,
      "å®ĥ": 1065,
      "åįı": 1066,
      "ä¼Ĺ": 1067,
      "Ġus": 1068,
      "æŀģ": 1069,
      "è¶³": 1070,
      "éĴ": 1071,
      "ad": 1072,
      "è¯Ħ": 1073,
      "èĩ£": 1074,
      "ç»Ħç»ĩ": 1075,
      "åħī": 1076,
      "èĹ": 1077,
      "åĿļ": 1078,
      "ine": 1079,
      "æµ·": 1080,
      "sion": 1081,
      "åŃĹ": 1082,
      "è§Ĩ": 1083,
      "èĥ½åĬĽ": 1084,
      "ç»´": 1085,
      "å®Ī": 1086,
      "Ġ*": 1087,
      "ĠF": 1088,
      "ff": 1089,
      "æĬķ": 1090,
      "æ²¡": 1091,
      "æ®µ": 1092,
      "æīĭ": 1093,
      "æł¸": 1094,
      "ĠR": 1095,
      "æĦŁ": 1096,
      "çĽĳ": 1097,
      "å½±åĵį": 1098,
      "æĺ¾": 1099,
      "å°ĳ": 1100,
      "ä¸įåĲĮ": 1101,
      "æĸ¹æ³ķ": 1102,
      "Ġat": 1103,
      "çĲĨè®º": 1104,
      "åı£": 1105,
      "ç»Ļ": 1106,
      "å¹¿": 1107,
      "åıª": 1108,
      "èĩ´": 1109,
      "åİĨåı²": 1110,
      "ess": 1111,
      "åħ·æľī": 1112,
      "è¯Ń": 1113,
      "å¾ģ": 1114,
      "è¶Ĭ": 1115,
      "ä½ĵç³»": 1116,
      "èİ": 1117,
      "è§Ħå®ļ": 1118,
      "æŀĲ": 1119,
      "é©¬": 1120,
      "çĶŁäº§": 1121,
      "ĠN": 1122,
      "ä½¿çĶ¨": 1123,
      "åĪĴ": 1124,
      "Ġch": 1125,
      "æĪĲä¸º": 1126,
      "Ġinc": 1127,
      "è±¡": 1128,
      "ĠB": 1129,
      "çİ¯å¢ĥ": 1130,
      "ore": 1131,
      "Ġ3": 1132,
      "æĪĳåĽ½": 1133,
      "å®īåħ¨": 1134,
      "çķ¥": 1135,
      "Ġ0": 1136,
      "åĪĽæĸ°": 1137,
      "ä½İ": 1138,
      "å±Ģ": 1139,
      "çĥ": 1140,
      "éļı": 1141,
      "ç§ĳåŃ¦": 1142,
      "åıĪ": 1143,
      "Ġfrom": 1144,
      "æ³ķå¾ĭ": 1145,
      "åİ»": 1146,
      "èĲ¥": 1147,
      "åĲī": 1148,
      "æĻ¯": 1149,
      "ph": 1150,
      "ç»§": 1151,
      "åĽŀ": 1152,
      "æĬ¥": 1153,
      "åŁºæľ¬": 1154,
      "ub": 1155,
      "æĶ¿åºľ": 1156,
      "Ġwh": 1157,
      "è¦ģæ±Ĥ": 1158,
      "æĪ·": 1159,
      "äºĴ": 1160,
      "çª": 1161,
      "æ°Ķ": 1162,
      "æĶ»": 1163,
      "éĢī": 1164,
      "å¸¦": 1165,
      "Ġstud": 1166,
      "te": 1167,
      "ä»¥åıĬ": 1168,
      "pl": 1169,
      "è¨": 1170,
      "å®Ĺ": 1171,
      "ä½ķ": 1172,
      "çľĭ": 1173,
      "æ³¨": 1174,
      "Ġr": 1175,
      "å¿µ": 1176,
      "åºı": 1177,
      "æıĲä¾Ľ": 1178,
      "ĠE": 1179,
      "åĨµ": 1180,
      "è¨Ģ": 1181,
      "å§ĭ": 1182,
      "und": 1183,
      "ign": 1184,
      "è¡Įä¸º": 1185,
      "ype": 1186,
      "Ġne": 1187,
      "æĶ¿æ²»": 1188,
      "å¸ĥ": 1189,
      "éħį": 1190,
      "éĻĲ": 1191,
      "æŁ¥": 1192,
      "æł¡": 1193,
      "ä¸ĩ": 1194,
      "orm": 1195,
      "åįĹ": 1196,
      "ä½ľçĶ¨": 1197,
      "çľŁ": 1198,
      "Ġpati": 1199,
      "æĶ¹éĿ©": 1200,
      "åĸĦ": 1201,
      "12": 1202,
      "åĨį": 1203,
      "æĸĻ": 1204,
      "Ġcells": 1205,
      "åĬ©": 1206,
      "åĪĨæŀĲ": 1207,
      "ç½®": 1208,
      "ref": 1209,
      "çŁ³": 1210,
      "ers": 1211,
      "ç©º": 1212,
      "ħ§": 1213,
      "åı¯èĥ½": 1214,
      "å¤±": 1215,
      "åħ´": 1216,
      "æ¶Ī": 1217,
      "éĩĩ": 1218,
      "ies": 1219,
      "çĭ": 1220,
      "äº²": 1221,
      "çĬ¶": 1222,
      "éĺ²": 1223,
      "åįĩ": 1224,
      "å®¡": 1225,
      "åŃ¦ä¹ł": 1226,
      "éĻ¤": 1227,
      "éĢĤ": 1228,
      "è´¹": 1229,
      "igh": 1230,
      "ug": 1231,
      "æĸ¹å¼ı": 1232,
      "æ²¡æľī": 1233,
      "åħµ": 1234,
      "ç§¯": 1235,
      "å¾Ī": 1236,
      "ç»ĵæŀĦ": 1237,
      "16": 1238,
      "Ġle": 1239,
      "ĠIn": 1240,
      "æĴ": 1241,
      "åĽ´": 1242,
      "ï¼īï¼Į": 1243,
      "æĤ": 1244,
      "åħ¬åı¸": 1245,
      "Ġcomp": 1246,
      "è´¢": 1247,
      "èµĦæºĲ": 1248,
      "æĭ¬": 1249,
      "Ġhe": 1250,
      "ç¤¾ä¼ļä¸»ä¹ī": 1251,
      "ib": 1252,
      "æķĻåŃ¦": 1253,
      "por": 1254,
      "åįİ": 1255,
      "ä»ħ": 1256,
      "å±ŀ": 1257,
      "duc": 1258,
      "å½¢æĪĲ": 1259,
      "åĲĮæĹ¶": 1260,
      "ä¸Ķ": 1261,
      "Ġad": 1262,
      "é¢Ħ": 1263,
      "Ġcont": 1264,
      "ç»Ī": 1265,
      "éĢŁ": 1266,
      "æĢĿæĥ³": 1267,
      "ect": 1268,
      "åĬ³": 1269,
      "é¡»": 1270,
      "èİ·": 1271,
      "æľĿ": 1272,
      "è¿°": 1273,
      "è¯ķ": 1274,
      "ä»Ĭ": 1275,
      "èĥľ": 1276,
      "ch": 1277,
      "åģļ": 1278,
      "éĺ¶": 1279,
      "æĻº": 1280,
      "æ±Ł": 1281,
      "åºĶçĶ¨": 1282,
      "Ġsh": 1283,
      "åŁ¹": 1284,
      "è·µ": 1285,
      "iz": 1286,
      "åŃĺåľ¨": 1287,
      "éļ¾": 1288,
      "ific": 1289,
      "ous": 1290,
      "åĪĹ": 1291,
      "å°±æĺ¯": 1292,
      "åĳĬ": 1293,
      "ä¸ĸçķĮ": 1294,
      "çİ°ä»£": 1295,
      "éĩĮ": 1296,
      "åħĭ": 1297,
      "åĽłæŃ¤": 1298,
      "å¾Ģ": 1299,
      "è®©": 1300,
      "ç»ľ": 1301,
      "ä¸Ģç§į": 1302,
      "Ġgen": 1303,
      "ys": 1304,
      "æ²³": 1305,
      "ç¾¤": 1306,
      "åħ¶ä»ĸ": 1307,
      "âĢĶ": 1308,
      "ĊĠ": 1309,
      "æĭħ": 1310,
      "äº§ä¸ļ": 1311,
      "ations": 1312,
      "åı°": 1313,
      "çĽ¸åħ³": 1314,
      "tive": 1315,
      "æıĲé«ĺ": 1316,
      "æıĲåĩº": 1317,
      "ç¢": 1318,
      "æ£Ģ": 1319,
      "red": 1320,
      "æ¦Ĥ": 1321,
      "åĽ½éĻħ": 1322,
      "è¿ĻäºĽ": 1323,
      "åĮħæĭ¬": 1324,
      "äººçļĦ": 1325,
      "éĩİ": 1326,
      "Ġinf": 1327,
      "å®ŀè·µ": 1328,
      "éĺŁ": 1329,
      "æĶ¿çŃĸ": 1330,
      "\\]": 1331,
      "Ġcan": 1332,
      "ä¿ĿæĬ¤": 1333,
      "14": 1334,
      "çŁ¥è¯Ĩ": 1335,
      "](": 1336,
      "able": 1337,
      "æī§": 1338,
      "åĩ»": 1339,
      "ence": 1340,
      "ä¸¥": 1341,
      "å·±": 1342,
      "è®¾è®¡": 1343,
      "æŃ»": 1344,
      "tiv": 1345,
      "ĠG": 1346,
      "å»ºç«ĭ": 1347,
      "ist": 1348,
      "é¦ĸ": 1349,
      "æ´»åĬ¨": 1350,
      "åħŃ": 1351,
      "ä¹ħ": 1352,
      "åĨħå®¹": 1353,
      "end": 1354,
      "ä¸°": 1355,
      "est": 1356,
      "éĻį": 1357,
      "åĦ": 1358,
      "âĢĿï¼Į": 1359,
      "æĪĸèĢħ": 1360,
      "æłĩåĩĨ": 1361,
      "11": 1362,
      "éĥ¨åĪĨ": 1363,
      "ç¦»": 1364,
      "åı·": 1365,
      "è®¤ä¸º": 1366,
      "ç½ĳç»ľ": 1367,
      "çĽ®æłĩ": 1368,
      "ä¹ĭéĹ´": 1369,
      "Ġper": 1370,
      "CR": 1371,
      "åĪĿ": 1372,
      "çĻ¾": 1373,
      "å§Ķ": 1374,
      "æĥħåĨµ": 1375,
      "çªģ": 1376,
      "ep": 1377,
      "åĶ": 1378,
      "å¯º": 1379,
      "ä»·åĢ¼": 1380,
      "ary": 1381,
      "ĠL": 1382,
      "çħ§": 1383,
      "ä¹Ī": 1384,
      "Ġpatients": 1385,
      "åħ«": 1386,
      "ĠĠĠ": 1387,
      "è¯·": 1388,
      "åĪ¤": 1389,
      "åĽ¢": 1390,
      "åıĳçĶŁ": 1391,
      "ial": 1392,
      "){": 1393,
      "å¼ł": 1394,
      "å¿«": 1395,
      "å¹²": 1396,
      "Ġ4": 1397,
      "è´Ł": 1398,
      "æł¹æį®": 1399,
      "pec": 1400,
      "èĳ": 1401,
      "ors": 1402,
      "Ġ\\[": 1403,
      "ion": 1404,
      "éļľ": 1405,
      "Ġass": 1406,
      "ip": 1407,
      "æ°ĳæĹı": 1408,
      "age": 1409,
      "åħ¨éĿ¢": 1410,
      "ther": 1411,
      "é»": 1412,
      "åħļçļĦ": 1413,
      "ãģ": 1414,
      "ç«ł": 1415,
      "å®³": 1416,
      "åħħ": 1417,
      "äº¬": 1418,
      "type": 1419,
      "13": 1420,
      "èĩªå·±": 1421,
      "æ¿": 1422,
      "act": 1423,
      "Ġnot": 1424,
      "Ġ5": 1425,
      "çĲĥ": 1426,
      "ĠW": 1427,
      "åĬ³åĬ¨": 1428,
      "ap": 1429,
      "å¯Ĩ": 1430,
      "ä¿ĥ": 1431,
      "iff": 1432,
      "æİ§åĪ¶": 1433,
      "å¿ħé¡»": 1434,
      "å¯Į": 1435,
      "å±ħ": 1436,
      "18": 1437,
      "åı¤": 1438,
      "vi": 1439,
      "åĮ»": 1440,
      "åĪĩ": 1441,
      "å¯¹äºİ": 1442,
      "NA": 1443,
      "åĳ¨": 1444,
      "åĿĩ": 1445,
      "èĲ½": 1446,
      "ge": 1447,
      "åį«": 1448,
      "å£«": 1449,
      "æ°¸": 1450,
      "eren": 1451,
      "æīĵ": 1452,
      "çĸĹ": 1453,
      "Ġsign": 1454,
      "åĩı": 1455,
      "Ġha": 1456,
      "æĬĹ": 1457,
      "æĹ¶éĹ´": 1458,
      "åł": 1459,
      "ä¹¡": 1460,
      "å¿ł": 1461,
      "çºª": 1462,
      "è¯ī": 1463,
      "ç¨İ": 1464,
      "olog": 1465,
      "ression": 1466,
      "]\\]": 1467,
      "æ¯ı": 1468,
      "enti": 1469,
      "ä¿®": 1470,
      "å²Ľ": 1471,
      "Ġint": 1472,
      "è¡ĮæĶ¿": 1473,
      "ich": 1474,
      "ä¿¡éķ¿": 1475,
      "ç¬¬ä¸Ģ": 1476,
      "äº§åĵģ": 1477,
      "ä¾¿": 1478,
      "ia": 1479,
      "Ġthis": 1480,
      "æ¬¾": 1481,
      "å¤ĦçĲĨ": 1482,
      "æľºåĪ¶": 1483,
      "è¿Ļç§į": 1484,
      "å®ŀæĸ½": 1485,
      "Ġcl": 1486,
      "çĿ£": 1487,
      "è®¸": 1488,
      "å¼Ĥ": 1489,
      "ular": 1490,
      "Ġco": 1491,
      "å¿Ĺ": 1492,
      "è´¨éĩı": 1493,
      "Ġwe": 1494,
      "=\"": 1495,
      "å¤®": 1496,
      "çĶŁæ´»": 1497,
      "æİ¨è¿Ľ": 1498,
      "è¿Ļä¸Ģ": 1499,
      "](#": 1500,
      "çĮ": 1501,
      "\"}": 1502,
      "è´£ä»»": 1503,
      "åĥ": 1504,
      "è¿ŀ": 1505,
      "èĢģ": 1506,
      "èĥŀ": 1507,
      "ä¸¾": 1508,
      "éĤ£": 1509,
      "Ġdiff": 1510,
      "åĪ©çĶ¨": 1511,
      "ä¹Ŀ": 1512,
      "Ġse": 1513,
      "æĿĲ": 1514,
      "é£İéĻ©": 1515,
      "å·®": 1516,
      "å®ĺ": 1517,
      "Ġdi": 1518,
      "è§Ĵ": 1519,
      "çĶ±äºİ": 1520,
      "ath": 1521,
      "æĮī": 1522,
      "æŁĲ": 1523,
      "æİ¢": 1524,
      "é¢ĨåŁŁ": 1525,
      "åľ°åĮº": 1526,
      "ç§»": 1527,
      "äº§çĶŁ": 1528,
      "æ»¡": 1529,
      "å¤Ł": 1530,
      "åĿļæĮģ": 1531,
      "è¿ľ": 1532,
      "èīº": 1533,
      "åĢº": 1534,
      "åĬŀ": 1535,
      "æİĴ": 1536,
      "åħ±åĲĮ": 1537,
      "ä¸įæĸŃ": 1538,
      "åĦ¿": 1539,
      "æĿ¾": 1540,
      "Ġ\\[[@": 1541,
      "æ¢": 1542,
      "Ġpre": 1543,
      "éĩĳèŀį": 1544,
      "Ġsy": 1545,
      "tions": 1546,
      "è§£åĨ³": 1547,
      "æĿ¡ä»¶": 1548,
      "ved": 1549,
      "ä¼łç»Ł": 1550,
      "æ¿Ģ": 1551,
      "è¡Ģ": 1552,
      "çĭ¬": 1553,
      "Ġap": 1554,
      "ast": 1555,
      "ç»ĩçĶ°": 1556,
      "========": 1557,
      "å¦": 1558,
      "ä»¤": 1559,
      "æľīæķĪ": 1560,
      "Ġ[": 1561,
      "æľºæŀĦ": 1562,
      "å®ŀéĻħ": 1563,
      "ä¸Ńå¤®": 1564,
      "çł´": 1565,
      "rans": 1566,
      "åı¦": 1567,
      "æ¼": 1568,
      "çĻ½": 1569,
      "æ°´å¹³": 1570,
      "åģ¥": 1571,
      "èµĸ": 1572,
      "ä¼Ĭ": 1573,
      "vid": 1574,
      "å¤´": 1575,
      "æİ¨åĬ¨": 1576,
      "ç»Ĩèĥŀ": 1577,
      "æĸ¯": 1578,
      "ory": 1579,
      "Ġhave": 1580,
      "ç¨³": 1581,
      "ance": 1582,
      "ç½ª": 1583,
      "èī¯": 1584,
      "ple": 1585,
      "åĲ¦": 1586,
      "åĬłå¼º": 1587,
      "çĪ¶": 1588,
      "å®ļçļĦ": 1589,
      "æ´¾": 1590,
      "æ¯Ľ": 1591,
      "ç¬¬äºĮ": 1592,
      "\",": 1593,
      "åĬŁèĥ½": 1594,
      "åİĭ": 1595,
      "ased": 1596,
      "åºĶå½ĵ": 1597,
      "æĳ": 1598,
      "Ġeff": 1599,
      "æįŁ": 1600,
      "é¡¹çĽ®": 1601,
      "ä¸ĬçļĦ": 1602,
      "æĶ¯æĮģ": 1603,
      "ç²¾ç¥ŀ": 1604,
      "æ¨¡å¼ı": 1605,
      "åĭ": 1606,
      "è¾¹": 1607,
      "ĠO": 1608,
      "17": 1609,
      "ç¼ĸ": 1610,
      "ill": 1611,
      "è¶ħ": 1612,
      "çĶŁæĢģ": 1613,
      "æĪĺçķ¥": 1614,
      "è½½": 1615,
      "Ġpar": 1616,
      "æĢ§çļĦ": 1617,
      "ding": 1618,
      "Ġwhich": 1619,
      "è®¡ç®Ĺ": 1620,
      "ä¸ĥ": 1621,
      "æĪ¿": 1622,
      "ren": 1623,
      "éŁ": 1624,
      "pon": 1625,
      "å¯Ł": 1626,
      "âĢĿãĢĤ": 1627,
      "Ġstudy": 1628,
      "åĩł": 1629,
      "ä»ĸä»¬": 1630,
      "ost": 1631,
      "åĲĪåĲĮ": 1632,
      "ä¸įèĥ½": 1633,
      "å¦Ĥæŀľ": 1634,
      "æ³¢": 1635,
      "äººåĳĺ": 1636,
      "Ġgro": 1637,
      "é¾": 1638,
      "--------------------------------": 1639,
      "pt": 1640,
      "Ġit": 1641,
      "ue": 1642,
      "èħ": 1643,
      "å¤ª": 1644,
      "æ²»çĲĨ": 1645,
      "åıĳå±ķçļĦ": 1646,
      "åĩºçİ°": 1647,
      "é¢Ĩå¯¼": 1648,
      "å¥³": 1649,
      "åıĮ": 1650,
      "ĠĠĠĠĠĠĠĠĠĠĠĠĠĠĠĠĠĠĠĠĠĠĠĠĠĠĠĠĠĠĠĠĠĠĠĠĠĠĠĠĠĠĠĠĠĠĠĠĠĠĠĠĠĠĠĠĠĠĠĠĠĠĠĠ": 1651,
      "ç§ĢåĲī": 1652,
      "æĻ®": 1653,
      "æĮ¥": 1654,
      "èį¯": 1655,
      "pro": 1656,
      "Ġbet": 1657,
      "reat": 1658,
      "æķħ": 1659,
      "ally": 1660,
      "æĹ©": 1661,
      "ç»ĵåĲĪ": 1662,
      "çº³": 1663,
      "åıĺåĮĸ": 1664,
      "çİĭ": 1665,
      "Ġk": 1666,
      "å·ŀ": 1667,
      "çŃĳ": 1668,
      "æĬķèµĦ": 1669,
      "è¿Ļä¸ª": 1670,
      "ä¸´": 1671,
      "èĤ¡": 1672,
      "æł¸å¿ĥ": 1673,
      "æŃ¦çĶ°": 1674,
      "çī¹èī²": 1675,
      "Ġanal": 1676,
      "éĥ¨éĹ¨": 1677,
      "Ġab": 1678,
      "ä»į": 1679,
      "å¤§çļĦ": 1680,
      "ative": 1681,
      "åħį": 1682,
      "Ġdifferen": 1683,
      "èĩªçĦ¶": 1684,
      "åįł": 1685,
      "å®¤": 1686,
      "æī¹": 1687,
      "Ġinter": 1688,
      "åĽłä¸º": 1689,
      "ä¸ĵä¸ļ": 1690,
      "000": 1691,
      "æīĢæľī": 1692,
      "åŁİå¸Ĥ": 1693,
      "è£ħ": 1694,
      "æ´¥": 1695,
      "åĤ": 1696,
      "å·²ç»ı": 1697,
      "ä¿ĥè¿Ľ": 1698,
      "åįĥ": 1699,
      "æī©": 1700,
      "å¼Ģå§ĭ": 1701,
      "å·¥ç¨ĭ": 1702,
      "we": 1703,
      "çļĦä¸Ģ": 1704,
      "éĺ¶æ®µ": 1705,
      "æĸĹ": 1706,
      "äº«": 1707,
      "ç»ĵæŀľ": 1708,
      "æĹ¥æľ¬": 1709,
      "æķ°åŃĹ": 1710,
      "Ġreg": 1711,
      "rol": 1712,
      "æĵ": 1713,
      "Ġ=": 1714,
      "ress": 1715,
      "éĩĬ": 1716,
      "è´§": 1717,
      "åĨľä¸ļ": 1718,
      "enc": 1719,
      "æŃ¢": 1720,
      "ä¿Ŀéļľ": 1721,
      "Ġmod": 1722,
      "Ġshow": 1723,
      "èĪ¬": 1724,
      "åĲĪä½ľ": 1725,
      "å½¢å¼ı": 1726,
      "ç¼º": 1727,
      "è¾ĵ": 1728,
      "unc": 1729,
      "éĺµ": 1730,
      "åħ³äºİ": 1731,
      "ç»¼": 1732,
      "ç§ĳæĬĢ": 1733,
      "ä¸Ńåįİ": 1734,
      "çľģ": 1735,
      "èĥ½å¤Ł": 1736,
      "fig": 1737,
      "Ġmet": 1738,
      "ari": 1739,
      "éĢĲ": 1740,
      "ä¸ĢæŃ¥": 1741,
      "ä»ĭ": 1742,
      "åİŁåĪĻ": 1743,
      "ata": 1744,
      "çļĦæĺ¯": 1745,
      "ä»£è¡¨": 1746,
      "äºķ": 1747,
      "åĨĻ": 1748,
      "ä¸Ńå¿ĥ": 1749,
      "ä¾µ": 1750,
      "all": 1751,
      "ç®Ģ": 1752,
      "val": 1753,
      "åıĤä¸İ": 1754,
      "èµ°": 1755,
      "å®¢": 1756,
      "Ġsub": 1757,
      "å®ĮåĸĦ": 1758,
      "ç¾İåĽ½": 1759,
      "ç»Łä¸Ģ": 1760,
      "and": 1761,
      "èĻ½": 1762,
      "çļĦåıĳå±ķ": 1763,
      "Ġtrans": 1764,
      "è®¨": 1765,
      "Ġpl": 1766,
      "äº¦": 1767,
      "åŁ¹åħ»": 1768,
      "Ġob": 1769,
      "æĭ©": 1770,
      "ĠU": 1771,
      "æĹ¶æľŁ": 1772,
      "è¡¥": 1773,
      "Ġ[@": 1774,
      "ç¬¬ä¸ī": 1775,
      "è¯Ŀ": 1776,
      "èµĦæľ¬": 1777,
      "åĽº": 1778,
      "ä¸įæĺ¯": 1779,
      "æļ": 1780,
      "åħ·ä½ĵ": 1781,
      "Ġrec": 1782,
      "åľ°æĸ¹": 1783,
      "..": 1784,
      "ä¸»ä½ĵ": 1785,
      "low": 1786,
      "åĥı": 1787,
      "è½¦": 1788,
      "éĶ®": 1789,
      "Ġ6": 1790,
      "åįķä½į": 1791,
      "Ġme": 1792,
      "æķĻå¸Ī": 1793,
      "Fig": 1794,
      "å½Ĵ": 1795,
      "åİ¿": 1796,
      "æŁĵ": 1797,
      "å¾®": 1798,
      "è¯¾ç¨ĭ": 1799,
      "ong": 1800,
      "ä½Ĩæĺ¯": 1801,
      "ç´¢": 1802,
      "æĸ°çļĦ": 1803,
      "åĲ«": 1804,
      "so": 1805,
      "åıĳçİ°": 1806,
      "oci": 1807,
      "ï¼īãĢĤ": 1808,
      "éĢĢ": 1809,
      "æ³ķéĻ¢": 1810,
      "åĪ©çĽĬ": 1811,
      "ä¸ªäºº": 1812,
      "mun": 1813,
      "å½ķ": 1814,
      "æĿĤ": 1815,
      "Ġmic": 1816,
      "å°½": 1817,
      "ult": 1818,
      "å¨": 1819,
      "çĽ´æİ¥": 1820,
      "éľĢæ±Ĥ": 1821,
      "å¢ŀåĬł": 1822,
      "åħ¨åĽ½": 1823,
      "ĠĠĠĠĠĠĠĠĠĠĠĠ": 1824,
      "ome": 1825,
      "ä¹Łæĺ¯": 1826,
      "å·¥ä¸ļ": 1827,
      "æľ¨": 1828,
      "æĦıä¹ī": 1829,
      "ä»½": 1830,
      "æĺİç¡®": 1831,
      "å¼Ģåıĳ": 1832,
      "èĳĹ": 1833,
      "æľīåħ³": 1834,
      "æį¢": 1835,
      "é£Ł": 1836,
      "éĵ¾": 1837,
      "Ġincre": 1838,
      "åħ¨çĲĥ": 1839,
      "è®Ń": 1840,
      "Ġanti": 1841,
      "åĨ³å®ļ": 1842,
      "éĿ©åĳ½": 1843,
      "èĭ±": 1844,
      "Ġactiv": 1845,
      "ween": 1846,
      "æıĲåįĩ": 1847,
      "äººç±»": 1848,
      "ight": 1849,
      "åĪĳ": 1850,
      "è´¥": 1851,
      "ear": 1852,
      "çĥŃ": 1853,
      "çļĦéĩįè¦ģ": 1854,
      "æī§è¡Į": 1855,
      "å®¶åº·": 1856,
      "åħ¸": 1857,
      "åį´": 1858,
      "ãĢĤâĢĿ": 1859,
      "çķĻ": 1860,
      "éĢīæĭ©": 1861,
      "ven": 1862,
      "Ġdet": 1863,
      "ç§¯æŀģ": 1864,
      "Â·": 1865,
      "ä»ĺ": 1866,
      "ï¼Ł": 1867,
      "ç¨ĭåºı": 1868,
      "Ġbetween": 1869,
      "èĹ¤": 1870,
      "çĬ¯": 1871,
      "tim": 1872,
      "å¡": 1873,
      "ose": 1874,
      "ç©ºéĹ´": 1875,
      "ĠTh": 1876,
      "]\\].": 1877,
      "tein": 1878,
      "Ġwhe": 1879,
      "ä½Ĳ": 1880,
      "èĮĥåĽ´": 1881,
      "æĮģç»Ń": 1882,
      "è¿Ľä¸ĢæŃ¥": 1883,
      "å¢ŀéķ¿": 1884,
      "200": 1885,
      "ç»¼åĲĪ": 1886,
      "ä¸ºäºĨ": 1887,
      "æĤ£": 1888,
      "åħ¶ä¸Ń": 1889,
      "æĿī": 1890,
      "äºĪ": 1891,
      "ãĢĢ": 1892,
      "éĩįå¤§": 1893,
      "ates": 1894,
      "é¢Ŀ": 1895,
      "å¾ĹåĪ°": 1896,
      "ach": 1897,
      "åĮĸçļĦ": 1898,
      "åį±": 1899,
      "æŀĹ": 1900,
      "å¯¼èĩ´": 1901,
      "ä¹±": 1902,
      "form": 1903,
      "æĹ¢": 1904,
      "éģĹ": 1905,
      "äººæīį": 1906,
      "ection": 1907,
      "éĵ¶": 1908,
      "ak": 1909,
      "è¯Ħä»·": 1910,
      "æı¡": 1911,
      "Ġlevel": 1912,
      "ä½ı": 1913,
      "å®¶èĩ£": 1914,
      "Ġ-": 1915,
      "æĿ¥çļĦ": 1916,
      "é©¬åħĭ": 1917,
      "å¤§åŃ¦": 1918,
      "å¾·å·Ŀ": 1919,
      "æ¹": 1920,
      "ä»Ģ": 1921,
      "Ġind": 1922,
      "å¼ĢæĶ¾": 1923,
      "lud": 1924,
      "çĶŁçī©": 1925,
      "ä¸ĢèĪ¬": 1926,
      "rib": 1927,
      "Ġmay": 1928,
      "ç«ŀ": 1929,
      "æĽ¾": 1930,
      "è¿½": 1931,
      "è¯»": 1932,
      "ç«¯": 1933,
      "åħ³éĶ®": 1934,
      "éĴĪ": 1935,
      "å¦Ĥä½ķ": 1936,
      "Ġsc": 1937,
      "port": 1938,
      "å°Ķ": 1939,
      "rac": 1940,
      "å´": 1941,
      "å¹ķ": 1942,
      "Ġexpression": 1943,
      "å°Ħ": 1944,
      "30": 1945,
      "å¼Ģå±ķ": 1946,
      "èİ·å¾Ĺ": 1947,
      "é©¬åħĭæĢĿ": 1948,
      "Ġalso": 1949,
      "å¸ģ": 1950,
      "è´¸": 1951,
      "cer": 1952,
      "å®ŀéªĮ": 1953,
      "21": 1954,
      "Ġen": 1955,
      "å¤©æŃ£": 1956,
      "åĽłç´ł": 1957,
      "ä¸ĢäºĽ": 1958,
      "Ġsignific": 1959,
      "çīĪ": 1960,
      "åģ¿": 1961,
      "æİª": 1962,
      "Ġcor": 1963,
      "é¥": 1964,
      "çī¹å¾ģ": 1965,
      "ugh": 1966,
      "lo": 1967,
      "æĿĥåĪ©": 1968,
      "è¿ĩç¨ĭä¸Ń": 1969,
      "erm": 1970,
      "åºĨ": 1971,
      "åħ¬åħ±": 1972,
      "ä¼°": 1973,
      "],": 1974,
      "ç»ıèĲ¥": 1975,
      "ä½Ļ": 1976,
      "è¿Ŀ": 1977,
      "our": 1978,
      "åıĳæĮ¥": 1979,
      "uld": 1980,
      "ech": 1981,
      "ä»Ģä¹Ī": 1982,
      "Ġdise": 1983,
      "50": 1984,
      "Ġph": 1985,
      "ä»»åĬ¡": 1986,
      "ulation": 1987,
      "éķĩ": 1988,
      "Ġthese": 1989,
      "åĮºåŁŁ": 1990,
      "ä¸ĬæĿī": 1991,
      "è¡¨çİ°": 1992,
      "å·¦": 1993,
      "alth": 1994,
      "è¿Ľåħ¥": 1995,
      "Ġhas": 1996,
      "ä¹Ĳ": 1997,
      "åħħåĪĨ": 1998,
      "æ¶ī": 1999,
      "çĮ®": 2000,
      "ied": 2001,
      "Ġanalys": 2002,
      "å°ģ": 2003,
      "æĪĲæľ¬": 2004,
      "åħ±äº§": 2005,
      "ected": 2006,
      "æ½": 2007,
      "è®²": 2008,
      "èĭ¥": 2009,
      "æĻºèĥ½": 2010,
      "Ġbeen": 2011,
      "èı": 2012,
      "Ġusing": 2013,
      "èģļ": 2014,
      "ä¹ĭæĪĺ": 2015,
      "ä¸¤ä¸ª": 2016,
      "æ¨¡åŀĭ": 2017,
      "The": 2018,
      "æ¸¸": 2019,
      "Ġgroup": 2020,
      "çĶ²": 2021,
      "Ġdata": 2022,
      "åĢŁ": 2023,
      "Ġca": 2024,
      "Ġpres": 2025,
      "Ġinv": 2026,
      "åĨľæĿĳ": 2027,
      "ä¸ŃåĽ½çī¹èī²": 2028,
      "èĥĮ": 2029,
      "ual": 2030,
      "èģĮä¸ļ": 2031,
      "ç¬¦": 2032,
      "è§ĦèĮĥ": 2033,
      "åĲĦç§į": 2034,
      "yt": 2035,
      "ound": 2036,
      "ï¼ļâĢľ": 2037,
      "æľĽ": 2038,
      "ç¦ı": 2039,
      "Ġcons": 2040,
      "æ¤": 2041,
      "ç»Ŀ": 2042,
      "èµĦäº§": 2043,
      "æīĢä»¥": 2044,
      "rap": 2045,
      "éĥ¡": 2046,
      "æĸĩæĺİ": 2047,
      "å»¶": 2048,
      "éĶĢ": 2049,
      "Ġrel": 2050,
      "åŁºäºİ": 2051,
      "25": 2052,
      "ç¡®å®ļ": 2053,
      "çĽĽ": 2054,
      "Ġsignificant": 2055,
      "å®£": 2056,
      "è¿Ļæł·": 2057,
      "iti": 2058,
      "æĿĢ": 2059,
      "æ¶Īè´¹": 2060,
      "çīĩ": 2061,
      "åŃ¦æł¡": 2062,
      "Ġ{": 2063,
      "æĵį": 2064,
      "Ġ([@": 2065,
      "è¿ĳå¹³": 2066,
      "ç»§æī¿": 2067,
      "åºķ": 2068,
      "è¡¡": 2069,
      "ä¹łè¿ĳå¹³": 2070,
      "ases": 2071,
      "å°¾": 2072,
      "rain": 2073,
      "è§ī": 2074,
      "åĪ»": 2075,
      "è§ĦåĪĴ": 2076,
      "reatment": 2077,
      "è®¡åĪĴ": 2078,
      "str": 2079,
      "Ġ7": 2080,
      "åıĭ": 2081,
      "éŁ³": 2082,
      "äº¡": 2083,
      "éļĨ": 2084,
      "Ġy": 2085,
      "ew": 2086,
      "äºĳ": 2087,
      "å£°": 2088,
      "22": 2089,
      "è®¤è¯Ĩ": 2090,
      "éĩįçĤ¹": 2091,
      "ä»ĵ": 2092,
      "æ¯ĽåĪ©": 2093,
      "Ġprotein": 2094,
      "çļĦå¤§": 2095,
      "one": 2096,
      "éĿĴ": 2097,
      "ä¸įä»ħ": 2098,
      "æİĪ": 2099,
      "å¹³åı°": 2100,
      "ä»İèĢĮ": 2101,
      "fter": 2102,
      "æĦıè¯Ĩ": 2103,
      "è¯¸": 2104,
      "æ¼Ķ": 2105,
      "åľŁåľ°": 2106,
      "åĨ²": 2107,
      "çĨ": 2108,
      "velop": 2109,
      "ç¢³": 2110,
      "ens": 2111,
      "è§Ħæ¨¡": 2112,
      "é¼": 2113,
      "çº²": 2114,
      "ç¿": 2115,
      "ility": 2116,
      "æ¦Ĥå¿µ": 2117,
      "Ġsur": 2118,
      "Ġused": 2119,
      "é²": 2120,
      "åıĸå¾Ĺ": 2121,
      "åĽ°": 2122,
      "ç¨ĭåº¦": 2123,
      "ç¦Ħ": 2124,
      "éļıçĿĢ": 2125,
      "å®¶çļĦ": 2126,
      "æĺ¯åĲ¦": 2127,
      "æŀĦå»º": 2128,
      "æĿĲæĸĻ": 2129,
      "åĢĻ": 2130,
      "åĲ¸": 2131,
      "ä¹ĭéĹ´çļĦ": 2132,
      "çİ°ä»£åĮĸ": 2133,
      "å¾ħ": 2134,
      "å¼Ł": 2135,
      "ä¹ĭä¸Ģ": 2136,
      "Ġall": 2137,
      "ç«ŀäºī": 2138,
      "å®ĮæĪĲ": 2139,
      "ä¼Ł": 2140,
      "çĽ®åīį": 2141,
      "èĥ½æºĲ": 2142,
      "ating": 2143,
      "tional": 2144,
      "éĩĩçĶ¨": 2145,
      "å¾¡": 2146,
      "åĤ¨": 2147,
      "èĹı": 2148,
      "çī¹åĪ«": 2149,
      "åĪĽéĢł": 2150,
      "è£ģ": 2151,
      "ä¸ĸçºª": 2152,
      "æľºåħ³": 2153,
      "æĲ": 2154,
      "Ġrespon": 2155,
      "Ġinclud": 2156,
      "ç£": 2157,
      "Ġun": 2158,
      "åįĬ": 2159,
      "ros": 2160,
      "æĮĩå¯¼": 2161,
      "ults": 2162,
      "lec": 2163,
      "è¿ĲåĬ¨": 2164,
      "å¾Ħ": 2165,
      "çĸ«": 2166,
      "åºŃ": 2167,
      "åºĵ": 2168,
      "âĪ": 2169,
      "uch": 2170,
      "çĲĨè§£": 2171,
      "ass": 2172,
      "æ¸©": 2173,
      "ects": 2174,
      "åĪ¶éĢł": 2175,
      "æħ": 2176,
      "æ¯Ķè¾ĥ": 2177,
      "çļĦäºº": 2178,
      "çĶ³": 2179,
      "Ġother": 2180,
      "åı³": 2181,
      "äºļ": 2182,
      "åĮĹæĿ¡": 2183,
      "æīĺ": 2184,
      ".\"": 2185,
      "æĴŃ": 2186,
      "ä½ĵçİ°": 2187,
      "çĦ¶èĢĮ": 2188,
      "oth": 2189,
      "åľ°ä½į": 2190,
      "æµĵ": 2191,
      "åıĬåħ¶": 2192,
      "ä¹ĭåĲİ": 2193,
      "âĳ": 2194,
      "Ġmed": 2195,
      "Ġ20": 2196,
      "èĬ±": 2197,
      "æĪĺåĽ½": 2198,
      "è´«": 2199,
      "æ°ĳä¸»": 2200,
      "æ³ķæ²»": 2201,
      "Ġpos": 2202,
      "Ġcontrol": 2203,
      "ç»ıéªĮ": 2204,
      "ĠV": 2205,
      "å§Ķåĳĺ": 2206,
      "osis": 2207,
      "ely": 2208,
      "åĽ½åĨħ": 2209,
      "èĨ": 2210,
      "Ġsam": 2211,
      "stem": 2212,
      "Ġund": 2213,
      "è½»": 2214,
      "è¾¾åĪ°": 2215,
      "Ġassoci": 2216,
      "out": 2217,
      "Ġsup": 2218,
      "è¡Įä¸ļ": 2219,
      "è®¼": 2220,
      "éī": 2221,
      "ç±³": 2222,
      "duced": 2223,
      "éĥİ": 2224,
      "éī´": 2225,
      "ang": 2226,
      "ä¼¼": 2227,
      "éĿł": 2228,
      "çĶ¨äºİ": 2229,
      "è¿Ļæĺ¯": 2230,
      "éĻĦ": 2231,
      "çģ«": 2232,
      "Ġthan": 2233,
      "ree": 2234,
      "Ġtreatment": 2235,
      "Ġ10": 2236,
      "Ġdevelop": 2237,
      "è´¸æĺĵ": 2238,
      "Ġfact": 2239,
      "äº¤æĺĵ": 2240,
      "çĽ®çļĦ": 2241,
      "æĦ¿": 2242,
      "æĬ¥åĳĬ": 2243,
      "å®ª": 2244,
      "ĠÂ": 2245,
      "ä¸ŃåĽ½çī¹èī²ç¤¾ä¼ļä¸»ä¹ī": 2246,
      "çĶļ": 2247,
      "è¯īè®¼": 2248,
      "çĽĳçĿ£": 2249,
      "ard": 2250,
      "æĸ¹åĲĳ": 2251,
      "ä½ĵåĪ¶": 2252,
      "æķĮ": 2253,
      "éĢģ": 2254,
      "æĮĩåĩº": 2255,
      "æ²»çĸĹ": 2256,
      "çº¢": 2257,
      "Ġro": 2258,
      "Ġacc": 2259,
      "æ±ī": 2260,
      "åģ¥åº·": 2261,
      "æİªæĸ½": 2262,
      "è¶³åĪ©": 2263,
      "éĺ³": 2264,
      "åłĤ": 2265,
      "éĢłæĪĲ": 2266,
      "åĽŃ": 2267,
      "æİĮ": 2268,
      "èĻĳ": 2269,
      "ç´§": 2270,
      "ä»¥ä¸ĭ": 2271,
      "80": 2272,
      "èĩªçĶ±": 2273,
      "æĮīçħ§": 2274,
      "å½ĵæĹ¶": 2275,
      "ç¨³å®ļ": 2276,
      "Ġ9": 2277,
      "Ġ{#": 2278,
      "çī¹çĤ¹": 2279,
      "å¹ķåºľ": 2280,
      "23": 2281,
      "çļĩ": 2282,
      "åį°": 2283,
      "ä¼¤": 2284,
      "ox": 2285,
      "Ġam": 2286,
      "éķ¿æľŁ": 2287,
      "Ġvari": 2288,
      "çĶ»": 2289,
      "èĩªå·±çļĦ": 2290,
      "æĶ¶åħ¥": 2291,
      "Ġno": 2292,
      "anc": 2293,
      "âĢĶâĢĶ": 2294,
      "Ġag": 2295,
      "ever": 2296,
      "Ġstudies": 2297,
      "æł¹æľ¬": 2298,
      "è®¾å¤ĩ": 2299,
      "gen": 2300,
      "å°ļ": 2301,
      "inical": 2302,
      "40": 2303,
      "Ġmore": 2304,
      "ç»¿": 2305,
      "è´Ń": 2306,
      "ä¼ĺåĬ¿": 2307,
      "Ġdisease": 2308,
      "Ġman": 2309,
      "Ġtum": 2310,
      "åĬ±": 2311,
      "Ġspec": 2312,
      "çŁŃ": 2313,
      "é©¬åħĭæĢĿä¸»ä¹ī": 2314,
      "Ġ\"": 2315,
      "Ġsp": 2316,
      "ä»¥æĿ¥": 2317,
      "æľĢç»Ī": 2318,
      "ack": 2319,
      "æ±¡": 2320,
      "Ġtheir": 2321,
      "å¼ºè°ĥ": 2322,
      "Ġar": 2323,
      "Ġhigh": 2324,
      "Ġfunc": 2325,
      "æľīçļĦ": 2326,
      "æ¯Ĵ": 2327,
      "hib": 2328,
      "æĪĲæŀľ": 2329,
      "è¯į": 2330,
      "ogen": 2331,
      "æĺ¯åľ¨": 2332,
      "æĸ¹æ¡Ī": 2333,
      "çĪ±": 2334,
      "Ġanalysis": 2335,
      "ä¾ĭå¦Ĥ": 2336,
      "éĻ·": 2337,
      "æĤ£èĢħ": 2338,
      "æĽ´åĬł": 2339,
      "Ġcol": 2340,
      "æŀ¶": 2341,
      "åĬĽéĩı": 2342,
      "åĪ¶å®ļ": 2343,
      "Ġunder": 2344,
      "cl": 2345,
      "æĵįä½ľ": 2346,
      "å¨ģ": 2347,
      "åĿĹ": 2348,
      "åħ±äº§åħļ": 2349,
      "Ġdes": 2350,
      "éĻĨ": 2351,
      "éĶĻ": 2352,
      "çĹĩ": 2353,
      "åŃ¦ç§ĳ": 2354,
      "Ġbut": 2355,
      "ç¾¤ä¼Ĺ": 2356,
      "]).": 2357,
      "æ³Ľ": 2358,
      "åĽ½çļĦ": 2359,
      "Ġtim": 2360,
      "å¾ª": 2361,
      "Ġmodel": 2362,
      "è´¯": 2363,
      "é¡º": 2364,
      "Ġel": 2365,
      "åĲĪçĲĨ": 2366,
      "æ¤į": 2367,
      "äººä»¬": 2368,
      "åİŁåĽł": 2369,
      "æĭī": 2370,
      "å¢ŀå¼º": 2371,
      "Ġcar": 2372,
      "ne": 2373,
      "æ¯į": 2374,
      "ric": 2375,
      "æĬµ": 2376,
      "èĽ": 2377,
      "èĴ": 2378,
      "tal": 2379,
      "å®«": 2380,
      "å¯¹è±¡": 2381,
      "ber": 2382,
      "æĢ¥": 2383,
      "çĭ¬ç«ĭ": 2384,
      "æ¬§": 2385,
      "èģĶç½ĳ": 2386,
      "ä¸Ģå®ļ": 2387,
      "Ġpath": 2388,
      "ism": 2389,
      "éĵ¶è¡Į": 2390,
      "çļĦåŁºæľ¬": 2391,
      "24": 2392,
      "ater": 2393,
      "ide": 2394,
      "åıĹåĪ°": 2395,
      "arg": 2396,
      "äº¿": 2397,
      "çı": 2398,
      "é¢ĳ": 2399,
      "çĬ¶æĢģ": 2400,
      "Ġimmun": 2401,
      "ĠK": 2402,
      "Ġafter": 2403,
      "èĢĮä¸Ķ": 2404,
      "ile": 2405,
      "wo": 2406,
      "Ġgene": 2407,
      "åħ¼": 2408,
      "è¡¨ç¤º": 2409,
      "çĻ»": 2410,
      "lu": 2411,
      "Ġhealth": 2412,
      "æı´": 2413,
      "der": 2414,
      "å¤«": 2415,
      "Ġdec": 2416,
      "uring": 2417,
      "æĿŁ": 2418,
      "è¯¯": 2419,
      "ä¿Ŀè¯ģ": 2420,
      "çĶµåŃĲ": 2421,
      "ä»»ä½ķ": 2422,
      "æĹłæ³ķ": 2423,
      "èīºæľ¯": 2424,
      "è§£éĩĬ": 2425,
      "äºĮåįģ": 2426,
      "æĢ§åĴĮ": 2427,
      "å»ºçŃĳ": 2428,
      "ä¿ĿéĻ©": 2429,
      "å¥ī": 2430,
      "éģ¿": 2431,
      "entif": 2432,
      "çĽŁ": 2433,
      "Ġqu": 2434,
      "èĦ±": 2435,
      "è½¯": 2436,
      "è¯Ħä¼°": 2437,
      "æķ£": 2438,
      "Ġout": 2439,
      "éĢĶ": 2440,
      "æ¸Ĳ": 2441,
      "éļĲ": 2442,
      "åĬĽçļĦ": 2443,
      "æŀĦæĪĲ": 2444,
      "ures": 2445,
      "åıªæľī": 2446,
      "ser": 2447,
      "ç§ģ": 2448,
      "æĸ°æĹ¶ä»£": 2449,
      "åı¸æ³ķ": 2450,
      "ç«Ļ": 2451,
      "æĭŁ": 2452,
      "æĺ¯æĮĩ": 2453,
      "ĠThis": 2454,
      "çļĦåŁºç¡Ģ": 2455,
      "åĨħéĥ¨": 2456,
      "å¥ĭ": 2457,
      "éĥ½æĺ¯": 2458,
      "è´º": 2459,
      "è¾ĳ": 2460,
      "å°¼": 2461,
      "isk": 2462,
      "ä¸ļåĬ¡": 2463,
      "å¤įæĿĤ": 2464,
      "atory": 2465,
      "å²ģ": 2466,
      "èĻ½çĦ¶": 2467,
      "çĽ¸å¯¹": 2468,
      "ç§°ä¸º": 2469,
      "ä¸Ģæĸ¹éĿ¢": 2470,
      "tain": 2471,
      "iss": 2472,
      "ä¾§": 2473,
      "å®½": 2474,
      "Ġ8": 2475,
      "ork": 2476,
      "å±ĭ": 2477,
      "çļĦéĹ®é¢ĺ": 2478,
      "ä»¥ä¸Ĭ": 2479,
      "çī©è´¨": 2480,
      "uman": 2481,
      "ä¸¥éĩį": 2482,
      "çĽ¸äºĴ": 2483,
      "ç»ĦæĪĲ": 2484,
      "Ġstr": 2485,
      "çĬ¯ç½ª": 2486,
      "æĹ§": 2487,
      "è´Łè´£": 2488,
      "å«": 2489,
      "éĵģ": 2490,
      "é¾Ļ": 2491,
      "ni": 2492,
      "de": 2493,
      "å±ŀäºİ": 2494,
      "Ġsystem": 2495,
      "Ġlevels": 2496,
      "ared": 2497,
      "ays": 2498,
      "Ġcancer": 2499,
      "é»ĳ": 2500,
      "ail": 2501,
      "å®Įåħ¨": 2502,
      "ä¼ļè®®": 2503,
      "ä¸°èĩ£": 2504,
      "ten": 2505,
      "60": 2506,
      "yl": 2507,
      "è¯Ńè¨Ģ": 2508,
      "è®¸å¤ļ": 2509,
      "çİ°å®ŀ": 2510,
      "æĺŁ": 2511,
      "å±¥": 2512,
      "æĺ¥": 2513,
      "æ±ł": 2514,
      "Ġval": 2515,
      "ized": 2516,
      "èĢĥèĻĳ": 2517,
      "Ġmo": 2518,
      "ons": 2519,
      "Ġid": 2520,
      "èĭı": 2521,
      "æ³½": 2522,
      "å¹´çļĦ": 2523,
      "åīĤ": 2524,
      "æ±ĩ": 2525,
      "vely": 2526,
      "å§Ķåĳĺä¼ļ": 2527,
      "å³": 2528,
      "åºĶè¯¥": 2529,
      "âĪĴ": 2530,
      "äºĭä»¶": 2531,
      "æ´²": 2532,
      "èĩªèº«": 2533,
      "è´§å¸ģ": 2534,
      "äºĭä¸ļ": 2535,
      "è®¢": 2536,
      "åģĩ": 2537,
      "amm": 2538,
      "ç¹": 2539,
      "åĬłå¿«": 2540,
      ",\"": 2541,
      "ä¹īåĬ¡": 2542,
      "è¶ĭ": 2543,
      "ues": 2544,
      "è´¢äº§": 2545,
      "è¡ĮåĬ¨": 2546,
      "ç»´æĬ¤": 2547,
      "inal": 2548,
      "æĭ¥": 2549,
      "æĶ¹åıĺ": 2550,
      "ological": 2551,
      "è°Ī": 2552,
      "æİ¢ç´¢": 2553,
      "è°ĥæķ´": 2554,
      "ä¸įåı¯": 2555,
      "çļĦå½±åĵį": 2556,
      "ä¼Łå¤§": 2557,
      "å©": 2558,
      "èĦĳ": 2559,
      "Ġfol": 2560,
      "Ġlow": 2561,
      "per": 2562,
      "rec": 2563,
      "ined": 2564,
      "ç»ĥ": 2565,
      "RNA": 2566,
      "Ġsuch": 2567,
      "è®¾æĸ½": 2568,
      "æĻ´": 2569,
      "è¿Ĳè¡Į": 2570,
      "èĻļ": 2571,
      "åĲİçļĦ": 2572,
      "å°ĨåĨĽ": 2573,
      "Ġli": 2574,
      "ä¸įåĲĮçļĦ": 2575,
      "æī¿æĭħ": 2576,
      "ï¼ĮâĢľ": 2577,
      "ç¯": 2578,
      "ä½ľåĩº": 2579,
      "ç¹ģ": 2580,
      "äºĭå®ŀ": 2581,
      "è¿ĲçĶ¨": 2582,
      "å¥½çļĦ": 2583,
      "Ġhyp": 2584,
      "cess": 2585,
      "éĻįä½İ": 2586,
      "åĩıå°ĳ": 2587,
      "çĶº": 2588,
      "åŁºåĽł": 2589,
      "Ġmeas": 2590,
      "ym": 2591,
      "èŀįåĲĪ": 2592,
      "åĲ¯": 2593,
      "å¼±": 2594,
      "rel": 2595,
      "éħ¸": 2596,
      "è°·": 2597,
      "atic": 2598,
      "acter": 2599,
      "27": 2600,
      "Ġclinical": 2601,
      "èģĶåĲĪ": 2602,
      "Ġser": 2603,
      "æīįèĥ½": 2604,
      "éĴĪå¯¹": 2605,
      "éĺ¿": 2606,
      "ron": 2607,
      "æ·±åħ¥": 2608,
      "å·¨": 2609,
      "æĪĲç«ĭ": 2610,
      "çļĦçłĶç©¶": 2611,
      "èµĦéĩĳ": 2612,
      "éĩĩåıĸ": 2613,
      "ç»§ç»Ń": 2614,
      "çĽ¾": 2615,
      "Ġ**": 2616,
      "Ġresults": 2617,
      "æĺł": 2618,
      "çĺ": 2619,
      "åĨ³çŃĸ": 2620,
      "å±±åŁİ": 2621,
      "çģŃ": 2622,
      "ä½ĵçļĦ": 2623,
      "èģĶç³»": 2624,
      "ild": 2625,
      "ç±»åŀĭ": 2626,
      "CA": 2627,
      "éº": 2628,
      "éģŃ": 2629,
      "In": 2630,
      "ï¼İ": 2631,
      "çĲĨå¿µ": 2632,
      "çĶļèĩ³": 2633,
      "æĺİæĺ¾": 2634,
      "åĨľæ°ĳ": 2635,
      "Ġover": 2636,
      "Ġperform": 2637,
      "Ġtwo": 2638,
      "Ġboth": 2639,
      "æ¡Īä»¶": 2640,
      "å½ĵäºĭ": 2641,
      "äººæ°ĳæ³ķéĻ¢": 2642,
      "ä¿ĿæĮģ": 2643,
      "ry": 2644,
      "æ¶²": 2645,
      "als": 2646,
      "é»Ħ": 2647,
      "å¸®": 2648,
      "çĸ¾": 2649,
      "è°ĭ": 2650,
      "æĪĲåĬŁ": 2651,
      "æķĳ": 2652,
      "90": 2653,
      "å¹¸": 2654,
      "åįļ": 2655,
      "ä¹¡æĿĳ": 2656,
      "owever": 2657,
      "agn": 2658,
      "'s": 2659,
      "cept": 2660,
      "éģĩ": 2661,
      "å¤§åĲį": 2662,
      "èĢħçļĦ": 2663,
      "ä¾Ŀæį®": 2664,
      "ology": 2665,
      "tern": 2666,
      "hem": 2667,
      "éĩįè¦ģçļĦ": 2668,
      "çłģ": 2669,
      "æķĪçİĩ": 2670,
      "æŃ¤å¤ĸ": 2671,
      "ä¸ĭçļĦ": 2672,
      "çĽĳç®¡": 2673,
      "Ġpartic": 2674,
      "éĺ»": 2675,
      "Ġwill": 2676,
      "ark": 2677,
      "ä¹¦è®°": 2678,
      "cent": 2679,
      "ç½Ĺ": 2680,
      "æīĭæ®µ": 2681,
      "ting": 2682,
      "è¿ĺæĺ¯": 2683,
      "åıįåºĶ": 2684,
      "æĽ²": 2685,
      "ĠÎ": 2686,
      "é¦ĸåħĪ": 2687,
      "Ġbi": 2688,
      "çº·": 2689,
      "hed": 2690,
      "own": 2691,
      "çŁĽ": 2692,
      "è¾ī": 2693,
      "å®ĪæĬ¤": 2694,
      "é¸": 2695,
      "å®ĩ": 2696,
      "26": 2697,
      "æľªæĿ¥": 2698,
      "28": 2699,
      "äºĨè§£": 2700,
      "ç½ļ": 2701,
      "æĿĥçļĦ": 2702,
      ".,": 2703,
      "Ġmice": 2704,
      "æ··": 2705,
      "###": 2706,
      "å¹¿æ³Ľ": 2707,
      "æĽ´å¤ļ": 2708,
      "éĩıçļĦ": 2709,
      "çŃĶ": 2710,
      "çİ°è±¡": 2711,
      "æİ¥åıĹ": 2712,
      "70": 2713,
      "åįıè°ĥ": 2714,
      "Ġinhib": 2715,
      "æłĳ": 2716,
      "åºĬ": 2717,
      "rim": 2718,
      "æİĮæı¡": 2719,
      "plic": 2720,
      "ä»·æł¼": 2721,
      "Ġexper": 2722,
      "ç¾½": 2723,
      "åĪ°äºĨ": 2724,
      "åķĨä¸ļ": 2725,
      "Ġidentif": 2726,
      "è°±": 2727,
      "Ġrisk": 2728,
      "èįī": 2729,
      "èĻİ": 2730,
      "Ġappro": 2731,
      "çļĦæĸ°": 2732,
      "Ġmeth": 2733,
      "æĿ¿": 2734,
      "æ¥": 2735,
      "è°ĥæŁ¥": 2736,
      "ä¹°": 2737,
      "çŁĽçĽ¾": 2738,
      "ç¬¦åĲĪ": 2739,
      "ä¼ĺåĮĸ": 2740,
      "æĪĺäºī": 2741,
      "è·¨": 2742,
      "ble": 2743,
      "æŃ£ç¡®": 2744,
      "ĠJ": 2745,
      "åĵ²": 2746,
      "è¯Ĺ": 2747,
      "éĿŀå¸¸": 2748,
      "inding": 2749,
      "éĽĨä¸Ń": 2750,
      "è´·": 2751,
      "ä¸ŃåĽ½åħ±äº§åħļ": 2752,
      "ĠÂ±": 2753,
      "ok": 2754,
      "ond": 2755,
      "æ°§": 2756,
      "çĶ³è¯·": 2757,
      "åįıè®®": 2758,
      "è°ĵ": 2759,
      "Ġnum": 2760,
      "Ġtime": 2761,
      "Ġhuman": 2762,
      "æĮ¯": 2763,
      "è§ĦåĪĻ": 2764,
      "ä¾Ŀæ³ķ": 2765,
      "è§Ħå¾ĭ": 2766,
      "ormal": 2767,
      "å¼ķå¯¼": 2768,
      "ĠWe": 2769,
      "ici": 2770,
      "åĪĨéħį": 2771,
      "å½»": 2772,
      "çģµ": 2773,
      "ç»ĩçĶ°ä¿¡éķ¿": 2774,
      "çĶ¨æĪ·": 2775,
      "ç³»åĪĹ": 2776,
      "æķ´ä½ĵ": 2777,
      "tical": 2778,
      "è®¿": 2779,
      "\".": 2780,
      "æĦıè§ģ": 2781,
      "è¦ģç´ł": 2782,
      "èµ·æĿ¥": 2783,
      "ered": 2784,
      "æĢĿç»´": 2785,
      "èĹ©": 2786,
      "Ġfollow": 2787,
      "pit": 2788,
      "å°Ĭ": 2789,
      "æľŁéĹ´": 2790,
      "å¤©æĸĩ": 2791,
      "\"}).": 2792,
      "è¿«": 2793,
      "äººåı£": 2794,
      "å¹¶ä¸Ķ": 2795,
      "Ġassociated": 2796,
      "ines": 2797,
      "çĸĳ": 2798,
      "æıı": 2799,
      "å¿ĥçĲĨ": 2800,
      "ä½ł": 2801,
      "Ġone": 2802,
      "Ġinto": 2803,
      "Ġduring": 2804,
      "å½¹": 2805,
      "æĥħåĨµä¸ĭ": 2806,
      "è´¢æĶ¿": 2807,
      "use": 2808,
      "èĪª": 2809,
      "29": 2810,
      "é¦Ĩ": 2811,
      "Ġmon": 2812,
      "å°¤": 2813,
      "ç«¥": 2814,
      "éĻĲåĪ¶": 2815,
      "çľ¼": 2816,
      "Ġprovid": 2817,
      "Ġdifferent": 2818,
      "æıĲä¾ĽäºĨ": 2819,
      "é²ľ": 2820,
      "ord": 2821,
      "è¯ģæĺİ": 2822,
      "Ġindic": 2823,
      "éģĵè·¯": 2824,
      "Ġpresent": 2825,
      "Ġuse": 2826,
      "Ġprog": 2827,
      "ĠAl": 2828,
      "åħ³æ³¨": 2829,
      "hen": 2830,
      "éĢĤåºĶ": 2831,
      "100": 2832,
      "ç»¿èī²": 2833,
      "ace": 2834,
      "åĢºåĬ¡": 2835,
      "ä¹İ": 2836,
      "158": 2837,
      "ants": 2838,
      "åĶ®": 2839,
      "Ġobser": 2840,
      "éĹ»": 2841,
      "éĢĥ": 2842,
      "ãĤ": 2843,
      "Ġsug": 2844,
      "å¼ĺ": 2845,
      "Ġrep": 2846,
      "éĢļå¸¸": 2847,
      "æľ«": 2848,
      "Ġform": 2849,
      "ä¸įå¾Ĺ": 2850,
      "åģı": 2851,
      "ould": 2852,
      "éĨ": 2853,
      "èĢĮæĺ¯": 2854,
      "æľĢåĲİ": 2855,
      "å±¥è¡Į": 2856,
      "æ®Ĭ": 2857,
      "åĪĨåĪ«": 2858,
      "%)": 2859,
      "åķĨåĵģ": 2860,
      "æ»¡è¶³": 2861,
      "çļĦä¸»è¦ģ": 2862,
      "è¡¨è¾¾": 2863,
      "ç¬Ķ": 2864,
      "åĮ»çĸĹ": 2865,
      "èĽĭ": 2866,
      "çİĦ": 2867,
      "äº¬éĥ½": 2868,
      "äºĴèģĶç½ĳ": 2869,
      "åĪĨä¸º": 2870,
      "CT": 2871,
      "å¸Ŀ": 2872,
      "GF": 2873,
      "çĽĸ": 2874,
      "æķĪæŀľ": 2875,
      "Ġfound": 2876,
      "ä¸Ńåįİæ°ĳæĹı": 2877,
      "Ġdef": 2878,
      "æ²¿": 2879,
      "ç½²": 2880,
      "è¯·æ±Ĥ": 2881,
      "âĢ¦": 2882,
      "èĦī": 2883,
      "åľ¨äºİ": 2884,
      "Ġtiss": 2885,
      "æĮĳ": 2886,
      "åºĦ": 2887,
      "é¼ĵ": 2888,
      "duction": 2889,
      "åĪĨåŃĲ": 2890,
      "æ³ķè§Ħ": 2891,
      "çĵ": 2892,
      "å¼ºåĮĸ": 2893,
      "æ¶īåıĬ": 2894,
      "åª": 2895,
      "Ġsugg": 2896,
      "é£ŀ": 2897,
      "ç»ıè¿ĩ": 2898,
      "Ġexam": 2899,
      "å½ĵåīį": 2900,
      "æľĢé«ĺ": 2901,
      "å·¥åħ·": 2902,
      "å½ĵäºĭäºº": 2903,
      "åĲ¬": 2904,
      "éģĵå¾·": 2905,
      "Ġeach": 2906,
      "æ´ĭ": 2907,
      "ĠCD": 2908,
      "éĢĤçĶ¨": 2909,
      "Ġnon": 2910,
      "art": 2911,
      "æĺĮ": 2912,
      "çŃ¹": 2913,
      "æī¾": 2914,
      "æ±¡æŁĵ": 2915,
      "ç«ĭæ³ķ": 2916,
      "æ°¸ç¦Ħ": 2917,
      "åıįæĺł": 2918,
      "æ°ıçļĦ": 2919,
      "è¯ģæį®": 2920,
      "ä¼Ĳ": 2921,
      "Ġup": 2922,
      "çŃ¾": 2923,
      "ç¼©": 2924,
      "è·Ŀ": 2925,
      "are": 2926,
      "æĸĩä»¶": 2927,
      "35": 2928,
      "åĵ²åŃ¦": 2929,
      "åı¶": 2930,
      "Ġem": 2931,
      "çī©çļĦ": 2932,
      "æī©å¤§": 2933,
      "ft": 2934,
      "SC": 2935,
      "å¸Į": 2936,
      "åĬ¿åĬĽ": 2937,
      "ization": 2938,
      "èĲ½å®ŀ": 2939,
      "è´ŀ": 2940,
      "Ġend": 2941,
      "è¾ħ": 2942,
      "å®ĥä»¬": 2943,
      "Ġincreased": 2944,
      "åģľ": 2945,
      "plement": 2946,
      "å¤º": 2947,
      "å¿ħè¦ģ": 2948,
      "è§ĤçĤ¹": 2949,
      "lood": 2950,
      "ration": 2951,
      "éª¨": 2952,
      "å½¢æĢģ": 2953,
      "èĪ¹": 2954,
      "ç¤¼": 2955,
      "éĢı": 2956,
      "æĿİ": 2957,
      "Ġ([": 2958,
      "è¿ģ": 2959,
      "Ġaut": 2960,
      "Ġ19": 2961,
      "å®¶åºŃ": 2962,
      "Ġet": 2963,
      "].": 2964,
      "éĢ»": 2965,
      "åĿĤ": 2966,
      "éģį": 2967,
      "è¡¨æĺİ": 2968,
      "ported": 2969,
      "æ¸¯": 2970,
      "Ġtherap": 2971,
      "éĹ®é¢ĺçļĦ": 2972,
      "dition": 2973,
      "åĪĨå¸ĥ": 2974,
      "åıĮæĸ¹": 2975,
      "æĺ¯ä¸Ģä¸ª": 2976,
      "èµĶ": 2977,
      "Ġhad": 2978,
      "pos": 2979,
      "æĮĩæłĩ": 2980,
      "ä¸¸": 2981,
      "åĩ½": 2982,
      "è¯´æĺİ": 2983,
      "157": 2984,
      "å¹´ä»£": 2985,
      "ä¼łæĴŃ": 2986,
      "å¹¼": 2987,
      "åĮĸåŃ¦": 2988,
      ":\"": 2989,
      "Ġsim": 2990,
      "åŃ¦çĶŁçļĦ": 2991,
      "åį·": 2992,
      "æķ´ä¸ª": 2993,
      "äºĨä¸Ģ": 2994,
      "cri": 2995,
      "urther": 2996,
      "é«ĺåº¦": 2997,
      "äº¤éĢļ": 2998,
      "æ½ľ": 2999,
      "èŃ": 3000,
      "ä¸°å¯Į": 3001,
      "mon": 3002,
      "éĢ»è¾ĳ": 3003,
      "æĢ§è´¨": 3004,
      "èµĦæĸĻ": 3005,
      "çĶ·": 3006,
      "åĳĪ": 3007,
      "èº«ä»½": 3008,
      "åĨĽäºĭ": 3009,
      "åĨĪ": 3010,
      "ç¥ĸ": 3011,
      "å¹´æĿ¥": 3012,
      "ç»©": 3013,
      "ç¬¬åĽĽ": 3014,
      "Ġour": 3015,
      "ç»Ĩå·Ŀ": 3016,
      "å§ĵ": 3017,
      "æ³¨æĦı": 3018,
      "SA": 3019,
      "èıĮ": 3020,
      "çĨŁ": 3021,
      "æĭħä»»": 3022,
      "Ġsec": 3023,
      "åªĴ": 3024,
      "å¹¶ä¸į": 3025,
      "æĿĥåĬĽ": 3026,
      "ute": 3027,
      "éģĤ": 3028,
      "Ġactivity": 3029,
      "å¼ķèµ·": 3030,
      "è´µ": 3031,
      "tit": 3032,
      "å®ŀè¡Į": 3033,
      "ex": 3034,
      "åŃĻ": 3035,
      "Ġcomple": 3036,
      "æĬĢèĥ½": 3037,
      "èĨľ": 3038,
      "èĽĭçĻ½": 3039,
      "çĽ¸åºĶ": 3040,
      "æŃ¦å°Ĩ": 3041,
      "æĸ¹éĿ¢çļĦ": 3042,
      "å·´": 3043,
      "çī¹æ®Ĭ": 3044,
      "med": 3045,
      "çĺ¤": 3046,
      "åĶ¯": 3047,
      "è´¡": 3048,
      "cc": 3049,
      "æ£Ģæµĭ": 3050,
      "æĽ¿": 3051,
      "æ£®": 3052,
      "åĽ½æ°ĳ": 3053,
      "ç¥ŀç»ı": 3054,
      "ä¸īä¸ª": 3055,
      "é¡¾": 3056,
      "æĢ»ä¹¦è®°": 3057,
      "åī§": 3058,
      "ç¦ģ": 3059,
      "Ġgener": 3060,
      "Ġrese": 3061,
      "05": 3062,
      "æĴ¤": 3063,
      "Ġtest": 3064,
      "ç»į": 3065,
      "Ġonly": 3066,
      "Ġ$": 3067,
      "è¶³åĪ©ä¹ī": 3068,
      "Ġcompared": 3069,
      "ĠSt": 3070,
      "ature": 3071,
      "æ·±åĮĸ": 3072,
      "è¥¿æĸ¹": 3073,
      "Ġmut": 3074,
      "othe": 3075,
      "ution": 3076,
      "åĪĨç±»": 3077,
      "çĥĪ": 3078,
      "çĶŁåĳ½": 3079,
      "å®ļä¹ī": 3080,
      "ç³»ç»ŁçļĦ": 3081,
      "ä»Ĭå·Ŀ": 3082,
      "æ¶µ": 3083,
      "åįģåħ«": 3084,
      "Ġsyn": 3085,
      "åĳ³": 3086,
      "ulated": 3087,
      "éĩįè§Ĩ": 3088,
      "å·®å¼Ĥ": 3089,
      "è¿Ķ": 3090,
      "ä¼ļè®¡": 3091,
      "æľīåĪ©": 3092,
      "åĲĽ": 3093,
      "å®¶çĿ£": 3094,
      "ç§Ł": 3095,
      "èĩªæĪĳ": 3096,
      "åįģäºĮ": 3097,
      "è¶ħè¿ĩ": 3098,
      "æ²¹": 3099,
      "rough": 3100,
      "è¯Ĭ": 3101,
      "Ġwell": 3102,
      "å°±ä¸ļ": 3103,
      "ody": 3104,
      "ock": 3105,
      "å¸®åĬ©": 3106,
      "Ġpot": 3107,
      "199": 3108,
      "Ġits": 3109,
      "è¿Ľç¨ĭ": 3110,
      "çī©çĲĨ": 3111,
      "åħĦ": 3112,
      "ç¡®ä¿Ŀ": 3113,
      "å¥¥": 3114,
      "echan": 3115,
      "åı¬": 3116,
      "æĺ¾ç¤º": 3117,
      "Ġmeasure": 3118,
      "ears": 3119,
      "ram": 3120,
      "åĮĹäº¬": 3121,
      "ability": 3122,
      "ä½ľèĢħ": 3123,
      "èĢĮè¨Ģ": 3124,
      "Ġdeterm": 3125,
      "å²©": 3126,
      "Ġtumor": 3127,
      "ments": 3128,
      "Ġrem": 3129,
      "æĿ¥è¯´": 3130,
      "Ġblood": 3131,
      "åºŁ": 3132,
      "ç¼ĵ": 3133,
      "ä¹ı": 3134,
      "Ġdem": 3135,
      "è½¯ä»¶": 3136,
      "reg": 3137,
      "æģ¶": 3138,
      "rent": 3139,
      "èĤ¿": 3140,
      "æ¾": 3141,
      "éĢĲæ¸Ĳ": 3142,
      "Ġpatient": 3143,
      "çļĦåİĨåı²": 3144,
      "Ġmethod": 3145,
      "Ġdiagn": 3146,
      "Ġresear": 3147,
      "ational": 3148,
      "å»ºè®®": 3149,
      "ces": 3150,
      "Ġmin": 3151,
      "æľĢå¤§": 3152,
      "å²Ľæ´¥": 3153,
      "ential": 3154,
      "åĬ¨åĬĽ": 3155,
      "æĪĺåĽ½æĹ¶ä»£": 3156,
      "éĤ£ä¹Ī": 3157,
      "åıĤåĬł": 3158,
      "Ġmost": 3159,
      "ited": 3160,
      "å¥Ĺ": 3161,
      "ke": 3162,
      "li": 3163,
      "Ġeffect": 3164,
      "irst": 3165,
      "Ġkn": 3166,
      "åĬª": 3167,
      "sy": 3168,
      "èĩªä¸»": 3169,
      "æµħ": 3170,
      "ition": 3171,
      "ough": 3172,
      "33": 3173,
      "ä»ª": 3174,
      "ä¸ºä¸»": 3175,
      "ç´¯": 3176,
      "éģµ": 3177,
      "é¢Ĩåľ°": 3178,
      "ral": 3179,
      "å¾·å·Ŀå®¶åº·": 3180,
      "å¤Ħäºİ": 3181,
      "æĭĵ": 3182,
      "èŃ¦": 3183,
      "è½¬ç§»": 3184,
      "æķ°åŃ¦": 3185,
      "ite": 3186,
      "åĪ¸": 3187,
      "ency": 3188,
      "è¯¦": 3189,
      "ç²®": 3190,
      "åŁ¹è®Ń": 3191,
      "Ġins": 3192,
      "é©±": 3193,
      "bib": 3194,
      "ages": 3195,
      "ç»Łæ²»": 3196,
      "èį£": 3197,
      "æĹĹ": 3198,
      "æ£ĢæŁ¥": 3199,
      "ung": 3200,
      "oin": 3201,
      "è±«": 3202,
      "æįŁå¤±": 3203,
      "Ġimport": 3204,
      "iv": 3205,
      "æ±ŁæĪ·": 3206,
      "ä½¿å¾Ĺ": 3207,
      "èĥĮæĻ¯": 3208,
      "ä¿¡åı·": 3209,
      "çĩ": 3210,
      "ç¡¬": 3211,
      "æ°ĳäºĭ": 3212,
      "äº¤æµģ": 3213,
      "156": 3214,
      "å±Ĭ": 3215,
      "åºĨéķ¿": 3216,
      "çº¯": 3217,
      "æĶ¯ä»ĺ": 3218,
      "Ġext": 3219,
      "ä¸´åºĬ": 3220,
      "ï¼īãĢģ": 3221,
      "éĺ¶çº§": 3222,
      "ãĢĭï¼Į": 3223,
      "arget": 3224,
      "åĸľ": 3225,
      "ä»¥åĲİ": 3226,
      "è®°å½ķ": 3227,
      "endent": 3228,
      "æ³ķçļĦ": 3229,
      "æŃĮ": 3230,
      "éĿ¢ä¸´": 3231,
      "éĻĪ": 3232,
      "ç¯ĩ": 3233,
      "åĪ¤æĸŃ": 3234,
      "å´İ": 3235,
      "æĮĳæĪĺ": 3236,
      "çľŁæŃ£": 3237,
      "Ġnumber": 3238,
      "Ġdist": 3239,
      "åħ±äº«": 3240,
      "ç¥¨": 3241,
      "åĿı": 3242,
      "usion": 3243,
      "åĩºçīĪ": 3244,
      "çªģåĩº": 3245,
      "æķ°éĩı": 3246,
      "è½¬åıĺ": 3247,
      "åĦ¿ç«¥": 3248,
      "çºł": 3249,
      "æŃ¤æĹ¶": 3250,
      "è®¡ç®Ĺæľº": 3251,
      "è½¬åŀĭ": 3252,
      "ise": 3253,
      "Ġmechan": 3254,
      "ä¸įè¶³": 3255,
      "vers": 3256,
      "æįŁå®³": 3257,
      "Ġwho": 3258,
      "åģ¥åħ¨": 3259,
      "Ġfunction": 3260,
      "ĠHowever": 3261,
      "åĨħçļĦ": 3262,
      "æŁ´": 3263,
      "åī¯": 3264,
      "Ġshown": 3265,
      "ç®Ģåįķ": 3266,
      "================": 3267,
      "lic": 3268,
      "Ġassess": 3269,
      "æ·±åĪ»": 3270,
      "45": 3271,
      "æĸĩåŃ¦": 3272,
      "ĠĠĠĠĠĠĠĠĠĠĠĠĠĠĠ": 3273,
      "å¾Īå¤ļ": 3274,
      "Ġeffects": 3275,
      "æĴĳ": 3276,
      "æ¡¥": 3277,
      "è¾©": 3278,
      "åŃ¦æľ¯": 3279,
      "å¼ĥ": 3280,
      "Ġbl": 3281,
      "å¿«éĢŁ": 3282,
      "Ġprocess": 3283,
      "åıĬæĹ¶": 3284,
      "æĬĺ": 3285,
      "éĽ¶": 3286,
      "åįĸ": 3287,
      "æĺ¯ä¸Ģç§į": 3288,
      "ä¸Ģèĩ´": 3289,
      "çĸ¾çĹħ": 3290,
      "vious": 3291,
      "ä¸»åĬ¨": 3292,
      "ä¸Ĭè¿°": 3293,
      "èĤ¥": 3294,
      "æµĭè¯ķ": 3295,
      "è¿ĺæľī": 3296,
      "uro": 3297,
      "èµĶåģ¿": 3298,
      "å¹³è¡¡": 3299,
      "åįģä¸Ģ": 3300,
      "ans": 3301,
      "éħįç½®": 3302,
      "å°¤åħ¶": 3303,
      "ç»Łè®¡": 3304,
      "ç§ĭ": 3305,
      "è½®": 3306,
      "AP": 3307,
      "åİŁçĲĨ": 3308,
      "å¤įåħ´": 3309,
      "Ġresponse": 3310,
      "éģ¿åħį": 3311,
      "çļ®": 3312,
      "qui": 3313,
      "ä»ĸçļĦ": 3314,
      "Ġhig": 3315,
      "min": 3316,
      "æĺ¾èĳĹ": 3317,
      "è§Ĵåº¦": 3318,
      "ä¾ĽåºĶ": 3319,
      "Ġrole": 3320,
      "æĶ¹åĸĦ": 3321,
      "Ġ(*": 3322,
      "AT": 3323,
      "Ġthrough": 3324,
      "ä¸»å¼ł": 3325,
      "è®¨è®º": 3326,
      "Ġcould": 3327,
      "è¦": 3328,
      "ust": 3329,
      "Ġvir": 3330,
      "èµĭ": 3331,
      "åĵª": 3332,
      "åŁİä¸»": 3333,
      "çĤİ": 3334,
      "til": 3335,
      "è·Ł": 3336,
      "ob": 3337,
      "CC": 3338,
      "nal": 3339,
      "36": 3340,
      "Ġneur": 3341,
      "çŃĸçķ¥": 3342,
      "æĪĲåĳĺ": 3343,
      "éĿĻ": 3344,
      "ef": 3345,
      "Ġthere": 3346,
      "åĬªåĬĽ": 3347,
      "æĿ¥æºĲ": 3348,
      "è®¾ç½®": 3349,
      "äº§æĿĥ": 3350,
      "Ġindi": 3351,
      "ä¸įè¿ĩ": 3352,
      "éĢĲæŃ¥": 3353,
      "å®¢è§Ĥ": 3354,
      "38": 3355,
      "çħ": 3356,
      "æĶ¯æĴĳ": 3357,
      "æħ§": 3358,
      "åĩ½æķ°": 3359,
      "éĽĦ": 3360,
      "è£Ĥ": 3361,
      "ective": 3362,
      "è§¦": 3363,
      "å¹ħ": 3364,
      "å¤§éĩı": 3365,
      "Ġcyt": 3366,
      "éľ²": 3367,
      "arly": 3368,
      "çļĦç¤¾ä¼ļ": 3369,
      "æĶ»åĩ»": 3370,
      "Ġwhen": 3371,
      "ä¸Ģæĺ¯": 3372,
      "Ġperformed": 3373,
      "ç¢į": 3374,
      "Ġantib": 3375,
      "Ġdevelopment": 3376,
      "ma": 3377,
      "é¹": 3378,
      "éĽĨä½ĵ": 3379,
      "Ġmem": 3380,
      "ci": 3381,
      "ä¹łè¿ĳå¹³æĢ»ä¹¦è®°": 3382,
      "è¿¹": 3383,
      "Ġæ¦Ĥ": 3384,
      "æĢ§èĥ½": 3385,
      "å¹²éĥ¨": 3386,
      "é«ĺæł¡": 3387,
      "éĢŁåº¦": 3388,
      "ä¹Łæľī": 3389,
      "æľ¬è´¨": 3390,
      "Ġ\\<": 3391,
      "äººå·¥": 3392,
      "ulti": 3393,
      "æĢ»ä½ĵ": 3394,
      "å¾ªçİ¯": 3395,
      "æĹ¶åĢĻ": 3396,
      "lamm": 3397,
      "Ġsel": 3398,
      "Ġdep": 3399,
      "è®°è½½": 3400,
      "Ġsignificantly": 3401,
      "åĭĩ": 3402,
      "çİ°åľ¨": 3403,
      "è¶ĭåĬ¿": 3404,
      "uct": 3405,
      "ä½ľåĵģ": 3406,
      "å¤ļç§į": 3407,
      "çī¹åĪ«æĺ¯": 3408,
      "æ´Ľ": 3409,
      "æĻ®éģį": 3410,
      "çĽ¸åĲĮ": 3411,
      "è§Ĥå¿µ": 3412,
      "tig": 3413,
      "sive": 3414,
      "valu": 3415,
      "ä¼ģä¸ļçļĦ": 3416,
      "ort": 3417,
      "å±Ĥæ¬¡": 3418,
      "è¦Ĩ": 3419,
      "çĪ¶äº²": 3420,
      "åĶĲ": 3421,
      "ä¸ĢçĽ´": 3422,
      "Ġspecific": 3423,
      "roph": 3424,
      "çİ¯èĬĤ": 3425,
      "view": 3426,
      "ä¸¤ç§į": 3427,
      "åº§": 3428,
      "åħ¨éĥ¨": 3429,
      "ination": 3430,
      "Ġop": 3431,
      "%,": 3432,
      "æľ¬èº«": 3433,
      "onstr": 3434,
      "åĨĮ": 3435,
      "æ¸¡": 3436,
      "Ġconf": 3437,
      "å®ı": 3438,
      "å¯»": 3439,
      "å®Ŀ": 3440,
      "34": 3441,
      "è¯ķéªĮ": 3442,
      "èĸ": 3443,
      "erg": 3444,
      "è½¬åĮĸ": 3445,
      "é«ĺè´¨éĩı": 3446,
      "Ġcur": 3447,
      "---": 3448,
      "Ġpred": 3449,
      "å¥ĭæĸĹ": 3450,
      "è¿İ": 3451,
      "æĭĽ": 3452,
      "è®¤å®ļ": 3453,
      "çļĦåħ³ç³»": 3454,
      "èĩªåĬ¨": 3455,
      "ive": 3456,
      "åĲĮå¹´": 3457,
      "æĬĬæı¡": 3458,
      "é¦Ļ": 3459,
      "Ġprim": 3460,
      "åĮĹæĿ¡æ°ı": 3461,
      "è¢Ń": 3462,
      "æ¯ıä¸ª": 3463,
      "åįģä¹Ŀ": 3464,
      "å§ĭç»Ī": 3465,
      "vidual": 3466,
      "Ġage": 3467,
      "éļ¾ä»¥": 3468,
      "ĠĠĠĠĠ": 3469,
      "aracter": 3470,
      "å©ļ": 3471,
      "èĵ": 3472,
      "ä»²": 3473,
      "Ġsm": 3474,
      "èµĲ": 3475,
      "Ġinvol": 3476,
      "éĺħ": 3477,
      "Ġgl": 3478,
      "åħ¬å¹³": 3479,
      "ä½Ľ": 3480,
      "åį«éĹ¨": 3481,
      "æľīéĻĲ": 3482,
      "Ġbrain": 3483,
      "Ġfactors": 3484,
      "æĳĦ": 3485,
      "çıŃ": 3486,
      "ç»ķ": 3487,
      "æĬĵ": 3488,
      "ities": 3489,
      "å¦»": 3490,
      "åĲİæĿ¥": 3491,
      "å¤§ä¼ļ": 3492,
      "ä»ģ": 3493,
      "å¾Ģå¾Ģ": 3494,
      "æĹħ": 3495,
      "æıĲåĩºäºĨ": 3496,
      "å¤ļæķ°": 3497,
      "æķı": 3498,
      "Ġran": 3499,
      "itive": 3500,
      "éĻ¤äºĨ": 3501,
      "les": 3502,
      "oma": 3503,
      "ä¹ĥ": 3504,
      "å®ģ": 3505,
      "è§Ĥå¯Ł": 3506,
      "æī¬": 3507,
      "åĴĮåıĳå±ķ": 3508,
      "Ġra": 3509,
      "æľīæľº": 3510,
      "æ¯Ķå¦Ĥ": 3511,
      "37": 3512,
      "asc": 3513,
      "èĢĹ": 3514,
      "åħ°": 3515,
      "ä¹ĭåīį": 3516,
      "è¿Ľè¡ĮäºĨ": 3517,
      "æĿĥçĽĬ": 3518,
      "Ġimp": 3519,
      "Ġthey": 3520,
      "åı¥": 3521,
      "åįıåĲĮ": 3522,
      "ä¸īå¹´": 3523,
      "Ġgenes": 3524,
      "è´¡çĮ®": 3525,
      "ind": 3526,
      "ç«¹": 3527,
      "åĺ": 3528,
      "åĢĴ": 3529,
      "äºĮæĺ¯": 3530,
      "Ġæ¦Ĥè¦ģ": 3531,
      "è§Ħå®ļçļĦ": 3532,
      "ĠThese": 3533,
      "åŃ¦èĢħ": 3534,
      "æ®¿": 3535,
      "å¼¹": 3536,
      "ä¸¹": 3537,
      "æļ´": 3538,
      "oid": 3539,
      "ä½įç½®": 3540,
      "ä¿¡çİĦ": 3541,
      "è¯ĳ": 3542,
      "Ġpop": 3543,
      "æ±½": 3544,
      "Ġpol": 3545,
      "its": 3546,
      "åıĳå¸ĥ": 3547,
      "Ġchang": 3548,
      "æīĢè°ĵ": 3549,
      "åħ³ä¸ľ": 3550,
      "å¯¹å¤ĸ": 3551,
      "Ġrecept": 3552,
      "çĪĨ": 3553,
      "Ġobserved": 3554,
      "è¡°": 3555,
      "æī¶": 3556,
      "çģ¾": 3557,
      "Ġtarget": 3558,
      "ä¸īå¥½": 3559,
      "Ġes": 3560,
      "åħĥå¹´": 3561,
      "éŃ": 3562,
      "ä¼ı": 3563,
      "raph": 3564,
      "Ġincluding": 3565,
      "Ġloc": 3566,
      "tics": 3567,
      "é¼ĵåĬ±": 3568,
      "æŃ£å¼ı": 3569,
      "31": 3570,
      "æĬķåħ¥": 3571,
      "æĿ¥çľĭ": 3572,
      "å¸Ń": 3573,
      "old": 3574,
      "æĭ¥æľī": 3575,
      "æĸĹäºī": 3576,
      "æĬĳ": 3577,
      "ale": 3578,
      "Ġfirst": 3579,
      "äºİæĺ¯": 3580,
      "çĻĮ": 3581,
      "éĴ±": 3582,
      "tively": 3583,
      "ä¸¥æł¼": 3584,
      "Ġnormal": 3585,
      "åŁºéĩĳ": 3586,
      "æĬ¼": 3587,
      "åħģ": 3588,
      "çļĦæĸ¹æ³ķ": 3589,
      "è¯ļ": 3590,
      "crib": 3591,
      "Figure": 3592,
      "æĻºæħ§": 3593,
      "å®ĭ": 3594,
      "è¯¾åłĤ": 3595,
      "åĢºæĿĥ": 3596,
      "CD": 3597,
      "æĺ¯ä¸Ģ": 3598,
      "vir": 3599,
      "å®ªæ³ķ": 3600,
      "ç²Ĵ": 3601,
      "æĢ»ç»ĵ": 3602,
      "ery": 3603,
      "ç¼ºä¹ı": 3604,
      "Ġref": 3605,
      "åĩĨå¤ĩ": 3606,
      "ç¼ĺ": 3607,
      "01": 3608,
      "led": 3609,
      "è¿ĽæŃ¥": 3610,
      "åİ»ä¸ĸ": 3611,
      "åı¦ä¸Ģæĸ¹éĿ¢": 3612,
      "åį±æľº": 3613,
      "ĠĠĠĠĠĠĠĠĠĠĠĠĠĠĠĠĠĠĠĠĠĠĠĠĠĠĠĠĠĠĠĠĠĠĠĠĠĠĠĠĠĠĠĠĠĠĠĠĠĠĠĠĠĠĠĠĠĠĠĠĠĠĠĠĠĠĠĠĠĠĠĠĠĠĠĠĠĠĠĠĠĠĠĠĠĠĠĠĠĠĠĠĠĠĠĠĠĠĠĠĠĠĠĠĠĠĠĠĠĠĠĠĠĠĠĠĠĠĠĠĠĠĠĠĠĠĠĠ": 3614,
      "ä¾Ľç»Ļ": 3615,
      "å±ĤéĿ¢": 3616,
      "åĩĨç¡®": 3617,
      "è°¦": 3618,
      "Ġmicro": 3619,
      "ä»ĭç»į": 3620,
      "ä¼´": 3621,
      "Ġexperim": 3622,
      "æ¡Ĩ": 3623,
      "Ġevalu": 3624,
      "çĶ±æŃ¤": 3625,
      "Ġwhere": 3626,
      "é½": 3627,
      "æ¹ĸ": 3628,
      "æģ¢": 3629,
      "Î²": 3630,
      "èĤ¡ä¸ľ": 3631,
      "Ġshowed": 3632,
      "åĿĢ": 3633,
      "ä¸ŃåĽ½çļĦ": 3634,
      "çļĦæĸ¹å¼ı": 3635,
      "Ġaff": 3636,
      "ependent": 3637,
      "è¿ħ": 3638,
      "è¿ĽæĶ»": 3639,
      "ç»ıæµİåıĳå±ķ": 3640,
      "Ġsignal": 3641,
      "Ġindividual": 3642,
      "åĮħåĲ«": 3643,
      "ä¿¡çĶ¨": 3644,
      "32": 3645,
      "Ġdo": 3646,
      "æĥł": 3647,
      "åį«çĶŁ": 3648,
      "åĩĿ": 3649,
      "ix": 3650,
      "åıĤèĢĥ": 3651,
      "unt": 3652,
      "åŃĿ": 3653,
      "åĽ½æľī": 3654,
      "49": 3655,
      "ä»įçĦ¶": 3656,
      "ples": 3657,
      "ently": 3658,
      "å¥ĩ": 3659,
      "æ®ĭ": 3660,
      "ĠĠĠĠĠĠ": 3661,
      "ç³ĸ": 3662,
      "æĢĢ": 3663,
      "èµ¤": 3664,
      "åĴĮç¤¾ä¼ļ": 3665,
      "åĲĮæł·": 3666,
      "Ġreported": 3667,
      "ä¸ĭéĻį": 3668,
      "Ġmedi": 3669,
      "ucle": 3670,
      "è®Ńç»ĥ": 3671,
      "Âł": 3672,
      "ä»ķ": 3673,
      "ha": 3674,
      "æĶ¹éĿ©å¼ĢæĶ¾": 3675,
      "åįģåĽĽ": 3676,
      ")ãĢĤ": 3677,
      "ãĥ": 3678,
      "Ġmechanism": 3679,
      "over": 3680,
      "Ġhigher": 3681,
      "ãĢĮ": 3682,
      "æľºåĻ¨": 3683,
      "reated": 3684,
      "é«ĺçŃī": 3685,
      "estig": 3686,
      "ç®Ĺæ³ķ": 3687,
      "èĮ¶": 3688,
      "åĲĪæ³ķ": 3689,
      "ãĢį": 3690,
      "Ġchild": 3691,
      "æµģåĬ¨": 3692,
      "----------------------------------------------------------------": 3693,
      "ç§ĳçłĶ": 3694,
      "æ¶¦": 3695,
      "ize": 3696,
      "Ġtissue": 3697,
      "åºĶå¯¹": 3698,
      "åħĪè¿Ľ": 3699,
      "Ġma": 3700,
      "ç¤¾åĮº": 3701,
      "å¿ħçĦ¶": 3702,
      "åħ·å¤ĩ": 3703,
      "Ġdecre": 3704,
      "æĸĭ": 3705,
      "Ġimportant": 3706,
      "ĠIL": 3707,
      "II": 3708,
      "åĳ¼": 3709,
      "Ġcharacter": 3710,
      "çĦ¶åĲİ": 3711,
      "çĬ¶åĨµ": 3712,
      "å¦ĤæŃ¤": 3713,
      "æĸĩçĮ®": 3714,
      "å¤ļæł·": 3715,
      "æ¡Īä¾ĭ": 3716,
      "Ġinform": 3717,
      "åĽ½å®¶çļĦ": 3718,
      "åıªæĺ¯": 3719,
      "ä¸Ģèµ·": 3720,
      "åĢ¾": 3721,
      "com": 3722,
      "åľ¨æŃ¤": 3723,
      "æģ¢å¤į": 3724,
      "å¸¦æĿ¥": 3725,
      "åŃ¦éĻ¢": 3726,
      "å¤©çļĩ": 3727,
      "Ġgrow": 3728,
      "ç£ģ": 3729,
      "ç»ĺ": 3730,
      "å·¥ä½ľçļĦ": 3731,
      "è·ĥ": 3732,
      "åŃ£": 3733,
      "å±ħæ°ĳ": 3734,
      "Ġstim": 3735,
      "Ġprevious": 3736,
      "çªģçł´": 3737,
      "æŃ£åľ¨": 3738,
      "åĢį": 3739,
      "95": 3740,
      "éĢļä¿¡": 3741,
      "æľīåĪ©äºİ": 3742,
      "åİļ": 3743,
      "48": 3744,
      "Ġsome": 3745,
      "åħ±åĴĮ": 3746,
      "lis": 3747,
      "åį¡": 3748,
      "åĩºåıĳ": 3749,
      "åİĤ": 3750,
      "Ġregion": 3751,
      "çĽĳæµĭ": 3752,
      "åĽ½åĬ¡": 3753,
      "å®ľ": 3754,
      "ä¸įä¼ļ": 3755,
      "Ġwithin": 3756,
      "æĬ½": 3757,
      "éĩįæĸ°": 3758,
      "Ġresearch": 3759,
      "....": 3760,
      "æĿ¥èĩª": 3761,
      "Ġnew": 3762,
      "ç´łè´¨": 3763,
      "æĢĿèĢĥ": 3764,
      "æŃ£å¸¸": 3765,
      "æ¯Ķä¾ĭ": 3766,
      "ood": 3767,
      "ä¼¦": 3768,
      "ä¸Ģæ¬¡": 3769,
      "é«ĺçļĦ": 3770,
      "Ġyears": 3771,
      "oph": 3772,
      "åĩºçļĦ": 3773,
      "å¤ļä¸ª": 3774,
      "åĽ¢éĺŁ": 3775,
      "ST": 3776,
      "Ġthree": 3777,
      "æľŁçļĦ": 3778,
      "æľ¬æĸĩ": 3779,
      "AR": 3780,
      "çĻ»è®°": 3781,
      "Ġbec": 3782,
      "çľŁå®ŀ": 3783,
      "è´¯å½»": 3784,
      "å³°": 3785,
      "åŃĺåĤ¨": 3786,
      "Ġly": 3787,
      "åĩºäºĨ": 3788,
      "è¯¢": 3789,
      "Ġocc": 3790,
      "ĠCh": 3791,
      "MP": 3792,
      "å¤§åĨħ": 3793,
      "æ¨ª": 3794,
      "ving": 3795,
      "Ġ200": 3796,
      "å®¡æŁ¥": 3797,
      "èª": 3798,
      "çļĦè§Ħå®ļ": 3799,
      "é¢Ħæµĭ": 3800,
      "ä¹ĭåŃĲ": 3801,
      "ä¸Ģæł·": 3802,
      "rect": 3803,
      "ä¿Ĺ": 3804,
      "Ġinj": 3805,
      "rug": 3806,
      "è®¾ç«ĭ": 3807,
      "æĺŃ": 3808,
      "å¹³åĿĩ": 3809,
      "å¤§åıĭ": 3810,
      "ption": 3811,
      "åĪĢ": 3812,
      "Ġwork": 3813,
      "Ġinvestig": 3814,
      "ä¼ĳ": 3815,
      "æĸ¹çļĦ": 3816,
      "è¿ŀæİ¥": 3817,
      "è¶£": 3818,
      "\\*": 3819,
      "åĽ½åĬ¡éĻ¢": 3820,
      "çĲĨæĥ³": 3821,
      "æł¼å±Ģ": 3822,
      "Ġthose": 3823,
      "å®Įæķ´": 3824,
      "äºĭåĬ¡": 3825,
      "æķĪåºĶ": 3826,
      "åıĺéĿ©": 3827,
      "åįģåĪĨ": 3828,
      "çĽ¸å½ĵ": 3829,
      "ĠAn": 3830,
      "####": 3831,
      "æħ¢": 3832,
      "å«¡": 3833,
      "ses": 3834,
      "æĢİ": 3835,
      "rin": 3836,
      "çĽĺ": 3837,
      "è´¦": 3838,
      "RI": 3839,
      "è´¹çĶ¨": 3840,
      "ä¸Ĭæµ·": 3841,
      "ç©¿": 3842,
      "ä¹ĺ": 3843,
      "Ġcal": 3844,
      "Ġcorrel": 3845,
      "æĿ¥è¶Ĭ": 3846,
      "ensi": 3847,
      "Ġpathw": 3848,
      "Ġdemonstr": 3849,
      "ç¿»": 3850,
      "èį¯çī©": 3851,
      "åħįçĸ«": 3852,
      "atis": 3853,
      "è¶ĬæĿ¥è¶Ĭ": 3854,
      "åĲĦä¸ª": 3855,
      "ressed": 3856,
      "èĤº": 3857,
      "IV": 3858,
      "ä¸Ģå®ļçļĦ": 3859,
      "åĪº": 3860,
      "é£Łåĵģ": 3861,
      "æĽ´å¥½": 3862,
      "the": 3863,
      "åĪĳäºĭ": 3864,
      "ÃĹ": 3865,
      "æĥħå½¢": 3866,
      "å®īæİĴ": 3867,
      "èĤ¿çĺ¤": 3868,
      "ores": 3869,
      "è°¦ä¿¡": 3870,
      "Ġchanges": 3871,
      "Ġç¬¬": 3872,
      "æ½®": 3873,
      "æĪı": 3874,
      "æ·±åº¦": 3875,
      "éĺĲ": 3876,
      "ĠĠĠĠĠĠĠ": 3877,
      "èŀįèµĦ": 3878,
      "ç»ıæµİåŃ¦": 3879,
      "æ³¨éĩį": 3880,
      "æģ©": 3881,
      "Ġapp": 3882,
      "39": 3883,
      "Ġinhibit": 3884,
      "éĿ¢å¯¹": 3885,
      "155": 3886,
      "Ġfe": 3887,
      "Ġcare": 3888,
      "Ġmulti": 3889,
      "è§Ĩä¸º": 3890,
      "ived": 3891,
      "çŃīäºº": 3892,
      "åħ¬æ°ĳ": 3893,
      "Ġneed": 3894,
      "æĿ¾å¹³": 3895,
      "table": 3896,
      "è¯ĨåĪ«": 3897,
      "çļĨ": 3898,
      "çļĦä½ľçĶ¨": 3899,
      "Ġimpro": 3900,
      "ä¸Ģä½ĵ": 3901,
      "tivity": 3902,
      "é¾Ħ": 3903,
      "Ġparticip": 3904,
      "æĪĺæŃ»": 3905,
      "Ġgroups": 3906,
      "å°½ç®¡": 3907,
      "éĢĴ": 3908,
      "æķĻæİĪ": 3909,
      "è®¤çŁ¥": 3910,
      "Ġdisc": 3911,
      "è´¢åĬ¡": 3912,
      "ann": 3913,
      "å®¹æĺĵ": 3914,
      "çļĦä¸Ģä¸ª": 3915,
      "ç»ŁçŃ¹": 3916,
      "åĨĽéĺŁ": 3917,
      "AC": 3918,
      "éħĴ": 3919,
      "æĸ°åŀĭ": 3920,
      "è°Ĳ": 3921,
      "å¹³çŃī": 3922,
      "åĬ¨æĢģ": 3923,
      "ä¸ĵåĪ©": 3924,
      "åŃĶ": 3925,
      "æµĭéĩı": 3926,
      "requ": 3927,
      "åı¦å¤ĸ": 3928,
      "ä¼¯": 3929,
      "åĽ°éļ¾": 3930,
      "ves": 3931,
      "Ġlead": 3932,
      "Ġdel": 3933,
      "åŁºå±Ĥ": 3934,
      "onal": 3935,
      "æııè¿°": 3936,
      "è¸": 3937,
      "åı¯è§ģ": 3938,
      "çĻ¾å¹´": 3939,
      "ç¤¾ä¼ļçļĦ": 3940,
      "çļĦæķ°æį®": 3941,
      "å¸ĥå±Ģ": 3942,
      "åĨ·": 3943,
      "æ¢°": 3944,
      "ä¸ĢåĪĩ": 3945,
      "åĲĦç±»": 3946,
      "åħ¬å¼Ģ": 3947,
      "åĨĽçļĦ": 3948,
      "æĹłè®º": 3949,
      "],[@": 3950,
      "æĹ¨": 3951,
      "Ġconsid": 3952,
      "å±ķå¼Ģ": 3953,
      "åıĽ": 3954,
      "çī¢": 3955,
      "Ġrepres": 3956,
      "ice": 3957,
      "Ġdescrib": 3958,
      "åıªèĥ½": 3959,
      "ms": 3960,
      "ç§ĺ": 3961,
      "Ġinfection": 3962,
      "Ġsequ": 3963,
      "è´¤": 3964,
      "IP": 3965,
      "èĭ¦": 3966,
      "å½ĵä¸»": 3967,
      "åŁºç¡Ģè®¾æĸ½": 3968,
      "å°Ĩåħ¶": 3969,
      "ç¡®ç«ĭ": 3970,
      "44": 3971,
      "Sec": 3972,
      "çĩĥ": 3973,
      "Ġfinding": 3974,
      "ai": 3975,
      "æ²ī": 3976,
      "ä¸Ńåħ±": 3977,
      "åĪĺ": 3978,
      "çŁ¿": 3979,
      "aining": 3980,
      "åīįæıĲ": 3981,
      "éĶĻè¯¯": 3982,
      "æ¯ķ": 3983,
      "ytes": 3984,
      "åĪļ": 3985,
      "æĻļ": 3986,
      "æĶ¶çĽĬ": 3987,
      "å¤ľ": 3988,
      "çłĶåıĳ": 3989,
      "æ¡Ĩæŀ¶": 3990,
      "ãĢģâĢľ": 3991,
      "åħ¸åŀĭ": 3992,
      "æµģç¨ĭ": 3993,
      "Ġset": 3994,
      "æķ°åŃĹåĮĸ": 3995,
      "ental": 3996,
      "ç§©": 3997,
      "å¸ĮæľĽ": 3998,
      "Ġsubj": 3999,
      "æ²Ł": 4000,
      "Ġmain": 4001,
      "Ġcases": 4002,
      "tained": 4003,
      "ä»İäºĭ": 4004,
      "å¤ĸéĥ¨": 4005,
      "æµª": 4006,
      "Ġincrease": 4007,
      "éĢĶå¾Ħ": 4008,
      "æ³ī": 4009,
      "å²¸": 4010,
      "çĹħæ¯Ĵ": 4011,
      "ĠFor": 4012,
      "æłĩå¿Ĺ": 4013,
      "æ²Ļ": 4014,
      "æĥ¯": 4015,
      "éĶĢåĶ®": 4016,
      "åħļä¸Ńå¤®": 4017,
      "äººçī©": 4018,
      "è¿ĩåİ»": 4019,
      "çļĦé«ĺ": 4020,
      "sible": 4021,
      "éģ£": 4022,
      "å®¡è®¡": 4023,
      "å°¼åŃĲ": 4024,
      "é¡µ": 4025,
      "åįģä¸ī": 4026,
      "Ġmolec": 4027,
      "åİĭåĬĽ": 4028,
      "çºµ": 4029,
      "æ±½è½¦": 4030,
      "osph": 4031,
      "è¡¨éĿ¢": 4032,
      "Ġbas": 4033,
      "001": 4034,
      "çº¦å®ļ": 4035,
      "éĥ¨ç½²": 4036,
      "åĽ¢ç»ĵ": 4037,
      "è®ºæĸĩ": 4038,
      "å¤©ä¸ĭ": 4039,
      "åŁİä¹¡": 4040,
      "_{": 4041,
      "çĽ¸æ¯Ķ": 4042,
      "Ġtri": 4043,
      "Ġpredic": 4044,
      "46": 4045,
      "æĭĴ": 4046,
      "ä¼ĺç§Ģ": 4047,
      "æ°§åĮĸ": 4048,
      "åĳ½ä»¤": 4049,
      "eration": 4050,
      "èĩªæ²»": 4051,
      "æĬĢæľ¯çļĦ": 4052,
      "åĲĮå¿Ĺ": 4053,
      "åĨįæ¬¡": 4054,
      "Ġprot": 4055,
      "æķĻæĿĲ": 4056,
      "Ġfactor": 4057,
      "èĤĮ": 4058,
      "Ġlim": 4059,
      "las": 4060,
      "Î±": 4061,
      "Ġprom": 4062,
      "ãĢĤâĢľ": 4063,
      "æķ´åĲĪ": 4064,
      "ï½": 4065,
      "75": 4066,
      "å¡ĳ": 4067,
      "åľ°çļĦ": 4068,
      "Ġrequi": 4069,
      "Ġj": 4070,
      "ĠAs": 4071,
      "éļıåĲİ": 4072,
      "ause": 4073,
      "Ġpost": 4074,
      "è¯º": 4075,
      "åĨ²çªģ": 4076,
      "é©»": 4077,
      "éĹŃ": 4078,
      "çī¹å®ļ": 4079,
      "ä¸Ńå°ı": 4080,
      "ä¸ĵå®¶": 4081,
      "zed": 4082,
      "çļĦåŁºç¡Ģä¸Ĭ": 4083,
      "åķĨæłĩ": 4084,
      "åĳ¨æľŁ": 4085,
      "åĬłåħ¥": 4086,
      "çĦ¦": 4087,
      "åĲĪæĪĺ": 4088,
      "å·¦åı³": 4089,
      "å®¢æĪ·": 4090,
      "åıĳè¡¨": 4091,
      "èĴĻ": 4092,
      "CI": 4093,
      "Ġpotential": 4094,
      "åı¯æĮģç»Ń": 4095,
      "AS": 4096,
      "è¿½æ±Ĥ": 4097,
      "è°¢": 4098,
      "Ġfib": 4099,
      "ek": 4100,
      "è¿Ĳè¾ĵ": 4101,
      "ilar": 4102,
      "Ġmor": 4103,
      "é¡¶": 4104,
      "åįģäºĶ": 4105,
      "èĥľåĪ©": 4106,
      "åĬłå·¥": 4107,
      "ascular": 4108,
      "é½Ĳ": 4109,
      "upplement": 4110,
      "çĽĲ": 4111,
      "æ¬²": 4112,
      "ä¼ĺåħĪ": 4113,
      "åĽłèĢĮ": 4114,
      "å®ŀä½ĵ": 4115,
      "åĲĦçº§": 4116,
      "åī²": 4117,
      "çĹĽ": 4118,
      "çĳ": 4119,
      "èİ·åıĸ": 4120,
      "åĴĮå¹³": 4121,
      "çļĦä¸»": 4122,
      "åĲĦåĽ½": 4123,
      "Ġtype": 4124,
      "ie": 4125,
      "æĻ®éĢļ": 4126,
      "Ġactivation": 4127,
      "cin": 4128,
      "ically": 4129,
      "ypes": 4130,
      "å¼ķé¢Ĩ": 4131,
      "2020": 4132,
      "äº§çĶŁçļĦ": 4133,
      "ER": 4134,
      "åŁİéķĩ": 4135,
      "ograph": 4136,
      "Ġinflamm": 4137,
      "Ġevid": 4138,
      "47": 4139,
      "æ¯Ľæ³½": 4140,
      "æĺ¯å¯¹": 4141,
      "æ¹¾": 4142,
      "ç§©åºı": 4143,
      "è¿ħéĢŁ": 4144,
      "è¿Ŀæ³ķ": 4145,
      "ä¾Ŀèµĸ": 4146,
      "42": 4147,
      "Ġmark": 4148,
      "åĽ´ç»ķ": 4149,
      "cle": 4150,
      "æľºä¼ļ": 4151,
      "è·¯å¾Ħ": 4152,
      "ov": 4153,
      "æ¯Ľæ³½ä¸ľ": 4154,
      "Ġresult": 4155,
      "çļĦè¡Įä¸º": 4156,
      "æ®ĸ": 4157,
      "æİĴæĶ¾": 4158,
      "éļĶ": 4159,
      "èħĲ": 4160,
      "çŁ¥éģĵ": 4161,
      "å®£ä¼ł": 4162,
      "ateg": 4163,
      "å®ŀéĻħä¸Ĭ": 4164,
      "èĪŀ": 4165,
      "Cs": 4166,
      "PS": 4167,
      "tis": 4168,
      "æŃ¤åĲİ": 4169,
      "èĤĿ": 4170,
      "Ġmean": 4171,
      "åĨħæ¶µ": 4172,
      "åıįå¯¹": 4173,
      "åľ°çĲĨ": 4174,
      "å®ļä½į": 4175,
      "å¾Ĵ": 4176,
      "ä¸ŃåĽ½äººæ°ĳ": 4177,
      "æĶ¿æĿĥ": 4178,
      "åħ¬ä¼Ĺ": 4179,
      "Ġ15": 4180,
      "Ġcardi": 4181,
      "iter": 4182,
      "ptom": 4183,
      "Ġlong": 4184,
      "Ġdrug": 4185,
      "è¾ĸ": 4186,
      "Ġ12": 4187,
      "ness": 4188,
      "æŃ¦å£«": 4189,
      "ç¡®è®¤": 4190,
      "Ġsamples": 4191,
      "çŀ": 4192,
      "198": 4193,
      "ç»ĻäºĪ": 4194,
      "æº¶": 4195,
      "ï¼ģ": 4196,
      "åĦĴ": 4197,
      "ä¼Ĭè¾¾": 4198,
      "ake": 4199,
      "çİī": 4200,
      "Ġåľ¨": 4201,
      "Ġsuggest": 4202,
      "éķľ": 4203,
      "ĠĠĠĠĠĠĠĠĠĠĠĠĠĠĠĠĠĠĠĠĠĠĠĠ": 4204,
      "å®ĹæķĻ": 4205,
      "âĢĿâĢľ": 4206,
      "ä¸ªä½ĵ": 4207,
      "è¯ĬæĸŃ": 4208,
      "Ġcult": 4209,
      "åŁİçļĦ": 4210,
      "Ġconcent": 4211,
      "åĩĢ": 4212,
      "æĦıåĳ³": 4213,
      "çº³åħ¥": 4214,
      "ä¾µæĿĥ": 4215,
      "æĹ¶ä»£çļĦ": 4216,
      "èĭ±åĽ½": 4217,
      "è½¨": 4218,
      "Ġdifferenti": 4219,
      "æĪĲå°±": 4220,
      "å½¢åĬ¿": 4221,
      "Ġev": 4222,
      "Ġav": 4223,
      "Ġcontrib": 4224,
      "65": 4225,
      "ross": 4226,
      "å®ŀè·µä¸Ń": 4227,
      "eng": 4228,
      "Ġsever": 4229,
      "åº¦çļĦ": 4230,
      "ĠDNA": 4231,
      "åªĴä½ĵ": 4232,
      "çīĮ": 4233,
      "æµ¦": 4234,
      "xim": 4235,
      "è±ª": 4236,
      "è¿Ļæł·çļĦ": 4237,
      "Ġrat": 4238,
      "å¥ĸ": 4239,
      "Ġbased": 4240,
      "å°º": 4241,
      "ful": 4242,
      "éĺ´": 4243,
      "è¿ĻéĩĮ": 4244,
      "Ġidentified": 4245,
      "èģĮè´£": 4246,
      "ç»ıåİĨ": 4247,
      "æĹĭ": 4248,
      "è¡ĮçļĦ": 4249,
      "åĬŀæ³ķ": 4250,
      "æķĻèĤ²çļĦ": 4251,
      "Ġfurther": 4252,
      "aterial": 4253,
      "å®ŀè´¨": 4254,
      "éĽĨåĽ¢": 4255,
      "åĬ³åĬ¨èĢħ": 4256,
      "ES": 4257,
      "å£¤": 4258,
      "Ġgrowth": 4259,
      "AD": 4260,
      "å¤§æķ°æį®": 4261,
      "gan": 4262,
      "éķ°": 4263,
      "aging": 4264,
      "èĥģ": 4265,
      "Ġ+": 4266,
      "éľĩ": 4267,
      "åĬłå¤§": 4268,
      "åĪĽä¸ļ": 4269,
      "å¤ı": 4270,
      "ĠIt": 4271,
      "åŃ¦çļĦ": 4272,
      "äººå·¥æĻºèĥ½": 4273,
      "åľĨ": 4274,
      "å·¥èīº": 4275,
      "]^": 4276,
      "ä¹ĭä¸Ń": 4277,
      "æī°": 4278,
      "çĽ¸åħ³çļĦ": 4279,
      "ditional": 4280,
      "+^": 4281,
      "éŁ³ä¹Ĳ": 4282,
      "æīĢåľ¨": 4283,
      "æľīæīĢ": 4284,
      "abol": 4285,
      "ä¹ĭä¹±": 4286,
      "çī©æµģ": 4287,
      "æĭħä¿Ŀ": 4288,
      "uce": 4289,
      "èĮĤ": 4290,
      "åįĩçº§": 4291,
      "å¤ļåħĥ": 4292,
      "éĶĭ": 4293,
      "Ġcent": 4294,
      "sis": 4295,
      "çĶ¨çļĦ": 4296,
      "^[@": 4297,
      "è§£æĶ¾": 4298,
      "oh": 4299,
      "Ġso": 4300,
      "Ġneuro": 4301,
      "ont": 4302,
      "éªı": 4303,
      "Ġrate": 4304,
      "åĳĪçİ°": 4305,
      "çĽ¸ç»ĵåĲĪ": 4306,
      "ording": 4307,
      "é¾Ł": 4308,
      "æĮ¯åħ´": 4309,
      "åıĤæķ°": 4310,
      "Ġclass": 4311,
      "ä¸°èĩ£ç§ĢåĲī": 4312,
      "çŃīæĸ¹éĿ¢": 4313,
      "æĹ¥çĽĬ": 4314,
      "åıĳè¾¾": 4315,
      "æ¬§æ´²": 4316,
      "é©±åĬ¨": 4317,
      "ç¾İåħĥ": 4318,
      "erest": 4319,
      "Ġrespec": 4320,
      "ĠRes": 4321,
      "41": 4322,
      "åĲĮä¸Ģ": 4323,
      "æļĹ": 4324,
      "ural": 4325,
      "è¦ĨçĽĸ": 4326,
      "æĦŁæŁĵ": 4327,
      "ç¾¤ä½ĵ": 4328,
      "%ï¼Į": 4329,
      "though": 4330,
      "Ġfrequ": 4331,
      "Ġproteins": 4332,
      "ä¸īæ²³": 4333,
      "çĶŁæĪĲ": 4334,
      "ulin": 4335,
      "âĢ¦âĢ¦": 4336,
      "ication": 4337,
      "vere": 4338,
      "å»·": 4339,
      "åĩºåı£": 4340,
      "å½ĵçĦ¶": 4341,
      "53": 4342,
      "Ġaddition": 4343,
      "Ġinformation": 4344,
      "åĽĽä¸ª": 4345,
      "èµı": 4346,
      "Ġbre": 4347,
      "upplementary": 4348,
      "åĴĮè°Ĳ": 4349,
      "äº¤æį¢": 4350,
      "Ġoccur": 4351,
      "åĪĽå»º": 4352,
      "èĶ": 4353,
      "æµ·æ´ĭ": 4354,
      "ä¹Łåı¯ä»¥": 4355,
      "éĻ¶": 4356,
      "Ġcaus": 4357,
      "æŃ£æĺ¯": 4358,
      "av": 4359,
      "è½¬è®©": 4360,
      "åħģè®¸": 4361,
      "å¦Ĥä¸ĭ": 4362,
      "åįģåħŃ": 4363,
      "å½¢æĪĲäºĨ": 4364,
      "æĸĲ": 4365,
      ")ï¼Į": 4366,
      "ãĢĤãĢĬ": 4367,
      "è¿ŀç»Ń": 4368,
      "å¦ĩ": 4369,
      "43": 4370,
      "åĪ¶åº¦çļĦ": 4371,
      "ink": 4372,
      "å½©": 4373,
      "łéģĵ": 4374,
      "æĽ´ä¸º": 4375,
      "åħ±åĴĮåĽ½": 4376,
      "Ġsym": 4377,
      "æĶ¹éĢł": 4378,
      "åĩºçĶŁ": 4379,
      "Ġtr": 4380,
      "eth": 4381,
      "çī¹æĢ§": 4382,
      "eg": 4383,
      "Ġshould": 4384,
      "æľĿä»ĵ": 4385,
      "çĶŁæĢģçİ¯å¢ĥ": 4386,
      "æĬĳåĪ¶": 4387,
      "éļľç¢į": 4388,
      "éªĳ": 4389,
      "åĪ¶éĢłä¸ļ": 4390,
      "éĽª": 4391,
      "ĠPro": 4392,
      "Ġrele": 4393,
      "ä½ľæĪĺ": 4394,
      "ä¸ĢåĲĮ": 4395,
      "tex": 4396,
      "åĮºåĪ«": 4397,
      "åīįå¾Ģ": 4398,
      "å®ıè§Ĥ": 4399,
      "æ°ĶåĢĻ": 4400,
      "åıĳåĬ¨": 4401,
      "çł´åĿı": 4402,
      "å¹¶éĿŀ": 4403,
      "Ġtherapy": 4404,
      "è°ĥèĬĤ": 4405,
      "é«ĺæķĪ": 4406,
      "ä¾į": 4407,
      "çļĦæ³ķå¾ĭ": 4408,
      "éĤ¦": 4409,
      "æĸĩç«ł": 4410,
      "çĪĨåıĳ": 4411,
      "è´·æ¬¾": 4412,
      "OS": 4413,
      "èģĮèĥ½": 4414,
      "çľĭåĪ°": 4415,
      "æ´ŀ": 4416,
      "çºłçº·": 4417,
      "åĿļå®ļ": 4418,
      "äºĪä»¥": 4419,
      "çķł": 4420,
      "CP": 4421,
      "èĻļæĭŁ": 4422,
      "æŁĲäºĽ": 4423,
      "Ġhist": 4424,
      "è´«åĽ°": 4425,
      "ä»²è£ģ": 4426,
      "åĽ½äºº": 4427,
      "æľºæ¢°": 4428,
      "ç±»ä¼¼": 4429,
      "Ġthen": 4430,
      "ä¹Łä¸į": 4431,
      "ãĢĲ": 4432,
      "air": 4433,
      "ãĢĳ": 4434,
      "åįģå¹´": 4435,
      "æ£Ģå¯Ł": 4436,
      "ä¿®æĶ¹": 4437,
      "ä¹Łå°±æĺ¯": 4438,
      "çĭŃ": 4439,
      "ä¸Ńåįİäººæ°ĳ": 4440,
      "æ³ķå®ļ": 4441,
      "æĳ©": 4442,
      "æıĨ": 4443,
      "ä»¿": 4444,
      "æ¤įçī©": 4445,
      "æŀª": 4446,
      "çļĦå·¥ä½ľ": 4447,
      "äºīè®®": 4448,
      "------------": 4449,
      "éħ¶": 4450,
      "Ġcommon": 4451,
      "å¼¥": 4452,
      "Ġmy": 4453,
      "Ġtech": 4454,
      "æ¡£": 4455,
      "Ġpopulation": 4456,
      "åĢ¡": 4457,
      "éĥ¨éĺŁ": 4458,
      "Ġacid": 4459,
      "åĽ¾åĥı": 4460,
      "åŁ¹èĤ²": 4461,
      "Ġpub": 4462,
      "havi": 4463,
      "å»ºæĪĲ": 4464,
      "çļĦèĥ½åĬĽ": 4465,
      "å°±ä¼ļ": 4466,
      "ified": 4467,
      "Ġcomb": 4468,
      "éĺħè¯»": 4469,
      "éĢĨ": 4470,
      "éĿĴå¹´": 4471,
      "æĦıåĳ³çĿĢ": 4472,
      "åħļåĴĮ": 4473,
      "ĠÎ¼": 4474,
      "çļĦè¿ĩç¨ĭ": 4475,
      "SD": 4476,
      "ronic": 4477,
      "åħļåĳĺ": 4478,
      "ç¨İæĶ¶": 4479,
      "çļĦçĲĨè®º": 4480,
      "78": 4481,
      "ä¸Ģå¸¦": 4482,
      "ä¼į": 4483,
      "åĬ¨çī©": 4484,
      "æıŃ": 4485,
      "å²Ĺ": 4486,
      "anti": 4487,
      "æľĿé²ľ": 4488,
      "Ġstruct": 4489,
      "ä¸ĵéĹ¨": 4490,
      "ospit": 4491,
      "vention": 4492,
      "åįıåķĨ": 4493,
      "åį±éĻ©": 4494,
      "159": 4495,
      "éĥ½æľī": 4496,
      "Ġanaly": 4497,
      "åĬ©äºİ": 4498,
      "æļĤ": 4499,
      "å½ĵä»£": 4500,
      "è¢«åĳĬ": 4501,
      "çļĦåĨħå®¹": 4502,
      "å¼ºåĪ¶": 4503,
      "å¡ŀ": 4504,
      "æŃ»äº¡": 4505,
      "éĺ²æŃ¢": 4506,
      "ç¾İæµĵ": 4507,
      "å¤Ħç½ļ": 4508,
      "Ġmemb": 4509,
      "Ġtotal": 4510,
      "Ġsimilar": 4511,
      "jor": 4512,
      "ä»ĸäºº": 4513,
      "ç±į": 4514,
      "spec": 4515,
      "å®ħ": 4516,
      "åŃĲçļĦ": 4517,
      "hip": 4518,
      "Ġsurvi": 4519,
      "æ³°": 4520,
      "æĢģåº¦": 4521,
      "lial": 4522,
      ");": 4523,
      "æ¿ĢåĬ±": 4524,
      "æ¥ļ": 4525,
      "çŁ¥è¯Ĩäº§æĿĥ": 4526,
      "Ġamong": 4527,
      "ator": 4528,
      "åħĥå°±": 4529,
      "ately": 4530,
      "ä¸Ĭåįĩ": 4531,
      "ins": 4532,
      "åħ³ç³»çļĦ": 4533,
      "ĠHe": 4534,
      "ested": 4535,
      "Ġabout": 4536,
      "åģļå¥½": 4537,
      "ences": 4538,
      "omen": 4539,
      "æķĪçĽĬ": 4540,
      "åĩłä¸ª": 4541,
      "åı«": 4542,
      "å®¤çĶº": 4543,
      "ä½įäºİ": 4544,
      "åı¤ä»£": 4545,
      "èĬĤçĤ¹": 4546,
      "refore": 4547,
      "åĨł": 4548,
      "Ġdue": 4549,
      "Ġcap": 4550,
      "ç¬¬äºĶ": 4551,
      "éĩįèĩ£": 4552,
      "ä¹ĭå¤ĸ": 4553,
      "æĶ¶éĽĨ": 4554,
      "Ġlower": 4555,
      "Ġret": 4556,
      "ä¸»è¦ģæĺ¯": 4557,
      "ID": 4558,
      "ouse": 4559,
      "\"\"": 4560,
      "mph": 4561,
      "æĹ©æľŁ": 4562,
      "ĠY": 4563,
      "Ġep": 4564,
      "ä¿Ħ": 4565,
      "Ġpers": 4566,
      "Ġevidence": 4567,
      "åĲĦåľ°": 4568,
      "æ¢ģ": 4569,
      "è¯±": 4570,
      "DNA": 4571,
      "uff": 4572,
      "é¢Ħéĺ²": 4573,
      "æ´ģ": 4574,
      "éķ°ä»ĵ": 4575,
      "è½¬æį¢": 4576,
      "ä½Ĩåľ¨": 4577,
      "åĪĬ": 4578,
      "èµĦæľ¬ä¸»ä¹ī": 4579,
      "yn": 4580,
      "Ġsmall": 4581,
      "ç»ıæµİç¤¾ä¼ļ": 4582,
      "æ¸©åº¦": 4583,
      "ä¸Ģæĸ¹": 4584,
      "è¡Įä½¿": 4585,
      "ä½ĵèĤ²": 4586,
      "Ġwhile": 4587,
      "Ġreview": 4588,
      "èħ¹": 4589,
      "Ġmi": 4590,
      "NF": 4591,
      "å»ºè®¾çļĦ": 4592,
      "å¤ĸäº¤": 4593,
      "åĲ¸æĶ¶": 4594,
      "Ġsame": 4595,
      "å¯¼åĲĳ": 4596,
      "åĩłä¹İ": 4597,
      "è¿ĳæ±Ł": 4598,
      "MS": 4599,
      "ange": 4600,
      "ç»ĵæĿŁ": 4601,
      "Ġpat": 4602,
      "çħ¤": 4603,
      "PP": 4604,
      "è¿ĲèĲ¥": 4605,
      "*,": 4606,
      "å®ĥçļĦ": 4607,
      "çº¦æĿŁ": 4608,
      "å¯¹ç«ĭ": 4609,
      "å²Ĳ": 4610,
      "cop": 4611,
      "Ġplas": 4612,
      "ç»ıæµİçļĦ": 4613,
      "ç»ĦåĲĪ": 4614,
      "iod": 4615,
      "å¹¶åľ¨": 4616,
      "è·¯çº¿": 4617,
      "æĸĩä¹¦": 4618,
      "è´´": 4619,
      "æĶ¹è¿Ľ": 4620,
      "çĸ«æĥħ": 4621,
      "å®¶æĹı": 4622,
      "çĽ¸åºĶçļĦ": 4623,
      "æĸĩåĮĸçļĦ": 4624,
      "æģĴ": 4625,
      "Ġdid": 4626,
      "Ġchildren": 4627,
      "çĶ¨äºº": 4628,
      "è¿Ŀåıį": 4629,
      "Ġexpos": 4630,
      "Ġfollowing": 4631,
      "amet": 4632,
      "éĿ¢åĲĳ": 4633,
      "Ġrepresent": 4634,
      "ä¸ĩçŁ³": 4635,
      "åĽºå®ļ": 4636,
      "ision": 4637,
      "é¢ĨåŁŁçļĦ": 4638,
      "çī§": 4639,
      "èĢķ": 4640,
      "esis": 4641,
      "æĮĩæĮ¥": 4642,
      "åľŁå£¤": 4643,
      "ics": 4644,
      "éĿ¢ç§¯": 4645,
      "Ġlung": 4646,
      "ä¸ĢæıĨ": 4647,
      "Ġpe": 4648,
      "];": 4649,
      "Ġprimary": 4650,
      "èµŀ": 4651,
      "Ġfindings": 4652,
      "æķ°æį®åºĵ": 4653,
      "ç»´æĮģ": 4654,
      "æ°¢": 4655,
      "æĩ": 4656,
      "è£ķ": 4657,
      "ET": 4658,
      "å°¾å¼ł": 4659,
      "è¾¨": 4660,
      "Ġearly": 4661,
      "æĻ¶": 4662,
      "oint": 4663,
      "Ġreceptor": 4664,
      "Ġprol": 4665,
      "æ³¨åĨĮ": 4666,
      "Ġwould": 4667,
      "Ġox": 4668,
      "Ġmat": 4669,
      "arge": 4670,
      "Ġâ": 4671,
      "å°ıçĶ°": 4672,
      "67": 4673,
      "çļĦè¦ģæ±Ĥ": 4674,
      "åĿĲ": 4675,
      "äºĶå¹´": 4676,
      "çĶ²æĸĲ": 4677,
      "Ġmajor": 4678,
      "æĺ¯ä»¥": 4679,
      "Ġexpl": 4680,
      "çļĦä¸į": 4681,
      "Ġany": 4682,
      "to": 4683,
      "è¯ģåĪ¸": 4684,
      "Ġrespectively": 4685,
      "âĢĻ": 4686,
      "åĳ¢": 4687,
      "æ¶Īè´¹èĢħ": 4688,
      "ä¸ºæł¸å¿ĥ": 4689,
      "æī§æ³ķ": 4690,
      "Ġcurrent": 4691,
      "è¿ĽèĢĮ": 4692,
      "ç¾½æŁ´": 4693,
      "55": 4694,
      "versity": 4695,
      "çļĦåħ³éĶ®": 4696,
      "Ġimmune": 4697,
      "åĪ©çİĩ": 4698,
      "å®¡åĪ¤": 4699,
      "æĹħæ¸¸": 4700,
      "çĥ§": 4701,
      "eu": 4702,
      "Ġwithout": 4703,
      "Ġline": 4704,
      "ç§¦": 4705,
      "æ¢¦": 4706,
      "å°¤åħ¶æĺ¯": 4707,
      "Ġnucle": 4708,
      "å¤§åĬĽ": 4709,
      "ĠTo": 4710,
      "å·©": 4711,
      "ĠçļĦ": 4712,
      "å½ĵåľ°": 4713,
      "æ£ĢéªĮ": 4714,
      "Ġif": 4715,
      "sych": 4716,
      "Ġpositive": 4717,
      "æİ¨å¹¿": 4718,
      "å°ĳæķ°": 4719,
      "ä¿¡æµĵ": 4720,
      "fer": 4721,
      "Ġsecond": 4722,
      "åľ£": 4723,
      "Ġcompar": 4724,
      "å¾Ĺä»¥": 4725,
      "åŁºåľ°": 4726,
      "åĩºåħµ": 4727,
      "å¿½": 4728,
      "ä¼ĬåĬ¿": 4729,
      "DP": 4730,
      "ä¸Ģç³»åĪĹ": 4731,
      "ä¼łç»ŁçļĦ": 4732,
      "ä¹Ļ": 4733,
      "Ġ30": 4734,
      "omp": 4735,
      "sequ": 4736,
      "æĪĲçĨŁ": 4737,
      "æĹ¶çļĦ": 4738,
      "åħ¶æ¬¡": 4739,
      "ä»£çĲĨ": 4740,
      "åĮ»åŃ¦": 4741,
      "å¹¿å¤§": 4742,
      "Ġregul": 4743,
      "åħ³èģĶ": 4744,
      "ocytes": 4745,
      "Ġdescribed": 4746,
      "ä¸ºä¸Ńå¿ĥ": 4747,
      "åħĥç´ł": 4748,
      "çļĦæĥħåĨµä¸ĭ": 4749,
      "Ġiniti": 4750,
      "Ġinflu": 4751,
      "æī©å¼ł": 4752,
      "Ġstand": 4753,
      "inf": 4754,
      "Ġmetabol": 4755,
      "èľ": 4756,
      "çłĶç©¶çļĦ": 4757,
      "æ¿Ģåıĳ": 4758,
      "ĠFig": 4759,
      "action": 4760,
      "éĽ·": 4761,
      "æ¯ģ": 4762,
      "Ġcomplex": 4763,
      "Ġtranscri": 4764,
      "ä¸ªäººä¿¡æģ¯": 4765,
      "of": 4766,
      "çĶŁéķ¿": 4767,
      "Ġauth": 4768,
      "erv": 4769,
      "cell": 4770,
      "ĊĠĠĠĠĠĠĠĠĠĠĠĠĠĠĠ": 4771,
      "æĸĩåŃĹ": 4772,
      "åĪĨç¦»": 4773,
      "èį·": 4774,
      "ane": 4775,
      "åģļåĪ°": 4776,
      "åĩºæĿ¥": 4777,
      "Ġbehavi": 4778,
      "å¼ķåıĳ": 4779,
      "ç²®é£Ł": 4780,
      "éĽĨæĪĲ": 4781,
      "åį³ä½¿": 4782,
      "å£ģ": 4783,
      "è´Ńä¹°": 4784,
      "æĺ¯çĶ±": 4785,
      "medi": 4786,
      "å¸¸è§ģ": 4787,
      "ãĢĤï¼Ī": 4788,
      "Ġlymph": 4789,
      "ĠMed": 4790,
      "å·©åĽº": 4791,
      "æľīæķĪçļĦ": 4792,
      "è®¸åı¯": 4793,
      "ingle": 4794,
      "åĹ": 4795,
      "åĬĽåº¦": 4796,
      "æĪĺæĸĹ": 4797,
      "æİĺ": 4798,
      "è¡¥åģ¿": 4799,
      "Ġwhether": 4800,
      "induced": 4801,
      "Ġvit": 4802,
      "è®¯": 4803,
      "äººæ°ĳç¾¤ä¼Ĺ": 4804,
      "ests": 4805,
      "åĪ©æ¶¦": 4806,
      "çļĦæľĢ": 4807,
      "æľŁéĻĲ": 4808,
      "99": 4809,
      "çŃīçŃī": 4810,
      "å®īåľŁ": 4811,
      "åĨħåľ¨": 4812,
      "ardi": 4813,
      "å°¿": 4814,
      "Ġcy": 4815,
      "Ġvirus": 4816,
      "æĹ¦": 4817,
      "ä¿¡æģ¯åĮĸ": 4818,
      "Ġelect": 4819,
      "çļĦåĲĮæĹ¶": 4820,
      "æ¡ĥ": 4821,
      "æĪĲå¹´": 4822,
      "ä¼łè¾ĵ": 4823,
      "æ°ĳæ³ķ": 4824,
      "ä¸īæĺ¯": 4825,
      "ditions": 4826,
      "57": 4827,
      "Ġdifferences": 4828,
      "èģĮä¸ļæķĻèĤ²": 4829,
      "æīĢå¾Ĺ": 4830,
      "çĶŁåŃĺ": 4831,
      "éĢļçŁ¥": 4832,
      "56": 4833,
      "å£®": 4834,
      "å¯ĨåĪĩ": 4835,
      "éĽ¨": 4836,
      "Ġflu": 4837,
      "å±ŀæĢ§": 4838,
      "iel": 4839,
      "å®ŀçİ°äºĨ": 4840,
      "æī§æĶ¿": 4841,
      "dom": 4842,
      "é¸Ł": 4843,
      "ç´łåħ»": 4844,
      "ove": 4845,
      "Ġcr": 4846,
      "Ġvalues": 4847,
      "åįģä¸ĥ": 4848,
      "Ġprof": 4849,
      "ains": 4850,
      "ä¼Łå¤§å¤įåħ´": 4851,
      "Ġvol": 4852,
      "äººä¸İ": 4853,
      "çļĦä¸Ģç§į": 4854,
      "ç§»åĬ¨": 4855,
      "å¤§å¤ļæķ°": 4856,
      "æľ±": 4857,
      "åı¯éĿł": 4858,
      "äºĭé¡¹": 4859,
      "å·¨å¤§": 4860,
      "åıĻ": 4861,
      "çº¸": 4862,
      "åĳ½è¿Ĳ": 4863,
      "æĭĵå±ķ": 4864,
      "åĳĺå·¥": 4865,
      "Ġsymptom": 4866,
      "ety": 4867,
      "éĺŁä¼į": 4868,
      "ç»ĩçĶ°ä¿¡": 4869,
      "2021": 4870,
      "Table": 4871,
      "æľīçĿĢ": 4872,
      "è¡Ģç®¡": 4873,
      "å¯¹åºĶ": 4874,
      "ä¸Ńåįİäººæ°ĳåħ±åĴĮåĽ½": 4875,
      "éģµå¾ª": 4876,
      "äº¿åħĥ": 4877,
      "å¤§åĿĤ": 4878,
      "è¿Ľå±ķ": 4879,
      "mit": 4880,
      "åħīç§Ģ": 4881,
      "EM": 4882,
      "other": 4883,
      "Ġvis": 4884,
      "æĪª": 4885,
      "èĭĹ": 4886,
      "ä¹Ŀå·ŀ": 4887,
      "ä¸Ŀ": 4888,
      "ç»ĵè®º": 4889,
      "è¾ĵåħ¥": 4890,
      "Ġanim": 4891,
      "âĢĿãĢģâĢľ": 4892,
      "Ġreduced": 4893,
      "ä»·åĢ¼è§Ĥ": 4894,
      "ackage": 4895,
      "Ġdesign": 4896,
      "è¿ĳå¹´æĿ¥": 4897,
      "èµ°åĲĳ": 4898,
      "åĩŃ": 4899,
      "çļĦæĶ¿æ²»": 4900,
      "è¿ĶåĽŀ": 4901,
      "reen": 4902,
      "åįķåħĥ": 4903,
      "Ġconditions": 4904,
      "ä¸įåĨį": 4905,
      "èªī": 4906,
      "è¾¾æĪĲ": 4907,
      "çº¤": 4908,
      "Ġcir": 4909,
      "å¹¼åĦ¿": 4910,
      "æ°ĳéĹ´": 4911,
      "éĴŁ": 4912,
      "ç£¨": 4913,
      "AG": 4914,
      "æµħäºķ": 4915,
      "çĶµæ±ł": 4916,
      "68": 4917,
      "å¯¹åħ¶": 4918,
      "åıĺéĩı": 4919,
      "åı¬å¼Ģ": 4920,
      "å¥ĳ": 4921,
      "ä¾ĿéĿł": 4922,
      "é¥°": 4923,
      "è¯¾é¢ĺ": 4924,
      "é¦ĸæ¬¡": 4925,
      "Ġsensi": 4926,
      "åħ³åİŁ": 4927,
      "Ġhyper": 4928,
      "éĩĳå±ŀ": 4929,
      "åŃ©": 4930,
      "inc": 4931,
      "èĲ¨": 4932,
      "Ġestim": 4933,
      "çļĦç»ıæµİ": 4934,
      "Ġradi": 4935,
      "âĢĺ": 4936,
      "ä»°": 4937,
      "ior": 4938,
      "ãĥ»": 4939,
      "io": 4940,
      "ths": 4941,
      "åĪĽä½ľ": 4942,
      "äºĮå¹´": 4943,
      "èĤī": 4944,
      "æīĵéĢł": 4945,
      "2018": 4946,
      "58": 4947,
      "äººåľ¨": 4948,
      "æĥħæĦŁ": 4949,
      "åħ¶å®ŀ": 4950,
      "ade": 4951,
      "\"(": 4952,
      "gative": 4953,
      "ither": 4954,
      "Ġmus": 4955,
      "Ġpromot": 4956,
      "çļĦæł¸å¿ĥ": 4957,
      "69": 4958,
      "æķ¢": 4959,
      "Ġpresence": 4960,
      "Ġavail": 4961,
      "IS": 4962,
      "yd": 4963,
      "äº®": 4964,
      "èĩªè§ī": 4965,
      "Ġphosph": 4966,
      "éª¤": 4967,
      "ospital": 4968,
      "å¤ļçļĦ": 4969,
      "lished": 4970,
      "è·Ŀç¦»": 4971,
      "%ãĢĤ": 4972,
      "èĢĥæł¸": 4973,
      "åī©": 4974,
      "æĪĳä»¬åħļ": 4975,
      "éĤ»": 4976,
      "éķ¿å°¾": 4977,
      "Ġdiagnos": 4978,
      "å®¿": 4979,
      "Ġincluded": 4980,
      "æľīåĬĽ": 4981,
      "æ¨¡åĿĹ": 4982,
      "ification": 4983,
      "å½¢è±¡": 4984,
      "ä½¿åĳ½": 4985,
      "åĬłä»¥": 4986,
      "ld": 4987,
      "æ¨¡æĭŁ": 4988,
      "åĤ¬": 4989,
      "Ġunderst": 4990,
      "Ġmodels": 4991,
      "ality": 4992,
      "CO": 4993,
      "èĥ½éĩı": 4994,
      "å¾·åĽ½": 4995,
      "Ġknown": 4996,
      "row": 4997,
      "æįķ": 4998,
      "å°Ĭéĩį": 4999,
      "è¾ŀ": 5000,
      "äºĴåĬ¨": 5001,
      "å¯¹æĬĹ": 5002,
      "çĤ®": 5003,
      "ife": 5004,
      "ĠQ": 5005,
      "ä½³": 5006,
      "^+^": 5007,
      "èĸĦ": 5008,
      "åŃĺåľ¨çļĦ": 5009,
      "è§Ĵèī²": 5010,
      "äºĭæķħ": 5011,
      "èĭ¥å¹²": 5012,
      "Ġobtained": 5013,
      "éĿŀæ³ķ": 5014,
      "åľºæĻ¯": 5015,
      "Ġless": 5016,
      "Ġdiagnosis": 5017,
      "Ġdiab": 5018,
      "æĪĲéķ¿": 5019,
      "çīĽ": 5020,
      "å®ŀéªĮå®¤": 5021,
      "è¡¥åħħ": 5022,
      "ç¨»": 5023,
      "ĠAd": 5024,
      "ç¼´": 5025,
      "2017": 5026,
      "èĢĮä¸į": 5027,
      "æĸĭèĹ¤": 5028,
      "æĿĥå¨ģ": 5029,
      "è¢«ç§°ä¸º": 5030,
      "é¡¿": 5031,
      "åĪ¤åĨ³": 5032,
      "æī¹åĩĨ": 5033,
      "ä¸»å¯¼": 5034,
      "Ġ(**": 5035,
      "Ġ18": 5036,
      "Ġsignaling": 5037,
      "æİ¢è®¨": 5038,
      "ï¼ĮãĢĬ": 5039,
      "å¯Ħ": 5040,
      "odies": 5041,
      "Ġrelated": 5042,
      "åĲĮæĦı": 5043,
      "Ġatt": 5044,
      "çĲĨæĢ§": 5045,
      "ĠĠĠĠĠĠĠĠĠĠĠĠĠ": 5046,
      "è°ĥæİ§": 5047,
      "çļĦåıĺåĮĸ": 5048,
      "å§Ķæīĺ": 5049,
      "æĸ¹éĴĪ": 5050,
      "åĲĦé¡¹": 5051,
      "Ġsurg": 5052,
      "çļĦæĹ¶éĹ´": 5053,
      "é¢ģ": 5054,
      "ä¸ĩåħĥ": 5055,
      "ced": 5056,
      "è¾ĥä¸º": 5057,
      "åħµåį«": 5058,
      "Ġcollec": 5059,
      "é«ĺè´¨éĩıåıĳå±ķ": 5060,
      "åŀĦ": 5061,
      "PD": 5062,
      "Ġsk": 5063,
      "ä¼łæĦŁ": 5064,
      "ç¤¾ä¼ļä¸»ä¹īçİ°ä»£åĮĸ": 5065,
      "ax": 5066,
      "å§»": 5067,
      "ained": 5068,
      "æĿ¡æ¬¾": 5069,
      "Ġagain": 5070,
      "æľīåĬ©äºİ": 5071,
      "å¯¿": 5072,
      "Ġfam": 5073,
      "ä¸½": 5074,
      "å¯¹æŃ¤": 5075,
      "èķ": 5076,
      "ä¸ĢæĿ¡": 5077,
      "Ġlab": 5078,
      "ä»ĸä»¬çļĦ": 5079,
      "åıªè¦ģ": 5080,
      "Ġadd": 5081,
      "els": 5082,
      "Ġsurvival": 5083,
      "åħ»åŃĲ": 5084,
      "Ġdirect": 5085,
      "St": 5086,
      "çĶµè·¯": 5087,
      "éªĮè¯ģ": 5088,
      "och": 5089,
      "æī©å±ķ": 5090,
      "éĴ¢": 5091,
      "é©¾": 5092,
      "æĶ¯éħį": 5093,
      "\",\"": 5094,
      "å¾Īå¤§": 5095,
      "![": 5096,
      "æ¶¯": 5097,
      "é²ģ": 5098,
      "äººæīįåŁ¹åħ»": 5099,
      "Ġmal": 5100,
      "é¥®": 5101,
      "ä¸Ńåįİæ°ĳæĹıä¼Łå¤§å¤įåħ´": 5102,
      "Ġperiod": 5103,
      "åĴĮåħ¶ä»ĸ": 5104,
      "ç§¯ç´¯": 5105,
      "åľ¨ä¸ŃåĽ½": 5106,
      "åĦ¿åŃĲ": 5107,
      "ward": 5108,
      "åħ´è¶£": 5109,
      "Ġparticular": 5110,
      "çļĦæ¦Ĥå¿µ": 5111,
      "erc": 5112,
      "Ġpattern": 5113,
      "{\\": 5114,
      "åħ»èĢģ": 5115,
      "åľ°åĮºçļĦ": 5116,
      "èĩªä¿¡": 5117,
      "æŁĲç§į": 5118,
      "ç»Ŀå¯¹": 5119,
      "æ¯«": 5120,
      "è¯´æ³ķ": 5121,
      "Ġbecause": 5122,
      "èĮĥåĽ´åĨħ": 5123,
      "åĪĻæĺ¯": 5124,
      "Ġphen": 5125,
      "è¾ĵåĩº": 5126,
      "å´ĩ": 5127,
      "ç»ª": 5128,
      "Ġgra": 5129,
      "åŀĦæĸŃ": 5130,
      "èįĴ": 5131,
      "ty": 5132,
      "ogni": 5133,
      "ev": 5134,
      "Ġmany": 5135,
      "ç«Ł": 5136,
      "èĦı": 5137,
      "åħ¨ä¼ļ": 5138,
      "èī°": 5139,
      "æ¹¿": 5140,
      "åħ¬åı¸çļĦ": 5141,
      "ning": 5142,
      "åĮħåĽ´": 5143,
      "set": 5144,
      "å¼ºçļĦ": 5145,
      "çĶµåĬĽ": 5146,
      "ãĢĭãĢģ": 5147,
      "Ġresist": 5148,
      "ĠRNA": 5149,
      "Ġ11": 5150,
      "ield": 5151,
      "æĹ¥å¸¸": 5152,
      "Ġdays": 5153,
      "ä¼¸": 5154,
      "ä¸»é¢ĺ": 5155,
      "oss": 5156,
      "åħ±åĲĮä½ĵ": 5157,
      "çĶŁçļĦ": 5158,
      "å¼Ĥå¸¸": 5159,
      "fore": 5160,
      "æŃ¦çĶ°ä¿¡çİĦ": 5161,
      "èµ¢": 5162,
      "å¨ģèĥģ": 5163,
      "ç¤ºèĮĥ": 5164,
      "02": 5165,
      "ick": 5166,
      "èĤ¡æĿĥ": 5167,
      "ä¸ľè¥¿": 5168,
      "æŀ¶æŀĦ": 5169,
      "\\'": 5170,
      "ĠçĶŁ": 5171,
      "CS": 5172,
      "æī£": 5173,
      "çĶ¨äººåįķä½į": 5174,
      "éĢĤå½ĵ": 5175,
      "ĠUni": 5176,
      "Ġprovide": 5177,
      "Ġcle": 5178,
      "Ġsingle": 5179,
      "Ġtra": 5180,
      "è¿ĳä»£": 5181,
      "Ġgenetic": 5182,
      "æĿ¡ä¾ĭ": 5183,
      "åīįçļĦ": 5184,
      "Ġinvolved": 5185,
      "ĠĠĠĠĠĠĠĠĠ": 5186,
      "éĹ´çļĦ": 5187,
      "uted": 5188,
      "çĵ¦": 5189,
      "è¡Įä¸ºçļĦ": 5190,
      "éģĹä¼ł": 5191,
      "ä¿Ĭ": 5192,
      "æĭĴç»Ŀ": 5193,
      "èĢĥå¯Ł": 5194,
      "æĿ¡ä»¶ä¸ĭ": 5195,
      "2019": 5196,
      "æŁ±": 5197,
      "æĥ©": 5198,
      "ä¸ºä»Ģä¹Ī": 5199,
      "ites": 5200,
      "å½¢æĪĲçļĦ": 5201,
      "æĢĿè·¯": 5202,
      "Ġmechanisms": 5203,
      "äººå¤§": 5204,
      "79": 5205,
      "LA": 5206,
      "ily": 5207,
      "æģĲ": 5208,
      "è¾ĥå¤§": 5209,
      "èĥ¶": 5210,
      "èĦĤ": 5211,
      "åĨ¬": 5212,
      "}}": 5213,
      "Ġsol": 5214,
      "æĸ°éĹ»": 5215,
      "usep": 5216,
      "æĬµæĬ¼": 5217,
      "çļĦæĹ¶åĢĻ": 5218,
      "LC": 5219,
      "æĻĭ": 5220,
      "ĠX": 5221,
      "ç«ĭèĬ±": 5222,
      "We": 5223,
      "èī¯å¥½çļĦ": 5224,
      "etes": 5225,
      "work": 5226,
      "èµĽ": 5227,
      "Ġseveral": 5228,
      "Ġweek": 5229,
      "å¼ķåħ¥": 5230,
      "çİĩé¢Ĩ": 5231,
      "usepackage": 5232,
      "Ġrece": 5233,
      "æĸ°æĹ¶ä»£ä¸ŃåĽ½çī¹èī²ç¤¾ä¼ļä¸»ä¹ī": 5234,
      "æ¸łéģĵ": 5235,
      "Ġ100": 5236,
      "å¸Ĥåľºç»ıæµİ": 5237,
      "icient": 5238,
      "ĠĠĠĠĠĠĠĠĠĠĠĠĠĠĠĠĠĠĠĠĠĠĠĠĠĠĠĠĠĠĠĠĠĠĠĠĠĠĠĠĠĠĠĠĠĠĠĠ": 5239,
      "çļĦç»ĵæŀľ": 5240,
      "based": 5241,
      "åĮ¹": 5242,
      "Ġabs": 5243,
      "çľŁçĶ°": 5244,
      "äººåĬĽ": 5245,
      "åĽ½å®¶å®īåħ¨": 5246,
      "Ġisol": 5247,
      "è¶ĬåĲİ": 5248,
      "ä½ĵéªĮ": 5249,
      "çļĦæĢĿæĥ³": 5250,
      "Ġexpressed": 5251,
      "acy": 5252,
      "å¢¨": 5253,
      "çģµæ´»": 5254,
      "åĵªäºĽ": 5255,
      "éĿ¢çļĦ": 5256,
      "éĤ£äºĽ": 5257,
      "lation": 5258,
      "\"ãĢĤ": 5259,
      "Ġ24": 5260,
      "åĻ¨çļĦ": 5261,
      "Ġtreated": 5262,
      "Ġterm": 5263,
      "Ġculture": 5264,
      "ensity": 5265,
      "åĺī": 5266,
      "æĪĲäºĨ": 5267,
      "line": 5268,
      "ï¼į": 5269,
      "ç²¾åĩĨ": 5270,
      "Ġchem": 5271,
      "Ġenh": 5272,
      "Ġsupport": 5273,
      "éģĹäº§": 5274,
      "TP": 5275,
      "ĠAll": 5276,
      "å·¦åį«éĹ¨": 5277,
      "Ġpart": 5278,
      "èĢĮä¸įæĺ¯": 5279,
      "èĥ¡": 5280,
      "ä»Ĭå¤©": 5281,
      "ç»ıå¸¸": 5282,
      "åĲįä¸º": 5283,
      "Ġphys": 5284,
      "æĪĳä»¬çļĦ": 5285,
      "Ġmeasured": 5286,
      "å·¥èµĦ": 5287,
      "æķ°æį®çļĦ": 5288,
      "ission": 5289,
      "hes": 5290,
      "**ï¼Ī": 5291,
      "ç¨ĭåº¦ä¸Ĭ": 5292,
      "åĩ¡": 5293,
      "åĬłéĢŁ": 5294,
      "å¤±è´¥": 5295,
      "rast": 5296,
      "ä¹łæĥ¯": 5297,
      "èĥĢ": 5298,
      "Ġmultiple": 5299,
      "66": 5300,
      "çļĦä¿¡æģ¯": 5301,
      "å¥īè¡Į": 5302,
      "åŁºç¡Ģä¸Ĭ": 5303,
      "Th": 5304,
      "çĶĺ": 5305,
      "æĳĨ": 5306,
      "2016": 5307,
      "sec": 5308,
      "otype": 5309,
      "Ġvalue": 5310,
      "que": 5311,
      "Ġdemonstrated": 5312,
      "é¢Ħç®Ĺ": 5313,
      "Ġgreat": 5314,
      "Ġ.": 5315,
      "å¥ł": 5316,
      "åı²æĸĻ": 5317,
      "åĵĪ": 5318,
      "Ġserum": 5319,
      "Ġadv": 5320,
      "çķłå±±": 5321,
      "è°ģ": 5322,
      "èī¯å¥½": 5323,
      "æľīäºĽ": 5324,
      "ä¾Ŀçħ§": 5325,
      "åį±å®³": 5326,
      "ä½ĵçİ°äºĨ": 5327,
      "æ´»åĬ¨çļĦ": 5328,
      "éĶģ": 5329,
      "ä¹ĭè·¯": 5330,
      "æ··åĲĪ": 5331,
      "ĠĠĠĠĠĠĠĠĠĠĠĠĠĠ": 5332,
      "æĿ¡è§Ħå®ļ": 5333,
      "åħ¨ä½ĵ": 5334,
      "å¤±åİ»": 5335,
      "Ġbody": 5336,
      "ties": 5337,
      "è®¿éĹ®": 5338,
      "æİ¢ç©¶": 5339,
      "èĳ£": 5340,
      "Ġbefore": 5341,
      "åħĪåĲİ": 5342,
      "ç¿Į": 5343,
      "å¯Įè£ķ": 5344,
      "ç¦ģæŃ¢": 5345,
      "åĲĦèĩª": 5346,
      "ç¬¬ä¸Ģæ¬¡": 5347,
      "ä½ľä¸ļ": 5348,
      "ĠEx": 5349,
      "viron": 5350,
      "Ġdiseases": 5351,
      "Ġcalc": 5352,
      "Ġtem": 5353,
      "åĪĳæ³ķ": 5354,
      "MI": 5355,
      "çĲĨçĶ±": 5356,
      "ç®¡çĲĨçļĦ": 5357,
      "Ġï¼Ī": 5358,
      "âĢĿï¼Ī": 5359,
      "æģ°": 5360,
      "åĬ³åĬ¨åĲĪåĲĮ": 5361,
      "çŁ©": 5362,
      "æĭĶ": 5363,
      "AL": 5364,
      "03": 5365,
      "æĭľ": 5366,
      "ually": 5367,
      "Ġinterest": 5368,
      "ĠHIV": 5369,
      "ĠâĪĴ": 5370,
      "2015": 5371,
      "åīĬ": 5372,
      "Ġstatis": 5373,
      "èĤ¯": 5374,
      "å¤§è§Ħæ¨¡": 5375,
      "å¹´éĹ´": 5376,
      "ä¸ºåŁºç¡Ģ": 5377,
      "é±": 5378,
      "å»ī": 5379,
      "åĪ°çļĦ": 5380,
      "æĹ¥è¯Ń": 5381,
      "ä¸Ģè·¯": 5382,
      "Ġlik": 5383,
      "çīĻ": 5384,
      "çĹĩçĬ¶": 5385,
      "BS": 5386,
      "âĳł": 5387,
      "Ġstress": 5388,
      "ä¹ĭä¸ĭ": 5389,
      "Ġdom": 5390,
      "æ¸Ĺ": 5391,
      "æķħäºĭ": 5392,
      "çĿĢåĬĽ": 5393,
      "æľīäºĨ": 5394,
      "acc": 5395,
      "é±¼": 5396,
      "å°ģå»º": 5397,
      "Ġcase": 5398,
      "ellular": 5399,
      "å¥¹": 5400,
      "ä¸§": 5401,
      "ä¸īæĪĲ": 5402,
      "æ¾Ħ": 5403,
      "èĳĹä½ľ": 5404,
      "äº§åĵģçļĦ": 5405,
      "ä¼łæī¿": 5406,
      "Ġstandard": 5407,
      "å¤ļæ¬¡": 5408,
      "è§£éĻ¤": 5409,
      "ysis": 5410,
      "pression": 5411,
      "Ġprolif": 5412,
      "åģļåĩº": 5413,
      "ç»©æķĪ": 5414,
      "èļ": 5415,
      "åĮĸåĴĮ": 5416,
      "å±ķç¤º": 5417,
      "CM": 5418,
      "åľĪ": 5419,
      "çĤ¼": 5420,
      "è¿Ł": 5421,
      "ä½ĵç³»çļĦ": 5422,
      "èĢĥè¯ķ": 5423,
      "Ġidentify": 5424,
      "Ġneurons": 5425,
      "æī«": 5426,
      "æĺİæĻº": 5427,
      "ä¼Ļ": 5428,
      "åľ°çĲĥ": 5429,
      "rane": 5430,
      "èħº": 5431,
      "ogenesis": 5432,
      "pir": 5433,
      "Ġresponses": 5434,
      "Ġnec": 5435,
      "Ġ50": 5436,
      "Ġreve": 5437,
      "Â°": 5438,
      "å¡Ķ": 5439,
      "Ġpreviously": 5440,
      "Ġorgan": 5441,
      "atus": 5442,
      "ĠIm": 5443,
      "ä¼ª": 5444,
      "teg": 5445,
      "ç»ıæµİå¢ŀéķ¿": 5446,
      "æĿĨ": 5447,
      "Ġhow": 5448,
      "æĽ¿ä»£": 5449,
      "ĠHealth": 5450,
      "anced": 5451,
      "åħĦå¼Ł": 5452,
      "RA": 5453,
      "çļĦå°ı": 5454,
      "çĪ¶åŃĲ": 5455,
      "omet": 5456,
      "åĩºçīĪç¤¾": 5457,
      "ç´§å¯Ĩ": 5458,
      "Ġben": 5459,
      "Ġhem": 5460,
      "çļĦæĬĢæľ¯": 5461,
      "Ġliver": 5462,
      ")ãĢģ": 5463,
      "Ġdeath": 5464,
      "å¹¶æ²¡æľī": 5465,
      "èĦļ": 5466,
      "59": 5467,
      "Ġest": 5468,
      "Ġsample": 5469,
      "ised": 5470,
      "æĸ½å·¥": 5471,
      "åĲ¯åĬ¨": 5472,
      "äººæ°ĳæĶ¿åºľ": 5473,
      "Ġavailable": 5474,
      "lob": 5475,
      "æŃ»åĲİ": 5476,
      "å¿Ĩ": 5477,
      "çĭ¬çī¹": 5478,
      "æ´¾éģ£": 5479,
      "ç§ĳæĬĢåĪĽæĸ°": 5480,
      "çķª": 5481,
      "åĵįåºĶ": 5482,
      "ä¹¡æĿĳæĮ¯åħ´": 5483,
      "å®ŀåĬĽ": 5484,
      "round": 5485,
      "ä¸Ģä»£": 5486,
      "æĮĸ": 5487,
      "omy": 5488,
      "åĪĩå®ŀ": 5489,
      "ä¼¦çĲĨ": 5490,
      "åħµåĬĽ": 5491,
      "åħħåĪĨåıĳæĮ¥": 5492,
      "ä¸ĢæĹı": 5493,
      "éĻ¢æł¡": 5494,
      "ury": 5495,
      "åĢ¼å¾Ĺ": 5496,
      "Ġpo": 5497,
      "64": 5498,
      "æ¾³": 5499,
      "Ġprac": 5500,
      "Ġsubjects": 5501,
      "åĮºåĿĹ": 5502,
      "08": 5503,
      "å¢ĵ": 5504,
      "ocy": 5505,
      "Ġexperiments": 5506,
      "Ġmethods": 5507,
      "è½´": 5508,
      "ste": 5509,
      "Ġmight": 5510,
      "Ġlarge": 5511,
      "Ġchronic": 5512,
      "æĶ¹éĿ©çļĦ": 5513,
      "æ±ŁæĪ·æĹ¶ä»£": 5514,
      "çīµ": 5515,
      "ä¸įå°ĳ": 5516,
      "NP": 5517,
      "Ġmedical": 5518,
      "æķĪåĬĽ": 5519,
      "Ġprob": 5520,
      "RT": 5521,
      "æĪ¿å±ĭ": 5522,
      "åĲįçļĦ": 5523,
      "æīİ": 5524,
      "é¦Ļæ¸¯": 5525,
      "ĠFurther": 5526,
      "æľĢå¤§çļĦ": 5527,
      "])": 5528,
      "ç»Ħç»ĩçļĦ": 5529,
      "ä»»åĳ½": 5530,
      "77": 5531,
      "Ġpathway": 5532,
      "æĮĤ": 5533,
      "Ġeither": 5534,
      "åĲĪæĪĲ": 5535,
      "æľĿå»·": 5536,
      "related": 5537,
      "åĥ§": 5538,
      "sc": 5539,
      "ä¾ĽåºĶéĵ¾": 5540,
      "æ¶Īæģ¯": 5541,
      "Ġed": 5542,
      "ĠUniversity": 5543,
      "Ġagainst": 5544,
      "æ¯ķä¸ļ": 5545,
      "æ¬¢": 5546,
      "**)": 5547,
      "Ġred": 5548,
      "åĩºçİ°äºĨ": 5549,
      "è¯ķçĤ¹": 5550,
      "å®ļäºĨ": 5551,
      "ium": 5552,
      "Ġwomen": 5553,
      "ï½ŀ": 5554,
      "ument": 5555,
      "ç«ĭåľº": 5556,
      "èĥ½åĬĽçļĦ": 5557,
      "çĶŁäº§åĬĽ": 5558,
      "face": 5559,
      "æĦĪ": 5560,
      "å¸¦æĿ¥çļĦ": 5561,
      "âĳ¡": 5562,
      "æĻ°": 5563,
      "æŃ£å½ĵ": 5564,
      "Ġsep": 5565,
      "ä¿®å¤į": 5566,
      "Ġä¸Ģ": 5567,
      "çĮĽ": 5568,
      "Ġpossible": 5569,
      "åį«æĺŁ": 5570,
      "etwork": 5571,
      "è²": 5572,
      "specific": 5573,
      "æĭ¿": 5574,
      "æıŃç¤º": 5575,
      "åı¯èĥ½ä¼ļ": 5576,
      "å¤ĸçļĦ": 5577,
      "){#": 5578,
      "ä»£è¡¨å¤§ä¼ļ": 5579,
      "éķ¿æĶ¿": 5580,
      "Ġauthors": 5581,
      "æıĲåĩºçļĦ": 5582,
      "äºĭçī©": 5583,
      "Ġdistrib": 5584,
      "Ġgluc": 5585,
      "åħ¬æĸ¹": 5586,
      "Ġfoc": 5587,
      "åĪĿæŃ¥": 5588,
      "åĬŀçĲĨ": 5589,
      "Ġsus": 5590,
      "ç¦»åŃĲ": 5591,
      "Ġimprove": 5592,
      "å¼ºåº¦": 5593,
      "Ġchange": 5594,
      "Ġindependent": 5595,
      "æŃ¥éª¤": 5596,
      "Ġheart": 5597,
      "å¹¶æľª": 5598,
      "98": 5599,
      "è¡£": 5600,
      "å¥ı": 5601,
      "èµĦæºĲçļĦ": 5602,
      "äººä¸º": 5603,
      "æĪĺåĲİ": 5604,
      "54": 5605,
      "52": 5606,
      "ç¼ĸåĪ¶": 5607,
      "æĽ´æĸ°": 5608,
      "åħļçļĦåįģåħ«": 5609,
      "æ²ŁéĢļ": 5610,
      "ĠĠĠĠĠĠĠĠĠĠ": 5611,
      "par": 5612,
      "åłĢ": 5613,
      "çĶ°åŁİ": 5614,
      "ä¸Ńåħ±ä¸Ńå¤®": 5615,
      "å¤§å°Ĩ": 5616,
      "æ´»è·ĥ": 5617,
      "Ġconsidered": 5618,
      "ocial": 5619,
      "åĪ¶ä½ľ": 5620,
      "IT": 5621,
      "åºĶæĢ¥": 5622,
      "Ġcirc": 5623,
      "å¹¡": 5624,
      "Ġlocal": 5625,
      "ãĢĭãĢĬ": 5626,
      "åħļåĨħ": 5627,
      "ãģ®": 5628,
      "Ġindividuals": 5629,
      "Ġcharacteris": 5630,
      "Ġdetermine": 5631,
      "æľįåĬ¡çļĦ": 5632,
      "æ¯ĽåĪ©æ°ı": 5633,
      "verse": 5634,
      "å¼ºåĽ½": 5635,
      "Ġpri": 5636,
      "æĤī": 5637,
      "ĠmRNA": 5638,
      "å¤ªéĺ³": 5639,
      "ysi": 5640,
      "åıĳçĶŁçļĦ": 5641,
      "Ġfunctional": 5642,
      "é¥Ń": 5643,
      "term": 5644,
      "ections": 5645,
      "éĢĤåĲĪ": 5646,
      "Ġapproach": 5647,
      "Ġbreast": 5648,
      "ationship": 5649,
      "æĬ½è±¡": 5650,
      "å®¡çĲĨ": 5651,
      "ä¸Ĭæ´Ľ": 5652,
      "æĸĩæľ¬": 5653,
      "åĪ¶çº¦": 5654,
      "æī¿åĮħ": 5655,
      "çº¹": 5656,
      "rop": 5657,
      "51": 5658,
      "SP": 5659,
      "éĩĳèŀįæľºæŀĦ": 5660,
      "Ġlip": 5661,
      "ey": 5662,
      "å°ıç»Ħ": 5663,
      "ä¹ĭæĪĺä¸Ń": 5664,
      "Ġ16": 5665,
      "ists": 5666,
      "è¶Ĭåīį": 5667,
      "éħįåĲĪ": 5668,
      "èĥľèµĸ": 5669,
      "åŃ¦å®¶": 5670,
      "ä¸Ĭéĩİ": 5671,
      "æĸ°åħ´": 5672,
      "ules": 5673,
      "çŃ¾è®¢": 5674,
      "æĬķéĻį": 5675,
      "å«¡åŃĲ": 5676,
      "åĮºåĪĨ": 5677,
      "é¢ĦæľŁ": 5678,
      "èĢĮåľ¨": 5679,
      "é¢Ĩä¸»": 5680,
      "èµł": 5681,
      "éªĹ": 5682,
      "åĮ»éĻ¢": 5683,
      "Ġrati": 5684,
      "æĿ¨": 5685,
      "èµĦæł¼": 5686,
      "å¦Ļ": 5687,
      "åįĴ": 5688,
      "vironment": 5689,
      "éªıæ²³": 5690,
      "Ġallow": 5691,
      "minist": 5692,
      "åĬĿ": 5693,
      "bl": 5694,
      "åĢ¾åĲĳ": 5695,
      "å¤§éĥ¨åĪĨ": 5696,
      "è¯¦ç»Ĩ": 5697,
      "å°ıçĶ°åİŁ": 5698,
      "asis": 5699,
      "Ġtumors": 5700,
      "èĻ«": 5701,
      "ull": 5702,
      "ä¸ĢæĹ¦": 5703,
      "ner": 5704,
      "åķĨåĬ¡": 5705,
      "88": 5706,
      "æ»ŀ": 5707,
      "Ġimaging": 5708,
      "%.": 5709,
      "äº§ä¸ļéĵ¾": 5710,
      "éħ¬": 5711,
      "åıĳè¡Į": 5712,
      "åĽĽå¹´": 5713,
      "æ»¨": 5714,
      "åĪºæ¿Ģ": 5715,
      "è£ħå¤ĩ": 5716,
      "iven": 5717,
      "erence": 5718,
      "Ġdecreased": 5719,
      "æĶ¿å®Ĺ": 5720,
      "ince": 5721,
      "è®¨ä¼Ĳ": 5722,
      "ount": 5723,
      "ä¸ĬæĿīè°¦ä¿¡": 5724,
      "Ġparticipants": 5725,
      "æ¼ı": 5726,
      "RP": 5727,
      "éĩıåŃĲ": 5728,
      "åİŁå§ĭ": 5729,
      "æľīäºº": 5730,
      "Ġloss": 5731,
      "æİ¥è§¦": 5732,
      "Ġconduc": 5733,
      "æĹłæķĪ": 5734,
      "ä¸įä¹ħ": 5735,
      "ç§ĺå¯Ĩ": 5736,
      "å¾ģä¼Ĳ": 5737,
      "æŃ£ä¹ī": 5738,
      "Ġ14": 5739,
      "è±Ĩ": 5740,
      "Ġgu": 5741,
      "èĢ³": 5742,
      "èĤ¾": 5743,
      "èĢĲ": 5744,
      "å²³": 5745,
      "å»ºæŀĦ": 5746,
      "çĳŀ": 5747,
      "plication": 5748,
      "]\\],": 5749,
      "Ġanalyzed": 5750,
      "æĶ¯åĩº": 5751,
      "åı³åį«éĹ¨": 5752,
      "Ġcompon": 5753,
      "Ġreveal": 5754,
      "Ġpress": 5755,
      "esion": 5756,
      "asing": 5757,
      "Ġvs": 5758,
      "ĠUn": 5759,
      "Ġinduced": 5760,
      "èĭ±è¯Ń": 5761,
      "73": 5762,
      "æī¿è®¤": 5763,
      "çģĮ": 5764,
      "uk": 5765,
      "å·®è·Ŀ": 5766,
      "å¹´é¾Ħ": 5767,
      "å°ļæľª": 5768,
      "åģĩè®¾": 5769,
      "63": 5770,
      "ç¬¬åħŃ": 5771,
      "Ġmonths": 5772,
      "ç¼ºéĻ·": 5773,
      "çļĦæĥħåĨµ": 5774,
      "èģĮå·¥": 5775,
      "èĦ±è´«": 5776,
      "å±ħä½ı": 5777,
      "omic": 5778,
      "Ġmg": 5779,
      "åĲ¸å¼ķ": 5780,
      "çļĦå½¢å¼ı": 5781,
      "pha": 5782,
      "oles": 5783,
      "Ġconfir": 5784,
      "Ġstimul": 5785,
      "ä¸¾è¡Į": 5786,
      "æĺ¯ä¸į": 5787,
      "å½¼": 5788,
      "éĽħ": 5789,
      "æĲľ": 5790,
      "Ġbinding": 5791,
      "ĠĠĠĠĠĠĠĠĠĠĠ": 5792,
      "Ġsymptoms": 5793,
      "åı¦ä¸Ģ": 5794,
      "inu": 5795,
      "ãĢĤ\"": 5796,
      "æ½ľåľ¨": 5797,
      "éĻ·åħ¥": 5798,
      "Ġdown": 5799,
      "Ġvi": 5800,
      "vent": 5801,
      "è¾īåħĥ": 5802,
      "ä¹Łä¼ļ": 5803,
      "æĢİæł·": 5804,
      "åĪĴåĪĨ": 5805,
      "Ġsize": 5806,
      "æłĳç«ĭ": 5807,
      "Ġdetected": 5808,
      "é¢ĳçİĩ": 5809,
      "Ġepit": 5810,
      "BP": 5811,
      "äºĨä¸Ģä¸ª": 5812,
      "è¡¨çİ°ä¸º": 5813,
      "é«ĺçº§": 5814,
      "æ´»åĬĽ": 5815,
      "OR": 5816,
      "Ġhel": 5817,
      "æµģéĢļ": 5818,
      "è®ºè¿°": 5819,
      "ä¸İåħ¶": 5820,
      "éº»": 5821,
      "åŃ¤": 5822,
      "åıĺæĽ´": 5823,
      "çİ°æľī": 5824,
      "åı¯ä»¥éĢļè¿ĩ": 5825,
      "å·¥äºº": 5826,
      "åĿļåĨ³": 5827,
      "71": 5828,
      "åıī": 5829,
      "DA": 5830,
      "æĦıå¿Ĺ": 5831,
      "62": 5832,
      "arm": 5833,
      "Ġmutations": 5834,
      "äº«æľī": 5835,
      "çļĦéķ¿": 5836,
      "respon": 5837,
      "åĶ¯ä¸Ģ": 5838,
      "Ġinsulin": 5839,
      "åĲ´": 5840,
      "ä¸ģ": 5841,
      "å¤ĦåĪĨ": 5842,
      "ç®¡é¢Ĩ": 5843,
      "Ġantibody": 5844,
      "Ġmouse": 5845,
      "Ġpur": 5846,
      "Ġmac": 5847,
      "FP": 5848,
      "ç¬¬ä¸Ģä¸ª": 5849,
      "NS": 5850,
      "æ¡ĥå±±": 5851,
      "Ġdetermined": 5852,
      "ç»ĦæĪĲéĥ¨åĪĨ": 5853,
      "Ġdys": 5854,
      "çĥŁ": 5855,
      "åīįè¿Ľ": 5856,
      "09": 5857,
      "èģĮåĬ¡": 5858,
      "éĩĬæĶ¾": 5859,
      "Ġfac": 5860,
      "å¹²é¢Ħ": 5861,
      "Ġbeing": 5862,
      "Ġmm": 5863,
      "erative": 5864,
      "Ġmetast": 5865,
      "æĸ°åıĳå±ķ": 5866,
      "af": 5867,
      "æµĻ": 5868,
      "ru": 5869,
      "ene": 5870,
      "Al": 5871,
      "å¤Ħç½®": 5872,
      "å½»åºķ": 5873,
      "Ġdeg": 5874,
      "çİ°çĬ¶": 5875,
      "è¾ħåĬ©": 5876,
      "åģ¶": 5877,
      "ä¸Ńåħ¨ä¼ļ": 5878,
      "æĸ°æĹ¶ä»£ä¸ŃåĽ½çī¹èī²ç¤¾ä¼ļä¸»ä¹īæĢĿæĥ³": 5879,
      "æŁ³": 5880,
      "åĭĴ": 5881,
      "ç²ī": 5882,
      "çĽ¸ä¼¼": 5883,
      "Ġver": 5884,
      "éĩįå¤į": 5885,
      "app": 5886,
      "Ġexample": 5887,
      "ish": 5888,
      "é»ĺ": 5889,
      "Ġaccording": 5890,
      "ĠCI": 5891,
      "ĠAm": 5892,
      "Ġextrac": 5893,
      "æľªæĪĲå¹´": 5894,
      "è¿Ļå°±": 5895,
      "è¿ĺè¦ģ": 5896,
      "è¡Ķ": 5897,
      "èĩ³å°ĳ": 5898,
      "ä¸»ç®¡": 5899,
      "ä¸Ĭå¸Ĥ": 5900,
      "æºĥ": 5901,
      "ä»£çłģ": 5902,
      "è²Į": 5903,
      "ject": 5904,
      "ä½¿çĶ¨çļĦ": 5905,
      "æ°¨": 5906,
      "amin": 5907,
      "é©¶": 5908,
      "åįıåĬ©": 5909,
      "ä¿¡æģ¯æĬĢæľ¯": 5910,
      "åĳ¨è¾¹": 5911,
      "çģŃäº¡": 5912,
      "Ġrelationship": 5913,
      "Ġlesion": 5914,
      "å°ıåº·": 5915,
      "çļĦçī¹çĤ¹": 5916,
      "ä¹³": 5917,
      "åħŃè§Ĵ": 5918,
      "CL": 5919,
      "ĠZ": 5920,
      "æ¸ħæ¥ļ": 5921,
      "æĽ´å¥½åľ°": 5922,
      "éĢĿ": 5923,
      "çŃīçº§": 5924,
      "è¾Ĳ": 5925,
      "ian": 5926,
      "Ġcontrols": 5927,
      "drom": 5928,
      "è½¬åĲĳ": 5929,
      "åı°æ¹¾": 5930,
      "æľĪäºĮåįģ": 5931,
      "å·§": 5932,
      "æĦıæĢĿ": 5933,
      "åħ¨å±Ģ": 5934,
      "åĽłåŃĲ": 5935,
      "IL": 5936,
      "åºıåĪĹ": 5937,
      "èĤł": 5938,
      "èĵĿ": 5939,
      "2000": 5940,
      "æĹ©å·Ŀ": 5941,
      "å¤©çĦ¶": 5942,
      "åĮºåĿĹéĵ¾": 5943,
      "__": 5944,
      "èµ´": 5945,
      "èµ¶": 5946,
      "è®¤åĲĮ": 5947,
      "Ġnegative": 5948,
      "\\[": 5949,
      "Ġparamet": 5950,
      "Ġproduction": 5951,
      "ä¿¡ä»°": 5952,
      "éī´å®ļ": 5953,
      "ä¸Ńæľī": 5954,
      "stit": 5955,
      "æľªèĥ½": 5956,
      "ä¸ľåĮĹ": 5957,
      "éĢ¼": 5958,
      "âĢķ": 5959,
      "åįļå£«": 5960,
      "æī¹åĪ¤": 5961,
      "è¸ª": 5962,
      "atal": 5963,
      "ĠCT": 5964,
      "å¸ĤåľºçļĦ": 5965,
      "èĲ¥åħ»": 5966,
      "åľ¨è¿Ļ": 5967,
      "èįĲ": 5968,
      "æ¶ĪéĻ¤": 5969,
      "ä½¿åħ¶": 5970,
      "åĬ³åĬ¨åĬĽ": 5971,
      "æĥŁ": 5972,
      "04": 5973,
      "æī¹è¯Ħ": 5974,
      "éĻĦè¿ĳ": 5975,
      "verage": 5976,
      "):": 5977,
      "ä¸»ä¹īçļĦ": 5978,
      "æµ®": 5979,
      "è¯ķåĽ¾": 5980,
      "çĸĨ": 5981,
      "ivo": 5982,
      "ä¸įåĪ°": 5983,
      "ç«ĭåį³": 5984,
      "Ġpsych": 5985,
      "ables": 5986,
      "æ²¼": 5987,
      "å²Ĺä½į": 5988,
      "Ġcontrast": 5989,
      "RS": 5990,
      "å¡«": 5991,
      "å¤§å°ı": 5992,
      "çļĦä¸ī": 5993,
      "æ´Ĺ": 5994,
      "å±Ģéĥ¨": 5995,
      "åĽŀçŃĶ": 5996,
      "Ġi": 5997,
      "ç¬ĶèĢħ": 5998,
      "èĥ¤": 5999,
      "Ġfour": 6000,
      "Ġdifference": 6001,
      "read": 6002,
      "æİ¥è¿ĳ": 6003,
      "Ġmolecular": 6004,
      "æľĢåĪĿ": 6005,
      "ret": 6006,
      "ä¼łæĦŁåĻ¨": 6007,
      "æ¥¼": 6008,
      "Ġexc": 6009,
      "Ġstrateg": 6010,
      "Ġrecom": 6011,
      "ogenic": 6012,
      "å±ĢéĿ¢": 6013,
      "ĠäºĮ": 6014,
      "ä¸ºæŃ¤": 6015,
      "çĽĳå¯Ł": 6016,
      "comes": 6017,
      "åľ°äº§": 6018,
      "è§Ĩè§Ĵ": 6019,
      "çļĦæķĻåŃ¦": 6020,
      "çļĦåİŁåĪĻ": 6021,
      "amp": 6022,
      "éŁ©": 6023,
      "è´Ŀ": 6024,
      "ä¸Ĭä¸ĭ": 6025,
      "Ġlikely": 6026,
      "åħ¬æŃ£": 6027,
      "æĸ©": 6028,
      "âĢ²": 6029,
      "Ġassay": 6030,
      "å¼ºå¤§": 6031,
      "earch": 6032,
      "ä¸Ģæī¹": 6033,
      "åĲįä¹ī": 6034,
      "å®īåľŁæ¡ĥå±±": 6035,
      "è¯Ī": 6036,
      "ãĢĭãĢģãĢĬ": 6037,
      "ä»¥æŃ¤": 6038,
      "æł·æľ¬": 6039,
      "ä¼łéĢĴ": 6040,
      "éĢīä¸¾": 6041,
      "é¢Ĺ": 6042,
      "idence": 6043,
      "eline": 6044,
      "å¾ĹåĪ°äºĨ": 6045,
      "76": 6046,
      "çļĦåºĶçĶ¨": 6047,
      "è¿Ŀçº¦": 6048,
      "åĩĨåĪĻ": 6049,
      "éĺĶ": 6050,
      "Ġvivo": 6051,
      "Ġconsist": 6052,
      "åĩºåı°": 6053,
      "Ġstrong": 6054,
      "ml": 6055,
      "è®©åŃ¦çĶŁ": 6056,
      "çļĦä»·åĢ¼": 6057,
      "çļĦç§ĳåŃ¦": 6058,
      "Ġlo": 6059,
      "éĤĵ": 6060,
      "åĲĮæŃ¥": 6061,
      "DL": 6062,
      "Ġblock": 6063,
      "come": 6064,
      "pone": 6065,
      "æ¦": 6066,
      "72": 6067,
      "ç¹ģèį£": 6068,
      "æ»ĳ": 6069,
      "FN": 6070,
      "è¡Ĺ": 6071,
      "å¼ºçĥĪ": 6072,
      "ä¸ĩäºº": 6073,
      "åħ¬åħ±æľįåĬ¡": 6074,
      "çļĦçĽ®æłĩ": 6075,
      "Ġantibodies": 6076,
      "åĿĩè¡¡": 6077,
      "Ġå¹´": 6078,
      "åīįçĶ°": 6079,
      "MA": 6080,
      "å¤§å¹ħ": 6081,
      "æĦ¿å¯º": 6082,
      "Ġcommun": 6083,
      "æĤ¨": 6084,
      "ä¸Ģå¹´": 6085,
      "èŀįåħ¥": 6086,
      "åĲİæŀľ": 6087,
      "èĥĨ": 6088,
      "éĺ²æ²»": 6089,
      "çļĦæĿĥåĪ©": 6090,
      "Ġ'": 6091,
      "Ġarter": 6092,
      "æ³ķäºº": 6093,
      "Ġbone": 6094,
      "åİŁåŃĲ": 6095,
      "æĪĺåľº": 6096,
      "itor": 6097,
      "åĲįç§°": 6098,
      "Ġques": 6099,
      "eric": 6100,
      "åĢŁéī´": 6101,
      "åħ¨åħļ": 6102,
      "ume": 6103,
      "æ°¸æŃ£": 6104,
      "è¿Ī": 6105,
      "å°Ŀ": 6106,
      "è¯ŀ": 6107,
      "anding": 6108,
      "åĢºåĪ¸": 6109,
      "CG": 6110,
      "åı¯ä»¥åľ¨": 6111,
      "Ġhep": 6112,
      "ĠmiR": 6113,
      "æķ¬": 6114,
      "Ġassociation": 6115,
      "ä¸ªæĢ§": 6116,
      "é¼ł": 6117,
      "fn": 6118,
      "Ġpul": 6119,
      "æİ¥æĶ¶": 6120,
      "éļ¶": 6121,
      "å¹¶ä¸įæĺ¯": 6122,
      "otherap": 6123,
      "æľīåºı": 6124,
      "Ġapop": 6125,
      "ators": 6126,
      "ean": 6127,
      "Ġexposure": 6128,
      "bility": 6129,
      "åıĸå¾ĹäºĨ": 6130,
      "éķ¿çļĦ": 6131,
      "å¯¹æ¯Ķ": 6132,
      "åĬłä¸Ĭ": 6133,
      "Ġtissues": 6134,
      "èµĭäºĪ": 6135,
      "åĲĥ": 6136,
      "Ġvarious": 6137,
      "å¤įåĲĪ": 6138,
      "atively": 6139,
      "uration": 6140,
      "åħļçļĦé¢Ĩå¯¼": 6141,
      "ĊĠĠ": 6142,
      "çļĦåħ·ä½ĵ": 6143,
      "Ġscore": 6144,
      "åĢºæĿĥäºº": 6145,
      "å¤§å¤§": 6146,
      "Ġ&": 6147,
      "æŃ¦çĶ°æ°ı": 6148,
      "åįķä¸Ģ": 6149,
      "æĽ´å¤ļçļĦ": 6150,
      "Ġresistance": 6151,
      "çºªå¾ĭ": 6152,
      "ä¼łç»ŁæĸĩåĮĸ": 6153,
      "æĮĩæķ°": 6154,
      "atures": 6155,
      "äº§çĶŁäºĨ": 6156,
      "Ġfail": 6157,
      "Ġanalyses": 6158,
      "ams": 6159,
      "æĺ¯ä¸ŃåĽ½": 6160,
      "èµģ": 6161,
      "Ġdiabetes": 6162,
      "*~": 6163,
      "åĴ¨": 6164,
      "æİĪæĿĥ": 6165,
      "ä¸»è§Ĥ": 6166,
      "ä¿ĿçķĻ": 6167,
      "Ġ13": 6168,
      "61": 6169,
      "åıĳèµ·": 6170,
      "Ġflow": 6171,
      "Ġtypes": 6172,
      "åĪ¶çļĦ": 6173,
      "ç§Łèµģ": 6174,
      "ç¨¿": 6175,
      "å§¬": 6176,
      "è´¢å¯Į": 6177,
      "eutic": 6178,
      "åħĥé¾Ł": 6179,
      "å¦ĩå¥³": 6180,
      "ç®Ń": 6181,
      "Cl": 6182,
      "ulations": 6183,
      "èĩ³ä»Ĭ": 6184,
      "ä½Ĳç«¹": 6185,
      "éĨĴ": 6186,
      "$$": 6187,
      "Ġinclude": 6188,
      "ule": 6189,
      "ä¸ŃéĹ´": 6190,
      "æĥĬ": 6191,
      "ä¹ĭéĻħ": 6192,
      "Ġcytok": 6193,
      "çº¤ç»´": 6194,
      "éĺģ": 6195,
      "è¯¸å¤ļ": 6196,
      "äººæ°ĳçļĦ": 6197,
      "çĶŁæ´»çļĦ": 6198,
      "èº«ä½ĵ": 6199,
      "ä¸ªæľĪ": 6200,
      "åĽŀå½Ĵ": 6201,
      "äººæ°ĳå¸ģ": 6202,
      "æĪĲåĪĨ": 6203,
      "å¿į": 6204,
      "cep": 6205,
      "Ġcause": 6206,
      "Ġadj": 6207,
      "very": 6208,
      "TT": 6209,
      "ç»ıåħ¸": 6210,
      "æī¶è´«": 6211,
      "ina": 6212,
      "æľīä¸Ģ": 6213,
      "è®¤è¯ģ": 6214,
      "å¢Ļ": 6215,
      "å¤§å®¶": 6216,
      "åĩºèº«": 6217,
      "Ġproble": 6218,
      "ä¾Ŀæ³ķæ²»": 6219,
      "æĻ¯èĥľ": 6220,
      "ĠCl": 6221,
      "éĢļéģĵ": 6222,
      "ä¸įåĪ©": 6223,
      "Ġinteg": 6224,
      "ä¸ºæł¸å¿ĥçļĦ": 6225,
      "æ¯ıå¹´": 6226,
      "çļĦåİŁåĽł": 6227,
      "æĶ»åĿļ": 6228,
      "æ³ķåĽ½": 6229,
      "IC": 6230,
      "åħ±è¯Ĩ": 6231,
      "éļıæľº": 6232,
      "é»ĳçĶ°": 6233,
      "è¾¹çķĮ": 6234,
      "æİī": 6235,
      "ç¬ł": 6236,
      "math": 6237,
      "===": 6238,
      "å¸¦åĬ¨": 6239,
      "ä»¥åīį": 6240,
      "roup": 6241,
      "*-": 6242,
      "--------------------": 6243,
      "ä¸Ģä½ĵåĮĸ": 6244,
      "å¥Ī": 6245,
      "2014": 6246,
      "ä¹Łåľ¨": 6247,
      "ably": 6248,
      "Ġpressure": 6249,
      "å°ıæĹ©å·Ŀ": 6250,
      "åıĳå±ķåĴĮ": 6251,
      "èĭıèģĶ": 6252,
      "åħļçļĦåįģåħ«å¤§": 6253,
      "500": 6254,
      "è¿Ľåı£": 6255,
      "ä¾ĿçĦ¶": 6256,
      "åĪĿæľŁ": 6257,
      "err": 6258,
      "Ġfocus": 6259,
      "éľ¸": 6260,
      "ä¸¾æİª": 6261,
      "å®īèīº": 6262,
      "rial": 6263,
      "Ġproced": 6264,
      "Ġhelp": 6265,
      "ople": 6266,
      "ode": 6267,
      "æľ¬æĦ¿å¯º": 6268,
      "ds": 6269,
      "å®Ļ": 6270,
      "epti": 6271,
      "çļĦåĽ½å®¶": 6272,
      "äºĭæĥħ": 6273,
      "ä¹łè¿ĳå¹³æĸ°æĹ¶ä»£ä¸ŃåĽ½çī¹èī²ç¤¾ä¼ļä¸»ä¹īæĢĿæĥ³": 6274,
      "éĺ²èĮĥ": 6275,
      "åĩºèµĦ": 6276,
      "åŃ©åŃĲ": 6277,
      "åĨ³è®®": 6278,
      "åĨ°": 6279,
      "éĩĩè´Ń": 6280,
      "è¢«è®¤ä¸º": 6281,
      "ĠPD": 6282,
      "çĶŁæĢģæĸĩæĺİ": 6283,
      "å¤§åŀĭ": 6284,
      "éģŃåĪ°": 6285,
      "posed": 6286,
      "roc": 6287,
      "Ġmuscle": 6288,
      "æ¦Ĥæĭ¬": 6289,
      "zym": 6290,
      "ç®Ģç§°": 6291,
      "2022": 6292,
      "ä¸İæŃ¤": 6293,
      "è¥¿åĨĽ": 6294,
      "Ġexperi": 6295,
      "åıĳçĶµ": 6296,
      "æĸĩç¦Ħ": 6297,
      "åİĨåı²ä¸Ĭ": 6298,
      "ĠPh": 6299,
      "Ġproliferation": 6300,
      "Ġyo": 6301,
      "çł´äº§": 6302,
      "Ġ<": 6303,
      "åįĹéĥ¨": 6304,
      "æ´»æĢ§": 6305,
      "Ġoutcomes": 6306,
      "ä¹īåħĥ": 6307,
      "ä¹Į": 6308,
      "Ġlife": 6309,
      "Ġhypothe": 6310,
      "ĊĊĠ": 6311,
      "é«ĺäºİ": 6312,
      "åıł": 6313,
      "åĨ²åĩ»": 6314,
      "Ġdeveloped": 6315,
      "åľ°åĿĢ": 6316,
      "Ġvery": 6317,
      "ä¹ĭåıĺ": 6318,
      "åĪĨè£Ĥ": 6319,
      "ãĢĭï¼Ī": 6320,
      "ices": 6321,
      "è¥¿éĥ¨": 6322,
      "ended": 6323,
      "Ġvitro": 6324,
      "æĲŀ": 6325,
      "ters": 6326,
      "ĠAD": 6327,
      "è½¬åĮĸä¸º": 6328,
      "Ġleast": 6329,
      "ä¼Ĺå¤ļ": 6330,
      "è¾Ĳå°Ħ": 6331,
      "ask": 6332,
      "Ġinjury": 6333,
      "æľįåĬ¡åĻ¨": 6334,
      "ä¹ĭå¥³": 6335,
      "Ġmit": 6336,
      "ĠNo": 6337,
      "Ġstatus": 6338,
      "ä¸ĭåĪĹ": 6339,
      "æĶ¾åľ¨": 6340,
      "æĶ¾å¼ĥ": 6341,
      "æľīæĿĥ": 6342,
      "ĠMore": 6343,
      "ä¿¡ä»»": 6344,
      "ĠçĶŁæ¶¯": 6345,
      "opath": 6346,
      "åħĪéĶĭ": 6347,
      "æıĲäº¤": 6348,
      "dependent": 6349,
      "ĠEn": 6350,
      "Ġestab": 6351,
      "ĠII": 6352,
      "åĭ¤": 6353,
      "æ¢ħ": 6354,
      "æĪĳéĥ¨": 6355,
      "åµ": 6356,
      "æ´ª": 6357,
      "æ·»": 6358,
      "elet": 6359,
      "èĪį": 6360,
      "plications": 6361,
      "89": 6362,
      "é²ľæĺİ": 6363,
      "æĶ¿åĬ¡": 6364,
      "Ġday": 6365,
      "ä¸»å¸Ń": 6366,
      "å¤§éĩıçļĦ": 6367,
      "PA": 6368,
      "çļĦç²¾ç¥ŀ": 6369,
      "Ġindicated": 6370,
      "æıĴ": 6371,
      "tically": 6372,
      "æİĴéĻ¤": 6373,
      "æĬķèµĦèĢħ": 6374,
      "æ¸ħæĻ°": 6375,
      "text": 6376,
      "mission": 6377,
      "éĵľ": 6378,
      "åĪĨå·¥": 6379,
      "Ġequ": 6380,
      "è°ĥè§£": 6381,
      "Ġadminist": 6382,
      "ä¾µå®³": 6383,
      "æ¶¨": 6384,
      "atin": 6385,
      "con": 6386,
      "åıĳçĶŁäºĨ": 6387,
      "èĥĮæĻ¯ä¸ĭ": 6388,
      "Ġsevere": 6389,
      "çĪ±åĽ½": 6390,
      "clusion": 6391,
      "Ġtrain": 6392,
      "orders": 6393,
      "é£İæł¼": 6394,
      "åĲĮçĽŁ": 6395,
      "Ġrequired": 6396,
      "æĥħèĬĤ": 6397,
      "MO": 6398,
      "Ġstate": 6399,
      "æ°ĳçĶŁ": 6400,
      "å¤§åĴĮ": 6401,
      "é¦Ī": 6402,
      "è¯Ŀè¯Ń": 6403,
      "**ãĢĤ": 6404,
      "è´Łæĭħ": 6405,
      "æīĢéľĢ": 6406,
      "ç©ºæ°Ķ": 6407,
      "Ġstrain": 6408,
      "åĮºçļĦ": 6409,
      "åĽ½å¤ĸ": 6410,
      "æĦıè¯Ĩå½¢æĢģ": 6411,
      "è¾©è¯ģ": 6412,
      "ä¸ĵé¡¹": 6413,
      "Ġbel": 6414,
      "æĹ¶æľŁçļĦ": 6415,
      "Ġplasma": 6416,
      "çĻ¾å§ĵ": 6417,
      "çļĦçĽ®çļĦ": 6418,
      "Ġarea": 6419,
      "Ġcri": 6420,
      "æĶ»æīĵ": 6421,
      "åĨľäº§åĵģ": 6422,
      "è¾Ĩ": 6423,
      "æįŁä¼¤": 6424,
      "Ġsyndrom": 6425,
      "å®ĩå®Ļ": 6426,
      "æĭį": 6427,
      "åĴ¨è¯¢": 6428,
      "ä¸Ģå¸¦ä¸Ģè·¯": 6429,
      "ç¬¦åı·": 6430,
      "åıĳåĩº": 6431,
      "çĽĳæİ§": 6432,
      "å¼ıçļĦ": 6433,
      "85": 6434,
      "èį¡": 6435,
      "Ġgeneral": 6436,
      "Ġtechni": 6437,
      "å®ĹæĪĳéĥ¨": 6438,
      "Ġorder": 6439,
      "ç¾½æŁ´ç§ĢåĲī": 6440,
      "owled": 6441,
      "Ġformation": 6442,
      "agement": 6443,
      "å¥Ķ": 6444,
      "ä¸įåĬ¨": 6445,
      "ä»£è°¢": 6446,
      "Ġmembrane": 6447,
      "èĢģå¹´": 6448,
      "ä¸įåı¯èĥ½": 6449,
      "Ġnetwork": 6450,
      "ç»ĵæŀĦçļĦ": 6451,
      "74": 6452,
      "æīĢç¤º": 6453,
      "åĬ£": 6454,
      "çĶ¨æĿ¥": 6455,
      "Ġbacter": 6456,
      "2013": 6457,
      "EC": 6458,
      "ä½İç¢³": 6459,
      "ĠOn": 6460,
      "Ġpercent": 6461,
      "Ġcellular": 6462,
      "aneous": 6463,
      "è®¤çľŁ": 6464,
      "ç¿»è¯ĳ": 6465,
      "Ġvia": 6466,
      "å°ĳå¹´": 6467,
      "Ġthem": 6468,
      "çº¿æĢ§": 6469,
      "^âĪĴ": 6470,
      "æĢİä¹Ī": 6471,
      "æĢĿæĥ³æĶ¿æ²»": 6472,
      "éĢĤçĶ¨äºİ": 6473,
      "åıĳèĤ²": 6474,
      "ocument": 6475,
      "åīįåĲİ": 6476,
      "æķıæĦŁ": 6477,
      "èħĶ": 6478,
      "æĸ°ä¸ŃåĽ½": 6479,
      "èİ«": 6480,
      "çļĦé£İéĻ©": 6481,
      "æ³¥": 6482,
      "çİ¯ä¿Ŀ": 6483,
      "æĴ¤éĶĢ": 6484,
      "çĤ¹çļĦ": 6485,
      "ĠÃĹ": 6486,
      "å¿ĺ": 6487,
      "æ§": 6488,
      "çķ´": 6489,
      "Ġrange": 6490,
      "å¾Īéļ¾": 6491,
      "]--": 6492,
      "è¾Ł": 6493,
      "æľºéģĩ": 6494,
      "Ġglucose": 6495,
      "çļĦä¸ŃåĽ½": 6496,
      "06": 6497,
      "äº²èĩª": 6498,
      "æĪ¿åľ°äº§": 6499,
      "å±ı": 6500,
      "æ¸¸æĪı": 6501,
      "]--[@": 6502,
      "è¶ħè¶Ĭ": 6503,
      "æĿ¡ä»¶çļĦ": 6504,
      "åģļæ³ķ": 6505,
      "éĺª": 6506,
      "å±ķçİ°": 6507,
      "aps": 6508,
      "çº³ç¨İ": 6509,
      "æľĢä¸º": 6510,
      "æĥħå¢ĥ": 6511,
      "ç©·": 6512,
      "ä¿¡æģ¯çļĦ": 6513,
      "Ch": 6514,
      "åĵģçīĮ": 6515,
      "ä¸²": 6516,
      "ĠCO": 6517,
      "è£ģåĪ¤": 6518,
      "å·¨å¤§çļĦ": 6519,
      "åħ±åĲĮå¯Įè£ķ": 6520,
      "AB": 6521,
      "æĬµæĬĹ": 6522,
      "ç¦»å¼Ģ": 6523,
      "ä½İäºİ": 6524,
      "Ġhowever": 6525,
      "Ġproduc": 6526,
      "æī¾åĪ°": 6527,
      "åıĳæĺİ": 6528,
      "æħİ": 6529,
      "å¦¹": 6530,
      "Ġregions": 6531,
      "æ²»çĲĨä½ĵç³»": 6532,
      "éŀ": 6533,
      "Ġpain": 6534,
      "è½½ä½ĵ": 6535,
      "åĽ¾ä¹¦": 6536,
      "Ġä¸ī": 6537,
      "normal": 6538,
      "Ġlines": 6539,
      "Ġang": 6540,
      "æ°ĳä¼Ĺ": 6541,
      "Ġinflammatory": 6542,
      "åĲĪå¹¶": 6543,
      "ç¤¾ä¼ļç§ĳåŃ¦": 6544,
      "more": 6545,
      "åİŁæľ¬": 6546,
      "Ġcount": 6547,
      "Ġbenef": 6548,
      "ç®¡è¾ĸ": 6549,
      "rogen": 6550,
      "å®¤çĶºå¹ķåºľ": 6551,
      "]ãĢĤ": 6552,
      "çĸı": 6553,
      "ogene": 6554,
      "cript": 6555,
      "å¤įæĿĤçļĦ": 6556,
      "éĺĲè¿°": 6557,
      "æĽ°": 6558,
      "äºĭå®ŀä¸Ĭ": 6559,
      "æĢĴ": 6560,
      "Ġoften": 6561,
      "å§Ķä¼ļ": 6562,
      "å¤ļå¹´": 6563,
      "ä¸»ä»»": 6564,
      "åĨįçĶŁ": 6565,
      "vant": 6566,
      "ç¡¬ä»¶": 6567,
      "è£ħç½®": 6568,
      "PCR": 6569,
      "äº¤æĪĺ": 6570,
      "å½°": 6571,
      "è¾ĥä½İ": 6572,
      "tality": 6573,
      "ĠIg": 6574,
      "Ġhealthy": 6575,
      "Ġratio": 6576,
      "æ³ķå®ĺ": 6577,
      "èĬ¯": 6578,
      "æ¡£æ¡Ī": 6579,
      "é«ĺçŃīæķĻèĤ²": 6580,
      "Ġacross": 6581,
      "Ġacute": 6582,
      "unction": 6583,
      "å¸¦é¢Ĩ": 6584,
      "åĬŀåħ¬": 6585,
      "ta": 6586,
      "åĴĮå®ŀè·µ": 6587,
      "PC": 6588,
      "åħļåĴĮåĽ½å®¶": 6589,
      "mic": 6590,
      "æĮĸæİĺ": 6591,
      "æĽ´é«ĺ": 6592,
      "Ġ--": 6593,
      "ours": 6594,
      "ç¼Ķ": 6595,
      "æĺ¯æĪĺåĽ½æĹ¶ä»£": 6596,
      "æĺ¾çĦ¶": 6597,
      "IN": 6598,
      "Ġeven": 6599,
      "æĬ¢": 6600,
      "Ġmen": 6601,
      "Ġlink": 6602,
      "Ġsurface": 6603,
      "éº¦": 6604,
      "ç¼ĸè¾ĳ": 6605,
      "æ·¡": 6606,
      "åľ°æĸ¹æĶ¿åºľ": 6607,
      "Â±": 6608,
      "ĠThere": 6609,
      "è®²è¯Ŀ": 6610,
      "å¯Ĩåº¦": 6611,
      "åįłæľī": 6612,
      "åĲ«ä¹ī": 6613,
      "èĢģå¸Ī": 6614,
      "\\<": 6615,
      "Ġbehavior": 6616,
      "ä»ķäºİ": 6617,
      "ç«ĭè¶³": 6618,
      "like": 6619,
      "ä¸įèī¯": 6620,
      "çļĦæķĻèĤ²": 6621,
      "ored": 6622,
      "å©ļå§»": 6623,
      "åĹ£": 6624,
      "åĲİæľŁ": 6625,
      "é«ĺéĢŁ": 6626,
      "è§Ī": 6627,
      "Ġdam": 6628,
      "åĲĹ": 6629,
      "Ġpa": 6630,
      "åı¯èĥ½æĺ¯": 6631,
      "åĿ¦": 6632,
      "Ġç¬¬äºĮ": 6633,
      "Ġpathways": 6634,
      "MD": 6635,
      "æĬĹæĹ¥": 6636,
      "åĵ¥": 6637,
      "Ġdose": 6638,
      "æľ¬ä¹¦": 6639,
      "çī©èģĶç½ĳ": 6640,
      "Ġill": 6641,
      "å®ŀæĹ¶": 6642,
      "ä¸įè¯¦": 6643,
      "åįĹåĮĹ": 6644,
      "å¾ĭå¸Ī": 6645,
      "Ġepithe": 6646,
      "ãĢĭãĢĤ": 6647,
      "ĠRe": 6648,
      "èµ·è¯ī": 6649,
      "çļĦæĸĩåĮĸ": 6650,
      "ison": 6651,
      "æĮĩåįĹ": 6652,
      "åŀĤ": 6653,
      "åĵģè´¨": 6654,
      "å»ºç«ĭäºĨ": 6655,
      "è®¤åı¯": 6656,
      "Ġbar": 6657,
      "æĲŃ": 6658,
      "ä¸Ģé¡¹": 6659,
      "åĩĿèģļ": 6660,
      "Ġ25": 6661,
      "åĭĺ": 6662,
      "Ġ95": 6663,
      "æ¼«": 6664,
      "äº§çī©": 6665,
      "è¯Ńæĸĩ": 6666,
      "ç«ŀäºīåĬĽ": 6667,
      "æĢĿæĶ¿": 6668,
      "MT": 6669,
      "ray": 6670,
      "çĨĬ": 6671,
      "å¾ģæĶ¶": 6672,
      "æ¼Ķåıĺ": 6673,
      "Ġconcentr": 6674,
      "æĪĲæķĪ": 6675,
      "Ġenc": 6676,
      "æīĭæľ¯": 6677,
      "å¹²æī°": 6678,
      "ochem": 6679,
      "èĮĥçķ´": 6680,
      "æī¿è¯º": 6681,
      "struc": 6682,
      "**ï¼Į": 6683,
      "æ±ĩçİĩ": 6684,
      "ography": 6685,
      "é¹¿": 6686,
      "äº«å¹´": 6687,
      "åİħ": 6688,
      "çº³ç±³": 6689,
      "æīĢæľīæĿĥ": 6690,
      "ä¿®è®¢": 6691,
      "å¤§åĽ½": 6692,
      "åıĺå¾Ĺ": 6693,
      "An": 6694,
      "æ¸ĹéĢı": 6695,
      "Ġaim": 6696,
      "æŀģå¤§": 6697,
      "èĽĭçĻ½è´¨": 6698,
      "ognitive": 6699,
      "ring": 6700,
      "æľįåĬ¡ä¸ļ": 6701,
      "è®°å¿Ĩ": 6702,
      "èħĲè´¥": 6703,
      "]),": 6704,
      "æµĵåº¦": 6705,
      "plant": 6706,
      "2012": 6707,
      "åĳ¨åĽ´": 6708,
      "çĽ¸åıį": 6709,
      "æĳĩ": 6710,
      "Ġfamily": 6711,
      "æľ¬èĥ½": 6712,
      "è§Ĥæµĭ": 6713,
      "Ġquality": 6714,
      "oy": 6715,
      "åłĨ": 6716,
      "ĠThus": 6717,
      "å±ĢéĻĲ": 6718,
      "Ġconcentration": 6719,
      "ä»ĸåľ¨": 6720,
      "å¸ĿåĽ½": 6721,
      ")**": 6722,
      "æĺ¯ä»Ģä¹Ī": 6723,
      "ç»Łä¸ĢçļĦ": 6724,
      "tosis": 6725,
      "Ġcriter": 6726,
      "Ġcarcin": 6727,
      "GDP": 6728,
      "æ¯Ķéĩį": 6729,
      "æ»¤": 6730,
      "ĠBi": 6731,
      "ĠCom": 6732,
      "trans": 6733,
      "éĩĩéĽĨ": 6734,
      "ength": 6735,
      "ä¸īç§į": 6736,
      "Ġrevealed": 6737,
      "æĦŁçŁ¥": 6738,
      "åĲ¨": 6739,
      "SS": 6740,
      "åĳ¼åĲ¸": 6741,
      "çłĶç©¶æīĢ": 6742,
      "inant": 6743,
      "è¹": 6744,
      "mm": 6745,
      "åŃ¦ä¼ļ": 6746,
      "ä¾µçĬ¯": 6747,
      "åĽ½éĺ²": 6748,
      "ä¸ĭæĿ¥": 6749,
      "å¹¸ç¦ı": 6750,
      "äº¤åıī": 6751,
      "çªģåıĺ": 6752,
      "é«ĵ": 6753,
      "æ¿ĳ": 6754,
      "å®¡ç¾İ": 6755,
      "As": 6756,
      "æŃ¦è£ħ": 6757,
      "put": 6758,
      "äººæĸĩ": 6759,
      "ä¾Ŀæīĺ": 6760,
      "åħ¶å®ĥ": 6761,
      "æĸ°æĬĢæľ¯": 6762,
      "èĪĨ": 6763,
      "åīĳ": 6764,
      "Ġprior": 6765,
      "å¿§": 6766,
      "æİ¥åı£": 6767,
      "èĥ¸": 6768,
      "Ġprovided": 6769,
      "æĳĺ": 6770,
      "æłĩåĩĨåĮĸ": 6771,
      "Ġcorrelation": 6772,
      "æīĢæľīçļĦ": 6773,
      "çİ°åľº": 6774,
      "è§Ĩé¢ĳ": 6775,
      "âĳ¢": 6776,
      "çļĦè¿ĩç¨ĭä¸Ń": 6777,
      "07": 6778,
      "çĽ´åĪ°": 6779,
      "å¤§æ°Ķ": 6780,
      "Ġrandom": 6781,
      "ä»Ĭå·Ŀæ°ı": 6782,
      "æĹ¥èµ·": 6783,
      "æĸĩèīº": 6784,
      "Ġleft": 6785,
      "äººæł¼": 6786,
      "æıĲèµ·": 6787,
      "èĬĤèĥ½": 6788,
      "é¡ºåºı": 6789,
      "æĽ´æĺ¯": 6790,
      "ances": 6791,
      "éĺ²å¾¡": 6792,
      "ä»ħä»ħ": 6793,
      "ĠAc": 6794,
      "å¯¸": 6795,
      "Ġeffective": 6796,
      "ä¸İåħ¶ä»ĸ": 6797,
      "åľ°åŁŁ": 6798,
      "åģľæŃ¢": 6799,
      "å¾®çĶŁçī©": 6800,
      "å®ĥæĺ¯": 6801,
      "åħ¬çĽĬ": 6802,
      "åıĺåĬ¨": 6803,
      "æ·Ģ": 6804,
      "è¢«è§Ĩä¸º": 6805,
      "æĸ¹ä½į": 6806,
      "æĲº": 6807,
      "Ġvalid": 6808,
      "Ġweight": 6809,
      "åĿ¡": 6810,
      "ĠResearch": 6811,
      "åı¦ä¸Ģä¸ª": 6812,
      "çļĦåŃ¦ä¹ł": 6813,
      "å±±åĲį": 6814,
      "cence": 6815,
      "emia": 6816,
      "Ġreport": 6817,
      "æĤŁ": 6818,
      "å¹¶å°Ĩ": 6819,
      "Ġ|": 6820,
      "ä¿ĿåŃĺ": 6821,
      "Ġpublic": 6822,
      "ä¼°è®¡": 6823,
      "æĶ¿åħļ": 6824,
      "çłĶç©¶äººåĳĺ": 6825,
      "éĽĩ": 6826,
      "Ġadditional": 6827,
      "æĭĨ": 6828,
      "å±ħåŁİ": 6829,
      "ç¨³å®ļçļĦ": 6830,
      "âĢ¢": 6831,
      "Ġpeople": 6832,
      "Ġol": 6833,
      "æĢ»éĩı": 6834,
      "å®¶èĢģ": 6835,
      "ç½ĳç»ľå®īåħ¨": 6836,
      "enter": 6837,
      "èĥİ": 6838,
      "åľºæīĢ": 6839,
      "Ġinhibition": 6840,
      "Ġmortality": 6841,
      "owledge": 6842,
      "å¤§åŃ¦çĶŁ": 6843,
      "å´©": 6844,
      "å¼Łå¼Ł": 6845,
      "Ġtherapeutic": 6846,
      "des": 6847,
      "ç¥Ń": 6848,
      "æĬ«": 6849,
      "ä¸ĢåĲĳ": 6850,
      "åĲĪçĲĨçļĦ": 6851,
      "åľ¨ä¸Ģèµ·": 6852,
      "åĪĨåī²": 6853,
      "Ġreac": 6854,
      "éĢ¸": 6855,
      "çŁ¢": 6856,
      "Ġinflammation": 6857,
      "93": 6858,
      "èĥ½åĬĽåĴĮ": 6859,
      "Ġprogression": 6860,
      "æĴ¤éĢĢ": 6861,
      "æĢ§ä¸İ": 6862,
      "ä¸Ģåº¦": 6863,
      "otherapy": 6864,
      "éĢļè¿ĩå¯¹": 6865,
      "åī¥": 6866,
      "Ġincub": 6867,
      "ession": 6868,
      "æĶ¿çŃĸçļĦ": 6869,
      "Ġability": 6870,
      "ĠST": 6871,
      "çķħ": 6872,
      "æľĢæĹ©": 6873,
      "è¿Ľè¡ĮçļĦ": 6874,
      "go": 6875,
      "æĪĺå½¹": 6876,
      "èµµ": 6877,
      ".](": 6878,
      "utes": 6879,
      "Ġstage": 6880,
      "å¿ħè¦ģçļĦ": 6881,
      "æĮĩä»¤": 6882,
      "æīĵåĩ»": 6883,
      "ç§įç±»": 6884,
      "èĲ¥éĶĢ": 6885,
      "Ġcharacteristics": 6886,
      "æŃ§": 6887,
      "Ġax": 6888,
      "æİ¨èįĲ": 6889,
      "ä¿¡å¿µ": 6890,
      "åĨħåŃĺ": 6891,
      "çĶ¨åľ°": 6892,
      "è¿Ĳä½ľ": 6893,
      "çŃīéĹ®é¢ĺ": 6894,
      "è¡Ķæİ¥": 6895,
      "å«ģ": 6896,
      "èĴ²": 6897,
      "èķ´": 6898,
      "ä¸¤èĢħ": 6899,
      "æ°ĳæ³ķåħ¸": 6900,
      "èģĶåĲĪåĽ½": 6901,
      "åĶ¯çī©": 6902,
      "SCs": 6903,
      "Ġweeks": 6904,
      "Ġfrequency": 6905,
      "ç¦ħ": 6906,
      "Ġpresented": 6907,
      "éĹ´æİ¥": 6908,
      "çļĦéĩįå¤§": 6909,
      "ä¹Łå°±": 6910,
      "æ£®æŀĹ": 6911,
      "çĴ": 6912,
      "ä»¥ä¸ĬçļĦ": 6913,
      "æµĻæ±Ł": 6914,
      "æĤ¬": 6915,
      "iat": 6916,
      "éķ¿å®ĹæĪĳéĥ¨": 6917,
      "æŁĲä¸Ģ": 6918,
      "æĮĩå®ļ": 6919,
      "æĶ»éĻ·": 6920,
      "aking": 6921,
      "é¢Ī": 6922,
      "Ġdifferentiation": 6923,
      "tice": 6924,
      "åĪĨæķ£": 6925,
      "ç¾İå¥½": 6926,
      "Ġrates": 6927,
      "Ġwhereas": 6928,
      "Ġdetect": 6929,
      "è¡ĮæĶ¿æľºåħ³": 6930,
      "èĤĥ": 6931,
      "Ġimpact": 6932,
      "Ġscreen": 6933,
      "åĽ¢ä½ĵ": 6934,
      "press": 6935,
      "æľĹ": 6936,
      "Ġz": 6937,
      "éŃı": 6938,
      "Ġder": 6939,
      "èĤ¡ç¥¨": 6940,
      "éĹ²": 6941,
      "çļĦè®¤è¯Ĩ": 6942,
      "Ġdisorders": 6943,
      "order": 6944,
      "itation": 6945,
      "çŁ³çĶ°": 6946,
      "èĳ£äºĭ": 6947,
      "æŁ´çĶ°": 6948,
      "çº¢èī²": 6949,
      "èĳ¬": 6950,
      "éĥ½ä¼ļ": 6951,
      "æ¯ıä¸Ģä¸ª": 6952,
      "å±±åĨħ": 6953,
      "ĠCon": 6954,
      "éģµå®Ī": 6955,
      "ĠSci": 6956,
      "æŃ¦çĶ°åĨĽ": 6957,
      "é¡ºåĪ©": 6958,
      "ĠAlthough": 6959,
      "300": 6960,
      "è¡į": 6961,
      "æĻ®åıĬ": 6962,
      "éĵ¸": 6963,
      "æ°Ķä½ĵ": 6964,
      "roscop": 6965,
      "çļĦåĬŁèĥ½": 6966,
      "æ±¤": 6967,
      "æĿ°": 6968,
      "Ġimages": 6969,
      "æĢķ": 6970,
      "Ġphase": 6971,
      "Ġrelative": 6972,
      "Ġdefined": 6973,
      "åĬłè´º": 6974,
      "Ġassessed": 6975,
      "æ³ķåŃ¦": 6976,
      "åħ¬å¸ĥ": 6977,
      "æīĢè¿°": 6978,
      "plied": 6979,
      "æ³¡": 6980,
      "è¾Ľ": 6981,
      "åı¯æĮģç»Ńåıĳå±ķ": 6982,
      "åĲīå·Ŀ": 6983,
      "åıįæĺłäºĨ": 6984,
      "æľĢé«ĺäººæ°ĳæ³ķéĻ¢": 6985,
      "æĬ¥éģĵ": 6986,
      "ateral": 6987,
      "è°ĪåĪ¤": 6988,
      "å°±åı¯ä»¥": 6989,
      "HC": 6990,
      "æľīåı¯èĥ½": 6991,
      "1000": 6992,
      "2010": 6993,
      "æľ¬äºº": 6994,
      "osom": 6995,
      "Ġdat": 6996,
      "ç®±": 6997,
      "åıįé¦Ī": 6998,
      "æŃ¦çĶ°å®¶": 6999,
      "åħ¨è¿ĩç¨ĭ": 7000,
      "åį¿": 7001,
      "ocol": 7002,
      "åįıä½ľ": 7003,
      "ĠTherefore": 7004,
      "å¯Ĵ": 7005,
      "Ĉą": 7006,
      "Ġu": 7007,
      "åı¯èĥ½æĢ§": 7008,
      "ereb": 7009,
      "è¯´çļĦ": 7010,
      "åħ¥ä¾µ": 7011,
      "å°ĨåĨĽè¶³åĪ©ä¹ī": 7012,
      "ä¸ºä¾ĭ": 7013,
      "Ġenvironment": 7014,
      "æį·": 7015,
      "86": 7016,
      "åĢŁåĬ©": 7017,
      "ç§Ģå¿ł": 7018,
      "åºĹ": 7019,
      "è§Ĩè§ī": 7020,
      "ä¹Łè¦ģ": 7021,
      "To": 7022,
      "Ġindicate": 7023,
      "å°ĸ": 7024,
      "çªģçĦ¶": 7025,
      "äºĴçĽ¸": 7026,
      "å»¶ç»Ń": 7027,
      "Ġx": 7028,
      "çİ°ä»£åĮĸçļĦ": 7029,
      "ç²Ĺ": 7030,
      "é¬": 7031,
      "ler": 7032,
      "Ġgiven": 7033,
      "åĲİèĢħ": 7034,
      ".(": 7035,
      "è¾ĥé«ĺ": 7036,
      "Ġâī": 7037,
      "ç§ĳåŃ¦å®¶": 7038,
      "æĥħç»ª": 7039,
      "è¿Ļå°±æĺ¯": 7040,
      "æ¬¡åŃĲ": 7041,
      "ij": 7042,
      "çĽĪ": 7043,
      "EP": 7044,
      "é¢ģå¸ĥ": 7045,
      "96": 7046,
      "èģļçĦ¦": 7047,
      "å¤ĸåĽ½": 7048,
      "Ġsensitivity": 7049,
      "å¥³åĦ¿": 7050,
      "Ġlarg": 7051,
      "ä»·åĢ¼çļĦ": 7052,
      "Ġhospital": 7053,
      "åĢºåĬ¡äºº": 7054,
      "æĪĴ": 7055,
      "å¦¥": 7056,
      "æ¬§çĽŁ": 7057,
      "Ġexamined": 7058,
      "è´§çī©": 7059,
      "çĻ¾åĪĨ": 7060,
      "çļĦç®¡çĲĨ": 7061,
      "Ġfollowed": 7062,
      "åıĸä»£": 7063,
      "cher": 7064,
      "ether": 7065,
      "åı¯ä»¥è¯´": 7066,
      "AA": 7067,
      "çº½": 7068,
      "å°Ŀè¯ķ": 7069,
      "å¤§åĨĽ": 7070,
      "æĽ¾ç»ı": 7071,
      "èĩ³äºİ": 7072,
      "æĪ´": 7073,
      "è½¨éģĵ": 7074,
      "ä¹ĭæīĢä»¥": 7075,
      "éĵģè·¯": 7076,
      "åĮ¹éħį": 7077,
      "ä¸īå¤§": 7078,
      "Ġaffect": 7079,
      "åİĨç¨ĭ": 7080,
      "Ġgreater": 7081,
      "ML": 7082,
      "çļĦåĪ¶åº¦": 7083,
      "å¤ºåıĸ": 7084,
      "Ġsyndrome": 7085,
      "èĲ¥éĢł": 7086,
      "oplas": 7087,
      "æĽ²çº¿": 7088,
      "èĵĦ": 7089,
      "itis": 7090,
      "åľ¨åħ¶": 7091,
      "çļĦæł¹æľ¬": 7092,
      "*^": 7093,
      "ancy": 7094,
      "è¾¹ç¼ĺ": 7095,
      "arc": 7096,
      "æ¦Ĥçİĩ": 7097,
      "ç¬¬ä¸ĢèĬĤ": 7098,
      "æķ°é¢Ŀ": 7099,
      "Ġproper": 7100,
      "94": 7101,
      "ĠOur": 7102,
      "ocyte": 7103,
      "ä¼¼ä¹İ": 7104,
      "Ġvacc": 7105,
      "######": 7106,
      "åŃĺåľ¨çĿĢ": 7107,
      "æķ´çĲĨ": 7108,
      "Ġrecent": 7109,
      "ä¸įåıĺ": 7110,
      "ĠUSA": 7111,
      "Ġreceptors": 7112,
      "æİ¨è¡Į": 7113,
      "Ġcoh": 7114,
      "ĠInstit": 7115,
      "Ġstimulation": 7116,
      "sp": 7117,
      "ä»Ĭå¹´": 7118,
      "å°ıæĹ¶": 7119,
      "éĿ¶": 7120,
      "Ġlack": 7121,
      "ç»Īäºİ": 7122,
      "å¤ļæł·æĢ§": 7123,
      "ĠInt": 7124,
      "æĽ¼": 7125,
      "çļĦä¸įåĲĮ": 7126,
      "çŁŃæľŁ": 7127,
      "èģĶçĽŁ": 7128,
      "å¥´": 7129,
      "ç£·": 7130,
      "æĴ°": 7131,
      "ç¦ıåĪ©": 7132,
      "87": 7133,
      "äººç¾¤": 7134,
      "è¿Ļæ¬¡": 7135,
      "Ġfem": 7136,
      "Ġapoptosis": 7137,
      "Ġcardiac": 7138,
      "åħļçļĦåįģåħ«å¤§ä»¥æĿ¥": 7139,
      "åĽ½æĥħ": 7140,
      "çļĦå®īåħ¨": 7141,
      "èĥľå®¶": 7142,
      "ç¨³å®ļæĢ§": 7143,
      "åįĪ": 7144,
      "Ġsuc": 7145,
      "èģĺ": 7146,
      "ĠAt": 7147,
      "pri": 7148,
      "æµģåŁŁ": 7149,
      "æ¶ĪçģŃ": 7150,
      "Ġemb": 7151,
      "åĬ¨åĳĺ": 7152,
      "ä¾¯": 7153,
      "Ġdistribution": 7154,
      "ä¸īè§Ĵ": 7155,
      "æľīæķĪåľ°": 7156,
      "éĺ¶å±Ĥ": 7157,
      "äºĨä¸ŃåĽ½": 7158,
      "Ġbetter": 7159,
      "ĈĆ": 7160,
      "Ġfeatures": 7161,
      "Ġanimals": 7162,
      "å¤§éĺª": 7163,
      "è·ĳ": 7164,
      "Ġreduction": 7165,
      "çĤŃ": 7166,
      "å°ıå¹³": 7167,
      "AN": 7168,
      "IF": 7169,
      "ling": 7170,
      "92": 7171,
      "Ġincreasing": 7172,
      "çľĭæĿ¥": 7173,
      "èĤ¡ä»½": 7174,
      "man": 7175,
      "æĹłäºº": 7176,
      "Î³": 7177,
      "å¾Ĳ": 7178,
      "æº¯": 7179,
      "å·²æľī": 7180,
      "urn": 7181,
      "ool": 7182,
      "æŃ£ç¡®çļĦ": 7183,
      "æŃ¦åĻ¨": 7184,
      "ä»Ļ": 7185,
      "åĴĮå®ĮåĸĦ": 7186,
      "Ġkey": 7187,
      "å¯¹æĸ¹": 7188,
      "right": 7189,
      "çĽ®çļĦæĺ¯": 7190,
      "Ġviral": 7191,
      "Ġthus": 7192,
      "Ġtub": 7193,
      "çľŁçĲĨ": 7194,
      "æľīæĹ¶": 7195,
      "ç¢ĳ": 7196,
      "é¢ľ": 7197,
      "ç¬¬ä¸ĥ": 7198,
      "åĬĽåĴĮ": 7199,
      "Ġaccur": 7200,
      "ologic": 7201,
      "Ġfat": 7202,
      "ä¸§å¤±": 7203,
      "iciency": 7204,
      "ially": 7205,
      "Ġdiet": 7206,
      "Ġdetection": 7207,
      "éĺ²æİ§": 7208,
      "äº¤äºĴ": 7209,
      "åĬłå¼ºå¯¹": 7210,
      "ĠĊ": 7211,
      "ressive": 7212,
      "Ġprevent": 7213,
      "ä¼ĺè´¨": 7214,
      "ĠFurthermore": 7215,
      "Ġcondition": 7216,
      "é©¾é©¶": 7217,
      "å¼ĵ": 7218,
      "éħįå¥Ĺ": 7219,
      "èĥ½åĲ¦": 7220,
      "Ġact": 7221,
      "åħ¨çĲĥåĮĸ": 7222,
      "çĶµæµģ": 7223,
      "ä¹łè¿ĳå¹³åĲĮå¿Ĺ": 7224,
      "æĭħå½ĵ": 7225,
      "Ġvolume": 7226,
      "Ġsocial": 7227,
      "çĽ¸äºĴä½ľçĶ¨": 7228,
      "ĠWh": 7229,
      "æºĲäºİ": 7230,
      "æ¿Ģæ´»": 7231,
      "æ¯įäº²": 7232,
      "åħ¶åŃĲ": 7233,
      "æĪĳä»¬è¦ģ": 7234,
      "Ġgo": 7235,
      "RF": 7236,
      "èĪªå¤©": 7237,
      "è§£åĨ³æĸ¹æ¡Ī": 7238,
      "Ġunc": 7239,
      "DS": 7240,
      "æĶ¯æı´": 7241,
      "Ġconcentrations": 7242,
      "æ¬º": 7243,
      "Ġconducted": 7244,
      "å¤·": 7245,
      "åıĳå°Ħ": 7246,
      "ĠCa": 7247,
      "åħĥäº²": 7248,
      "çķ¿": 7249,
      "åĪ°è¾¾": 7250,
      "åħ¬éĩĮ": 7251,
      "ç¿Įå¹´": 7252,
      "éļ¾é¢ĺ": 7253,
      "åĮ»èį¯": 7254,
      "æ³¢åĬ¨": 7255,
      "åĩ»è´¥": 7256,
      "icine": 7257,
      "Ġsystems": 7258,
      "ä¸ľåĨĽ": 7259,
      "BM": 7260,
      "lying": 7261,
      "Ġsite": 7262,
      "ture": 7263,
      "ä¹Łåı¯": 7264,
      "ä¸ĸçķĮä¸Ĭ": 7265,
      "åĨĻä½ľ": 7266,
      "äººåĴĮ": 7267,
      "ä»£å½ĵä¸»": 7268,
      "bi": 7269,
      "Ġparameters": 7270,
      "å«Į": 7271,
      "éĤ£æł·": 7272,
      "é«ĺä¸Ń": 7273,
      "è¶³å¤Ł": 7274,
      "ï¼ĪãĢĬ": 7275,
      "æ¢¯": 7276,
      "éĢłå¯º": 7277,
      "*.": 7278,
      "çī©æĿĥ": 7279,
      "\"},": 7280,
      "eff": 7281,
      "æĦıåĽ¾": 7282,
      "æľ¬ç§ĳ": 7283,
      "Ġdoes": 7284,
      "å»¶ä¼¸": 7285,
      "Ġ\\>": 7286,
      "åĿĬ": 7287,
      "Ġ17": 7288,
      "èĩªèº«çļĦ": 7289,
      "ä¹ĭå¤Ħ": 7290,
      "åĶ±": 7291,
      "å¯»æī¾": 7292,
      "Ġneut": 7293,
      "äºĨå¯¹": 7294,
      "èĦ±ç¦»": 7295,
      "çļĦä¸Ń": 7296,
      "éķ¿æ±Ł": 7297,
      "éļĲå±ħ": 7298,
      "åĲĪçī©": 7299,
      "æīĵçł´": 7300,
      "EN": 7301,
      "é¾ĻéĢłå¯º": 7302,
      "ĠCell": 7303,
      "æŃ¦çĶ°ä¿¡": 7304,
      "éº¾": 7305,
      "vement": 7306,
      "ension": 7307,
      "gl": 7308,
      "æĪĲç»©": 7309,
      "åįķçĭ¬": 7310,
      "ç»ĩçĶ°åĨĽ": 7311,
      "inase": 7312,
      "Ġpap": 7313,
      "æĿľ": 7314,
      "æ°¸ä¹ħ": 7315,
      "ç»ĵæŀĦæĢ§": 7316,
      "åŁĥ": 7317,
      "Ġcorrespon": 7318,
      "Ġplay": 7319,
      "åĲ«éĩı": 7320,
      "Ġmig": 7321,
      "æķħéļľ": 7322,
      "antit": 7323,
      "åħļçļĦåįģä¹Ŀ": 7324,
      "å·¡": 7325,
      "åħ¬å®ī": 7326,
      "Ġassessment": 7327,
      "å¢ŀåĢ¼": 7328,
      "åĲ¦åĪĻ": 7329,
      "Ġabove": 7330,
      "æıĲåıĸ": 7331,
      "Ġrats": 7332,
      "ä½ıæĪ¿": 7333,
      "Ġsynthe": 7334,
      "è¶ģ": 7335,
      "Ġhighly": 7336,
      "åĸľå¤ļ": 7337,
      "åºĶçĶ¨äºİ": 7338,
      "ç¾İæľ¯": 7339,
      "è´ŁåĢº": 7340,
      "1582": 7341,
      "æ²³åĨħ": 7342,
      "97": 7343,
      "Ġstructure": 7344,
      "åĢŁæ¬¾": 7345,
      "ĠÎ²": 7346,
      "Ġstaining": 7347,
      "èį¯åĵģ": 7348,
      "åĴĮç®¡çĲĨ": 7349,
      "æ°´å¹³çļĦ": 7350,
      "ible": 7351,
      "rence": 7352,
      "æľīä¸Ģä¸ª": 7353,
      "ä¿®æŃ£": 7354,
      "Ġevaluated": 7355,
      "Ġte": 7356,
      "æĺİæĻºåħīç§Ģ": 7357,
      "Ġir": 7358,
      "Ġright": 7359,
      "æ¸ħæ´ģ": 7360,
      "utions": 7361,
      "rid": 7362,
      "ä½ĽæķĻ": 7363,
      "ĠAfter": 7364,
      "åĨ³äºİ": 7365,
      "ochond": 7366,
      "æĺ¯ä»İ": 7367,
      "åıĳè¾¾åĽ½å®¶": 7368,
      "åĩºæĿ¥çļĦ": 7369,
      "æĿĳä¸Ĭ": 7370,
      "çĲĨè®ºçļĦ": 7371,
      "ç»´åº¦": 7372,
      "èĩªåĬ¨åĮĸ": 7373,
      "Ġcriteria": 7374,
      "æľ¬èĥ½å¯º": 7375,
      "ising": 7376,
      "ä¹¦éĿ¢": 7377,
      "uture": 7378,
      "åĽ½åĨħå¤ĸ": 7379,
      "å®ŀçİ°ä¸Ńåįİæ°ĳæĹıä¼Łå¤§å¤įåħ´": 7380,
      "ç¿¼": 7381,
      "Ġtrials": 7382,
      "Ġenzym": 7383,
      "éĢłæĪĲçļĦ": 7384,
      "çī¹å®ļçļĦ": 7385,
      "Ġoutcome": 7386,
      "æĳĦæ´¥": 7387,
      "æĦŁè§ī": 7388,
      "way": 7389,
      "Ġprogram": 7390,
      "eta": 7391,
      "çļĦæľīæķĪ": 7392,
      "è±ªæĹı": 7393,
      "^{": 7394,
      "itud": 7395,
      "åıĳçĹħ": 7396,
      "æĪĳåĽ½çļĦ": 7397,
      "ancer": 7398,
      "è¯ŀçĶŁ": 7399,
      "åıįå¤į": 7400,
      "oints": 7401,
      "Ġfield": 7402,
      "æīĩ": 7403,
      "æĹģ": 7404,
      "åĪĨè§£": 7405,
      "èĢĮéĿŀ": 7406,
      "æŀĦéĢł": 7407,
      "è¿ľæ±Ł": 7408,
      "å¼ºå¤§çļĦ": 7409,
      "åĪĽéĢłæĢ§": 7410,
      "Ġatten": 7411,
      "åıĳå±ķä¸ŃåĽ½": 7412,
      "Ġpreval": 7413,
      "åıĸåĨ³äºİ": 7414,
      "]^.": 7415,
      "æķ°åŃĹç»ıæµİ": 7416,
      "èģĶåĨĽ": 7417,
      "Ġnovel": 7418,
      "material": 7419,
      "ç¬¬äºĮæ¬¡": 7420,
      "ä¹°åįĸ": 7421,
      "çĶµåİĭ": 7422,
      "æľºåĻ¨äºº": 7423,
      "åĬ¨èĦī": 7424,
      "ixed": 7425,
      "Ġself": 7426,
      "supplementary": 7427,
      "kn": 7428,
      "åĪ©çĽĬçļĦ": 7429,
      "èĨ¨": 7430,
      "83": 7431,
      "lyc": 7432,
      "äº¤å¾Ģ": 7433,
      "ense": 7434,
      "æĻºèĥ½åĮĸ": 7435,
      "encing": 7436,
      "Ġcoun": 7437,
      "éĵģçĤ®": 7438,
      "å®¡æī¹": 7439,
      "çģ°": 7440,
      "æĻĵ": 7441,
      "ç½ĳç«Ļ": 7442,
      "æĤ²": 7443,
      "åľ¨è¿Ļä¸ª": 7444,
      "Ġregulation": 7445,
      "EG": 7446,
      "è®°èĢħ": 7447,
      "çİ°éĩĳ": 7448,
      "Ġorig": 7449,
      "æĸ¯æ³¢": 7450,
      "82": 7451,
      "Ġinvas": 7452,
      "åĬŀåŃ¦": 7453,
      "çĶŁçĲĨ": 7454,
      "å¸ĤåľºåĮĸ": 7455,
      "å°Ĩä¼ļ": 7456,
      "çªĹ": 7457,
      "...": 7458,
      "è§Ĩéĩİ": 7459,
      "æŃ¦èĹı": 7460,
      "çļĦçĽ¸åħ³": 7461,
      "æĬļ": 7462,
      "Ġmacroph": 7463,
      "åĬ¨ä½ľ": 7464,
      "çķĻä¸ĭ": 7465,
      "Ġareas": 7466,
      "å®ļæľŁ": 7467,
      "Ġendothe": 7468,
      "ç¬łåİŁ": 7469,
      "çĪ¶æ¯į": 7470,
      "fact": 7471,
      "æľ¬æ³ķ": 7472,
      "ä¸īäºº": 7473,
      "å°ıåŃ¦": 7474,
      "æĸ¹ä¾¿": 7475,
      "Ġ,": 7476,
      "æĹ¨åľ¨": 7477,
      "å¤įåĪ¶": 7478,
      "ç»ıè´¹": 7479,
      "æ¯ĽåĪ©åħĥå°±": 7480,
      "DM": 7481,
      "èĬ¦": 7482,
      "æ°®": 7483,
      "æĸ¹ç¨ĭ": 7484,
      "å®£å¸ĥ": 7485,
      "Ġprogn": 7486,
      "å¼ĢåĪĽ": 7487,
      "æı´åĨĽ": 7488,
      "çĽ®å½ķ": 7489,
      "å°ıçļĦ": 7490,
      "å¼ĺæī¬": 7491,
      "èıľ": 7492,
      "][@": 7493,
      "Ġread": 7494,
      "å·¥ä¸ļåĮĸ": 7495,
      "Ġdev": 7496,
      ".[": 7497,
      "æķħæĦı": 7498,
      "ĠâĢľ": 7499,
      "84": 7500,
      "Ġvisual": 7501,
      "Ġdiffic": 7502,
      "ä¸ĸçķĮçļĦ": 7503,
      "ç¨Ģ": 7504,
      "åıĶ": 7505,
      "ä½ĵçİ°åľ¨": 7506,
      "åĲĪæ³ķæĿĥçĽĬ": 7507,
      "æ¶ĪèĢĹ": 7508,
      "Ġconn": 7509,
      "Ġ40": 7510,
      "éĥĳ": 7511,
      "å¹³å®ļ": 7512,
      "Ġheter": 7513,
      "åıĳéĢģ": 7514,
      "Ġabnormal": 7515,
      "å¤«å¦»": 7516,
      "å®ŀä¾ĭ": 7517,
      "è¿·": 7518,
      "åľ¨çº¿": 7519,
      "æıĲä¾ĽçļĦ": 7520,
      "ontrol": 7521,
      "åħ³åİŁä¹ĭæĪĺ": 7522,
      "Ġsurgery": 7523,
      "æ³ķå¾ĭæ³ķè§Ħ": 7524,
      "Ġcognitive": 7525,
      "ï¼Ľï¼Ī": 7526,
      "èĢĥåı¤": 7527,
      "æĸ¥": 7528,
      "çŁ¥è¯ĨçļĦ": 7529,
      "éķ¿åºĨ": 7530,
      "ä¸¥éĩįçļĦ": 7531,
      "çĽ®æłĩçļĦ": 7532,
      "æİ¢æµĭ": 7533,
      "ç¢İ": 7534,
      "till": 7535,
      "ç»§æī¿äºº": 7536,
      "åįıä¼ļ": 7537,
      "âĨ": 7538,
      ")-": 7539,
      "èĹ©ä¸»": 7540,
      "Ġevents": 7541,
      "Ġinteraction": 7542,
      "ç»ĩçĶ°å®¶": 7543,
      "Ġartic": 7544,
      "æĮĩç¤º": 7545,
      "aw": 7546,
      "EGF": 7547,
      "ç¥Ĳ": 7548,
      "å¿½è§Ĩ": 7549,
      "Ġcoll": 7550,
      "isc": 7551,
      "å¤ļå°ĳ": 7552,
      "çģ¾å®³": 7553,
      "Ġsequence": 7554,
      "olar": 7555,
      "ĠSc": 7556,
      "é¬¼": 7557,
      "çĽ¸ç»§": 7558,
      "æĹ¥æľ¬æĪĺåĽ½æĹ¶ä»£": 7559,
      "ower": 7560,
      "ãĢĤ(": 7561,
      "åħ·ä½ĵçļĦ": 7562,
      "æ¦Ĥè¿°": 7563,
      "Ġsites": 7564,
      "Ġsubst": 7565,
      "Ġchrom": 7566,
      "èĴĻåı¤": 7567,
      "ä¸įå¤Ł": 7568,
      "ç»ıæµİç¤¾ä¼ļåıĳå±ķ": 7569,
      "ç½Ĺæĸ¯": 7570,
      "Ġvascular": 7571,
      "Ġsepar": 7572,
      "treated": 7573,
      "ç¥ŀç¤¾": 7574,
      "åĤ¬åĮĸ": 7575,
      "ä¾¦": 7576,
      "å¤§å¤ļ": 7577,
      "ä»¥ä¸º": 7578,
      ".[@": 7579,
      "æ³Ħ": 7580,
      "olution": 7581,
      "ä¸ĬæĿīå®¶": 7582,
      "åħ¨éĿ¢å»ºæĪĲ": 7583,
      "å®ĩåĸľå¤ļ": 7584,
      "çļĦè§Ĵåº¦": 7585,
      "ract": 7586,
      "å¤§ä¼Ĺ": 7587,
      "è§£è¯»": 7588,
      "åĴĮæĸ¹æ³ķ": 7589,
      "æµģè¡Į": 7590,
      "éģ¥": 7591,
      "Ġdecrease": 7592,
      "Ġobserv": 7593,
      "Ġprec": 7594,
      "åĬ¨æľº": 7595,
      "çıł": 7596,
      "aff": 7597,
      "æľĢä¸Ĭ": 7598,
      "äººæķ°": 7599,
      "Ġur": 7600,
      "ands": 7601,
      "ä¸İç¤¾ä¼ļ": 7602,
      "æ©": 7603,
      "çŃĽ": 7604,
      "åĤ¨å¤ĩ": 7605,
      "åīįæ²¿": 7606,
      "Ġoverall": 7607,
      "Ġlimited": 7608,
      "æµģéĩı": 7609,
      "æĶ¿åºľçļĦ": 7610,
      "èĦĬ": 7611,
      "Ġguid": 7612,
      "å®ŀçĶ¨": 7613,
      "åĿĽ": 7614,
      "hold": 7615,
      "This": 7616,
      "oxic": 7617,
      "é¢ĩ": 7618,
      "åį°åº¦": 7619,
      "å¤§éĻĨ": 7620,
      "2008": 7621,
      "AI": 7622,
      "izing": 7623,
      "Ġcritical": 7624,
      "ney": 7625,
      "Ġmarkers": 7626,
      "ä¹ĥèĩ³": 7627,
      "åİŁåĳĬ": 7628,
      "æ·ĭ": 7629,
      "ä¸»è¦ģæľī": 7630,
      "æ»¥": 7631,
      "äººæ°ĳä»£è¡¨å¤§ä¼ļ": 7632,
      "Ġpoint": 7633,
      "å®ĩéĥ½": 7634,
      "gn": 7635,
      "åŃ¦ä¹łçļĦ": 7636,
      "rosis": 7637,
      "Ġsour": 7638,
      "å®īè£ħ": 7639,
      "ç¼ĸåĨĻ": 7640,
      "Ġintervention": 7641,
      "Ġrecord": 7642,
      "Ġfil": 7643,
      "lex": 7644,
      "åĵģç§į": 7645,
      "ĠTable": 7646,
      "éĤĵå°ıå¹³": 7647,
      "ĠStud": 7648,
      "åº¶": 7649,
      "å¢ŀåĬłäºĨ": 7650,
      "ćć": 7651,
      "Ġç¬¬ä¸ī": 7652,
      "çķĮå®ļ": 7653,
      "å¤¹": 7654,
      "âĶ": 7655,
      "éŃĤ": 7656,
      "ä¾¿æĺ¯": 7657,
      "ä½ĵåĪ¶æĶ¹éĿ©": 7658,
      "æľīéĻĲåħ¬åı¸": 7659,
      "iting": 7660,
      "è¯¹": 7661,
      "çľĭåĩº": 7662,
      "Ġtherefore": 7663,
      "è¦ģåľ¨": 7664,
      "è½¦è¾Ĩ": 7665,
      "å¤§äºİ": 7666,
      "åıįæĢĿ": 7667,
      "å®ĩéĥ½å®«": 7668,
      "ä¸»ä½ĵçļĦ": 7669,
      "pose": 7670,
      "ertain": 7671,
      "ç´«": 7672,
      "ä¸įæ»¡": 7673,
      "äººèº«": 7674,
      "è·³": 7675,
      "istic": 7676,
      "Ġdamage": 7677,
      "å±Ī": 7678,
      "Ġphysical": 7679,
      "ç¡®å®ļçļĦ": 7680,
      "ED": 7681,
      "ç¼ĸçłģ": 7682,
      "ital": 7683,
      "åħļå§Ķ": 7684,
      "ä¿ĥä½¿": 7685,
      "ä½ľçī©": 7686,
      "uscript": 7687,
      "å¾ħéģĩ": 7688,
      "Ġcolon": 7689,
      "åĩıè½»": 7690,
      "Ġpepti": 7691,
      "Ġsuper": 7692,
      "å¢ŀéĢŁ": 7693,
      "åħĪçĶŁ": 7694,
      "æĹłè®ºæĺ¯": 7695,
      "ç¢±": 7696,
      "LR": 7697,
      "Ġunderstanding": 7698,
      "è¿Ļç±»": 7699,
      "Ġimage": 7700,
      "aken": 7701,
      "åĪĨäº«": 7702,
      "91": 7703,
      "Ġalter": 7704,
      "åĩ¸": 7705,
      "æĹłçĸĳ": 7706,
      "å¥³æĢ§": 7707,
      "\\[[@": 7708,
      "æŀ¢": 7709,
      "ipher": 7710,
      "å¯¹ç§°": 7711,
      "ä¹ĭéĺµ": 7712,
      "1600": 7713,
      "Ġtransf": 7714,
      "æĪĺåĬŁ": 7715,
      "æłĩçļĦ": 7716,
      "çļĦæĹ¶ä»£": 7717,
      "ering": 7718,
      "çļĦçĶŁäº§": 7719,
      "å¾ģç¨ĭ": 7720,
      "éĩįå»º": 7721,
      "81": 7722,
      "Ġcollected": 7723,
      "Ġcombination": 7724,
      "gment": 7725,
      "äººä½ĵ": 7726,
      "åħ¶åĲİ": 7727,
      "æľ¬å¤ļ": 7728,
      "èĬ¯çīĩ": 7729,
      "æ°Ľ": 7730,
      "éĩįçļĦ": 7731,
      "Ġtranscription": 7732,
      "regulated": 7733,
      "ä¸įæĺİ": 7734,
      "ä¸¾åĬŀ": 7735,
      "Ġhom": 7736,
      "å¼ķè¿Ľ": 7737,
      "Ġampl": 7738,
      "åĩºéĺµ": 7739,
      "åłµ": 7740,
      "mediated": 7741,
      "ç»§æī¿å®¶çĿ£": 7742,
      "æĥ³è±¡": 7743,
      "å¾Īå¿«": 7744,
      "å¯»æ±Ĥ": 7745,
      "å¸ľ": 7746,
      "ç§ĳåŃ¦æĬĢæľ¯": 7747,
      "Ġsex": 7748,
      "sing": 7749,
      "Ġresid": 7750,
      "äº¿ç¾İåħĥ": 7751,
      "Ġmutation": 7752,
      "Ġdiscus": 7753,
      "Ġcalculated": 7754,
      "Ġsecre": 7755,
      "ä»¥ä¾¿": 7756,
      "ä½¿èĢħ": 7757,
      "éĤĢ": 7758,
      "ä¸»åĲĽ": 7759,
      "RO": 7760,
      "è®ºè¯ģ": 7761,
      "ergy": 7762,
      "ĠåĴĮ": 7763,
      "rad": 7764,
      "åµĮ": 7765,
      "åĽ½å®¶åĴĮ": 7766,
      "Ġactive": 7767,
      "éĢıæĺİ": 7768,
      "åħļç»Ħç»ĩ": 7769,
      "å±±ä¸ľ": 7770,
      "åĻª": 7771,
      "äº§éĩı": 7772,
      "ware": 7773,
      "Ġ^": 7774,
      "åįłæį®": 7775,
      "éĶĲ": 7776,
      "å®¹éĩı": 7777,
      "æĪĺåĽ½å¤§åĲį": 7778,
      "çģ¯": 7779,
      "Ġdrugs": 7780,
      "ç¬¼": 7781,
      "çĶŁæĢģç³»ç»Ł": 7782,
      "å·¥åİĤ": 7783,
      "è¢«è¿«": 7784,
      "æĸľ": 7785,
      "ä¸įå¾Ĺä¸į": 7786,
      "åŃĲå¥³": 7787,
      "Ġmanuscript": 7788,
      "åıĪç§°": 7789,
      "æ±łçĶ°": 7790,
      "ä¸´æĹ¶": 7791,
      "Ġshows": 7792,
      "Ġcontaining": 7793,
      "2011": 7794,
      "RC": 7795,
      "å¦Ĥä»Ĭ": 7796,
      "ä¸ŃæīĢ": 7797,
      "å¼Ĭ": 7798,
      "éĥŃ": 7799,
      "ylation": 7800,
      "olic": 7801,
      "Ġmade": 7802,
      "èĪªç©º": 7803,
      "ä»£è¡¨çļĦ": 7804,
      "æĿ¡çº¦": 7805,
      "ç¨İåĬ¡": 7806,
      "ovascular": 7807,
      "åľ¨ä¸Ģå®ļ": 7808,
      "å¹´è½»": 7809,
      "ĠCA": 7810,
      "Supplementary": 7811,
      "å·®åĪ«": 7812,
      "Ġinvestigated": 7813,
      "Ġtraining": 7814,
      "éķ¿åŃĲ": 7815,
      "åªĴä»ĭ": 7816,
      "å¹³éĿ¢": 7817,
      "çĽĹ": 7818,
      "idem": 7819,
      "è®³": 7820,
      "çĸ«èĭĹ": 7821,
      "çĶµç½ĳ": 7822,
      "å®¡æł¸": 7823,
      "Ġ%": 7824,
      "Ġtested": 7825,
      "ç§Ģæ¬¡": 7826,
      "Ġstem": 7827,
      "rh": 7828,
      "éĽĨåĲĪ": 7829,
      "Ġinterac": 7830,
      "Ġperformance": 7831,
      "ç¡®å®ŀ": 7832,
      "ä¾Ŀæ³ķæ²»åĽ½": 7833,
      "inary": 7834,
      "umm": 7835,
      "æĻ¯èĻİ": 7836,
      "èĨ¨èĥĢ": 7837,
      "ä¿±": 7838,
      "Ġprocesses": 7839,
      "çļĦåīįæıĲ": 7840,
      "------------------------": 7841,
      "èģĶéĤ¦": 7842,
      "Ġdiagnostic": 7843,
      "ole": 7844,
      "ç±»åŀĭçļĦ": 7845,
      "è¯¾åłĤæķĻåŃ¦": 7846,
      "Ġchall": 7847,
      "Ġoff": 7848,
      "åĽ½æľīä¼ģä¸ļ": 7849,
      "éĥ½è¦ģ": 7850,
      "Ġbiom": 7851,
      "å·²æĪĲä¸º": 7852,
      "Ġaverage": 7853,
      "åİĨåı²çļĦ": 7854,
      "èĢħåĴĮ": 7855,
      "ç³Ĭ": 7856,
      "åĽŀåĪ°": 7857,
      "Ġantigen": 7858,
      "å®ĪæĬ¤ä»£": 7859,
      "éĤ®": 7860,
      "Ġtests": 7861,
      "çĶŁæķĪ": 7862,
      "Ġtechn": 7863,
      "Ġbaseline": 7864,
      "å¹¿ä¸ľ": 7865,
      "æ°ıå®¶èĩ£": 7866,
      "any": 7867,
      "less": 7868,
      "=======": 7869,
      "çĬ¹": 7870,
      "æ¶Į": 7871,
      "Ġcarri": 7872,
      "Ġphosphory": 7873,
      "ulate": 7874,
      "ques": 7875,
      "âĦ": 7876,
      "Ġach": 7877,
      "GG": 7878,
      "æ²»åħļ": 7879,
      "è¿ĩåº¦": 7880,
      "æķ¦": 7881,
      "åĦĴå®¶": 7882,
      "æ½ľåĬĽ": 7883,
      "Ġtesting": 7884,
      "piratory": 7885,
      "çİ¯å¢ĥçļĦ": 7886,
      "æĩĤ": 7887,
      "è®¡éĩı": 7888,
      "è¯ģä¹¦": 7889,
      "Ġprotocol": 7890,
      "ygen": 7891,
      "åĬŁçİĩ": 7892,
      "æĻ´ä¿¡": 7893,
      "ä¸»è¦ģåĮħæĭ¬": 7894,
      "monary": 7895,
      "Ġvariables": 7896,
      "æ³ķåĪ¶": 7897,
      "èµ¤æĿ¾": 7898,
      "ä¸»ç®¡éĥ¨éĹ¨": 7899,
      "åĿļæĮģä»¥": 7900,
      "Ġfunctions": 7901,
      "Ġclus": 7902,
      "é¡¹çĽ®çļĦ": 7903,
      "æĺİæĺ¾çļĦ": 7904,
      "åĲĮæĹ¶ä¹Ł": 7905,
      "ä¸įè¦ģ": 7906,
      "åħ¬åħĥ": 7907,
      "ä¸Ģéĥ¨åĪĨ": 7908,
      "Ġrenal": 7909,
      "ç®¡çĲĨåĴĮ": 7910,
      "è¿ĩæ¸¡": 7911,
      "åħŃå¹´": 7912,
      "ä»¥å¾Ģ": 7913,
      "åľ°éľĩ": 7914,
      "èµ«": 7915,
      "lect": 7916,
      "Ġï¼Į": 7917,
      "åį³åı¯": 7918,
      "çļĦè¯Ŀ": 7919,
      "Ġstill": 7920,
      "ä»İä¸¥": 7921,
      "æĬ¤çĲĨ": 7922,
      "ä¿¡æīĺ": 7923,
      "estern": 7924,
      "äººåĿĩ": 7925,
      "kg": 7926,
      "oratory": 7927,
      "è¿Ĳç®Ĺ": 7928,
      "æľªæĪĲå¹´äºº": 7929,
      "ä¹ĭéĹ´çļĦåħ³ç³»": 7930,
      "otor": 7931,
      "åĽ½æ°ĳåħļ": 7932,
      "è¯ł": 7933,
      "Ġrecomm": 7934,
      "ports": 7935,
      "inally": 7936,
      "æĪĲçļĦ": 7937,
      "Ġpoor": 7938,
      "æ¿Ģåħī": 7939,
      "Ġelev": 7940,
      "éļĨæĻ¯": 7941,
      "åŁİéķĩåĮĸ": 7942,
      "Ġcentral": 7943,
      "æıĲé«ĺäºĨ": 7944,
      "åĨħå®¹çļĦ": 7945,
      "æĺ¯æľĢ": 7946,
      "çº·çº·": 7947,
      "ç¡«": 7948,
      "æ»ĭ": 7949,
      "iatric": 7950,
      "è´¯ç©¿": 7951,
      "ç³»æķ°": 7952,
      "åħĭæľį": 7953,
      "ç²¾åº¦": 7954,
      "çļĦä½¿çĶ¨": 7955,
      "Ġcat": 7956,
      "itu": 7957,
      "çļĦæĪĺçķ¥": 7958,
      "ä¸İæŃ¤åĲĮæĹ¶": 7959,
      "çıį": 7960,
      "raction": 7961,
      "antif": 7962,
      "amine": 7963,
      "Ġpolym": 7964,
      "not": 7965,
      "ĠPCR": 7966,
      "Ġstep": 7967,
      "äººåĬĽèµĦæºĲ": 7968,
      "åĮĸè§£": 7969,
      "æĺ¯æĪĳåĽ½": 7970,
      "äº¤ä»ĺ": 7971,
      "çĭ¬ç«ĭçļĦ": 7972,
      "è®¤è¯ĨåĪ°": 7973,
      "Ġachie": 7974,
      "Ġwor": 7975,
      "éĩįè¦ģä½ľçĶ¨": 7976,
      "ç§¯æŀģæĢ§": 7977,
      "Ġlesions": 7978,
      "åı¤æ²³": 7979,
      "çļĦéľĢæ±Ĥ": 7980,
      "çļĦä¸ĢäºĽ": 7981,
      "Ġlear": 7982,
      "æĿĥéĻĲ": 7983,
      "ç§įæ¤į": 7984,
      "è®¢ç«ĭ": 7985,
      "éĢļç§°": 7986,
      "ä½ĵåĪ¶æľºåĪ¶": 7987,
      "åĢ¡å¯¼": 7988,
      "è´£ä»»çļĦ": 7989,
      "å½ĵæĹ¶çļĦ": 7990,
      "ĠMoreover": 7991,
      "Ġmeasures": 7992,
      "Ġcross": 7993,
      "å¹´åº¦": 7994,
      "åĪĨå¸ĥå¼ı": 7995,
      "æı´åĬ©": 7996,
      "Ġ60": 7997,
      "è¿ĩç¨ĭä¸ŃçļĦ": 7998,
      "äººå¯¹": 7999,
      "èĤ¯å®ļ": 8000,
      "åŁĭ": 8001,
      "ä¸ĢåĽ½": 8002,
      "ä¸¤å¤§": 8003,
      "çļĦçī¹å¾ģ": 8004,
      "Ġrest": 8005,
      "è¡¡éĩı": 8006,
      "Ġcereb": 8007,
      "è°¨": 8008,
      "èī²å½©": 8009,
      "ä¹Łå°±æĺ¯è¯´": 8010,
      "å½ĵä»Ĭ": 8011,
      "Ġrap": 8012,
      "ç¬¬ä¸ĢçĻ¾": 8013,
      "éĨĩ": 8014,
      "è´§å¸ģæĶ¿çŃĸ": 8015,
      "æŃ£å¦Ĥ": 8016,
      "æł¸ç®Ĺ": 8017,
      "ps": 8018,
      "æ³Į": 8019,
      "æłĩåĩĨçļĦ": 8020,
      "å»ºè®¾åĴĮ": 8021,
      "åĲ¦å®ļ": 8022,
      "Ġindex": 8023,
      "æĽ´å¤§": 8024,
      "çĶµå½±": 8025,
      "coh": 8026,
      "ä¸įç¡®å®ļ": 8027,
      "ä¿¡è´·": 8028,
      "ides": 8029,
      "èĩ´åĬĽ": 8030,
      "è¡¨è¿°": 8031,
      "âħ": 8032,
      "Ġsubsequ": 8033,
      "ç§ĳåŃ¦çļĦ": 8034,
      "chers": 8035,
      "ä¸īéĥİ": 8036,
      "éĻķ": 8037,
      "ç¼ĸç¨ĭ": 8038,
      "çĶ°æ°ı": 8039,
      "Ġtool": 8040,
      "çİ¯å¢ĥä¿ĿæĬ¤": 8041,
      "æł·çļĦ": 8042,
      "NO": 8043,
      "ä¸İåıĳå±ķ": 8044,
      "è¿ĽåĨĽ": 8045,
      "åĪĨåĮĸ": 8046,
      "å»ºç«ĭåģ¥åħ¨": 8047,
      "Ġselected": 8048,
      "oun": 8049,
      "çĩĥæĸĻ": 8050,
      "ras": 8051,
      "Ad": 8052,
      "åľ¨æĪĳåĽ½": 8053,
      "Ġnecess": 8054,
      "ç»ĨèĥŀçļĦ": 8055,
      "Ġmass": 8056,
      "æĿĳæ°ĳ": 8057,
      "Ġsuggesting": 8058,
      "åīĸ": 8059,
      "èĩªè¡Į": 8060,
      "Ġexpress": 8061,
      "Ġmitochond": 8062,
      "çĶŁåĬ¨": 8063,
      "èĤ²äºº": 8064,
      "å±¡": 8065,
      "Ġdepend": 8066,
      "ç«Ļåľ¨": 8067,
      "æĬĢæľ¯åĴĮ": 8068,
      "åŃķ": 8069,
      "å¹¿åĳĬ": 8070,
      "abil": 8071,
      "æĴŃç£¨": 8072,
      "Ġspect": 8073,
      "int": 8074,
      "*)": 8075,
      "èĬĤçº¦": 8076,
      "åĲİä¸ĸ": 8077,
      "ç»ĨèıĮ": 8078,
      "virus": 8079,
      "è¿ģç§»": 8080,
      "aired": 8081,
      "ulating": 8082,
      "æľĢä½İ": 8083,
      "éĩĳé¢Ŀ": 8084,
      "æ¿ĢçĥĪ": 8085,
      "åıĺæĪĲ": 8086,
      "ä¾¿åĪ©": 8087,
      "ĠData": 8088,
      "å¼ĢåĲ¯": 8089,
      "æ³·": 8090,
      "æµ·å¤ĸ": 8091,
      "æĺİæ²»": 8092,
      "CV": 8093,
      "å¯¹è¯Ŀ": 8094,
      "SO": 8095,
      "èľĤ": 8096,
      "Ġintra": 8097,
      "ä¾ĭåŃĲ": 8098,
      "çĽĳæĬ¤": 8099,
      "éļĲç§ģ": 8100,
      "ier": 8101,
      "æŁ¥è¯¢": 8102,
      "éĢļçĶ¨": 8103,
      "Ġexperimental": 8104,
      "Ġoxid": 8105,
      "king": 8106,
      "çŃīçļĦ": 8107,
      "Ġproposed": 8108,
      "ç°": 8109,
      "æĺ¯æľī": 8110,
      "åħ¬çº¦": 8111,
      "Ġcaused": 8112,
      "æ··ä¹±": 8113,
      "ï¼ħ": 8114,
      "è£ģå®ļ": 8115,
      "åĽĬ": 8116,
      "åĨĴ": 8117,
      "Ġquestion": 8118,
      "éĺ¿æ³¢": 8119,
      "HD": 8120,
      "æ¬ł": 8121,
      "åŀ£": 8122,
      "åħ«æľĪ": 8123,
      "æķĮäºº": 8124,
      "æ°´åĨĽ": 8125,
      "å®³äºº": 8126,
      "æĸĩçī©": 8127,
      "åĭĥ": 8128,
      "èĸª": 8129,
      "Ġseen": 8130,
      "åĬłèĹ¤": 8131,
      "ä¸°å¯ĮçļĦ": 8132,
      "ç«Ń": 8133,
      "Ġrepe": 8134,
      "Ġtimes": 8135,
      "ä¸ĢéĹ¨": 8136,
      "Ġpublished": 8137,
      "ä¸ĭä»¤": 8138,
      "è¯¹è®¿": 8139,
      "ze": 8140,
      "ining": 8141,
      "Ġinfected": 8142,
      "éĽĨç¾¤": 8143,
      "RE": 8144,
      "ä¸»æĮģ": 8145,
      "ocardi": 8146,
      "åħħæ»¡": 8147,
      "ç»ĪæŃ¢": 8148,
      "å®½æ°¸": 8149,
      "Ġserv": 8150,
      "åĴĮæĬĢæľ¯": 8151,
      "Ġcontinu": 8152,
      "å¼ķèµ·çļĦ": 8153,
      "Ġsetting": 8154,
      "ĠAp": 8155,
      "ç¼ĵè§£": 8156,
      "åĴĮè§£": 8157,
      "åł¡": 8158,
      "2009": 8159,
      "èĥĥ": 8160,
      "]{": 8161,
      "bo": 8162,
      "¤Ĳ": 8163,
      "æĶ¿çļĦ": 8164,
      "atients": 8165,
      "çĽ¸åĲĮçļĦ": 8166,
      "Ġknowledge": 8167,
      "åħ¬å¼ı": 8168,
      "ociated": 8169,
      "Ġtyp": 8170,
      "SM": 8171,
      "ç½Ĺé©¬": 8172,
      "çļĦåĽ½éĻħ": 8173,
      "Ġeth": 8174,
      "amic": 8175,
      "Ġshort": 8176,
      "åĨħå¤ĸ": 8177,
      "ç¢³æİĴæĶ¾": 8178,
      "âĹ": 8179,
      "åľ°ä¸ĭ": 8180,
      "ave": 8181,
      "åįģæĿ¡": 8182,
      "ç®Ģä»ĭ": 8183,
      "çļĦåıĳçĶŁ": 8184,
      "ç»ĥä¹ł": 8185,
      "è¿ĺåı¯ä»¥": 8186,
      "å»ºéĢł": 8187,
      ";(": 8188,
      "Ġisolated": 8189,
      "çº¿ç¨ĭ": 8190,
      "æľĢè¿ĳ": 8191,
      "æĬ«éľ²": 8192,
      "åĬĽåŃ¦": 8193,
      "åīįæĻ¯": 8194,
      "ä¹īå¼ĺ": 8195,
      "è¡¥è´´": 8196,
      "ç²¾ç¡®": 8197,
      "åįļçī©": 8198,
      "å¾®è§Ĥ": 8199,
      "ç¤¾ä¼ļä¿Ŀéļľ": 8200,
      "æ¶Ĥ": 8201,
      "Ġsuff": 8202,
      "æ¸Ĭ": 8203,
      "åĨľä¸ļçĶŁäº§": 8204,
      "èĳ¡": 8205,
      "Ġrelease": 8206,
      "ones": 8207,
      "rob": 8208,
      "ducing": 8209,
      "çļĦåľ°æĸ¹": 8210,
      "æŃ¤æ¬¡": 8211,
      "}{": 8212,
      "çłĶç©¶éĻ¢": 8213,
      "çŃĴ": 8214,
      "Ġvers": 8215,
      "åĽ½æ°ĳç»ıæµİ": 8216,
      "æ¡ĳ": 8217,
      "çŁ³çĶ°ä¸īæĪĲ": 8218,
      "Ġfl": 8219,
      "çļĦçŁ¥è¯Ĩ": 8220,
      "Ġtrial": 8221,
      "æĬĹä½ĵ": 8222,
      "åŃ¦çĶŁåľ¨": 8223,
      "æĸ°åĨł": 8224,
      "ä¹īæĺŃ": 8225,
      "æ¡Ĥ": 8226,
      "ĠNational": 8227,
      "æļĸ": 8228,
      "æŀģä¸º": 8229,
      "æĦŁåıĹ": 8230,
      "ä¸ŃåĽ½å¼ı": 8231,
      "èĲ½åĲİ": 8232,
      "åħļåı²": 8233,
      "Ġsuggested": 8234,
      "çļĦå®¶èĩ£": 8235,
      "Ġinhibitor": 8236,
      "äº§ä¸ļåıĳå±ķ": 8237,
      "åŀĴ": 8238,
      "rix": 8239,
      "Ġyear": 8240,
      "æ´»åĬ¨ä¸Ń": 8241,
      "Ġphysi": 8242,
      "TA": 8243,
      "çļĦå¤ļ": 8244,
      "çļĦæŃ¦å°Ĩ": 8245,
      "çİĩåĨĽ": 8246,
      "çļĦè®¾è®¡": 8247,
      "åĪĨæĶ¯": 8248,
      "æĪĺçº¿": 8249,
      "Ġsens": 8250,
      "Ġfew": 8251,
      "Ġpredict": 8252,
      "ĠIFN": 8253,
      "æĬĵä½ı": 8254,
      "Ġmanagement": 8255,
      "å¾Īå¤§çļĦ": 8256,
      "Ġobes": 8257,
      "Ġpractice": 8258,
      "èĬ³": 8259,
      "Ġadhe": 8260,
      "terior": 8261,
      "ransi": 8262,
      "å®ĺåĳĺ": 8263,
      "Ġinfluence": 8264,
      "å°ıç¬łåİŁ": 8265,
      "åŃ¦è¯´": 8266,
      "odes": 8267,
      "ãģ«": 8268,
      "å¨¶": 8269,
      "å°ıåº·ç¤¾ä¼ļ": 8270,
      "çŃīæĸ¹éĿ¢çļĦ": 8271,
      "åĲĦæĸ¹": 8272,
      "Ġinfections": 8273,
      "Ġback": 8274,
      "Ġalthough": 8275,
      "Ġsch": 8276,
      "å¼ķçĶ¨": 8277,
      "tif": 8278,
      "Ġtask": 8279,
      "ĠRec": 8280,
      "åľ¨è¿Ļç§į": 8281,
      "ç®ĢåįķçļĦ": 8282,
      "orph": 8283,
      "çĨŁæĤī": 8284,
      "tial": 8285,
      "ä¸»æµģ": 8286,
      "ĠER": 8287,
      "æĸ°èĥ½æºĲ": 8288,
      "ä¸ĥå¹´": 8289,
      "çĻ¾å¹´å¥ĭæĸĹ": 8290,
      "ipp": 8291,
      "Ľèµ·": 8292,
      "åŃĺæ¬¾": 8293,
      "èļĢ": 8294,
      "åħ±å»º": 8295,
      "æĵħ": 8296,
      "å¸¸æĢģ": 8297,
      "å®¶ä¸Ń": 8298,
      "Ġintrac": 8299,
      "æ°ĶåĢĻåıĺåĮĸ": 8300,
      "åĨįåº¦": 8301,
      "Ġminim": 8302,
      "åĻ¨ä»¶": 8303,
      "çĶµè§Ĩ": 8304,
      "åĩºçİ°çļĦ": 8305,
      "Ġincreases": 8306,
      "åħ¶åľ¨": 8307,
      "è´¦æĪ·": 8308,
      "activ": 8309,
      "è¿Ļä¸ĢçĤ¹": 8310,
      "æĦıä¹īä¸Ĭ": 8311,
      "èµĦäº§éĺ¶çº§": 8312,
      "Ġdispl": 8313,
      "åħ±æľī": 8314,
      "äººå£«": 8315,
      "è¿ĩç¨ĭçļĦ": 8316,
      "ĠãĢĤ": 8317,
      "LI": 8318,
      "éĩįç»Ħ": 8319,
      "urse": 8320,
      "Ex": 8321,
      "å¤§æĬ¥åĳĬ": 8322,
      "ä¹ĿæľĪ": 8323,
      "arch": 8324,
      "æĹ¢æľī": 8325,
      "ector": 8326,
      "æĹĹå¸ľ": 8327,
      "åįĵ": 8328,
      "æľīåħ³éĥ¨éĹ¨": 8329,
      "èİ·å¾ĹäºĨ": 8330,
      "Ġsoft": 8331,
      "\"}.": 8332,
      "åıĹçĲĨ": 8333,
      "å¥łå®ļäºĨ": 8334,
      "å½¢å¼ıçļĦ": 8335,
      "æ·»åĬł": 8336,
      "éģĹåĿĢ": 8337,
      "æĮĩå¼ķ": 8338,
      "ä½Ĳä¹ħ": 8339,
      "leep": 8340,
      "åħĦéķ¿": 8341,
      "æ¯ıä¸Ģ": 8342,
      "Ġ21": 8343,
      "ä¹ĭä¸º": 8344,
      "Ġinitial": 8345,
      "ç¡ķ": 8346,
      "regulation": 8347,
      "åŃŁ": 8348,
      "å¾¡æīĢ": 8349,
      "Ġperipher": 8350,
      "BI": 8351,
      "å¡ĳéĢł": 8352,
      "åī©ä½Ļ": 8353,
      "æŁĲä¸ª": 8354,
      "Ġmedium": 8355,
      "function": 8356,
      "å¼Ģè¾Ł": 8357,
      "Ġfailure": 8358,
      "è°ĥåĬ¨": 8359,
      "Res": 8360,
      "åŁºåĽłç»Ħ": 8361,
      "ä»ĭåħ¥": 8362,
      "ystem": 8363,
      "æĹ¢æĺ¯": 8364,
      "Ġlight": 8365,
      "ç»³": 8366,
      "ns": 8367,
      "åºĶçĶ¨ç¨ĭåºı": 8368,
      "äºĶæľĪ": 8369,
      "å°ī": 8370,
      "CF": 8371,
      "çĶµåŃĲåķĨåĬ¡": 8372,
      "å°§": 8373,
      "äºīåıĸ": 8374,
      "ä»¤äºº": 8375,
      "Ġinterp": 8376,
      "/-": 8377,
      "çļĦç»ĵæŀĦ": 8378,
      "Ġpotenti": 8379,
      "æŁĵèī²": 8380,
      "ï¼ļãĢĬ": 8381,
      "æŃ£å®¤": 8382,
      "tension": 8383,
      "BV": 8384,
      "å¸ĪèĮĥ": 8385,
      "Ġabsence": 8386,
      "enced": 8387,
      "æķĮåĨĽ": 8388,
      "Ġexhib": 8389,
      "Ġcohort": 8390,
      "å¤ªå¹³": 8391,
      "åĥļ": 8392,
      "BD": 8393,
      "è¾½": 8394,
      "æĹ¶åĪ»": 8395,
      "Ġsal": 8396,
      "ä¸īæľĪ": 8397,
      "æ²»åĽ½": 8398,
      "çļĦçĶŁæ´»": 8399,
      "æŁĶ": 8400,
      "å¯¹æİ¥": 8401,
      "verex": 8402,
      "éºŁ": 8403,
      "çĵ¶": 8404,
      "å°±è¦ģ": 8405,
      "äºĮæ°§åĮĸ": 8406,
      "å¤ĸæ±ĩ": 8407,
      "åĪł": 8408,
      "Ġvent": 8409,
      "aged": 8410,
      "åľ¾": 8411,
      "å·¥ä½ľäººåĳĺ": 8412,
      "å¸¸è§Ħ": 8413,
      "çī²": 8414,
      "ĠÎ±": 8415,
      "åĲĪåĲĮçļĦ": 8416,
      "æĥ¨": 8417,
      "å°ıè¯´": 8418,
      "uble": 8419,
      "åįķçº¯": 8420,
      "åıĤæĪĺ": 8421,
      "Ġmorph": 8422,
      "Ġdeli": 8423,
      "æľªæĿ¥çļĦ": 8424,
      "rotein": 8425,
      "Ġsl": 8426,
      "omas": 8427,
      "ç¦ıå²Ľ": 8428,
      "rate": 8429,
      "ä¼łè¯´": 8430,
      "ĠmM": 8431,
      "åĪĿå§ĭ": 8432,
      "çŃīæĸ¹å¼ı": 8433,
      "åĲİç»Ń": 8434,
      "åŀĥ": 8435,
      "Ab": 8436,
      "Ġclear": 8437,
      "äººè´¨": 8438,
      "ploy": 8439,
      "Ġeduc": 8440,
      "Ġutil": 8441,
      "è¯ģå®ŀ": 8442,
      "PV": 8443,
      "è¾ĥå¤§çļĦ": 8444,
      "agen": 8445,
      "åŀĥåľ¾": 8446,
      "æł·åĵģ": 8447,
      "ï¼ı": 8448,
      "Ġresulting": 8449,
      "æķ°çļĦ": 8450,
      "HR": 8451,
      "Ġable": 8452,
      "åĽ¾å½¢": 8453,
      "Ġconfirmed": 8454,
      "Ġclin": 8455,
      "Ġfive": 8456,
      "èĢķåľ°": 8457,
      "ĠFigure": 8458,
      "//": 8459,
      "å½Ĵçº³": 8460,
      "ćą": 8461,
      "ä½įçļĦ": 8462,
      "åĪ©æģ¯": 8463,
      "ç²ĺ": 8464,
      "ä¸ĥæľĪ": 8465,
      "ç¬¬ä¸īäºº": 8466,
      "æĺ¯éĢļè¿ĩ": 8467,
      "æħ¢æĢ§": 8468,
      "Ġepithelial": 8469,
      "èģĮæĿĥ": 8470,
      "åĪ©å®¶": 8471,
      "ä¸ŃçŃī": 8472,
      "èĢĥèĻĳåĪ°": 8473,
      "è§Ħç«ł": 8474,
      "è®¾å®ļ": 8475,
      "äºĮèĢħ": 8476,
      "å¾Ĺåĩº": 8477,
      "PT": 8478,
      "çī©åĵģ": 8479,
      "æłĩè®°": 8480,
      "åľ°è´¨": 8481,
      "Ġpregn": 8482,
      "Ġscores": 8483,
      "Ġevaluation": 8484,
      "èµ·çĤ¹": 8485,
      "çĹħäºº": 8486,
      "èµ·æĿ¥çļĦ": 8487,
      "ä¸ĵé¢ĺ": 8488,
      "åħŃæľĪ": 8489,
      "Ġ$\\": 8490,
      "æ¢³": 8491,
      "ä¸»æĿĥ": 8492,
      "ç¬¬åħ«": 8493,
      "åĴĮæľįåĬ¡": 8494,
      "Ġadult": 8495,
      "æķĳæı´": 8496,
      "æ°ĳèĲ¥": 8497,
      "Ġfacil": 8498,
      "çļĦå½¢æĪĲ": 8499,
      "Ġskin": 8500,
      "Ġprevalence": 8501,
      "Ġsuggests": 8502,
      "åĽ°å¢ĥ": 8503,
      "æ¸ħåįķ": 8504,
      "Ġliter": 8505,
      "åĲĦæĹı": 8506,
      "ems": 8507,
      "çŃīäºİ": 8508,
      "è¡Ģæ¶²": 8509,
      "æĶ¶åĪ°": 8510,
      "çİ°è¡Į": 8511,
      "å£°æĺİ": 8512,
      "by": 8513,
      "æĺ¯åĽłä¸º": 8514,
      "ä¸ŃæľŁ": 8515,
      "å¯¹å¾ħ": 8516,
      "åĸĦäºİ": 8517,
      "æĤ£èĢħçļĦ": 8518,
      "ots": 8519,
      "Ġaffected": 8520,
      "HO": 8521,
      "ocal": 8522,
      "æĦŁåĪ°": 8523,
      "åħ³èĬĤ": 8524,
      "Co": 8525,
      "Ġdirectly": 8526,
      "çł¦": 8527,
      "å¦ĤåĽ¾": 8528,
      "Ġstudied": 8529,
      "é¢Ĩå¯¼å¹²éĥ¨": 8530,
      "ä»¥å¤ĸ": 8531,
      "å¤§èĩ£": 8532,
      "Ġmemory": 8533,
      "éĶ»": 8534,
      "Ġoper": 8535,
      "æĬĢæľ¯åĪĽæĸ°": 8536,
      "çŁ³æ²¹": 8537,
      "å´Ľèµ·": 8538,
      "åįģæľĪ": 8539,
      "ä¹ĭå½¹": 8540,
      "éĥ½åľ¨": 8541,
      "Ġhand": 8542,
      "å¿ĥçĲĨåŃ¦": 8543,
      "Ġcateg": 8544,
      "Ġpatterns": 8545,
      "åĩºäºĳ": 8546,
      "æį®è¯´": 8547,
      "æĪĳä»¬åı¯ä»¥": 8548,
      "ä¸ĬæĿīæ°ı": 8549,
      "é¢ĦèŃ¦": 8550,
      "ries": 8551,
      "åĲ¾": 8552,
      "Con": 8553,
      "Ġinterven": 8554,
      "æĻ´åħĥ": 8555,
      "çĮª": 8556,
      "Ġapplied": 8557,
      "æ°ĳäºĭè¯īè®¼": 8558,
      "adi": 8559,
      "Ġcorrelated": 8560,
      "orb": 8561,
      "å°±èĥ½": 8562,
      "è¥¿åĮĹ": 8563,
      "ç¬¬äºĮä¸ª": 8564,
      "Ġmetabolic": 8565,
      "äº¦æľī": 8566,
      "å¾·å·Ŀå®¶": 8567,
      "è¿½ç©¶": 8568,
      "åĩ»éĢĢ": 8569,
      "è¿ĻæĹ¶": 8570,
      "mi": 8571,
      "å·¥åķĨ": 8572,
      "sh": 8573,
      "Ġgast": 8574,
      "çĽ´èĩ³": 8575,
      "Ġiss": 8576,
      "ä¼łæŁĵ": 8577,
      "åıįèĢĮ": 8578,
      "ç¤¾ä¼ļä¸»ä¹īæł¸å¿ĥ": 8579,
      "è¦ģä»¶": 8580,
      "å¼Ĺ": 8581,
      "Ġhistory": 8582,
      "Ġendothelial": 8583,
      "è¿ĩéĶĻ": 8584,
      "Ġinterval": 8585,
      "çļĦä¼ģä¸ļ": 8586,
      "å¹¶äºİ": 8587,
      "ä¸Ģæ®µ": 8588,
      "é¥±": 8589,
      "Ġbiological": 8590,
      "æĬ¥éħ¬": 8591,
      "ify": 8592,
      "åĪĿå¿ĥ": 8593,
      "åĨ³å®ļäºĨ": 8594,
      "ä¿¡å¿ĥ": 8595,
      "éĩĮè§ģ": 8596,
      "åħ´èµ·": 8597,
      "è¡Įä¸ºäºº": 8598,
      "æł¹æį®åľ°": 8599,
      "æµĭå®ļ": 8600,
      "è°ĥçłĶ": 8601,
      "Ġreduce": 8602,
      "æ¡¶": 8603,
      "Ġleading": 8604,
      "çļĦåı¯": 8605,
      "çļĦåĪĨæŀĲ": 8606,
      "RNAs": 8607,
      "åħ¬è·¯": 8608,
      "æĦ¿æĦı": 8609,
      "Ġcomponents": 8610,
      "Ġreceived": 8611,
      "å¯¹ä¸ŃåĽ½": 8612,
      "æľ¬åľ°": 8613,
      "urrent": 8614,
      "æİ¨æµĭ": 8615,
      "Ġair": 8616,
      "åİĨåı²æĢ§": 8617,
      "Ġpopulations": 8618,
      "time": 8619,
      "åı¦æľī": 8620,
      "é¸£": 8621,
      "çļĦéľĢè¦ģ": 8622,
      "Ġsurve": 8623,
      "éļ¾åº¦": 8624,
      "ĠAr": 8625,
      "çĽ²": 8626,
      "roid": 8627,
      "çī¹å¼Ĥ": 8628,
      "çłĶç©¶çĶŁ": 8629,
      "åĽŀæĶ¶": 8630,
      "æĴŀ": 8631,
      "é£Łçī©": 8632,
      "Ġpan": 8633,
      "è´µæĹı": 8634,
      "utri": 8635,
      "åıĺè¿ģ": 8636,
      "åıĤçħ§": 8637,
      "æĹłçº¿": 8638,
      "ä¸Ģçº§": 8639,
      "èĩ´åĬĽäºİ": 8640,
      "èµ·åĪ°": 8641,
      "å¾½": 8642,
      "Ġparticularly": 8643,
      "åĩłä½ķ": 8644,
      "åİ¿çº§": 8645,
      "åŃ¦çķĮ": 8646,
      "Ġtox": 8647,
      "formation": 8648,
      "ä»Ĭå·Ŀä¹īåħĥ": 8649,
      "Ġpropor": 8650,
      "ç§Ģèµĸ": 8651,
      "Ġrapid": 8652,
      "me": 8653,
      "ä½Ļäºº": 8654,
      "ä¿Ħç½Ĺæĸ¯": 8655,
      "ĠĠĠĠĠĠĠĠĠĠĠĠĠĠĠĠĠ": 8656,
      "æĢ¥æĢ§": 8657,
      "ä¸įåıĹ": 8658,
      "Ġconsistent": 8659,
      "ç§ģäºº": 8660,
      "çļĦç»Ħç»ĩ": 8661,
      "ä¼¤å®³": 8662,
      "çļĦæĶ¿çŃĸ": 8663,
      "äººæĿĥ": 8664,
      "ogn": 8665,
      "çĤ¸": 8666,
      "ä¸İä¹ĭ": 8667,
      "æł¡åĽŃ": 8668,
      "æł¼å¼ı": 8669,
      "åįĹäº¬": 8670,
      "Ġlipid": 8671,
      "Ġremains": 8672,
      "åĩ¯": 8673,
      "åı¤åħ¸": 8674,
      "å¤§åĪ©": 8675,
      "åįłæ¯Ķ": 8676,
      "PI": 8677,
      "æĬ±": 8678,
      "ä¸ŃåĴĮ": 8679,
      "ç¨Ļ": 8680,
      "Ġleuk": 8681,
      "é»İ": 8682,
      "ographic": 8683,
      "ä¹ĭä¸Ĭ": 8684,
      "pecially": 8685,
      "ä¸Ńå°ıä¼ģä¸ļ": 8686,
      "æ¬£": 8687,
      "åľ¨åĨħçļĦ": 8688,
      "ä¸įä½Ĩ": 8689,
      "Ġess": 8690,
      "ä¹īéļĨ": 8691,
      "åĪ¶åº¦åĴĮ": 8692,
      "ino": 8693,
      "æľ¬æ¡Ī": 8694,
      "å²Ń": 8695,
      "äºĶä½į": 8696,
      "é»Ħæ²³": 8697,
      "Ġadap": 8698,
      "Ġcomparison": 8699,
      "ä»ªåĻ¨": 8700,
      "ĠDi": 8701,
      "ä¸ºä¸»è¦ģ": 8702,
      "éģŃåıĹ": 8703,
      "ä¸ºåħ¶": 8704,
      "ç»ıèĲ¥èĢħ": 8705,
      "ĠSp": 8706,
      "Ġ\\*": 8707,
      "å®Įæķ´çļĦ": 8708,
      "åħ¬æľī": 8709,
      "erve": 8710,
      "ä¿¡éķ¿çļĦ": 8711,
      "Ġanimal": 8712,
      "Ġsince": 8713,
      "ĠTNF": 8714,
      "æį®çĤ¹": 8715,
      "az": 8716,
      "æĬĽ": 8717,
      "åŃĲåŃĻ": 8718,
      "Ġversus": 8719,
      "orescence": 8720,
      "Ġdetail": 8721,
      "å¸¸è§ģçļĦ": 8722,
      "åŁİä¹ĭæĪĺ": 8723,
      "arrow": 8724,
      "Ġsuccess": 8725,
      "åħ¨åĽ½äººå¤§": 8726,
      "==========": 8727,
      "æħĪ": 8728,
      "çºªå¿µ": 8729,
      "çļĦæłĩåĩĨ": 8730,
      "å§¿": 8731,
      "çĶŁçī©åŃ¦": 8732,
      "é¢Ĺç²Ĵ": 8733,
      "ĠãĢĬ": 8734,
      "èªĵ": 8735,
      "LT": 8736,
      "è¯¯å·®": 8737,
      "çĽ¸å½ĵäºİ": 8738,
      "Ġkid": 8739,
      "}$": 8740,
      "äºĶéĥİ": 8741,
      "çłĶç©¶ä¸Ń": 8742,
      "âĸ": 8743,
      "å¤§å¤«": 8744,
      "ä¸įæĸŃæıĲé«ĺ": 8745,
      "æ¤İ": 8746,
      "åıĪæľī": 8747,
      "éĿ¢ä¸´çļĦ": 8748,
      "Ġdisorder": 8749,
      "overy": 8750,
      "Ġfund": 8751,
      "æ¸Ķ": 8752,
      "æıĲç¤º": 8753,
      "Ġcycle": 8754,
      "ĠCol": 8755,
      "è¡¨çİ°åĩº": 8756,
      "æŀĿ": 8757,
      "åĬłå¯Ĩ": 8758,
      "é¼»": 8759,
      "priate": 8760,
      "å½ĵä¸Ń": 8761,
      "Ġevaluate": 8762,
      "ä¹ĭå¼Ł": 8763,
      "ç³»ç»Łä¸Ń": 8764,
      "èĪĨè®º": 8765,
      "è´Łè´£äºº": 8766,
      "erate": 8767,
      "ä¸įåºĶ": 8768,
      "æ¶Īå¤±": 8769,
      "ele": 8770,
      "Ġuni": 8771,
      "åĮħè£ħ": 8772,
      "\"})": 8773,
      "çļĦæĢ»": 8774,
      "åĭŁ": 8775,
      "çĶ¨éĢĶ": 8776,
      "åºŀ": 8777,
      "ä¸ªåĪ«": 8778,
      "é¦ĸçº§": 8779,
      "çļĦä¸Ģéĥ¨åĪĨ": 8780,
      "Ġplace": 8781,
      "rog": 8782,
      "å®ŀä¹ł": 8783,
      "LD": 8784,
      "å¸¦æľī": 8785,
      "positive": 8786,
      "åĲĦæĸ¹éĿ¢": 8787,
      "Ġanother": 8788,
      "å£«åħµ": 8789,
      "å¸¸çĶ¨": 8790,
      "VA": 8791,
      "åĪĥ": 8792,
      "åħĥåĴĮ": 8793,
      "Ġkinase": 8794,
      "2007": 8795,
      "èĳĹåĲį": 8796,
      "ç¥¥": 8797,
      "éº¾ä¸ĭ": 8798,
      "å¤§èĦĳ": 8799,
      "äºĭä¸ļåįķä½į": 8800,
      "BC": 8801,
      "åįģäºĮæĿ¡": 8802,
      "åŃ¦ä½į": 8803,
      "åĩºäºİ": 8804,
      "åĻ¨å®ĺ": 8805,
      "éĤ¸": 8806,
      "èĴ¸": 8807,
      "Ġtransi": 8808,
      "ä»£æĽ¿": 8809,
      "åºĻ": 8810,
      "å½°æĺ¾": 8811,
      "Ġfuture": 8812,
      "åįļçī©é¦Ĩ": 8813,
      "åħ¨æĸ¹ä½į": 8814,
      "åıĳå±ķä¸ŃåĽ½å®¶": 8815,
      "çłĶç©¶èĢħ": 8816,
      "éĻµ": 8817,
      "éľĢè¦ģçļĦ": 8818,
      "ream": 8819,
      "éĻĲäºİ": 8820,
      "åĽĽæĺ¯": 8821,
      "æ£Ģå¯ŁéĻ¢": 8822,
      "âĢĲ": 8823,
      "hest": 8824,
      "æĭ¨": 8825,
      "æĭĺ": 8826,
      "çłĶç©¶åĳĺ": 8827,
      "ä¹Ŀå¹´": 8828,
      "èĤ¤": 8829,
      "ä¿ĥè¿ĽäºĨ": 8830,
      "ä¸Ĭçº§": 8831,
      "äººç±»ç¤¾ä¼ļ": 8832,
      "ĠĠĠĠĠĠĠĠĠĠĠĠĠĠĠĠĠĠ": 8833,
      "åĪĽéĢłäºĨ": 8834,
      "Ġdomain": 8835,
      "åħ¨éĿ¢å»ºè®¾": 8836,
      "å°½åı¯èĥ½": 8837,
      "ä¸»åĬĽ": 8838,
      "åĲĪè§Ħ": 8839,
      "åıĪæĺ¯": 8840,
      "è¯»èĢħ": 8841,
      "åĽŃåĮº": 8842,
      "Ġrequire": 8843,
      "bers": 8844,
      "åĳĬçŁ¥": 8845,
      "Ġchann": 8846,
      "Ġaccum": 8847,
      "ç½¢": 8848,
      "å°ĳæķ°æ°ĳæĹı": 8849,
      "Ġagg": 8850,
      "Ġangi": 8851,
      "associated": 8852,
      "åĲįåŃĹ": 8853,
      "cohol": 8854,
      "Ġimplement": 8855,
      "Ġthough": 8856,
      "éļıä¹ĭ": 8857,
      "éĽķ": 8858,
      "éĢļè®¯": 8859,
      "æ¬¡éĥİ": 8860,
      "Ġmolecules": 8861,
      "è¾ĥé«ĺçļĦ": 8862,
      "DR": 8863,
      "åĨ»": 8864,
      "åĿļå®ŀ": 8865,
      "Ġpref": 8866,
      "æ·ĭå·´": 8867,
      "æī©æķ£": 8868,
      "inflamm": 8869,
      "ä¸įå¼Ģ": 8870,
      "èµĸæľĿ": 8871,
      "Ġgenerated": 8872,
      "æĸ¹æ³ķçļĦ": 8873,
      "è¢«åĳĬäºº": 8874,
      "æ»´": 8875,
      "éĢĢåĩº": 8876,
      "å®¶éķ¿": 8877,
      "lish": 8878,
      "åįģä¸ĢæĿ¡": 8879,
      "æ®ĭçĸ¾": 8880,
      "æ¶µçĽĸ": 8881,
      "äº§éĺ¶çº§": 8882,
      "è°ĥçĶ¨": 8883,
      "å¸¸å¸¸": 8884,
      "Ġlike": 8885,
      "vari": 8886,
      "è¶Ĭä¸Ń": 8887,
      "æ®ĸæ°ĳ": 8888,
      "chem": 8889,
      "çķĻåľ¨": 8890,
      "çİĩåħĪ": 8891,
      "Ġmaterial": 8892,
      "Ġlig": 8893,
      "Ġvess": 8894,
      "æĶ¿åįı": 8895,
      "åĩºä»ķ": 8896,
      "Ġhere": 8897,
      "ç³ĸå°¿": 8898,
      "ãĢĤ[": 8899,
      "ä¹ĭåľ°": 8900,
      "equ": 8901,
      "èµĦæºĲéħįç½®": 8902,
      "åįłé¢Ĩ": 8903,
      "å½ĵå¹´": 8904,
      "Ġsupplement": 8905,
      "åĲĪæł¼": 8906,
      "èĩ³åħ³": 8907,
      "left": 8908,
      "æľªç»ı": 8909,
      "Ġcontribute": 8910,
      "å¸ĪçĶŁ": 8911,
      "Ġoptim": 8912,
      "Ġtemper": 8913,
      "æŃ¦çĶ°èĥľèµĸ": 8914,
      "2005": 8915,
      "å½±åĵįåĬĽ": 8916,
      "çļĦåīį": 8917,
      "Ġactivated": 8918,
      "é¢Ĩæľī": 8919,
      "Ġstatistical": 8920,
      "care": 8921,
      "æĪĲä¸ºäºĨ": 8922,
      "åĪ·": 8923,
      "åīįèĢħ": 8924,
      "å£°éŁ³": 8925,
      "ä½ľäºĨ": 8926,
      "Ġfinal": 8927,
      "ä½Ĳä½Ĳ": 8928,
      "çĿ¡": 8929,
      "å§Ĩ": 8930,
      "Ġreas": 8931,
      "èĦ±è´«æĶ»åĿļ": 8932,
      "åįıå®ļ": 8933,
      "Ġneeded": 8934,
      "æ¢³çĲĨ": 8935,
      "ä½ĵç³»å»ºè®¾": 8936,
      "åį°åıĳ": 8937,
      "FA": 8938,
      "rated": 8939,
      "å¿ĥèĦı": 8940,
      "ä¸¤åĽ½": 8941,
      "èµĲè±«": 8942,
      "onic": 8943,
      "å²ģçļĦ": 8944,
      "ä¸¹æ³¢": 8945,
      "âĨĴ": 8946,
      "è¿Ļé¡¹": 8947,
      "Ġrelevant": 8948,
      "æīŃ": 8949,
      "æĢĿæĥ³çļĦ": 8950,
      "å¸¦æĿ¥äºĨ": 8951,
      "TR": 8952,
      "çİĭæľĿ": 8953,
      "çĹħåıĺ": 8954,
      "ç¬ĳ": 8955,
      "LS": 8956,
      "Ġä¸ŃåĽ½": 8957,
      "æľºæŀĦçļĦ": 8958,
      "èĲĦ": 8959,
      "estinal": 8960,
      "æĪĺä¸Ń": 8961,
      "Ġoste": 8962,
      "ä¸Ĭæĺ¯": 8963,
      "å¤±ä¸ļ": 8964,
      "MR": 8965,
      "å¤§çº¦": 8966,
      "åıĳæĢ§": 8967,
      "Ġsci": 8968,
      "Ġcall": 8969,
      "çĶŁæ´»ä¸Ń": 8970,
      "æĹ¶ä»£çļĦæŃ¦å°Ĩ": 8971,
      "çļĦåŃĺåľ¨": 8972,
      "otypes": 8973,
      "çľģçº§": 8974,
      "åįģåĽĽæĿ¡": 8975,
      "ä»Ģä¹Īæĺ¯": 8976,
      "åħ³å¿ĥ": 8977,
      "çī©ä½ĵ": 8978,
      "ç»ĵåŁİ": 8979,
      "Ġespecially": 8980,
      "Ġscreening": 8981,
      "pite": 8982,
      "åĪ°åºķ": 8983,
      "ç³»ç»ŁæĢ§": 8984,
      "èĳ¡èĲĦ": 8985,
      "è¯±å¯¼": 8986,
      "åı¯çĶ¨": 8987,
      "Î¼": 8988,
      "æľ¬éĺµ": 8989,
      "èĲ¥ä¸ļ": 8990,
      "ĠOne": 8991,
      "Ġspecies": 8992,
      "çİ¯å¢ĥä¸Ń": 8993,
      "Ġmalign": 8994,
      "åĲĪéĢĤ": 8995,
      "ç³ĸå°¿çĹħ": 8996,
      "çŁ¥è¡Į": 8997,
      "çĬ¬": 8998,
      "etal": 8999,
      "ä»¿çľŁ": 9000,
      "åįģä¸īæĿ¡": 9001,
      "rup": 9002,
      "èģļéĽĨ": 9003,
      "éķ¿ä¹ħ": 9004,
      "Ġregression": 9005,
      "Ġperipheral": 9006,
      "GA": 9007,
      "æŀģç«¯": 9008,
      "çīĪæľ¬": 9009,
      "åľŁä½Ĳ": 9010,
      "Ġquantit": 9011,
      "Ġquantif": 9012,
      "ame": 9013,
      "Ġadults": 9014,
      "è¦ģæĬĬ": 9015,
      "ĊĠĠĠ": 9016,
      "çļĦæĦıä¹ī": 9017,
      "ä¸°åĲİ": 9018,
      "Ġdifficult": 9019,
      "ĠSD": 9020,
      "çļĦéĩįè¦ģæĢ§": 9021,
      "ä¼ĺçĤ¹": 9022,
      "å¸¸å§Ķä¼ļ": 9023,
      "é¤Ĳ": 9024,
      "Ġplat": 9025,
      "è·Łè¸ª": 9026,
      "äº«åıĹ": 9027,
      "çī©ç§į": 9028,
      "Ġmeans": 9029,
      "ĠNot": 9030,
      "Ġincidence": 9031,
      "èµ°åĩº": 9032,
      "è¦ģæľī": 9033,
      "åŃĶåŃĲ": 9034,
      "äºīå¤º": 9035,
      "Ġtrac": 9036,
      "aches": 9037,
      "åĪĨæŀĲåĴĮ": 9038,
      "åĽŀåºĶ": 9039,
      "document": 9040,
      "ćĆ": 9041,
      "åĽĽæľĪ": 9042,
      "ç»ĻäºĨ": 9043,
      "è®¾è®¡çļĦ": 9044,
      "åħ¶ä¸ŃçļĦ": 9045,
      "Ġinvestigate": 9046,
      "SE": 9047,
      "Ġ**(": 9048,
      "è¯ļä¿¡": 9049,
      "èµ·æºĲ": 9050,
      "è¯ĪéªĹ": 9051,
      "ç»ĵåĲĪèµ·æĿ¥": 9052,
      "æŁı": 9053,
      "Ġdistinc": 9054,
      "ä¼ıè§ģ": 9055,
      "Ġstrategies": 9056,
      "Ġview": 9057,
      "istry": 9058,
      "åıĽä¹±": 9059,
      "æĿĢå®³": 9060,
      "æĪĸèĢħåħ¶ä»ĸ": 9061,
      "æĪĲåĥı": 9062,
      "è·µè¡Į": 9063,
      "éĺĲéĩĬ": 9064,
      "tered": 9065,
      "åŁºåĩĨ": 9066,
      "å¯Ĩçłģ": 9067,
      "èİ±": 9068,
      "Ġphenotype": 9069,
      "åľ¨ä¸Ģä¸ª": 9070,
      "ç«łç¨ĭ": 9071,
      "----------------------------": 9072,
      "è±¡å¾ģ": 9073,
      "ä¸ºçĶ±": 9074,
      "åĽ½åľŁ": 9075,
      "çİ©": 9076,
      "æıĲåīį": 9077,
      "åįĥçŁ³": 9078,
      "éĿ©åĳ½çļĦ": 9079,
      "ç«ĭä¸ĭ": 9080,
      "æµ·ä¸Ĭ": 9081,
      "ethod": 9082,
      "Ġhost": 9083,
      "Ġmicroscop": 9084,
      "æĭ¼": 9085,
      "ĠCo": 9086,
      "èĤºçĤİ": 9087,
      "Ġexist": 9088,
      "Ġmacrophages": 9089,
      "å®ŀè®Ń": 9090,
      "åħ«å¹´": 9091,
      "çĻĮçĹĩ": 9092,
      "æ±Łèĭı": 9093,
      "Ġreal": 9094,
      "ä¸Ģæµģ": 9095,
      "å°ºåº¦": 9096,
      "èµ·ä¹ī": 9097,
      "operative": 9098,
      "ä»¥ä¹łè¿ĳå¹³åĲĮå¿Ĺ": 9099,
      "mL": 9100,
      "ä»ĩ": 9101,
      "èħĬ": 9102,
      "ç»Īç«¯": 9103,
      "å½¦": 9104,
      "Ġemerg": 9105,
      "æŃ¤ç±»": 9106,
      "ç»ıæµİåıĳå±ķçļĦ": 9107,
      "PR": 9108,
      "æĢģåĬ¿": 9109,
      "Ġcarcinoma": 9110,
      "èĳĽ": 9111,
      "Ġrespiratory": 9112,
      "çķľ": 9113,
      "ç¬¬ä¸īæĸ¹": 9114,
      "ãĢĭ(": 9115,
      "æĺ¯ä¸º": 9116,
      "åŁİæ±ł": 9117,
      "ä¹ĭåĲį": 9118,
      "çļĩå¸Ŀ": 9119,
      "æ²»çĲĨèĥ½åĬĽ": 9120,
      "Ġcharacterized": 9121,
      "æķĻåŃ¦ä¸Ń": 9122,
      "ãģĹ": 9123,
      "Ġneu": 9124,
      "oding": 9125,
      "ä¸īåįģ": 9126,
      "æ·±è¿ľ": 9127,
      "å¹´åºķ": 9128,
      "Ġimpair": 9129,
      "æķĻèĤ²éĥ¨": 9130,
      "äºļæ´²": 9131,
      "åħ¨éĿ¢æİ¨è¿Ľ": 9132,
      "ä¸ºæł¸å¿ĥçļĦåħļä¸Ńå¤®": 9133,
      "å¥ĳçº¦": 9134,
      "æĺ¯ä¸ºäºĨ": 9135,
      "Ġtoward": 9136,
      "Ġprost": 9137,
      "Ġbiomark": 9138,
      "ä¹ĭä¸ĢçļĦ": 9139,
      "èĴĭ": 9140,
      "æīįæĺ¯": 9141,
      "äºĳè®¡ç®Ĺ": 9142,
      "åĳ½é¢ĺ": 9143,
      "ç»ĺçĶ»": 9144,
      "ĠĠĠĠĠĠĠĠĠĠĠĠĠĠĠĠĠĠĠ": 9145,
      "Ġuseful": 9146,
      "æīĳ": 9147,
      "Ġdirec": 9148,
      "è¿ĩäºİ": 9149,
      "å·¥ä½ľä¸Ń": 9150,
      "Ġsecondary": 9151,
      "bor": 9152,
      "Ġestablished": 9153,
      "Ġ37": 9154,
      "åĩıæİĴ": 9155,
      "ç§Ĵ": 9156,
      "rolog": 9157,
      "éģĩåĪ°": 9158,
      "Ġtransfer": 9159,
      "Ġmaxim": 9160,
      "çº²è¦ģ": 9161,
      "éĻĲåº¦": 9162,
      "ä¾µçķ¥": 9163,
      "for": 9164,
      "äººçĶŁ": 9165,
      "é¦ĸè¦ģ": 9166,
      "æĲ¬": 9167,
      "âī": 9168,
      "æ²¡æĶ¶": 9169,
      "èģĶåĬ¨": 9170,
      "çĥ¯": 9171,
      "Ġdecision": 9172,
      "aid": 9173,
      "Ġtop": 9174,
      "......": 9175,
      "Ġsupported": 9176,
      "Ġdim": 9177,
      "tle": 9178,
      "èĹ¤åİŁ": 9179,
      "å®ĹæĹ¨": 9180,
      "yg": 9181,
      "éģĵéĽª": 9182,
      "è£Ķ": 9183,
      "Ġcardiovascular": 9184,
      "ales": 9185,
      "ä¸įåŃĺåľ¨": 9186,
      "Ġfile": 9187,
      "Ġresearchers": 9188,
      "åĲ«æľī": 9189,
      "ili": 9190,
      "ä¸ľéĥ¨": 9191,
      "ĠMRI": 9192,
      "åħ¬åĽŃ": 9193,
      "eding": 9194,
      "è§Ħå®ļäºĨ": 9195,
      "Ġpossi": 9196,
      "æİ¥çĿĢ": 9197,
      "Ġapproxim": 9198,
      "çļĦå¤ĸ": 9199,
      "arding": 9200,
      "è¾Ī": 9201,
      "Ġoxygen": 9202,
      "åľ¨å¯¹": 9203,
      "çļĦåĪ©çĽĬ": 9204,
      "çº¢åĨĽ": 9205,
      "Ġcauses": 9206,
      "çº¿ä¸Ĭ": 9207,
      "ä¸Ńä»ĭ": 9208,
      "rm": 9209,
      "ä¹ĭå¤§": 9210,
      "éķĩåİĭ": 9211,
      "Ġä»İ": 9212,
      "èĩªæĿĢ": 9213,
      "tt": 9214,
      "æłĩè¯Ĩ": 9215,
      "ogenous": 9216,
      "Ġ22": 9217,
      "ä¸Ńåįİä¼ĺç§Ģ": 9218,
      "éĢĶä¸Ń": 9219,
      "ä»ĬåĲİ": 9220,
      "ifically": 9221,
      "ĠGen": 9222,
      "IR": 9223,
      "æ´¾åĩº": 9224,
      "äºĶä¸ª": 9225,
      "æĿĤå¿Ĺ": 9226,
      "Ġderived": 9227,
      "æĬµè¾¾": 9228,
      "å¾ĹçŁ¥": 9229,
      "Ġinteractions": 9230,
      "================================": 9231,
      "çķĻå®Ī": 9232,
      "åŃ¦æ´¾": 9233,
      "ä¹ĭæĹ¶": 9234,
      "éĶħ": 9235,
      "åįģä¸ĥæĿ¡": 9236,
      "å¼ķå¯¼åŃ¦çĶŁ": 9237,
      "lobal": 9238,
      "åįĥä»£": 9239,
      "è£ģåĨ³": 9240,
      "æĶ»çķ¥": 9241,
      "å¹¶æĹł": 9242,
      "å¤ĦçļĦ": 9243,
      "æŃ¤äºĭ": 9244,
      "åĲŀ": 9245,
      "èĥº": 9246,
      "otic": 9247,
      "ä¸ªäººçļĦ": 9248,
      "åħ¨ç¤¾ä¼ļ": 9249,
      "Ġliterature": 9250,
      "duces": 9251,
      "Ġhyd": 9252,
      "\\*\\*": 9253,
      "æľ¬èĥ½å¯ºä¹ĭåıĺ": 9254,
      "ç»ĦæĪĲçļĦ": 9255,
      "Ġupon": 9256,
      "åĲ§": 9257,
      "æĢ»ä¹ĭ": 9258,
      "éļĻ": 9259,
      "Ġhours": 9260,
      "çļĦæľ¬è´¨": 9261,
      "ä¸Ģä¸ĭ": 9262,
      "rich": 9263,
      "å½¼æŃ¤": 9264,
      "ä¸ĢçĻ¾": 9265,
      "äººåĳĺçļĦ": 9266,
      "Ġerr": 9267,
      "120": 9268,
      "çļĦæĢ§è´¨": 9269,
      "å°ºå¯¸": 9270,
      "Ġhypothesis": 9271,
      "å¹¶å¯¹": 9272,
      "çļĦå¸Ĥåľº": 9273,
      "ä¹Łæ²¡æľī": 9274,
      "âĦĥ": 9275,
      "æĸĳ": 9276,
      "ä½ľé£İ": 9277,
      "eling": 9278,
      "åıĳçĶŁåľ¨": 9279,
      "Ġagents": 9280,
      "æ°Ķè±¡": 9281,
      "éĩİæ°ı": 9282,
      "æĸĩåĮĸéģĹäº§": 9283,
      "Ġpulmonary": 9284,
      "Ġimproved": 9285,
      "æľĢä½³": 9286,
      "Ġsleep": 9287,
      "éĩįè¦ģçļĦæĺ¯": 9288,
      "ç©´": 9289,
      "çŃĳåīį": 9290,
      "æ¸ħæŃ£": 9291,
      "ä½ľä¸ºä¸Ģç§į": 9292,
      "æ¨¡å¼ıçļĦ": 9293,
      "Ġinterventions": 9294,
      "çīº": 9295,
      "æĺİäºĨ": 9296,
      "æķĳæµİ": 9297,
      "ç²¹": 9298,
      "å®£åĳĬ": 9299,
      "éĿĴå°ĳå¹´": 9300,
      "å¯¹å¤ĸå¼ĢæĶ¾": 9301,
      "cepti": 9302,
      "çĶµæºĲ": 9303,
      "æŃ¦å®¶": 9304,
      "Ġposition": 9305,
      "éĵº": 9306,
      "rs": 9307,
      "å®ļéĩı": 9308,
      "2006": 9309,
      "éĿĻèĦī": 9310,
      "Ġpaper": 9311,
      "æ¨¡ç³Ĭ": 9312,
      "Ġinhibitors": 9313,
      "åŁºçĿ£": 9314,
      "Ġcytokines": 9315,
      "åħ¨æ°ĳ": 9316,
      "Ġrecru": 9317,
      "çłĶç©¶åĴĮ": 9318,
      "åĲİæĿ¥çļĦ": 9319,
      "å¼¹æĢ§": 9320,
      "ä¸ĢåĲĳä¸ĢæıĨ": 9321,
      "å¼Ģæĭĵ": 9322,
      "å³»": 9323,
      "åıĳå±ķæĪĺçķ¥": 9324,
      "è¿½åĩ»": 9325,
      "æ»¡æĦı": 9326,
      "Ġmid": 9327,
      "Ġmonitor": 9328,
      "Ġfluid": 9329,
      "å¼Ĥè®®": 9330,
      "èĤ©": 9331,
      "ĠĠĠĠĠĠĠĠĠĠĠĠĠĠĠĠĠĠĠĠĠĠĠĠĠĠĠĠĠĠĠĠĠĠĠĠĠĠĠĠĠĠĠĠĠĠĠĠĠĠĠĠĠĠĠĠĠĠĠĠĠĠĠĠĠĠĠĠĠĠĠĠĠĠĠĠĠĠĠĠĠĠĠĠĠĠĠĠĠĠĠĠĠĠĠĠĠĠĠĠĠĠĠĠĠĠĠĠĠĠĠĠĠĠĠĠĠĠĠĠĠĠĠĠĠĠĠĠĠĠĠĠĠĠĠĠĠĠĠĠĠĠĠĠĠĠĠĠĠĠĠĠĠĠĠĠĠĠĠĠĠĠĠĠĠĠĠĠĠĠĠĠĠĠĠĠĠĠĠĠĠĠĠĠĠĠĠĠĠĠĠĠĠĠĠĠĠĠĠĠĠĠĠĠĠĠĠĠĠĠĠĠĠĠĠĠĠĠĠĠĠĠĠĠĠĠĠĠĠĠĠĠĠĠĠĠĠĠĠĠĠĠĠĠĠĠĠĠĠĠĠĠĠĠĠĠ": 9332,
      "ĠMedical": 9333,
      "æĹ©åľ¨": 9334,
      "æľ¬åĽ½": 9335,
      "æĽ¹": 9336,
      "åĮ»çĶŁ": 9337,
      "Ġsignals": 9338,
      "ĠInc": 9339,
      "çļĦèĮĥåĽ´": 9340,
      "äººå¿ĥ": 9341,
      "åŁİä¸ĭ": 9342,
      "èµ·äºĨ": 9343,
      "US": 9344,
      "å¯¹çħ§": 9345,
      "èįīæ¡Ī": 9346,
      "here": 9347,
      "hood": 9348,
      "åĩĮ": 9349,
      "Ġyoung": 9350,
      "é©³": 9351,
      "ä»»åĳ½ä¸º": 9352,
      "Ġbeta": 9353,
      "æĮģæľī": 9354,
      "çªĦ": 9355,
      "æĦıæĦ¿": 9356,
      "ä½¿åŃ¦çĶŁ": 9357,
      "Ġdyn": 9358,
      "åıĸåĲĳ": 9359,
      "Ġalone": 9360,
      "æī®": 9361,
      "çīºçī²": 9362,
      "ç¥Ŀ": 9363,
      "ils": 9364,
      "ĠSim": 9365,
      "çºłæŃ£": 9366,
      "å¤§èĩ´": 9367,
      "Ġtog": 9368,
      "ird": 9369,
      "eting": 9370,
      "æķĳåĬ©": 9371,
      "å¹¶åıĳ": 9372,
      "0001": 9373,
      "åĽĽéĥİ": 9374,
      "Ġincubated": 9375,
      "å±ĤçļĦ": 9376,
      "æļ´éľ²": 9377,
      "%),": 9378,
      "è¢Ńåĩ»": 9379,
      "åıĹçĽĬ": 9380,
      "åıĹä½ĵ": 9381,
      "Ġcortex": 9382,
      "ä¸¢": 9383,
      "æĹ¶ç©º": 9384,
      "è¢ĸ": 9385,
      "æĶ¹ä¸º": 9386,
      "åĬłåī§": 9387,
      "çħĮ": 9388,
      "æĭ¥ç«ĭ": 9389,
      "åĪĹå®ģ": 9390,
      "æĿĲæĸĻçļĦ": 9391,
      "Ġtogether": 9392,
      "âĢĿï¼Ľ": 9393,
      "Ġcorresponding": 9394,
      "åı¯åĪĨä¸º": 9395,
      "èĻļåģĩ": 9396,
      "Ġdensity": 9397,
      "Ġwild": 9398,
      "ãĢĭ,": 9399,
      "ä¹¦ä¸Ń": 9400,
      "å°Ĭæ°ı": 9401,
      "çŃĶæ¡Ī": 9402,
      "Ġlat": 9403,
      "group": 9404,
      "HA": 9405,
      "çº¿çļĦ": 9406,
      "Ġlimit": 9407,
      "æľºåĬ¨": 9408,
      "Ġinduction": 9409,
      "å½Ĵå±ŀ": 9410,
      "åıĸæ¶Ī": 9411,
      "åįģåħŃæĿ¡": 9412,
      "åı¯éĿłæĢ§": 9413,
      "Ġhome": 9414,
      "icacy": 9415,
      "Ġsumm": 9416,
      "ä¸įäºĪ": 9417,
      "åľ¨åĽ½éĻħ": 9418,
      "ä½ĨçĶ±äºİ": 9419,
      "å®¾": 9420,
      "æİ©": 9421,
      "æłª": 9422,
      "é«ĺç«¯": 9423,
      "ergic": 9424,
      "å½±åĥı": 9425,
      "Ġexerc": 9426,
      "æĹ¥æľŁ": 9427,
      "immun": 9428,
      "çİ»": 9429,
      "å»¶éķ¿": 9430,
      "æīĢå¾Ĺç¨İ": 9431,
      "Ġtrig": 9432,
      "Ġrecently": 9433,
      "å½¢çĬ¶": 9434,
      "ãĢĭï¼īãĢĤ": 9435,
      "Ġoverex": 9436,
      "Ġcontext": 9437,
      "Ġwhole": 9438,
      "å»ºæ¨¡": 9439,
      "çŁ³å·Ŀ": 9440,
      "çĽ¸ä¿¡": 9441,
      "fold": 9442,
      "æĪĪ": 9443,
      "åºĶä»ģ": 9444,
      "Ġremo": 9445,
      "èĪŁ": 9446,
      "Ġmuch": 9447,
      "æ³ķå¾ĭè§Ħå®ļ": 9448,
      "åĬ©åĬĽ": 9449,
      "Ġcycl": 9450,
[...]
