{
  "version": "1.0",
  "truncation": null,
  "padding": null,
  "added_tokens": [
    {
      "id": 0,
      "content": "<|endoftext|>",
      "single_word": false,
      "lstrip": false,
      "rstrip": false,
      "normalized": false,
      "special": true
    },
    {
      "id": 1,
      "content": "<|im_end|>",
      "single_word": false,
      "lstrip": false,
      "rstrip": false,
      "normalized": false,
      "special": true
    },
    {
      "id": 2,
      "content": "<|im_system|>",
      "single_word": false,
      "lstrip": false,
      "rstrip": false,
      "normalized": false,
      "special": true
    },
    {
      "id": 3,
      "content": "<|im_user|>",
      "single_word": false,
      "lstrip": false,
      "rstrip": false,
      "normalized": false,
      "special": true
    },
    {
      "id": 4,
      "content": "<|im_assistant|>",
      "single_word": false,
      "lstrip": false,
      "rstrip": false,
      "normalized": false,
      "special": true
    },
    {
      "id": 32764,
      "content": "\n\n",
      "single_word": false,
      "lstrip": false,
      "rstrip": false,
      "normalized": true,
      "special": false
    },
    {
      "id": 32765,
      "content": "  ",
      "single_word": false,
      "lstrip": false,
      "rstrip": false,
      "normalized": true,
      "special": false
    },
    {
      "id": 32766,
      "content": "   ",
      "single_word": false,
      "lstrip": false,
      "rstrip": false,
      "normalized": true,
      "special": false
    },
    {
      "id": 32767,
      "content": "    ",
      "single_word": false,
      "lstrip": false,
      "rstrip": false,
      "normalized": true,
      "special": false
    }
  ],
  "normalizer": null,
  "pre_tokenizer": {
    "type": "Sequence",
    "pretokenizers": [
      {
        "type": "Split",
        "pattern": {
          "Regex": "\u001f"
        },
        "behavior": "Removed",
        "invert": false
      },
      {
        "type": "ByteLevel",
        "add_prefix_space": false,
        "trim_offsets": true,
        "use_regex": true
      }
    ]
  },
  "post_processor": {
    "type": "ByteLevel",
    "add_prefix_space": true,
    "trim_offsets": false,
    "use_regex": true
  },
  "decoder": {
    "type": "ByteLevel",
    "add_prefix_space": true,
    "trim_offsets": true,
    "use_regex": true
  },
  "model": {
    "type": "BPE",
    "dropout": null,
    "unk_token": null,
    "continuing_subword_prefix": null,
    "end_of_word_suffix": null,
    "fuse_unk": false,
    "byte_fallback": false,
    "ignore_merges": false,
    "vocab": {
      "<|endoftext|>": 0,
      "<|im_end|>": 1,
      "<|im_system|>": 2,
      "<|im_user|>": 3,
      "<|im_assistant|>": 4,
      "!": 5,
      "\"": 6,
      "#": 7,
      "$": 8,
      "%": 9,
      "&": 10,
      "'": 11,
      "(": 12,
      ")": 13,
      "*": 14,
      "+": 15,
      ",": 16,
      "-": 17,
      ".": 18,
      "/": 19,
      "0": 20,
      "1": 21,
      "2": 22,
      "3": 23,
      "4": 24,
      "5": 25,
      "6": 26,
      "7": 27,
      "8": 28,
      "9": 29,
      ":": 30,
      ";": 31,
      "<": 32,
      "=": 33,
      ">": 34,
      "?": 35,
      "@": 36,
      "A": 37,
      "B": 38,
      "C": 39,
      "D": 40,
      "E": 41,
      "F": 42,
      "G": 43,
      "H": 44,
      "I": 45,
      "J": 46,
      "K": 47,
      "L": 48,
      "M": 49,
      "N": 50,
      "O": 51,
      "P": 52,
      "Q": 53,
      "R": 54,
      "S": 55,
      "T": 56,
      "U": 57,
      "V": 58,
      "W": 59,
      "X": 60,
      "Y": 61,
      "Z": 62,
      "[": 63,
      "\\": 64,
      "]": 65,
      "^": 66,
      "_": 67,
      "`": 68,
      "a": 69,
      "b": 70,
      "c": 71,
      "d": 72,
      "e": 73,
      "f": 74,
      "g": 75,
      "h": 76,
      "i": 77,
      "j": 78,
      "k": 79,
      "l": 80,
      "m": 81,
      "n": 82,
      "o": 83,
      "p": 84,
      "q": 85,
      "r": 86,
      "s": 87,
      "t": 88,
      "u": 89,
      "v": 90,
      "w": 91,
      "x": 92,
      "y": 93,
      "z": 94,
      "{": 95,
      "|": 96,
      "}": 97,
      "~": 98,
      "¡": 99,
      "¢": 100,
      "£": 101,
      "¤": 102,
      "¥": 103,
      "¦": 104,
      "§": 105,
      "¨": 106,
      "©": 107,
      "ª": 108,
      "«": 109,
      "¬": 110,
      "®": 111,
      "¯": 112,
      "°": 113,
      "±": 114,
      "²": 115,
      "³": 116,
      "´": 117,
      "µ": 118,
      "¶": 119,
      "·": 120,
      "¸": 121,
      "¹": 122,
      "º": 123,
      "»": 124,
      "¼": 125,
      "½": 126,
      "¾": 127,
      "¿": 128,
      "À": 129,
      "Á": 130,
      "Â": 131,
      "Ã": 132,
      "Ä": 133,
      "Å": 134,
      "Æ": 135,
      "Ç": 136,
      "È": 137,
      "É": 138,
      "Ê": 139,
      "Ë": 140,
      "Ì": 141,
      "Í": 142,
      "Î": 143,
      "Ï": 144,
      "Ð": 145,
      "Ñ": 146,
      "Ò": 147,
      "Ó": 148,
      "Ô": 149,
      "Õ": 150,
      "Ö": 151,
      "×": 152,
      "Ø": 153,
      "Ù": 154,
      "Ú": 155,
      "Û": 156,
      "Ü": 157,
      "Ý": 158,
      "Þ": 159,
      "ß": 160,
      "à": 161,
      "á": 162,
      "â": 163,
      "ã": 164,
      "ä": 165,
      "å": 166,
      "æ": 167,
      "ç": 168,
      "è": 169,
      "é": 170,
      "ê": 171,
      "ë": 172,
      "ì": 173,
      "í": 174,
      "î": 175,
      "ï": 176,
      "ð": 177,
      "ñ": 178,
      "ò": 179,
      "ó": 180,
      "ô": 181,
      "õ": 182,
      "ö": 183,
      "÷": 184,
      "ø": 185,
      "ù": 186,
      "ú": 187,
      "û": 188,
      "ü": 189,
      "ý": 190,
      "þ": 191,
      "ÿ": 192,
      "Ā": 193,
      "ā": 194,
      "Ă": 195,
      "ă": 196,
      "Ą": 197,
      "ą": 198,
      "Ć": 199,
      "ć": 200,
      "Ĉ": 201,
      "ĉ": 202,
      "Ċ": 203,
      "ċ": 204,
      "Č": 205,
      "č": 206,
      "Ď": 207,
      "ď": 208,
      "Đ": 209,
      "đ": 210,
      "Ē": 211,
      "ē": 212,
      "Ĕ": 213,
      "ĕ": 214,
      "Ė": 215,
      "ė": 216,
      "Ę": 217,
      "ę": 218,
      "Ě": 219,
      "ě": 220,
      "Ĝ": 221,
      "ĝ": 222,
      "Ğ": 223,
      "ğ": 224,
      "Ġ": 225,
      "ġ": 226,
      "Ģ": 227,
      "ģ": 228,
      "Ĥ": 229,
      "ĥ": 230,
      "Ħ": 231,
      "ħ": 232,
      "Ĩ": 233,
      "ĩ": 234,
      "Ī": 235,
      "ī": 236,
      "Ĭ": 237,
      "ĭ": 238,
      "Į": 239,
      "į": 240,
      "İ": 241,
      "ı": 242,
      "Ĳ": 243,
      "ĳ": 244,
      "Ĵ": 245,
      "ĵ": 246,
      "Ķ": 247,
      "ķ": 248,
      "ĸ": 249,
      "Ĺ": 250,
      "ĺ": 251,
      "Ļ": 252,
      "ļ": 253,
      "Ľ": 254,
      "ľ": 255,
      "Ŀ": 256,
      "ŀ": 257,
      "Ł": 258,
      "ł": 259,
      "Ń": 260,
      "ä¸": 261,
      "ï¼": 262,
      "çļ": 263,
      "çļĦ": 264,
      "ï¼Į": 265,
      "ãĢ": 266,
      "äº": 267,
      "åħ": 268,
      "åı": 269,
      "æľ": 270,
      "ä»": 271,
      "å®": 272,
      "åĪ": 273,
      "ãĢĤ": 274,
      "åĲ": 275,
      "å¤": 276,
      "ç»": 277,
      "çĶ": 278,
      "in": 279,
      "è¿": 280,
      "ä½": 281,
      "ä¹": 282,
      "åĽ": 283,
      "åľ": 284,
      "åĬ": 285,
      "th": 286,
      "æĸ": 287,
      "æĺ": 288,
      "re": 289,
      "å¹": 290,
      "æĪ": 291,
      "ãĢģ": 292,
      "on": 293,
      "an": 294,
      "ti": 295,
      "è®": 296,
      "--": 297,
      "æĹ": 298,
      "ä¼": 299,
      "æĿ": 300,
      "åŃ": 301,
      "è¯": 302,
      "åº": 303,
      "ä¸Ģ": 304,
      "åĨ": 305,
      "å°": 306,
      "æĺ¯": 307,
      "en": 308,
      "åį": 309,
      "åľ¨": 310,
      "er": 311,
      "ä¸Ń": 312,
      "å¯": 313,
      "æĶ": 314,
      "åĴ": 315,
      "ä¸º": 316,
      "æķ": 317,
      "åĴĮ": 318,
      "åĽ½": 319,
      "éĩ": 320,
      "å¼": 321,
      "åĮ": 322,
      "al": 323,
      "âĢ": 324,
      "æĢ": 325,
      "æ°": 326,
      "å±": 327,
      "äºº": 328,
      "è¡": 329,
      "the": 330,
      "æŃ": 331,
      "ed": 332,
      "çĽ": 333,
      "ç§": 334,
      "æī": 335,
      "èĢ": 336,
      "æľī": 337,
      "å·": 338,
      "è§": 339,
      "éĢ": 340,
      "å¾": 341,
      "åĩ": 342,
      "or": 343,
      "æ³": 344,
      "è´": 345,
      "ä¿": 346,
      "at": 347,
      "åŁ": 348,
      "å¹´": 349,
      "es": 350,
      "èĥ": 351,
      "å¤§": 352,
      "æĬ": 353,
      "ä¸į": 354,
      "çİ": 355,
      "of": 356,
      "ä»¥": 357,
      "å½": 358,
      "äºĨ": 359,
      "as": 360,
      "èĩ": 361,
      "å¸": 362,
      "æł": 363,
      "åŃ¦": 364,
      "åıĳ": 365,
      "èµ": 366,
      "éĻ": 367,
      "is": 368,
      "and": 369,
      "¦ģ": 370,
      "----": 371,
      "çĶŁ": 372,
      "æµ": 373,
      "çĲ": 374,
      "tion": 375,
      "å®¶": 376,
      "è¦ģ": 377,
      "æ³ķ": 378,
      "å¯¹": 379,
      "çŃ": 380,
      "ä¸İ": 381,
      "éĿ": 382,
      "äºİ": 383,
      "ro": 384,
      "çī": 385,
      "æŀ": 386,
      "å¿": 387,
      "æİ": 388,
      "è¡Į": 389,
      "æĹ¶": 390,
      "éĹ": 391,
      "é¢": 392,
      "åİ": 393,
      "æĪĲ": 394,
      "çĶ¨": 395,
      "çĲĨ": 396,
      "éĥ": 397,
      "çº": 398,
      "ar": 399,
      "ä¹ĭ": 400,
      "ic": 401,
      "èĥ½": 402,
      "ä¸»": 403,
      "ä¸Ĭ": 404,
      "æĸ¹": 405,
      "ä¼ļ": 406,
      "åĮĸ": 407,
      "ä½ľ": 408,
      "æĮ": 409,
      "ä¸ļ": 410,
      "æ²": 411,
      "å®ŀ": 412,
      "ing": 413,
      "to": 414,
      "åĩº": 415,
      "æĢ§": 416,
      "å®ļ": 417,
      "åľ°": 418,
      "ï¼ī": 419,
      "ï¼Ī": 420,
      "ä½ĵ": 421,
      "åĲİ": 422,
      "è¿Ľ": 423,
      "ä¾": 424,
      "el": 425,
      "éķ": 426,
      "æľ¬": 427,
      "åĪĨ": 428,
      "ä¸ª": 429,
      "æĶ¿": 430,
      "è¾": 431,
      "ç«": 432,
      "åĲĮ": 433,
      "åĳ": 434,
      "ent": 435,
      "åĪ¶": 436,
      "ä¿¡": 437,
      "åĬ¨": 438,
      "åı¯": 439,
      "âĢľ": 440,
      "âĢĿ": 441,
      "ç¨": 442,
      "çİ°": 443,
      "åĬĽ": 444,
      "åħ¶": 445,
      "ç»ı": 446,
      "è¿Ļ": 447,
      "ç¤": 448,
      "ä¹ī": 449,
      "æı": 450,
      "le": 451,
      "äº§": 452,
      "st": 453,
      "èĢĮ": 454,
      "éĺ": 455,
      "åĲĪ": 456,
      "çŃī": 457,
      "åħ³": 458,
      "éķ¿": 459,
      "å»": 460,
      "éĩį": 461,
      "å±ķ": 462,
      "ä»£": 463,
      "ac": 464,
      "æ±": 465,
      "ç³": 466,
      "ç®": 467,
      "æĸ°": 468,
      "é«": 469,
      "æ°ĳ": 470,
      "åī": 471,
      "ec": 472,
      "it": 473,
      "æĿ¥": 474,
      "é«ĺ": 475,
      "ç³»": 476,
      "åħ¨": 477,
      "èĩª": 478,
      "æį": 479,
      "ation": 480,
      "æ´": 481,
      "åºĶ": 482,
      "å¥": 483,
      "åĪ°": 484,
      "æĸĩ": 485,
      "ä¸ĭ": 486,
      "è¿ĩ": 487,
      "æĭ": 488,
      "éģ": 489,
      "åŁİ": 490,
      "æĪĺ": 491,
      "åº¦": 492,
      "å»º": 493,
      "åĪ©": 494,
      "ç¬": 495,
      "æĥ": 496,
      "å·¥": 497,
      "èĤ": 498,
      "æĦ": 499,
      "è°": 500,
      "æķĻ": 501,
      "åĨħ": 502,
      "æ¯": 503,
      "ä¸ī": 504,
      "éĿ¢": 505,
      "æķ°": 506,
      "çŁ": 507,
      "ç½": 508,
      "è½": 509,
      "¦Ĥ": 510,
      "ul": 511,
      "èĢħ": 512,
      "res": 513,
      "åıĳå±ķ": 514,
      "éļ": 515,
      "éĥ¨": 516,
      "co": 517,
      "ç¤¾": 518,
      "æĹ¥": 519,
      "us": 520,
      "å¤ļ": 521,
      "å°Ĩ": 522,
      "åŁº": 523,
      "æīĢ": 524,
      "æıĲ": 525,
      "--------": 526,
      "ç¨ĭ": 527,
      "åĽł": 528,
      "åĵ": 529,
      "çł": 530,
      "è®¾": 531,
      "åŃĲ": 532,
      "si": 533,
      "çĶ°": 534,
      "éĢļ": 535,
      "ç©": 536,
      "åĨĽ": 537,
      "æ¬": 538,
      "æĻ": 539,
      "çķ": 540,
      "å¢": 541,
      "åĢ": 542,
      "ç¡": 543,
      "äºĭ": 544,
      "æľº": 545,
      "ä¹Ł": 546,
      "æĿĥ": 547,
      "è¶": 548,
      "å¹¶": 549,
      "çĽ¸": 550,
      "èµĦ": 551,
      "åīį": 552,
      "åĬł": 553,
      "æŃ¤": 554,
      "æŃ£": 555,
      "å½ĵ": 556,
      "åıĬ": 557,
      "èģ": 558,
      "æ²»": 559,
      "åĬ¡": 560,
      "ç»Ł": 561,
      "å¹³": 562,
      "di": 563,
      "çī©": 564,
      "ç¬¬": 565,
      "æĽ": 566,
      "åħ¬": 567,
      "è·": 568,
      "æ°ı": 569,
      "æį®": 570,
      "ere": 571,
      "ç¤¾ä¼ļ": 572,
      "et": 573,
      "å¼Ģ": 574,
      "ç§į": 575,
      "å°±": 576,
      "éĩı": 577,
      "åĿ": 578,
      "ä¿Ŀ": 579,
      "ç«ĭ": 580,
      "é¡": 581,
      "ly": 582,
      "ä»İ": 583,
      "è¢": 584,
      "è§Ħ": 585,
      "ä¸ŃåĽ½": 586,
      "æĺİ": 587,
      "00": 588,
      "éĹ´": 589,
      "æľĪ": 590,
      "æ¸": 591,
      "wi": 592,
      "åħ¥": 593,
      "for": 594,
      "å¦Ĥ": 595,
      "ur": 596,
      "ä»ĸ": 597,
      "ç»ĵ": 598,
      "æĪĳ": 599,
      "çĤ": 600,
      "å¾Ĺ": 601,
      "å¼ı": 602,
      "çĶ±": 603,
      "åİŁ": 604,
      "un": 605,
      "pro": 606,
      "ve": 607,
      "ç®¡": 608,
      "æľŁ": 609,
      "åįģ": 610,
      "lo": 611,
      "èī": 612,
      "äºĮ": 613,
      "ä½¿": 614,
      "æĪĸ": 615,
      "çľ": 616,
      "è¢«": 617,
      "çĦ": 618,
      "é¢Ĩ": 619,
      "ig": 620,
      "åĲĳ": 621,
      "he": 622,
      "ç¾": 623,
      "åħĥ": 624,
      "åģ": 625,
      "çī¹": 626,
      "with": 627,
      "çĿ": 628,
      "de": 629,
      "æĿ¡": 630,
      "mp": 631,
      "è®¡": 632,
      "çłĶ": 633,
      "15": 634,
      "æŁ": 635,
      "æģ": 636,
      "å¼º": 637,
      "åħļ": 638,
      "æľ¯": 639,
      "ä»¬": 640,
      "æĬĢ": 641,
      "å¤ĸ": 642,
      "**": 643,
      "è§£": 644,
      "åħ±": 645,
      "è¡¨": 646,
      "æŀĦ": 647,
      "ä»»": 648,
      "çĦ¶": 649,
      "æµİ": 650,
      "å±±": 651,
      "æĦı": 652,
      "ï¼ļ": 653,
      "æľĢ": 654,
      "éĽ": 655,
      "å¸Ĥ": 656,
      "å¤©": 657,
      "æĮģ": 658,
      "æº": 659,
      "å°ı": 660,
      "é¢ĺ": 661,
      "ä½į": 662,
      "å½¢": 663,
      "åıĺ": 664,
      "è®º": 665,
      "å¿ĥ": 666,
      "ce": 667,
      "ç±": 668,
      "ch": 669,
      "mo": 670,
      "å§": 671,
      "con": 672,
      "ab": 673,
      "ç»ıæµİ": 674,
      "éľ": 675,
      "è´¨": 676,
      "çĽ®": 677,
      "çĤ¹": 678,
      "åĲį": 679,
      "åĮº": 680,
      "ä½Ĩ": 681,
      "æłĩ": 682,
      "ç´": 683,
      "ç§ĳ": 684,
      "20": 685,
      "ex": 686,
      "ç©¶": 687,
      "æ¶": 688,
      "å®ī": 689,
      "tr": 690,
      "å¯¼": 691,
      "ter": 692,
      "æĶ¹": 693,
      "æ±Ĥ": 694,
      "se": 695,
      "su": 696,
      "ag": 697,
      "åŀ": 698,
      "æ¬¡": 699,
      "éĹ®": 700,
      "ati": 701,
      "me": 702,
      "æ¡": 703,
      "ãĢĬ": 704,
      "ãĢĭ": 705,
      "ç¥": 706,
      "æĽ´": 707,
      "ç»Ħ": 708,
      "èĤ²": 709,
      "éª": 710,
      "po": 711,
      "åħ·": 712,
      "åĲĦ": 713,
      "çłĶç©¶": 714,
      "éĥ½": 715,
      "æĮĩ": 716,
      "æºĲ": 717,
      "å·Ŀ": 718,
      "è®¤": 719,
      "id": 720,
      "æķĪ": 721,
      "æĢĿ": 722,
      "ell": 723,
      "ï¼Ľ": 724,
      "æĹł": 725,
      "ment": 726,
      "ä¼ł": 727,
      "åĪĻ": 728,
      "ä»¶": 729,
      "å²": 730,
      "åĪĽ": 731,
      "ç¼": 732,
      "éģĵ": 733,
      "è¯´": 734,
      "æ°´": 735,
      "èµ·": 736,
      "èĲ": 737,
      "ç»ĩ": 738,
      "ated": 739,
      "åľº": 740,
      "ho": 741,
      "æ´»": 742,
      "æ¨": 743,
      "æ·": 744,
      "ç¡®": 745,
      "é£": 746,
      "are": 747,
      "åĽ½å®¶": 748,
      "ç±»": 749,
      "åĨ³": 750,
      "çĻ": 751,
      "ä¸ĸ": 752,
      "il": 753,
      "ä¸»ä¹ī": 754,
      "ä¸Ģä¸ª": 755,
      "éľĢ": 756,
      "è¿Ľè¡Į": 757,
      "ç§Ģ": 758,
      "ut": 759,
      "æĥħ": 760,
      "èĬ": 761,
      "éĩĳ": 762,
      "æ®": 763,
      "æŃ¦": 764,
      "çŁ¥": 765,
      "æİ¨": 766,
      "è¯Ĩ": 767,
      "ad": 768,
      "å¤Ħ": 769,
      "åı¯ä»¥": 770,
      "ç¦": 771,
      "åŀĭ": 772,
      "äº¤": 773,
      "æŀľ": 774,
      "no": 775,
      "çĸ": 776,
      "é©": 777,
      "æµģ": 778,
      "çĶµ": 779,
      "åĵģ": 780,
      "è°ĥ": 781,
      "be": 782,
      "å¢ŀ": 783,
      "çĿĢ": 784,
      "æĬĢæľ¯": 785,
      "##": 786,
      "éĹ®é¢ĺ": 787,
      "æİ¥": 788,
      "éĢł": 789,
      "ol": 790,
      "ä»·": 791,
      "åı²": 792,
      "ç²": 793,
      "åĳĺ": 794,
      "ä¼ģ": 795,
      "ä¸¤": 796,
      "that": 797,
      "ap": 798,
      "im": 799,
      "æ¨¡": 800,
      "éĶ": 801,
      "éħ": 802,
      "ver": 803,
      "åıĸ": 804,
      "æĬ¤": 805,
      "åŃĺ": 806,
      "ts": 807,
      "çĹ": 808,
      "å¥½": 809,
      "å¸¸": 810,
      "åıį": 811,
      "åĽĽ": 812,
      "am": 813,
      "è½¬": 814,
      "åıĹ": 815,
      "tic": 816,
      "èĮ": 817,
      "ity": 818,
      "èĩ³": 819,
      "äºĽ": 820,
      "æĢģ": 821,
      "um": 822,
      "19": 823,
      "ä¸ľ": 824,
      "è¯ģ": 825,
      "ff": 826,
      "10": 827,
      "è§Ĥ": 828,
      "åºľ": 829,
      "çİĩ": 830,
      "èĻ": 831,
      "è¿Ĳ": 832,
      "ä¼ģä¸ļ": 833,
      "æķĻèĤ²": 834,
      "åĮĹ": 835,
      "ç®¡çĲĨ": 836,
      "è¿ĺ": 837,
      "åĨľ": 838,
      "per": 839,
      "è¿ĳ": 840,
      "çĽ´": 841,
      "äººæ°ĳ": 842,
      "æģ¯": 843,
      "æľį": 844,
      "was": 845,
      "åĬ¿": 846,
      "å£": 847,
      "æĶ¯": 848,
      "æ¯Ķ": 849,
      "èģĶ": 850,
      "ä¹ł": 851,
      "éĻ¢": 852,
      "éĵ": 853,
      "åİĨ": 854,
      "æĶ¶": 855,
      "èĭ": 856,
      "éĿ©": 857,
      "cell": 858,
      "ir": 859,
      "åĩĨ": 860,
      "éĻħ": 861,
      "The": 862,
      "----------------": 863,
      "åĳ½": 864,
      "çİ¯": 865,
      "gen": 866,
      "were": 867,
      "éĹ¨": 868,
      "éĢļè¿ĩ": 869,
      "ç½ĳ": 870,
      "è±": 871,
      "æĢ»": 872,
      "è®°": 873,
      "å·²": 874,
      "å»ºè®¾": 875,
      "å¾·": 876,
      "è¾¾": 877,
      "ä¾Ľ": 878,
      "ä¹¦": 879,
      "å¾ĭ": 880,
      "åº·": 881,
      "ma": 882,
      "by": 883,
      "æĸ½": 884,
      "èĪ": 885,
      "ç¾İ": 886,
      "èº": 887,
      "çĬ": 888,
      "ate": 889,
      "è·¯": 890,
      "åķ": 891,
      "åħĪ": 892,
      "éĽĨ": 893,
      "å·¥ä½ľ": 894,
      "æĥ³": 895,
      "äºĶ": 896,
      "èį": 897,
      "èĩ£": 898,
      "è¥": 899,
      "æķ°æį®": 900,
      "æĹı": 901,
      "å¢ĥ": 902,
      "æĿĳ": 903,
      "so": 904,
      "uc": 905,
      "èº«": 906,
      "åĢ¼": 907,
      "è¥¿": 908,
      "æĶ¾": 909,
      "åĮħ": 910,
      "pres": 911,
      "çº§": 912,
      "å®Į": 913,
      "éĩįè¦ģ": 914,
      "ç³»ç»Ł": 915,
      "we": 916,
      "æĹ¶ä»£": 917,
      "æł¹": 918,
      "çĪ": 919,
      "åįķ": 920,
      "åķĨ": 921,
      "è§ģ": 922,
      "pe": 923,
      "èĹ": 924,
      "çŃĸ": 925,
      "æł·": 926,
      "çķĮ": 927,
      "èī²": 928,
      "å¤į": 929,
      "è®®": 930,
      "é¦": 931,
      "å¿ħ": 932,
      "ted": 933,
      "ç§°": 934,
      "å®Ī": 935,
      "æĸŃ": 936,
      "åĸ": 937,
      "æŃ¥": 938,
      "çģ": 939,
      "åŁŁ": 940,
      "åĪ«": 941,
      "if": 942,
      "é¡¹": 943,
      "åĲī": 944,
      "åı¸": 945,
      "cl": 946,
      "çĽĬ": 947,
      "å¤ĩ": 948,
      "æ·±": 949,
      "ther": 950,
      "ä½ľä¸º": 951,
      "åıĤ": 952,
      "éªĮ": 953,
      "ç´ł": 954,
      "ç¥ŀ": 955,
      "æĸ¹éĿ¢": 956,
      "æī¿": 957,
      "æķ´": 958,
      "åį³": 959,
      "åĬŁ": 960,
      "åĽ¾": 961,
      "ä¿¡æģ¯": 962,
      "ä¸ĵ": 963,
      "è£": 964,
      "æ¡Ī": 965,
      "æľª": 966,
      "ty": 967,
      "å½±": 968,
      "åŃ¦çĶŁ": 969,
      "èģĮ": 970,
      "å¼ķ": 971,
      "æ¸ħ": 972,
      "åĻ": 973,
      "qu": 974,
      "åĪ¶åº¦": 975,
      "è´£": 976,
      "èĮĥ": 977,
      "ç»Ĩ": 978,
      "èĦ": 979,
      "sp": 980,
      "ib": 981,
      "ical": 982,
      "éĤ": 983,
      "é£İ": 984,
      "èŀ": 985,
      "è¶³": 986,
      "æĶ»": 987,
      "ä¸»è¦ģ": 988,
      "ä¼Ĺ": 989,
      "äºī": 990,
      "åħ³ç³»": 991,
      "éĿŀ": 992,
      "è¯¥": 993,
      "ä¾Ŀ": 994,
      "åħ»": 995,
      "å®¹": 996,
      "åħī": 997,
      "ç®Ĺ": 998,
      "çº¿": 999,
      "å®ŀçİ°": 1000,
      "æµĭ": 1001,
      "æĸĩåĮĸ": 1002,
      "å®Ĺ": 1003,
      "åľŁ": 1004,
      "æĪĳä»¬": 1005,
      "æ»": 1006,
      "æł¼": 1007,
      "ne": 1008,
      "èŀį": 1009,
      "ç»§": 1010,
      "èĬĤ": 1011,
      "åĵį": 1012,
      "è¾ĥ": 1013,
      "çĹħ": 1014,
      "ant": 1015,
      "æ£": 1016,
      "vel": 1017,
      "ç¡Ģ": 1018,
      "ç»Ń": 1019,
      "ain": 1020,
      "åŁºç¡Ģ": 1021,
      "æľįåĬ¡": 1022,
      "åĻ¨": 1023,
      "ä¾ĭ": 1024,
      "ä¼ĺ": 1025,
      "äº²": 1026,
      "æİ§": 1027,
      "è¶Ĭ": 1028,
      "æĻ¯": 1029,
      "åħµ": 1030,
      "ç¤º": 1031,
      "èĢĥ": 1032,
      "æīĭ": 1033,
      "dis": 1034,
      "é©¬": 1035,
      "æ²¡": 1036,
      "12": 1037,
      "çº¦": 1038,
      "rom": 1039,
      "æµ·": 1040,
      "æĬĬ": 1041,
      "æīį": 1042,
      "å¸Ī": 1043,
      "å±Ĥ": 1044,
      "èİ": 1045,
      "In": 1046,
      "çŁ³": 1047,
      "ç»Ļ": 1048,
      "åİ»": 1049,
      "ure": 1050,
      "æĪĲä¸º": 1051,
      "è¿ĩç¨ĭ": 1052,
      "wh": 1053,
      "éĴ": 1054,
      "éĻ©": 1055,
      "éļı": 1056,
      "16": 1057,
      "æĺĵ": 1058,
      "æŀģ": 1059,
      "ud": 1060,
      "è§Ĩ": 1061,
      "åıª": 1062,
      "å¹¿": 1063,
      "åıĪ": 1064,
      "ç²¾": 1065,
      "åŃĹ": 1066,
      "å¾ģ": 1067,
      "æĬķ": 1068,
      "éľĢè¦ģ": 1069,
      "te": 1070,
      "åĿļ": 1071,
      "åı£": 1072,
      "åĽŀ": 1073,
      "è¯Ħ": 1074,
      "æĺ¾": 1075,
      "åįı": 1076,
      "è¯¾": 1077,
      "æĪ·": 1078,
      "å¸Ĥåľº": 1079,
      "å°ĳ": 1080,
      "ine": 1081,
      "è¯Ń": 1082,
      "ç»´": 1083,
      "å®ĥ": 1084,
      "ase": 1085,
      "èĥľ": 1086,
      "èĩ´": 1087,
      "æĦŁ": 1088,
      "ç»Ħç»ĩ": 1089,
      "ents": 1090,
      "sis": 1091,
      "æ®µ": 1092,
      "åİĨåı²": 1093,
      "èĥ½åĬĽ": 1094,
      "æł¸": 1095,
      "çķ¥": 1096,
      "æľĿ": 1097,
      "å½±åĵį": 1098,
      "çĽĳ": 1099,
      "vi": 1100,
      "ä¸ĩ": 1101,
      "åįĹ": 1102,
      "çĥ": 1103,
      "çĲĨè®º": 1104,
      "ä¸įåĲĮ": 1105,
      "sion": 1106,
      "æĸ¹æ³ķ": 1107,
      "ä½ĵç³»": 1108,
      "éĩİ": 1109,
      "igh": 1110,
      "çĶŁäº§": 1111,
      "åħ·æľī": 1112,
      "ess": 1113,
      "od": 1114,
      "çľŁ": 1115,
      "æŀĲ": 1116,
      "å±Ģ": 1117,
      "åĪĴ": 1118,
      "ä½¿çĶ¨": 1119,
      "çª": 1120,
      "è§Ħå®ļ": 1121,
      "å§ĭ": 1122,
      "è±¡": 1123,
      "è¨": 1124,
      "åĨį": 1125,
      "æ±Ł": 1126,
      "æĬ¥": 1127,
      "åħ´": 1128,
      "å¯º": 1129,
      "èĲ¥": 1130,
      "å®īåħ¨": 1131,
      "å¸¦": 1132,
      "æĪĳåĽ½": 1133,
      "è¨Ģ": 1134,
      "op": 1135,
      "li": 1136,
      "ay": 1137,
      "çİ¯å¢ĥ": 1138,
      "ä½İ": 1139,
      "up": 1140,
      "ref": 1141,
      "ä»Ĭ": 1142,
      "ä¹ħ": 1143,
      "çľĭ": 1144,
      "from": 1145,
      "ä»¥åıĬ": 1146,
      "åĪĽæĸ°": 1147,
      "è¦ģæ±Ĥ": 1148,
      "æ²³": 1149,
      "comp": 1150,
      "æ°Ķ": 1151,
      "æĶ¿åºľ": 1152,
      "åŁºæľ¬": 1153,
      "14": 1154,
      "çĭ": 1155,
      "pati": 1156,
      "äºĴ": 1157,
      "åĬ©": 1158,
      "ãģ": 1159,
      "å¸ĥ": 1160,
      "éĢī": 1161,
      "ä½ķ": 1162,
      "å¿µ": 1163,
      "æ³ķå¾ĭ": 1164,
      "åĨµ": 1165,
      "ç§ĳåŃ¦": 1166,
      "æĶ¿æ²»": 1167,
      "éħį": 1168,
      "å¤±": 1169,
      "æŃ»": 1170,
      "æ³¨": 1171,
      "åĩ»": 1172,
      "ind": 1173,
      "ä¸°": 1174,
      "æĸĻ": 1175,
      "ri": 1176,
      "æĴ": 1177,
      "ç½®": 1178,
      "åĽ´": 1179,
      "åºı": 1180,
      "éĺ²": 1181,
      "ci": 1182,
      "ç»Ī": 1183,
      "æıĲä¾Ľ": 1184,
      "åĸĦ": 1185,
      "cells": 1186,
      "æ²¡æľī": 1187,
      "éĻĲ": 1188,
      "èİ·": 1189,
      "éĻ¤": 1190,
      "åı¯èĥ½": 1191,
      "ħ§": 1192,
      "è¡Įä¸º": 1193,
      "çĬ¶": 1194,
      "æ¶Ī": 1195,
      "éĩĩ": 1196,
      "ä»ħ": 1197,
      "und": 1198,
      "æĶ¹éĿ©": 1199,
      "å±ŀ": 1200,
      "æĤ": 1201,
      "ä½ľçĶ¨": 1202,
      "æŁ¥": 1203,
      "11": 1204,
      "å¾Ģ": 1205,
      "å¾Ī": 1206,
      "ä¿¡éķ¿": 1207,
      "åĪĨæŀĲ": 1208,
      "æł¡": 1209,
      "ç©º": 1210,
      "ph": 1211,
      "type": 1212,
      "ä¸Ķ": 1213,
      "éĩĮ": 1214,
      "å¿ł": 1215,
      "åįĩ": 1216,
      "ç§¯": 1217,
      "åŃ¦ä¹ł": 1218,
      "è´¹": 1219,
      "âĢĶ": 1220,
      "åħŃ": 1221,
      "æĸ¹å¼ı": 1222,
      "éĢĤ": 1223,
      "gn": 1224,
      "åįİ": 1225,
      "åĲĮæĹ¶": 1226,
      "æĻº": 1227,
      "é¡»": 1228,
      "éĺŁ": 1229,
      "æĭ¬": 1230,
      "sy": 1231,
      "è®©": 1232,
      "æ°¸": 1233,
      "æķĻåŃ¦": 1234,
      "age": 1235,
      "ç»ĵæŀĦ": 1236,
      "è´¢": 1237,
      "å®¡": 1238,
      "ç¤¾ä¼ļä¸»ä¹ī": 1239,
      "å½¢æĪĲ": 1240,
      "å²Ľ": 1241,
      "æĭħ": 1242,
      "pre": 1243,
      "åĽłæŃ¤": 1244,
      "è¿°": 1245,
      "éļ¾": 1246,
      "åħ¬åı¸": 1247,
      "åģļ": 1248,
      "æĢĿæĥ³": 1249,
      "éĢŁ": 1250,
      "å°±æĺ¯": 1251,
      "åĪĹ": 1252,
      "pl": 1253,
      "æ¦Ĥ": 1254,
      "åħ«": 1255,
      "èµĦæºĲ": 1256,
      "Th": 1257,
      "do": 1258,
      "è¯ķ": 1259,
      "å·±": 1260,
      "éĺ¶": 1261,
      "é¢Ħ": 1262,
      "can": 1263,
      "åĳĬ": 1264,
      "äº¬": 1265,
      "13": 1266,
      "åħĭ": 1267,
      "ç»ĩçĶ°": 1268,
      "åŃĺåľ¨": 1269,
      "è·µ": 1270,
      "é¦ĸ": 1271,
      "ä¸ĸçķĮ": 1272,
      "çİ°ä»£": 1273,
      "åĬ³": 1274,
      "tor": 1275,
      "ha": 1276,
      "cy": 1277,
      "åºĶçĶ¨": 1278,
      "åı°": 1279,
      "åŁ¹": 1280,
      "18": 1281,
      "ç»ľ": 1282,
      "åĪĿ": 1283,
      "åĦ": 1284,
      "med": 1285,
      "ç¾¤": 1286,
      "çĻ¾": 1287,
      "éĻį": 1288,
      "è¿ĻäºĽ": 1289,
      "able": 1290,
      "str": 1291,
      "æĿ¾": 1292,
      "ä¸Ģç§į": 1293,
      "æ£Ģ": 1294,
      "ers": 1295,
      "åį«": 1296,
      "em": 1297,
      "æıĲåĩº": 1298,
      "CR": 1299,
      "ç¦»": 1300,
      "åı·": 1301,
      "ä¸¥": 1302,
      "çĽ¸åħ³": 1303,
      "ä¼Ĭ": 1304,
      "å±ħ": 1305,
      "åĮħæĭ¬": 1306,
      "å¼ł": 1307,
      "ç¢": 1308,
      "ations": 1309,
      "è®¤ä¸º": 1310,
      "å£«": 1311,
      "äº§ä¸ļ": 1312,
      "è¯·": 1313,
      "tive": 1314,
      "å®ŀè·µ": 1315,
      "åħ¶ä»ĸ": 1316,
      "åł": 1317,
      "çªģ": 1318,
      "all": 1319,
      "æī§": 1320,
      "æĶ¿çŃĸ": 1321,
      "æıĲé«ĺ": 1322,
      "çŁ¥è¯Ĩ": 1323,
      "èĳ": 1324,
      "æ´»åĬ¨": 1325,
      "å»ºç«ĭ": 1326,
      "ä¹ĭéĹ´": 1327,
      "ä¿ĿæĬ¤": 1328,
      "é»": 1329,
      "åĽ½éĻħ": 1330,
      "val": 1331,
      "è´Ł": 1332,
      "çĪ¶": 1333,
      "èĩªå·±": 1334,
      "è®¾è®¡": 1335,
      "ific": 1336,
      "åĽ¢": 1337,
      "ence": 1338,
      "èµĸ": 1339,
      "par": 1340,
      "åĨħå®¹": 1341,
      "åĶ": 1342,
      "ç§ĢåĲī": 1343,
      "low": 1344,
      "éĥ¨åĪĨ": 1345,
      "ä¹Ŀ": 1346,
      "ä¾¿": 1347,
      "çħ§": 1348,
      "ä¹Ī": 1349,
      "æĪĸèĢħ": 1350,
      "æĥħåĨµ": 1351,
      "log": 1352,
      "ç½ĳç»ľ": 1353,
      "çĽ®æłĩ": 1354,
      "æ¿": 1355,
      "åı¤": 1356,
      "ä»·åĢ¼": 1357,
      "æīĵ": 1358,
      "åıĳçĶŁ": 1359,
      "åĪ¤": 1360,
      "æŃ¦çĶ°": 1361,
      "æłĩåĩĨ": 1362,
      "èĲ½": 1363,
      "çĿ£": 1364,
      "å¹²": 1365,
      "å§Ķ": 1366,
      "est": 1367,
      "æ¯Ľ": 1368,
      "å¯Į": 1369,
      "å¿«": 1370,
      "æł¹æį®": 1371,
      "å®³": 1372,
      "ä¹¡": 1373,
      "ary": 1374,
      "inf": 1375,
      "æĬĹ": 1376,
      "æ°ĳæĹı": 1377,
      "åĳ¨": 1378,
      "tiv": 1379,
      "patients": 1380,
      "åĪĩ": 1381,
      "NA": 1382,
      "åħ¨éĿ¢": 1383,
      "çºª": 1384,
      "åħħ": 1385,
      "ä»¤": 1386,
      "å®ĺ": 1387,
      "è¿ŀ": 1388,
      "çĮ": 1389,
      "éļľ": 1390,
      "ä¸¾": 1391,
      "ear": 1392,
      "ans": 1393,
      "sign": 1394,
      "eren": 1395,
      "èĢģ": 1396,
      "ion": 1397,
      "å¯Ĩ": 1398,
      "æ´¾": 1399,
      "ä¿®": 1400,
      "ç«ł": 1401,
      "æİ§åĪ¶": 1402,
      "çĲĥ": 1403,
      "è¿ľ": 1404,
      "åĮ»": 1405,
      "æ´¥": 1406,
      "éĤ£": 1407,
      "æ»¡": 1408,
      "cont": 1409,
      "å¿ħé¡»": 1410,
      "ä¿ĥ": 1411,
      "åĿĩ": 1412,
      "å¿Ĺ": 1413,
      "not": 1414,
      "inc": 1415,
      "mic": 1416,
      "å¦": 1417,
      "è®¸": 1418,
      "200": 1419,
      "reg": 1420,
      "åĥ": 1421,
      "æĹ¶éĹ´": 1422,
      "ort": 1423,
      "17": 1424,
      "è§Ĵ": 1425,
      "è¡ĮæĶ¿": 1426,
      "åĦ¿": 1427,
      "one": 1428,
      "ous": 1429,
      "æ¯ı": 1430,
      "iz": 1431,
      "å¼Ĥ": 1432,
      "è¯ī": 1433,
      "ä¸ĥ": 1434,
      "é¾": 1435,
      "ç¨İ": 1436,
      "åĩı": 1437,
      "äºķ": 1438,
      "å¤®": 1439,
      "çĸĹ": 1440,
      "çĶ±äºİ": 1441,
      "å¤ĦçĲĨ": 1442,
      "èī¯": 1443,
      "åĬ³åĬ¨": 1444,
      "ten": 1445,
      "è¿Ļç§į": 1446,
      "ich": 1447,
      "éĺµ": 1448,
      "use": 1449,
      "æ¬¾": 1450,
      "å®ŀæĸ½": 1451,
      "å¤´": 1452,
      "äº§åĵģ": 1453,
      "ç¬¬ä¸Ģ": 1454,
      "åı¦": 1455,
      "this": 1456,
      "å¯¹äºİ": 1457,
      "åľ°åĮº": 1458,
      "fo": 1459,
      "ug": 1460,
      "çĶŁæ´»": 1461,
      "èīº": 1462,
      "sho": 1463,
      "çĻ½": 1464,
      "æ¢": 1465,
      "ç§»": 1466,
      "diff": 1467,
      "æİ¨è¿Ľ": 1468,
      "æĳ": 1469,
      "æľºåĪ¶": 1470,
      "æĿĲ": 1471,
      "å¥³": 1472,
      "å·®": 1473,
      "èĥŀ": 1474,
      "åįĥ": 1475,
      "ect": 1476,
      "æİ¢": 1477,
      "åĭ": 1478,
      "è´£ä»»": 1479,
      "gro": 1480,
      "è´¨éĩı": 1481,
      "æİĴ": 1482,
      "ular": 1483,
      "åĪ©çĶ¨": 1484,
      "æĪ¿": 1485,
      "åħ±åĲĮ": 1486,
      "æĮī": 1487,
      "çł´": 1488,
      "æ¿Ģ": 1489,
      "è¾¹": 1490,
      "mon": 1491,
      "å¤ª": 1492,
      "æ³¢": 1493,
      "çĭ¬": 1494,
      "å®¶åº·": 1495,
      "å·ŀ": 1496,
      "aly": 1497,
      "å¤Ł": 1498,
      "anti": 1499,
      "min": 1500,
      "è½½": 1501,
      "åĿļæĮģ": 1502,
      "æĹ¥æľ¬": 1503,
      "äº§çĶŁ": 1504,
      "åĬŀ": 1505,
      "ä¸įæĸŃ": 1506,
      "éĩĳèŀį": 1507,
      "ang": 1508,
      "æĹ©": 1509,
      "é£İéĻ©": 1510,
      "æĸ¯": 1511,
      "é¢ĨåŁŁ": 1512,
      "æĿ¡ä»¶": 1513,
      "red": 1514,
      "å®ŀéĻħ": 1515,
      "ä¸Ńå¤®": 1516,
      "è¡Ģ": 1517,
      "æŁĲ": 1518,
      "èĹ¤": 1519,
      "tre": 1520,
      "äº¦": 1521,
      "æ¼": 1522,
      "çŃĳ": 1523,
      "resp": 1524,
      "å®¤": 1525,
      "ä¼łç»Ł": 1526,
      "è§£åĨ³": 1527,
      "cor": 1528,
      "ved": 1529,
      "ä½Ĳ": 1530,
      "æĿī": 1531,
      "åİĭ": 1532,
      "tions": 1533,
      "gr": 1534,
      "åĢº": 1535,
      "eff": 1536,
      "æĶ¯æĮģ": 1537,
      "stud": 1538,
      "ç½ª": 1539,
      "ç¨³": 1540,
      "åĲ¦": 1541,
      "å®¶èĩ£": 1542,
      "ob": 1543,
      "com": 1544,
      "rel": 1545,
      "ance": 1546,
      "æľºæŀĦ": 1547,
      "æ°´å¹³": 1548,
      "ally": 1549,
      "å¾·å·Ŀ": 1550,
      "çİĭ": 1551,
      "ç»Ĩèĥŀ": 1552,
      "ç¬¬äºĮ": 1553,
      "ll": 1554,
      "ä»ĸä»¬": 1555,
      "ä»į": 1556,
      "æľ¨": 1557,
      "æİ¨åĬ¨": 1558,
      "åģ¥": 1559,
      "æľīæķĪ": 1560,
      "æķħ": 1561,
      "have": 1562,
      "bo": 1563,
      "åĩł": 1564,
      "ç¼ĸ": 1565,
      "æįŁ": 1566,
      "ser": 1567,
      "åĬŁèĥ½": 1568,
      "ç²¾ç¥ŀ": 1569,
      "å¤©æŃ£": 1570,
      "bet": 1571,
      "reas": 1572,
      "expres": 1573,
      "å¼Ģå§ĭ": 1574,
      "èħ": 1575,
      "åıĮ": 1576,
      "Fig": 1577,
      "åĽłä¸º": 1578,
      "æĪĺçķ¥": 1579,
      "å¯Ł": 1580,
      "åĬłå¼º": 1581,
      "åºĶå½ĵ": 1582,
      "æĮ¥": 1583,
      "åĩºçİ°": 1584,
      "æ¨¡å¼ı": 1585,
      "è¶ħ": 1586,
      "fac": 1587,
      "éŁ": 1588,
      "éĢĢ": 1589,
      "form": 1590,
      "å¹ķ": 1591,
      "é¡¹çĽ®": 1592,
      "ä¸įèĥ½": 1593,
      "å¦Ĥæŀľ": 1594,
      "æĸĹ": 1595,
      "äº«": 1596,
      "è®¡ç®Ĺ": 1597,
      "è¿Ļä¸ª": 1598,
      "om": 1599,
      "è´¥": 1600,
      "which": 1601,
      "çº³": 1602,
      "ä¸ĬæĿī": 1603,
      "çĶŁæĢģ": 1604,
      "study": 1605,
      "ä¹±": 1606,
      "ath": 1607,
      "æ²»çĲĨ": 1608,
      "èĻ½": 1609,
      "ä¸´": 1610,
      "hy": 1611,
      "äººåĳĺ": 1612,
      "åħį": 1613,
      "é¢Ĩå¯¼": 1614,
      "åįł": 1615,
      "æł¸å¿ĥ": 1616,
      "èį¯": 1617,
      "æĻ®": 1618,
      "inter": 1619,
      "è®¨": 1620,
      "ari": 1621,
      "å·²ç»ı": 1622,
      "åĲĪåĲĮ": 1623,
      "ä¾µ": 1624,
      "--------------------------------": 1625,
      "ach": 1626,
      "æī©": 1627,
      "analy": 1628,
      "ä¹ĭæĪĺ": 1629,
      "åºĨ": 1630,
      "çī¹èī²": 1631,
      "åį´": 1632,
      "åıĺåĮĸ": 1633,
      "30": 1634,
      "differen": 1635,
      "å½Ĵ": 1636,
      "ç»ĵåĲĪ": 1637,
      "éĢĲ": 1638,
      "æŃ¢": 1639,
      "out": 1640,
      "èĤ¡": 1641,
      "ç»ĵæŀľ": 1642,
      "æļ": 1643,
      "è£ħ": 1644,
      "åİ¿": 1645,
      "åĤ": 1646,
      "ä»ĭ": 1647,
      "éĥ¨éĹ¨": 1648,
      "èĩªçĦ¶": 1649,
      "æī¹": 1650,
      "æīĢæľī": 1651,
      "åħ³äºİ": 1652,
      "å´": 1653,
      "èµ°": 1654,
      "æĹ¶æľŁ": 1655,
      "åĨ³å®ļ": 1656,
      "çķĻ": 1657,
      "åŁİå¸Ĥ": 1658,
      "ä¸ĵä¸ļ": 1659,
      "æĵ": 1660,
      "æĬķèµĦ": 1661,
      "ative": 1662,
      "ia": 1663,
      "æĽ¾": 1664,
      "éĥ¡": 1665,
      "èĪ¬": 1666,
      "ä¿ĥè¿Ľ": 1667,
      "éĩĬ": 1668,
      "æķ°åŃĹ": 1669,
      "éĺ¶æ®µ": 1670,
      "å·¥ç¨ĭ": 1671,
      "å¨": 1672,
      "åĨĻ": 1673,
      "åĨľä¸ļ": 1674,
      "end": 1675,
      "ass": 1676,
      "åıĤä¸İ": 1677,
      "è´§": 1678,
      "åľ°æĸ¹": 1679,
      "ä¸ĢæŃ¥": 1680,
      "æ¯ĽåĪ©": 1681,
      "ç¼º": 1682,
      "spec": 1683,
      "ä»£è¡¨": 1684,
      "ory": 1685,
      "ä½Ĩæĺ¯": 1686,
      "åĲĪä½ľ": 1687,
      "ç»Łä¸Ģ": 1688,
      "ial": 1689,
      "å°½": 1690,
      "åħ¶ä¸Ń": 1691,
      "high": 1692,
      "åĽº": 1693,
      "èĥ½å¤Ł": 1694,
      "å½¢å¼ı": 1695,
      "ä»½": 1696,
      "ä¸Ńåįİ": 1697,
      "show": 1698,
      "fig": 1699,
      "è¯Ŀ": 1700,
      "..": 1701,
      "ä¸Ńå¿ĥ": 1702,
      "soci": 1703,
      "pr": 1704,
      "del": 1705,
      "Â·": 1706,
      "å°¾": 1707,
      "imp": 1708,
      "è¾ĵ": 1709,
      "25": 1710,
      "ä¿Ŀéļľ": 1711,
      "ç»¼": 1712,
      "vid": 1713,
      "sub": 1714,
      "å½ķ": 1715,
      "åİŁåĪĻ": 1716,
      "ç¦Ħ": 1717,
      "çľģ": 1718,
      "cer": 1719,
      "activ": 1720,
      "ç®Ģ": 1721,
      "ç§ĳæĬĢ": 1722,
      "å®¢": 1723,
      "ata": 1724,
      "ç¬¬ä¸ī": 1725,
      "éļĨ": 1726,
      "ven": 1727,
      "ä»ĵ": 1728,
      "åĥı": 1729,
      "è¡¥": 1730,
      "çĽĽ": 1731,
      "mal": 1732,
      "èĳĹ": 1733,
      "æĿĢ": 1734,
      "ç¾İåĽ½": 1735,
      "æĭ©": 1736,
      "ä¸įæĺ¯": 1737,
      "ç»§æī¿": 1738,
      "åŁ¹åħ»": 1739,
      "éĶ®": 1740,
      "21": 1741,
      "amp": 1742,
      "å®ĮåĸĦ": 1743,
      "å·¦": 1744,
      "åħ·ä½ĵ": 1745,
      "èµĦæľ¬": 1746,
      "ä¸ªäºº": 1747,
      "å¼Ł": 1748,
      "ä¸»ä½ĵ": 1749,
      "æĿĤ": 1750,
      "åĮĹæĿ¡": 1751,
      "çĽ´æİ¥": 1752,
      "mat": 1753,
      "éģĹ": 1754,
      "åĲ«": 1755,
      "br": 1756,
      "ä½ı": 1757,
      "åĪ©çĽĬ": 1758,
      "ç´¢": 1759,
      "åıĭ": 1760,
      "ä»ĺ": 1761,
      "å¾®": 1762,
      "der": 1763,
      "çĶ²": 1764,
      "æķĻå¸Ī": 1765,
      "ï¼Ł": 1766,
      "åħ¨åĽ½": 1767,
      "èĭ±": 1768,
      "è¿½": 1769,
      "åıĳçİ°": 1770,
      "æŁĵ": 1771,
      "cent": 1772,
      "è¯¾ç¨ĭ": 1773,
      "æį¢": 1774,
      "ä¸ĢèĪ¬": 1775,
      "ä¸Ģå®ļ": 1776,
      "åħ¸": 1777,
      "ä½Ļ": 1778,
      "ä¸ºäºĨ": 1779,
      "æŀĹ": 1780,
      "åįķä½į": 1781,
      "æĪĺåĽ½": 1782,
      "ä¸ĢäºĽ": 1783,
      "mun": 1784,
      "åħ¨çĲĥ": 1785,
      "å¾¡": 1786,
      "å¢ŀåĬł": 1787,
      "ren": 1788,
      "æĺİç¡®": 1789,
      "olog": 1790,
      "éĩįå¤§": 1791,
      "trans": 1792,
      "é£Ł": 1793,
      "éķĩ": 1794,
      "è½¦": 1795,
      "unc": 1796,
      "å·¥ä¸ļ": 1797,
      "æĦıä¹ī": 1798,
      "éĵ¾": 1799,
      "éĥİ": 1800,
      "éľĢæ±Ĥ": 1801,
      "åĪĳ": 1802,
      "çĥŃ": 1803,
      "å¾ĹåĪ°": 1804,
      "50": 1805,
      "çº²": 1806,
      "éĿ©åĳ½": 1807,
      "é¥": 1808,
      "ween": 1809,
      "prote": 1810,
      "å°ģ": 1811,
      "éĢīæĭ©": 1812,
      "äººç±»": 1813,
      "ç§¯æŀģ": 1814,
      "ins": 1815,
      "æľīåħ³": 1816,
      "ong": 1817,
      "enti": 1818,
      "æ³ķéĻ¢": 1819,
      "éĵ¶": 1820,
      "å¯¼èĩ´": 1821,
      "det": 1822,
      "af": 1823,
      "è®Ń": 1824,
      "å¡": 1825,
      "èĭ¥": 1826,
      "æıĲåįĩ": 1827,
      "è¿Ľä¸ĢæŃ¥": 1828,
      "lu": 1829,
      "level": 1830,
      "used": 1831,
      "åį±": 1832,
      "æī§è¡Į": 1833,
      "between": 1834,
      "000": 1835,
      "è¯Ħä»·": 1836,
      "æı¡": 1837,
      "æĮģç»Ń": 1838,
      "æĹ¢": 1839,
      "ast": 1840,
      "å¹ķåºľ": 1841,
      "ãĢĢ": 1842,
      "çĬ¯": 1843,
      "æĤ£": 1844,
      "èĮĥåĽ´": 1845,
      "äºĪ": 1846,
      "äº¡": 1847,
      "èİ·å¾Ĺ": 1848,
      "é©¬åħĭ": 1849,
      "ç¨ĭåºı": 1850,
      "å°Ħ": 1851,
      "alth": 1852,
      "è¿Ľåħ¥": 1853,
      "é¢Ŀ": 1854,
      "ä»Ģ": 1855,
      "fi": 1856,
      "ç©ºéĹ´": 1857,
      "æ¹": 1858,
      "è¯¸": 1859,
      "ç¦ı": 1860,
      "ub": 1861,
      "å¼ĢæĶ¾": 1862,
      "äººæīį": 1863,
      "ç«¯": 1864,
      "å¼Ģåıĳ": 1865,
      "éĴĪ": 1866,
      "é©¬åħĭæĢĿ": 1867,
      "æµĵ": 1868,
      "ç»¼åĲĪ": 1869,
      "åħ³éĶ®": 1870,
      "ip": 1871,
      "arg": 1872,
      "è¶³åĪ©": 1873,
      "å¤§åŃ¦": 1874,
      "å¦Ĥä½ķ": 1875,
      "group": 1876,
      "24": 1877,
      "è´¸": 1878,
      "è¯»": 1879,
      "other": 1880,
      "ç¡®å®ļ": 1881,
      "ç«ŀ": 1882,
      "les": 1883,
      "ection": 1884,
      "å¢ŀéķ¿": 1885,
      "expression": 1886,
      "dies": 1887,
      "signific": 1888,
      "using": 1889,
      "ep": 1890,
      "å¸ģ": 1891,
      "å°Ķ": 1892,
      "èı": 1893,
      "ç»Ŀ": 1894,
      "èĥĮ": 1895,
      "may": 1896,
      "çİ°ä»£åĮĸ": 1897,
      "respon": 1898,
      "çĮ®": 1899,
      "æľĽ": 1900,
      "has": 1901,
      "ors": 1902,
      "å»¶": 1903,
      "wo": 1904,
      "ä¹Ĳ": 1905,
      "äºĳ": 1906,
      "also": 1907,
      "æķĮ": 1908,
      "çĶŁçī©": 1909,
      "çīĪ": 1910,
      "è¿Ŀ": 1911,
      "int": 1912,
      "ä»Ģä¹Ī": 1913,
      "cur": 1914,
      "æİª": 1915,
      "22": 1916,
      "peri": 1917,
      "ight": 1918,
      "å®ŀéªĮ": 1919,
      "des": 1920,
      "åı³": 1921,
      "ke": 1922,
      "resul": 1923,
      "ä¼°": 1924,
      "cal": 1925,
      "å¼Ģå±ķ": 1926,
      "ç¿": 1927,
      "åıĳæĮ¥": 1928,
      "åĢŁ": 1929,
      "èĹı": 1930,
      "mul": 1931,
      "ç»ıèĲ¥": 1932,
      "åĽłç´ł": 1933,
      "çī¹å¾ģ": 1934,
      "ates": 1935,
      "ä»»åĬ¡": 1936,
      "çļĩ": 1937,
      "è¡¨çİ°": 1938,
      "æ½": 1939,
      "æ¶ī": 1940,
      "ected": 1941,
      "æĿĥåĪ©": 1942,
      "å®£": 1943,
      "man": 1944,
      "car": 1945,
      "ms": 1946,
      "åģ¿": 1947,
      "çĦ¶èĢĮ": 1948,
      "æ¸¸": 1949,
      "ä¸¤ä¸ª": 1950,
      "æīĢä»¥": 1951,
      "åħ¬åħ±": 1952,
      "é²": 1953,
      "åħ±äº§": 1954,
      "dise": 1955,
      "tis": 1956,
      "åĮºåŁŁ": 1957,
      "è®²": 1958,
      "data": 1959,
      "inv": 1960,
      "uld": 1961,
      "èģļ": 1962,
      "è¿Ļæł·": 1963,
      "åħħåĪĨ": 1964,
      "æĸĩæĺİ": 1965,
      "èĬ±": 1966,
      "these": 1967,
      "è§ī": 1968,
      "duc": 1969,
      "å¤§åĲį": 1970,
      "åĨ²": 1971,
      "ä¹ĭåĲİ": 1972,
      "åĪ»": 1973,
      "çĨ": 1974,
      "valu": 1975,
      "æ¤": 1976,
      "CD": 1977,
      "å¾ħ": 1978,
      "åºķ": 1979,
      "åĨľæĿĳ": 1980,
      "è´º": 1981,
      "æİĪ": 1982,
      "cr": 1983,
      "æĻºèĥ½": 1984,
      "åįĬ": 1985,
      "significant": 1986,
      "been": 1987,
      "treat": 1988,
      "ä¹ĭä¸Ģ": 1989,
      "ä¸°èĩ£": 1990,
      "ies": 1991,
      "åıĬåħ¶": 1992,
      "å®«": 1993,
      "çīĩ": 1994,
      "å½ĵæĹ¶": 1995,
      "æĪĲæľ¬": 1996,
      "è§ĦèĮĥ": 1997,
      "å£°": 1998,
      "åĲĦç§į": 1999,
      "çģ«": 2000,
      "ç¨³å®ļ": 2001,
      "å¥ī": 2002,
      "è®¡åĪĴ": 2003,
      "ual": 2004,
      "ugh": 2005,
      "bi": 2006,
      "ç¬¦": 2007,
      "ces": 2008,
      "åĢĻ": 2009,
      "incl": 2010,
      "èµĦäº§": 2011,
      "more": 2012,
      "ä¸įä»ħ": 2013,
      "è¿ĳå¹³": 2014,
      "æĦ¿": 2015,
      "ä¹łè¿ĳå¹³": 2016,
      "stem": 2017,
      "23": 2018,
      "associ": 2019,
      "ech": 2020,
      "æ¼Ķ": 2021,
      "sur": 2022,
      "sed": 2023,
      "gene": 2024,
      "æ¨¡åŀĭ": 2025,
      "åŁºäºİ": 2026,
      "éĶĢ": 2027,
      "æı´": 2028,
      "è¡¡": 2029,
      "è®¤è¯Ĩ": 2030,
      "éĻ·": 2031,
      "è§Ħæ¨¡": 2032,
      "æ¶Īè´¹": 2033,
      "por": 2034,
      "vari": 2035,
      "åıĸå¾Ĺ": 2036,
      "éī": 2037,
      "æĵį": 2038,
      "éī´": 2039,
      "æĻ´": 2040,
      "æĲ": 2041,
      "éĻĦ": 2042,
      "éŁ³": 2043,
      "éĿĴ": 2044,
      "ä»İèĢĮ": 2045,
      "è½»": 2046,
      "ç£": 2047,
      "å®ª": 2048,
      "contro": 2049,
      "çĶº": 2050,
      "è¿Ļä¸Ģ": 2051,
      "æĦıè¯Ĩ": 2052,
      "çĽ®çļĦ": 2053,
      "åĽ°": 2054,
      "æħ": 2055,
      "æ¦Ĥå¿µ": 2056,
      "é¼": 2057,
      "å®ĮæĪĲ": 2058,
      "åłĤ": 2059,
      "å¹³åı°": 2060,
      "èģĮä¸ļ": 2061,
      "çī¹åĪ«": 2062,
      "åĲ¸": 2063,
      "ä¸ĸçºª": 2064,
      "lic": 2065,
      "stu": 2066,
      "sti": 2067,
      "æĺ¯åĲ¦": 2068,
      "å°ĨåĨĽ": 2069,
      "ç¨ĭåº¦": 2070,
      "ects": 2071,
      "40": 2072,
      "func": 2073,
      "å°ļ": 2074,
      "cul": 2075,
      "å«": 2076,
      "ility": 2077,
      "éĩįçĤ¹": 2078,
      "than": 2079,
      "ä¼Ł": 2080,
      "åŃ¦æł¡": 2081,
      "ç±³": 2082,
      "åºĵ": 2083,
      "è§ĦåĪĴ": 2084,
      "åľ°ä½į": 2085,
      "æŀĦå»º": 2086,
      "ting": 2087,
      "ç«ŀäºī": 2088,
      "åħ¼": 2089,
      "ç¢³": 2090,
      "è£ģ": 2091,
      "éĢģ": 2092,
      "çĽ®åīį": 2093,
      "ä¼¼": 2094,
      "velop": 2095,
      "ack": 2096,
      "éĩĩçĶ¨": 2097,
      "åľŁåľ°": 2098,
      "present": 2099,
      "æĴŃ": 2100,
      "çĶļ": 2101,
      "æľºåħ³": 2102,
      "its": 2103,
      "åĪĽéĢł": 2104,
      "âĪ": 2105,
      "æĿĲæĸĻ": 2106,
      "éĻĨ": 2107,
      "ä»¥æĿ¥": 2108,
      "éĿł": 2109,
      "ating": 2110,
      "åħ±äº§åħļ": 2111,
      "cep": 2112,
      "bas": 2113,
      "èĨ": 2114,
      "å±ĭ": 2115,
      "CA": 2116,
      "sup": 2117,
      "tional": 2118,
      "æ¯į": 2119,
      "å²ģ": 2120,
      "treatment": 2121,
      "äºĮåįģ": 2122,
      "æ¸©": 2123,
      "æľĢç»Ī": 2124,
      "å¾Ħ": 2125,
      "æİĮ": 2126,
      "åĤ¨": 2127,
      "åºŃ": 2128,
      "our": 2129,
      "æĮĩå¯¼": 2130,
      "æ¯Ķè¾ĥ": 2131,
      "over": 2132,
      "è¿ĲåĬ¨": 2133,
      "å°¼": 2134,
      "RNA": 2135,
      "158": 2136,
      "çĸ«": 2137,
      "äºļ": 2138,
      "ä½ĵçİ°": 2139,
      "çĲĨè§£": 2140,
      "æ°ĳä¸»": 2141,
      "éļıçĿĢ": 2142,
      "é¾Ļ": 2143,
      "åĽŃ": 2144,
      "æīĺ": 2145,
      "åĪ¶éĢł": 2146,
      "ä¼¤": 2147,
      "ard": 2148,
      "path": 2149,
      "è°·": 2150,
      "å®ĪæĬ¤": 2151,
      "ris": 2152,
      "åĪ¶å®ļ": 2153,
      "çĽŁ": 2154,
      "æĮĩåĩº": 2155,
      "è´¸æĺĵ": 2156,
      "met": 2157,
      "âĳ": 2158,
      "wor": 2159,
      "çĶ³": 2160,
      "èĥ½æºĲ": 2161,
      "ple": 2162,
      "ç»ıéªĮ": 2163,
      "è¾¾åĪ°": 2164,
      "åį°": 2165,
      "ä½ĵåĪ¶": 2166,
      "è®¼": 2167,
      "è´«": 2168,
      "æĸ¹åĲĳ": 2169,
      "æĺ¥": 2170,
      "éĺ³": 2171,
      "60": 2172,
      "develop": 2173,
      "å¨ģ": 2174,
      "clin": 2175,
      "ä»¥ä¸Ĭ": 2176,
      "157": 2177,
      "ç¾½": 2178,
      "çĪ±": 2179,
      "æĬ¥åĳĬ": 2180,
      "immun": 2181,
      "This": 2182,
      "ç´§": 2183,
      "æĬµ": 2184,
      "èĻĳ": 2185,
      "å§Ķåĳĺ": 2186,
      "é¡º": 2187,
      "æ±ł": 2188,
      "çº¢": 2189,
      "æ±ī": 2190,
      "å¤«": 2191,
      "æĹ§": 2192,
      "çĶ»": 2193,
      "ç»ĩçĶ°ä¿¡éķ¿": 2194,
      "è¯īè®¼": 2195,
      "mi": 2196,
      "é»ĳ": 2197,
      "è¡Įä¸ļ": 2198,
      "èĻİ": 2199,
      "vir": 2200,
      "éļĲ": 2201,
      "éĢłæĪĲ": 2202,
      "analysis": 2203,
      "ä»¥ä¸ĭ": 2204,
      "éķ¿æľŁ": 2205,
      "###": 2206,
      "è¾ī": 2207,
      "è´Ń": 2208,
      "èĴ": 2209,
      "ca": 2210,
      "ree": 2211,
      "äº¤æĺĵ": 2212,
      "çĽĳçĿ£": 2213,
      "æİªæĸ½": 2214,
      "æĮīçħ§": 2215,
      "æł¹æľ¬": 2216,
      "We": 2217,
      "ä¼ĺåĬ¿": 2218,
      "å¹¸": 2219,
      "åĬ¿åĬĽ": 2220,
      "éģŃ": 2221,
      "è´¯": 2222,
      "èĩªçĶ±": 2223,
      "model": 2224,
      "ra": 2225,
      "å®½": 2226,
      "æ³ķæ²»": 2227,
      "ses": 2228,
      "é©¬åħĭæĢĿä¸»ä¹ī": 2229,
      "èĹ©": 2230,
      "ç»¿": 2231,
      "åģ¥åº·": 2232,
      "100": 2233,
      "æ²»çĸĹ": 2234,
      "çī¹çĤ¹": 2235,
      "åĽ½åĨħ": 2236,
      "çĻ»": 2237,
      "æĢ¥": 2238,
      "è´Łè´£": 2239,
      "æ³½": 2240,
      "åĬĽéĩı": 2241,
      "increas": 2242,
      "æĽ´åĬł": 2243,
      "éĵģ": 2244,
      "å¼ºè°ĥ": 2245,
      "éĶĻ": 2246,
      "ä¾§": 2247,
      "ew": 2248,
      "çŁŃ": 2249,
      "æĶ¶åħ¥": 2250,
      "è¯į": 2251,
      "studies": 2252,
      "æĹłæ³ķ": 2253,
      "Â±": 2254,
      "æ¯Ĵ": 2255,
      "ãĤ": 2256,
      "å¤©æĸĩ": 2257,
      "åİŁåĽł": 2258,
      "blo": 2259,
      "çı": 2260,
      "çĽ¸å¯¹": 2261,
      "æ¸Ĳ": 2262,
      "éĢĶ": 2263,
      "éĺ¿": 2264,
      "è®¾å¤ĩ": 2265,
      "äººä»¬": 2266,
      "çģŃ": 2267,
      "æĿŁ": 2268,
      "factor": 2269,
      "disease": 2270,
      "ä¾ĭå¦Ĥ": 2271,
      "ely": 2272,
      "but": 2273,
      "control": 2274,
      "åĬ±": 2275,
      "äº¬éĥ½": 2276,
      "èĽ": 2277,
      "28": 2278,
      "æŀ¶": 2279,
      "æ±¡": 2280,
      "çĭ¬ç«ĭ": 2281,
      "æĸ¹æ¡Ī": 2282,
      "ä¸Ģæĸ¹éĿ¢": 2283,
      "27": 2284,
      "æĤ£èĢħ": 2285,
      "their": 2286,
      "æĭ¥": 2287,
      "å¥ĭ": 2288,
      "sec": 2289,
      "æĭī": 2290,
      "ç¹": 2291,
      "æķ£": 2292,
      "åĿĹ": 2293,
      "æ¤į": 2294,
      "hib": 2295,
      "ments": 2296,
      "èĻ½çĦ¶": 2297,
      "èĦ±": 2298,
      "è¡¨ç¤º": 2299,
      "fol": 2300,
      "éº": 2301,
      "ç¾¤ä¼Ĺ": 2302,
      "çĹĩ": 2303,
      "å®ĩ": 2304,
      "è¯¯": 2305,
      "æĪĲæŀľ": 2306,
      "èĢĮä¸Ķ": 2307,
      "åĨħéĥ¨": 2308,
      "éĵ¶è¡Į": 2309,
      "lec": 2310,
      "å¾ª": 2311,
      "ç¹ģ": 2312,
      "æ³Ľ": 2313,
      "å¢ŀå¼º": 2314,
      "åŃ¦ç§ĳ": 2315,
      "æĵįä½ľ": 2316,
      "æ°¸ç¦Ħ": 2317,
      "åĲĪçĲĨ": 2318,
      "æ¬§": 2319,
      "éģ¿": 2320,
      "åıªæľī": 2321,
      "çİĦ": 2322,
      "è°ĭ": 2323,
      "cess": 2324,
      "wn": 2325,
      "é¢ĳ": 2326,
      "çĬ¶æĢģ": 2327,
      "ases": 2328,
      "tum": 2329,
      "ulation": 2330,
      "ç§ģ": 2331,
      "èģĶç½ĳ": 2332,
      "after": 2333,
      "act": 2334,
      "ä¼Łå¤§": 2335,
      "æŀĦæĪĲ": 2336,
      "å¯¹è±¡": 2337,
      "è§£éĩĬ": 2338,
      "å³": 2339,
      "ç«Ļ": 2340,
      "è´ŀ": 2341,
      "under": 2342,
      "cri": 2343,
      "å©": 2344,
      "26": 2345,
      "ber": 2346,
      "health": 2347,
      "90": 2348,
      "dec": 2349,
      "è°Ī": 2350,
      "ä¿ĿéĻ©": 2351,
      "å»ºçŃĳ": 2352,
      "ist": 2353,
      "ä¿Ŀè¯ģ": 2354,
      "ä»»ä½ķ": 2355,
      "CT": 2356,
      "äº¿": 2357,
      "åĿĤ": 2358,
      "åıĹåĪ°": 2359,
      "æľªæĿ¥": 2360,
      "å½¹": 2361,
      "ç¯": 2362,
      "äºĭä»¶": 2363,
      "å®Įåħ¨": 2364,
      "å±ŀäºİ": 2365,
      "ays": 2366,
      "ç§°ä¸º": 2367,
      "au": 2368,
      "è¯Ħä¼°": 2369,
      "èµ·æĿ¥": 2370,
      "includ": 2371,
      "protein": 2372,
      "éĢĥ": 2373,
      "ä¸¸": 2374,
      "å¼ĺ": 2375,
      "è½¯": 2376,
      "æĺĮ": 2377,
      "åı¸æ³ķ": 2378,
      "uring": 2379,
      "ä¸ļåĬ¡": 2380,
      "cancer": 2381,
      "é¸": 2382,
      "ä¸¥éĩį": 2383,
      "meth": 2384,
      "ç»Ĩå·Ŀ": 2385,
      "çĶµåŃĲ": 2386,
      "system": 2387,
      "è¡ĮåĬ¨": 2388,
      "æ´²": 2389,
      "ç»§ç»Ń": 2390,
      "è¾ĳ": 2391,
      "èīºæľ¯": 2392,
      "è®¸å¤ļ": 2393,
      "èĭı": 2394,
      "80": 2395,
      "requ": 2396,
      "tes": 2397,
      "æĭŁ": 2398,
      "æŃ¤å¤ĸ": 2399,
      "fic": 2400,
      "æŃ¦å°Ĩ": 2401,
      "èĩªèº«": 2402,
      "æĺŁ": 2403,
      "å¤įæĿĤ": 2404,
      "ä¼Ĳ": 2405,
      "å±¥": 2406,
      "åĨĪ": 2407,
      "ared": 2408,
      "èĢĥèĻĳ": 2409,
      "ç»ĦæĪĲ": 2410,
      "åºĶè¯¥": 2411,
      "è¿ĺæĺ¯": 2412,
      "èģĶåĲĪ": 2413,
      "ä¸ŃåĽ½åħ±äº§åħļ": 2414,
      "çī©è´¨": 2415,
      "åºĦ": 2416,
      "av": 2417,
      "ä¼ļè®®": 2418,
      "os": 2419,
      "å¼±": 2420,
      "clinical": 2421,
      "levels": 2422,
      "çĬ¯ç½ª": 2423,
      "æľĢå¤§": 2424,
      "ä»Ĭå·Ŀ": 2425,
      "çĽ¸äºĴ": 2426,
      "å®¶çĿ£": 2427,
      "çİ°å®ŀ": 2428,
      "æĪĲåĬŁ": 2429,
      "tho": 2430,
      "dep": 2431,
      "time": 2432,
      "çº·": 2433,
      "âĪĴ": 2434,
      "oc": 2435,
      "æķĳ": 2436,
      "è´§å¸ģ": 2437,
      "éĢĤçĶ¨": 2438,
      "äºĭå®ŀ": 2439,
      "uced": 2440,
      "èĻļ": 2441,
      "è¶ĭ": 2442,
      "å±±åŁİ": 2443,
      "col": 2444,
      "æľĢåĲİ": 2445,
      "äºĭä¸ļ": 2446,
      "genes": 2447,
      "åģĩ": 2448,
      "è¿ĲçĶ¨": 2449,
      "éģĩ": 2450,
      "associated": 2451,
      "nor": 2452,
      "å·¨": 2453,
      "æĶ¹åıĺ": 2454,
      "éĺ»": 2455,
      "è¯Ńè¨Ģ": 2456,
      "earch": 2457,
      "vely": 2458,
      "åīĤ": 2459,
      "éģĤ": 2460,
      "ç»´æĬ¤": 2461,
      "ered": 2462,
      "rec": 2463,
      "lin": 2464,
      "è®¢": 2465,
      "such": 2466,
      "æīįèĥ½": 2467,
      "ures": 2468,
      "æ±ĩ": 2469,
      "ç»ĥ": 2470,
      "ä¹īåĬ¡": 2471,
      "æĭħä»»": 2472,
      "çĶļèĩ³": 2473,
      "29": 2474,
      "meas": 2475,
      "åĲ¯": 2476,
      "è¶³åĪ©ä¹ī": 2477,
      "èĦĳ": 2478,
      "å¤º": 2479,
      "ç½Ĺ": 2480,
      "çĽ¾": 2481,
      "å§Ķåĳĺä¼ļ": 2482,
      "æİ¢ç´¢": 2483,
      "è®¾æĸ½": 2484,
      "å²Ľæ´¥": 2485,
      "è¿«": 2486,
      "éĩĩåıĸ": 2487,
      "æī¿æĭħ": 2488,
      "è°±": 2489,
      "æĪĲç«ĭ": 2490,
      "æĪĺåĽ½æĹ¶ä»£": 2491,
      "åĬłå¿«": 2492,
      "è°ĥæķ´": 2493,
      "ä½ľåĩº": 2494,
      "åħĦ": 2495,
      "é²ľ": 2496,
      "å¾·å·Ŀå®¶åº·": 2497,
      "éĴĪå¯¹": 2498,
      "è¿Ĳè¡Į": 2499,
      "tal": 2500,
      "ail": 2501,
      "æĺł": 2502,
      "è´¢äº§": 2503,
      "é¦Ĩ": 2504,
      "çĶ¨äºİ": 2505,
      "å°Ĭ": 2506,
      "gener": 2507,
      "æ¥": 2508,
      "é¢Ĩåľ°": 2509,
      "Ho": 2510,
      "æ··": 2511,
      "pop": 2512,
      "GF": 2513,
      "åĩıå°ĳ": 2514,
      "è®¿": 2515,
      "èģĶç³»": 2516,
      "éĹ»": 2517,
      "å¤§éĩı": 2518,
      "éĻįä½İ": 2519,
      "chang": 2520,
      "æ·±åħ¥": 2521,
      "è¿Ļæĺ¯": 2522,
      "ä¿ĿæĮģ": 2523,
      "èŀįåĲĪ": 2524,
      "çŃĶ": 2525,
      "acter": 2526,
      "åĨľæ°ĳ": 2527,
      "å¸®": 2528,
      "identi": 2529,
      "SC": 2530,
      "é»Ħ": 2531,
      "æ±ŁæĪ·": 2532,
      "çĲĨå¿µ": 2533,
      "ge": 2534,
      "hum": 2535,
      "two": 2536,
      "æĺİæĺ¾": 2537,
      "both": 2538,
      "156": 2539,
      "åºĨéķ¿": 2540,
      "æĽ²": 2541,
      "ä¹¡æĿĳ": 2542,
      "çĶ·": 2543,
      "æľŁéĹ´": 2544,
      "åįļ": 2545,
      "èįī": 2546,
      "æĪĺäºī": 2547,
      "åĨ³çŃĸ": 2548,
      "èµĦéĩĳ": 2549,
      "çĸ¾": 2550,
      "æİ¥åıĹ": 2551,
      "ç±»åŀĭ": 2552,
      "risk": 2553,
      "æľ«": 2554,
      "ties": 2555,
      "work": 2556,
      "çĸĳ": 2557,
      "partic": 2558,
      "medi": 2559,
      "é¦ĸåħĪ": 2560,
      "å´İ": 2561,
      "è¯Ĺ": 2562,
      "ä¸įåı¯": 2563,
      "åĲİæĿ¥": 2564,
      "æİĮæı¡": 2565,
      "results": 2566,
      "å½ĵäºĭ": 2567,
      "çŁĽ": 2568,
      "ox": 2569,
      "æłĳ": 2570,
      "35": 2571,
      "specific": 2572,
      "æķ´ä½ĵ": 2573,
      "éĽĨä¸Ń": 2574,
      "è°ĵ": 2575,
      "199": 2576,
      "ability": 2577,
      "åŁºåĽł": 2578,
      "ish": 2579,
      "æīĭæ®µ": 2580,
      "appro": 2581,
      "ized": 2582,
      "è±«": 2583,
      "tial": 2584,
      "å§ĵ": 2585,
      "ä¾Ŀæį®": 2586,
      "sing": 2587,
      "æ¶²": 2588,
      "ak": 2589,
      "éħ¸": 2590,
      "ble": 2591,
      "èĢĮæĺ¯": 2592,
      "fir": 2593,
      "æ¡Īä»¶": 2594,
      "esti": 2595,
      "æĿ¿": 2596,
      "ï¼İ": 2597,
      "æķĪçİĩ": 2598,
      "åıįåºĶ": 2599,
      "åŃĻ": 2600,
      "therap": 2601,
      "å½ĵäºĭäºº": 2602,
      "ä½ł": 2603,
      "num": 2604,
      "wever": 2605,
      "æŁ´": 2606,
      "ding": 2607,
      "ä¹İ": 2608,
      "çľ¼": 2609,
      "éĿŀå¸¸": 2610,
      "inhib": 2611,
      "åķĨä¸ļ": 2612,
      "ä¹¦è®°": 2613,
      "çĺ": 2614,
      "will": 2615,
      "ture": 2616,
      "çĽĳç®¡": 2617,
      "å½»": 2618,
      "non": 2619,
      "çŁĽçĽ¾": 2620,
      "çłģ": 2621,
      "æµħ": 2622,
      "ç½ļ": 2623,
      "éĨ": 2624,
      "å¹¶ä¸Ķ": 2625,
      "SA": 2626,
      "ä¼ĺåĮĸ": 2627,
      "ss": 2628,
      "mice": 2629,
      "çİ°è±¡": 2630,
      "æĿĥåĬĽ": 2631,
      "çģµ": 2632,
      "èĪ¹": 2633,
      "èº«ä»½": 2634,
      "tern": 2635,
      "äººæ°ĳæ³ķéĻ¢": 2636,
      "ark": 2637,
      "å¹¿æ³Ľ": 2638,
      "æĴ¤": 2639,
      "70": 2640,
      "II": 2641,
      "è¾ħ": 2642,
      "åĵ²": 2643,
      "äºĨè§£": 2644,
      "contr": 2645,
      "æĦıè§ģ": 2646,
      "å²©": 2647,
      "åı¶": 2648,
      "åºĬ": 2649,
      "æĮ¯": 2650,
      "é£ŀ": 2651,
      "ä¾Ŀæ³ķ": 2652,
      "ä¹°": 2653,
      "ons": 2654,
      "äººåı£": 2655,
      "è´·": 2656,
      "æŃ£ç¡®": 2657,
      "æ£®": 2658,
      "ç¤¼": 2659,
      "åĲ¬": 2660,
      "ç¥ĸ": 2661,
      "è¯·æ±Ĥ": 2662,
      "sh": 2663,
      "ants": 2664,
      "posi": 2665,
      "ä¸įå¾Ĺ": 2666,
      "åĪĨéħį": 2667,
      "å°¤": 2668,
      "è§ĦåĪĻ": 2669,
      "åįıè°ĥ": 2670,
      "åģı": 2671,
      "ä»·æł¼": 2672,
      "è·¨": 2673,
      "IL": 2674,
      "ç³»åĪĹ": 2675,
      "gg": 2676,
      "samp": 2677,
      "ile": 2678,
      "tical": 2679,
      "æıı": 2680,
      "è¦ģç´ł": 2681,
      "åĲĽ": 2682,
      "è¿Ķ": 2683,
      "into": 2684,
      "ç¬¦åĲĪ": 2685,
      "ç½²": 2686,
      "åįıè®®": 2687,
      "åĨĽäºĭ": 2688,
      "inding": 2689,
      "æ²¿": 2690,
      "å¹¼": 2691,
      "åĪĨåĪ«": 2692,
      "å¥¥": 2693,
      "æĢĿç»´": 2694,
      "St": 2695,
      "ater": 2696,
      "ç¬Ķ": 2697,
      "è°ĥæŁ¥": 2698,
      "year": 2699,
      "follow": 2700,
      "å¼ķå¯¼": 2701,
      "æ°§": 2702,
      "åıĮæĸ¹": 2703,
      "depend": 2704,
      "åģľ": 2705,
      "è´¢æĶ¿": 2706,
      "è§Ħå¾ĭ": 2707,
      "éģĵè·¯": 2708,
      "ond": 2709,
      "èĪª": 2710,
      "å¸¦æĿ¥": 2711,
      "ç»ıè¿ĩ": 2712,
      "çĪ¶äº²": 2713,
      "during": 2714,
      "çĶ¨æĪ·": 2715,
      "ç«¥": 2716,
      "æ¦Ĥè¦ģ": 2717,
      "éĻĲåĪ¶": 2718,
      "çĶ³è¯·": 2719,
      "obser": 2720,
      "åįģäºĮ": 2721,
      "test": 2722,
      "indic": 2723,
      "è¿ģ": 2724,
      "éĢĤåºĶ": 2725,
      "found": 2726,
      "activity": 2727,
      "å¿ĥçĲĨ": 2728,
      "sequ": 2729,
      "æŃ¤æĹ¶": 2730,
      "åĸľ": 2731,
      "DNA": 2732,
      "ev": 2733,
      "åħ³æ³¨": 2734,
      "æī©å¤§": 2735,
      "èĦī": 2736,
      "sen": 2737,
      "dr": 2738,
      "æ®Ĭ": 2739,
      "è¯ģæĺİ": 2740,
      "ä»¥åĲİ": 2741,
      "ç»¿èī²": 2742,
      "æĮĳ": 2743,
      "ite": 2744,
      "å¸Ŀ": 2745,
      "çĵ": 2746,
      "different": 2747,
      "well": 2748,
      "åľ¨äºİ": 2749,
      "æĹĹ": 2750,
      "kno": 2751,
      "éĢļå¸¸": 2752,
      "ä¸Ńåįİæ°ĳæĹı": 2753,
      "amin": 2754,
      "èµĲ": 2755,
      "åĲĮå¹´": 2756,
      "micro": 2757,
      "çĽĸ": 2758,
      "experi": 2759,
      "å¸Į": 2760,
      "atic": 2761,
      "è¡¨è¾¾": 2762,
      "âĢ¦": 2763,
      "ue": 2764,
      "ä¿¡çİĦ": 2765,
      "å¼ºåĮĸ": 2766,
      "æī¾": 2767,
      "æ¾": 2768,
      "è·Ŀ": 2769,
      "formed": 2770,
      "formation": 2771,
      "åħ³ä¸ľ": 2772,
      "ä¸īå¥½": 2773,
      "tissu": 2774,
      "äºĴèģĶç½ĳ": 2775,
      "Ch": 2776,
      "é¼ĵ": 2777,
      "æ´ĭ": 2778,
      "function": 2779,
      "ign": 2780,
      "uro": 2781,
      "æľĢé«ĺ": 2782,
      "èĽĭ": 2783,
      "33": 2784,
      "åĮ»çĸĹ": 2785,
      "ological": 2786,
      "AP": 2787,
      "å±¥è¡Į": 2788,
      "è´µ": 2789,
      "ild": 2790,
      "æķĪæŀľ": 2791,
      "ç¦ģ": 2792,
      "æ»¡è¶³": 2793,
      "åĶ®": 2794,
      "æ¸¯": 2795,
      "ained": 2796,
      "An": 2797,
      "each": 2798,
      "åª": 2799,
      "è®°è½½": 2800,
      "å½ĵåīį": 2801,
      "ç»Łæ²»": 2802,
      "ill": 2803,
      "è¯¦": 2804,
      "åıįæĺł": 2805,
      "è§ĤçĤ¹": 2806,
      "åį·": 2807,
      "åķĨåĵģ": 2808,
      "95": 2809,
      "æĿİ": 2810,
      "çŃ¹": 2811,
      "åĢºåĬ¡": 2812,
      "æ¶īåıĬ": 2813,
      "most": 2814,
      "å¤§åĨħ": 2815,
      "AT": 2816,
      "ric": 2817,
      "å·¥åħ·": 2818,
      "åĵ²åŃ¦": 2819,
      "ç¼©": 2820,
      "sugg": 2821,
      "ç§ĭ": 2822,
      "æ³ķè§Ħ": 2823,
      "è¯ģæį®": 2824,
      "normal": 2825,
      "å¤§åıĭ": 2826,
      "åı¬": 2827,
      "æ®¿": 2828,
      "ç«¹": 2829,
      "é¹": 2830,
      "struc": 2831,
      "åħĥå¹´": 2832,
      "æķ´ä¸ª": 2833,
      "ced": 2834,
      "inal": 2835,
      "åıĤåĬł": 2836,
      "éª¨": 2837,
      "çĥĪ": 2838,
      "éĢı": 2839,
      "æ¡¥": 2840,
      "45": 2841,
      "Co": 2842,
      "åİ»ä¸ĸ": 2843,
      "è¢Ń": 2844,
      "increased": 2845,
      "cle": 2846,
      "æĸĩä»¶": 2847,
      "é¡¾": 2848,
      "éģį": 2849,
      "ç«ĭæ³ķ": 2850,
      "å¿ħè¦ģ": 2851,
      "comple": 2852,
      "æĶ»åĩ»": 2853,
      "vers": 2854,
      "agno": 2855,
      "syn": 2856,
      "è¡¨æĺİ": 2857,
      "yl": 2858,
      "ust": 2859,
      "related": 2860,
      "çŃ¾": 2861,
      "æ±¡æŁĵ": 2862,
      "åĶ¯": 2863,
      "had": 2864,
      "ä¸įè¿ĩ": 2865,
      "å½¢æĢģ": 2866,
      "ç»į": 2867,
      "ç»©": 2868,
      "èŃ": 2869,
      "ãĥ": 2870,
      "è°¦": 2871,
      "èĲ½å®ŀ": 2872,
      "è´¡": 2873,
      "åĪĨåŃĲ": 2874,
      "éģĵå¾·": 2875,
      "human": 2876,
      "ese": 2877,
      "who": 2878,
      "åįģåħ«": 2879,
      "å¹´ä»£": 2880,
      "å®ĥä»¬": 2881,
      "èĤ¥": 2882,
      "éĢ»": 2883,
      "éĽĦ": 2884,
      "æ³¨æĦı": 2885,
      "æ½ľ": 2886,
      "ys": 2887,
      "tumor": 2888,
      "æĽ¿": 2889,
      "05": 2890,
      "37": 2891,
      "thro": 2892,
      "åĮĸåŃ¦": 2893,
      "mut": 2894,
      "pho": 2895,
      "äº¤éĢļ": 2896,
      "åĳĪ": 2897,
      "36": 2898,
      "åºŁ": 2899,
      "é«ĺåº¦": 2900,
      "çĨŁ": 2901,
      "ä¸īå¹´": 2902,
      "åī§": 2903,
      "èµĶ": 2904,
      "ä¸¹": 2905,
      "dition": 2906,
      "æ´Ľ": 2907,
      "äºİæĺ¯": 2908,
      "ä»ķ": 2909,
      "è¯´æĺİ": 2910,
      "è¿ĽæĶ»": 2911,
      "view": 2912,
      "mis": 2913,
      "CI": 2914,
      "aining": 2915,
      "æĢ§è´¨": 2916,
      "based": 2917,
      "æģ¶": 2918,
      "cyto": 2919,
      "lif": 2920,
      "éĢ»è¾ĳ": 2921,
      "åĩ½": 2922,
      "ä¸°å¯Į": 2923,
      "æĸĭ": 2924,
      "å¼ķèµ·": 2925,
      "æķ°éĩı": 2926,
      "å¼ĥ": 2927,
      "crip": 2928,
      "ç¬¬åĽĽ": 2929,
      "ä¸īä¸ª": 2930,
      "éĢĲæ¸Ĳ": 2931,
      "å¤©çļĩ": 2932,
      "To": 2933,
      "Î²": 2934,
      "åĳ³": 2935,
      "å®¶åºŃ": 2936,
      "è¥¿æĸ¹": 2937,
      "åĪĨå¸ĥ": 2938,
      "èµĦæĸĻ": 2939,
      "fied": 2940,
      "å®ŀè¡Į": 2941,
      "æ²¹": 2942,
      "èį£": 2943,
      "ä»ª": 2944,
      "deter": 2945,
      "èĨľ": 2946,
      "repor": 2947,
      "ãĢį": 2948,
      "urther": 2949,
      "ãĢĮ": 2950,
      "è¿İ": 2951,
      "typ": 2952,
      "æĮĩæłĩ": 2953,
      "åĭĩ": 2954,
      "ç²®": 2955,
      "ä½ľèĢħ": 2956,
      "ä¼ļè®¡": 2957,
      "å¦»": 2958,
      "å»ºè®®": 2959,
      "æ¸¡": 2960,
      "åªĴ": 2961,
      "patient": 2962,
      "çī¹æ®Ĭ": 2963,
      "only": 2964,
      "å·´": 2965,
      "è®°å½ķ": 2966,
      "38": 2967,
      "ä¼łæĴŃ": 2968,
      "æĢ»ä¹¦è®°": 2969,
      "æŃĮ": 2970,
      "çĶŁåĳ½": 2971,
      "aff": 2972,
      "èĢĮè¨Ģ": 2973,
      "æ·±åĮĸ": 2974,
      "èıĮ": 2975,
      "åŃĿ": 2976,
      "æ£Ģæµĭ": 2977,
      "èĽĭçĻ½": 2978,
      "produc": 2979,
      "å·®å¼Ĥ": 2980,
      "ute": 2981,
      "éĩįè§Ĩ": 2982,
      "è·Ł": 2983,
      "ç¼ĵ": 2984,
      "ä»ģ": 2985,
      "compared": 2986,
      "CC": 2987,
      "çĽ¸åºĶ": 2988,
      "sco": 2989,
      "æĿ¥è¯´": 2990,
      "ä¹ı": 2991,
      "çº¯": 2992,
      "sel": 2993,
      "æ¶µ": 2994,
      "å¸®åĬ©": 2995,
      "è¿¹": 2996,
      "åĬ¨åĬĽ": 2997,
      "æľīåĪ©": 2998,
      "stand": 2999,
      "èĩªæĪĳ": 3000,
      "ä¼ı": 3001,
      "ä¸Ģæ¬¡": 3002,
      "ages": 3003,
      "è¶ħè¿ĩ": 3004,
      "æĺ¾ç¤º": 3005,
      "äº§æĿĥ": 3006,
      "éĤ£ä¹Ī": 3007,
      "lam": 3008,
      "ç¥ŀç»ı": 3009,
      "åº§": 3010,
      "measure": 3011,
      "å«¡": 3012,
      "divid": 3013,
      "è½®": 3014,
      "é©±": 3015,
      "å®ļä¹ī": 3016,
      "Al": 3017,
      "è¯Ĭ": 3018,
      "Figure": 3019,
      "ç¡®ä¿Ŀ": 3020,
      "diagno": 3021,
      "èŃ¦": 3022,
      "èµ¤": 3023,
      "ä¸Ģèĩ´": 3024,
      "å¤Ħäºİ": 3025,
      "æĬĢèĥ½": 3026,
      "è¿Ľç¨ĭ": 3027,
      "main": 3028,
      "åĪĨä¸º": 3029,
      "æĳĦ": 3030,
      "anis": 3031,
      "che": 3032,
      "å¥Ĺ": 3033,
      "ä½¿å¾Ĺ": 3034,
      "åĬª": 3035,
      "å®Ŀ": 3036,
      "34": 3037,
      "åĮĹäº¬": 3038,
      "çī©çĲĨ": 3039,
      "blood": 3040,
      "port": 3041,
      "æĺŃ": 3042,
      "äººçī©": 3043,
      "ç§Ł": 3044,
      "ä¹ĥ": 3045,
      "æĬĺ": 3046,
      "research": 3047,
      "è°¦ä¿¡": 3048,
      "line": 3049,
      "set": 3050,
      "éģµ": 3051,
      "ck": 3052,
      "æĿ¾å¹³": 3053,
      "method": 3054,
      "èĥĮæĻ¯": 3055,
      "centr": 3056,
      "Un": 3057,
      "åĿı": 3058,
      "ful": 3059,
      "signal": 3060,
      "care": 3061,
      "ç¥¨": 3062,
      "åĪĨç±»": 3063,
      "ä¸»åĬ¨": 3064,
      "ç´¯": 3065,
      "çľŁæŃ£": 3066,
      "èĩªä¸»": 3067,
      "ization": 3068,
      "ä¹ĭåŃĲ": 3069,
      "å°±ä¸ļ": 3070,
      "é¦Ļ": 3071,
      "çĺ¤": 3072,
      "ä¸ĢçĽ´": 3073,
      "neur": 3074,
      "regul": 3075,
      "çĩ": 3076,
      "ä½Ľ": 3077,
      "ST": 3078,
      "è¿ĺæľī": 3079,
      "ä¸įè¶³": 3080,
      "æĶ¯ä»ĺ": 3081,
      "number": 3082,
      "åī¯": 3083,
      "åĺ": 3084,
      "åıªæĺ¯": 3085,
      "è½¯ä»¶": 3086,
      "éĺ¶çº§": 3087,
      "åĢĴ": 3088,
      "bib": 3089,
      "ution": 3090,
      "åįģä¸Ģ": 3091,
      "æĭ¥æľī": 3092,
      "155": 3093,
      "æĭĵ": 3094,
      "æĹ¶åĢĻ": 3095,
      "ective": 3096,
      "å±Ĭ": 3097,
      "äº¤æµģ": 3098,
      "æĪĺæŃ»": 3099,
      "æįŁå¤±": 3100,
      "48": 3101,
      "arget": 3102,
      "æ°ĳäºĭ": 3103,
      "è£Ĥ": 3104,
      "ç¡¬": 3105,
      "action": 3106,
      "éĿ¢ä¸´": 3107,
      "éĻĪ": 3108,
      "å¤įåħ´": 3109,
      "import": 3110,
      "process": 3111,
      "ited": 3112,
      "åĶĲ": 3113,
      "æķ°åŃ¦": 3114,
      "åĪ¸": 3115,
      "ational": 3116,
      "kin": 3117,
      "çĪĨ": 3118,
      "åĪ¤æĸŃ": 3119,
      "æĪĲåĳĺ": 3120,
      "è½¬ç§»": 3121,
      "31": 3122,
      "PA": 3123,
      "However": 3124,
      "ä¿¡åı·": 3125,
      "ron": 3126,
      "çºł": 3127,
      "ä¸´åºĬ": 3128,
      "mem": 3129,
      "æĮĳæĪĺ": 3130,
      "æĴĳ": 3131,
      "æ¯ıä¸ª": 3132,
      "éĿĻ": 3133,
      "æįŁå®³": 3134,
      "éľ²": 3135,
      "åĽ½æ°ĳ": 3136,
      "ä¸»å¼ł": 3137,
      "è¦": 3138,
      "çªģåĩº": 3139,
      "rease": 3140,
      "èĤ¿": 3141,
      "å°¤åħ¶": 3142,
      "è¾©": 3143,
      "my": 3144,
      "ane": 3145,
      "ä¸ĢåĪĩ": 3146,
      "usion": 3147,
      "def": 3148,
      "æ·±åĪ»": 3149,
      "ç¯ĩ": 3150,
      "mental": 3151,
      "èĮ¶": 3152,
      "æĶ¿æĿĥ": 3153,
      "å¾Īå¤ļ": 3154,
      "ä¸Ĭè¿°": 3155,
      "åĩºçīĪ": 3156,
      "éħįç½®": 3157,
      "æ£ĢæŁ¥": 3158,
      "åįĸ": 3159,
      "å°¼åŃĲ": 3160,
      "éĽ¶": 3161,
      "åĬªåĬĽ": 3162,
      "some": 3163,
      "assess": 3164,
      "cre": 3165,
      "effects": 3166,
      "ung": 3167,
      "mech": 3168,
      "éģ¿åħį": 3169,
      "ç®Ģåįķ": 3170,
      "è½¬åıĺ": 3171,
      "æĺ¾èĳĹ": 3172,
      "çī¹å®ļ": 3173,
      "çŃĸçķ¥": 3174,
      "åıĽ": 3175,
      "pos": 3176,
      "æµĭè¯ķ": 3177,
      "ä»²": 3178,
      "32": 3179,
      "æĸĩåŃ¦": 3180,
      "åĪĢ": 3181,
      "åŃ¦æľ¯": 3182,
      "shown": 3183,
      "è®¾ç½®": 3184,
      "response": 3185,
      "ä¾ĽåºĶ": 3186,
      "ici": 3187,
      "cardi": 3188,
      "èµĭ": 3189,
      "è§¦": 3190,
      "è½¬åŀĭ": 3191,
      "è®¡ç®Ĺæľº": 3192,
      "åħ¨éĥ¨": 3193,
      "ER": 3194,
      "æĭĽ": 3195,
      "vis": 3196,
      "åģ¥åħ¨": 3197,
      "bin": 3198,
      "çİ°åľ¨": 3199,
      "å¼¹": 3200,
      "dependent": 3201,
      "èĸ": 3202,
      "è¡°": 3203,
      "çĸ¾çĹħ": 3204,
      "åİŁçĲĨ": 3205,
      "çĤİ": 3206,
      "target": 3207,
      "åħ±äº«": 3208,
      "vious": 3209,
      "è®¤å®ļ": 3210,
      "éĽĨä½ĵ": 3211,
      "åıĬæĹ¶": 3212,
      "è®¨è®º": 3213,
      "èµĶåģ¿": 3214,
      "åĲĪæĪĺ": 3215,
      "çļ®": 3216,
      "åĵª": 3217,
      "AD": 3218,
      "ceptor": 3219,
      "æĶ¯æĴĳ": 3220,
      "brain": 3221,
      "å©ļ": 3222,
      "poten": 3223,
      "åŁ¹è®Ń": 3224,
      "Con": 3225,
      "è§Ĵåº¦": 3226,
      "è¦Ĩ": 3227,
      "å¹ħ": 3228,
      "effect": 3229,
      "ody": 3230,
      "æĶ¹åĸĦ": 3231,
      "äººå·¥": 3232,
      "could": 3233,
      "å¯»": 3234,
      "éĢĲæŃ¥": 3235,
      "role": 3236,
      "å¹²éĥ¨": 3237,
      "å¿«éĢŁ": 3238,
      "æŃ£å¼ı": 3239,
      "è½¬åĮĸ": 3240,
      "å¹³è¡¡": 3241,
      "æĿ¥æºĲ": 3242,
      "æĢ»ä½ĵ": 3243,
      "åĩĨå¤ĩ": 3244,
      "Âł": 3245,
      "ç¢į": 3246,
      "æħ§": 3247,
      "atory": 3248,
      "sure": 3249,
      "ore": 3250,
      "there": 3251,
      "ä¹ĭåīį": 3252,
      "çħ": 3253,
      "ot": 3254,
      "åĦ¿ç«¥": 3255,
      "è§Ĥå¿µ": 3256,
      "æĽ´å¥½": 3257,
      "ç»Łè®¡": 3258,
      "coun": 3259,
      "tively": 3260,
      "å§ĭç»Ī": 3261,
      "åįģä¹Ŀ": 3262,
      "å¤©ä¸ĭ": 3263,
      "when": 3264,
      "åŃ¦èĢħ": 3265,
      "å®ªæ³ķ": 3266,
      "ç»ķ": 3267,
      "eno": 3268,
      "significantly": 3269,
      "éļ¾ä»¥": 3270,
      "å®ģ": 3271,
      "å®¢è§Ĥ": 3272,
      "éĴ±": 3273,
      "æľ¬è´¨": 3274,
      "è¯ļ": 3275,
      "ide": 3276,
      "æļ´": 3277,
      "è´¤": 3278,
      "éļıåĲİ": 3279,
      "ä¸Ģç³»åĪĹ": 3280,
      "çĶ±æŃ¤": 3281,
      "å¸Ń": 3282,
      "ä¸Ģæĺ¯": 3283,
      "induced": 3284,
      "çıŃ": 3285,
      "æī¬": 3286,
      "ç¼ĺ": 3287,
      "å¤ļç§į": 3288,
      "å¾ªçİ¯": 3289,
      "receptor": 3290,
      "åħģ": 3291,
      "åĩ½æķ°": 3292,
      "åı¦ä¸Ģæĸ¹éĿ¢": 3293,
      "åı¥": 3294,
      "stimul": 3295,
      "ä½ľåĵģ": 3296,
      "è¶ĭåĬ¿": 3297,
      "very": 3298,
      "å¥ĭæĸĹ": 3299,
      "èī¯å¥½": 3300,
      "æľ¬èº«": 3301,
      "For": 3302,
      "sa": 3303,
      "æŃ¤åĲİ": 3304,
      "å¤§ä¼ļ": 3305,
      "imal": 3306,
      "performed": 3307,
      "æķı": 3308,
      "å±Ĥæ¬¡": 3309,
      "PD": 3310,
      "ä¸¤ç§į": 3311,
      "ä¼Ĭè¾¾": 3312,
      "éģ£": 3313,
      "inflam": 3314,
      "éĢŁåº¦": 3315,
      "å¤ļæķ°": 3316,
      "SD": 3317,
      "èĵ": 3318,
      "æĻ®éģį": 3319,
      "sive": 3320,
      "Î±": 3321,
      "å¥ĩ": 3322,
      "ä¸Ģèµ·": 3323,
      "mes": 3324,
      "æŃ¦å£«": 3325,
      "These": 3326,
      "è·ĥ": 3327,
      "çİ¯èĬĤ": 3328,
      "æ®ĭ": 3329,
      "ä¹ĺ": 3330,
      "æīĢè°ĵ": 3331,
      "çº¦å®ļ": 3332,
      "æĢĢ": 3333,
      "---": 3334,
      "èª": 3335,
      "ç®Ĺæ³ķ": 3336,
      "prim": 3337,
      "æĬĬæı¡": 3338,
      "æĥł": 3339,
      "ital": 3340,
      "curren": 3341,
      "é«ĺæł¡": 3342,
      "å¦ĤæŃ¤": 3343,
      "way": 3344,
      "å®ı": 3345,
      "CO": 3346,
      "char": 3347,
      "including": 3348,
      "éĺħ": 3349,
      "where": 3350,
      "åħ°": 3351,
      "æĬĵ": 3352,
      "åĿĢ": 3353,
      "fe": 3354,
      "çļĨ": 3355,
      "çĽ¸åĲĮ": 3356,
      "åĨĮ": 3357,
      "ä½įç½®": 3358,
      "åĲĮæł·": 3359,
      "IV": 3360,
      "éŃ": 3361,
      "é½": 3362,
      "dividual": 3363,
      "dic": 3364,
      "å¾Ģå¾Ģ": 3365,
      "æ¨ª": 3366,
      "åıĳå¸ĥ": 3367,
      "çģ¾": 3368,
      "å·¨å¤§": 3369,
      "è´¡çĮ®": 3370,
      "body": 3371,
      "èĩªåĬ¨": 3372,
      "æī¶": 3373,
      "è¯ķéªĮ": 3374,
      "åħ¬å¹³": 3375,
      "åĳ¼": 3376,
      "å¤ľ": 3377,
      "éķ°": 3378,
      "èĢĹ": 3379,
      "æĢ§èĥ½": 3380,
      "è¿ħ": 3381,
      "49": 3382,
      "01": 3383,
      "fore": 3384,
      "ä¼ĳ": 3385,
      "æģ¢": 3386,
      "åįıåĲĮ": 3387,
      "æľīéĻĲ": 3388,
      "é«ĺè´¨éĩı": 3389,
      "åįģåĽĽ": 3390,
      "mil": 3391,
      "factors": 3392,
      "Re": 3393,
      "ature": 3394,
      "åŃ£": 3395,
      "ä¼´": 3396,
      "æĸĹäºī": 3397,
      "æ³ī": 3398,
      "invol": 3399,
      "æ¯Ķå¦Ĥ": 3400,
      "æĹħ": 3401,
      "ä¸Ģä½ĵ": 3402,
      "çĻ¾å¹´": 3403,
      "ä¸°èĩ£ç§ĢåĲī": 3404,
      "éªı": 3405,
      "è§Ĥå¯Ł": 3406,
      "ality": 3407,
      "39": 3408,
      "åĢºæĿĥ": 3409,
      "äºĮæĺ¯": 3410,
      "åį±æľº": 3411,
      "ä¿¡çĶ¨": 3412,
      "ç¼ºä¹ı": 3413,
      "cin": 3414,
      "æµ¦": 3415,
      "they": 3416,
      "ä¸īæ²³": 3417,
      "Pro": 3418,
      "é¾Ł": 3419,
      "ä¸įä¼ļ": 3420,
      "æĸ°åŀĭ": 3421,
      "åĲĪæ³ķ": 3422,
      "art": 3423,
      "table": 3424,
      "æĬķåħ¥": 3425,
      "Res": 3426,
      "....": 3427,
      "è¯¾åłĤ": 3428,
      "observed": 3429,
      "ä»įçĦ¶": 3430,
      "first": 3431,
      "è§Ĩä¸º": 3432,
      "å®ĭ": 3433,
      "reported": 3434,
      "äºĶå¹´": 3435,
      "æĿĥçĽĬ": 3436,
      "æĬĳ": 3437,
      "child": 3438,
      "new": 3439,
      "é©»": 3440,
      "ä¸Ģæł·": 3441,
      "æľĿä»ĵ": 3442,
      "åĩºåıĳ": 3443,
      "è¯ĳ": 3444,
      "Sec": 3445,
      "MR": 3446,
      "æĻºæħ§": 3447,
      "åĩĨç¡®": 3448,
      "æĸĲ": 3449,
      "through": 3450,
      "æģ¢å¤į": 3451,
      "ä¸Ģæı": 3452,
      "èĮĤ": 3453,
      "åĩºæĿ¥": 3454,
      "éĩįæĸ°": 3455,
      "æ¹ĸ": 3456,
      "individual": 3457,
      "åĳ½ä»¤": 3458,
      "exp": 3459,
      "trac": 3460,
      "çķł": 3461,
      "ens": 3462,
      "ä¹ĭä¹±": 3463,
      "mechanis": 3464,
      "æĢ»ç»ĵ": 3465,
      "ä¸ºä¸»": 3466,
      "As": 3467,
      "ä»ĭç»į": 3468,
      "prog": 3469,
      "ç»ĺ": 3470,
      "ving": 3471,
      "æĬ¼": 3472,
      "tics": 3473,
      "years": 3474,
      "åĨĽéĺŁ": 3475,
      "çĦ¶åĲİ": 3476,
      "ency": 3477,
      "ä¸ĢåĲĮ": 3478,
      "åįģå¹´": 3479,
      "åİļ": 3480,
      "his": 3481,
      "ç³ĸ": 3482,
      "plement": 3483,
      "tra": 3484,
      "é¼ĵåĬ±": 3485,
      "ä¸¥æł¼": 3486,
      "åĮħåĲ«": 3487,
      "####": 3488,
      "showed": 3489,
      "å½ĵä¸»": 3490,
      "åĩĿ": 3491,
      "æŃ£åľ¨": 3492,
      "bl": 3493,
      "development": 3494,
      "eng": 3495,
      "è¿ĽæŃ¥": 3496,
      "å±ĤéĿ¢": 3497,
      "åĽ½äºº": 3498,
      "ç²Ĵ": 3499,
      "åīįå¾Ģ": 3500,
      "ä¸ĢæıĨ": 3501,
      "è±ª": 3502,
      "åĢ¾": 3503,
      "inj": 3504,
      "æĿ¥çľĭ": 3505,
      "éħĴ": 3506,
      "æľīæľº": 3507,
      "159": 3508,
      "region": 3509,
      "IP": 3510,
      "åıĤèĢĥ": 3511,
      "çĻĮ": 3512,
      "åįģåĪĨ": 3513,
      "app": 3514,
      "46": 3515,
      "tissue": 3516,
      "MP": 3517,
      "çĽ¸å½ĵ": 3518,
      "ä¾į": 3519,
      "ä¾Ľç»Ļ": 3520,
      "direc": 3521,
      "lim": 3522,
      "èį¯çī©": 3523,
      "evalu": 3524,
      "higher": 3525,
      "çªģçł´": 3526,
      "mm": 3527,
      "è®Ńç»ĥ": 3528,
      "air": 3529,
      "æĸĩçĮ®": 3530,
      "ç¾İæµĵ": 3531,
      "åĢį": 3532,
      "æ¡Ĩ": 3533,
      "ology": 3534,
      "å¿ħçĦ¶": 3535,
      "ä¿Ĺ": 3536,
      "åĪº": 3537,
      "åŃ¦éĻ¢": 3538,
      "åħ±åĴĮ": 3539,
      "éĢļä¿¡": 3540,
      "åħ·å¤ĩ": 3541,
      "å±ķå¼Ģ": 3542,
      "åį«çĶŁ": 3543,
      "äºĭåĬ¡": 3544,
      "mark": 3545,
      "ner": 3546,
      "ition": 3547,
      "ç©¿": 3548,
      "ld": 3549,
      "character": 3550,
      "47": 3551,
      "æ¡Īä¾ĭ": 3552,
      "å¯¹å¤ĸ": 3553,
      "èĤ¡ä¸ľ": 3554,
      "åĨįæ¬¡": 3555,
      "æģ©": 3556,
      "æ±½": 3557,
      "æ¶¦": 3558,
      "ä¸ĭéĻį": 3559,
      "ç§ĳçłĶ": 3560,
      "åħĪè¿Ľ": 3561,
      "neuro": 3562,
      "ded": 3563,
      "ä¼¯": 3564,
      "æĿ¥èĩª": 3565,
      "bec": 3566,
      "important": 3567,
      "ä¸Ģæĸ¹": 3568,
      "å®¤çĶº": 3569,
      "post": 3570,
      "Î¼": 3571,
      "å³°": 3572,
      "three": 3573,
      "çĬ¶åĨµ": 3574,
      "multi": 3575,
      "å±ħæ°ĳ": 3576,
      "æĻļ": 3577,
      "éĩįèĩ£": 3578,
      "éªĳ": 3579,
      "CP": 3580,
      "é«ĺçŃī": 3581,
      "åĽ½æľī": 3582,
      "groups": 3583,
      "æµĭéĩı": 3584,
      "å®ľ": 3585,
      "vas": 3586,
      "åİĤ": 3587,
      "å¤ļæł·": 3588,
      "estig": 3589,
      "èĭ¦": 3590,
      "éķ°ä»ĵ": 3591,
      "ai": 3592,
      "previous": 3593,
      "åı¯è§ģ": 3594,
      "æľīåĪ©äºİ": 3595,
      "åĬłåħ¥": 3596,
      "ä¼¦": 3597,
      "æĢİ": 3598,
      "å²¸": 3599,
      "æķĪåºĶ": 3600,
      "ä¸ĢæĿ¡": 3601,
      "æ¯Ķä¾ĭ": 3602,
      "SP": 3603,
      "æµģåĬ¨": 3604,
      "åı¦å¤ĸ": 3605,
      "è¯¢": 3606,
      "è¿ĳæ±Ł": 3607,
      "ise": 3608,
      "æ¬²": 3609,
      "æĭĴ": 3610,
      "è¿ŀæİ¥": 3611,
      "çľŁå®ŀ": 3612,
      "therapy": 3613,
      "go": 3614,
      "198": 3615,
      "ax": 3616,
      "åºĶå¯¹": 3617,
      "long": 3618,
      "çĽĺ": 3619,
      "cus": 3620,
      "éĻ¤äºĨ": 3621,
      "æħ¢": 3622,
      "æĬ½": 3623,
      "éĶĭ": 3624,
      "æĢĿèĢĥ": 3625,
      "ç£ģ": 3626,
      "å²Ĳ": 3627,
      "è®¾ç«ĭ": 3628,
      "åŃĺåĤ¨": 3629,
      "è´¯å½»": 3630,
      "æł¼å±Ģ": 3631,
      "è¶£": 3632,
      "ç´łè´¨": 3633,
      "æŃ£å¸¸": 3634,
      "42": 3635,
      "----------------------------------------------------------------": 3636,
      "åĪļ": 3637,
      "éĿ¢å¯¹": 3638,
      "larg": 3639,
      "RA": 3640,
      "ves": 3641,
      "æĶ¹éĿ©å¼ĢæĶ¾": 3642,
      "æµª": 3643,
      "Table": 3644,
      "ä¸Ĭæµ·": 3645,
      "plas": 3646,
      "ä¸ĩçŁ³": 3647,
      "è¸": 3648,
      "å®īæİĴ": 3649,
      "å°½ç®¡": 3650,
      "ress": 3651,
      "within": 3652,
      "grap": 3653,
      "æľ¬æĸĩ": 3654,
      "ucle": 3655,
      "åį¡": 3656,
      "åĽ½åĬ¡": 3657,
      "pat": 3658,
      "zed": 3659,
      "å¤ļä¸ª": 3660,
      "æŀª": 3661,
      "çĶ²æĸĲ": 3662,
      "åĲĦåĽ½": 3663,
      "lish": 3664,
      "èŀįèµĦ": 3665,
      "ext": 3666,
      "roph": 3667,
      "ÃĹ": 3668,
      "activation": 3669,
      "å°¾å¼ł": 3670,
      "åĲĦä¸ª": 3671,
      "ç¿»": 3672,
      "It": 3673,
      "å¸ĮæľĽ": 3674,
      "å¹³åĿĩ": 3675,
      "mer": 3676,
      "çĲĨæĥ³": 3677,
      "å»·": 3678,
      "æľºåĻ¨": 3679,
      "cap": 3680,
      "åŁºéĩĳ": 3681,
      "åıĺéĿ©": 3682,
      "æ½®": 3683,
      "åĽ¢éĺŁ": 3684,
      "åħ¬å¼Ģ": 3685,
      "io": 3686,
      "å¾Ĵ": 3687,
      "è´¹çĶ¨": 3688,
      "grow": 3689,
      "åħ¬æ°ĳ": 3690,
      "è´¦": 3691,
      "cular": 3692,
      "æĹ¨": 3693,
      "å°ıçĶ°": 3694,
      "è¶ĬæĿ¥": 3695,
      "å®¡æŁ¥": 3696,
      "è¶ĬæĿ¥è¶Ĭ": 3697,
      "infection": 3698,
      "75": 3699,
      "å·¦åı³": 3700,
      "NF": 3701,
      "ä¿¡æµĵ": 3702,
      "æľĿé²ľ": 3703,
      "æŃ£æĺ¯": 3704,
      "å®Įæķ´": 3705,
      "ç¡®ç«ĭ": 3706,
      "åĨ·": 3707,
      "positive": 3708,
      "mean": 3709,
      "å¤§åĿĤ": 3710,
      "æľºä¼ļ": 3711,
      "those": 3712,
      "ä¼ĬåĬ¿": 3713,
      "çĽĳæµĭ": 3714,
      "inhibit": 3715,
      "atis": 3716,
      "ï¼ģ": 3717,
      "èĤº": 3718,
      "investig": 3719,
      "æĪı": 3720,
      "åıªèĥ½": 3721,
      "éĽª": 3722,
      "44": 3723,
      "å¹³çŃī": 3724,
      "èĥľåĪ©": 3725,
      "çĪĨåıĳ": 3726,
      "demon": 3727,
      "ene": 3728,
      "tran": 3729,
      "demonstr": 3730,
      "åĽ½åĬ¡éĻ¢": 3731,
      "åŁºç¡Ģè®¾æĸ½": 3732,
      "é¾Ħ": 3733,
      "çĻ»è®°": 3734,
      "åħįçĸ«": 3735,
      "ç¤¾åĮº": 3736,
      "åĩºåħµ": 3737,
      "æļĹ": 3738,
      "æ²Ł": 3739,
      "æĹłè®º": 3740,
      "virus": 3741,
      "é¢Ħæµĭ": 3742,
      "æ²Ļ": 3743,
      "æĥħå½¢": 3744,
      "æ²ī": 3745,
      "åĳ¨æľŁ": 3746,
      "fr": 3747,
      "èĩªæ²»": 3748,
      "æľīåĬĽ": 3749,
      "éĢĴ": 3750,
      "çĽĲ": 3751,
      "èµı": 3752,
      "éĺĲ": 3753,
      "provid": 3754,
      "changes": 3755,
      "è¯ĨåĪ«": 3756,
      "çºµ": 3757,
      "åİĭåĬĽ": 3758,
      "åŃĶ": 3759,
      "ace": 3760,
      "ä¸ªä½ĵ": 3761,
      "éĥ¨éĺŁ": 3762,
      "æ³¨éĩį": 3763,
      "MS": 3764,
      "åĲĦåľ°": 3765,
      "less": 3766,
      "particip": 3767,
      "å®¹æĺĵ": 3768,
      "He": 3769,
      "ä½įäºİ": 3770,
      "éĻ¶": 3771,
      "2020": 3772,
      "æķ°åŃĹåĮĸ": 3773,
      "endo": 3774,
      "å®īåľŁ": 3775,
      "åĽłèĢĮ": 3776,
      "ä½ľæĪĺ": 3777,
      "crib": 3778,
      "hypo": 3779,
      "åħ±åĴĮåĽ½": 3780,
      "åŁºå±Ĥ": 3781,
      "åī²": 3782,
      "lead": 3783,
      "æķĻæİĪ": 3784,
      "å¾Īå¤§": 3785,
      "ost": 3786,
      "çī¢": 3787,
      "æ·±åº¦": 3788,
      "åįģä¸ī": 3789,
      "king": 3790,
      "ived": 3791,
      "æ¯ķ": 3792,
      "ä¸Ńåħ±": 3793,
      "ç»ıæµİåŃ¦": 3794,
      "è®¤çŁ¥": 3795,
      "ç§ĺ": 3796,
      "treated": 3797,
      "ç§©": 3798,
      "æłĩå¿Ĺ": 3799,
      "dro": 3800,
      "ä¹ĭä¸Ń": 3801,
      "è°¢": 3802,
      "è¿ĩåİ»": 3803,
      "ç¾¤ä½ĵ": 3804,
      "AC": 3805,
      "need": 3806,
      "Ad": 3807,
      "ero": 3808,
      "åĽ°éļ¾": 3809,
      "pri": 3810,
      "åĪĺ": 3811,
      "çĭŃ": 3812,
      "65": 3813,
      "åīįæıĲ": 3814,
      "çİī": 3815,
      "æ¢°": 3816,
      "åıįå¯¹": 3817,
      "impro": 3818,
      "å®ħ": 3819,
      "ES": 3820,
      "hip": 3821,
      "çĳ": 3822,
      "çĩĥ": 3823,
      "åıĳåĬ¨": 3824,
      "åĪĳäºĭ": 3825,
      "æııè¿°": 3826,
      "å¹´æĿ¥": 3827,
      "ie": 3828,
      "è¡¨éĿ¢": 3829,
      "There": 3830,
      "å¼¥": 3831,
      "ini": 3832,
      "sol": 3833,
      "predic": 3834,
      "åĨ²çªģ": 3835,
      "è´¢åĬ¡": 3836,
      "é½Ĳ": 3837,
      "éĥ¨ç½²": 3838,
      "æĶ¶çĽĬ": 3839,
      "åĲĦç±»": 3840,
      "any": 3841,
      "aging": 3842,
      "ä¸ĵåĪ©": 3843,
      "åĬ¨æĢģ": 3844,
      "éĶĻè¯¯": 3845,
      "å®ŀéĻħä¸Ĭ": 3846,
      "ID": 3847,
      "æ³°": 3848,
      "001": 3849,
      "éĹŃ": 3850,
      "consi": 3851,
      "è¿ħéĢŁ": 3852,
      "ä¸ĵå®¶": 3853,
      "è°Ĳ": 3854,
      "ze": 3855,
      "çĹħæ¯Ĵ": 3856,
      "æµģç¨ĭ": 3857,
      "åªĴä½ĵ": 3858,
      "ç»ŁçŃ¹": 3859,
      "rate": 3860,
      "çī¹æĢ§": 3861,
      "ç¡®è®¤": 3862,
      "åħļä¸Ńå¤®": 3863,
      "èĤ¿çĺ¤": 3864,
      "çĹĽ": 3865,
      "ä¹Ŀå·ŀ": 3866,
      "æĥ¯": 3867,
      "åĽ¢ç»ĵ": 3868,
      "è¶ĬåĲİ": 3869,
      "åħ¸åŀĭ": 3870,
      "potential": 3871,
      "å¸ĥå±Ģ": 3872,
      "è¯º": 3873,
      "finding": 3874,
      "é¡µ": 3875,
      "çŁ¥éģĵ": 3876,
      "éĺ´": 3877,
      "æµħäºķ": 3878,
      "èĥģ": 3879,
      "å¤ĸéĥ¨": 3880,
      "41": 3881,
      "å¼ºå¤§": 3882,
      "åĲĮå¿Ĺ": 3883,
      "åŁİä¹¡": 3884,
      "æ¡ĥ": 3885,
      "sm": 3886,
      "é¡¶": 3887,
      "åħīç§Ģ": 3888,
      "ç»ıåİĨ": 3889,
      "ically": 3890,
      "æĹĭ": 3891,
      "ãĥ»": 3892,
      "plic": 3893,
      "increase": 3894,
      "éĢĶå¾Ħ": 3895,
      "æķ´åĲĪ": 3896,
      "43": 3897,
      "æĸĩä¹¦": 3898,
      "led": 3899,
      "çĽ¸æ¯Ķ": 3900,
      "sible": 3901,
      "çłĶåıĳ": 3902,
      "çľĭåĪ°": 3903,
      "èĪŀ": 3904,
      "æ¡Ĩæŀ¶": 3905,
      "ä¼ĺç§Ģ": 3906,
      "tu": 3907,
      "gre": 3908,
      "åĬ³åĬ¨èĢħ": 3909,
      "æ¹¾": 3910,
      "cases": 3911,
      "53": 3912,
      "å®ĹæķĻ": 3913,
      "éļĶ": 3914,
      "ä»İäºĭ": 3915,
      "æĳ©": 3916,
      "è®ºæĸĩ": 3917,
      "å®¶æĹı": 3918,
      "subj": 3919,
      "çŁ¿": 3920,
      "è¾ĸ": 3921,
      "ness": 3922,
      "Ex": 3923,
      "åĩĢ": 3924,
      "æķĻæĿĲ": 3925,
      "åľĨ": 3926,
      "éķľ": 3927,
      "åħ¬ä¼Ĺ": 3928,
      "å®ŀä½ĵ": 3929,
      "éķ¿å°¾": 3930,
      "fib": 3931,
      "ret": 3932,
      "å¯¹ç«ĭ": 3933,
      "èĭ±åĽ½": 3934,
      "é£Łåĵģ": 3935,
      "çĦ¦": 3936,
      "No": 3937,
      "ï½": 3938,
      "å½¢åĬ¿": 3939,
      "combin": 3940,
      "ä¾µæĿĥ": 3941,
      "åħ»åŃĲ": 3942,
      "å½ĵåľ°": 3943,
      "èİ·åıĸ": 3944,
      "åħ³åİŁ": 3945,
      "å¤ı": 3946,
      "ç§©åºı": 3947,
      "drug": 3948,
      "èĤĮ": 3949,
      "èħ¹": 3950,
      "çŀ": 3951,
      "æ°§åĮĸ": 3952,
      "è¿½æ±Ĥ": 3953,
      "ç»ĻäºĪ": 3954,
      "ä»ĸäºº": 3955,
      "èĴĻ": 3956,
      "åıĳè¡¨": 3957,
      "åĽ´ç»ķ": 3958,
      "æĸĭèĹ¤": 3959,
      "éľĩ": 3960,
      "çŁ¥è¯Ĩäº§æĿĥ": 3961,
      "ice": 3962,
      "åŁİä¸»": 3963,
      "ome": 3964,
      "mod": 3965,
      "éĶĢåĶ®": 3966,
      "è¾ĥå¤§": 3967,
      "æľīæīĢ": 3968,
      "ä¸Ģå¸¦": 3969,
      "åįģåħŃ": 3970,
      "æİĴæĶ¾": 3971,
      "requi": 3972,
      "ä¸Ģé¡¹": 3973,
      "åĴĮå¹³": 3974,
      "ectively": 3975,
      "è·¯å¾Ħ": 3976,
      "org": 3977,
      "è¿Ŀæ³ķ": 3978,
      "gram": 3979,
      "æĻ®éĢļ": 3980,
      "å¹¶éĿŀ": 3981,
      "æĪĲå°±": 3982,
      "å®¡è®¡": 3983,
      "å®¢æĪ·": 3984,
      "AR": 3985,
      "åħļçļĦ": 3986,
      "ç¬¬äºĶ": 3987,
      "plementary": 3988,
      "ä¾Ŀèµĸ": 3989,
      "æ®ĸ": 3990,
      "éĽĨåĽ¢": 3991,
      "æ¯Ľæ³½": 3992,
      "åĿļå®ļ": 3993,
      "EC": 3994,
      "ä¼ĺåħĪ": 3995,
      "cytes": 3996,
      "åĬłå·¥": 3997,
      "æĹ©æľŁ": 3998,
      "Wh": 3999,
      "æ¯Ľæ³½ä¸ľ": 4000,
      "çº³åħ¥": 4001,
      "é¸Ł": 4002,
      "çīĮ": 4003,
      "samples": 4004,
      "current": 4005,
      "æīĢåľ¨": 4006,
      "æĦıåĳ³": 4007,
      "äºĮå¹´": 4008,
      "immune": 4009,
      "rang": 4010,
      "åĬŀæ³ķ": 4011,
      "å¥ĸ": 4012,
      "small": 4013,
      "å¼ķé¢Ĩ": 4014,
      "åĲĦçº§": 4015,
      "then": 4016,
      "æĪĺæĸĹ": 4017,
      "åŁİéķĩ": 4018,
      "åį«éĹ¨": 4019,
      "evid": 4020,
      "MD": 4021,
      "æĮĩæĮ¥": 4022,
      "types": 4023,
      "çī§": 4024,
      "åľ°çĲĨ": 4025,
      "åĨħæ¶µ": 4026,
      "55": 4027,
      "å½ĵçĦ¶": 4028,
      "part": 4029,
      "èģĮè´£": 4030,
      "æŃ¦çĶ°ä¿¡çİĦ": 4031,
      "growth": 4032,
      "æī°": 4033,
      "å®£ä¼ł": 4034,
      "theli": 4035,
      "åĦ¿åŃĲ": 4036,
      "èµŀ": 4037,
      "å®ŀè´¨": 4038,
      "known": 4039,
      "mor": 4040,
      "æļĤ": 4041,
      "åĽºå®ļ": 4042,
      "æº¶": 4043,
      "èĤĿ": 4044,
      "åı«": 4045,
      "æ±½è½¦": 4046,
      "abol": 4047,
      "ause": 4048,
      "pub": 4049,
      "å¥īè¡Į": 4050,
      "å°º": 4051,
      "èħĲ": 4052,
      "ä¸Ńå°ı": 4053,
      "æ¤įçī©": 4054,
      "ä¸»å¯¼": 4055,
      "ç«ĭèĬ±": 4056,
      "åĹ": 4057,
      "concentr": 4058,
      "hyper": 4059,
      "ry": 4060,
      "è¿ĻéĩĮ": 4061,
      "simil": 4062,
      "identified": 4063,
      "ude": 4064,
      "suggest": 4065,
      "frequ": 4066,
      "sph": 4067,
      "è½¨": 4068,
      "è§£æĶ¾": 4069,
      "MI": 4070,
      "rele": 4071,
      "sever": 4072,
      "contrib": 4073,
      "è¿Ĳè¾ĵ": 4074,
      "iter": 4075,
      "æ³ķå®ļ": 4076,
      "vo": 4077,
      "å¤ĸäº¤": 4078,
      "è¯ĬæĸŃ": 4079,
      "onal": 4080,
      "åĦĴ": 4081,
      "lab": 4082,
      "åĮħåĽ´": 4083,
      "çľŁçĶ°": 4084,
      "ateg": 4085,
      "åħ¬æĸ¹": 4086,
      "åĪĽä¸ļ": 4087,
      "proteins": 4088,
      "å¡ĳ": 4089,
      "é«ĺæķĪ": 4090,
      "åıĳè¾¾": 4091,
      "åĬ¨çī©": 4092,
      "cogn": 4093,
      "åħģè®¸": 4094,
      "mac": 4095,
      "éĤ¦": 4096,
      "å¦Ĥä¸ĭ": 4097,
      "äººå·¥æĻºèĥ½": 4098,
      "æĹ¥çĽĬ": 4099,
      "æ¯ģ": 4100,
      "Med": 4101,
      "å®ļä½į": 4102,
      "æ¶Īè´¹èĢħ": 4103,
      "ks": 4104,
      "å·¦åį«éĹ¨": 4105,
      "vent": 4106,
      "èĶ": 4107,
      "åķĨæłĩ": 4108,
      "éĢĨ": 4109,
      "nec": 4110,
      "åĳĪçİ°": 4111,
      "ç»ĵæĿŁ": 4112,
      "men": 4113,
      "æĢģåº¦": 4114,
      "å·¥èīº": 4115,
      "è¿ĶåĽŀ": 4116,
      "ä¸»é¢ĺ": 4117,
      "çİĩé¢Ĩ": 4118,
      "å£¤": 4119,
      "æ¬§æ´²": 4120,
      "order": 4121,
      "çĲĨæĢ§": 4122,
      "vol": 4123,
      "çĥ§": 4124,
      "78": 4125,
      "æĽ´ä¸º": 4126,
      "ä»¿": 4127,
      "åĩłä¹İ": 4128,
      "fy": 4129,
      "ä»²è£ģ": 4130,
      "trib": 4131,
      "ä¿Ħ": 4132,
      "æ¶¯": 4133,
      "ques": 4134,
      "further": 4135,
      "information": 4136,
      "è¯±": 4137,
      "determin": 4138,
      "çĪ¶åŃĲ": 4139,
      "çł´åĿı": 4140,
      "çķłå±±": 4141,
      "GA": 4142,
      "æģĴ": 4143,
      "åĽĽä¸ª": 4144,
      "ãĢĲ": 4145,
      "æ´ŀ": 4146,
      "æĮ¯åħ´": 4147,
      "åĪĽå»º": 4148,
      "çī©æµģ": 4149,
      "å¤ļåħĥ": 4150,
      "lower": 4151,
      "mater": 4152,
      "è¦ĨçĽĸ": 4153,
      "ãĢĳ": 4154,
      "ression": 4155,
      "çĤ®": 4156,
      "ä¿Ĭ": 4157,
      "ditional": 4158,
      "åĬłå¤§": 4159,
      "ç±»ä¼¼": 4160,
      "describ": 4161,
      "åıĤæķ°": 4162,
      "poly": 4163,
      "fer": 4164,
      "similar": 4165,
      "total": 4166,
      "ä¸īæĪĲ": 4167,
      "äººæ°ĳåħ±åĴĮåĽ½": 4168,
      "cho": 4169,
      "æĸĩç«ł": 4170,
      "æĦŁæŁĵ": 4171,
      "vascular": 4172,
      "åįĩçº§": 4173,
      "addition": 4174,
      "IF": 4175,
      "flu": 4176,
      "ning": 4177,
      "ural": 4178,
      "å¾Ĺä»¥": 4179,
      "population": 4180,
      "ç¿Į": 4181,
      "uce": 4182,
      "erest": 4183,
      "pack": 4184,
      "å½©": 4185,
      "ç¾İåħĥ": 4186,
      "çĶŁæ¶¯": 4187,
      "common": 4188,
      "cording": 4189,
      "è¯´æ³ķ": 4190,
      "yo": 4191,
      "æĹ¥è¯Ń": 4192,
      "çĽ¸ç»ĵåĲĪ": 4193,
      "obt": 4194,
      "ç±į": 4195,
      "ently": 4196,
      "äº¤æį¢": 4197,
      "éļľç¢į": 4198,
      "OS": 4199,
      "ç£¨": 4200,
      "æ£Ģå¯Ł": 4201,
      "read": 4202,
      "æī©å¼ł": 4203,
      "æĬĳåĪ¶": 4204,
      "å¤ļå¹´": 4205,
      "67": 4206,
      "èģĮèĥ½": 4207,
      "æ¡£": 4208,
      "åģļåĩº": 4209,
      "æµ·æ´ĭ": 4210,
      "è¶Ĭåīį": 4211,
      "è¿ŀç»Ń": 4212,
      "é©±åĬ¨": 4213,
      "łéģĵ": 4214,
      "gi": 4215,
      "æ¢ģ": 4216,
      "ä¸Ńåįİäººæ°ĳåħ±åĴĮåĽ½": 4217,
      "erg": 4218,
      "éĿĴå¹´": 4219,
      "radi": 4220,
      "sist": 4221,
      "çºłçº·": 4222,
      "ross": 4223,
      "æ°ĶåĢĻ": 4224,
      "åĳ¢": 4225,
      "Ac": 4226,
      "approach": 4227,
      "åĮºåĪ«": 4228,
      "CS": 4229,
      "å¤§å°Ĩ": 4230,
      "EM": 4231,
      "------------": 4232,
      "ä¸ĵéĹ¨": 4233,
      "ä¼į": 4234,
      "å±ŀæĢ§": 4235,
      "éħ¶": 4236,
      "neg": 4237,
      "åĮ»åŃ¦": 4238,
      "æĭħä¿Ŀ": 4239,
      "ord": 4240,
      "temp": 4241,
      "åĩºåı£": 4242,
      "æŃ»äº¡": 4243,
      "æľºæ¢°": 4244,
      "è´·æ¬¾": 4245,
      "æĶ¹éĢł": 4246,
      "å½ĵä»£": 4247,
      "èľ": 4248,
      "åħļåĳĺ": 4249,
      "åį±éĻ©": 4250,
      "æıŃ": 4251,
      "æĦıåĳ³çĿĢ": 4252,
      "havi": 4253,
      "mpto": 4254,
      "åĩºçĶŁ": 4255,
      "äºĪä»¥": 4256,
      "tech": 4257,
      "æĺİæĻº": 4258,
      "åĨł": 4259,
      "å®¿": 4260,
      "æ¸©åº¦": 4261,
      "å¯¹æĬĹ": 4262,
      "fication": 4263,
      "åĴĮè°Ĳ": 4264,
      "las": 4265,
      "ä¿®æĶ¹": 4266,
      "æŁĲäºĽ": 4267,
      "ä¹ĭå¤ĸ": 4268,
      "âĢĻ": 4269,
      "review": 4270,
      "æ°ĳæ³ķ": 4271,
      "vit": 4272,
      "èĻļæĭŁ": 4273,
      "åĪ¶éĢłä¸ļ": 4274,
      "åĩłä¸ª": 4275,
      "åįģäºĶ": 4276,
      "PP": 4277,
      "while": 4278,
      "éĺħè¯»": 4279,
      "åĪĿæľŁ": 4280,
      "éĺ²æŃ¢": 4281,
      "èĬĤçĤ¹": 4282,
      "äºīè®®": 4283,
      "éŁ³ä¹Ĳ": 4284,
      "èĲ¨": 4285,
      "å¡ŀ": 4286,
      "èµĦæľ¬ä¸»ä¹ī": 4287,
      "æ¥ļ": 4288,
      "Â°": 4289,
      "åĲĮä¸Ģ": 4290,
      "è½¬è®©": 4291,
      "åĿĲ": 4292,
      "å®ıè§Ĥ": 4293,
      "about": 4294,
      "åħµåĬĽ": 4295,
      "åĢ¡": 4296,
      "åı¤ä»£": 4297,
      "ta": 4298,
      "ç¨»": 4299,
      "ç»´æĮģ": 4300,
      "57": 4301,
      "çĶŁæĪĲ": 4302,
      "though": 4303,
      "AL": 4304,
      "sensi": 4305,
      "å²Ĺ": 4306,
      "pression": 4307,
      "survi": 4308,
      "å¼ķåıĳ": 4309,
      "ds": 4310,
      "è·¯çº¿": 4311,
      "å»ºæĪĲ": 4312,
      "åŁ¹èĤ²": 4313,
      "acid": 4314,
      "è°ĥèĬĤ": 4315,
      "æ¢¦": 4316,
      "æ¾Ħ": 4317,
      "oral": 4318,
      "should": 4319,
      "68": 4320,
      "å·©": 4321,
      "è´«åĽ°": 4322,
      "åĲ¸æĶ¶": 4323,
      "lymp": 4324,
      "vention": 4325,
      "èįĴ": 4326,
      "ulin": 4327,
      "among": 4328,
      "69": 4329,
      "åĬ©äºİ": 4330,
      "åľ£": 4331,
      "åįıåķĨ": 4332,
      "åı²æĸĻ": 4333,
      "å¦ĩ": 4334,
      "æĩ": 4335,
      "ities": 4336,
      "æķ°æį®åºĵ": 4337,
      "PS": 4338,
      "resist": 4339,
      "tivity": 4340,
      "åıĺéĩı": 4341,
      "vere": 4342,
      "ç¨İæĶ¶": 4343,
      "å¹¿å¤§": 4344,
      "æĶ¶éĽĨ": 4345,
      "expo": 4346,
      "ft": 4347,
      "éĽ¨": 4348,
      "ET": 4349,
      "children": 4350,
      "æľīçĿĢ": 4351,
      "åĩŃ": 4352,
      "ä¸Ĭåįĩ": 4353,
      "2017": 4354,
      "åģļå¥½": 4355,
      "differenti": 4356,
      "å¼ºåĪ¶": 4357,
      "åĪĬ": 4358,
      "æ¿ĢåĬ±": 4359,
      "whe": 4360,
      "mus": 4361,
      "è®¯": 4362,
      "did": 4363,
      "PCR": 4364,
      "è¾¨": 4365,
      "åĽ¾åĥı": 4366,
      "åłĢ": 4367,
      "ç»ıæµİç¤¾ä¼ļ": 4368,
      "ä¿¡æģ¯åĮĸ": 4369,
      "due": 4370,
      "åŁºåľ°": 4371,
      "ç¾½æŁ´": 4372,
      "ult": 4373,
      "mg": 4374,
      "many": 4375,
      "èªī": 4376,
      "represent": 4377,
      "jor": 4378,
      "58": 4379,
      "spital": 4380,
      "å¹¡": 4381,
      "è¡Įä½¿": 4382,
      "å§»": 4383,
      "ä¸Ĭæ´Ľ": 4384,
      "ãģ®": 4385,
      "å¯Ħ": 4386,
      "åħĦå¼Ł": 4387,
      "evidence": 4388,
      "äºĭçī©": 4389,
      "è´´": 4390,
      "å°ĳæķ°": 4391,
      "primary": 4392,
      "ä¸Ĭéĩİ": 4393,
      "All": 4394,
      "è¿Ŀåıį": 4395,
      "package": 4396,
      "å«¡åŃĲ": 4397,
      "å¹´äºº": 4398,
      "2021": 4399,
      "è½¬æį¢": 4400,
      "å·©åĽº": 4401,
      "éĤ»": 4402,
      "éķ¿æĶ¿": 4403,
      "åįģä¸ĥ": 4404,
      "genic": 4405,
      "è¾¾æĪĲ": 4406,
      "LA": 4407,
      "åĺī": 4408,
      "promo": 4409,
      "å£ģ": 4410,
      "2018": 4411,
      "çº¦æĿŁ": 4412,
      "çĸ«æĥħ": 4413,
      "Me": 4414,
      "é¢Ħéĺ²": 4415,
      "ä¸Ģéĥ¨åĪĨ": 4416,
      "æķĪçĽĬ": 4417,
      "nucle": 4418,
      "å¯¿": 4419,
      "following": 4420,
      "ences": 4421,
      "è¿ĽèĢĮ": 4422,
      "è£ķ": 4423,
      "åģļåĪ°": 4424,
      "éªıæ²³": 4425,
      "down": 4426,
      "clo": 4427,
      "ä»»åĳ½": 4428,
      "ger": 4429,
      "æĹ¦": 4430,
      "è¢«åĳĬ": 4431,
      "å¤§åĬĽ": 4432,
      "cu": 4433,
      "å¤Ħç½ļ": 4434,
      "value": 4435,
      "æ´ģ": 4436,
      "early": 4437,
      "è¿ĲèĲ¥": 4438,
      "behavi": 4439,
      "ator": 4440,
      "å°ıçĶ°åİŁ": 4441,
      "acti": 4442,
      "transcrip": 4443,
      "è¯ģåĪ¸": 4444,
      "Cs": 4445,
      "çīĽ": 4446,
      "å¾·åĽ½": 4447,
      "åıĻ": 4448,
      "56": 4449,
      "èĥľèµĸ": 4450,
      "values": 4451,
      "ç«Ł": 4452,
      "éĿ¢ç§¯": 4453,
      "ä¸ĬæĿīè°¦ä¿¡": 4454,
      "èĢķ": 4455,
      "çİ°æľī": 4456,
      "è¾ŀ": 4457,
      "æ£ĢéªĮ": 4458,
      "åħ³èģĶ": 4459,
      "psy": 4460,
      "åħ¶å®ŀ": 4461,
      "cir": 4462,
      "same": 4463,
      "æĶ¯éħį": 4464,
      "å¯¼åĲĳ": 4465,
      "åį³ä½¿": 4466,
      "ï¼į": 4467,
      "åĮĹæĿ¡æ°ı": 4468,
      "æĶ¹è¿Ľ": 4469,
      "äº®": 4470,
      "æľĿå»·": 4471,
      "è®¨ä¼Ĳ": 4472,
      "åı³åį«": 4473,
      "æĻ¶": 4474,
      "ä»£çĲĨ": 4475,
      "RT": 4476,
      "DP": 4477,
      "auth": 4478,
      "éĿ¢åĲĳ": 4479,
      "amet": 4480,
      "å¹´éĹ´": 4481,
      "å¿½": 4482,
      "second": 4483,
      "åĥ§": 4484,
      "åĲĮæĦı": 4485,
      "ä¹ĭä¸ĭ": 4486,
      "å®ŀåĬĽ": 4487,
      "åħ±åĲĮä½ĵ": 4488,
      "å¾ģä¼Ĳ": 4489,
      "æĬķéĻį": 4490,
      "diab": 4491,
      "æİĺ": 4492,
      "examin": 4493,
      "ä¸įåĨį": 4494,
      "å¤§å¤ļæķ°": 4495,
      "findings": 4496,
      "versity": 4497,
      "æľ±": 4498,
      "without": 4499,
      "é¢Ĩä¸»": 4500,
      "metabol": 4501,
      "would": 4502,
      "å¤§è§Ħæ¨¡": 4503,
      "NP": 4504,
      "ç»ĦåĲĪ": 4505,
      "prof": 4506,
      "respectively": 4507,
      "æī§æ³ķ": 4508,
      "pan": 4509,
      "omen": 4510,
      "uction": 4511,
      "æĶ¿å®Ĺ": 4512,
      "æ´¾éģ£": 4513,
      "ç²®é£Ł": 4514,
      "æķ¢": 4515,
      "åħ¶æ¬¡": 4516,
      "èį·": 4517,
      "å£®": 4518,
      "éĽ·": 4519,
      "ä¸īæĺ¯": 4520,
      "compar": 4521,
      "é¢ģ": 4522,
      "matory": 4523,
      "described": 4524,
      "lung": 4525,
      "major": 4526,
      "âĢĺ": 4527,
      "2016": 4528,
      "åĨ¬": 4529,
      "active": 4530,
      "æĭĴç»Ŀ": 4531,
      "åĳ½è¿Ĳ": 4532,
      "ç§¦": 4533,
      "MA": 4534,
      "direct": 4535,
      "çĶ¨äºº": 4536,
      "åī©": 4537,
      "genetic": 4538,
      "åĬĽåº¦": 4539,
      "åľŁå£¤": 4540,
      "è®¸åı¯": 4541,
      "è¾īåħĥ": 4542,
      "çħ¤": 4543,
      "è¥¿åĨĽ": 4544,
      "ä¸Ŀ": 4545,
      "occur": 4546,
      "like": 4547,
      "month": 4548,
      "æī§æĶ¿": 4549,
      "æ¡ĥå±±": 4550,
      "æ¿Ģåıĳ": 4551,
      "ä¼łè¾ĵ": 4552,
      "æĪĲçĨŁ": 4553,
      "ä½ĵèĤ²": 4554,
      "çķª": 4555,
      "æİ¨å¹¿": 4556,
      "çŃīçŃī": 4557,
      "complex": 4558,
      "correl": 4559,
      "2019": 4560,
      "åĽĽå¹´": 4561,
      "å¥ĳ": 4562,
      "å¤§å°ı": 4563,
      "çº¸": 4564,
      "æ³¨åĨĮ": 4565,
      "Ne": 4566,
      "ä»°": 4567,
      "åĪ©çİĩ": 4568,
      "wee": 4569,
      "vide": 4570,
      "æĸĩåŃĹ": 4571,
      "99": 4572,
      "ç®¡é¢Ĩ": 4573,
      "day": 4574,
      "2015": 4575,
      "SS": 4576,
      "èĥ½éĩı": 4577,
      "é¦ĸæ¬¡": 4578,
      "éĴŁ": 4579,
      "chron": 4580,
      "fam": 4581,
      "æĹħæ¸¸": 4582,
      "è·Ŀç¦»": 4583,
      "éĺŁä¼į": 4584,
      "åħŃè§Ĵ": 4585,
      "è´Ńä¹°": 4586,
      "åįķåħĥ": 4587,
      "åĪĨç¦»": 4588,
      "éĽĨæĪĲ": 4589,
      "æĹ©å·Ŀ": 4590,
      "é¡¿": 4591,
      "differences": 4592,
      "ç§»åĬ¨": 4593,
      "å¸¸è§ģ": 4594,
      "åı¯éĿł": 4595,
      "æįķ": 4596,
      "åĬĿ": 4597,
      "çĮĽ": 4598,
      "influ": 4599,
      "åĪ¤åĨ³": 4600,
      "æĭľ": 4601,
      "çĶŁåŃĺ": 4602,
      "åħļåĴĮ": 4603,
      "å¤±åİ»": 4604,
      "state": 4605,
      "usepackage": 4606,
      "åĪĴåĪĨ": 4607,
      "å¯ĨåĪĩ": 4608,
      "å¯¹åºĶ": 4609,
      "æĪª": 4610,
      "LC": 4611,
      "èµ°åĲĳ": 4612,
      "ety": 4613,
      "åĪ©æ¶¦": 4614,
      "ow": 4615,
      "Uni": 4616,
      "ç´łåħ»": 4617,
      "ä¾ĿéĿł": 4618,
      "decreas": 4619,
      "ä¸Ģå¹´": 4620,
      "oma": 4621,
      "é¥°": 4622,
      "çĶŁéķ¿": 4623,
      "trial": 4624,
      "äººåĬĽ": 4625,
      "æĿĥå¨ģ": 4626,
      "åŃ©": 4627,
      "åĪĽä½ľ": 4628,
      "ä»·åĢ¼è§Ĥ": 4629,
      "æ¡ĥå±±æĹ¶ä»£": 4630,
      "åħĥç´ł": 4631,
      "è¿ĳå¹´æĿ¥": 4632,
      "æīĢå¾Ĺ": 4633,
      "æľŁéĻĲ": 4634,
      "å°¿": 4635,
      "design": 4636,
      "æ¯«": 4637,
      "æģĲ": 4638,
      "èĭĹ": 4639,
      "ä¹Ļ": 4640,
      "çĶµæ±ł": 4641,
      "sympto": 4642,
      "inflammatory": 4643,
      "ward": 4644,
      "èĥ¤": 4645,
      "è§Ĵèī²": 4646,
      "whether": 4647,
      "èĸĦ": 4648,
      "æ´»æĢ§": 4649,
      "HC": 4650,
      "animal": 4651,
      "avail": 4652,
      "éĿŀæ³ķ": 4653,
      "auto": 4654,
      "79": 4655,
      "éĢļçŁ¥": 4656,
      "OR": 4657,
      "è¡¥åģ¿": 4658,
      "åĬłä»¥": 4659,
      "æ»¨": 4660,
      "ä¸Ģä»£": 4661,
      "æľīåĬ©äºİ": 4662,
      "IC": 4663,
      "èĤī": 4664,
      "åįĴ": 4665,
      "mit": 4666,
      "éģŃåĪ°": 4667,
      "acc": 4668,
      "è¿Ľå±ķ": 4669,
      "åīįçĶ°": 4670,
      "èķ": 4671,
      "HIV": 4672,
      "æĭĵå±ķ": 4673,
      "èĩªè§ī": 4674,
      "äºĭæķħ": 4675,
      "æ°¢": 4676,
      "åı¬å¼Ģ": 4677,
      "culture": 4678,
      "tox": 4679,
      "ways": 4680,
      "é¥Ń": 4681,
      "å®īåľŁæ¡ĥå±±æĹ¶ä»£": 4682,
      "æ¶Īæģ¯": 4683,
      "å²³": 4684,
      "ç»ĵè®º": 4685,
      "molec": 4686,
      "è¾ĵåĩº": 4687,
      "çģŃäº¡": 4688,
      "right": 4689,
      "åĤ¬": 4690,
      "éģµå¾ª": 4691,
      "IS": 4692,
      "çº¤": 4693,
      "ä½³": 4694,
      "ä¸įä¹ħ": 4695,
      "æĥħæĦŁ": 4696,
      "æĻĭ": 4697,
      "ade": 4698,
      "ately": 4699,
      "å¢ĵ": 4700,
      "nal": 4701,
      "å°ıæĹ©å·Ŀ": 4702,
      "ä¸¾è¡Į": 4703,
      "å¨ģèĥģ": 4704,
      "thelial": 4705,
      "gl": 4706,
      "éª¤": 4707,
      "å¤±è´¥": 4708,
      "è¯¾é¢ĺ": 4709,
      "äºĭé¡¹": 4710,
      "til": 4711,
      "logy": 4712,
      "æ°¸æŃ£": 4713,
      "ä¸½": 4714,
      "miR": 4715,
      "æĸ¹éĴĪ": 4716,
      "åĳĺå·¥": 4717,
      "éĢĿ": 4718,
      "å¯¹æŃ¤": 4719,
      "sin": 4720,
      "æ²¼": 4721,
      "loc": 4722,
      "HD": 4723,
      "æķĪåĬĽ": 4724,
      "reduced": 4725,
      "æ°ĳéĹ´": 4726,
      "è¾ĵåħ¥": 4727,
      "adi": 4728,
      "ditions": 4729,
      "66": 4730,
      "å¹¼åĦ¿": 4731,
      "Di": 4732,
      "æ´»è·ĥ": 4733,
      "äº¿åħĥ": 4734,
      "èĭ¥å¹²": 4735,
      "lished": 4736,
      "enh": 4737,
      "ä¸ľè¥¿": 4738,
      "gu": 4739,
      "å½¢è±¡": 4740,
      "å°Ĭéĩį": 4741,
      "ä½¿åĳ½": 4742,
      "åħĪåĲİ": 4743,
      "IT": 4744,
      "dist": 4745,
      "left": 4746,
      "collec": 4747,
      "å´ĩ": 4748,
      "åĲĮçĽŁ": 4749,
      "sugges": 4750,
      "net": 4751,
      "éĩĳå±ŀ": 4752,
      "02": 4753,
      "æĪĲéķ¿": 4754,
      "åıªè¦ģ": 4755,
      "regulation": 4756,
      "yn": 4757,
      "åĮ¹": 4758,
      "ç¼´": 4759,
      "59": 4760,
      "ç»Ŀå¯¹": 4761,
      "é¥®": 4762,
      "æī©å±ķ": 4763,
      "èĤ¡æĿĥ": 4764,
      "models": 4765,
      "è¾ĥä¸º": 4766,
      "hel": 4767,
      "play": 4768,
      "ä¼łæĦŁ": 4769,
      "ä½Ĳç«¹": 4770,
      "èī°": 4771,
      "2000": 4772,
      "æĸ©": 4773,
      "è±Ĩ": 4774,
      "âī": 4775,
      "æīĵéĢł": 4776,
      "signaling": 4777,
      "eu": 4778,
      "ä¸ĢåĲĳ": 4779,
      "defin": 4780,
      "included": 4781,
      "æĭĶ": 4782,
      "åĲĦé¡¹": 4783,
      "De": 4784,
      "åĨħåľ¨": 4785,
      "éģĹäº§": 4786,
      "é©¾": 4787,
      "æľ¬æĦ¿": 4788,
      "equ": 4789,
      "å¦Ļ": 4790,
      "è¡¥åħħ": 4791,
      "conditions": 4792,
      "æĸ°éĹ»": 4793,
      "èµ¢": 4794,
      "éĢĤå½ĵ": 4795,
      "éªĮè¯ģ": 4796,
      "å§¬": 4797,
      "rat": 4798,
      "å®¡åĪ¤": 4799,
      "åħ¨ä¼ļ": 4800,
      "stic": 4801,
      "ither": 4802,
      "çĶĺ": 4803,
      "çĵ¦": 4804,
      "åħ´è¶£": 4805,
      "å¤ļæ¬¡": 4806,
      "åıĳè¡Į": 4807,
      "erence": 4808,
      "èĢĥæł¸": 4809,
      "çĶŁäº§åĬĽ": 4810,
      "æľ¬æĦ¿å¯º": 4811,
      "å®īèīº": 4812,
      "diagnosis": 4813,
      "material": 4814,
      "è°ģ": 4815,
      "äºĴåĬ¨": 4816,
      "é²ģ": 4817,
      "æİ¢è®¨": 4818,
      "change": 4819,
      "enz": 4820,
      "çīĻ": 4821,
      "åħµåį«": 4822,
      "æŁ³": 4823,
      "presence": 4824,
      "é±": 4825,
      "ann": 4826,
      "éĶģ": 4827,
      "çŁ©": 4828,
      "åľºæĻ¯": 4829,
      "èĥ¡": 4830,
      "lifer": 4831,
      "days": 4832,
      "æ¨¡åĿĹ": 4833,
      "åĲĦèĩª": 4834,
      "binding": 4835,
      "ä¸ĩåħĥ": 4836,
      "ism": 4837,
      "ä¼¸": 4838,
      "recent": 4839,
      "å¼ºåĽ½": 4840,
      "è°ĥæİ§": 4841,
      "ç¬ł": 4842,
      "ä¸ºä»Ģä¹Ī": 4843,
      "obtained": 4844,
      "é±¼": 4845,
      "range": 4846,
      "64": 4847,
      "genesis": 4848,
      "åīĬ": 4849,
      "ä½ľä¸ļ": 4850,
      "03": 4851,
      "isol": 4852,
      "negative": 4853,
      "æĿ¡æ¬¾": 4854,
      "period": 4855,
      "å»ī": 4856,
      "æĳĨ": 4857,
      "å¢¨": 4858,
      "æĸĩç¦Ħ": 4859,
      "Sup": 4860,
      "ä¸§": 4861,
      "è¡£": 4862,
      "72": 4863,
      "æľīäºĽ": 4864,
      "äº«æľī": 4865,
      "AS": 4866,
      "ä¸ĢçĤ¹": 4867,
      "ç»ª": 4868,
      "transp": 4869,
      "æŁ±": 4870,
      "éĻ·åħ¥": 4871,
      "è§£éĻ¤": 4872,
      "èĩªä¿¡": 4873,
      "mRNA": 4874,
      "lik": 4875,
      "æĥŁ": 4876,
      "ml": 4877,
      "local": 4878,
      "phosph": 4879,
      "ç§¯ç´¯": 4880,
      "BS": 4881,
      "ive": 4882,
      "ç¬¬ä¸Ģæ¬¡": 4883,
      "sit": 4884,
      "æĻ¯èĥľ": 4885,
      "å®ŀéªĮå®¤": 4886,
      "èĥĢ": 4887,
      "çĶµè·¯": 4888,
      "æī¹åĩĨ": 4889,
      "survival": 4890,
      "single": 4891,
      "èĦĤ": 4892,
      "particular": 4893,
      "ç¬¬åħŃ": 4894,
      "ä¸ĢæĹı": 4895,
      "èµ´": 4896,
      "è¿Ł": 4897,
      "Health": 4898,
      "emp": 4899,
      "åŀĦ": 4900,
      "æŀ¶æŀĦ": 4901,
      "æ¨¡æĭŁ": 4902,
      "æĹ¥å¸¸": 4903,
      "ä¸Ģè·¯": 4904,
      "æŁĲç§į": 4905,
      "52": 4906,
      "æī£": 4907,
      "æģ°": 4908,
      "æºĥ": 4909,
      "because": 4910,
      "å¼Ĥå¸¸": 4911,
      "è®¿éĹ®": 4912,
      "come": 4913,
      "æī«": 4914,
      "éĢ¼": 4915,
      "æĿ¡ä¾ĭ": 4916,
      "å¹¶æľª": 4917,
      "èĥ¶": 4918,
      "face": 4919,
      "å¥ł": 4920,
      "éĻĦè¿ĳ": 4921,
      "çĶµåĬĽ": 4922,
      "ç¦ģæŃ¢": 4923,
      "èĦı": 4924,
      "äººå¤§": 4925,
      "å¡Ķ": 4926,
      "prolifer": 4927,
      "expressed": 4928,
      "åĩºèº«": 4929,
      "åĩ¡": 4930,
      "pattern": 4931,
      "Ca": 4932,
      "provide": 4933,
      "åħ»èĢģ": 4934,
      "äººæīįåŁ¹åħ»": 4935,
      "éĴ¢": 4936,
      "çīµ": 4937,
      "gly": 4938,
      "èĤ¯": 4939,
      "ä»Ĭå¤©": 4940,
      "ç¾½æŁ´ç§ĢåĲī": 4941,
      "è¿ĳä»£": 4942,
      "51": 4943,
      "å¤§éĥ¨åĪĨ": 4944,
      "è¡Ģç®¡": 4945,
      "NS": 4946,
      "ä¸įå°ĳ": 4947,
      "åŀĦæĸŃ": 4948,
      "å§Ķæīĺ": 4949,
      "again": 4950,
      "æĥ©": 4951,
      "èĦļ": 4952,
      "èĢĥå¯Ł": 4953,
      "RS": 4954,
      "èµł": 4955,
      "åĵįåºĶ": 4956,
      "xim": 4957,
      "ç»ıå¸¸": 4958,
      "å¼ķåħ¥": 4959,
      "çĶŁæĢģçİ¯å¢ĥ": 4960,
      "æĪĳéĥ¨": 4961,
      "BP": 4962,
      "vs": 4963,
      "Tr": 4964,
      "æĮĤ": 4965,
      "mechanisms": 4966,
      "æĶ»æīĵ": 4967,
      "serum": 4968,
      "support": 4969,
      "measured": 4970,
      "éĤ£äºĽ": 4971,
      "sample": 4972,
      "ç»ĩçĶ°ä¿¡": 4973,
      "size": 4974,
      "88": 4975,
      "independent": 4976,
      "several": 4977,
      "2014": 4978,
      "é¢ĦæľŁ": 4979,
      "involved": 4980,
      "æĢĿè·¯": 4981,
      "uted": 4982,
      "ä¸ªäººä¿¡æģ¯": 4983,
      "54": 4984,
      "æĪĺåľº": 4985,
      "popto": 4986,
      "çĲĨçĶ±": 4987,
      "æĪĺåĲİ": 4988,
      "63": 4989,
      "quanti": 4990,
      "ily": 4991,
      "æĭ¿": 4992,
      "åħ¨ä½ĵ": 4993,
      "åĵĪ": 4994,
      "æ¸łéģĵ": 4995,
      "æľĢåĪĿ": 4996,
      "ä¾Ŀçħ§": 4997,
      "phys": 4998,
      "èµ¶": 4999,
      "oper": 5000,
      "que": 5001,
      "æ¹¿": 5002,
      "multiple": 5003,
      "ä¼łæī¿": 5004,
      "ä¸ĭæĿ¥": 5005,
      "å·¥èµĦ": 5006,
      "prot": 5007,
      "åĪĳæ³ķ": 5008,
      "æ´»åĬĽ": 5009,
      "é¢Ħç®Ĺ": 5010,
      "æķħäºĭ": 5011,
      "bal": 5012,
      "medical": 5013,
      "éĺª": 5014,
      "mation": 5015,
      "æľīäºº": 5016,
      "äº¤æĪĺ": 5017,
      "statis": 5018,
      "ç«ĭåľº": 5019,
      "ä¸Ģæī¹": 5020,
      "æ··åĲĪ": 5021,
      "En": 5022,
      "glu": 5023,
      "åĬłéĢŁ": 5024,
      "membr": 5025,
      "ç¤ºèĮĥ": 5026,
      "èµĽ": 5027,
      "acy": 5028,
      "éķ¿å®Ĺ": 5029,
      "ked": 5030,
      "ä¼ª": 5031,
      "how": 5032,
      "ä½ĵéªĮ": 5033,
      "å¥Ī": 5034,
      "æŀģå¤§": 5035,
      "Ig": 5036,
      "etes": 5037,
      "ä¹ĭéĻħ": 5038,
      "æ¸Ĺ": 5039,
      "Af": 5040,
      "åľĪ": 5041,
      "case": 5042,
      "å¥ı": 5043,
      "å¼ºåº¦": 5044,
      "å¤§åĨĽ": 5045,
      "reast": 5046,
      "MO": 5047,
      "ç²¾åĩĨ": 5048,
      "rece": 5049,
      "150": 5050,
      "NO": 5051,
      "é»ĳçĶ°": 5052,
      "77": 5053,
      "é¦Ļæ¸¯": 5054,
      "500": 5055,
      "ä¹īåħĥ": 5056,
      "çº¹": 5057,
      "æĸ°åħ´": 5058,
      "vant": 5059,
      "åĵªäºĽ": 5060,
      "æ¬¢": 5061,
      "large": 5062,
      "ç¦»åŃĲ": 5063,
      "ä¹łæĥ¯": 5064,
      "ults": 5065,
      "Further": 5066,
      "ä¾ĽåºĶéĵ¾": 5067,
      "èĥľå®¶": 5068,
      "å±ķç¤º": 5069,
      "çĶ¨äººåįķä½į": 5070,
      "èļ": 5071,
      "éķ¿å®ĹæĪĳéĥ¨": 5072,
      "èĳĹä½ľ": 5073,
      "å¥¹": 5074,
      "demonstrated": 5075,
      "ä¿¡æģ¯æĬĢæľ¯": 5076,
      "bodies": 5077,
      "åįĹéĥ¨": 5078,
      "62": 5079,
      "æľªèĥ½": 5080,
      "å°ģå»º": 5081,
      "å¿į": 5082,
      "åıĳåĩº": 5083,
      "ni": 5084,
      "graph": 5085,
      "éĺģ": 5086,
      "æīİ": 5087,
      "å°ıç»Ħ": 5088,
      "veal": 5089,
      "ä¸įè¯¦": 5090,
      "åį±å®³": 5091,
      "liver": 5092,
      "before": 5093,
      "å¯Įè£ķ": 5094,
      "ä¼Ļ": 5095,
      "functional": 5096,
      "åĳ¨è¾¹": 5097,
      "University": 5098,
      "äº«å¹´": 5099,
      "interest": 5100,
      "åĢ¼å¾Ĺ": 5101,
      "åħĪéĶĭ": 5102,
      "æĤī": 5103,
      "side": 5104,
      "els": 5105,
      "neurons": 5106,
      "èĳ£": 5107,
      "è²": 5108,
      "è½´": 5109,
      "å·¥äºº": 5110,
      "diseases": 5111,
      "apopto": 5112,
      "ä¸Ģä½ĵåĮĸ": 5113,
      "åįıåĬ©": 5114,
      "ç«ĭåį³": 5115,
      "py": 5116,
      "æİ¢ç©¶": 5117,
      "aren": 5118,
      "âĳł": 5119,
      "thesis": 5120,
      "çĿĢåĬĽ": 5121,
      "ï½ŀ": 5122,
      "å±±åĲį": 5123,
      "ä¹ĭåıĺ": 5124,
      "æī¿è®¤": 5125,
      "æ¿ĳ": 5126,
      "ä»¥åīį": 5127,
      "èĳĹåĲį": 5128,
      "å¿Ĩ": 5129,
      "ä»£è¡¨å¤§ä¼ļ": 5130,
      "RP": 5131,
      "éģĹä¼ł": 5132,
      "æĪ¿å±ĭ": 5133,
      "atus": 5134,
      "æĽ´æĸ°": 5135,
      "èĢ³": 5136,
      "çģĮ": 5137,
      "æĿĨ": 5138,
      "æ¾³": 5139,
      "å¦¹": 5140,
      "appe": 5141,
      "éķ¿åŃĲ": 5142,
      "pathway": 5143,
      "èģĮåĬ¡": 5144,
      "standard": 5145,
      "ä¼łæĦŁåĻ¨": 5146,
      "available": 5147,
      "epi": 5148,
      "glo": 5149,
      "actions": 5150,
      "å±ħä½ı": 5151,
      "æĦĪ": 5152,
      "2013": 5153,
      "å¸Ĥåľºç»ıæµİ": 5154,
      "äº²èĩª": 5155,
      "åŃ¤": 5156,
      "ç´§å¯Ĩ": 5157,
      "æľ¬èĥ½": 5158,
      "è¯ķåĽ¾": 5159,
      "mine": 5160,
      "åĹ£": 5161,
      "previously": 5162,
      "abs": 5163,
      "ound": 5164,
      "çĤ¼": 5165,
      "æĶ¯åĩº": 5166,
      "adj": 5167,
      "èĢĥè¯ķ": 5168,
      "reveal": 5169,
      "æĮĩå®ļ": 5170,
      "å¤§åĴĮ": 5171,
      "åĲ¯åĬ¨": 5172,
      "73": 5173,
      "stress": 5174,
      "ics": 5175,
      "é«ĺçº§": 5176,
      "relations": 5177,
      "ample": 5178,
      "conduc": 5179,
      "çĳŀ": 5180,
      "mouse": 5181,
      "å¤ĦåĪĨ": 5182,
      "ä¸ĢæĹ¦": 5183,
      "perform": 5184,
      "responses": 5185,
      "distrib": 5186,
      "ä¸ĢéĹ¨": 5187,
      "æŃ£å½ĵ": 5188,
      "death": 5189,
      "verse": 5190,
      "èħº": 5191,
      "bar": 5192,
      "æĽ¿ä»£": 5193,
      "éī´å®ļ": 5194,
      "å®¶èĢģ": 5195,
      "ions": 5196,
      "å½»åºķ": 5197,
      "åĪĩå®ŀ": 5198,
      "åĪ¶ä½ľ": 5199,
      "bio": 5200,
      "åĮºåĪĨ": 5201,
      "viron": 5202,
      "identify": 5203,
      "ä¸įåĪ©": 5204,
      "æĮĸ": 5205,
      "æī¿åĮħ": 5206,
      "åħħåĪĨåıĳæĮ¥": 5207,
      "çĹĩçĬ¶": 5208,
      "class": 5209,
      "61": 5210,
      "anced": 5211,
      "ori": 5212,
      "å½¼": 5213,
      "lation": 5214,
      "éĽħ": 5215,
      "åĢºæĿĥäºº": 5216,
      "ä¸»ç®¡": 5217,
      "å°ļæľª": 5218,
      "result": 5219,
      "ä¼¦çĲĨ": 5220,
      "åħļåĨħ": 5221,
      "è¯ķçĤ¹": 5222,
      "åıĳèµ·": 5223,
      "ä¸»è§Ĥ": 5224,
      "imaging": 5225,
      "TT": 5226,
      "é¹¿": 5227,
      "éº»": 5228,
      "å¼Łå¼Ł": 5229,
      "son": 5230,
      "åŃ©åŃĲ": 5231,
      "çĭ¬çī¹": 5232,
      "æĢĴ": 5233,
      "åİŁæľ¬": 5234,
      "ied": 5235,
      "artic": 5236,
      "gluco": 5237,
      "å¥Ķ": 5238,
      "rati": 5239,
      "71": 5240,
      "term": 5241,
      "immuno": 5242,
      "åĽłåŃĲ": 5243,
      "æĴ¤éĢĢ": 5244,
      "LD": 5245,
      "characteris": 5246,
      "åĩºçīĪç¤¾": 5247,
      "cellular": 5248,
      "oid": 5249,
      "experiments": 5250,
      "either": 5251,
      "pur": 5252,
      "ç»©æķĪ": 5253,
      "EP": 5254,
      "EGF": 5255,
      "dered": 5256,
      "åħ¨åħļ": 5257,
      "åĬłä¸Ĭ": 5258,
      "ä¿®å¤į": 5259,
      "åĲİæľŁ": 5260,
      "chronic": 5261,
      "inten": 5262,
      "âĳ¡": 5263,
      "æĬµæĬ¼": 5264,
      "æŁ´çĶ°": 5265,
      "æĸ½å·¥": 5266,
      "allow": 5267,
      "æĶ»éĻ·": 5268,
      "being": 5269,
      "æ²ŁéĢļ": 5270,
      "ector": 5271,
      "å¹³å®ļ": 5272,
      "ä¸ľåĮĹ": 5273,
      "å±±åĨħ": 5274,
      "âĢķ": 5275,
      "ED": 5276,
      "inu": 5277,
      "light": 5278,
      "æĿ¨": 5279,
      "åĲĪæĪĲ": 5280,
      "æĺ¯åĽłä¸º": 5281,
      "æ¶ĪéĻ¤": 5282,
      "åľ°çĲĥ": 5283,
      "authors": 5284,
      "åĲīå·Ŀ": 5285,
      "methods": 5286,
      "program": 5287,
      "point": 5288,
      "breast": 5289,
      "æ¦": 5290,
      "might": 5291,
      "æİĪæĿĥ": 5292,
      "__": 5293,
      "æĻ°": 5294,
      "è¯¦ç»Ĩ": 5295,
      "è£ħå¤ĩ": 5296,
      "æıŃç¤º": 5297,
      "äººæ°ĳæĶ¿åºľ": 5298,
      "ä»ķäºİ": 5299,
      "å¤§éĺª": 5300,
      "possible": 5301,
      "éľ¸": 5302,
      "åĪºæ¿Ģ": 5303,
      "çŁ³çĶ°": 5304,
      "2012": 5305,
      "åħĥé¾Ł": 5306,
      "åĮºåĿĹ": 5307,
      "paramet": 5308,
      "Comp": 5309,
      "éĢĤåĲĪ": 5310,
      "éħįåĲĪ": 5311,
      "BC": 5312,
      "èĴ²": 5313,
      "æ»ŀ": 5314,
      "ä¹³": 5315,
      "loss": 5316,
      "pti": 5317,
      "individuals": 5318,
      "åĬłè´º": 5319,
      "understand": 5320,
      "åĪĿæŃ¥": 5321,
      "æĬµæĬĹ": 5322,
      "éªĹ": 5323,
      "Im": 5324,
      "æ¯ķä¸ļ": 5325,
      "åīįè¿Ľ": 5326,
      "å±ĢéĿ¢": 5327,
      "amine": 5328,
      "heart": 5329,
      "mu": 5330,
      "ele": 5331,
      "åĬ³åĬ¨åĬĽ": 5332,
      "éĻ¢æł¡": 5333,
      "vitro": 5334,
      "ä¸ľåĨĽ": 5335,
      "subjects": 5336,
      "æŃ¥éª¤": 5337,
      "ains": 5338,
      "æİ¥è§¦": 5339,
      "pec": 5340,
      "åķĨåĬ¡": 5341,
      "åĶ¯ä¸Ģ": 5342,
      "women": 5343,
      "ç§Ģå¿ł": 5344,
      "09": 5345,
      "ior": 5346,
      "2010": 5347,
      "insulin": 5348,
      "æĬ½è±¡": 5349,
      "èĢĲ": 5350,
      "æ¬¡åŃĲ": 5351,
      "ç«ŀäºīåĬĽ": 5352,
      "ç®Ń": 5353,
      "ä¸Ńåħ±ä¸Ńå¤®": 5354,
      "ury": 5355,
      "åĢ¾åĲĳ": 5356,
      "improve": 5357,
      "åĲįä¹ī": 5358,
      "äº§ä¸ļéĵ¾": 5359,
      "è²Į": 5360,
      "eral": 5361,
      "defic": 5362,
      "85": 5363,
      "try": 5364,
      "æĥĬ": 5365,
      "å¤§å®¶": 5366,
      "tumors": 5367,
      "æĶ¿åħļ": 5368,
      "considered": 5369,
      "è¯ŀ": 5370,
      "determine": 5371,
      "BM": 5372,
      "Cell": 5373,
      "è¡Ĺ": 5374,
      "æ¥¼": 5375,
      "flow": 5376,
      "bacter": 5377,
      "åĬŀçĲĨ": 5378,
      "ä¸Ģåº¦": 5379,
      "è¶Ĭä¸Ń": 5380,
      "èµĦæł¼": 5381,
      "æľ¬äºº": 5382,
      "å¤§å¹ħ": 5383,
      "ç¼ĸåĪ¶": 5384,
      "against": 5385,
      "æĦıæĢĿ": 5386,
      "omic": 5387,
      "çĨĬ": 5388,
      "èģĶåĨĽ": 5389,
      "ä»¥æŃ¤": 5390,
      "struct": 5391,
      "atin": 5392,
      "å¤§åŀĭ": 5393,
      "participants": 5394,
      "æĤ¨": 5395,
      "å«ģ": 5396,
      "åį«æĺŁ": 5397,
      "ç²ī": 5398,
      "æķ¬": 5399,
      "mediated": 5400,
      "å»ºæŀĦ": 5401,
      "arter": 5402,
      "è®ºè¿°": 5403,
      "æĲľ": 5404,
      "compon": 5405,
      "ä¸ģ": 5406,
      "ä¸ªæĢ§": 5407,
      "æĺ¯ä»İ": 5408,
      "histo": 5409,
      "row": 5410,
      "On": 5411,
      "æī¾åĪ°": 5412,
      "math": 5413,
      "analyzed": 5414,
      "å°ıåº·": 5415,
      "likely": 5416,
      "éĩıåŃĲ": 5417,
      "è®¤åĲĮ": 5418,
      "éĩĳèŀįæľºæŀĦ": 5419,
      "åĭĴ": 5420,
      "åŃ¦å®¶": 5421,
      "aim": 5422,
      "sus": 5423,
      "pi": 5424,
      "å¹´é¾Ħ": 5425,
      "å·®è·Ŀ": 5426,
      "åıĺæĽ´": 5427,
      "èĤł": 5428,
      "åĪĨè£Ĥ": 5429,
      "å®¡çĲĨ": 5430,
      "pul": 5431,
      "ä¿¡ä»°": 5432,
      "çŃ¾è®¢": 5433,
      "production": 5434,
      "assay": 5435,
      "è¡Ķ": 5436,
      "ç§ĺå¯Ĩ": 5437,
      "å¤§åĽ½": 5438,
      "ç¬¬ä¸Ģä¸ª": 5439,
      "æ²³åĨħ": 5440,
      "å·§": 5441,
      "èįĲ": 5442,
      "åĮ»éĻ¢": 5443,
      "åĪ¶çº¦": 5444,
      "decreased": 5445,
      "æı´åĨĽ": 5446,
      "æ³ķäºº": 5447,
      "æĶ¾å¼ĥ": 5448,
      "æĽ´æĺ¯": 5449,
      "åıĺæĪĲ": 5450,
      "å±ħåŁİ": 5451,
      "tegr": 5452,
      "åı°æ¹¾": 5453,
      "èĦ±è´«": 5454,
      "cing": 5455,
      "æłĳç«ĭ": 5456,
      "ç¿Įå¹´": 5457,
      "æµģéĢļ": 5458,
      "months": 5459,
      "bone": 5460,
      "relationship": 5461,
      "ually": 5462,
      "åĿļåĨ³": 5463,
      "confir": 5464,
      "determined": 5465,
      "arr": 5466,
      "åĲ¸å¼ķ": 5467,
      "æĶ¹åĲį": 5468,
      "ç¦»å¼Ģ": 5469,
      "molecular": 5470,
      "stit": 5471,
      "PT": 5472,
      "çĽ¸ä¼¼": 5473,
      "four": 5474,
      "æĢİæł·": 5475,
      "æİ¥è¿ĳ": 5476,
      "è¿Ŀçº¦": 5477,
      "èĪį": 5478,
      "put": 5479,
      "carcin": 5480,
      "æĹłæķĪ": 5481,
      "æ¼ı": 5482,
      "IN": 5483,
      "çĥŁ": 5484,
      "é»ĺ": 5485,
      "ç¼ºéĻ·": 5486,
      "åİŁå§ĭ": 5487,
      "èĤ¾": 5488,
      "è¾ħåĬ©": 5489,
      "lear": 5490,
      "éħ¬": 5491,
      "å¤ªéĺ³": 5492,
      "æľ¬èĥ½å¯º": 5493,
      "æ´Ĺ": 5494,
      "æ³ķåĽ½": 5495,
      "åīįåĲİ": 5496,
      "ç»§æī¿äºº": 5497,
      "å¥łå®ļ": 5498,
      "block": 5499,
      "åĲĥ": 5500,
      "æ¸ħæ¥ļ": 5501,
      "76": 5502,
      "ç¬ĶèĢħ": 5503,
      "åĲįç§°": 5504,
      "æŃ£ä¹ī": 5505,
      "ä¸ºæŃ¤": 5506,
      "é¢ĳçİĩ": 5507,
      "antibody": 5508,
      "æİī": 5509,
      "åĸľå¤ļ": 5510,
      "æľªæĪĲ": 5511,
      "ä¸įåĪ°": 5512,
      "åįłæľī": 5513,
      "ä¸Ńåħ¨ä¼ļ": 5514,
      "ams": 5515,
      "åĲ´": 5516,
      "è¿ĺè¦ģ": 5517,
      "éŁ©": 5518,
      "éļĲå±ħ": 5519,
      "é¾ĻéĢł": 5520,
      "symptoms": 5521,
      "ä¸ŃéĹ´": 5522,
      "éĩĬæĶ¾": 5523,
      "èĻ«": 5524,
      "é¾ĻéĢłå¯º": 5525,
      "patho": 5526,
      "èĵĿ": 5527,
      "top": 5528,
      "environ": 5529,
      "å¥³åĦ¿": 5530,
      "å¼ºçĥĪ": 5531,
      "åĽŀçŃĶ": 5532,
      "çŁ¢": 5533,
      "çķ¿": 5534,
      "300": 5535,
      "è¸ª": 5536,
      "å¡«": 5537,
      "1582": 5538,
      "æĺİæĻºåħīç§Ģ": 5539,
      "åģ¶": 5540,
      "å½±åĵįåĬĽ": 5541,
      "æİĴéĻ¤": 5542,
      "éº¾": 5543,
      "asp": 5544,
      "èĩ³å°ĳ": 5545,
      "according": 5546,
      "HR": 5547,
      "æ½ľåľ¨": 5548,
      "mission": 5549,
      "comes": 5550,
      "detected": 5551,
      "æī¹åĪ¤": 5552,
      "life": 5553,
      "æĶ¿åĬ¡": 5554,
      "ç»ĦæĪĲéĥ¨åĪĨ": 5555,
      "åıī": 5556,
      "éº¾ä¸ĭ": 5557,
      "æĸĩæľ¬": 5558,
      "æĪĺå½¹": 5559,
      "å¹²é¢Ħ": 5560,
      "expl": 5561,
      "çĻ¾å§ĵ": 5562,
      "metast": 5563,
      "ä¸Ĭå¸Ĥ": 5564,
      "è¯Ī": 5565,
      "å¤Ħç½®": 5566,
      "calcul": 5567,
      "åĽŀå½Ĵ": 5568,
      "lip": 5569,
      "èģĮå·¥": 5570,
      "æĦıå¿Ĺ": 5571,
      "çĸĨ": 5572,
      "ening": 5573,
      "è¯¸å¤ļ": 5574,
      "ä¿¡ä»»": 5575,
      "æµ®": 5576,
      "åģĩè®¾": 5577,
      "èĥĨ": 5578,
      "mid": 5579,
      "hospital": 5580,
      "æĳĦæ´¥": 5581,
      "æī¹è¯Ħ": 5582,
      "resistance": 5583,
      "98": 5584,
      "å·²æľī": 5585,
      "äººæĸĩ": 5586,
      "infected": 5587,
      "åĩ»è´¥": 5588,
      "è¿Ļæ¬¡": 5589,
      "08": 5590,
      "Research": 5591,
      "çİ°çĬ¶": 5592,
      "cat": 5593,
      "ç¦ħ": 5594,
      "æ¯ıå¹´": 5595,
      "å¢Ļ": 5596,
      "04": 5597,
      "admin": 5598,
      "è¿ľæ±Ł": 5599,
      "ä¸īäºº": 5600,
      "éļ¶": 5601,
      "verage": 5602,
      "åħ¨çĲĥåĮĸ": 5603,
      "lympho": 5604,
      "éŀ": 5605,
      "tration": 5606,
      "åħ¬åħ±æľįåĬ¡": 5607,
      "èĭ±è¯Ń": 5608,
      "æľĢä¸Ĭ": 5609,
      "éĺĶ": 5610,
      "assi": 5611,
      "åħ«æľĪ": 5612,
      "è±ªæĹı": 5613,
      "DM": 5614,
      "ç¹ģèį£": 5615,
      "controls": 5616,
      "å¤©çĦ¶": 5617,
      "å´©": 5618,
      "matic": 5619,
      "æµĻ": 5620,
      "èĩ³ä»Ĭ": 5621,
      "äºĭå®ŀä¸Ĭ": 5622,
      "2022": 5623,
      "åºĶæĢ¥": 5624,
      "åīĳ": 5625,
      "diabetes": 5626,
      "è¶ģ": 5627,
      "çĽĳå¯Ł": 5628,
      "æŃ¦èĹı": 5629,
      "åĨ°": 5630,
      "åħĥå°±": 5631,
      "æ¯ĽåĪ©åħĥå°±": 5632,
      "vivo": 5633,
      "åİŁåŃĲ": 5634,
      "èº«ä½ĵ": 5635,
      "Our": 5636,
      "æĸ¯æ³¢": 5637,
      "example": 5638,
      "ä¼łéĢĴ": 5639,
      "analyses": 5640,
      "derived": 5641,
      "åħ¶å®ĥ": 5642,
      "çŃīçº§": 5643,
      "éĩįå¤į": 5644,
      "è½¬åĲĳ": 5645,
      "contrast": 5646,
      "å¸¸çĶ¨": 5647,
      "å¯¹æĸ¹": 5648,
      "idence": 5649,
      "å¤§å¤§": 5650,
      "ä¹Į": 5651,
      "éķ¿åºĨ": 5652,
      "organ": 5653,
      "ick": 5654,
      "åħ¨å±Ģ": 5655,
      "åį¿": 5656,
      "éĩĩè´Ń": 5657,
      "åħ¬æŃ£": 5658,
      "å¼ĵ": 5659,
      "é¬": 5660,
      "æĬķèµĦèĢħ": 5661,
      "see": 5662,
      "PR": 5663,
      "åĩĨåĪĻ": 5664,
      "back": 5665,
      "è§Ĩè§Ĵ": 5666,
      "åĲĪçī©": 5667,
      "æ·¡": 5668,
      "æ¢ħ": 5669,
      "74": 5670,
      "èĳ¬": 5671,
      "key": 5672,
      "éĢīä¸¾": 5673,
      "ä¿ĿçķĻ": 5674,
      "åįļå£«": 5675,
      "mutations": 5676,
      "åĭĺ": 5677,
      "è¾Ĳ": 5678,
      "æľįåĬ¡åĻ¨": 5679,
      "1000": 5680,
      "ä¸¤èĢħ": 5681,
      "ize": 5682,
      "åĬ£": 5683,
      "âĢ²": 5684,
      "åĪ©å®¶": 5685,
      "ables": 5686,
      "å®ĩåĸľå¤ļ": 5687,
      "æİ¥æĶ¶": 5688,
      "difference": 5689,
      "regulated": 5690,
      "äºĭæĥħ": 5691,
      "tro": 5692,
      "dose": 5693,
      "å°Ŀ": 5694,
      "å²Ĺä½į": 5695,
      "lines": 5696,
      "weight": 5697,
      "å±Ģéĥ¨": 5698,
      "åħ¥ä¾µ": 5699,
      "åĲİæŀľ": 5700,
      "äººæł¼": 5701,
      "åįĹåĮĹ": 5702,
      "strong": 5703,
      "glucose": 5704,
      "è¿Ī": 5705,
      "antibodies": 5706,
      "eline": 5707,
      "Although": 5708,
      "é¢Ĺ": 5709,
      "èĲ¥åħ»": 5710,
      "èį¡": 5711,
      "commun": 5712,
      "ä¸»åĲĽ": 5713,
      "æĶ¯æı´": 5714,
      "eld": 5715,
      "åºıåĪĹ": 5716,
      "ä»£çłģ": 5717,
      "ä»¥å¤ĸ": 5718,
      "ç¥Ĳ": 5719,
      "é©¶": 5720,
      "pain": 5721,
      "æ§": 5722,
      "ç®Ģç§°": 5723,
      "ä¾ĿçĦ¶": 5724,
      "éĢ¸": 5725,
      "åľ°äº§": 5726,
      "è´Ŀ": 5727,
      "dex": 5728,
      "éĤĵ": 5729,
      "antigen": 5730,
      "ç¥ŀç¤¾": 5731,
      "æĮĩæķ°": 5732,
      "æĿĳä¸Ĭ": 5733,
      "oxid": 5734,
      "ç»Īäºİ": 5735,
      "å°ĳå¹´": 5736,
      "åĨľäº§åĵģ": 5737,
      "çªģçĦ¶": 5738,
      "IR": 5739,
      "off": 5740,
      "old": 5741,
      "åĭ¤": 5742,
      "èŀįåħ¥": 5743,
      "ä¸Ģä½į": 5744,
      "åħ¶åŃĲ": 5745,
      "estab": 5746,
      "pha": 5747,
      "å¤ºåıĸ": 5748,
      "åĩºåı°": 5749,
      "membrane": 5750,
      "ä¸įèī¯": 5751,
      "association": 5752,
      "å®ĩéĥ½": 5753,
      "æ°¨": 5754,
      "WT": 5755,
      "oles": 5756,
      "æ±¤": 5757,
      "èĬ¦": 5758,
      "docu": 5759,
      "stage": 5760,
      "ä¸»å¸Ń": 5761,
      "MRI": 5762,
      "è¯¹": 5763,
      "pone": 5764,
      "cause": 5765,
      "PC": 5766,
      "ä¸įæ»¡": 5767,
      "æıĴ": 5768,
      "ç¨³å®ļæĢ§": 5769,
      "strateg": 5770,
      "å®ĩéĥ½å®«": 5771,
      "å¸ĿåĽ½": 5772,
      "via": 5773,
      "ç¨¿": 5774,
      "beta": 5775,
      "åĿĩè¡¡": 5776,
      "æĲŀ": 5777,
      "åįķä¸Ģ": 5778,
      "TR": 5779,
      "More": 5780,
      "æ°´åĨĽ": 5781,
      "bel": 5782,
      "ä»Ļ": 5783,
      "åĨ³è®®": 5784,
      "åµ": 5785,
      "çķĻä¸ĭ": 5786,
      "bers": 5787,
      "è®¤è¯ģ": 5788,
      "pepti": 5789,
      "tissues": 5790,
      "äººä¸º": 5791,
      "bility": 5792,
      "ä¹ĿæľĪ": 5793,
      "åĬ³åĬ¨åĲĪåĲĮ": 5794,
      "atively": 5795,
      "éĩįè¦ģæĢ§": 5796,
      "æķĮäºº": 5797,
      "å±ķçİ°": 5798,
      "èĭıèģĶ": 5799,
      "é«ĺçŃīæķĻèĤ²": 5800,
      "âĨ": 5801,
      "amo": 5802,
      "èİ«": 5803,
      "ä½¿èĢħ": 5804,
      "*-": 5805,
      "muscle": 5806,
      "96": 5807,
      "éĵģçĤ®": 5808,
      "fail": 5809,
      "æ¯įäº²": 5810,
      "modi": 5811,
      "æľĢä¸º": 5812,
      "åĲĪå¹¶": 5813,
      "ä¸İåħ¶": 5814,
      "æľīåºı": 5815,
      "åĿĬ": 5816,
      "çºªå¾ĭ": 5817,
      "ç¥Ń": 5818,
      "éĨĴ": 5819,
      "æ°ĳä¼Ĺ": 5820,
      "éĺ²å¾¡": 5821,
      "æĪĺåĬŁ": 5822,
      "NK": 5823,
      "Se": 5824,
      "ML": 5825,
      "æł·æľ¬": 5826,
      "åĢŁéī´": 5827,
      "æĬ¢": 5828,
      "æĥħèĬĤ": 5829,
      "æ»ĳ": 5830,
      "è°ĥè§£": 5831,
      "åĲĮæŃ¥": 5832,
      "å¯¹æ¯Ķ": 5833,
      "1600": 5834,
      "æĪĺåĽ½å¤§åĲį": 5835,
      "åħĥäº²": 5836,
      "è´¢å¯Į": 5837,
      "help": 5838,
      "family": 5839,
      "åĽ½å¤ĸ": 5840,
      "therapeu": 5841,
      "æīĩ": 5842,
      "fn": 5843,
      "çļĦè¯Ŀ": 5844,
      "ä¸īæľĪ": 5845,
      "åħļåĴĮåĽ½å®¶": 5846,
      "æ°ĳæ³ķåħ¸": 5847,
      "methyl": 5848,
      "è½½ä½ĵ": 5849,
      "é«ĺäºİ": 5850,
      "andom": 5851,
      "èµĭäºĪ": 5852,
      "å±ı": 5853,
      "Î³": 5854,
      "äººæ°ĳå¸ģ": 5855,
      "æĢİä¹Ī": 5856,
      "ç»ıåħ¸": 5857,
      "æĪĲåĪĨ": 5858,
      "ä¾µå®³": 5859,
      "åĨ²åĩ»": 5860,
      "æµĵåº¦": 5861,
      "integr": 5862,
      "æĶ»åĿļ": 5863,
      "pressure": 5864,
      "sistent": 5865,
      "çº¿æĢ§": 5866,
      "various": 5867,
      "éĺ²æ²»": 5868,
      "proced": 5869,
      "utr": 5870,
      "nat": 5871,
      "æĴ¤éĶĢ": 5872,
      "æ°ĳçĶŁ": 5873,
      "exposure": 5874,
      "è¥¿éĥ¨": 5875,
      "æĳĩ": 5876,
      "network": 5877,
      "sk": 5878,
      "ç¼Ķ": 5879,
      "æľīæĿĥ": 5880,
      "include": 5881,
      "äºĶæľĪ": 5882,
      "çº¤ç»´": 5883,
      "åĵ¥": 5884,
      "æ¦Ĥæĭ¬": 5885,
      "ä¸¾æİª": 5886,
      "å©ļå§»": 5887,
      "å¤ļæł·æĢ§": 5888,
      "ä¸ĥæľĪ": 5889,
      "éĢļç§°": 5890,
      "cale": 5891,
      "2008": 5892,
      "percent": 5893,
      "åıĶ": 5894,
      "æıĲäº¤": 5895,
      "injury": 5896,
      "ä¹ĭéĺµ": 5897,
      "ä¿ĿåŃĺ": 5898,
      "Data": 5899,
      "Sci": 5900,
      "err": 5901,
      "æ·»": 5902,
      "status": 5903,
      "éĵľ": 5904,
      "åħŃæľĪ": 5905,
      "ators": 5906,
      "orders": 5907,
      "å¿ĺ": 5908,
      "tw": 5909,
      "å®ĪæĬ¤ä»£": 5910,
      "itor": 5911,
      "mia": 5912,
      "è¿Ľåı£": 5913,
      "vic": 5914,
      "åģļæ³ķ": 5915,
      "infec": 5916,
      "åĩºéĺµ": 5917,
      "TA": 5918,
      "éĢļéģĵ": 5919,
      "proliferation": 5920,
      "ç©·": 5921,
      "å°ıç¬ł": 5922,
      "mito": 5923,
      "ä¸ĭåĪĹ": 5924,
      "developed": 5925,
      "åĴ¨": 5926,
      "å¸¦é¢Ĩ": 5927,
      "æĻ¯èĻİ": 5928,
      "CF": 5929,
      "é²ľæĺİ": 5930,
      "æĽ°": 5931,
      "asis": 5932,
      "indicated": 5933,
      "åħ±è¯Ĩ": 5934,
      "rial": 5935,
      "çİ¯å¢ĥä¿ĿæĬ¤": 5936,
      "proble": 5937,
      "defined": 5938,
      "ople": 5939,
      "severe": 5940,
      "çĽ´åĪ°": 5941,
      "ç¾İå¥½": 5942,
      "atures": 5943,
      "ç¤¾ä¼ļç§ĳåŃ¦": 5944,
      "åľ¨åĨħ": 5945,
      "ellular": 5946,
      "é¼ł": 5947,
      "å¤·": 5948,
      "èµ¤æĿ¾": 5949,
      "åľ°åĿĢ": 5950,
      "89": 5951,
      "è´Łæĭħ": 5952,
      "å°ıç¬łåİŁ": 5953,
      "pheno": 5954,
      "å¿§": 5955,
      "itive": 5956,
      "åº¶": 5957,
      "åĲĹ": 5958,
      "document": 5959,
      "èµģ": 5960,
      "æīĢæľīæĿĥ": 5961,
      "è¾¹çķĮ": 5962,
      "phase": 5963,
      "é¬¼": 5964,
      "æĢ»éĩı": 5965,
      "æĲº": 5966,
      "uration": 5967,
      "ç§Ģæ¬¡": 5968,
      "cyte": 5969,
      "ç«ĭè¶³": 5970,
      "atten": 5971,
      "score": 5972,
      "ç§Łèµģ": 5973,
      "fibro": 5974,
      "cm": 5975,
      "æ·Ģ": 5976,
      "æĢķ": 5977,
      "è¿ĽåĨĽ": 5978,
      "social": 5979,
      "å»¶ç»Ń": 5980,
      "--------------------": 5981,
      "regions": 5982,
      "è°ĪåĪ¤": 5983,
      "å§Ķä¼ļ": 5984,
      "Supplementary": 5985,
      "ength": 5986,
      "plasma": 5987,
      "hor": 5988,
      "arch": 5989,
      "invas": 5990,
      "æłĩåĩĨåĮĸ": 5991,
      "æī¶è´«": 5992,
      "Pr": 5993,
      "æ¶¨": 5994,
      "2011": 5995,
      "ä¸ĢçĻ¾": 5996,
      "æĻ´ä¿¡": 5997,
      "è¾©è¯ģ": 5998,
      "éļĨæĻ¯": 5999,
      "general": 6000,
      "æĤ¬": 6001,
      "åĢºåĬ¡äºº": 6002,
      "å®ŀæĹ¶": 6003,
      "åı¤æ²³": 6004,
      "Dis": 6005,
      "æľĢæĹ©": 6006,
      "å½°": 6007,
      "ä¸ĩäºº": 6008,
      "know": 6009,
      "tically": 6010,
      "quality": 6011,
      "é«ĺéĢŁ": 6012,
      "çŁ³çĶ°ä¸īæĪĲ": 6013,
      "éĺ²èĮĥ": 6014,
      "æĭį": 6015,
      "conf": 6016,
      "area": 6017,
      "è¯Ńæĸĩ": 6018,
      "åĢºåĪ¸": 6019,
      "åĬ¨åĳĺ": 6020,
      "å¯Ĩåº¦": 6021,
      "è®³": 6022,
      "å¸¦åĬ¨": 6023,
      "è¯Ŀè¯Ń": 6024,
      "ä¸īç§į": 6025,
      "Ab": 6026,
      "healthy": 6027,
      "æĦıè¯Ĩå½¢æĢģ": 6028,
      "ably": 6029,
      "æĬĹæĹ¥": 6030,
      "å¾ģæĶ¶": 6031,
      "æĺ¾çĦ¶": 6032,
      "MT": 6033,
      "å¤§åŃ¦çĶŁ": 6034,
      "least": 6035,
      "åįĪ": 6036,
      "ä¸»åĬĽ": 6037,
      "ances": 6038,
      "è®¤çľŁ": 6039,
      "åŀĤ": 6040,
      "åĲİèĢħ": 6041,
      "viral": 6042,
      "çĸı": 6043,
      "tially": 6044,
      "phy": 6045,
      "çĶ°åŁİ": 6046,
      "åĳ¨åĽ´": 6047,
      "åıł": 6048,
      "ä»£è°¢": 6049,
      "ule": 6050,
      "regard": 6051,
      "ian": 6052,
      "åĪĨå·¥": 6053,
      "æķıæĦŁ": 6054,
      "æĪĴ": 6055,
      "åı¯èĥ½æĢ§": 6056,
      "è¾Ĳå°Ħ": 6057,
      "æĥħå¢ĥ": 6058,
      "place": 6059,
      "äººè´¨": 6060,
      "è¾Ł": 6061,
      "GG": 6062,
      "è¹": 6063,
      "tory": 6064,
      "times": 6065,
      "æį®çĤ¹": 6066,
      "æ¸ħæĻ°": 6067,
      "ines": 6068,
      "è¶ħè¶Ĭ": 6069,
      "è§Ī": 6070,
      "æĦŁåıĹ": 6071,
      "æĴŃç£¨": 6072,
      "aneous": 6073,
      "ä¸ĵé¡¹": 6074,
      "æħİ": 6075,
      "éļıæľº": 6076,
      "rap": 6077,
      "æ³·": 6078,
      "æĽ¾ç»ı": 6079,
      "even": 6080,
      "sal": 6081,
      "acute": 6082,
      "oxy": 6083,
      "public": 6084,
      "frequency": 6085,
      "So": 6086,
      "*~": 6087,
      "oph": 6088,
      "æ°¸ä¹ħ": 6089,
      "æŃ¦è£ħ": 6090,
      "çģµæ´»": 6091,
      "æīĢç¤º": 6092,
      "free": 6093,
      "medic": 6094,
      "dam": 6095,
      "æ´ª": 6096,
      "bene": 6097,
      "è®¤åı¯": 6098,
      "ä¸ĢåĽ½": 6099,
      "ä¸²": 6100,
      "æ¸¸æĪı": 6101,
      "åĽ¢ä½ĵ": 6102,
      "èĢģå¸Ī": 6103,
      "Ar": 6104,
      "GDP": 6105,
      "outcomes": 6106,
      "techni": 6107,
      "æ¡£æ¡Ī": 6108,
      "scre": 6109,
      "åĽŀåĪ°": 6110,
      "clusion": 6111,
      "åıĳè¾¾åĽ½å®¶": 6112,
      "ratio": 6113,
      "lant": 6114,
      "æľºéģĩ": 6115,
      "åİħ": 6116,
      "toxic": 6117,
      "ä¸īéĥİ": 6118,
      "At": 6119,
      "aged": 6120,
      "æ³¥": 6121,
      "è¯ŀçĶŁ": 6122,
      "çİ¯ä¿Ŀ": 6123,
      "effici": 6124,
      "lit": 6125,
      "aw": 6126,
      "ä¸Ĭä¸ĭ": 6127,
      "æįŁä¼¤": 6128,
      "valid": 6129,
      "é¦Ī": 6130,
      "åħ¶åĲİ": 6131,
      "clear": 6132,
      "åħŃå¹´": 6133,
      "åģľæŃ¢": 6134,
      "åĬłèĹ¤": 6135,
      "æĶ¾åľ¨": 6136,
      "æ¶ĪçģŃ": 6137,
      "ä½İäºİ": 6138,
      "åıĳèĤ²": 6139,
      "plication": 6140,
      "mechanism": 6141,
      "åĲ¦å®ļ": 6142,
      "åıĺå¾Ĺ": 6143,
      "å®Ļ": 6144,
      "è´§çī©": 6145,
      "propo": 6146,
      "æ¸ĹéĢı": 6147,
      "æ°Ķä½ĵ": 6148,
      "åħĦéķ¿": 6149,
      "èĥİ": 6150,
      "report": 6151,
      "âĹ": 6152,
      "06": 6153,
      "éĹ²": 6154,
      "æŃ¦åĻ¨": 6155,
      "èĬ¯": 6156,
      "æĪ¿åľ°äº§": 6157,
      "tracellular": 6158,
      "inflammation": 6159,
      "çĶŁäºİ": 6160,
      "HB": 6161,
      "æī¿è¯º": 6162,
      "ä¸»ä»»": 6163,
      "æīĵåĩ»": 6164,
      "éº¦": 6165,
      "æĲŃ": 6166,
      "ht": 6167,
      "èµ·åĪ°": 6168,
      "psych": 6169,
      "chemo": 6170,
      "appear": 6171,
      "alpha": 6172,
      "EL": 6173,
      "mains": 6174,
      "bre": 6175,
      "æĤŁ": 6176,
      "åīįæľŁ": 6177,
      "åĴ¨è¯¢": 6178,
      "required": 6179,
      "åĿ¦": 6180,
      "prob": 6181,
      "incub": 6182,
      "åıĳçĶµ": 6183,
      "çĽĳæİ§": 6184,
      "äºĴçĽ¸": 6185,
      "éĺ¿æ³¢": 6186,
      "é£İæł¼": 6187,
      "2009": 6188,
      "CL": 6189,
      "uni": 6190,
      "her": 6191,
      "æİ¨è¡Į": 6192,
      "åĩĿèģļ": 6193,
      "åĽĽæľĪ": 6194,
      "ä¸Ģæ®µ": 6195,
      "äººç¾¤": 6196,
      "elect": 6197,
      "åĪĨåī²": 6198,
      "ç®¡è¾ĸ": 6199,
      "æķĮåĨĽ": 6200,
      "often": 6201,
      "çĽ¸åıį": 6202,
      "åĵģè´¨": 6203,
      "kg": 6204,
      "ç§ĳåŃ¦å®¶": 6205,
      "èģĶåĲĪåĽ½": 6206,
      "è¶³åĪ©ä¹īæĺŃ": 6207,
      "çº³ç¨İ": 6208,
      "çĪ±åĽ½": 6209,
      "åĽ¾ä¹¦": 6210,
      "chond": 6211,
      "å¦ĩå¥³": 6212,
      "dys": 6213,
      "pathways": 6214,
      "ç¿¼": 6215,
      "çķ´": 6216,
      "pen": 6217,
      "åľ°åŁŁ": 6218,
      "åĵģçīĮ": 6219,
      "sensitivity": 6220,
      "cost": 6221,
      "Thus": 6222,
      "èħĶ": 6223,
      "åŃĲåŃĻ": 6224,
      "çİ°åľº": 6225,
      "é¡ºåĪ©": 6226,
      "åıĳæĺİ": 6227,
      "effective": 6228,
      "however": 6229,
      "å¯Ĵ": 6230,
      "èĤ¯å®ļ": 6231,
      "è®²è¯Ŀ": 6232,
      "random": 6233,
      "ç¬¬ä¸ĥ": 6234,
      "87": 6235,
      "æľªæĪĲå¹´äºº": 6236,
      "æĪ´": 6237,
      "è£ħç½®": 6238,
      "fat": 6239,
      "åŀ£": 6240,
      "correlation": 6241,
      "86": 6242,
      "ä¼°è®¡": 6243,
      "åĪĽéĢłæĢ§": 6244,
      "è£ģåĪ¤": 6245,
      "åĬŀåħ¬": 6246,
      "surface": 6247,
      "éĺĲè¿°": 6248,
      "ume": 6249,
      "ãģ«": 6250,
      "them": 6251,
      "åħ±åĲĮå¯Įè£ķ": 6252,
      "ina": 6253,
      "ç¡¬ä»¶": 6254,
      "æĮĩåįĹ": 6255,
      "leu": 6256,
      "ä»ħä»ħ": 6257,
      "æĿ°": 6258,
      "äº§çī©": 6259,
      "å®ĩå®Ļ": 6260,
      "sci": 6261,
      "ject": 6262,
      "æĮĸæİĺ": 6263,
      "transf": 6264,
      "å·¥ä¸ļåĮĸ": 6265,
      "æ³ķåŃ¦": 6266,
      "èĩ³äºİ": 6267,
      "çłĶç©¶æīĢ": 6268,
      "classi": 6269,
      "therapeutic": 6270,
      "âĢ¢": 6271,
      "åī¥": 6272,
      "ç¬¦åı·": 6273,
      "FP": 6274,
      "çī©æĿĥ": 6275,
      "åĳ¼åĲ¸": 6276,
      "bu": 6277,
      "Pre": 6278,
      "è¢«è¿«": 6279,
      "ison": 6280,
      "é¢ģå¸ĥ": 6281,
      "agement": 6282,
      "å¹¸ç¦ı": 6283,
      "SCs": 6284,
      "åłĨ": 6285,
      "æ³ķå®ĺ": 6286,
      "åĪ°è¾¾": 6287,
      "åħ¬çĽĬ": 6288,
      "BD": 6289,
      "æĹłäºº": 6290,
      "æĭĨ": 6291,
      "ä¸ĭä»¤": 6292,
      "tak": 6293,
      "æĪĲæķĪ": 6294,
      "åĩºèµĦ": 6295,
      "åĲ«ä¹ī": 6296,
      "07": 6297,
      "å¤§æ°Ķ": 6298,
      "across": 6299,
      "ç¬¬äºĮæ¬¡": 6300,
      "è·ĳ": 6301,
      "åįģæľĪ": 6302,
      "çĽ¸ç»§": 6303,
      "è¾Ĩ": 6304,
      "æ¼«": 6305,
      "ä¸Ńæľī": 6306,
      "ä¼¼ä¹İ": 6307,
      "å¤ĸåĽ½": 6308,
      "äººæķ°": 6309,
      "æĺİæ²»": 6310,
      "ç½ĳç»ľå®īåħ¨": 6311,
      "lack": 6312,
      "åİĨåı²æĢ§": 6313,
      "apoptosis": 6314,
      "ç§įç±»": 6315,
      "è®°å¿Ĩ": 6316,
      "æĹłè®ºæĺ¯": 6317,
      "mort": 6318,
      "æĬ«": 6319,
      "æīĢè¿°": 6320,
      "exten": 6321,
      "systems": 6322,
      "abo": 6323,
      "ç¼ĸè¾ĳ": 6324,
      "site": 6325,
      "åıĸä»£": 6326,
      "å¤ªçĶ°": 6327,
      "æĮĩä»¤": 6328,
      "ä¾Ŀæīĺ": 6329,
      "supplementary": 6330,
      "ç©ºæ°Ķ": 6331,
      "etal": 6332,
      "ç¬¼": 6333,
      "ä½Ĳä¹ħ": 6334,
      "concentration": 6335,
      "æŃ£å®¤": 6336,
      "cept": 6337,
      "graphy": 6338,
      "å¹²æī°": 6339,
      "æ¯Ķéĩį": 6340,
      "åĩºä»ķ": 6341,
      "ä¾¯": 6342,
      "æİ¥åı£": 6343,
      "uses": 6344,
      "è§Ĥæµĭ": 6345,
      "æľ¬ä¹¦": 6346,
      "ç»´åº¦": 6347,
      "åĨįçĶŁ": 6348,
      "æµģè¡Į": 6349,
      "ä¹īå¼ĺ": 6350,
      "ä¸ĢåĲĳä¸ĢæıĨ": 6351,
      "åľºæīĢ": 6352,
      "æĦŁçŁ¥": 6353,
      "å±ĢéĻĲ": 6354,
      "èµµ": 6355,
      "èĥĮåĲİ": 6356,
      "æĻºèĥ½åĮĸ": 6357,
      "ç¿»è¯ĳ": 6358,
      "æľįåĬ¡ä¸ļ": 6359,
      "har": 6360,
      "å¨¶": 6361,
      "å¯¸": 6362,
      "åłµ": 6363,
      "Ser": 6364,
      "æĹģ": 6365,
      "èµ·è¯ī": 6366,
      "ste": 6367,
      "å·¡": 6368,
      "åį°åº¦": 6369,
      "people": 6370,
      "cript": 6371,
      "èĤĥ": 6372,
      "vice": 6373,
      "èĥ¸": 6374,
      "differentiation": 6375,
      "rs": 6376,
      "èģĶçĽŁ": 6377,
      "èĦ±ç¦»": 6378,
      "After": 6379,
      "ç¦ıå²Ľ": 6380,
      "sequence": 6381,
      "æıĲèµ·": 6382,
      "ores": 6383,
      "èĮĥçķ´": 6384,
      "ä¸įåĬ¨": 6385,
      "å°ıæĹ¶": 6386,
      "åĶ¯çī©": 6387,
      "éŃı": 6388,
      "revealed": 6389,
      "åĿ¡": 6390,
      "ä¿¡èĻİ": 6391,
      "ä¸īå¤§": 6392,
      "é¢Ĩæľī": 6393,
      "secre": 6394,
      "è¿Ĳä½ľ": 6395,
      "AA": 6396,
      "åĪĨæķ£": 6397,
      "âĳ¢": 6398,
      "lied": 6399,
      "ists": 6400,
      "fem": 6401,
      "çĶ¨æĿ¥": 6402,
      "éĩĩéĽĨ": 6403,
      "ä¸įæĺİ": 6404,
      "Cl": 6405,
      "ä¾µçĬ¯": 6406,
      "progression": 6407,
      "é«ĵ": 6408,
      "containing": 6409,
      "ä¹ĭæīĢä»¥": 6410,
      "å¤įåĲĪ": 6411,
      "ä»Ĭå¹´": 6412,
      "åĲ«éĩı": 6413,
      "Rec": 6414,
      "å¥³æĢ§": 6415,
      "Com": 6416,
      "çł´äº§": 6417,
      "é¡ºåºı": 6418,
      "éĹ´æİ¥": 6419,
      "æľºåĻ¨äºº": 6420,
      "ä¿®è®¢": 6421,
      "US": 6422,
      "æĦıåĽ¾": 6423,
      "çĶ¨åľ°": 6424,
      "æĸ¹ä½į": 6425,
      "inhibition": 6426,
      "çķħ": 6427,
      "tain": 6428,
      "æĳĺ": 6429,
      "æĴ°": 6430,
      "92": 6431,
      "åıĤæĪĺ": 6432,
      "èħĲè´¥": 6433,
      "çł¦": 6434,
      "éĺ¶å±Ĥ": 6435,
      "éĵ¸": 6436,
      "æľªæľī": 6437,
      "igr": 6438,
      "æīĭæľ¯": 6439,
      "ç®±": 6440,
      "çĴ": 6441,
      "continu": 6442,
      "ä½ĽæķĻ": 6443,
      "Le": 6444,
      "smo": 6445,
      "å¸ĤåľºåĮĸ": 6446,
      "åĨħåŃĺ": 6447,
      "condition": 6448,
      "logical": 6449,
      "æŃ¤æ¬¡": 6450,
      "æŃ§": 6451,
      "æİ¨èįĲ": 6452,
      "åĩºäºĳ": 6453,
      "gli": 6454,
      "ledge": 6455,
      "äº¤åıī": 6456,
      "èķ´": 6457,
      "æ´¾åĩº": 6458,
      "çŃĴ": 6459,
      "provided": 6460,
      "Bi": 6461,
      "èĩªåĬ¨åĮĸ": 6462,
      "åĽ½éĺ²": 6463,
      "later": 6464,
      "domin": 6465,
      "é¢ĩ": 6466,
      "CM": 6467,
      "den": 6468,
      "æ»¤": 6469,
      "self": 6470,
      "TNF": 6471,
      "å°±æĺ¯è¯´": 6472,
      "cence": 6473,
      "éĤĢ": 6474,
      "iat": 6475,
      "ä¿¡å¿µ": 6476,
      "SO": 6477,
      "ä¸įå¤Ł": 6478,
      "CH": 6479,
      "è¾Ľ": 6480,
      "åĨįåº¦": 6481,
      "weeks": 6482,
      "æĬļ": 6483,
      "EN": 6484,
      "éºŁ": 6485,
      "relative": 6486,
      "æĢĿæĶ¿": 6487,
      "criter": 6488,
      "kine": 6489,
      "æĽ²çº¿": 6490,
      "æį·": 6491,
      "onic": 6492,
      "ä¸īè§Ĵ": 6493,
      "ä¹ĭå½¹": 6494,
      "åĩ»éĢĢ": 6495,
      "çº³ç±³": 6496,
      "suff": 6497,
      "éĩĮè§ģ": 6498,
      "ç§ĳåŃ¦æĬĢæľ¯": 6499,
      "hold": 6500,
      "additional": 6501,
      "dat": 6502,
      "èĽĭçĻ½è´¨": 6503,
      "æ©": 6504,
      "cardio": 6505,
      "åıĺåĬ¨": 6506,
      "ased": 6507,
      "receptors": 6508,
      "generation": 6509,
      "å¤¹": 6510,
      "ä»Ĭå·Ŀä¹īåħĥ": 6511,
      "drome": 6512,
      "length": 6513,
      "å±¡": 6514,
      "mag": 6515,
      "characteristics": 6516,
      "ä¼Ĺå¤ļ": 6517,
      "macroph": 6518,
      "rates": 6519,
      "USA": 6520,
      "æį®è¯´": 6521,
      "æ£®æŀĹ": 6522,
      "disorders": 6523,
      "è¾¹ç¼ĺ": 6524,
      "ä¸įå¾Ĺä¸į": 6525,
      "itation": 6526,
      "åħ¬éĩĮ": 6527,
      "äººçĶŁ": 6528,
      "Li": 6529,
      "ä¾¿æĺ¯": 6530,
      "renal": 6531,
      "...": 6532,
      "è¡Ķæİ¥": 6533,
      "æ±łçĶ°": 6534,
      "94": 6535,
      "mical": 6536,
      "è¯ł": 6537,
      "åĲ¨": 6538,
      "93": 6539,
      "*.": 6540,
      "ä¸ĥå¹´": 6541,
      "âĶ": 6542,
      "æ±ĩçİĩ": 6543,
      "ale": 6544,
      "grad": 6545,
      "è¡į": 6546,
      "gery": 6547,
      "åħ¬å¸ĥ": 6548,
      "ç²Ĺ": 6549,
      "æĸĩèīº": 6550,
      "åįıä½ľ": 6551,
      "enter": 6552,
      "é¢Ī": 6553,
      "coll": 6554,
      "åĲİä¸ĸ": 6555,
      "ä¸ŃåĽ½å¼ı": 6556,
      "ç¨Ļ": 6557,
      "çĽĪ": 6558,
      "æĻ´åħĥ": 6559,
      "éĤ£æł·": 6560,
      "images": 6561,
      "å¦¥": 6562,
      "presented": 6563,
      "å¾ĭå¸Ī": 6564,
      "éģµå®Ī": 6565,
      "aro": 6566,
      "åħ¨è¿ĩç¨ĭ": 6567,
      "çľĭæĿ¥": 6568,
      "ç§Ģèµĸ": 6569,
      "åħļçļĦé¢Ĩå¯¼": 6570,
      "assessed": 6571,
      "çº½": 6572,
      "impact": 6573,
      "å¾Īå¿«": 6574,
      "æĻ®åıĬ": 6575,
      "mortality": 6576,
      "æľĹ": 6577,
      "83": 6578,
      "é«ĺä¸Ń": 6579,
      "å°ī": 6580,
      "utes": 6581,
      "å«Į": 6582,
      "Can": 6583,
      "èĪĨ": 6584,
      "LR": 6585,
      "Therefore": 6586,
      "ä»¥ä¸º": 6587,
      "urs": 6588,
      "æ¦Ĥè¿°": 6589,
      "stimulation": 6590,
      "activated": 6591,
      "å¾®çĶŁçī©": 6592,
      "whereas": 6593,
      "åĢŁåĬ©": 6594,
      "æ¼Ķåıĺ": 6595,
      "æ¬º": 6596,
      "ling": 6597,
      "æĭħå½ĵ": 6598,
      "ef": 6599,
      "volume": 6600,
      "ä¸Ģåľº": 6601,
      "åºĹ": 6602,
      "æĸ¥": 6603,
      "å°§": 6604,
      "çªģåıĺ": 6605,
      "çŁŃæľŁ": 6606,
      "cardiac": 6607,
      "æµĻæ±Ł": 6608,
      "åĪĨåĮĸ": 6609,
      "è®¾å®ļ": 6610,
      "éĩįå»º": 6611,
      "cour": 6612,
      "é«ĺæ°´å¹³": 6613,
      "distribution": 6614,
      "Furthermore": 6615,
      "ç»ĵåŁİ": 6616,
      "åįłæį®": 6617,
      "äºĶéĥİ": 6618,
      "è¿·": 6619,
      "xed": 6620,
      "å®³äºº": 6621,
      "éĵģè·¯": 6622,
      "æľ¬å¤ļ": 6623,
      "èģĺ": 6624,
      "æ³ķå¾ĭæ³ķè§Ħ": 6625,
      "ç¢ĳ": 6626,
      "mol": 6627,
      "defici": 6628,
      "het": 6629,
      "èĤ¡ç¥¨": 6630,
      "cers": 6631,
      "ç¤¾ä¼ļä¿Ŀéļľ": 6632,
      "æ¡Ĥ": 6633,
      "position": 6634,
      "remain": 6635,
      "FA": 6636,
      "hol": 6637,
      "preval": 6638,
      "ç§¯æŀģæĢ§": 6639,
      "accur": 6640,
      "åĮ¹éħį": 6641,
      "è½¨éģĵ": 6642,
      "å¥´": 6643,
      "è§Ĩé¢ĳ": 6644,
      "å¾Ĺåĩº": 6645,
      "èĲ¥éĢł": 6646,
      "ä¸§å¤±": 6647,
      "å¼ĢåĪĽ": 6648,
      "SM": 6649,
      "æĤ²": 6650,
      "ä¸°åĲİ": 6651,
      "é¦ĸçº§": 6652,
      "åİĨç¨ĭ": 6653,
      "å¯»æī¾": 6654,
      "alter": 6655,
      "######": 6656,
      "æľĢæĸ°": 6657,
      "sto": 6658,
      "æķ°é¢Ŀ": 6659,
      "å®¡ç¾İ": 6660,
      "å°ıå¹³": 6661,
      "oth": 6662,
      "ä¸»æµģ": 6663,
      "suc": 6664,
      "å°Ŀè¯ķ": 6665,
      "ä¸İæŃ¤": 6666,
      "çº·çº·": 6667,
      "given": 6668,
      "è§Ĩè§ī": 6669,
      "greater": 6670,
      "æľĢé«ĺäººæ°ĳæ³ķéĻ¢": 6671,
      "ands": 6672,
      "å°ĸ": 6673,
      "çº¢èī²": 6674,
      "reduction": 6675,
      "èĳ£äºĭ": 6676,
      "aper": 6677,
      "èľĤ": 6678,
      "ä¹ĭä¸Ĭ": 6679,
      "æıĲåĪ°": 6680,
      "84": 6681,
      "æĻĵ": 6682,
      "proto": 6683,
      "çĽĹ": 6684,
      "æº¯": 6685,
      "æĹ¥èµ·": 6686,
      "ä¸ŃåĽ½å®¶": 6687,
      "examined": 6688,
      "GC": 6689,
      "åıĳå±ķä¸ŃåĽ½å®¶": 6690,
      "æĽ´å¤§": 6691,
      "åĽĽåĽ½": 6692,
      "estim": 6693,
      "æķ´çĲĨ": 6694,
      "å°ıè¯´": 6695,
      "ç½Ĺæĸ¯": 6696,
      "å¹´è½»": 6697,
      "åĨĻä½ľ": 6698,
      "æĥħç»ª": 6699,
      "affect": 6700,
      "followed": 6701,
      "èģļçĦ¦": 6702,
      "bro": 6703,
      "éĿ¶": 6704,
      "suppres": 6705,
      "å¤§èĩ£": 6706,
      "èĵĦ": 6707,
      "é¢ľ": 6708,
      "structure": 6709,
      "åĽ½åĨħå¤ĸ": 6710,
      "æŁ´çĶ°èĥľå®¶": 6711,
      "æł¹æį®åľ°": 6712,
      "å¦Ĥä»Ĭ": 6713,
      "fit": 6714,
      "ä¼łè¯´": 6715,
      "HA": 6716,
      "äººæ°ĳä»£è¡¨å¤§ä¼ļ": 6717,
      "èĤ¡ä»½": 6718,
      "æĪĲç»©": 6719,
      "81": 6720,
      "å®£å¸ĥ": 6721,
      "staining": 6722,
      "cognitive": 6723,
      "åıįå¤į": 6724,
      "è¿ĻæĹ¶": 6725,
      "ä¹īéļĨ": 6726,
      "éĥŃ": 6727,
      "æ··ä¹±": 6728,
      "increasing": 6729,
      "ulations": 6730,
      "æĽ¼": 6731,
      "Pati": 6732,
      "åıįé¦Ī": 6733,
      "ä¾Ŀæ³ķæ²»": 6734,
      "ä¾Ŀæ³ķæ²»åĽ½": 6735,
      "ä¿®æŃ£": 6736,
      "media": 6737,
      "èĬĤèĥ½": 6738,
      "çķĮå®ļ": 6739,
      "æ½ľåĬĽ": 6740,
      "æŃ¦çĶ°èĥľèµĸ": 6741,
      "æ²»åħļ": 6742,
      "consider": 6743,
      "çĻ¾åĪĨ": 6744,
      "åŃ¦ä¼ļ": 6745,
      "DA": 6746,
      "ç»³": 6747,
      "äº¤äºĴ": 6748,
      "å¤ĩä¸Ń": 6749,
      "çŃĳåīį": 6750,
      "97": 6751,
      "HP": 6752,
      "ä½Ĳä½Ĳ": 6753,
      "intr": 6754,
      "animals": 6755,
      "æľīæĹ¶": 6756,
      "indicate": 6757,
      "äº¤å¾Ģ": 6758,
      "çģ°": 6759,
      "ä½ıæĪ¿": 6760,
      "TB": 6761,
      "æĮĩç¤º": 6762,
      "orig": 6763,
      "better": 6764,
      "proper": 6765,
      "ä¸¹æ³¢": 6766,
      "ä¸įè¦ģ": 6767,
      "æĬ¥éģĵ": 6768,
      "practi": 6769,
      "hydro": 6770,
      "åįķçĭ¬": 6771,
      "lying": 6772,
      "ç´«": 6773,
      "éĤ¸": 6774,
      "ä¸ºä¾ĭ": 6775,
      "enzy": 6776,
      "æĥ¨": 6777,
      "combination": 6778,
      "å¤§ä¼Ĺ": 6779,
      "å»¶ä¼¸": 6780,
      "èĥ½åĲ¦": 6781,
      "fil": 6782,
      "å®ŀçĶ¨": 6783,
      "prior": 6784,
      "æ¬¡éĥİ": 6785,
      "åıĳå°Ħ": 6786,
      "æīĵçł´": 6787,
      "æĿľ": 6788,
      "åŁĭ": 6789,
      "çľŁçĲĨ": 6790,
      "concentrations": 6791,
      "åıĪç§°": 6792,
      "å°Ĭæ°ı": 6793,
      "lat": 6794,
      "å°ıåº·ç¤¾ä¼ļ": 6795,
      "åħļç»Ħç»ĩ": 6796,
      "èµĸæľĿ": 6797,
      "åľŁä½Ĳ": 6798,
      "æ¬§çĽŁ": 6799,
      "è¡Įä¸ºäºº": 6800,
      "é¢ĨåĽ½": 6801,
      "lig": 6802,
      "è¶³å¤Ł": 6803,
      "VA": 6804,
      "å¤§å¤ļ": 6805,
      "äºĮèĢħ": 6806,
      "82": 6807,
      "thus": 6808,
      "parameters": 6809,
      "mono": 6810,
      "detection": 6811,
      "ynam": 6812,
      "åŃĲå¥³": 6813,
      "åĲ¦åĪĻ": 6814,
      "prevent": 6815,
      "åĽ½æľīä¼ģä¸ļ": 6816,
      "ä½ľçī©": 6817,
      "æ¡¶": 6818,
      "ij": 6819,
      "èĨ¨": 6820,
      "åħĪçĶŁ": 6821,
      "correspon": 6822,
      "åĦĴå®¶": 6823,
      "å®īåħ¨æĢ§": 6824,
      "æĶ¶åĪ°": 6825,
      "åĲĦæĸ¹": 6826,
      "æķħæĦı": 6827,
      "suppor": 6828,
      "æĹ¨åľ¨": 6829,
      "ç«ĭä¸ĭ": 6830,
      "åĪĨè§£": 6831,
      "å±Ī": 6832,
      "ä¼ıè§ģ": 6833,
      "above": 6834,
      "cord": 6835,
      "åı¯è¡Į": 6836,
      "ç¨Ģ": 6837,
      "éģĩåĪ°": 6838,
      "ç»ĵæŀĦæĢ§": 6839,
      "2007": 6840,
      "éĶĲ": 6841,
      "æıĲåıĸ": 6842,
      "assessment": 6843,
      "åĽ½æ°ĳç»ıæµİ": 6844,
      "éĻ·èĲ½": 6845,
      "å°ıåŃ¦": 6846,
      "æŃ¤äºĭ": 6847,
      "ç¾İæľ¯": 6848,
      "conducted": 6849,
      "èıľ": 6850,
      "ä¸¾åĬŀ": 6851,
      "çĹħäºº": 6852,
      "äº§éĩı": 6853,
      "æķ¦": 6854,
      "III": 6855,
      "load": 6856,
      "éħįå¥Ĺ": 6857,
      "æľ¬èĥ½å¯ºä¹ĭåıĺ": 6858,
      "sor": 6859,
      "æķĳæı´": 6860,
      "æı´åĬ©": 6861,
      "èį¯åĵģ": 6862,
      "ç¬¬äºĮèĬĤ": 6863,
      "éļ¾é¢ĺ": 6864,
      "migr": 6865,
      "outcome": 6866,
      "å¢ŀåĢ¼": 6867,
      "ä¹°åįĸ": 6868,
      "ç£·": 6869,
      "Au": 6870,
      "å¸ľ": 6871,
      "agg": 6872,
      "æµģéĩı": 6873,
      "recogn": 6874,
      "intervention": 6875,
      "èĲ¥éĶĢ": 6876,
      "guid": 6877,
      "åĽ½æ°ĳåħļ": 6878,
      "æµģåŁŁ": 6879,
      "é«ĺåĽ½": 6880,
      "æľĢä½³": 6881,
      "does": 6882,
      "è®°èĢħ": 6883,
      "æ³¡": 6884,
      "äººä½ĵ": 6885,
      "æ¿Ģæ´»": 6886,
      "comm": 6887,
      "éĢļçĶ¨": 6888,
      "ç¬¬ä¸ĢèĬĤ": 6889,
      "èĬ³": 6890,
      "highly": 6891,
      "ä¿ĥä½¿": 6892,
      "åŁİæ±ł": 6893,
      "èĢĥåı¤": 6894,
      "åıĸåĨ³": 6895,
      "ãģĹ": 6896,
      "åĬ¨ä½ľ": 6897,
      "æİ¢æµĭ": 6898,
      "æİ¨æµĭ": 6899,
      "rats": 6900,
      "å¾ħéģĩ": 6901,
      "ä¹¦éĿ¢": 6902,
      "éģĵéĽª": 6903,
      "mL": 6904,
      "vement": 6905,
      "âĸ": 6906,
      "diet": 6907,
      "91": 6908,
      "features": 6909,
      "åŁİéķĩåĮĸ": 6910,
      "éĽĩ": 6911,
      "ä¼Ĭä¸ľ": 6912,
      "syndrome": 6913,
      "surgery": 6914,
      "å¤«å¦»": 6915,
      "hort": 6916,
      "ints": 6917,
      "è´ŁåĢº": 6918,
      "mb": 6919,
      "è§£åĨ³éĹ®é¢ĺ": 6920,
      "å¤įåĪ¶": 6921,
      "died": 6922,
      "æ¿ĢçĥĪ": 6923,
      "å®ļæľŁ": 6924,
      "paren": 6925,
      "ä¼ĺè´¨": 6926,
      "å¹³éĿ¢": 6927,
      "æĹłçĸĳ": 6928,
      "åıĸåĨ³äºİ": 6929,
      "ä¾¦": 6930,
      "âī¥": 6931,
      "å¹´åº¦": 6932,
      "add": 6933,
      "èĹ¤åİŁ": 6934,
      "èĲ½åĲİ": 6935,
      "pt": 6936,
      "ç»ıè´¹": 6937,
      "å¤ªå¹³": 6938,
      "ä¹Ŀå¹´": 6939,
      "ç¦ıåĪ©": 6940,
      "çī©ä½ĵ": 6941,
      "ä¸įåıĺ": 6942,
      "é©¾é©¶": 6943,
      "æ¶ĪèĢĹ": 6944,
      "æĿĳæ°ĳ": 6945,
      "æºĲäºİ": 6946,
      "åŁĥ": 6947,
      "çĶµæµģ": 6948,
      "æŀĦéĢł": 6949,
      "lot": 6950,
      "åł¡": 6951,
      "visual": 6952,
      "å¤ļå°ĳ": 6953,
      "novel": 6954,
      "ä¹ĭè·¯": 6955,
      "å£«åħµ": 6956,
      "interaction": 6957,
      "çĽ®å½ķ": 6958,
      "å®¹éĩı": 6959,
      "èĤ²äºº": 6960,
      "ç¢İ": 6961,
      "èªĵ": 6962,
      "éģ¥": 6963,
      "ä¹ĥèĩ³": 6964,
      "åıįèĢĮ": 6965,
      "æľ¬éĺµ": 6966,
      "æ¦Ĥçİĩ": 6967,
      "æŃ»åĲİ": 6968,
      "ç¡®å®ŀ": 6969,
      "æĶ»çķ¥": 6970,
      "çªĹ": 6971,
      "æ»ĭ": 6972,
      "æĿĢå®³": 6973,
      "åĪĥ": 6974,
      "èĪªå¤©": 6975,
      "ä¿±": 6976,
      "2005": 6977,
      "æľ¬æ³ķ": 6978,
      "æ¡ĳ": 6979,
      "åľ¨çº¿": 6980,
      "Ap": 6981,
      "æľīéĻĲåħ¬åı¸": 6982,
      "çıł": 6983,
      "çĪ¶æ¯į": 6984,
      "arrow": 6985,
      "çľĭåĩº": 6986,
      "åıĽä¹±": 6987,
      "ä¹ĭä½į": 6988,
      "ä¸´æĹ¶": 6989,
      "åİŁæľī": 6990,
      "ç¡®å®ļæĢ§": 6991,
      "äºĶä½į": 6992,
      "å¾Ĳ": 6993,
      "ç½ĳç«Ļ": 6994,
      "ä¸ŃæľŁ": 6995,
      "çĶŁçĲĨ": 6996,
      "vices": 6997,
      "ran": 6998,
      "ision": 6999,
      "çİ°è¡Į": 7000,
      "è´§å¸ģæĶ¿çŃĸ": 7001,
      "ä¸»æĮģ": 7002,
      "index": 7003,
      "ï¼ı": 7004,
      "å¯»æ±Ĥ": 7005,
      "ible": 7006,
      "å½ĵå¹´": 7007,
      "æĸ¹ç¨ĭ": 7008,
      "åĿĽ": 7009,
      "cut": 7010,
      "super": 7011,
      "cere": 7012,
      "éĥĳ": 7013,
      "PI": 7014,
      "ä¸İæŃ¤åĲĮæĹ¶": 7015,
      "åĢŁæ¬¾": 7016,
      "iv": 7017,
      "æŀ¢": 7018,
      "åĬŀåŃ¦": 7019,
      "tests": 7020,
      "ough": 7021,
      "elev": 7022,
      "æĸ¹ä¾¿": 7023,
      "åĤ¬åĮĸ": 7024,
      "çŁ¥è¡Į": 7025,
      "æ°®": 7026,
      "trials": 7027,
      "unt": 7028,
      "è¿ĩåº¦": 7029,
      "çĤŃ": 7030,
      "ä¸īåįģ": 7031,
      "å°ıå±±": 7032,
      "äººåĿĩ": 7033,
      "ues": 7034,
      "areas": 7035,
      "æ³¢åĬ¨": 7036,
      "æĵħ": 7037,
      "å¿½è§Ĩ": 7038,
      "step": 7039,
      "åıĳéĢģ": 7040,
      "è§£è¯»": 7041,
      "DR": 7042,
      "image": 7043,
      "æ¸ħæ´ģ": 7044,
      "éķ¿æ±Ł": 7045,
      "mutation": 7046,
      "AI": 7047,
      "remo": 7048,
      "åıįæĢĿ": 7049,
      "è§£åĨ³æĸ¹æ¡Ī": 7050,
      "è¿½åĩ»": 7051,
      "æķħéļľ": 7052,
      "evaluated": 7053,
      "åİŁæĿ¥": 7054,
      "éĺ²æİ§": 7055,
      "æ¸ħæŃ£": 7056,
      "çĽ¸äºĴä½ľçĶ¨": 7057,
      "og": 7058,
      "pair": 7059,
      "critical": 7060,
      "æľĢä½İ": 7061,
      "tub": 7062,
      "lex": 7063,
      "å¤§éĻĨ": 7064,
      "æľ¬ç§ĳ": 7065,
      "eth": 7066,
      "detect": 7067,
      "ä¸»æĿĥ": 7068,
      "criteria": 7069,
      "åħ«å¹´": 7070,
      "å®ŀä¾ĭ": 7071,
      "æ³Ħ": 7072,
      "progno": 7073,
      "éĤĵå°ıå¹³": 7074,
      "å»ºéĢł": 7075,
      "issu": 7076,
      "resid": 7077,
      "limited": 7078,
      "exer": 7079,
      "sites": 7080,
      "å¯¹ç§°": 7081,
      "IFN": 7082,
      "éķ¿ä¹ħ": 7083,
      "diffic": 7084,
      "BA": 7085,
      "observ": 7086,
      "çģ¾å®³": 7087,
      "encing": 7088,
      "overall": 7089,
      "events": 7090,
      "åĤ¨å¤ĩ": 7091,
      "æĸĩçī©": 7092,
      "äººèº«": 7093,
      "ç²¾åº¦": 7094,
      "çŁ³å·Ŀ": 7095,
      "æºĲæ°ı": 7096,
      "çĶŁæĢģç³»ç»Ł": 7097,
      "average": 7098,
      "adv": 7099,
      "æĦŁè§ī": 7100,
      "åµĮ": 7101,
      "åĮ»èį¯": 7102,
      "understanding": 7103,
      "åĵģç§į": 7104,
      "åºĶä»ģ": 7105,
      "Po": 7106,
      "section": 7107,
      "åįıä¼ļ": 7108,
      "åħ¬å®ī": 7109,
      "transfer": 7110,
      "çĶµåİĭ": 7111,
      "short": 7112,
      "åĩºå®¶": 7113,
      "å¢ĥåĨħ": 7114,
      "åĶ±": 7115,
      "sex": 7116,
      "bur": 7117,
      "Sy": 7118,
      "gree": 7119,
      "Mo": 7120,
      "2006": 7121,
      "èĤ¥åĲİ": 7122,
      "acqu": 7123,
      "sour": 7124,
      "è§Ĩéĩİ": 7125,
      "bor": 7126,
      "å®¡æł¸": 7127,
      "è·³": 7128,
      "Ľèµ·": 7129,
      "ey": 7130,
      "åħ¬åħĥ": 7131,
      "èĬ¦åĲį": 7132,
      "cancers": 7133,
      "EG": 7134,
      "lications": 7135,
      "training": 7136,
      "åĲĪæ³ķæĿĥçĽĬ": 7137,
      "èĴ²çĶŁ": 7138,
      "subst": 7139,
      "æĬµè¾¾": 7140,
      "æ¸Ĭ": 7141,
      "æ¢¯": 7142,
      "count": 7143,
      "å¼ĺæī¬": 7144,
      "çĬ¬": 7145,
      "å®¡æī¹": 7146,
      "èĹ©ä¸»": 7147,
      "çĽ´èĩ³": 7148,
      "ç¬¬åħ«": 7149,
      "separ": 7150,
      "å½¦": 7151,
      "kines": 7152,
      "èµ«": 7153,
      "certain": 7154,
      "âħ": 7155,
      "ential": 7156,
      "carri": 7157,
      "æ¶Į": 7158,
      "æĪĺè´¥": 7159,
      "è®¡éĩı": 7160,
      "abil": 7161,
      "ä»ĭåħ¥": 7162,
      "å¤§å¤«": 7163,
      "åħ¶çĪ¶": 7164,
      "å®ĹèĮĤ": 7165,
      "lar": 7166,
      "istration": 7167,
      "transcription": 7168,
      "ãģ¨": 7169,
      "çĬ¹": 7170,
      "çıį": 7171,
      "æŃ¦å®¶": 7172,
      "æ°Ľ": 7173,
      "åĩıè½»": 7174,
      "æ·ĭ": 7175,
      "çģ¯": 7176,
      "calculated": 7177,
      "èĩ´åĬĽ": 7178,
      "beg": 7179,
      "collected": 7180,
      "One": 7181,
      "åĬ¨èĦī": 7182,
      "theref": 7183,
      "120": 7184,
      "äºĶåįģ": 7185,
      "uture": 7186,
      "National": 7187,
      "æŃ¤åīį": 7188,
      "ç°": 7189,
      "æ»¥": 7190,
      "èĨ¨èĥĢ": 7191,
      "å®½æ°¸": 7192,
      "åĻª": 7193,
      "çĽ¸æ¨¡": 7194,
      "baseline": 7195,
      "åĽĽéĥİ": 7196,
      "sequences": 7197,
      "åīįæ²¿": 7198,
      "ä»¥å¾Ģ": 7199,
      "åĩ¸": 7200,
      "èĳĽ": 7201,
      "æĦŁåĪ°": 7202,
      "å·¥åİĤ": 7203,
      "therefore": 7204,
      "éĢĶä¸Ń": 7205,
      "å¼ķè¿Ľ": 7206,
      "å¾ģç¨ĭ": 7207,
      "åŀĴ": 7208,
      "ney": 7209,
      "åħļå§Ķ": 7210,
      "éķĩåİĭ": 7211,
      "éŃĤ": 7212,
      "çĶŁå¹³": 7213,
      "sof": 7214,
      "ä¹ĭå¼Ł": 7215,
      "çŃĽ": 7216,
      "tested": 7217,
      "åı¯çĶ¨": 7218,
      "è®ºè¯ģ": 7219,
      "decrease": 7220,
      "åįłé¢Ĩ": 7221,
      "éĢĥå¾Ģ": 7222,
      "âĦ": 7223,
      "don": 7224,
      "èĬ¯çīĩ": 7225,
      "åĪĩèħ¹": 7226,
      "measures": 7227,
      "åıĳçĹħ": 7228,
      "diagnostic": 7229,
      "az": 7230,
      "phosphory": 7231,
      "ç«Ń": 7232,
      "æŀģä¸º": 7233,
      "osis": 7234,
      "å¾ĹçŁ¥": 7235,
      "carcinoma": 7236,
      "å¢ŀéĢŁ": 7237,
      "stre": 7238,
      "åĽ½æĥħ": 7239,
      "necess": 7240,
      "RO": 7241,
      "affected": 7242,
      "ä¸Ģå¤§": 7243,
      "æĹ¢æľī": 7244,
      "åķĨäºº": 7245,
      "è¢«åĳĬäºº": 7246,
      "field": 7247,
      "åĨħèĹ¤": 7248,
      "ä¸¹ç¾½": 7249,
      "å½ĵä¸Ń": 7250,
      "åľ°éľĩ": 7251,
      "æĿĥéĻĲ": 7252,
      "çĮª": 7253,
      "chall": 7254,
      "äººæĿĥ": 7255,
      "performance": 7256,
      "ps": 7257,
      "æ¶Ĥ": 7258,
      "èĪªç©º": 7259,
      "åĪĨäº«": 7260,
      "åŃĺæ¬¾": 7261,
      "clust": 7262,
      "ä¼´éļı": 7263,
      "äºīå¤º": 7264,
      "ä»¥ä¾¿": 7265,
      "lled": 7266,
      "made": 7267,
      "èĴĻåı¤": 7268,
      "æĥ³è±¡": 7269,
      "å·®åĪ«": 7270,
      "abnormal": 7271,
      "ensity": 7272,
      "ancy": 7273,
      "åįĥä»£": 7274,
      "å°Ĩé¢Ĩ": 7275,
      "thy": 7276,
      "version": 7277,
      "è¡¡éĩı": 7278,
      "uscript": 7279,
      "åį³åı¯": 7280,
      "äºĮäºº": 7281,
      "ä¾įå¥ī": 7282,
      "åĲ¾": 7283,
      "åĨĪå´İ": 7284,
      "èĳ¡": 7285,
      "ç»ıæµİä½ĵåĪ¶": 7286,
      "éĶħ": 7287,
      "å¸ĥéĺµ": 7288,
      "tas": 7289,
      "å´Ľèµ·": 7290,
      "pic": 7291,
      "damage": 7292,
      "ç¼ĸçłģ": 7293,
      "take": 7294,
      "GS": 7295,
      "ä¹ĭåĲį": 7296,
      "testing": 7297,
      "discus": 7298,
      "bil": 7299,
      "electro": 7300,
      "intest": 7301,
      "processes": 7302,
      "knowledge": 7303,
      "ç³Ĭ": 7304,
      "çłĶç©¶èĢħ": 7305,
      "å®īè£ħ": 7306,
      "èģĶéĤ¦": 7307,
      "èĩªæĿĢ": 7308,
      "ä»ĩ": 7309,
      "functions": 7310,
      "ç¼ĸåĨĻ": 7311,
      "markers": 7312,
      "HO": 7313,
      "åĲįåŃĹ": 7314,
      "è£Ķ": 7315,
      "åİŁåĳĬ": 7316,
      "opath": 7317,
      "adjust": 7318,
      "æ³ķåĪ¶": 7319,
      "æ¿Ģåħī": 7320,
      "poor": 7321,
      "çİ°éĩĳ": 7322,
      "å°±è¦ģ": 7323,
      "plac": 7324,
      "IO": 7325,
      "LT": 7326,
      "éĽĨåĲĪ": 7327,
      "host": 7328,
      "è¢Ńåĩ»": 7329,
      "çĽĳæĬ¤": 7330,
      "ç¥ĸçĪ¶": 7331,
      "å¼Ĭ": 7332,
      "æĩĤ": 7333,
      "è¯¾åłĤæķĻåŃ¦": 7334,
      "å½ĵä»Ĭ": 7335,
      "å¿ĥçĲĨåŃ¦": 7336,
      "variables": 7337,
      "drugs": 7338,
      "ä¸Ģè¯´": 7339,
      "HS": 7340,
      "published": 7341,
      "èĦĬ": 7342,
      "Instit": 7343,
      "éģĹåĿĢ": 7344,
      "induc": 7345,
      "fusion": 7346,
      "manuscript": 7347,
      "Per": 7348,
      "tool": 7349,
      "è¿ĩæ¸¡": 7350,
      "åĪĨå¸ĥå¼ı": 7351,
      "æĸľ": 7352,
      "åĭĥ": 7353,
      "reflec": 7354,
      "simul": 7355,
      "cies": 7356,
      "âĨĴ": 7357,
      "ä¹Łå°±æĺ¯è¯´": 7358,
      "ä¹īåħ´": 7359,
      "æĭ¥ç«ĭ": 7360,
      "çķĻå®Ī": 7361,
      "central": 7362,
      "Dr": 7363,
      "åį³ä¾¿": 7364,
      "protocol": 7365,
      "éļĲç§ģ": 7366,
      "åħ±æľī": 7367,
      "ä¹īæĺŃ": 7368,
      "biological": 7369,
      "kinase": 7370,
      "wer": 7371,
      "æ³·å·Ŀ": 7372,
      "educ": 7373,
      "directly": 7374,
      "physical": 7375,
      "rest": 7376,
      "æµ·å¤ĸ": 7377,
      "ç¼ĸç¨ĭ": 7378,
      "æĹĹå¸ľ": 7379,
      "------------------------": 7380,
      "æĿ¡çº¦": 7381,
      "åĨĴ": 7382,
      "å©¿": 7383,
      "iting": 7384,
      "äº¿ç¾İåħĥ": 7385,
      "å·¥ä½ľäººåĳĺ": 7386,
      "éĺľ": 7387,
      "å¤§äºİ": 7388,
      "åħ¬å¼ı": 7389,
      "lipid": 7390,
      "äºĶåįĥ": 7391,
      "shows": 7392,
      "è´¯ç©¿": 7393,
      "monary": 7394,
      "è°¨": 7395,
      "hetero": 7396,
      "åħĭæľį": 7397,
      "å¯¹è¯Ŀ": 7398,
      "ç½Ĺé©¬": 7399,
      "çĶµå½±": 7400,
      "çĶŁæķĪ": 7401,
      "åĴĮè§£": 7402,
      "stric": 7403,
      "æĹ¥åĲĳ": 7404,
      "ially": 7405,
      "1590": 7406,
      "elec": 7407,
      "ç¥¥": 7408,
      "IM": 7409,
      "æł¸ç®Ĺ": 7410,
      "Moreover": 7411,
      "ç¡«": 7412,
      "investigated": 7413,
      "è´Łè´£äºº": 7414,
      "åĬŁçİĩ": 7415,
      "***": 7416,
      "ters": 7417,
      "å¼ĢåĲ¯": 7418,
      "èĸª": 7419,
      "geno": 7420,
      "Col": 7421,
      "æĪĺçº¿": 7422,
      "å¼ĺæ²»": 7423,
      "éĢıæĺİ": 7424,
      "dri": 7425,
      "GT": 7426,
      "lement": 7427,
      "æ¯ĽåĪ©è¾īåħĥ": 7428,
      "label": 7429,
      "è¿ģç§»": 7430,
      "æľ¬åľ°": 7431,
      "rich": 7432,
      "ç¢±": 7433,
      "iratory": 7434,
      "ä¸ŃåĽ½åĮĸ": 7435,
      "reduc": 7436,
      "å±±ä¸ľ": 7437,
      "è¿Ĳç®Ĺ": 7438,
      "commend": 7439,
      "now": 7440,
      "adh": 7441,
      "åĲįä¸º": 7442,
      "åľ°ä¸ĭ": 7443,
      "èģĮæĿĥ": 7444,
      "physi": 7445,
      "ker": 7446,
      "still": 7447,
      "ä¾ĭåŃĲ": 7448,
      "æ¬ł": 7449,
      "mitochond": 7450,
      "ä¸¤å¤§": 7451,
      "éļıä¹ĭ": 7452,
      "ä¹īåħī": 7453,
      "ä¸ĬæĿīæĻ¯èĥľ": 7454,
      "ä¹ĭåĳ½": 7455,
      "selected": 7456,
      "åĬĽåŃ¦": 7457,
      "recommend": 7458,
      "ç½¢": 7459,
      "Clin": 7460,
      "ç³»æķ°": 7461,
      "åĩºä»»": 7462,
      "ç®Ģä»ĭ": 7463,
      "éĢĢåĩº": 7464,
      "åľŁå²Ĳ": 7465,
      "åŃķ": 7466,
      "ä¸ĭéĩİ": 7467,
      "ä½İç¢³": 7468,
      "æłĩçļĦ": 7469,
      "angio": 7470,
      "å¼ķçĶ¨": 7471,
      "RNAs": 7472,
      "iatric": 7473,
      "æĸ°åĨł": 7474,
      "çĨŁæĤī": 7475,
      "èĩªè¡Į": 7476,
      "çłĶç©¶çĶŁ": 7477,
      "éĻķ": 7478,
      "äººå£«": 7479,
      "æľĢè¿ĳ": 7480,
      "ä¸īåįĥ": 7481,
      "scan": 7482,
      "è¡¨è¿°": 7483,
      "ä¼Ĭè±Ĩ": 7484,
      "å¥ĭæĸĹçĽ®æłĩ": 7485,
      "hand": 7486,
      "åįĵ": 7487,
      "oratory": 7488,
      "populations": 7489,
      "æľĢå¥½": 7490,
      "çĹħéĢĿ": 7491,
      "æ²¡æĶ¶": 7492,
      "agen": 7493,
      "repe": 7494,
      "æŃ£å¦Ĥ": 7495,
      "æ·±åĮĸæĶ¹éĿ©": 7496,
      "experimental": 7497,
      "ä»İä¸¥": 7498,
      "è®¢ç«ĭ": 7499,
      "æľĢå°ı": 7500,
      "gether": 7501,
      "Wi": 7502,
      "ãģĦ": 7503,
      "ä¾¿åĪ©": 7504,
      "æĶ¿åħĥ": 7505,
      "wa": 7506,
      "Stud": 7507,
      "NT": 7508,
      "åīĸ": 7509,
      "çĩĥæĸĻ": 7510,
      "æĢ»æĺ¯": 7511,
      "correc": 7512,
      "åĽĬ": 7513,
      "mass": 7514,
      "åĬ¨æľº": 7515,
      "ç¨İåĬ¡": 7516,
      "ä¸Ńå²Ľ": 7517,
      "åŃ¦è¯´": 7518,
      "éĤ®": 7519,
      "çĸ«èĭĹ": 7520,
      "éĩĳé¢Ŀ": 7521,
      "ä¸ĢæĹ¥": 7522,
      "vac": 7523,
      "åĢ¡å¯¼": 7524,
      "ç»ıèĲ¥èĢħ": 7525,
      "ãģŁ": 7526,
      "suggesting": 7527,
      "çİĩåĨĽ": 7528,
      "èĤ¥åīį": 7529,
      "prevalence": 7530,
      "homo": 7531,
      "BL": 7532,
      "æĦ¿æĦı": 7533,
      "çĿ¦": 7534,
      "aired": 7535,
      "ç»Ļåĩº": 7536,
      "è½¦è¾Ĩ": 7537,
      "tim": 7538,
      "èī²å½©": 7539,
      "ä¸ĢçĽĬ": 7540,
      "é¸£": 7541,
      "als": 7542,
      "ç¯ł": 7543,
      "ä¿¡è´·": 7544,
      "ä¸Ńå°ıä¼ģä¸ļ": 7545,
      "ç§įæ¤į": 7546,
      "æĬ±": 7547,
      "five": 7548,
      "release": 7549,
      "scores": 7550,
      "å¹¿ä¸ľ": 7551,
      "åī©ä½Ļ": 7552,
      "äºĮæľĪ": 7553,
      "ä¸¤å®¶": 7554,
      "ä¸»ç®¡éĥ¨éĹ¨": 7555,
      "åĲ§": 7556,
      "consistent": 7557,
      "éĩįç»Ħ": 7558,
      "question": 7559,
      "ä¸įä½Ĩ": 7560,
      "ç©´": 7561,
      "lesions": 7562,
      "¤Ĳ": 7563,
      "mM": 7564,
      "åħħæ»¡": 7565,
      "seen": 7566,
      "äºķä¼Ĭ": 7567,
      "åªĴä»ĭ": 7568,
      "spective": 7569,
      "æŁ¥è¯¢": 7570,
      "400": 7571,
      "ä¿Ħç½Ĺæĸ¯": 7572,
      "å®ĹéºŁ": 7573,
      "ring": 7574,
      "æĮģæľī": 7575,
      "æ³Į": 7576,
      "medium": 7577,
      "caused": 7578,
      "è¿Ļåľº": 7579,
      "ç¬ĳ": 7580,
      "æ²»åĽ½": 7581,
      "estern": 7582,
      "2004": 7583,
      "modul": 7584,
      "ä»ĬåĲİ": 7585,
      "Ph": 7586,
      "ä¸Ģçº§": 7587,
      "setting": 7588,
      "inhibitor": 7589,
      "ä»¤äºº": 7590,
      "éĴĪå¯¹æĢ§": 7591,
      "æľ¬åĽ½": 7592,
      "åĥļ": 7593,
      "è£ģå®ļ": 7594,
      "ä»ªåĻ¨": 7595,
      "åĪĨæĶ¯": 7596,
      "hepati": 7597,
      "Na": 7598,
      "å²Ń": 7599,
      "motor": 7600,
      "æĹĹæľ¬": 7601,
      "éĽĨç¾¤": 7602,
      "adap": 7603,
      "åĮĸè§£": 7604,
      "äº¤ä»ĺ": 7605,
      "åĽ°å¢ĥ": 7606,
      "å°Ĩä¼ļ": 7607,
      "ä¸¾åħµ": 7608,
      "ä¸ĭéĿ¢": 7609,
      "practice": 7610,
      "åºµ": 7611,
      "åĲīçĶ°": 7612,
      "proposed": 7613,
      "æ°ĳèĲ¥": 7614,
      "äºīåıĸ": 7615,
      "tric": 7616,
      "maint": 7617,
      "æħĪ": 7618,
      "memory": 7619,
      "ä¸Ńä»ĭ": 7620,
      "ç»ĨèıĮ": 7621,
      "è´µæĹı": 7622,
      "alysis": 7623,
      "èµ·çĤ¹": 7624,
      "å®ĺåĳĺ": 7625,
      "æļĤæĹ¶": 7626,
      "æµģæĶ¾": 7627,
      "åı¦æľī": 7628,
      "åħĥæĺ¥": 7629,
      "åīįèĢħ": 7630,
      "å»ºç«ĭåģ¥åħ¨": 7631,
      "å¤§èĦĳ": 7632,
      "çº¿ç¨ĭ": 7633,
      "è¯īè®¼æ³ķ": 7634,
      "åŃŁ": 7635,
      "ï¼ħ": 7636,
      "FS": 7637,
      "mas": 7638,
      "æİ¨åĩº": 7639,
      "çī²": 7640,
      "è¾½": 7641,
      "2003": 7642,
      "åŃĶåŃĲ": 7643,
      "å¼Ĺ": 7644,
      "æĬĵä½ı": 7645,
      "éĨĩ": 7646,
      "è°ĥåĬ¨": 7647,
      "ãĢİ": 7648,
      "ified": 7649,
      "èµĦäº§éĺ¶çº§": 7650,
      "ç¼ĵè§£": 7651,
      "clud": 7652,
      "cise": 7653,
      "ä¸Ģéĥ¨": 7654,
      "åĩºèĩª": 7655,
      "initi": 7656,
      "åįģäºĮæľĪ": 7657,
      "æĹ¶åĪ»": 7658,
      "èĬĤçº¦": 7659,
      "æĬĹä½ĵ": 7660,
      "subsequ": 7661,
      "colon": 7662,
      "å¸¸éĻĨ": 7663,
      "inally": 7664,
      "ä¼Ĭè´º": 7665,
      "ç»ĥä¹ł": 7666,
      "åĲİç»Ń": 7667,
      "å§¿": 7668,
      "ãĢı": 7669,
      "æł¼å¼ı": 7670,
      "äº¬æŀģ": 7671,
      "epithelial": 7672,
      "æİ¥çĿĢ": 7673,
      "although": 7674,
      "å¥ĭæĪĺ": 7675,
      "meric": 7676,
      "åįıå®ļ": 7677,
      "loy": 7678,
      "åĪł": 7679,
      "tur": 7680,
      "nit": 7681,
      "fl": 7682,
      "å¸¸æĢģ": 7683,
      "æĮĩå¼ķ": 7684,
      "æĬ«éľ²": 7685,
      "å¤§åĿĤåŁİ": 7686,
      "éĻĲåº¦": 7687,
      "versus": 7688,
      "astro": 7689,
      "management": 7690,
      "é¹¤": 7691,
      "ä¼Ĭè¾¾æĶ¿å®Ĺ": 7692,
      "åīįæĻ¯": 7693,
      "ç³»ç»ŁæĢ§": 7694,
      "portion": 7695,
      "çŃīäºİ": 7696,
      "åīįæĿ¥": 7697,
      "æŁĲä¸ª": 7698,
      "points": 7699,
      "ok": 7700,
      "agon": 7701,
      "åįļçī©": 7702,
      "isolated": 7703,
      "åĪ©æģ¯": 7704,
      "åºĶçĶ¨ç¨ĭåºı": 7705,
      "ä¾µæĶ»": 7706,
      "wide": 7707,
      "å¼Ģè¾Ł": 7708,
      "seg": 7709,
      "cohort": 7710,
      "ä¸Ģå¥Ĺ": 7711,
      "å¯¹å¾ħ": 7712,
      "construc": 7713,
      "èıĬ": 7714,
      "éģŃåıĹ": 7715,
      "çłĶç©¶éĻ¢": 7716,
      "çĶµåŃĲåķĨåĬ¡": 7717,
      "cules": 7718,
      "è¿ĩéĶĻ": 7719,
      "éĻµ": 7720,
      "æµĭå®ļ": 7721,
      "çĶµè§Ĩ": 7722,
      "domain": 7723,
      "åħ«å¹¡": 7724,
      "äº«åıĹ": 7725,
      "æĬĽ": 7726,
      "å®°": 7727,
      "GE": 7728,
      "é£Łçī©": 7729,
      "é¥±": 7730,
      "æīĭä¸Ń": 7731,
      "æŀĿ": 7732,
      "density": 7733,
      "influence": 7734,
      "call": 7735,
      "åŃ¦çķĮ": 7736,
      "æŁĶ": 7737,
      "few": 7738,
      "çİĩåħĪ": 7739,
      "éļ¾åº¦": 7740,
      "ä¸Ģäºº": 7741,
      "æĢ¥æĢ§": 7742,
      "oste": 7743,
      "peak": 7744,
      "çī©åĵģ": 7745,
      "æ°ĶåĢĻåıĺåĮĸ": 7746,
      "æŃ»åİ»": 7747,
      "ç¬¬ä¸īèĬĤ": 7748,
      "å¤§æ°¸": 7749,
      "å¤ªéĥİ": 7750,
      "å¸¸è§Ħ": 7751,
      "èĩ´åĬĽäºİ": 7752,
      "å¸ĪèĮĥ": 7753,
      "reference": 7754,
      "åĪĽæĸ°èĥ½åĬĽ": 7755,
      "è¥¿åĮĹ": 7756,
      "æĪĪ": 7757,
      "æłĭ": 7758,
      "emia": 7759,
      "appropri": 7760,
      "ä¸ĢåĲį": 7761,
      "é»İ": 7762,
      "è¯»èĢħ": 7763,
      "olution": 7764,
      "metabolic": 7765,
      "å¾®è§Ĥ": 7766,
      "å¿Ļ": 7767,
      "æĶ¹ä¸º": 7768,
      "çºªå¿µ": 7769,
      "æ¬£": 7770,
      "chool": 7771,
      "ç²¾ç¡®": 7772,
      "åĮĹæĿ¡æ°ıåº·": 7773,
      "éĿ¢åīį": 7774,
      "è¿½ç©¶": 7775,
      "ç»§ä»»": 7776,
      "è¾Ī": 7777,
      "çĽ¸å½ĵäºİ": 7778,
      "real": 7779,
      "çĦļ": 7780,
      "åºĻ": 7781,
      "äºĮæ°§åĮĸ": 7782,
      "è°ĥçĶ¨": 7783,
      "åįķçº¯": 7784,
      "ae": 7785,
      "æ·»åĬł": 7786,
      "relevant": 7787,
      "cross": 7788,
      "ä¸īäººä¼Ĺ": 7789,
      "initial": 7790,
      "ç»ĪæŃ¢": 7791,
      "åŁºçĿ£": 7792,
      "èļĢ": 7793,
      "æĬ¤çĲĨ": 7794,
      "èĲ¨æĳ©": 7795,
      "èİ²": 7796,
      "confirmed": 7797,
      "1570": 7798,
      "æŃ£æľĪ": 7799,
      "categ": 7800,
      "åħ³çĻ½": 7801,
      "åįĹæĸ¹": 7802,
      "æļĸ": 7803,
      "åı¯æĺ¯": 7804,
      "åħ´èµ·": 7805,
      "å®ĺä½į": 7806,
      "åħ¬çº¦": 7807,
      "biom": 7808,
      "infections": 7809,
      "liter": 7810,
      "åĽ½ä¼Ĺ": 7811,
      "ç¬¬ä¹Ŀ": 7812,
      "increases": 7813,
      "åĨħå¤ĸ": 7814,
      "correlated": 7815,
      "è¯ģå®ŀ": 7816,
      "inary": 7817,
      "mole": 7818,
      "éĺµèĲ¥": 7819,
      "periph": 7820,
      "çĶµç½ĳ": 7821,
      "rix": 7822,
      "è¯ģä¹¦": 7823,
      "ç¬¬äºĮä¸ª": 7824,
      "ä¹īä¹ħ": 7825,
      "å®¶éķ¿": 7826,
      "çĶŁçī©åŃ¦": 7827,
      "ä¾µåħ¥": 7828,
      "suggested": 7829,
      "çĵ¶": 7830,
      "å¡ĳéĢł": 7831,
      "ones": 7832,
      "æ¤İ": 7833,
      "æŃ¤ç±»": 7834,
      "agents": 7835,
      "adult": 7836,
      "ä¾µçķ¥": 7837,
      "resulting": 7838,
      "çº¢åĨĽ": 7839,
      "åĮĹæĸ¹": 7840,
      "åĪĿå§ĭ": 7841,
      "å¤ļåħĥåĮĸ": 7842,
      "åĸĦäºİ": 7843,
      "åı¯éĿłæĢ§": 7844,
      "ç§ģäºº": 7845,
      "è¢ĸ": 7846,
      "ä»£æĽ¿": 7847,
      "èĢķåľ°": 7848,
      "å°ºåº¦": 7849,
      "failure": 7850,
      "ä½Ĳä¹ħéĹ´": 7851,
      "åºŀ": 7852,
      "åħ±å»º": 7853,
      "endothelial": 7854,
      "å¤ºåĽŀ": 7855,
      "æ¢³": 7856,
      "reli": 7857,
      "ä¿¡å¿ĥ": 7858,
      "ga": 7859,
      "æĺİåºĶ": 7860,
      "vess": 7861,
      "è¶³è½»": 7862,
      "æĺĮå¹¸": 7863,
      "ino": 7864,
      "è°ĭåıį": 7865,
      "æĹłçº¿": 7866,
      "éĶ»": 7867,
      "åĽĽæĺ¯": 7868,
      "ä¸ĵé¢ĺ": 7869,
      "çĽ²": 7870,
      "absence": 7871,
      "EB": 7872,
      "studied": 7873,
      "å¤ĸæ±ĩ": 7874,
      "å¤ĩåīį": 7875,
      "è¡¥è´´": 7876,
      "åĲĦæĹı": 7877,
      "å¤§çº¦": 7878,
      "æµ·ä¸Ĭ": 7879,
      "å¸Ĳ": 7880,
      "ification": 7881,
      "leading": 7882,
      "cru": 7883,
      "scale": 7884,
      "EA": 7885,
      "åįģä¸ĢæľĪ": 7886,
      "åĲĪè§Ħ": 7887,
      "pregn": 7888,
      "æĬĢæľ¯åĪĽæĸ°": 7889,
      "ler": 7890,
      "æīĢè¯´": 7891,
      "æľ¨æĿĳ": 7892,
      "è¿Ļé¡¹": 7893,
      "å®Īå¤ĩ": 7894,
      "è´¦æĪ·": 7895,
      "æħ¢æĢ§": 7896,
      "tumo": 7897,
      "ä¼¤å®³": 7898,
      "synap": 7899,
      "ä¸Ģä¸ĭ": 7900,
      "ä»ªå¼ı": 7901,
      "interval": 7902,
      "ng": 7903,
      "ä¿¡æīĺ": 7904,
      "å½Ĵå±ŀ": 7905,
      "å¦ĤåĽ¾": 7906,
      "Results": 7907,
      "çŁ³æ²¹": 7908,
      "å£°æĺİ": 7909,
      "åĳ¨éĺ²": 7910,
      "éķ¿ç§Ģ": 7911,
      "termin": 7912,
      "ä¸¤å¹´": 7913,
      "cycle": 7914,
      "åľ°è´¨": 7915,
      "èĪŁ": 7916,
      "äºĮæĿ¡": 7917,
      "DC": 7918,
      "è¡Ģæ¶²": 7919,
      "æŁĵèī²": 7920,
      "é¢ĨåľŁ": 7921,
      "ä¼ļæ´¥": 7922,
      "åįĹäº¬": 7923,
      "Âµ": 7924,
      "patterns": 7925,
      "å¸ĪçĶŁ": 7926,
      "let": 7927,
      "applied": 7928,
      "æ»¡æĦı": 7929,
      "skin": 7930,
      "molecules": 7931,
      "èĲĦ": 7932,
      "ç¥Ŀ": 7933,
      "èĥĥ": 7934,
      "çĭŃéĹ´": 7935,
      "åįģäºĮå¹´": 7936,
      "Int": 7937,
      "received": 7938,
      "åĽ¾å½¢": 7939,
      "DS": 7940,
      "åĲŀ": 7941,
      "gical": 7942,
      "izing": 7943,
      "çİĭæľĿ": 7944,
      "èĩªå°½": 7945,
      "èĤ©": 7946,
      "è¯¯å·®": 7947,
      "species": 7948,
      "çŁ³è§ģ": 7949,
      "ç¡ķ": 7950,
      "åĮ»çĶŁ": 7951,
      "evaluation": 7952,
      "ä¸ľéĥ¨": 7953,
      "äººåĬĽèµĦæºĲ": 7954,
      "åįĹæľĿ": 7955,
      "æĭ¨": 7956,
      "è°ĥçłĶ": 7957,
      "oxygen": 7958,
      "fold": 7959,
      "æ¸ħåįķ": 7960,
      "æŃ¤æĪĺ": 7961,
      "Br": 7962,
      "duction": 7963,
      "generated": 7964,
      "pH": 7965,
      "stro": 7966,
      "fund": 7967,
      "ä¸ŃçŃī": 7968,
      "Medic": 7969,
      "suggests": 7970,
      "æł¡åĽŃ": 7971,
      "ä¹ħä¿Ŀ": 7972,
      "æĴŀ": 7973,
      "here": 7974,
      "uble": 7975,
      "rup": 7976,
      "tation": 7977,
      "æ®ĸæ°ĳ": 7978,
      "åıĶçĪ¶": 7979,
      "file": 7980,
      "trig": 7981,
      "interven": 7982,
      "environment": 7983,
      "stained": 7984,
      "Hz": 7985,
      "hal": 7986,
      "èĳ¡èĲĦ": 7987,
      "ç¥ĸåĽ½": 7988,
      "particularly": 7989,
      "åıĺè¿ģ": 7990,
      "success": 7991,
      "æīĳ": 7992,
      "èĩªç§°": 7993,
      "myo": 7994,
      "æķ·": 7995,
      "åĳĬçŁ¥": 7996,
      "ä¸ĢéĿ¢": 7997,
      "é¼»": 7998,
      "week": 7999,
      "å½Ĵçº³": 8000,
      "facil": 8001,
      "exhib": 8002,
      "ä¸ŃåĽ½äººæ°ĳ": 8003,
      "æľīæķĪæĢ§": 8004,
      "å®ªæĶ¿": 8005,
      "éļĻ": 8006,
      "complete": 8007,
      "ä½¿çĶ¨æĿĥ": 8008,
      "ologic": 8009,
      "å·¥åķĨ": 8010,
      "å±±åı£": 8011,
      "ä½ĵåĪ¶æĶ¹éĿ©": 8012,
      "è¦ģä»¶": 8013,
      "çºªä¼Ĭ": 8014,
      "åĩºäºİ": 8015,
      "ä¸ĬçĶ°": 8016,
      "åľ°çĤ¹": 8017,
      "fully": 8018,
      "components": 8019,
      "enced": 8020,
      "When": 8021,
      "çĽ´æĶ¿": 8022,
      "ÎĶ": 8023,
      "å¸¸å§Ķä¼ļ": 8024,
      "chann": 8025,
      "ortex": 8026,
      "åĽŀæĶ¶": 8027,
      "Americ": 8028,
      "èİ·èµĲ": 8029,
      "history": 8030,
      "chro": 8031,
      "åı¤åħ¸": 8032,
      "ground": 8033,
      "æ¶Īå¤±": 8034,
      "åŃ¦ä½į": 8035,
      "æĥ§": 8036,
      "å¯¹æİ¥": 8037,
      "reduce": 8038,
      "åħ¶ä½Ļ": 8039,
      "åłº": 8040,
      "UC": 8041,
      "comparison": 8042,
      "å¾½": 8043,
      "éĻĲäºİ": 8044,
      "ç¬¬ä¸īæĸ¹": 8045,
      "åĪ°åºķ": 8046,
      "åĩºå¾ģ": 8047,
      "ãģ¯": 8048,
      "äºĶçĻ¾": 8049,
      "åıĹçĲĨ": 8050,
      "ä»¿çľŁ": 8051,
      "verex": 8052,
      "kid": 8053,
      "èģļéĽĨ": 8054,
      "åĲ¹": 8055,
      "surve": 8056,
      "cons": 8057,
      "åıĤçħ§": 8058,
      "graphic": 8059,
      "è§Ħç«ł": 8060,
      "åħļåı²": 8061,
      "macrophages": 8062,
      "å¦»åŃĲ": 8063,
      "å¹´åºķ": 8064,
      "éķ¿éĩİ": 8065,
      "lay": 8066,
      "çĶŁåĬ¨": 8067,
      "æĹ¥åĨĽ": 8068,
      "ç²ĺ": 8069,
      "final": 8070,
      "åĩłå¹´": 8071,
      "äº§éĺ¶çº§": 8072,
      "detail": 8073,
      "åĮĸåĲĪçī©": 8074,
      "what": 8075,
      "since": 8076,
      "æļ´åĬĽ": 8077,
      "fact": 8078,
      "ergy": 8079,
      "åĲ«æľī": 8080,
      "ä¸ªåĪ«": 8081,
      "å¼¹æĢ§": 8082,
      "èĴ¸": 8083,
      "Sim": 8084,
      "incidence": 8085,
      "åĻ¨ä»¶": 8086,
      "å½°æĺ¾": 8087,
      "æī®": 8088,
      "cult": 8089,
      "1573": 8090,
      "å°ĳæķ°æ°ĳæĹı": 8091,
      "æĪĺäºĭ": 8092,
      "è±¡å¾ģ": 8093,
      "çĽ¸ä¼ł": 8094,
      "é¢ĦèŃ¦": 8095,
      "dy": 8096,
      "æİ©": 8097,
      "rapid": 8098,
      "éĿĴå°ĳå¹´": 8099,
      "ä»İæŃ¤": 8100,
      "å²Ĳéĺľ": 8101,
      "å¹¿åĳĬ": 8102,
      "regression": 8103,
      "ä¹¦ä¿¡": 8104,
      "æ´¥åŁİ": 8105,
      "CV": 8106,
      "å±±åİ¿": 8107,
      "ched": 8108,
      "éĻĨå¥¥": 8109,
      "éĨį": 8110,
      "åĬłå¯Ĩ": 8111,
      "æ®ĭçĸ¾": 8112,
      "genous": 8113,
      "è¿ĩäºİ": 8114,
      "ç²ĴåŃĲ": 8115,
      "2001": 8116,
      "å¿łè¯ļ": 8117,
      "peptide": 8118,
      "è·Łéļı": 8119,
      "æĭ¼": 8120,
      "leuk": 8121,
      "median": 8122,
      "ä¿¡æģ¯ç³»ç»Ł": 8123,
      "å¸¸å¸¸": 8124,
      "è¾ħä½Ĳ": 8125,
      "äº²çİĭ": 8126,
      "LP": 8127,
      "ardi": 8128,
      "established": 8129,
      "future": 8130,
      "åħ¬æľī": 8131,
      "æŁı": 8132,
      "ä¼Ĭè±«": 8133,
      "å¤§èĩ´": 8134,
      "å¤§åĪ©": 8135,
      "å°½åı¯èĥ½": 8136,
      "éªļ": 8137,
      "tle": 8138,
      "ä¸įçŁ¥": 8139,
      "ä¸Ģç±»": 8140,
      "æīŃ": 8141,
      "åįļçī©é¦Ĩ": 8142,
      "æģ¨": 8143,
      "åıĳæĢ§": 8144,
      "æ»´": 8145,
      "çŃĴäºķ": 8146,
      "çĤ¸": 8147,
      "åħ±äº§ä¸»ä¹ī": 8148,
      "characterized": 8149,
      "Inc": 8150,
      "å¾Īéļ¾": 8151,
      "strain": 8152,
      "onset": 8153,
      "æłĩè®°": 8154,
      "Meth": 8155,
      "çī¹å¼Ĥ": 8156,
      "åĽŀåºĶ": 8157,
      "çłĶç©¶æĪĲæŀľ": 8158,
      "éĨĲ": 8159,
      "Medical": 8160,
      "éĨįéĨĲ": 8161,
      "vities": 8162,
      "åĩĮ": 8163,
      "æ¸Ķ": 8164,
      "äºĶä¸ª": 8165,
      "åŁºæľ¬åİŁçĲĨ": 8166,
      "deli": 8167,
      "2002": 8168,
      "ä¸īåĽ½": 8169,
      "çłĶç©¶åĳĺ": 8170,
      "alg": 8171,
      "èĴĭ": 8172,
      "å¸¦æľī": 8173,
      "åĨ¢": 8174,
      "ns": 8175,
      "ä¸Ģå®¶": 8176,
      "ä¸įç¡®å®ļæĢ§": 8177,
      "Immun": 8178,
      "Sh": 8179,
      "arly": 8180,
      "æŃ£åĪĻ": 8181,
      "åįģä¸Ģå¹´": 8182,
      "æ¶µçĽĸ": 8183,
      "è´±": 8184,
      "remains": 8185,
      "malign": 8186,
      "istic": 8187,
      "åŁºåĽłç»Ħ": 8188,
      "èĤ¤": 8189,
      "mel": 8190,
      "utions": 8191,
      "çķ¿åĨħ": 8192,
      "recor": 8193,
      "ä¹ĭä¸º": 8194,
      "èĨ³": 8195,
      "æĭĺ": 8196,
      "disorder": 8197,
      "æıĲç¤º": 8198,
      "alco": 8199,
      "imin": 8200,
      "åĮĹéĥ¨": 8201,
      "çļĩå¸Ŀ": 8202,
      "ods": 8203,
      "æĬĹæĪĺ": 8204,
      "æĸĩåĮĸéģĹäº§": 8205,
      "head": 8206,
      "ä¹īæĻ¯": 8207,
      "å°ıæĹ©å·ĿéļĨæĻ¯": 8208,
      "approxim": 8209,
      "çłĶåĪ¶": 8210,
      "NI": 8211,
      "æĬ¥éħ¬": 8212,
      "æĸ½è¡Į": 8213,
      "æĪĺæľ¯": 8214,
      "æĢģåĬ¿": 8215,
      "transi": 8216,
      "æ¡¶çĭŃéĹ´": 8217,
      "çĶ¨éĢĶ": 8218,
      "åĻ¨å®ĺ": 8219,
      "æ£Ģå¯ŁéĻ¢": 8220,
      "é¤Ĳ": 8221,
      "åĿļå®ŀ": 8222,
      "æľªç»ı": 8223,
      "cial": 8224,
      "ped": 8225,
      "å¿Į": 8226,
      "implement": 8227,
      "éģŃéģĩ": 8228,
      "location": 8229,
      "çİ©": 8230,
      "æĲ¬": 8231,
      "ä¹ĭåľ°": 8232,
      "ä¸Ĭçº§": 8233,
      "å¿ĥèĦı": 8234,
      "tors": 8235,
      "require": 8236,
      "äºļæ´²": 8237,
      "èĪĨè®º": 8238,
      "éļĨä¿¡": 8239,
      "å®¾": 8240,
      "espec": 8241,
      "lan": 8242,
      "æ¢³çĲĨ": 8243,
      "èĩ³åħ³": 8244,
      "screening": 8245,
      "åĩ¯": 8246,
      "åįģæĿ¡": 8247,
      "æĸ°èĥ½æºĲ": 8248,
      "myel": 8249,
      "ä¼ĺçĤ¹": 8250,
      "sity": 8251,
      "é¢Ĺç²Ĵ": 8252,
      "ä¸¢": 8253,
      "ets": 8254,
      "éĵº": 8255,
      "éķ¿åº¦": 8256,
      "RF": 8257,
      "moder": 8258,
      "leep": 8259,
      "ä»£å½ĵä¸»": 8260,
      "æł·åĵģ": 8261,
      "å®Ĺå®¶": 8262,
      "especially": 8263,
      "é«ĺæ¡¥": 8264,
      "na": 8265,
      "sig": 8266,
      "evaluate": 8267,
      "åĩłä½ķ": 8268,
      "explo": 8269,
      "èĥ½çĻ»": 8270,
      "behavior": 8271,
      "åİ¿çº§": 8272,
      "ä¸Ģæµģ": 8273,
      "another": 8274,
      "IgG": 8275,
      "éĢļè®¯": 8276,
      "å¥ĳçº¦": 8277,
      "çīº": 8278,
      "microsco": 8279,
      "saf": 8280,
      "åĳ½é¢ĺ": 8281,
      "åħ¨æĸ¹ä½į": 8282,
      "statistical": 8283,
      "together": 8284,
      "ä¸°åīį": 8285,
      "åį°åıĳ": 8286,
      "accum": 8287,
      "ised": 8288,
      "åĲĪéĢĤ": 8289,
      "ä¸ĢæĶ¯": 8290,
      "TGF": 8291,
      "orescence": 8292,
      "åŁİä¸ĭ": 8293,
      "morpho": 8294,
      "èµ·æºĲ": 8295,
      "åĭŁ": 8296,
      "distinc": 8297,
      "Is": 8298,
      "embr": 8299,
      "radiation": 8300,
      "æŀģç«¯": 8301,
      "æĥħæĬ¥": 8302,
      "æĥľ": 8303,
      "åıĹä½ĵ": 8304,
      "ä¸Ģä¸ĩ": 8305,
      "æ·±è¿ľ": 8306,
      "ventric": 8307,
      "æĹ¥è®°": 8308,
      "plat": 8309,
      "enhanced": 8310,
      "åħļçļĦå»ºè®¾": 8311,
      "âĦĥ": 8312,
      "åħ¨åĽ½äººå¤§": 8313,
      "contribute": 8314,
      "covery": 8315,
      "åĮħè£ħ": 8316,
      "æ·ĭå·´": 8317,
      "å¹»": 8318,
      "æĹ¥æľŁ": 8319,
      "ä¸¤äºº": 8320,
      "ä¹ĭå¥³": 8321,
      "åĪĹå®ģ": 8322,
      "éĺĲéĩĬ": 8323,
      "è¯±å¯¼": 8324,
      "åºĶæľī": 8325,
      "èµĦæºĲéħįç½®": 8326,
      "æĮĩåĲĳ": 8327,
      "æģ¶åĮĸ": 8328,
      "achie": 8329,
      "åįĩé«ĺ": 8330,
      "suffici": 8331,
      "å®£åĳĬ": 8332,
      "å½¼æŃ¤": 8333,
      "incubated": 8334,
      "interpre": 8335,
      "å¯¹çħ§": 8336,
      "å¤ļæł·åĮĸ": 8337,
      "åħ³å¿ĥ": 8338,
      "å³Ļ": 8339,
      "paper": 8340,
      "å§Ĩ": 8341,
      "åĲĪæł¼": 8342,
      "æıĲåīį": 8343,
      "å£®å¤§": 8344,
      "åĬłåī§": 8345,
      "ery": 8346,
      "æĿĢæŃ»": 8347,
      "New": 8348,
      "æ°Ķè±¡": 8349,
      "èĿ": 8350,
      "ç§Ģéķ¿": 8351,
      "èİ±": 8352,
      "åĨ³å®ļæĢ§": 8353,
      "åį³å°Ĩ": 8354,
      "é¢ĳç¹ģ": 8355,
      "æī©æķ£": 8356,
      "æīĢæľīåĪ¶": 8357,
      "ering": 8358,
      "å±ĢåĬ¿": 8359,
      "recru": 8360,
      "glut": 8361,
      "è¾°": 8362,
      "æĶ»åħ¥": 8363,
      "LV": 8364,
      "----------------------------": 8365,
      "ä¸ĭæĢ»": 8366,
      "åħĨ": 8367,
      "uter": 8368,
      "å®¹åĻ¨": 8369,
      "æµģåĬ¨æĢ§": 8370,
      "å¥¥å·ŀ": 8371,
      "å¹½": 8372,
      "å¯¹å¤ĸå¼ĢæĶ¾": 8373,
      "èµ·ä¹ī": 8374,
      "expected": 8375,
      "tered": 8376,
      "æľ¬æ¡Ī": 8377,
      "toward": 8378,
      "çīºçī²": 8379,
      "ME": 8380,
      "åŁºåĩĨ": 8381,
      "peripheral": 8382,
      "needed": 8383,
      "ç¾İå¥½çĶŁæ´»": 8384,
      "means": 8385,
      "æĢ»ä¹ĭ": 8386,
      "ä¸ºæŃ¢": 8387,
      "hours": 8388,
      "temper": 8389,
      "tension": 8390,
      "æĶ¿åįı": 8391,
      "è¿«ä½¿": 8392,
      "æĿ¥åĪ°": 8393,
      "ä¼łæŁĵ": 8394,
      "æĺİæľĿ": 8395,
      "interactions": 8396,
      "ä½ĵåĨħ": 8397,
      "éĩıåĮĸ": 8398,
      "Patients": 8399,
      "æłĩè¯Ĩ": 8400,
      "ake": 8401,
      "BR": 8402,
      "æĶ¹æĺĵ": 8403,
      "éĥ¨ä½į": 8404,
      "ç²¹": 8405,
      "pulmonary": 8406,
      "å¯Ĩçłģ": 8407,
      "æĸĳ": 8408,
      "dynam": 8409,
      "åŀĥ": 8410,
      "ãģ¦": 8411,
      "åľ¾": 8412,
      "å·¥ä½ľèĢħ": 8413,
      "whole": 8414,
      "supported": 8415,
      "åŀĥåľ¾": 8416,
      "NC": 8417,
      "é«ĺç«¯": 8418,
      "æķĻèĤ²éĥ¨": 8419,
      "nology": 8420,
      "åħ³èĬĤ": 8421,
      "electr": 8422,
      "è¯ĪéªĹ": 8423,
      "åħ¬åĽŃ": 8424,
      "å®ŀä¹ł": 8425,
      "ä»Ģä¹Īæł·": 8426,
      "è£ģåĨ³": 8427,
      "å¤±ä¸ļ": 8428,
      "HF": 8429,
      "å¤©çİĭ": 8430,
      "effic": 8431,
      "è§£æŀĲ": 8432,
      "intestinal": 8433,
      "last": 8434,
      "åĨ³å¿ĥ": 8435,
      "çīĪæľ¬": 8436,
      "çªĥ": 8437,
      "late": 8438,
      "ç»Īç«¯": 8439,
      "æ¼ĶåĮĸ": 8440,
      "èĩ³åħ³éĩįè¦ģ": 8441,
      "With": 8442,
      "åľ°éĿ¢": 8443,
      "fluid": 8444,
      "appropriate": 8445,
      "éĽķ": 8446,
      "ãĤĭ": 8447,
      "pose": 8448,
      "æĿ¾æ°¸ä¹ħ": 8449,
      "æĿ¾æ°¸ä¹ħç§Ģ": 8450,
      "ä¸ŃæĸŃ": 8451,
      "èĲ¥ä¸ļ": 8452,
      "respiratory": 8453,
      "Be": 8454,
      "åıĮéĩį": 8455,
      "èĤºçĤİ": 8456,
      "home": 8457,
      "ä¸īæĿ¡": 8458,
      "çĽ¸ä¿¡": 8459,
      "ç»ĺçĶ»": 8460,
      "æ±¡æŁĵçī©": 8461,
      "consis": 8462,
      "åķĨä¸ļéĵ¶è¡Į": 8463,
      "è·µè¡Į": 8464,
      "Ag": 8465,
      "power": 8466,
      "çĸ²": 8467,
      "é»Ħæ²³": 8468,
      "éĴ¥": 8469,
      "secondary": 8470,
      "å§Ĳ": 8471,
      "åĪĽç«ĭ": 8472,
      "éĺµåľ°": 8473,
      "begin": 8474,
      "pite": 8475,
      "èĻļåģĩ": 8476,
      "Bio": 8477,
      "refer": 8478,
      "åĨ»": 8479,
      "biomark": 8480,
      "ä¹¦æ³ķ": 8481,
      "intra": 8482,
      "æľ¬æĿ¥": 8483,
      "summ": 8484,
      "çķľ": 8485,
      "surgical": 8486,
      "ä¸ºé¦ĸ": 8487,
      "ä¸įå¼Ģ": 8488,
      "phag": 8489,
      "åĪ·": 8490,
      "throm": 8491,
      "1578": 8492,
      "monitor": 8493,
      "åıĹçĽĬ": 8494,
      "ä¸ĵçĶ¨": 8495,
      "çī©èµĦ": 8496,
      "blas": 8497,
      "å³»": 8498,
      "éªıåºľ": 8499,
      "bir": 8500,
      "1585": 8501,
      "çĭĤ": 8502,
      "å®ĹæĹ¨": 8503,
      "æ±Łèĭı": 8504,
      "æĩĪ": 8505,
      "å»¶éķ¿": 8506,
      "amino": 8507,
      "mutant": 8508,
      "åĳ¨å¹´": 8509,
      "åħ¹": 8510,
      "åĶ¯çī©ä¸»ä¹ī": 8511,
      "ä¸¤æ¬¡": 8512,
      "ç«łç¨ĭ": 8513,
      "vector": 8514,
      "åĳĬè¯ī": 8515,
      "çľģçº§": 8516,
      "young": 8517,
      "tative": 8518,
      "overex": 8519,
      "æĮģä¹ħ": 8520,
      "strategies": 8521,
      "induction": 8522,
      "ä¹¦åĨĻ": 8523,
      "neuronal": 8524,
      "ç³ĸå°¿": 8525,
      "corresponding": 8526,
      "upon": 8527,
      "æįĲ": 8528,
      "è´¢çī©": 8529,
      "çħĮ": 8530,
      "wild": 8531,
      "possi": 8532,
      "æľĭ": 8533,
      "tware": 8534,
      "ç¡ħ": 8535,
      "åħĪè¡Į": 8536,
      "CIT": 8537,
      "èĩªæ²»åĮº": 8538,
      "While": 8539,
      "ä¸īç»´": 8540,
      "eding": 8541,
      "å¹³å®ī": 8542,
      "hypothesis": 8543,
      "focus": 8544,
      "adults": 8545,
      "impair": 8546,
      "èĭ±éĽĦ": 8547,
      "åĿļå®Ī": 8548,
      "causes": 8549,
      "æĻļå¹´": 8550,
      "éĺ»æŃ¢": 8551,
      "è·Łè¸ª": 8552,
      "ND": 8553,
      "æķĳæµİ": 8554,
      "alone": 8555,
      "ium": 8556,
      "administration": 8557,
      "åĴĮæ³ī": 8558,
      "è¿ľç¨ĭ": 8559,
      "æĦıæĦ¿": 8560,
      "ç¨į": 8561,
      "investigate": 8562,
      "åİĨä»£": 8563,
      "æĿĤå¿Ĺ": 8564,
      "å£°éŁ³": 8565,
      "å¼Ĥè®®": 8566,
      "åİī": 8567,
      "repres": 8568,
      "ä¸ľåįĹ": 8569,
      "useful": 8570,
      "è¯ļä¿¡": 8571,
      "æīĢå¾Ĺç¨İ": 8572,
      "é»Ħéĩĳ": 8573,
      "çŃĶæ¡Ī": 8574,
      "ç»ĨåĮĸ": 8575,
      "é¦ĸè¦ģ": 8576,
      "å°ĺ": 8577,
      "çĻĮçĹĩ": 8578,
      "çºłæŃ£": 8579,
      "éĴĻ": 8580,
      "åĴĮçĿ¦": 8581,
      "ifically": 8582,
      "vaccin": 8583,
      "EV": 8584,
      "course": 8585,
      "å±±ä¸Ń": 8586,
      "phenotype": 8587,
      "Or": 8588,
      "1575": 8589,
      "çĥ¯": 8590,
      "è¯ĹæŃĮ": 8591,
      "çº²è¦ģ": 8592,
      "çĹħåıĺ": 8593,
      "æ¨¡ç³Ĭ": 8594,
      "å¯¹å³Ļ": 8595,
      "çªĦ": 8596,
      "transplant": 8597,
      "ä¸Ģèĩ´æĢ§": 8598,
      "è°ĥåº¦": 8599,
      "ç§Ĵ": 8600,
      "æĸ¹æ³ķè®º": 8601,
      "èĢ¶": 8602,
      "åĪĨéĴŁ": 8603,
      "ii": 8604,
      "èįīæ¡Ī": 8605,
      "æĿł": 8606,
      "interventions": 8607,
      "å®ŀåľ¨": 8608,
      "literature": 8609,
      "è¿Ń": 8610,
      "éĵĥ": 8611,
      "æµģä¼ł": 8612,
      "äººå¿ĥ": 8613,
      "åĽ½åľŁ": 8614,
      "èħĬ": 8615,
      "æĹłäº§éĺ¶çº§": 8616,
      "linked": 8617,
      "èģĶåĬ¨": 8618,
      "ä½ľé£İ": 8619,
      "ç¼´çº³": 8620,
      "æłı": 8621,
      "åĽŀé¡¾": 8622,
      "HT": 8623,
      "cortex": 8624,
      "æĭĸ": 8625,
      "ç³ĸå°¿çĹħ": 8626,
      "éħĴäºķ": 8627,
      "åĲĪåĲĮæ³ķ": 8628,
      "å®ŀè®Ń": 8629,
      "combined": 8630,
      "ton": 8631,
      "æĪĸè®¸": 8632,
      "researchers": 8633,
      "pers": 8634,
      "å¼Ģæĭĵ": 8635,
      "ems": 8636,
      "provides": 8637,
      "lipo": 8638,
      "å®ļéĩı": 8639,
      "matrix": 8640,
      "cardiovascular": 8641,
      "obj": 8642,
      "synthesis": 8643,
      "ãģĭ": 8644,
      "å®¢ä½ĵ": 8645,
      "necessary": 8646,
      "åĴĮçĶ°": 8647,
      "åŁºæľ¬ä¸Ĭ": 8648,
      "neural": 8649,
      "much": 8650,
      "migration": 8651,
      "Des": 8652,
      "PM": 8653,
      "ä¹īåĬ¡æķĻèĤ²": 8654,
      "æĦ¤": 8655,
      "åĨħä¹±": 8656,
      "æĹ¬": 8657,
      "context": 8658,
      "åıĸæ¶Ī": 8659,
      "inhibitors": 8660,
      "èĥº": 8661,
      "ä»İä¸¥æ²»åħļ": 8662,
      "gas": 8663,
      "çĪµ": 8664,
      "å¹³æĸ¹": 8665,
      "åħ¨æ°ĳ": 8666,
      "CSF": 8667,
      "å¤ĩåĲİ": 8668,
      "å°ıéĩİ": 8669,
      "é£ŀæľº": 8670,
      "metabolism": 8671,
      "cytokines": 8672,
      "èĩ´ä½¿": 8673,
      "1584": 8674,
      "æµĨ": 8675,
      "developing": 8676,
      "æĢĢçĸĳ": 8677,
      "é©³": 8678,
      "éĤĢè¯·": 8679,
      "ä¸ĵä¸ļåĮĸ": 8680,
      "é£ŀè¡Į": 8681,
      "tries": 8682,
      "æľįä»İ": 8683,
      "æļ´éľ²": 8684,
      "åľ°å½¢": 8685,
      "ä¼Ļä¼´": 8686,
      "åĨľæĪ·": 8687,
      "Not": 8688,
      "åĪĿä»£": 8689,
      "......": 8690,
      "è´ŁéĿ¢": 8691,
      "åĸ»": 8692,
      "æīĵå¼Ģ": 8693,
      "èĲ½åľ°": 8694,
      "water": 8695,
      "ç¨»åı¶": 8696,
      "æĪĲåĥı": 8697,
      "è¢«åĬ¨": 8698,
      "improved": 8699,
      "åĪĹä¸º": 8700,
      "xi": 8701,
      "thal": 8702,
      "éļıåį³": 8703,
      "six": 8704,
      "çĶµç£ģ": 8705,
      "ç¾İä¸½": 8706,
      "aring": 8707,
      "æ°¸è¿ľ": 8708,
      "0001": 8709,
      "æī¶æĮģ": 8710,
      "Institute": 8711,
      "å½¢çĬ¶": 8712,
      "éĺ»ç¢į": 8713,
      "æŃ£éĿ¢": 8714,
      "æ°ĽåĽ´": 8715,
      "éĥ¨ä»¶": 8716,
      "itis": 8717,
      "cepti": 8718,
      "camp": 8719,
      "äºĮåįģå¤§": 8720,
      "æĸ°å¢ŀ": 8721,
      "produced": 8722,
      "ç»ıçĲĨ": 8723,
      "bral": 8724,
      "employ": 8725,
      "åľ³": 8726,
      "ä¸ĢçĶŁ": 8727,
      "åĬ©åĬĽ": 8728,
      "æĮ¡": 8729,
      "ä¸¾è¯ģ": 8730,
      "èµĲè±«": 8731,
      "map": 8732,
      "äº§åĩº": 8733,
      "designed": 8734,
      "èĢģå¹´äºº": 8735,
      "ä¸įäºĪ": 8736,
      "âĢĲ": 8737,
      "çŃīå¾ħ": 8738,
      "æ²¿æµ·": 8739,
      "åģıè®³": 8740,
      "å®¶äºº": 8741,
      "limit": 8742,
      "åŁºç¡ĢæĢ§": 8743,
      "Additional": 8744,
      "åħ¨æĸ°": 8745,
      "æłĹ": 8746,
      "GP": 8747,
      "taneous": 8748,
      "text": 8749,
      "Cor": 8750,
      "çĶµæºĲ": 8751,
      "åįģåĽĽæĿ¡": 8752,
      "è®¨åıĸ": 8753,
      "åħ¬å®¶": 8754,
      "çĽ¸èī¯": 8755,
      "åĿļå¼º": 8756,
      "att": 8757,
      "eting": 8758,
      "approved": 8759,
      "jo": 8760,
      "è¾±": 8761,
      "ç¼©å°ı": 8762,
      "underlying": 8763,
      "åıĤè§ģ": 8764,
      "è§ģäºİ": 8765,
      "æī«æıı": 8766,
      "çŁ³å±±": 8767,
      "éĺ²æĬ¤": 8768,
      "æľ¨ä¸ĭ": 8769,
      "ãĤĴ": 8770,
      "æĽ¹": 8771,
      "åĽłæŀľ": 8772,
      "ä¸ĺ": 8773,
      "cip": 8774,
      "åłª": 8775,
      "åŃ¦æ´¾": 8776,
      "çºĤ": 8777,
      "é©°": 8778,
      "å¼ĢåŁİ": 8779,
      "å£³": 8780,
      "å¢ŀå¤§": 8781,
      "anes": 8782,
      "è¿ĽåĮĸ": 8783,
      "åĩıæİĴ": 8784,
      "åĩłç§į": 8785,
      "å¹¶åıĳ": 8786,
      "æĪĺçķ¥æĢ§": 8787,
      "intensity": 8788,
      "åĲı": 8789,
      "ä¸ľæĸ¹": 8790,
      "è´¯å½»èĲ½å®ŀ": 8791,
      "ç¦»å©ļ": 8792,
      "å°ıé¼ł": 8793,
      "ä¸įå¦Ĥ": 8794,
      "åīįçĶ°åĪ©å®¶": 8795,
      "ä¸°èĩ£æĶ¿æĿĥ": 8796,
      "induce": 8797,
      "åıĸåĲĳ": 8798,
      "é¡½": 8799,
      "æĪĸæĺ¯": 8800,
      "grade": 8801,
      "hood": 8802,
      "åĲĮæĹı": 8803,
      "capac": 8804,
      "signals": 8805,
      "vision": 8806,
      "èĮĥå¼ı": 8807,
      "åıįå°Ħ": 8808,
      "article": 8809,
      "ä¸įè®º": 8810,
      "elevated": 8811,
      "content": 8812,
      "Gen": 8813,
      "expressing": 8814,
      "viruses": 8815,
      "efficacy": 8816,
      "å®ŀåĬ¡": 8817,
      "sens": 8818,
      "éŁµ": 8819,
      "æķĻåŃ¦åĨħå®¹": 8820,
      "äº©": 8821,
      "éĿĻèĦī": 8822,
      "coding": 8823,
      "åĳ½åĲį": 8824,
      "åīĤéĩı": 8825,
      "äºĮçĻ¾": 8826,
      "imer": 8827,
      "access": 8828,
      "éķ¿è¿ľ": 8829,
      "learning": 8830,
      "cultured": 8831,
      "åĽŃåĮº": 8832,
      "ites": 8833,
      "sc": 8834,
      "ster": 8835,
      "ä¸Ńå±±": 8836,
      "éļ¾çĤ¹": 8837,
      "äºĴèģĶ": 8838,
      "must": 8839,
      "åĪĨè¾¨": 8840,
      "åĩ¸æĺ¾": 8841,
      "æĳĨèĦ±": 8842,
      "knock": 8843,
      "stream": 8844,
      "åıĺæį¢": 8845,
      "activities": 8846,
      "åĸ·": 8847,
      "phen": 8848,
      "simp": 8849,
      "åĪłéĻ¤": 8850,
      "GFP": 8851,
      "ä¸įä»ħä»ħ": 8852,
      "recently": 8853,
      "Cy": 8854,
      "ä¸ĢæĹ¶": 8855,
      "æ·±åľ³": 8856,
      "å»ºæ¨¡": 8857,
      "åı¸æ³ķè§£éĩĬ": 8858,
      "å¼Ģè®¾": 8859,
      "ibr": 8860,
      "sleep": 8861,
      "æĹ¶æķĪ": 8862,
      "åıįæĬĹ": 8863,
      "å¯¹æīĭ": 8864,
      "âĳ£": 8865,
      "Nor": 8866,
      "sum": 8867,
      "HCC": 8868,
      "åĲĲ": 8869,
      "002": 8870,
      "åĲĮåŃ¦": 8871,
      "axis": 8872,
      "åİĺ": 8873,
      "æľŁå¾ħ": 8874,
      "person": 8875,
      "çĽ´è¾ĸ": 8876,
      "æĢ»é¢Ŀ": 8877,
      "extr": 8878,
      "VEGF": 8879,
      "è¿ª": 8880,
      "è°ĭåĪĴ": 8881,
      "æĹ¥åĲİ": 8882,
      "å½±åĥı": 8883,
      "properties": 8884,
      "éļĶç¦»": 8885,
      "ä¹ĭæĹ¥èµ·": 8886,
      "TC": 8887,
      "unit": 8888,
      "They": 8889,
      "ä¸ªæĢ§åĮĸ": 8890,
      "ä¸īæµ¦": 8891,
      "land": 8892,
      "å°ºå¯¸": 8893,
      "æķĮå¯¹": 8894,
      "blot": 8895,
      "processing": 8896,
      "nai": 8897,
      "phosphorylation": 8898,
      "ç®¡åĪ¶": 8899,
      "èĩ³æŃ¤": 8900,
      "pot": 8901,
      "significance": 8902,
      "å¤®è¡Į": 8903,
      "ä»£è¡¨æĢ§": 8904,
      "ç»ĵçĽŁ": 8905,
      "Inter": 8906,
      "çĶ³è¯·äºº": 8907,
      "you": 8908,
      "ç¼Ŀ": 8909,
      "essential": 8910,
      "å¹²ç»Ĩèĥŀ": 8911,
      "åĲĦæĹıäººæ°ĳ": 8912,
      "1560": 8913,
      "SI": 8914,
      "åĮħå®¹": 8915,
      "çŃĳåĲİ": 8916,
      "åĪĨæ³Į": 8917,
      "ä¸īæĹ¥": 8918,
      "äºĮæ°§åĮĸç¢³": 8919,
      "ingly": 8920,
      "ç¢°": 8921,
      "èĪĴ": 8922,
      "Cancer": 8923,
      "apy": 8924,
      "ç»Ħå»º": 8925,
      "ä¸įåĲĮäºİ": 8926,
      "çĭ©": 8927,
      "æĪĲæĶ¿": 8928,
      "åį´æĺ¯": 8929,
      "If": 8930,
      "ä¼łæķĻ": 8931,
      "å¾·å·Ŀç§Ģå¿ł": 8932,
      "chemical": 8933,
      "ä¸Ģåįĥ": 8934,
      "èµ¦": 8935,
      "ä¸įç®¡": 8936,
      "reat": 8937,
      "duration": 8938,
      "æķĪèĥ½": 8939,
      "çİ°åŃĺ": 8940,
      "çĿĢçľ¼": 8941,
      "terms": 8942,
      "è¡ĮæĶ¿åĮº": 8943,
      "ä¸Ļ": 8944,
      "èĩªçĦ¶èµĦæºĲ": 8945,
      "æłª": 8946,
      "èĮ¨": 8947,
      "å¤§æĪĺ": 8948,
      "thesi": 8949,
      "è¯Ħè®º": 8950,
      "suscepti": 8951,
      "Su": 8952,
      "ç®ĢåĮĸ": 8953,
      "æľ¬åľŁ": 8954,
      "Ty": 8955,
      "çİ»": 8956,
      "å®ŀè¯ģ": 8957,
      "èĥ°": 8958,
      "forms": 8959,
      "èĪŀåı°": 8960,
      "æĥ³è¦ģ": 8961,
      "åĬ²": 8962,
      "åĿĲæłĩ": 8963,
      "alcohol": 8964,
      "æĢ¨": 8965,
      "çĿ¡": 8966,
      "å¯ĨéĽĨ": 8967,
      "åįĹåĮĹæľĿ": 8968,
      "é©±éĢĲ": 8969,
      "ä¸ŃåİŁ": 8970,
      "æĶ¾å¤§": 8971,
      "1568": 8972,
      "bacterial": 8973,
      "1569": 8974,
      "acts": 8975,
      "æĥ£": 8976,
      "ç¼ºå¤±": 8977,
      "èº«è¾¹": 8978,
      "icians": 8979,
      "buff": 8980,
      "nuclear": 8981,
      "æİ¨çĲĨ": 8982,
      "é¢Ħè®¡": 8983,
      "éĻª": 8984,
      "æľºåĬ¨": 8985,
      "ä¸īæĸ¹": 8986,
      "ä¸īå¥½éķ¿åºĨ": 8987,
      "cortical": 8988,
      "å°½éĩı": 8989,
      "tili": 8990,
      "Trans": 8991,
      "ä¸Ĭå¸Ĥåħ¬åı¸": 8992,
      "Qu": 8993,
      "èĦ¸": 8994,
      "ince": 8995,
      "taken": 8996,
      "å®¡è®®": 8997,
      "biop": 8998,
      "å¯¡": 8999,
      "ãģª": 9000,
      "æĻ´è´¤": 9001,
      "å¾Īå°ĳ": 9002,
      "squ": 9003,
      "eter": 9004,
      "æľŁæľĽ": 9005,
      "å¤§å±Ģ": 9006,
      "é«ĺèģĮ": 9007,
      "åĭ¾": 9008,
      "è¯¸ä¾¯": 9009,
      "èĥĮåıĽ": 9010,
      "å¢ĥçķĮ": 9011,
      "3000": 9012,
      "marker": 9013,
      "æĢ»ç»Ł": 9014,
      "åĽ½éĻħåĮĸ": 9015,
      "AB": 9016,
      "ç»ĵç®Ĺ": 9017,
      "å¹¿éĺĶ": 9018,
      "æµ¸": 9019,
      "event": 9020,
      "zation": 9021,
      "æĵ¦": 9022,
      "æĻºåĬĽ": 9023,
      "strains": 9024,
      "dysfunction": 9025,
      "åħĳ": 9026,
      "åįģåĽĽäºĶ": 9027,
      "problems": 9028,
      "æķĳåĬ©": 9029,
      "sensitive": 9030,
      "å®ŀäºĭ": 9031,
      "genome": 9032,
      "ier": 9033,
      "circul": 9034,
      "èĭ¥çĭŃ": 9035,
      "morph": 9036,
      "èĤ¢": 9037,
      "approaches": 9038,
      "display": 9039,
      "åįģä¸ĥæĿ¡": 9040,
      "ç¼ºå°ĳ": 9041,
      "åħ¨åĨĽ": 9042,
      "æº¶æ¶²": 9043,
      "ä¿¡åº·": 9044,
      "male": 9045,
      "åĽĽå·Ŀ": 9046,
      "procedure": 9047,
      "reshold": 9048,
      "ç»Īç»ĵ": 9049,
      "........": 9050,
      "ergic": 9051,
      "urine": 9052,
      "Hospital": 9053,
      "åĪĿçº§": 9054,
      "èıħ": 9055,
      "System": 9056,
      "å¹³åİŁ": 9057,
      "ç®¡æİ§": 9058,
      "techniques": 9059,
      "having": 9060,
      "ç»¼åĲĪæĢ§": 9061,
      "ç§ĳåŃ¦éĻ¢": 9062,
      "æī®æ¼Ķ": 9063,
      "ä¾¿äºİ": 9064,
      "åĳĪçİ°åĩº": 9065,
      "ito": 9066,
      "çķĮéĿ¢": 9067,
      "æĶ¾å°Ħ": 9068,
      "Sub": 9069,
      "bit": 9070,
      "åı¹": 9071,
      "è¸ı": 9072,
      "èŀº": 9073,
      "åıĭå¥½": 9074,
      "åīª": 9075,
      "åĨ³æĪĺ": 9076,
      "ç§Ģå®¶": 9077,
      "ä¸ŃåŃ¦": 9078,
      "Clinical": 9079,
      "restric": 9080,
      "å¢ŀå¤ļ": 9081,
      "éĢŁçİĩ": 9082,
      "çĥŃçĤ¹": 9083,
      "assays": 9084,
      "mediate": 9085,
      "ä¸¤åĽ½": 9086,
      "estimated": 9087,
      "fra": 9088,
      "ä¸įåĬ¨äº§": 9089,
      "åĲİè£Ķ": 9090,
      "åĢŁè´·": 9091,
      "åĻªå£°": 9092,
      "ä¸Ģè¾¹": 9093,
      "ä¸ĭåİ»": 9094,
      "ird": 9095,
      "birth": 9096,
      "æ°´åĪ©": 9097,
      "ç§įç§į": 9098,
      "å¸¸åĬ¡": 9099,
      "çī©ç§į": 9100,
      "tomy": 9101,
      "çľĭæ³ķ": 9102,
      "ç¾İåŃ¦": 9103,
      "æĹ©å·²": 9104,
      "Reg": 9105,
      "å¾·å·Ŀæ°ı": 9106,
      "ä¸Ģåº§": 9107,
      "é«ĺèĻİ": 9108,
      "åĪ¶å¤ĩ": 9109,
      "çªģåıĳ": 9110,
      "æĿłæĿĨ": 9111,
      "AK": 9112,
      "å°ģéĹŃ": 9113,
      "æĺİç¡®æıĲåĩº": 9114,
      "ç»ıæµİä½ĵ": 9115,
      "measurements": 9116,
      "SNP": 9117,
      "ç´¯è®¡": 9118,
      "åº¸": 9119,
      "sional": 9120,
      "MB": 9121,
      "LS": 9122,
      "å¯ºéĻ¢": 9123,
      "æĹ¶ç©º": 9124,
      "zy": 9125,
      "äºĶå¤§": 9126,
      "rather": 9127,
      "è°±ä»£": 9128,
      "along": 9129,
      "å¹¼åĲį": 9130,
      "situ": 9131,
      "amy": 9132,
      "methylation": 9133,
      "ired": 9134,
      "åıĤä¸İèĢħ": 9135,
      "è¿Ļä¹Ī": 9136,
      "ä¹ĭåĨħ": 9137,
      "åįģäºĮæĿ¡": 9138,
      "dimen": 9139,
      "éĺµäº¡": 9140,
      "æĵįä½ľç³»ç»Ł": 9141,
      "çīĪæĿĥ": 9142,
      "component": 9143,
      "relatively": 9144,
      "æĬĢå·§": 9145,
      "nm": 9146,
      "sions": 9147,
      "å°ıçī§": 9148,
      "ä¸īçĻ¾": 9149,
      "çĶŁç´ł": 9150,
      "Statis": 9151,
      "altern": 9152,
      "ç§ĳåŃ¦çłĶç©¶": 9153,
      "å®¶è°±": 9154,
      "kidney": 9155,
      "SE": 9156,
      "éľį": 9157,
      "è¡Ģåİĭ": 9158,
      "Gene": 9159,
      "Spec": 9160,
      "PBS": 9161,
      "çĽĨ": 9162,
      "ä»»æĦı": 9163,
      "ç´§æĢ¥": 9164,
      "æł¼æĸ¯": 9165,
      "è¥¿èĹı": 9166,
      "åİŁæĸĻ": 9167,
      "èµ¢å¾Ĺ": 9168,
      "Mic": 9169,
      "CK": 9170,
      "My": 9171,
      "nur": 9172,
      "åħĥæľį": 9173,
      "æļĹæĿĢ": 9174,
      "polar": 9175,
      "duce": 9176,
      "overn": 9177,
      "temperature": 9178,
      "ä¸Ģèī²": 9179,
      "full": 9180,
      "bed": 9181,
      "showing": 9182,
      "åºĶä»ģä¹ĭä¹±": 9183,
      "åĮł": 9184,
      "åºĦåĽŃ": 9185,
      "concer": 9186,
      "resistant": 9187,
      "experience": 9188,
      "å¥ĸåĬ±": 9189,
      "extrac": 9190,
      "åĢŃ": 9191,
      "å¦¨": 9192,
      "éĢĥäº¡": 9193,
      "çĶ³æĬ¥": 9194,
      "ä¸įå½ĵ": 9195,
      "äº§èĥ½": 9196,
      "å®´": 9197,
      "çŁ©éĺµ": 9198,
      "èĢ¦": 9199,
      "ä¸¤åĨĽ": 9200,
      "çķı": 9201,
      "PE": 9202,
      "å¤įæĿĤæĢ§": 9203,
      "è¿Ļä½į": 9204,
      "array": 9205,
      "å§Ĭ": 9206,
      "éī´äºİ": 9207,
      "community": 9208,
      "chromo": 9209,
      "åºŀå¤§": 9210,
      "CN": 9211,
      "çº§åĪ«": 9212,
      "1998": 9213,
      "éĤ£éĩĮ": 9214,
      "éŁ§": 9215,
      "å®ļä»·": 9216,
      "èĪ°": 9217,
      "åĲĪæ³ķæĢ§": 9218,
      "è·¯çĶ±": 9219,
      "å®ĺæĸ¹": 9220,
      "åĺ±": 9221,
      "Mod": 9222,
      "currence": 9223,
      "--------------------------------------------------------------------------------------------------------------------------------": 9224,
      "åį¢": 9225,
      "è¶³ä»¥": 9226,
      "æĢ»å¤§å°Ĩ": 9227,
      "èħ°": 9228,
      "å±±å´İ": 9229,
      "éĥ½å¸Ĥ": 9230,
      "ä¸įæķ¢": 9231,
      "åıĳå±ķè¶ĭåĬ¿": 9232,
      "ä¸Ģè½®": 9233,
      "ä¿¡å¿ł": 9234,
      "éĻĨç»Ń": 9235,
      "ä½ľå®¶": 9236,
      "invasive": 9237,
      "è·¨è¶Ĭ": 9238,
      "åİĭç¼©": 9239,
      "retro": 9240,
      "indicating": 9241,
      "å°ĨæĿ¥": 9242,
      "ç§°ä¹ĭä¸º": 9243,
      "å¸Ĥåľºä¸»ä½ĵ": 9244,
      "è¡Įéķ¿": 9245,
      "è¡Ĺéģĵ": 9246,
      "ç´§å¼ł": 9247,
      "phar": 9248,
      "IA": 9249,
      "åĮĢ": 9250,
      "èħ¾": 9251,
      "è¿«åĪĩ": 9252,
      "è¡°éĢĢ": 9253,
      "è¿ĺåİŁ": 9254,
      "600": 9255,
      "ç±»åĪ«": 9256,
      "æĶ»åĬ¿": 9257,
      "ç®¡çĲĨèĢħ": 9258,
      "åīĬå¼±": 9259,
      "ç©¶ç«Ł": 9260,
      "çļ®èĤ¤": 9261,
      "approximately": 9262,
      "æīĭæľº": 9263,
      "cum": 9264,
      "èµ·åħµ": 9265,
      "controlled": 9266,
      "æĻ¨": 9267,
      "å°½å¿«": 9268,
      "åĬ³åĬ¡": 9269,
      "æĸŃç»Ŀ": 9270,
      "æĹ©äºĳ": 9271,
      "atal": 9272,
      "injection": 9273,
      "åħħåĪĨåĪ©çĶ¨": 9274,
      "good": 9275,
      "åµĮåħ¥": 9276,
      "dominant": 9277,
      "ides": 9278,
      "ç»Ħä»¶": 9279,
      "humans": 9280,
      "åĲİæĸ¹": 9281,
      "ä»½é¢Ŀ": 9282,
      "å½ĵä¸ĭ": 9283,
      "åľ¨å®ŀè·µ": 9284,
      "degree": 9285,
      "1999": 9286,
      "glyco": 9287,
      "åĩºç¾½": 9288,
      "percentage": 9289,
      "esity": 9290,
      "ç§įåŃĲ": 9291,
      "ESM": 9292,
      "å¸ĮèħĬ": 9293,
      "cluded": 9294,
      "æľ¯è¯Ń": 9295,
      "æĶ¶è´Ń": 9296,
      "ATP": 9297,
      "åı¯çŁ¥": 9298,
      "ä¹ĭä¸¸": 9299,
      "æķ°åĢ¼": 9300,
      "åīįæīĢ": 9301,
      "èĩªæĦ¿": 9302,
      "çĽ¸éĢĤåºĶ": 9303,
      "ç¥Ģ": 9304,
      "æµħäºķéķ¿æĶ¿": 9305,
      "æ¸ħæ´²": 9306,
      "æŃ£æĪĲ": 9307,
      "æľºçĲĨ": 9308,
      "è¿Ķè¿ĺ": 9309,
      "æīİå®ŀ": 9310,
      "ç¤¾ä¼ļåŃ¦": 9311,
      "threshold": 9312,
      "å¤©æ´¥": 9313,
      "ä¾ĽåºĶåķĨ": 9314,
      "æĺĶ": 9315,
      "dem": 9316,
      "éķ¿éĹ¨": 9317,
      "äºĭåĲİ": 9318,
      "ä¸īä½į": 9319,
      "åħ¬è·¯": 9320,
      "è¥¿åįĹ": 9321,
      "æĺ¥ç§ĭ": 9322,
      "PK": 9323,
      "ili": 9324,
      "omy": 9325,
      "éĻĦåĬł": 9326,
      "å»ºçŃĳçī©": 9327,
      "åĽ¾çīĩ": 9328,
      "severity": 9329,
      "ä¸Ī": 9330,
      "å¯¿åĳ½": 9331,
      "energy": 9332,
      "å¹¿ä¹ī": 9333,
      "metastasis": 9334,
      "æĻ¶ä½ĵ": 9335,
      "allel": 9336,
      "å®īä¸ľ": 9337,
      "application": 9338,
      "è¶³åĪ©ä¹īè¾ī": 9339,
      "amount": 9340,
      "çŃ¾ç½²": 9341,
      "countries": 9342,
      "åħīè°±": 9343,
      "ä¸Ńå°ıåŃ¦": 9344,
      "å¯¹çŃĸ": 9345,
      "aft": 9346,
      "âĹı": 9347,
      "ç®¡çĲĨåĪ¶åº¦": 9348,
      "ash": 9349,
      "Intern": 9350,
      "çĤİçĹĩ": 9351,
      "ãĢķ": 9352,
      "è·Į": 9353,
      "ä¹¡éķĩ": 9354,
      "importance": 9355,
      "æ¸ħæ°´": 9356,
      "æŀĦçŃĳ": 9357,
      "Do": 9358,
      "èĸĦå¼±": 9359,
      "æ¬¡å¹´": 9360,
      "æĹ±": 9361,
      "åºĩ": 9362,
      "toxicity": 9363,
      "çĽĳçĿ£ç®¡çĲĨ": 9364,
      "measurement": 9365,
      "ãĢĶ": 9366,
      "è´¼": 9367,
      "æ¸ħç®Ĺ": 9368,
      "çħ¤çĤŃ": 9369,
      "çĨĻ": 9370,
      "é«ĺåº¦éĩįè§Ĩ": 9371,
      "elines": 9372,
      "çĹħçĲĨ": 9373,
      "åĩ»çł´": 9374,
      "choles": 9375,
      "ä¿Ŀå¯Ĩ": 9376,
      "distinct": 9377,
      "åĬ¨æĳĩ": 9378,
      "added": 9379,
      "æ¬¢è¿İ": 9380,
      "æĺİç¡®è§Ħå®ļ": 9381,
      "èĢĮå·²": 9382,
      "open": 9383,
      "Gr": 9384,
      "åıįåĩ»": 9385,
      "arily": 9386,
      "æ¿ĢæĪĺ": 9387,
      "æ²Ī": 9388,
      "äººä¸İ": 9389,
      "ä¼ĺæĥł": 9390,
      "æ³·å·Ŀä¸ĢçĽĬ": 9391,
      "targets": 9392,
      "åįķä¸ª": 9393,
      "mitochondrial": 9394,
      "reh": 9395,
      "ocytes": 9396,
      "åįĥåı¶": 9397,
      "éĽ¾": 9398,
      "æľ«æľŁ": 9399,
      "æĺĤ": 9400,
      "rophil": 9401,
      "linear": 9402,
      "åĲķ": 9403,
      "conn": 9404,
      "çĮİ": 9405,
      "åįģä¸īæĿ¡": 9406,
      "ç§ģæľī": 9407,
      "terol": 9408,
      "å©´": 9409,
      "è®®åĴĮ": 9410,
      "software": 9411,
      "ä¸Ģä»½": 9412,
      "å·Ŀä¸Ńå²Ľ": 9413,
      "å¤ĸèµĦ": 9414,
      "å¹¿å·ŀ": 9415,
      "lymph": 9416,
      "every": 9417,
      "pass": 9418,
      "ä½ĵç§¯": 9419,
      "å¸Ĥæ°ĳ": 9420,
      "reaction": 9421,
      "æ²³åįĹ": 9422,
      "åĩŃåĢŁ": 9423,
      "æĪªèĩ³": 9424,
      "æī¿è½½": 9425,
      "ä¸ĢæĹ¶æľŁ": 9426,
      "æĸ°çĶŁ": 9427,
      "âī¤": 9428,
      "çĶŁèĤ²": 9429,
      "é¢ĨåĨħ": 9430,
      "åīįéĿ¢": 9431,
      "æ²¦": 9432,
      "é¢ł": 9433,
      "éĥģ": 9434,
      "è¿ĿèĥĮ": 9435,
      "depression": 9436,
      "åĨĢ": 9437,
      "å´©æºĥ": 9438,
      "èĩ¼": 9439,
      "nutr": 9440,
      "åľ°åĽ¾": 9441,
      "Hy": 9442,
      "ç»Īèº«": 9443,
      "Sur": 9444,
      "ç¦»ä¸įå¼Ģ": 9445,
      "ç½®äºİ": 9446,
      "éĵŃ": 9447,
      "frac": 9448,
      "5000": 9449,
      "ä¼ĺèī¯": 9450,
      "åĶ¤": 9451,
      "æ³¨åħ¥": 9452,
      "promis": 9453,
      "æĥ©ç½ļ": 9454,
      "make": 9455,
      "æĬĦ": 9456,
      "Fe": 9457,
      "intro": 9458,
      "åħ¶ä¸º": 9459,
      "best": 9460,
      "æ±īè¯Ń": 9461,
      "çī¹å¼ĤæĢ§": 9462,
      "oti": 9463,
      "æ¯ķä¸ļçĶŁ": 9464,
      "æ»¥çĶ¨": 9465,
      "nerve": 9466,
      "å¯¼ä½ĵ": 9467,
      "cit": 9468,
      "å¤ªéĺģ": 9469,
      "çĴĥ": 9470,
      "MOESM": 9471,
      "ä¿Ŀåħ¨": 9472,
      "å«Įçĸĳ": 9473,
      "äº§ä¸ļç»ĵæŀĦ": 9474,
      "è¯Ħå®ļ": 9475,
      "numbers": 9476,
      "reach": 9477,
      "ä¸ĸä»£": 9478,
      "etic": 9479,
      "1997": 9480,
      "è¡¨æ¼Ķ": 9481,
      "cycl": 9482,
      "æĹłéĻĲ": 9483,
      "exercise": 9484,
      "æľŁåĪĬ": 9485,
      "æĸ¯åĿ¦": 9486,
      "Met": 9487,
      "RE": 9488,
      "spinal": 9489,
      "capacity": 9490,
      "ische": 9491,
      "cium": 9492,
      "sump": 9493,
      "æŃ¥ä¼Ĳ": 9494,
      "æį®æŃ¤": 9495,
      "å¿łèĥľ": 9496,
      "ä»Ĺ": 9497,
      "ä¼ģåĽ¾": 9498,
      "gam": 9499,
      "Interest": 9500,
      "Gro": 9501,
      "åĲīç»§": 9502,
      "æ¼ł": 9503,
      "æĨ": 9504,
      "æ¹¿åľ°": 9505,
      "å¤§è´¥": 9506,
      "ç¾Ĭ": 9507,
      "èĢĮåĲİ": 9508,
      "éĤ£ä¸ª": 9509,
      "110": 9510,
      "è´¨çĸĳ": 9511,
      "variable": 9512,
      "æĸ°çĸĨ": 9513,
      "å°±ä»»": 9514,
      "åıĻäºĭ": 9515,
      "acet": 9516,
      "æµģè½¬": 9517,
      "æĲľç´¢": 9518,
      "stimulated": 9519,
      "ings": 9520,
      "éĻ¤å¤ĸ": 9521,
      "laboratory": 9522,
      "è¿ľå±±": 9523,
      "ä¸ĬéĿ¢": 9524,
      "called": 9525,
      "åĬłæ·±": 9526,
      "ä¿¡ç¹ģ": 9527,
      "BMI": 9528,
      "åĨ¶": 9529,
      "max": 9530,
[...]
