{
  "version": "1.0",
  "truncation": null,
  "padding": null,
  "added_tokens": [
    {
      "id": 0,
      "content": "<|endoftext|>",
      "single_word": false,
      "lstrip": false,
      "rstrip": false,
      "normalized": false,
      "special": true
    },
    {
      "id": 1,
      "content": "<|im_end|>",
      "single_word": false,
      "lstrip": false,
      "rstrip": false,
      "normalized": false,
      "special": true
    },
    {
      "id": 2,
      "content": "<|im_system|>",
      "single_word": false,
      "lstrip": false,
      "rstrip": false,
      "normalized": false,
      "special": true
    },
    {
      "id": 3,
      "content": "<|im_user|>",
      "single_word": false,
      "lstrip": false,
      "rstrip": false,
      "normalized": false,
      "special": true
    },
    {
      "id": 4,
      "content": "<|im_assistant|>",
      "single_word": false,
      "lstrip": false,
      "rstrip": false,
      "normalized": false,
      "special": true
    }
  ],
  "normalizer": null,
  "pre_tokenizer": {
    "type": "Sequence",
    "pretokenizers": [
      {
        "type": "Punctuation",
        "behavior": "Isolated"
      },
      {
        "type": "ByteLevel",
        "add_prefix_space": false,
        "trim_offsets": true,
        "use_regex": true
      }
    ]
  },
  "post_processor": {
    "type": "ByteLevel",
    "add_prefix_space": true,
    "trim_offsets": false,
    "use_regex": true
  },
  "decoder": {
    "type": "ByteLevel",
    "add_prefix_space": true,
    "trim_offsets": true,
    "use_regex": true
  },
  "model": {
    "type": "BPE",
    "dropout": null,
    "unk_token": null,
    "continuing_subword_prefix": null,
    "end_of_word_suffix": null,
    "fuse_unk": false,
    "byte_fallback": false,
    "ignore_merges": false,
    "vocab": {
      "<|endoftext|>": 0,
      "<|im_end|>": 1,
      "<|im_system|>": 2,
      "<|im_user|>": 3,
      "<|im_assistant|>": 4,
      "!": 5,
      "\"": 6,
      "#": 7,
      "$": 8,
      "%": 9,
      "&": 10,
      "'": 11,
      "(": 12,
      ")": 13,
      "*": 14,
      "+": 15,
      ",": 16,
      "-": 17,
      ".": 18,
      "/": 19,
      "0": 20,
      "1": 21,
      "2": 22,
      "3": 23,
      "4": 24,
      "5": 25,
      "6": 26,
      "7": 27,
      "8": 28,
      "9": 29,
      ":": 30,
      ";": 31,
      "<": 32,
      "=": 33,
      ">": 34,
      "?": 35,
      "@": 36,
      "A": 37,
      "B": 38,
      "C": 39,
      "D": 40,
      "E": 41,
      "F": 42,
      "G": 43,
      "H": 44,
      "I": 45,
      "J": 46,
      "K": 47,
      "L": 48,
      "M": 49,
      "N": 50,
      "O": 51,
      "P": 52,
      "Q": 53,
      "R": 54,
      "S": 55,
      "T": 56,
      "U": 57,
      "V": 58,
      "W": 59,
      "X": 60,
      "Y": 61,
      "Z": 62,
      "[": 63,
      "\\": 64,
      "]": 65,
      "^": 66,
      "_": 67,
      "`": 68,
      "a": 69,
      "b": 70,
      "c": 71,
      "d": 72,
      "e": 73,
      "f": 74,
      "g": 75,
      "h": 76,
      "i": 77,
      "j": 78,
      "k": 79,
      "l": 80,
      "m": 81,
      "n": 82,
      "o": 83,
      "p": 84,
      "q": 85,
      "r": 86,
      "s": 87,
      "t": 88,
      "u": 89,
      "v": 90,
      "w": 91,
      "x": 92,
      "y": 93,
      "z": 94,
      "{": 95,
      "|": 96,
      "}": 97,
      "~": 98,
      "¡": 99,
      "¢": 100,
      "£": 101,
      "¤": 102,
      "¥": 103,
      "¦": 104,
      "§": 105,
      "¨": 106,
      "©": 107,
      "ª": 108,
      "«": 109,
      "¬": 110,
      "®": 111,
      "¯": 112,
      "°": 113,
      "±": 114,
      "²": 115,
      "³": 116,
      "´": 117,
      "µ": 118,
      "¶": 119,
      "·": 120,
      "¸": 121,
      "¹": 122,
      "º": 123,
      "»": 124,
      "¼": 125,
      "½": 126,
      "¾": 127,
      "¿": 128,
      "À": 129,
      "Á": 130,
      "Â": 131,
      "Ã": 132,
      "Ä": 133,
      "Å": 134,
      "Æ": 135,
      "Ç": 136,
      "È": 137,
      "É": 138,
      "Ê": 139,
      "Ë": 140,
      "Ì": 141,
      "Í": 142,
      "Î": 143,
      "Ï": 144,
      "Ð": 145,
      "Ñ": 146,
      "Ò": 147,
      "Ó": 148,
      "Ô": 149,
      "Õ": 150,
      "Ö": 151,
      "×": 152,
      "Ø": 153,
      "Ù": 154,
      "Ú": 155,
      "Û": 156,
      "Ü": 157,
      "Ý": 158,
      "Þ": 159,
      "ß": 160,
      "à": 161,
      "á": 162,
      "â": 163,
      "ã": 164,
      "ä": 165,
      "å": 166,
      "æ": 167,
      "ç": 168,
      "è": 169,
      "é": 170,
      "ê": 171,
      "ë": 172,
      "ì": 173,
      "í": 174,
      "î": 175,
      "ï": 176,
      "ð": 177,
      "ñ": 178,
      "ò": 179,
      "ó": 180,
      "ô": 181,
      "õ": 182,
      "ö": 183,
      "÷": 184,
      "ø": 185,
      "ù": 186,
      "ú": 187,
      "û": 188,
      "ü": 189,
      "ý": 190,
      "þ": 191,
      "ÿ": 192,
      "Ā": 193,
      "ā": 194,
      "Ă": 195,
      "ă": 196,
      "Ą": 197,
      "ą": 198,
      "Ć": 199,
      "ć": 200,
      "Ĉ": 201,
      "ĉ": 202,
      "Ċ": 203,
      "ċ": 204,
      "Č": 205,
      "č": 206,
      "Ď": 207,
      "ď": 208,
      "Đ": 209,
      "đ": 210,
      "Ē": 211,
      "ē": 212,
      "Ĕ": 213,
      "ĕ": 214,
      "Ė": 215,
      "ė": 216,
      "Ę": 217,
      "ę": 218,
      "Ě": 219,
      "ě": 220,
      "Ĝ": 221,
      "ĝ": 222,
      "Ğ": 223,
      "ğ": 224,
      "Ġ": 225,
      "ġ": 226,
      "Ģ": 227,
      "ģ": 228,
      "Ĥ": 229,
      "ĥ": 230,
      "Ħ": 231,
      "ħ": 232,
      "Ĩ": 233,
      "ĩ": 234,
      "Ī": 235,
      "ī": 236,
      "Ĭ": 237,
      "ĭ": 238,
      "Į": 239,
      "į": 240,
      "İ": 241,
      "ı": 242,
      "Ĳ": 243,
      "ĳ": 244,
      "Ĵ": 245,
      "ĵ": 246,
      "Ķ": 247,
      "ķ": 248,
      "ĸ": 249,
      "Ĺ": 250,
      "ĺ": 251,
      "Ļ": 252,
      "ļ": 253,
      "Ľ": 254,
      "ľ": 255,
      "Ŀ": 256,
      "ŀ": 257,
      "Ł": 258,
      "ł": 259,
      "Ń": 260,
      "ä¸": 261,
      "ï¼": 262,
      "çļ": 263,
      "çļĦ": 264,
      "ĠĠ": 265,
      "ï¼Į": 266,
      "ãĢ": 267,
      "äº": 268,
      "åħ": 269,
      "åı": 270,
      "æľ": 271,
      "ä»": 272,
      "å®": 273,
      "åĪ": 274,
      "ãĢĤ": 275,
      "åĲ": 276,
      "å¤": 277,
      "ĠĠĠĠ": 278,
      "ç»": 279,
      "çĶ": 280,
      "in": 281,
      "è¿": 282,
      "ä½": 283,
      "ä¹": 284,
      "Ġa": 285,
      "åĽ": 286,
      "Ġt": 287,
      "åľ": 288,
      "åĬ": 289,
      "æĸ": 290,
      "æĺ": 291,
      "re": 292,
      "å¹": 293,
      "æĪ": 294,
      "on": 295,
      "ãĢģ": 296,
      "he": 297,
      "è®": 298,
      "ti": 299,
      "æĹ": 300,
      "ä¼": 301,
      "æĿ": 302,
      "åŃ": 303,
      "è¯": 304,
      "åº": 305,
      "ä¸Ģ": 306,
      "åĨ": 307,
      "å°": 308,
      "æĺ¯": 309,
      "åį": 310,
      "åľ¨": 311,
      "ä¸Ń": 312,
      "en": 313,
      "æĶ": 314,
      "å¯": 315,
      "åĴ": 316,
      "ä¸º": 317,
      "æķ": 318,
      "åĴĮ": 319,
      "åĽ½": 320,
      "éĩ": 321,
      "å¼": 322,
      "åĮ": 323,
      "Ġo": 324,
      "âĢ": 325,
      "er": 326,
      "æĢ": 327,
      "æ°": 328,
      "äºº": 329,
      "å±": 330,
      "è¡": 331,
      "ĠĠĠĠĠĠĠĠ": 332,
      "Ġc": 333,
      "Ġs": 334,
      "æŃ": 335,
      "Ġthe": 336,
      "çĽ": 337,
      "ed": 338,
      "ç§": 339,
      "al": 340,
      "æī": 341,
      "èĢ": 342,
      "æľī": 343,
      "å·": 344,
      "è§": 345,
      "å¾": 346,
      "éĢ": 347,
      "åĩ": 348,
      "æ³": 349,
      "è´": 350,
      "ä¿": 351,
      "Ġin": 352,
      "at": 353,
      "Ġp": 354,
      "åŁ": 355,
      "å¹´": 356,
      "èĥ": 357,
      "å¤§": 358,
      "es": 359,
      "æĬ": 360,
      "ä¸į": 361,
      "Ġan": 362,
      "çİ": 363,
      "or": 364,
      "ä»¥": 365,
      "å½": 366,
      "Ġw": 367,
      "äºĨ": 368,
      "Ġof": 369,
      "èĩ": 370,
      "å¸": 371,
      "æł": 372,
      "åŃ¦": 373,
      "åıĳ": 374,
      "is": 375,
      "èµ": 376,
      "éĻ": 377,
      "an": 378,
      "¦ģ": 379,
      "çĶŁ": 380,
      "æµ": 381,
      "çĲ": 382,
      "tion": 383,
      "è¦ģ": 384,
      "å®¶": 385,
      "ro": 386,
      "æ³ķ": 387,
      "çŃ": 388,
      "å¯¹": 389,
      "ä¸İ": 390,
      "Ġm": 391,
      "éĿ": 392,
      "it": 393,
      "äºİ": 394,
      "çī": 395,
      "æŀ": 396,
      "å¿": 397,
      "è¡Į": 398,
      "Ġand": 399,
      "æİ": 400,
      "æĹ¶": 401,
      "éĹ": 402,
      "Ġd": 403,
      "é¢": 404,
      "åİ": 405,
      "æĪĲ": 406,
      "Ġf": 407,
      "çĶ¨": 408,
      "çĲĨ": 409,
      "éĥ": 410,
      "çº": 411,
      "ä¹ĭ": 412,
      "ic": 413,
      "èĥ½": 414,
      "ä¸»": 415,
      "as": 416,
      "Ġb": 417,
      "ä¸Ĭ": 418,
      "ar": 419,
      "æĸ¹": 420,
      "ä¼ļ": 421,
      "åĮĸ": 422,
      "ä½ľ": 423,
      "æĮ": 424,
      "ä¸ļ": 425,
      "æ²": 426,
      "å®ŀ": 427,
      "ing": 428,
      "åĩº": 429,
      "æĢ§": 430,
      "å®ļ": 431,
      "åľ°": 432,
      "ï¼ī": 433,
      "ï¼Ī": 434,
      "ä½ĵ": 435,
      "åĲİ": 436,
      "è¿Ľ": 437,
      "ä¾": 438,
      "éķ": 439,
      "æľ¬": 440,
      "el": 441,
      "æĶ¿": 442,
      "åĪĨ": 443,
      "ä¸ª": 444,
      "è¾": 445,
      "ç«": 446,
      "åĲĮ": 447,
      "ent": 448,
      "åĳ": 449,
      "åĪ¶": 450,
      "ä¿¡": 451,
      "åĬ¨": 452,
      "åı¯": 453,
      "âĢľ": 454,
      "âĢĿ": 455,
      "Ġre": 456,
      "çİ°": 457,
      "åĬĽ": 458,
      "ç¨": 459,
      "åħ¶": 460,
      "ç»ı": 461,
      "è¿Ļ": 462,
      "ç¤": 463,
      "ä¹ī": 464,
      "æı": 465,
      "le": 466,
      "äº§": 467,
      "èĢĮ": 468,
      "åĲĪ": 469,
      "éĺ": 470,
      "çŃī": 471,
      "åħ³": 472,
      "éķ¿": 473,
      "éĩį": 474,
      "å»": 475,
      "å±ķ": 476,
      "ä»£": 477,
      "ĠĠĠĠĠĠĠĠĠĠĠĠĠĠĠĠ": 478,
      "æ±": 479,
      "ç³": 480,
      "æĸ°": 481,
      "æ°ĳ": 482,
      "é«": 483,
      "ç®": 484,
      "Ġto": 485,
      "åī": 486,
      "æĿ¥": 487,
      "ec": 488,
      "é«ĺ": 489,
      "ç³»": 490,
      "æį": 491,
      "åħ¨": 492,
      "èĩª": 493,
      "ation": 494,
      "æ´": 495,
      "å¥": 496,
      "åºĶ": 497,
      "æĸĩ": 498,
      "åĪ°": 499,
      "Ġe": 500,
      "è¿ĩ": 501,
      "ä¸ĭ": 502,
      "éģ": 503,
      "æĭ": 504,
      "åŁİ": 505,
      "æĪĺ": 506,
      "åº¦": 507,
      "å»º": 508,
      "åĪ©": 509,
      "ç¬": 510,
      "å·¥": 511,
      "æĥ": 512,
      "èĤ": 513,
      "æĦ": 514,
      "è°": 515,
      "us": 516,
      "åĨħ": 517,
      "æķĻ": 518,
      "æ¯": 519,
      "ä¸ī": 520,
      "éĿ¢": 521,
      "æķ°": 522,
      "çŁ": 523,
      "è½": 524,
      "¦Ĥ": 525,
      "ul": 526,
      "èĢħ": 527,
      "ç½": 528,
      "éļ": 529,
      "åıĳå±ķ": 530,
      "éĥ¨": 531,
      "ç¤¾": 532,
      "æĹ¥": 533,
      "å¤ļ": 534,
      "å°Ĩ": 535,
      "æīĢ": 536,
      "åŁº": 537,
      "æıĲ": 538,
      "ç¨ĭ": 539,
      "åĽł": 540,
      "åĵ": 541,
      "çł": 542,
      "åŃĲ": 543,
      "om": 544,
      "è®¾": 545,
      "ig": 546,
      "çĶ°": 547,
      "éĢļ": 548,
      "ac": 549,
      "çķ": 550,
      "åĨĽ": 551,
      "ç©": 552,
      "æĻ": 553,
      "æ¬": 554,
      "Ġth": 555,
      "å¢": 556,
      "Ġn": 557,
      "ä¹Ł": 558,
      "ç¡": 559,
      "äºĭ": 560,
      "æĿĥ": 561,
      "åĢ": 562,
      "æľº": 563,
      "è¶": 564,
      "å¹¶": 565,
      "çĽ¸": 566,
      "èµĦ": 567,
      "åīį": 568,
      "åĬł": 569,
      "æŃ¤": 570,
      "et": 571,
      "æŃ£": 572,
      "å½ĵ": 573,
      "åıĬ": 574,
      "èģ": 575,
      "Ġh": 576,
      "çī©": 577,
      "ç»Ł": 578,
      "å¹³": 579,
      "æ²»": 580,
      "æĽ": 581,
      "åĬ¡": 582,
      "ç¬¬": 583,
      "è·": 584,
      "åħ¬": 585,
      "ĠT": 586,
      "ol": 587,
      "æ°ı": 588,
      "æį®": 589,
      "ç¤¾ä¼ļ": 590,
      "å¼Ģ": 591,
      "å°±": 592,
      "ç§į": 593,
      "åĿ": 594,
      "ä¿Ŀ": 595,
      "éĩı": 596,
      "ç«ĭ": 597,
      "os": 598,
      "é¡": 599,
      "ä¸ŃåĽ½": 600,
      "ä»İ": 601,
      "00": 602,
      "è¢": 603,
      "æĺİ": 604,
      "è§Ħ": 605,
      "éĹ´": 606,
      "æ¸": 607,
      "æľĪ": 608,
      "åħ¥": 609,
      "im": 610,
      "ur": 611,
      "ä»ĸ": 612,
      "å¦Ĥ": 613,
      "ç»ĵ": 614,
      "æĪĳ": 615,
      "ve": 616,
      "ly": 617,
      "çĤ": 618,
      "å¾Ĺ": 619,
      "id": 620,
      "å¼ı": 621,
      "åİŁ": 622,
      "un": 623,
      "çĶ±": 624,
      "ç®¡": 625,
      "æľŁ": 626,
      "åįģ": 627,
      "èī": 628,
      "äºĮ": 629,
      "ä½¿": 630,
      "çľ": 631,
      "æĪĸ": 632,
      "è¢«": 633,
      "Ġl": 634,
      "çĦ": 635,
      "ith": 636,
      "é¢Ĩ": 637,
      "åĲĳ": 638,
      "ç¾": 639,
      "åħĥ": 640,
      "ere": 641,
      "çī¹": 642,
      "çĿ": 643,
      "åģ": 644,
      "Ġwith": 645,
      "æĿ¡": 646,
      "15": 647,
      "çłĶ": 648,
      "è®¡": 649,
      "æŁ": 650,
      "æģ": 651,
      "æĬĢ": 652,
      "å¼º": 653,
      "ä»¬": 654,
      "æľ¯": 655,
      "åħļ": 656,
      "å¤ĸ": 657,
      "Ġg": 658,
      "è§£": 659,
      "åħ±": 660,
      "çĦ¶": 661,
      "è¡¨": 662,
      "æŀĦ": 663,
      "æµİ": 664,
      "å±±": 665,
      "ä»»": 666,
      "æĦı": 667,
      "ot": 668,
      "ï¼ļ": 669,
      "å¤©": 670,
      "æľĢ": 671,
      "éĽ": 672,
      "å¸Ĥ": 673,
      "å°ı": 674,
      "æº": 675,
      "æĮģ": 676,
      "å½¢": 677,
      "res": 678,
      "ä½į": 679,
      "åıĺ": 680,
      "é¢ĺ": 681,
      "è®º": 682,
      "å¿ĥ": 683,
      "Ġst": 684,
      "ç±": 685,
      "ce": 686,
      "Ġ1": 687,
      "å§": 688,
      "ç»ıæµİ": 689,
      "çĽ®": 690,
      "éľ": 691,
      "Ġfor": 692,
      "è´¨": 693,
      "ä½Ĩ": 694,
      "åĲį": 695,
      "çĤ¹": 696,
      "åĮº": 697,
      "ç´": 698,
      "Ġpro": 699,
      "ç§ĳ": 700,
      "ĠC": 701,
      "æłĩ": 702,
      "20": 703,
      "il": 704,
      "ç©¶": 705,
      "ut": 706,
      "å®ī": 707,
      "æ¶": 708,
      "å¯¼": 709,
      "ter": 710,
      "æĶ¹": 711,
      "æ±Ĥ": 712,
      "ĠA": 713,
      "åŀ": 714,
      "Ġcon": 715,
      "ati": 716,
      "æ¬¡": 717,
      "éĹ®": 718,
      "if": 719,
      "æ¡": 720,
      "ç¥": 721,
      "ãĢĬ": 722,
      "ãĢĭ": 723,
      "Ġas": 724,
      "æĽ´": 725,
      "èĤ²": 726,
      "am": 727,
      "éª": 728,
      "ow": 729,
      "åħ·": 730,
      "ell": 731,
      "ç»Ħ": 732,
      "åĲĦ": 733,
      "æºĲ": 734,
      "éĥ½": 735,
      "çłĶç©¶": 736,
      "æķĪ": 737,
      "æĮĩ": 738,
      "å·Ŀ": 739,
      "æĢĿ": 740,
      "è®¤": 741,
      "æĹł": 742,
      "ä¼ł": 743,
      "ï¼Ľ": 744,
      "åĪĻ": 745,
      "ä»¶": 746,
      "å²": 747,
      "Ġis": 748,
      "um": 749,
      "Ġv": 750,
      "åĪĽ": 751,
      "éģĵ": 752,
      "ĠI": 753,
      "è¯´": 754,
      "ç¼": 755,
      "æ°´": 756,
      "èµ·": 757,
      "æ¨": 758,
      "ated": 759,
      "Ġex": 760,
      "ç»ĩ": 761,
      "èĲ": 762,
      "æ´»": 763,
      "ĠS": 764,
      "æ·": 765,
      "ç¡®": 766,
      "åľº": 767,
      "çĻ": 768,
      "uc": 769,
      "ç±»": 770,
      "é£": 771,
      "åĨ³": 772,
      "ä¸ĸ": 773,
      "oc": 774,
      "åĽ½å®¶": 775,
      "od": 776,
      "ä¸»ä¹ī": 777,
      "ä¸Ģä¸ª": 778,
      "éľĢ": 779,
      "ç§Ģ": 780,
      "è¿Ľè¡Į": 781,
      "èĬ": 782,
      "çŁ¥": 783,
      "æŃ¦": 784,
      "æ®": 785,
      "ab": 786,
      "æĥħ": 787,
      "éĩĳ": 788,
      "è¯Ĩ": 789,
      "æİ¨": 790,
      "åı¯ä»¥": 791,
      "ç¦": 792,
      "åŀĭ": 793,
      "å¤Ħ": 794,
      "æŀľ": 795,
      "äº¤": 796,
      "si": 797,
      "çĸ": 798,
      "é©": 799,
      "çĶµ": 800,
      "st": 801,
      "æµģ": 802,
      "å¢ŀ": 803,
      "è°ĥ": 804,
      "çĿĢ": 805,
      "æĬĢæľ¯": 806,
      "åĵģ": 807,
      "æİ¥": 808,
      "éĹ®é¢ĺ": 809,
      "éĢł": 810,
      "åı²": 811,
      "ä¼ģ": 812,
      "åĳĺ": 813,
      "ä»·": 814,
      "ç²": 815,
      "ä¸¤": 816,
      "ĠĠĠĠĠĠĠĠĠĠĠĠĠĠĠĠĠĠĠĠĠĠĠĠĠĠĠĠĠĠĠĠ": 817,
      "Ġthat": 818,
      "çĹ": 819,
      "æ¨¡": 820,
      "ra": 821,
      "éħ": 822,
      "æĬ¤": 823,
      "åıĸ": 824,
      "ts": 825,
      "å¥½": 826,
      "éĶ": 827,
      "å¸¸": 828,
      "åŃĺ": 829,
      "tic": 830,
      "åıį": 831,
      "ment": 832,
      "åĽĽ": 833,
      "åıĹ": 834,
      "è½¬": 835,
      "ity": 836,
      "èĮ": 837,
      "èĩ³": 838,
      "ag": 839,
      "äºĽ": 840,
      "Ġbe": 841,
      "è§Ĥ": 842,
      "è¯ģ": 843,
      "ä¸ľ": 844,
      "æĢģ": 845,
      "è¿Ĳ": 846,
      "åºľ": 847,
      "çİĩ": 848,
      "ä¼ģä¸ļ": 849,
      "æķĻèĤ²": 850,
      "åĮĹ": 851,
      "èĻ": 852,
      "ud": 853,
      "ç®¡çĲĨ": 854,
      "äººæ°ĳ": 855,
      "è¿ĳ": 856,
      "è¿ĺ": 857,
      "åĨľ": 858,
      "çĽ´": 859,
      "æĶ¯": 860,
      "ĠP": 861,
      "æ¯Ķ": 862,
      "å£": 863,
      "æģ¯": 864,
      "åĬ¿": 865,
      "éĻ¢": 866,
      "op": 867,
      "æľį": 868,
      "Ġwas": 869,
      "éĿ©": 870,
      "åİĨ": 871,
      "éĵ": 872,
      "ä¹ł": 873,
      "èģĶ": 874,
      "ri": 875,
      "æĶ¶": 876,
      "èĭ": 877,
      "ver": 878,
      "Ġon": 879,
      "ir": 880,
      "éĻħ": 881,
      "åĳ½": 882,
      "Ġwere": 883,
      "Ġal": 884,
      "è®°": 885,
      "åĩĨ": 886,
      "æĢ»": 887,
      "éĢļè¿ĩ": 888,
      "è±": 889,
      "å¾·": 890,
      "éĹ¨": 891,
      "å·²": 892,
      "çİ¯": 893,
      "å»ºè®¾": 894,
      "ĠM": 895,
      "ç½ĳ": 896,
      "ä¾Ľ": 897,
      "è¾¾": 898,
      "og": 899,
      "yp": 900,
      "å¾ĭ": 901,
      "se": 902,
      "èĪ": 903,
      "ä¹¦": 904,
      "åº·": 905,
      "ĠThe": 906,
      "ç¾İ": 907,
      "ate": 908,
      "èº": 909,
      "Ġcell": 910,
      "çĬ": 911,
      "æĸ½": 912,
      "è·¯": 913,
      "æĥ³": 914,
      "å·¥ä½ľ": 915,
      "åħĪ": 916,
      "èį": 917,
      "éĽĨ": 918,
      "äºĶ": 919,
      "19": 920,
      "èĩ£": 921,
      "Ġby": 922,
      "æĹı": 923,
      "è¥": 924,
      "åķ": 925,
      "æķ°æį®": 926,
      "èº«": 927,
      "è¥¿": 928,
      "up": 929,
      "å¢ĥ": 930,
      "æĿĳ": 931,
      "éĩįè¦ģ": 932,
      "æĶ¾": 933,
      "åĢ¼": 934,
      "å®Į": 935,
      "åĮħ": 936,
      "Ġ2": 937,
      "çº§": 938,
      "æĹ¶ä»£": 939,
      "çĪ": 940,
      "ç³»ç»Ł": 941,
      "em": 942,
      "çŃĸ": 943,
      "å¤į": 944,
      "æł¹": 945,
      "çķĮ": 946,
      "èĹ": 947,
      "åįķ": 948,
      "èī²": 949,
      "æł·": 950,
      "her": 951,
      "è§ģ": 952,
      "å¿ħ": 953,
      "é¦": 954,
      "ted": 955,
      "å®Ī": 956,
      "è®®": 957,
      "ç§°": 958,
      "Ġac": 959,
      "æĸŃ": 960,
      "åķĨ": 961,
      "æŃ¥": 962,
      "åĸ": 963,
      "ĠH": 964,
      "åŁŁ": 965,
      "é¡¹": 966,
      "åĲī": 967,
      "çģ": 968,
      "åĪ«": 969,
      "ay": 970,
      "ä½ľä¸º": 971,
      "çĽĬ": 972,
      "æ·±": 973,
      "ç¥ŀ": 974,
      "åı¸": 975,
      "10": 976,
      "å¤ĩ": 977,
      "ç´ł": 978,
      "éªĮ": 979,
      "æĸ¹éĿ¢": 980,
      "åıĤ": 981,
      "ure": 982,
      "åį³": 983,
      "æī¿": 984,
      "æķ´": 985,
      "Ġor": 986,
      "Ġcom": 987,
      "th": 988,
      "è£": 989,
      "ä¸ĵ": 990,
      "åĬŁ": 991,
      "æ¡Ī": 992,
      "åĽ¾": 993,
      "ä¿¡æģ¯": 994,
      "rom": 995,
      "èģĮ": 996,
      "å½±": 997,
      "æľª": 998,
      "å¼ķ": 999,
      "qu": 1000,
      "åĪ¶åº¦": 1001,
      "æ¸ħ": 1002,
      "èĦ": 1003,
      "åŃ¦çĶŁ": 1004,
      "ç»Ĩ": 1005,
      "ical": 1006,
      "èĮĥ": 1007,
      "åĻ": 1008,
      "éĤ": 1009,
      "è´£": 1010,
      "ä¸»è¦ģ": 1011,
      "è¶³": 1012,
      "é£İ": 1013,
      "æĶ»": 1014,
      "èŀ": 1015,
      "ä¼Ĺ": 1016,
      "äºī": 1017,
      "Ġres": 1018,
      "æĸĩåĮĸ": 1019,
      "åħ³ç³»": 1020,
      "å®¹": 1021,
      "ä¾Ŀ": 1022,
      "åħī": 1023,
      "å®ŀçİ°": 1024,
      "çº¿": 1025,
      "è¯¥": 1026,
      "éĿŀ": 1027,
      "åħ»": 1028,
      "çĹħ": 1029,
      "æµĭ": 1030,
      "å®Ĺ": 1031,
      "æĪĳä»¬": 1032,
      "æ»": 1033,
      "æł¼": 1034,
      "åľŁ": 1035,
      "èĬĤ": 1036,
      "ç»§": 1037,
      "ç®Ĺ": 1038,
      "åĵį": 1039,
      "èŀį": 1040,
      "è¾ĥ": 1041,
      "ents": 1042,
      "ç»Ń": 1043,
      "Ġare": 1044,
      "æ£": 1045,
      "ç¡Ģ": 1046,
      "åŁºç¡Ģ": 1047,
      "ant": 1048,
      "ä¼ĺ": 1049,
      "äº²": 1050,
      "ä¾ĭ": 1051,
      "vel": 1052,
      "è¶Ĭ": 1053,
      "åħµ": 1054,
      "èĢĥ": 1055,
      "æĻ¯": 1056,
      "ç¤º": 1057,
      "åĻ¨": 1058,
      "Ġim": 1059,
      "æľįåĬ¡": 1060,
      "di": 1061,
      "æīĭ": 1062,
      "é©¬": 1063,
      "æİ§": 1064,
      "çº¦": 1065,
      "æ²¡": 1066,
      "æĬĬ": 1067,
      "æµ·": 1068,
      "æīį": 1069,
      "Ġexp": 1070,
      "Ġde": 1071,
      "æĪĲä¸º": 1072,
      "èİ": 1073,
      "å±Ĥ": 1074,
      "åİ»": 1075,
      "ä¸ŃçļĦ": 1076,
      "å¸Ī": 1077,
      "çŁ³": 1078,
      "éļı": 1079,
      "è¿ĩç¨ĭ": 1080,
      "ç»Ļ": 1081,
      "ĠD": 1082,
      "éĴ": 1083,
      "æŀģ": 1084,
      "è§Ĩ": 1085,
      "åıĪ": 1086,
      "ain": 1087,
      "ran": 1088,
      "åŃĹ": 1089,
      "åıª": 1090,
      "æĺĵ": 1091,
      "å¹¿": 1092,
      "ç²¾": 1093,
      "éľĢè¦ģ": 1094,
      "åı£": 1095,
      "å¾ģ": 1096,
      "åĿļ": 1097,
      "æĺ¾": 1098,
      "æĬķ": 1099,
      "åĽŀ": 1100,
      "éĻ©": 1101,
      "æĪ·": 1102,
      "èĩ´": 1103,
      "Ġdis": 1104,
      "åįı": 1105,
      "ç»´": 1106,
      "å°ĳ": 1107,
      "ase": 1108,
      "å¸Ĥåľº": 1109,
      "å®ĥ": 1110,
      "èĥľ": 1111,
      "ad": 1112,
      "è¯Ń": 1113,
      "è¯¾": 1114,
      "è¯Ħ": 1115,
      "ç»Ħç»ĩ": 1116,
      "åİĨåı²": 1117,
      "Ġus": 1118,
      "æ®µ": 1119,
      "ine": 1120,
      "æĦŁ": 1121,
      "èĥ½åĬĽ": 1122,
      "ĠF": 1123,
      "çķ¥": 1124,
      "æł¸": 1125,
      "æľĿ": 1126,
      "sion": 1127,
      "å½±åĵį": 1128,
      "ff": 1129,
      "çĽĳ": 1130,
      "ĠR": 1131,
      "ä¸įåĲĮ": 1132,
      "ä¸ĩ": 1133,
      "çĥ": 1134,
      "åįĹ": 1135,
      "ĠN": 1136,
      "æĸ¹æ³ķ": 1137,
      "çĲĨè®º": 1138,
      "Ġat": 1139,
      "åħ·æľī": 1140,
      "éĩİ": 1141,
      "ess": 1142,
      "Ġ0": 1143,
      "çľŁ": 1144,
      "ä½ĵç³»": 1145,
      "å§ĭ": 1146,
      "åĪĴ": 1147,
      "çª": 1148,
      "16": 1149,
      "æŀĲ": 1150,
      "è§Ħå®ļ": 1151,
      "åĨį": 1152,
      "çĶŁäº§": 1153,
      "å±Ģ": 1154,
      "è±¡": 1155,
      "è¨": 1156,
      "ĠB": 1157,
      "ä½¿çĶ¨": 1158,
      "Ġ3": 1159,
      "Ġinc": 1160,
      "æ±Ł": 1161,
      "å¸¦": 1162,
      "æĪĳåĽ½": 1163,
      "å¯º": 1164,
      "åħ´": 1165,
      "è¨Ģ": 1166,
      "æĬ¥": 1167,
      "Ġch": 1168,
      "å®īåħ¨": 1169,
      "ä»Ĭ": 1170,
      "åĪĽæĸ°": 1171,
      "12": 1172,
      "ä»¥åıĬ": 1173,
      "ä½İ": 1174,
      "ore": 1175,
      "æ²³": 1176,
      "èĲ¥": 1177,
      "ä¹ħ": 1178,
      "çľĭ": 1179,
      "çİ¯å¢ĥ": 1180,
      "åĬ©": 1181,
      "è¦ģæ±Ĥ": 1182,
      "Ġfrom": 1183,
      "çĭ": 1184,
      "æĶ¿åºľ": 1185,
      "ç§ĳåŃ¦": 1186,
      "åŁºæľ¬": 1187,
      "ä½ķ": 1188,
      "éĢī": 1189,
      "å¸ĥ": 1190,
      "ãģ": 1191,
      "äºĴ": 1192,
      "æ³ķå¾ĭ": 1193,
      "å¿µ": 1194,
      "æ°Ķ": 1195,
      "ub": 1196,
      "æŃ»": 1197,
      "ph": 1198,
      "å¤±": 1199,
      "Ġwh": 1200,
      "éħį": 1201,
      "æĶ¿æ²»": 1202,
      "åĨµ": 1203,
      "æ³¨": 1204,
      "Ġstud": 1205,
      "ä¸°": 1206,
      "åĩ»": 1207,
      "æĴ": 1208,
      "æĸĻ": 1209,
      "ç»Ī": 1210,
      "pl": 1211,
      "ĠE": 1212,
      "ype": 1213,
      "te": 1214,
      "éĺ²": 1215,
      "åĽ´": 1216,
      "ç½®": 1217,
      "æıĲä¾Ľ": 1218,
      "ign": 1219,
      "Ġr": 1220,
      "åĸĦ": 1221,
      "æ²¡æľī": 1222,
      "éĻĲ": 1223,
      "und": 1224,
      "è¡Įä¸º": 1225,
      "éĻ¤": 1226,
      "åı¯èĥ½": 1227,
      "èİ·": 1228,
      "Ġcells": 1229,
      "çĬ¶": 1230,
      "æĶ¹éĿ©": 1231,
      "Ġne": 1232,
      "åºı": 1233,
      "ħ§": 1234,
      "ä»ħ": 1235,
      "æĤ": 1236,
      "ä½ľçĶ¨": 1237,
      "å±ŀ": 1238,
      "ers": 1239,
      "å¾Ī": 1240,
      "å¾Ģ": 1241,
      "æŁ¥": 1242,
      "ç©º": 1243,
      "orm": 1244,
      "éĩĩ": 1245,
      "ä¿¡éķ¿": 1246,
      "åĪĨæŀĲ": 1247,
      "ref": 1248,
      "æ¶Ī": 1249,
      "æł¡": 1250,
      "Ġpati": 1251,
      "ä¸Ķ": 1252,
      "åĲĮæĹ¶": 1253,
      "éĩĮ": 1254,
      "å¿ł": 1255,
      "åįİ": 1256,
      "åħŃ": 1257,
      "åįĩ": 1258,
      "ç§¯": 1259,
      "âĢĶ": 1260,
      "ies": 1261,
      "åŃ¦ä¹ł": 1262,
      "éĢĤ": 1263,
      "é¡»": 1264,
      "æĸ¹å¼ı": 1265,
      "æĭ¬": 1266,
      "æ°¸": 1267,
      "ç¤¾ä¼ļä¸»ä¹ī": 1268,
      "ç»ĵæŀĦ": 1269,
      "è´¹": 1270,
      "æĭħ": 1271,
      "è´¢": 1272,
      "ĠIn": 1273,
      "ug": 1274,
      "æĻº": 1275,
      "è®©": 1276,
      "å²Ľ": 1277,
      "igh": 1278,
      "å½¢æĪĲ": 1279,
      "14": 1280,
      "éĺŁ": 1281,
      "å°±æĺ¯": 1282,
      "åĽłæŃ¤": 1283,
      "éļ¾": 1284,
      "Ġle": 1285,
      "å®¡": 1286,
      "æķĻåŃ¦": 1287,
      "æĢĿæĥ³": 1288,
      "Ġcomp": 1289,
      "éĢŁ": 1290,
      "è¿°": 1291,
      "ib": 1292,
      "åģļ": 1293,
      "èµĦæºĲ": 1294,
      "åħ«": 1295,
      "por": 1296,
      "åĪĹ": 1297,
      "é¢Ħ": 1298,
      "æ¦Ĥ": 1299,
      "duc": 1300,
      "è¯ķ": 1301,
      "Ġhe": 1302,
      "Ġad": 1303,
      "äº¬": 1304,
      "å·±": 1305,
      "Ġcont": 1306,
      "éĺ¶": 1307,
      "åħ¬åı¸": 1308,
      "åĬ³": 1309,
      "åŃĺåľ¨": 1310,
      "åħĭ": 1311,
      "åĳĬ": 1312,
      "ç»ĩçĶ°": 1313,
      "ect": 1314,
      "è·µ": 1315,
      "ä¸ĸçķĮ": 1316,
      "é¦ĸ": 1317,
      "ch": 1318,
      "ific": 1319,
      "ous": 1320,
      "iz": 1321,
      "Ġsh": 1322,
      "åı°": 1323,
      "åĦ": 1324,
      "çİ°ä»£": 1325,
      "åĪĿ": 1326,
      "åŁ¹": 1327,
      "çĻ¾": 1328,
      "11": 1329,
      "Ġgen": 1330,
      "åºĶçĶ¨": 1331,
      "ç¾¤": 1332,
      "åħ¶ä»ĸ": 1333,
      "è¿ĻäºĽ": 1334,
      "ä¸Ģç§į": 1335,
      "äººçļĦ": 1336,
      "éĻį": 1337,
      "æĿ¾": 1338,
      "è®¤ä¸º": 1339,
      "åį«": 1340,
      "ç»ľ": 1341,
      "å¼ł": 1342,
      "ç¦»": 1343,
      "æ£Ģ": 1344,
      "æıĲåĩº": 1345,
      "ys": 1346,
      "ä¼Ĭ": 1347,
      "åĮħæĭ¬": 1348,
      "å±ħ": 1349,
      "ç¢": 1350,
      "æĶ¿çŃĸ": 1351,
      "ä¸¥": 1352,
      "çĽ¸åħ³": 1353,
      "å£«": 1354,
      "åı·": 1355,
      "å®ŀè·µ": 1356,
      "ations": 1357,
      "Ġinf": 1358,
      "çŁ¥è¯Ĩ": 1359,
      "è¯·": 1360,
      "Ġpre": 1361,
      "tive": 1362,
      "äº§ä¸ļ": 1363,
      "åł": 1364,
      "æıĲé«ĺ": 1365,
      "æī§": 1366,
      "çªģ": 1367,
      "èĳ": 1368,
      "åĽ½éĻħ": 1369,
      "ä¿ĿæĬ¤": 1370,
      "ĠG": 1371,
      "æ´»åĬ¨": 1372,
      "ä¹ĭéĹ´": 1373,
      "çĪ¶": 1374,
      "able": 1375,
      "å»ºç«ĭ": 1376,
      "è´Ł": 1377,
      "éĥ¨åĪĨ": 1378,
      "é»": 1379,
      "Ġcan": 1380,
      "åĨħå®¹": 1381,
      "ence": 1382,
      "èĩªå·±": 1383,
      "åĽ¢": 1384,
      "tiv": 1385,
      "èµĸ": 1386,
      "è®¾è®¡": 1387,
      "ç§ĢåĲī": 1388,
      "åĶ": 1389,
      "end": 1390,
      "ä¹Ŀ": 1391,
      "est": 1392,
      "ä¾¿": 1393,
      "ist": 1394,
      "ä¹Ī": 1395,
      "åı¤": 1396,
      "çĽ®æłĩ": 1397,
      "æ¿": 1398,
      "çħ§": 1399,
      "åıĳçĶŁ": 1400,
      "13": 1401,
      "æĪĸèĢħ": 1402,
      "æīĵ": 1403,
      "æ¯Ľ": 1404,
      "CR": 1405,
      "æŃ¦çĶ°": 1406,
      "å¯Į": 1407,
      "æĥħåĨµ": 1408,
      "ä»·åĢ¼": 1409,
      "çĿ£": 1410,
      "ep": 1411,
      "Ġper": 1412,
      "åĪ¤": 1413,
      "èĲ½": 1414,
      "ç½ĳç»ľ": 1415,
      "å§Ķ": 1416,
      "are": 1417,
      "æłĩåĩĨ": 1418,
      "å¹²": 1419,
      "æĬĹ": 1420,
      "ĠL": 1421,
      "ary": 1422,
      "å¿«": 1423,
      "æł¹æį®": 1424,
      "ĠĠĠ": 1425,
      "ial": 1426,
      "Ġ4": 1427,
      "18": 1428,
      "æ°ĳæĹı": 1429,
      "ä¹¡": 1430,
      "å®³": 1431,
      "åĳ¨": 1432,
      "Ġpatients": 1433,
      "åĪĩ": 1434,
      "çºª": 1435,
      "pec": 1436,
      "age": 1437,
      "Ġass": 1438,
      "éļľ": 1439,
      "å®ĺ": 1440,
      "åħļçļĦ": 1441,
      "ion": 1442,
      "åħħ": 1443,
      "åħ¨éĿ¢": 1444,
      "ors": 1445,
      "ä»¤": 1446,
      "å¯Ĩ": 1447,
      "è¿ŀ": 1448,
      "æ´¾": 1449,
      "ip": 1450,
      "type": 1451,
      "ä¸¾": 1452,
      "çĮ": 1453,
      "çĲĥ": 1454,
      "ä¿®": 1455,
      "è¿ľ": 1456,
      "ç«ł": 1457,
      "Ġ5": 1458,
      "èĢģ": 1459,
      "å¿Ĺ": 1460,
      "ĊĠ": 1461,
      "éĤ£": 1462,
      "ther": 1463,
      "å¿ħé¡»": 1464,
      "æİ§åĪ¶": 1465,
      "ä¿ĥ": 1466,
      "æ»¡": 1467,
      "æ´¥": 1468,
      "åĿĩ": 1469,
      "å¦": 1470,
      "ĠW": 1471,
      "è®¸": 1472,
      "å¯¹äºİ": 1473,
      "ap": 1474,
      "Ġnot": 1475,
      "è¡ĮæĶ¿": 1476,
      "è¿Ļä¸Ģ": 1477,
      "vi": 1478,
      "act": 1479,
      "ç¬¬ä¸Ģ": 1480,
      "åĥ": 1481,
      "iff": 1482,
      "åĮ»": 1483,
      "è§Ĵ": 1484,
      "åĦ¿": 1485,
      "æĹ¶éĹ´": 1486,
      "è¯ī": 1487,
      "åĬ³åĬ¨": 1488,
      "å¼Ĥ": 1489,
      "Ġsign": 1490,
      "ä¸ĥ": 1491,
      "eren": 1492,
      "ge": 1493,
      "é¾": 1494,
      "äºķ": 1495,
      "æ¯ı": 1496,
      "åĩı": 1497,
      "çĶ±äºİ": 1498,
      "è¿Ļç§į": 1499,
      "ression": 1500,
      "èī¯": 1501,
      "çĸĹ": 1502,
      "NA": 1503,
      "å¤ĦçĲĨ": 1504,
      "å¤´": 1505,
      "éĺµ": 1506,
      "Ġha": 1507,
      "åľ°åĮº": 1508,
      "å¤®": 1509,
      "ç¨İ": 1510,
      "çĶŁæ´»": 1511,
      "åı¦": 1512,
      "æ¬¾": 1513,
      "enti": 1514,
      "Ġint": 1515,
      "olog": 1516,
      "ich": 1517,
      "Ġco": 1518,
      "çĻ½": 1519,
      "Ġthis": 1520,
      "èīº": 1521,
      "Ġcl": 1522,
      "å®ŀæĸ½": 1523,
      "ç§»": 1524,
      "æ¢": 1525,
      "ia": 1526,
      "äº§åĵģ": 1527,
      "èĥŀ": 1528,
      "æĳ": 1529,
      "æľºåĪ¶": 1530,
      "Ġwe": 1531,
      "åħ±åĲĮ": 1532,
      "å¥³": 1533,
      "å¤ª": 1534,
      "åįĥ": 1535,
      "æĿĲ": 1536,
      "åĭ": 1537,
      "å·®": 1538,
      "æİ¨è¿Ľ": 1539,
      "ath": 1540,
      "è´£ä»»": 1541,
      "ular": 1542,
      "æ¿Ģ": 1543,
      "æĮī": 1544,
      "å·ŀ": 1545,
      "åĪ©çĶ¨": 1546,
      "Ġdiff": 1547,
      "çł´": 1548,
      "æ³¢": 1549,
      "æİ¢": 1550,
      "æĪ¿": 1551,
      "çĭ¬": 1552,
      "è½½": 1553,
      "å®¶åº·": 1554,
      "è´¨éĩı": 1555,
      "æĹ¥æľ¬": 1556,
      "å¤Ł": 1557,
      "åĿļæĮģ": 1558,
      "ä¸įæĸŃ": 1559,
      "è¾¹": 1560,
      "æİĴ": 1561,
      "Ġse": 1562,
      "æĹ©": 1563,
      "äº§çĶŁ": 1564,
      "è¡Ģ": 1565,
      "é¢ĨåŁŁ": 1566,
      "éĩĳèŀį": 1567,
      "æŁĲ": 1568,
      "æĸ¯": 1569,
      "åĬŀ": 1570,
      "é£İéĻ©": 1571,
      "èĹ¤": 1572,
      "Ġdi": 1573,
      "çŃĳ": 1574,
      "æ¼": 1575,
      "æĿ¡ä»¶": 1576,
      "ä¼łç»Ł": 1577,
      "äº¦": 1578,
      "è§£åĨ³": 1579,
      "å®ŀéĻħ": 1580,
      "ved": 1581,
      "tions": 1582,
      "ä¸Ńå¤®": 1583,
      "å®¤": 1584,
      "æĿī": 1585,
      "17": 1586,
      "åİĭ": 1587,
      "ä½Ĳ": 1588,
      "Ġsy": 1589,
      "ç¬¬äºĮ": 1590,
      "çİĭ": 1591,
      "ç¨³": 1592,
      "æľīæķĪ": 1593,
      "Ġap": 1594,
      "æĶ¯æĮģ": 1595,
      "å®¶èĩ£": 1596,
      "rans": 1597,
      "ç»Ĩèĥŀ": 1598,
      "ä¸ĬçļĦ": 1599,
      "å¾·å·Ŀ": 1600,
      "åĲ¦": 1601,
      "ast": 1602,
      "æľºæŀĦ": 1603,
      "ä»į": 1604,
      "ple": 1605,
      "å®ļçļĦ": 1606,
      "æ°´å¹³": 1607,
      "ä»ĸä»¬": 1608,
      "æľ¨": 1609,
      "åĢº": 1610,
      "ory": 1611,
      "æİ¨åĬ¨": 1612,
      "vid": 1613,
      "åģ¥": 1614,
      "æķħ": 1615,
      "åĩł": 1616,
      "Ġhave": 1617,
      "ance": 1618,
      "ç½ª": 1619,
      "æįŁ": 1620,
      "å¼Ģå§ĭ": 1621,
      "èħ": 1622,
      "åĬłå¼º": 1623,
      "ç¼ĸ": 1624,
      "ç²¾ç¥ŀ": 1625,
      "å¤©æŃ£": 1626,
      "åĬŁèĥ½": 1627,
      "åĽłä¸º": 1628,
      "ased": 1629,
      "Ġeff": 1630,
      "åıĮ": 1631,
      "æĪĺçķ¥": 1632,
      "åĩºçİ°": 1633,
      "ĠĠĠĠĠĠĠĠĠĠĠĠĠĠĠĠĠĠĠĠĠĠĠĠĠĠĠĠĠĠĠĠĠĠĠĠĠĠĠĠĠĠĠĠĠĠĠĠĠĠĠĠĠĠĠĠĠĠĠĠĠĠĠĠ": 1634,
      "è¶ħ": 1635,
      "ĠO": 1636,
      "éŁ": 1637,
      "å¯Ł": 1638,
      "åºĶå½ĵ": 1639,
      "æ¨¡å¼ı": 1640,
      "é¡¹çĽ®": 1641,
      "çļĦä¸Ģ": 1642,
      "æĮ¥": 1643,
      "ä¸įèĥ½": 1644,
      "å¹ķ": 1645,
      "éĢĢ": 1646,
      "æĢ§çļĦ": 1647,
      "Ġpar": 1648,
      "äº«": 1649,
      "æĸĹ": 1650,
      "è´¥": 1651,
      "å¦Ĥæŀľ": 1652,
      "è¿Ļä¸ª": 1653,
      "ill": 1654,
      "Ġgro": 1655,
      "ä¸ĬæĿī": 1656,
      "æ²»çĲĨ": 1657,
      "åĲĪåĲĮ": 1658,
      "ding": 1659,
      "ost": 1660,
      "ä¹±": 1661,
      "èĻ½": 1662,
      "Ġstudy": 1663,
      "çº³": 1664,
      "Ġwhich": 1665,
      "èį¯": 1666,
      "ä¸´": 1667,
      "pon": 1668,
      "æĻ®": 1669,
      "é¢Ĩå¯¼": 1670,
      "åįł": 1671,
      "äººåĳĺ": 1672,
      "åħį": 1673,
      "pt": 1674,
      "å·²ç»ı": 1675,
      "è®¡ç®Ĺ": 1676,
      "000": 1677,
      "æł¸å¿ĥ": 1678,
      "çĶŁæĢģ": 1679,
      "ue": 1680,
      "è®¨": 1681,
      "åıĳå±ķçļĦ": 1682,
      "å¤§çļĦ": 1683,
      "ä¹ĭæĪĺ": 1684,
      "æī©": 1685,
      "Ġit": 1686,
      "åį´": 1687,
      "pro": 1688,
      "reat": 1689,
      "Ġbet": 1690,
      "ç»ĵåĲĪ": 1691,
      "ä¾µ": 1692,
      "åºĨ": 1693,
      "å½Ĵ": 1694,
      "åıĺåĮĸ": 1695,
      "çī¹èī²": 1696,
      "ally": 1697,
      "åİ¿": 1698,
      "æŃ¢": 1699,
      "éĢĲ": 1700,
      "Ġanal": 1701,
      "æļ": 1702,
      "Ġk": 1703,
      "ç»ĵæŀľ": 1704,
      "ä»ĭ": 1705,
      "è£ħ": 1706,
      "åŁİå¸Ĥ": 1707,
      "ĊĊ": 1708,
      "èĩªçĦ¶": 1709,
      "æīĢæľī": 1710,
      "å´": 1711,
      "Ġdifferen": 1712,
      "èµ°": 1713,
      "éĥ¨éĹ¨": 1714,
      "åĤ": 1715,
      "ative": 1716,
      "Ġab": 1717,
      "éĥ¡": 1718,
      "æĽ¾": 1719,
      "çķĻ": 1720,
      "èĪ¬": 1721,
      "Ġinter": 1722,
      "æĬķèµĦ": 1723,
      "ä¸ĵä¸ļ": 1724,
      "å·¥ç¨ĭ": 1725,
      "åħ³äºİ": 1726,
      "èĤ¡": 1727,
      "ä¿ĥè¿Ľ": 1728,
      "æī¹": 1729,
      "æĵ": 1730,
      "éĺ¶æ®µ": 1731,
      "éĩĬ": 1732,
      "we": 1733,
      "çļĦæĺ¯": 1734,
      "å¨": 1735,
      "æĹ¶æľŁ": 1736,
      "åĨĻ": 1737,
      "æķ°åŃĹ": 1738,
      "ä½Ĩæĺ¯": 1739,
      "rol": 1740,
      "ç¼º": 1741,
      "è´§": 1742,
      "ä¸Ńåįİ": 1743,
      "æ¯ĽåĪ©": 1744,
      "Ġreg": 1745,
      "ç»Łä¸Ģ": 1746,
      "åıĤä¸İ": 1747,
      "enc": 1748,
      "åĨľä¸ļ": 1749,
      "è¯Ŀ": 1750,
      "å°½": 1751,
      "ä»£è¡¨": 1752,
      "ä¸ĢæŃ¥": 1753,
      "ress": 1754,
      "Ġshow": 1755,
      "åľ°æĸ¹": 1756,
      "å½¢å¼ı": 1757,
      "Ġmod": 1758,
      "fig": 1759,
      "ç§ĳæĬĢ": 1760,
      "ä»½": 1761,
      "åĽº": 1762,
      "ç»¼": 1763,
      "åĲĪä½ľ": 1764,
      "èĥ½å¤Ł": 1765,
      "åİŁåĪĻ": 1766,
      "å°¾": 1767,
      "unc": 1768,
      "ä¿Ŀéļľ": 1769,
      "å½ķ": 1770,
      "ç¦Ħ": 1771,
      "ç®Ģ": 1772,
      "ä¸Ńå¿ĥ": 1773,
      "è¾ĵ": 1774,
      "Â·": 1775,
      "ä¸įæĺ¯": 1776,
      "ari": 1777,
      "Ġmet": 1778,
      "å®¢": 1779,
      "ata": 1780,
      "éļĨ": 1781,
      "ä¸ªäºº": 1782,
      "æĸ°çļĦ": 1783,
      "val": 1784,
      "ç¾İåĽ½": 1785,
      "ç¬¬ä¸ī": 1786,
      "ä»ĵ": 1787,
      "çľģ": 1788,
      "æĿĢ": 1789,
      "çĽĽ": 1790,
      "æĭ©": 1791,
      "åĥı": 1792,
      "all": 1793,
      "ä¹Łæĺ¯": 1794,
      "åĨ³å®ļ": 1795,
      "Ġsub": 1796,
      "æĿĤ": 1797,
      "èĳĹ": 1798,
      "ç»§æī¿": 1799,
      "Ġtrans": 1800,
      "èµĦæľ¬": 1801,
      "å·¦": 1802,
      "ĠU": 1803,
      "è¡¥": 1804,
      "and": 1805,
      "åħ·ä½ĵ": 1806,
      "å®ĮåĸĦ": 1807,
      "å¼Ł": 1808,
      "åŁ¹åħ»": 1809,
      "éĶ®": 1810,
      "éģĹ": 1811,
      "åĮĹæĿ¡": 1812,
      "Fig": 1813,
      "Ġob": 1814,
      "Ġrec": 1815,
      "å®¶çļĦ": 1816,
      "ä¸»ä½ĵ": 1817,
      "è½¦": 1818,
      "Ġpl": 1819,
      "å¾®": 1820,
      "çĽ´æİ¥": 1821,
      "çļĦåıĳå±ķ": 1822,
      "Ġ6": 1823,
      "ä½ı": 1824,
      "Ġme": 1825,
      "ä¸ºäºĨ": 1826,
      "ï¼Ł": 1827,
      "ren": 1828,
      "oci": 1829,
      "åĲ«": 1830,
      "åıĭ": 1831,
      "low": 1832,
      "åıĳçİ°": 1833,
      "ä»ĺ": 1834,
      "ç´¢": 1835,
      "Ġmic": 1836,
      "åħ¨åĽ½": 1837,
      "mun": 1838,
      "åĪ©çĽĬ": 1839,
      "éķĩ": 1840,
      "çĶ²": 1841,
      "è¿½": 1842,
      "åħ¨çĲĥ": 1843,
      "æį¢": 1844,
      "èĭ±": 1845,
      "æĦıä¹ī": 1846,
      "ä½Ļ": 1847,
      "å¢ŀåĬł": 1848,
      "åħ¸": 1849,
      "å¾¡": 1850,
      "åįķä½į": 1851,
      "æ³ķéĻ¢": 1852,
      "æĪĺåĽ½": 1853,
      "so": 1854,
      "æķĻå¸Ī": 1855,
      "çļĦéĩįè¦ģ": 1856,
      "è¯¾ç¨ĭ": 1857,
      "ong": 1858,
      "æŁĵ": 1859,
      "åħ¶ä¸Ń": 1860,
      "çĥŃ": 1861,
      "æŀĹ": 1862,
      "æĿ¥çļĦ": 1863,
      "æĺİç¡®": 1864,
      "éľĢæ±Ĥ": 1865,
      "éĥİ": 1866,
      "ult": 1867,
      "å°ģ": 1868,
      "éĿ©åĳ½": 1869,
      "éĵ¾": 1870,
      "åĪĳ": 1871,
      "å¾ĹåĪ°": 1872,
      "ome": 1873,
      "æľīåħ³": 1874,
      "çº²": 1875,
      "è®Ń": 1876,
      "éĢīæĭ©": 1877,
      "Ġincre": 1878,
      "Ġanti": 1879,
      "ween": 1880,
      "å·¥ä¸ļ": 1881,
      "é¥": 1882,
      "å¯¼èĩ´": 1883,
      "äººç±»": 1884,
      "è¶³åĪ©": 1885,
      "å¡": 1886,
      "ç§¯æŀģ": 1887,
      "Ġactiv": 1888,
      "ear": 1889,
      "æī§è¡Į": 1890,
      "è¿Ľä¸ĢæŃ¥": 1891,
      "é£Ł": 1892,
      "å°Ħ": 1893,
      "æıĲåįĩ": 1894,
      "æĹ¢": 1895,
      "éĵ¶": 1896,
      "æĤ£": 1897,
      "æĮģç»Ń": 1898,
      "èĭ¥": 1899,
      "è¯Ħä»·": 1900,
      "å¹ķåºľ": 1901,
      "200": 1902,
      "ight": 1903,
      "å¼Ģåıĳ": 1904,
      "æı¡": 1905,
      "äº¡": 1906,
      "Ġdet": 1907,
      "Ġbetween": 1908,
      "é©¬åħĭ": 1909,
      "èİ·å¾Ĺ": 1910,
      "åį±": 1911,
      "ç©ºéĹ´": 1912,
      "ven": 1913,
      "è¿Ľåħ¥": 1914,
      "ose": 1915,
      "ĠTh": 1916,
      "åĮĸçļĦ": 1917,
      "çĬ¯": 1918,
      "ä»Ģ": 1919,
      "èĮĥåĽ´": 1920,
      "ç¦ı": 1921,
      "éĩįå¤§": 1922,
      "è¯¸": 1923,
      "ç«¯": 1924,
      "äºĪ": 1925,
      "ç»¼åĲĪ": 1926,
      "tim": 1927,
      "å¢ŀéķ¿": 1928,
      "21": 1929,
      "å¼ĢæĶ¾": 1930,
      "tein": 1931,
      "é©¬åħĭæĢĿ": 1932,
      "å¸ģ": 1933,
      "äººæīį": 1934,
      "æ¹": 1935,
      "ates": 1936,
      "30": 1937,
      "Ġwhe": 1938,
      "æµĵ": 1939,
      "å°Ķ": 1940,
      "ä¸ĢèĪ¬": 1941,
      "ach": 1942,
      "ãĢĢ": 1943,
      "éĴĪ": 1944,
      "å¤§åŃ¦": 1945,
      "é¢Ŀ": 1946,
      "ak": 1947,
      "è¯»": 1948,
      "å¦Ĥä½ķ": 1949,
      "form": 1950,
      "åħ³éĶ®": 1951,
      "ç¨ĭåºı": 1952,
      "ection": 1953,
      "Ġind": 1954,
      "rib": 1955,
      "ç»Ŀ": 1956,
      "lud": 1957,
      "èĥĮ": 1958,
      "Ġlevel": 1959,
      "çĶŁçī©": 1960,
      "èı": 1961,
      "port": 1962,
      "25": 1963,
      "ä¹Ĳ": 1964,
      "çļĦå¤§": 1965,
      "ç«ŀ": 1966,
      "çĮ®": 1967,
      "Ġsc": 1968,
      "æľĽ": 1969,
      "äºĳ": 1970,
      "Ġexpression": 1971,
      "ä»Ģä¹Ī": 1972,
      "çīĪ": 1973,
      "Ġsignific": 1974,
      "è´¸": 1975,
      "Ġmay": 1976,
      "æķĮ": 1977,
      "cer": 1978,
      "æĿĥåĪ©": 1979,
      "åĽłç´ł": 1980,
      "rac": 1981,
      "ä¸ĢäºĽ": 1982,
      "æİª": 1983,
      "Ġalso": 1984,
      "ç¿": 1985,
      "åı³": 1986,
      "å»¶": 1987,
      "è¿ĩç¨ĭä¸Ń": 1988,
      "åıĳæĮ¥": 1989,
      "å¼Ģå±ķ": 1990,
      "çļĩ": 1991,
      "åĢŁ": 1992,
      "èĹı": 1993,
      "å®ŀéªĮ": 1994,
      "çĦ¶èĢĮ": 1995,
      "è¡¨çİ°": 1996,
      "erm": 1997,
      "Ġen": 1998,
      "è¿Ŀ": 1999,
      "çī¹å¾ģ": 2000,
      "lo": 2001,
      "ä»»åĬ¡": 2002,
      "è®²": 2003,
      "æ¶ī": 2004,
      "å®£": 2005,
      "Ġcor": 2006,
      "æīĢä»¥": 2007,
      "é²": 2008,
      "æ½": 2009,
      "ç»ıèĲ¥": 2010,
      "ugh": 2011,
      "åħ±äº§": 2012,
      "åħ¬åħ±": 2013,
      "ech": 2014,
      "Ġthese": 2015,
      "æĸĩæĺİ": 2016,
      "èģļ": 2017,
      "åģ¿": 2018,
      "uld": 2019,
      "åħħåĪĨ": 2020,
      "ulation": 2021,
      "Ġdise": 2022,
      "ä¸¤ä¸ª": 2023,
      "our": 2024,
      "ä¼°": 2025,
      "åĮºåŁŁ": 2026,
      "è¿Ļæł·": 2027,
      "èĬ±": 2028,
      "æ¤": 2029,
      "Ġanalys": 2030,
      "æ¸¸": 2031,
      "ä¹ĭåĲİ": 2032,
      "åĪ»": 2033,
      "è§ī": 2034,
      "ĠĠĠĠĠĠĠĠĠĠĠĠ": 2035,
      "åĨ²": 2036,
      "Ġusing": 2037,
      "ied": 2038,
      "alth": 2039,
      "Ġhas": 2040,
      "Ġph": 2041,
      "çĨ": 2042,
      "ä¸ŃåĽ½çī¹èī²": 2043,
      "æİĪ": 2044,
      "Ġgroup": 2045,
      "ected": 2046,
      "ä¹ĭä¸Ģ": 2047,
      "åºķ": 2048,
      "Ġbeen": 2049,
      "è´º": 2050,
      "æĪĲæľ¬": 2051,
      "å¾ħ": 2052,
      "åįĬ": 2053,
      "åĨľæĿĳ": 2054,
      "çīĩ": 2055,
      "å®«": 2056,
      "ä¸°èĩ£": 2057,
      "Ġinv": 2058,
      "å½ĵæĹ¶": 2059,
      "Ġdata": 2060,
      "The": 2061,
      "åĲĦç§į": 2062,
      "å£°": 2063,
      "æ¼Ķ": 2064,
      "æĻºèĥ½": 2065,
      "ound": 2066,
      "è¿ĳå¹³": 2067,
      "å¥ī": 2068,
      "Ġpres": 2069,
      "è®¡åĪĴ": 2070,
      "ç¬¦": 2071,
      "50": 2072,
      "ä¹łè¿ĳå¹³": 2073,
      "è§ĦèĮĥ": 2074,
      "æ¨¡åŀĭ": 2075,
      "æĦ¿": 2076,
      "ä¸įä»ħ": 2077,
      "Ġsignificant": 2078,
      "yt": 2079,
      "ç¡®å®ļ": 2080,
      "Ġcons": 2081,
      "å®ª": 2082,
      "è¡¡": 2083,
      "22": 2084,
      "çģ«": 2085,
      "ual": 2086,
      "Ġ7": 2087,
      "åĢĻ": 2088,
      "rain": 2089,
      "æı´": 2090,
      "rap": 2091,
      "è§Ħæ¨¡": 2092,
      "iti": 2093,
      "Ġrel": 2094,
      "åŁºäºİ": 2095,
      "reatment": 2096,
      "éĻ·": 2097,
      "èģĮä¸ļ": 2098,
      "éĿĴ": 2099,
      "åıĸå¾Ĺ": 2100,
      "è®¤è¯Ĩ": 2101,
      "éļıçĿĢ": 2102,
      "éī": 2103,
      "åĽ°": 2104,
      "éī´": 2105,
      "str": 2106,
      "éĶĢ": 2107,
      "æĻ´": 2108,
      "éŁ³": 2109,
      "ä»İèĢĮ": 2110,
      "èµĦäº§": 2111,
      "one": 2112,
      "é¼": 2113,
      "æĲ": 2114,
      "çĶº": 2115,
      "æĵį": 2116,
      "è½»": 2117,
      "éĻĦ": 2118,
      "ases": 2119,
      "Ġy": 2120,
      "ç£": 2121,
      "æħ": 2122,
      "å°ĨåĨĽ": 2123,
      "ä¹ĭéĹ´çļĦ": 2124,
      "ew": 2125,
      "æĦıè¯Ĩ": 2126,
      "å¹³åı°": 2127,
      "ä¸ĸçºª": 2128,
      "velop": 2129,
      "çļĦäºº": 2130,
      "åľ°ä½į": 2131,
      "æ¶Īè´¹": 2132,
      "ç¨ĭåº¦": 2133,
      "ä¼Ł": 2134,
      "åłĤ": 2135,
      "å®ĮæĪĲ": 2136,
      "fter": 2137,
      "è§ĦåĪĴ": 2138,
      "æ¦Ĥå¿µ": 2139,
      "çī¹åĪ«": 2140,
      "Ġprotein": 2141,
      "å±±åŁİ": 2142,
      "å°ļ": 2143,
      "éĩįçĤ¹": 2144,
      "åŃ¦æł¡": 2145,
      "ility": 2146,
      "æĴŃ": 2147,
      "çİ°ä»£åĮĸ": 2148,
      "åºĵ": 2149,
      "ens": 2150,
      "æĺ¯åĲ¦": 2151,
      "åĽ½çļĦ": 2152,
      "åħ¼": 2153,
      "è£ģ": 2154,
      "ç±³": 2155,
      "å«": 2156,
      "åĲ¸": 2157,
      "ä¼¼": 2158,
      "è¿ĲåĬ¨": 2159,
      "æŀĦå»º": 2160,
      "çĶļ": 2161,
      "Ġused": 2162,
      "éĢģ": 2163,
      "åĪĽéĢł": 2164,
      "tional": 2165,
      "äºĮåįģ": 2166,
      "Ġsur": 2167,
      "çĽ®åīį": 2168,
      "æľºåħ³": 2169,
      "çĸ«": 2170,
      "Ġall": 2171,
      "ç«ŀäºī": 2172,
      "éĻĨ": 2173,
      "æĿĲæĸĻ": 2174,
      "å¤§åĲį": 2175,
      "éĩĩçĶ¨": 2176,
      "åºŃ": 2177,
      "ç¢³": 2178,
      "æľĢç»Ī": 2179,
      "âĪ": 2180,
      "æ¸©": 2181,
      "æ¯į": 2182,
      "éĿł": 2183,
      "ating": 2184,
      "åıĬåħ¶": 2185,
      "ä½ĵçİ°": 2186,
      "å²ģ": 2187,
      "æĮĩå¯¼": 2188,
      "èĨ": 2189,
      "Ġrespon": 2190,
      "æİĮ": 2191,
      "Ġun": 2192,
      "ä¼¤": 2193,
      "158": 2194,
      "lec": 2195,
      "æ¯Ķè¾ĥ": 2196,
      "å°¼": 2197,
      "å±ĭ": 2198,
      "åĽ½åĨħ": 2199,
      "Ġinclud": 2200,
      "ros": 2201,
      "çĲĨè§£": 2202,
      "å¾Ħ": 2203,
      "è¿Ļæĺ¯": 2204,
      "éĺ³": 2205,
      "ults": 2206,
      "ç»ıéªĮ": 2207,
      "äºļ": 2208,
      "æ°ĳä¸»": 2209,
      "é¾Ļ": 2210,
      "aus": 2211,
      "åľŁåľ°": 2212,
      "âĳ": 2213,
      "èĩªå·±çļĦ": 2214,
      "èĥ½æºĲ": 2215,
      "åĤ¨": 2216,
      "è´«": 2217,
      "çĽŁ": 2218,
      "åĽŃ": 2219,
      "ass": 2220,
      "æīĺ": 2221,
      "ects": 2222,
      "å®ĪæĬ¤": 2223,
      "uch": 2224,
      "çĶ³": 2225,
      "æĮĩåĩº": 2226,
      "è®¼": 2227,
      "è°·": 2228,
      "æ±ī": 2229,
      "Ġ20": 2230,
      "23": 2231,
      "Ġ10": 2232,
      "åĪ¶éĢł": 2233,
      "oth": 2234,
      "æĬµ": 2235,
      "åį°": 2236,
      "Ġassoci": 2237,
      "çĪ±": 2238,
      "ĠV": 2239,
      "æĸ¹åĲĳ": 2240,
      "Ġcontrol": 2241,
      "æĺ¥": 2242,
      "è¾¾åĪ°": 2243,
      "ä½ĵåĪ¶": 2244,
      "Ġother": 2245,
      "å¨ģ": 2246,
      "ç¾½": 2247,
      "çĽ®çļĦ": 2248,
      "Ġsup": 2249,
      "Ġmed": 2250,
      "é¡º": 2251,
      "Ġtreatment": 2252,
      "Ġpos": 2253,
      "157": 2254,
      "å¤«": 2255,
      "Ġsam": 2256,
      "æ±ł": 2257,
      "ä¸ŃåĽ½çī¹èī²ç¤¾ä¼ļä¸»ä¹ī": 2258,
      "çĶ¨äºİ": 2259,
      "è¯īè®¼": 2260,
      "ĠÂ": 2261,
      "çĶ»": 2262,
      "Ġund": 2263,
      "ç´§": 2264,
      "duced": 2265,
      "è´¸æĺĵ": 2266,
      "out": 2267,
      "æĹ§": 2268,
      "èĻĳ": 2269,
      "Ġdevelop": 2270,
      "ely": 2271,
      "éķ¿æľŁ": 2272,
      "osis": 2273,
      "red": 2274,
      "å§Ķåĳĺ": 2275,
      "æĬ¥åĳĬ": 2276,
      "Ġthan": 2277,
      "ree": 2278,
      "ç»ĩçĶ°ä¿¡éķ¿": 2279,
      "stem": 2280,
      "è¡Įä¸ļ": 2281,
      "é»ĳ": 2282,
      "æĺ¯åľ¨": 2283,
      "çº¢": 2284,
      "èĻİ": 2285,
      "ä»¥ä¸ĭ": 2286,
      "æ³ķæ²»": 2287,
      "ang": 2288,
      "éĢłæĪĲ": 2289,
      "è¾ī": 2290,
      "Ġfact": 2291,
      "çĻ»": 2292,
      "Ġro": 2293,
      "éļĲ": 2294,
      "é©¬åħĭæĢĿä¸»ä¹ī": 2295,
      "æł¹æľ¬": 2296,
      "çĽĳçĿ£": 2297,
      "å¹¸": 2298,
      "Ġtum": 2299,
      "èĴ": 2300,
      "åĬ¿åĬĽ": 2301,
      "ä»¥æĿ¥": 2302,
      "ç¨³å®ļ": 2303,
      "ox": 2304,
      "24": 2305,
      "æĮīçħ§": 2306,
      "Ġacc": 2307,
      "éģŃ": 2308,
      "æİªæĸ½": 2309,
      "ard": 2310,
      "è´¯": 2311,
      "çī¹çĤ¹": 2312,
      "æ²»çĸĹ": 2313,
      "çŁŃ": 2314,
      "ä¼ĺåĬ¿": 2315,
      "æ³½": 2316,
      "ä¾§": 2317,
      "Ġ9": 2318,
      "ack": 2319,
      "èĹ©": 2320,
      "äº¤æĺĵ": 2321,
      "èĩªçĶ±": 2322,
      "åĬĽéĩı": 2323,
      "anc": 2324,
      "æĶ¶åħ¥": 2325,
      "åģ¥åº·": 2326,
      "è´Ń": 2327,
      "å®½": 2328,
      "è¯į": 2329,
      "Ġno": 2330,
      "Ġvari": 2331,
      "åıĹåĪ°": 2332,
      "æľīçļĦ": 2333,
      "inical": 2334,
      "èĽ": 2335,
      "Ġ8": 2336,
      "æĹłæ³ķ": 2337,
      "éĵģ": 2338,
      "ç»¿": 2339,
      "æ¯Ĵ": 2340,
      "Ġstudies": 2341,
      "ç§°ä¸º": 2342,
      "å¼ºè°ĥ": 2343,
      "Ġam": 2344,
      "æĢ¥": 2345,
      "ãĤ": 2346,
      "æ¸Ĳ": 2347,
      "å¤©æĸĩ": 2348,
      "ever": 2349,
      "Ġag": 2350,
      "éĺ¿": 2351,
      "åĬ±": 2352,
      "åİŁåĽł": 2353,
      "gen": 2354,
      "Ġspec": 2355,
      "çģŃ": 2356,
      "æĿŁ": 2357,
      "æĽ´åĬł": 2358,
      "éĶĻ": 2359,
      "ä¾ĭå¦Ĥ": 2360,
      "Ġmore": 2361,
      "èĢħçļĦ": 2362,
      "æ¤į": 2363,
      "æĭī": 2364,
      "ogen": 2365,
      "åħ±äº§åħļ": 2366,
      "äº¬éĥ½": 2367,
      "40": 2368,
      "çĹĩ": 2369,
      "æŀ¶": 2370,
      "çı": 2371,
      "è´Łè´£": 2372,
      "éĢĶ": 2373,
      "æĪĲæŀľ": 2374,
      "Ġdisease": 2375,
      "Ġar": 2376,
      "Ġhigh": 2377,
      "åĿĹ": 2378,
      "æĸ¹æ¡Ī": 2379,
      "å¥ĭ": 2380,
      "Ġman": 2381,
      "ç¹": 2382,
      "èĻ½çĦ¶": 2383,
      "Ġanalysis": 2384,
      "hib": 2385,
      "è®¾å¤ĩ": 2386,
      "å®ĩ": 2387,
      "èĦ±": 2388,
      "Ġtheir": 2389,
      "Ġfunc": 2390,
      "æĭ¥": 2391,
      "è¡¨ç¤º": 2392,
      "éº": 2393,
      "çĭ¬ç«ĭ": 2394,
      "cl": 2395,
      "æķ£": 2396,
      "æ³Ľ": 2397,
      "Ġsp": 2398,
      "äººä»¬": 2399,
      "ç¹ģ": 2400,
      "æ°ıçļĦ": 2401,
      "èĢĮä¸Ķ": 2402,
      "Ġdes": 2403,
      "Ġunder": 2404,
      "æ±¡": 2405,
      "ä¸Ģæĸ¹éĿ¢": 2406,
      "åıªæľī": 2407,
      "æ°¸ç¦Ħ": 2408,
      "Ġmodel": 2409,
      "çİĦ": 2410,
      "ç¾¤ä¼Ĺ": 2411,
      "ä¸Ģå®ļ": 2412,
      "è°ĭ": 2413,
      "è¯¯": 2414,
      "åĪ¶å®ļ": 2415,
      "å¢ŀå¼º": 2416,
      "éģ¿": 2417,
      "å¾ª": 2418,
      "æĵįä½ľ": 2419,
      "Ġel": 2420,
      "åĲİçļĦ": 2421,
      "arg": 2422,
      "Ġcol": 2423,
      "ric": 2424,
      "ber": 2425,
      "tal": 2426,
      "Ġbut": 2427,
      "æ¬§": 2428,
      "ater": 2429,
      "åĲĪçĲĨ": 2430,
      "åŃ¦ç§ĳ": 2431,
      "å©": 2432,
      "Ġgene": 2433,
      "Ġpath": 2434,
      "å»ºçŃĳ": 2435,
      "å³": 2436,
      "ç§ģ": 2437,
      "éĥ½æĺ¯": 2438,
      "çĬ¶æĢģ": 2439,
      "è´ŀ": 2440,
      "çļĦåŁºæľ¬": 2441,
      "å¯¹è±¡": 2442,
      "ç«Ļ": 2443,
      "ä¿Ŀè¯ģ": 2444,
      "ne": 2445,
      "éĵ¶è¡Į": 2446,
      "156": 2447,
      "ĠK": 2448,
      "ism": 2449,
      "é¢ĳ": 2450,
      "Ġimmun": 2451,
      "åĨħéĥ¨": 2452,
      "ä»»ä½ķ": 2453,
      "Ġtim": 2454,
      "Ġid": 2455,
      "wo": 2456,
      "å¹´çļĦ": 2457,
      "æŀĦæĪĲ": 2458,
      "è§£éĩĬ": 2459,
      "åĿĤ": 2460,
      "ile": 2461,
      "èģĶç½ĳ": 2462,
      "å±ŀäºİ": 2463,
      "æĸ°æĹ¶ä»£": 2464,
      "æĢ§åĴĮ": 2465,
      "lu": 2466,
      "äº¿": 2467,
      "è°Ī": 2468,
      "å½¹": 2469,
      "Ġafter": 2470,
      "Ġcar": 2471,
      "å®Įåħ¨": 2472,
      "Ġqu": 2473,
      "Ġdec": 2474,
      "å¼ĺ": 2475,
      "æĺŁ": 2476,
      "ä¸¸": 2477,
      "ures": 2478,
      "éĢĥ": 2479,
      "è½¯": 2480,
      "ser": 2481,
      "çĶµåŃĲ": 2482,
      "çļĦåŁºç¡Ģ": 2483,
      "æĺĮ": 2484,
      "Ġhealth": 2485,
      "äºĭä»¶": 2486,
      "uring": 2487,
      "entif": 2488,
      "åı¸æ³ķ": 2489,
      "é¸": 2490,
      "ç»Ĩå·Ŀ": 2491,
      "der": 2492,
      "è®¸å¤ļ": 2493,
      "Ġout": 2494,
      "è¾ĳ": 2495,
      "æĺ¯æĮĩ": 2496,
      "è¡ĮåĬ¨": 2497,
      "æ´²": 2498,
      "èīºæľ¯": 2499,
      "å¤įæĿĤ": 2500,
      "ç»ĦæĪĲ": 2501,
      "ç»§ç»Ń": 2502,
      "ĠThis": 2503,
      "èĭı": 2504,
      "ork": 2505,
      "uman": 2506,
      "atory": 2507,
      "èĩªèº«": 2508,
      "æŃ¤å¤ĸ": 2509,
      "çĽ¸å¯¹": 2510,
      "æĭŁ": 2511,
      "æŃ¦å°Ĩ": 2512,
      "iss": 2513,
      "å±¥": 2514,
      "ä»¥ä¸Ĭ": 2515,
      "yl": 2516,
      "çļĦéĹ®é¢ĺ": 2517,
      "de": 2518,
      "ä¸¥éĩį": 2519,
      "ç¯": 2520,
      "ä¸įåı¯": 2521,
      "åĨĪ": 2522,
      "ä¸ĭçļĦ": 2523,
      "åºĶè¯¥": 2524,
      "ä¼Ĳ": 2525,
      "çº·": 2526,
      "ni": 2527,
      "è¶³åĪ©ä¹ī": 2528,
      "ays": 2529,
      "çĽ¸äºĴ": 2530,
      "ä¸ļåĬ¡": 2531,
      "åĪ°äºĨ": 2532,
      "èĢĥèĻĳ": 2533,
      "çİ°å®ŀ": 2534,
      "27": 2535,
      "è´§å¸ģ": 2536,
      "å¼±": 2537,
      "è¯Ħä¼°": 2538,
      "Ġstr": 2539,
      "ä»Ĭå·Ŀ": 2540,
      "Ġcancer": 2541,
      "ä¿ĿéĻ©": 2542,
      "çī©è´¨": 2543,
      "ared": 2544,
      "28": 2545,
      "ä¼ļè®®": 2546,
      "å®¶çĿ£": 2547,
      "tain": 2548,
      "äºĭå®ŀ": 2549,
      "æĪĲåĬŁ": 2550,
      "ail": 2551,
      "æ±ĩ": 2552,
      "amm": 2553,
      "åºĦ": 2554,
      "ten": 2555,
      "èģĶåĲĪ": 2556,
      "ized": 2557,
      "è¶ĭ": 2558,
      "isk": 2559,
      "ons": 2560,
      "ä¼Łå¤§": 2561,
      "å·¨": 2562,
      "âĪĴ": 2563,
      "äºĭä¸ļ": 2564,
      "Ġlevels": 2565,
      "ç½Ĺ": 2566,
      "éģĩ": 2567,
      "90": 2568,
      "26": 2569,
      "ç»´æĬ¤": 2570,
      "éģĤ": 2571,
      "èĦĳ": 2572,
      "vely": 2573,
      "çĽ¾": 2574,
      "æĶ¹åıĺ": 2575,
      "çĶļèĩ³": 2576,
      "è¯Ńè¨Ģ": 2577,
      "çĬ¯ç½ª": 2578,
      "æīįèĥ½": 2579,
      "çļĦå½±åĵį": 2580,
      "Ġsystem": 2581,
      "Ġval": 2582,
      "è®¢": 2583,
      "æķĳ": 2584,
      "åģĩ": 2585,
      "éĺ»": 2586,
      "ç»ĥ": 2587,
      "Ġmo": 2588,
      "æĭħä»»": 2589,
      "è¿ĺæĺ¯": 2590,
      "inal": 2591,
      "åĲ¯": 2592,
      "ä½ľåĩº": 2593,
      "ide": 2594,
      "åīĤ": 2595,
      "å¥½çļĦ": 2596,
      "èĻļ": 2597,
      "ä¹īåĬ¡": 2598,
      "å¤º": 2599,
      "å²Ľæ´¥": 2600,
      "éĩĩåıĸ": 2601,
      "è´¢äº§": 2602,
      "å§Ķåĳĺä¼ļ": 2603,
      "æī¿æĭħ": 2604,
      "åĨľæ°ĳ": 2605,
      "ym": 2606,
      "æĪĺåĽ½æĹ¶ä»£": 2607,
      "åĬĽçļĦ": 2608,
      "è¿ĲçĶ¨": 2609,
      "é²ľ": 2610,
      "è°ĥæķ´": 2611,
      "è¿«": 2612,
      "Ġfol": 2613,
      "ological": 2614,
      "ined": 2615,
      "æĪĲç«ĭ": 2616,
      "rec": 2617,
      "cess": 2618,
      "Ġmeas": 2619,
      "åħĦ": 2620,
      "æĺł": 2621,
      "è°±": 2622,
      "å¾·å·Ŀå®¶åº·": 2623,
      "ues": 2624,
      "èģĶç³»": 2625,
      "ä¸įåĲĮçļĦ": 2626,
      "éĹ»": 2627,
      "æĽ²": 2628,
      "è®¾æĸ½": 2629,
      "æİ¢ç´¢": 2630,
      "é¦Ĩ": 2631,
      "åĩıå°ĳ": 2632,
      "Ġhyp": 2633,
      "å°Ĭ": 2634,
      "é¢Ĩåľ°": 2635,
      "per": 2636,
      "åĬłå¿«": 2637,
      "Ġsuch": 2638,
      "æ··": 2639,
      "éĴĪå¯¹": 2640,
      "åįļ": 2641,
      "å¸®": 2642,
      "Ġclinical": 2643,
      "æ·±åħ¥": 2644,
      "Ġlow": 2645,
      "Ġli": 2646,
      "ä¿ĿæĮģ": 2647,
      "è¿Ĳè¡Į": 2648,
      "çŃĶ": 2649,
      "èįī": 2650,
      "80": 2651,
      "rel": 2652,
      "CA": 2653,
      "atic": 2654,
      "å½ĵäºĭ": 2655,
      "èŀįåĲĪ": 2656,
      "è®¿": 2657,
      "æ¥": 2658,
      "é»Ħ": 2659,
      "çĶ·": 2660,
      "æ±ŁæĪ·": 2661,
      "æĤ£èĢħ": 2662,
      "åĨ³çŃĸ": 2663,
      "çĸ¾": 2664,
      "æľŁéĹ´": 2665,
      "æľ«": 2666,
      "åºĨéķ¿": 2667,
      "éĻįä½İ": 2668,
      "çĲĨå¿µ": 2669,
      "æĪĺäºī": 2670,
      "éĩįè¦ģçļĦ": 2671,
      "ä½ĵçļĦ": 2672,
      "æĺİæĺ¾": 2673,
      "RNA": 2674,
      "æİ¥åıĹ": 2675,
      "ild": 2676,
      "çŁĽ": 2677,
      "Ġser": 2678,
      "ron": 2679,
      "acter": 2680,
      "æĿĥçļĦ": 2681,
      "è°ĵ": 2682,
      "Ġresults": 2683,
      "Ġboth": 2684,
      "é¦ĸåħĪ": 2685,
      "ç±»åŀĭ": 2686,
      "å´İ": 2687,
      "Ġtwo": 2688,
      "çĸĳ": 2689,
      "ä¹¦è®°": 2690,
      "In": 2691,
      "åŁºåĽł": 2692,
      "è±«": 2693,
      "åıįåºĶ": 2694,
      "å§ĵ": 2695,
      "æİĮæı¡": 2696,
      "ä¹¡æĿĳ": 2697,
      "ä¾Ŀæį®": 2698,
      "è¯Ĺ": 2699,
      "æĿ¿": 2700,
      "èµĦéĩĳ": 2701,
      "æīĭæ®µ": 2702,
      "æ¡Īä»¶": 2703,
      "æľĢåĲİ": 2704,
      "åŃĻ": 2705,
      "Ġover": 2706,
      "éħ¸": 2707,
      "ĠÎ": 2708,
      "äººæ°ĳæ³ķéĻ¢": 2709,
      "æ¶²": 2710,
      "çĺ": 2711,
      "Ġperform": 2712,
      "çľ¼": 2713,
      "æķĪçİĩ": 2714,
      "æłĳ": 2715,
      "cept": 2716,
      "ark": 2717,
      "owever": 2718,
      "als": 2719,
      "ä¹İ": 2720,
      "ï¼İ": 2721,
      "çļĦçłĶç©¶": 2722,
      "çŁĽçĽ¾": 2723,
      "Ġpartic": 2724,
      "çĽĳç®¡": 2725,
      "ting": 2726,
      "ry": 2727,
      "hed": 2728,
      "çłģ": 2729,
      "hem": 2730,
      "tern": 2731,
      "éĿŀå¸¸": 2732,
      "æŁ´": 2733,
      "cent": 2734,
      "ä½ł": 2735,
      "own": 2736,
      "Ġmice": 2737,
      "çļĦæĸ°": 2738,
      "äºĨè§£": 2739,
      "æľªæĿ¥": 2740,
      "åĵ²": 2741,
      "Ġbi": 2742,
      "åŁİä¸»": 2743,
      "æµħ": 2744,
      "éĨ": 2745,
      "ĠÂ±": 2746,
      "æĽ´å¤ļ": 2747,
      "å¹¶ä¸Ķ": 2748,
      "å½»": 2749,
      "å¤§éĩı": 2750,
      "èµ·æĿ¥": 2751,
      "å²©": 2752,
      "é£ŀ": 2753,
      "ology": 2754,
      "çģµ": 2755,
      "Ġwill": 2756,
      "èĪ¹": 2757,
      "åķĨä¸ļ": 2758,
      "å¹¿æ³Ľ": 2759,
      "agn": 2760,
      "ç¤¼": 2761,
      "rim": 2762,
      "60": 2763,
      "æĮ¯": 2764,
      "çİ°è±¡": 2765,
      "åºĬ": 2766,
      "æŃ£ç¡®": 2767,
      "ä¸ŃåĽ½åħ±äº§åħļ": 2768,
      "Ġinhib": 2769,
      "è¾ħ": 2770,
      "Ġmeth": 2771,
      "èº«ä»½": 2772,
      "Ġexper": 2773,
      "Ġappro": 2774,
      "ç½ļ": 2775,
      "åı¶": 2776,
      "Ġidentif": 2777,
      "éĽĨä¸Ń": 2778,
      "ä¸įå¾Ĺ": 2779,
      "æĴ¤": 2780,
      "plic": 2781,
      "ä»·æł¼": 2782,
      "è¯·æ±Ĥ": 2783,
      "29": 2784,
      "ç¥ĸ": 2785,
      "èĪª": 2786,
      "èĢĮæĺ¯": 2787,
      "åįıè°ĥ": 2788,
      "ä¹°": 2789,
      "Ġnum": 2790,
      "ç¬Ķ": 2791,
      "ĠCD": 2792,
      "Ġhuman": 2793,
      "ç³»åĪĹ": 2794,
      "è´·": 2795,
      "å°¤": 2796,
      "ĠJ": 2797,
      "ok": 2798,
      "inding": 2799,
      "ble": 2800,
      "åĲ¬": 2801,
      "æ£®": 2802,
      "æĦıè§ģ": 2803,
      "æıı": 2804,
      "Ġæ¦Ĥ": 2805,
      "è·¨": 2806,
      "å¥¥": 2807,
      "ĠWe": 2808,
      "éģĵè·¯": 2809,
      "è§ĦåĪĻ": 2810,
      "100": 2811,
      "æ²¿": 2812,
      "åģı": 2813,
      "åĨĽäºĭ": 2814,
      "äººåı£": 2815,
      "æķ´ä½ĵ": 2816,
      "è¦ģç´ł": 2817,
      "åĪĨéħį": 2818,
      "ici": 2819,
      "åĲĽ": 2820,
      "ond": 2821,
      "è§Ħå¾ĭ": 2822,
      "æĢĿç»´": 2823,
      "ä¼ĺåĮĸ": 2824,
      "è°ĥæŁ¥": 2825,
      "å¹¼": 2826,
      "tical": 2827,
      "è´¢æĶ¿": 2828,
      "ç¬¦åĲĪ": 2829,
      "è¿Ķ": 2830,
      "Ġrisk": 2831,
      "çĪ¶äº²": 2832,
      "æĥħåĨµä¸ĭ": 2833,
      "ç½²": 2834,
      "å¼ķå¯¼": 2835,
      "éĻĲåĪ¶": 2836,
      "ç»ıè¿ĩ": 2837,
      "åıĮæĸ¹": 2838,
      "åįģäºĮ": 2839,
      "æ°§": 2840,
      "åįıè®®": 2841,
      "Ġfollow": 2842,
      "å¸Ŀ": 2843,
      "åĪĨåĪ«": 2844,
      "åĮĹæĿ¡æ°ı": 2845,
      "çĶ³è¯·": 2846,
      "ormal": 2847,
      "Ġassociated": 2848,
      "çĶ¨æĪ·": 2849,
      "ines": 2850,
      "åģľ": 2851,
      "ç«¥": 2852,
      "ered": 2853,
      "åį«éĹ¨": 2854,
      "ä¾Ŀæ³ķ": 2855,
      "Ġprog": 2856,
      "è¯ģæĺİ": 2857,
      "æŃ¤æĹ¶": 2858,
      "åĪĨä¸º": 2859,
      "Ġtime": 2860,
      "âĢ¦": 2861,
      "æıĲä¾ĽäºĨ": 2862,
      "GF": 2863,
      "ä¸Ńåįİæ°ĳæĹı": 2864,
      "èĦī": 2865,
      "ants": 2866,
      "æĮĳ": 2867,
      "åĸľ": 2868,
      "åħ³æ³¨": 2869,
      "ord": 2870,
      "pit": 2871,
      "Ġindic": 2872,
      "Ġmon": 2873,
      "Ġprovid": 2874,
      "éĢļå¸¸": 2875,
      "è¿ģ": 2876,
      "å¿ĥçĲĨ": 2877,
      "æ®Ĭ": 2878,
      "çĽĸ": 2879,
      "Ġobser": 2880,
      "Ġone": 2881,
      "çĵ": 2882,
      "Ġinto": 2883,
      "åľ¨äºİ": 2884,
      "åĲĮå¹´": 2885,
      "èĽĭ": 2886,
      "çļĦä¸»è¦ģ": 2887,
      "Ġæ¦Ĥè¦ģ": 2888,
      "Ġduring": 2889,
      "ĠAl": 2890,
      "èµĲ": 2891,
      "éĢĤåºĶ": 2892,
      "hen": 2893,
      "Ġdifferent": 2894,
      "æĹĹ": 2895,
      "ç»¿èī²": 2896,
      "Ġsug": 2897,
      "35": 2898,
      "Ġrep": 2899,
      "ä¿¡çİĦ": 2900,
      "Ġpresent": 2901,
      "é¼ĵ": 2902,
      "è·Ŀ": 2903,
      "è¡¨è¾¾": 2904,
      "CT": 2905,
      "æľĢé«ĺ": 2906,
      "å±¥è¡Į": 2907,
      "åª": 2908,
      "æ¾": 2909,
      "ef": 2910,
      "åħ³ä¸ľ": 2911,
      "äºĨä¸Ģ": 2912,
      "éª¨": 2913,
      "ä¸īå¥½": 2914,
      "å¸Į": 2915,
      "ç¦ģ": 2916,
      "ace": 2917,
      "70": 2918,
      "è´µ": 2919,
      "å½ĵäºĭäºº": 2920,
      "æī¾": 2921,
      "Ġform": 2922,
      "plement": 2923,
      "æī©å¤§": 2924,
      "è¯ģæį®": 2925,
      "å¼ºåĮĸ": 2926,
      "å½ĵåīį": 2927,
      "æ»¡è¶³": 2928,
      "åıįæĺł": 2929,
      "è¯¦": 2930,
      "åĵ²åŃ¦": 2931,
      "æķĪæŀľ": 2932,
      "äºĴèģĶç½ĳ": 2933,
      "ç»Łæ²»": 2934,
      "duction": 2935,
      "æĿİ": 2936,
      "Ġdef": 2937,
      "æĿĥåĬĽ": 2938,
      "åį·": 2939,
      "Ġtiss": 2940,
      "åĮ»çĸĹ": 2941,
      "åħĥå¹´": 2942,
      "Ġfound": 2943,
      "çŃ¹": 2944,
      "è§ĤçĤ¹": 2945,
      "æ´ĭ": 2946,
      "Ġsugg": 2947,
      "æ¶īåıĬ": 2948,
      "å·¥åħ·": 2949,
      "Ġeach": 2950,
      "é¹": 2951,
      "æ®¿": 2952,
      "åĢºåĬ¡": 2953,
      "è®°è½½": 2954,
      "æ¡¥": 2955,
      "Ġnon": 2956,
      "æ¸¯": 2957,
      "ç¼©": 2958,
      "çĥĪ": 2959,
      "ould": 2960,
      "éģĵå¾·": 2961,
      "SC": 2962,
      "ç»©": 2963,
      "ç§ĭ": 2964,
      "å¿ħè¦ģ": 2965,
      "åĪĨåŃĲ": 2966,
      "Ġ19": 2967,
      "Ġexam": 2968,
      "ç«¹": 2969,
      "åİ»ä¸ĸ": 2970,
      "ç«ĭæ³ķ": 2971,
      "çī©çļĦ": 2972,
      "è¢Ń": 2973,
      "çŃ¾": 2974,
      "åįģåħ«": 2975,
      "åı¬": 2976,
      "ä¸įè¿ĩ": 2977,
      "åıĤåĬł": 2978,
      "éĢĤçĶ¨": 2979,
      "Ġincreased": 2980,
      "æĶ»åĩ»": 2981,
      "Ġup": 2982,
      "åĶ®": 2983,
      "éģį": 2984,
      "éĢı": 2985,
      "åķĨåĵģ": 2986,
      "è¡¨æĺİ": 2987,
      "å®ĥä»¬": 2988,
      "Ġem": 2989,
      "é¡¾": 2990,
      "å¹¶ä¸į": 2991,
      "æķ´ä¸ª": 2992,
      "è°¦": 2993,
      "äº¤éĢļ": 2994,
      "åĶ¯": 2995,
      "å¹´ä»£": 2996,
      "æĽ¿": 2997,
      "æĺ¯ä¸Ģä¸ª": 2998,
      "ç»į": 2999,
      "è´¡": 3000,
      "éĽĦ": 3001,
      "æĸĩä»¶": 3002,
      "éĢ»": 3003,
      "Ġend": 3004,
      "å½¢æĢģ": 3005,
      "ization": 3006,
      "åĳĪ": 3007,
      "Ġet": 3008,
      "ration": 3009,
      "ç¬¬åĽĽ": 3010,
      "æ½ľ": 3011,
      "ä¸¹": 3012,
      "ä»ĸçļĦ": 3013,
      "é«ĺåº¦": 3014,
      "æ´Ľ": 3015,
      "åī§": 3016,
      "æ³ķè§Ħ": 3017,
      "ä»¥åĲİ": 3018,
      "05": 3019,
      "èĤ¥": 3020,
      "èĲ½å®ŀ": 3021,
      "ç§Ł": 3022,
      "ä»ķ": 3023,
      "cri": 3024,
      "art": 3025,
      "æ³¨æĦı": 3026,
      "æĿ¥è¯´": 3027,
      "ä¸°å¯Į": 3028,
      "å¼ķèµ·": 3029,
      "åįģä¸Ģ": 3030,
      "è¿ĽæĶ»": 3031,
      "æģ¶": 3032,
      "Ġhad": 3033,
      "lood": 3034,
      "çĨŁ": 3035,
      "å®¶åºŃ": 3036,
      "éĢ»è¾ĳ": 3037,
      "æ±¡æŁĵ": 3038,
      "èµĦæĸĻ": 3039,
      "Ġaut": 3040,
      "æŃĮ": 3041,
      "éĹ®é¢ĺçļĦ": 3042,
      "åĪĨå¸ĥ": 3043,
      "ported": 3044,
      "éĢĲæ¸Ĳ": 3045,
      "ä¸īå¹´": 3046,
      "dition": 3047,
      "èŃ": 3048,
      "åĲİæĿ¥": 3049,
      "æĸĭ": 3050,
      "å¦»": 3051,
      "SA": 3052,
      "å¼ĥ": 3053,
      "æķ°éĩı": 3054,
      "æĸ¹éĿ¢çļĦ": 3055,
      "Ġtherap": 3056,
      "åªĴ": 3057,
      "pos": 3058,
      "å·´": 3059,
      "åŃ¦çĶŁçļĦ": 3060,
      "èµĶ": 3061,
      "å¤©çļĩ": 3062,
      "ä¸īä¸ª": 3063,
      "Ġour": 3064,
      "åºŁ": 3065,
      "ãĥ": 3066,
      "èĽĭçĻ½": 3067,
      "ä¼łæĴŃ": 3068,
      "èĨľ": 3069,
      "å®ŀè¡Į": 3070,
      "æĢ»ä¹¦è®°": 3071,
      "urther": 3072,
      "å¤§åĨħ": 3073,
      "è¿İ": 3074,
      "ex": 3075,
      "ãĢĮ": 3076,
      "ãĢį": 3077,
      "èį£": 3078,
      "åĳ³": 3079,
      "æ¸¡": 3080,
      "è¥¿æĸ¹": 3081,
      "åĮĸåŃ¦": 3082,
      "Ġsim": 3083,
      "mon": 3084,
      "å¹´æĿ¥": 3085,
      "æĢ§è´¨": 3086,
      "ft": 3087,
      "tit": 3088,
      "åĽ½æ°ĳ": 3089,
      "èĢĮè¨Ģ": 3090,
      "ä»ª": 3091,
      "åŃĿ": 3092,
      "æľīåĪ©": 3093,
      "med": 3094,
      "å»ºè®®": 3095,
      "æĮĩæłĩ": 3096,
      "åĭĩ": 3097,
      "Ġsec": 3098,
      "éĩįè§Ĩ": 3099,
      "ĠSt": 3100,
      "ĊĠĠ": 3101,
      "èıĮ": 3102,
      "ute": 3103,
      "ç²®": 3104,
      "çī¹æ®Ĭ": 3105,
      "Ġtumor": 3106,
      "ä»ģ": 3107,
      "å¤§åıĭ": 3108,
      "äºİæĺ¯": 3109,
      "æ²¹": 3110,
      "ä¼ı": 3111,
      "è¯´æĺİ": 3112,
      "è·Ł": 3113,
      "Ġcomple": 3114,
      "ç¼ĵ": 3115,
      "ä¹ĭåŃĲ": 3116,
      "199": 3117,
      "Ġactivity": 3118,
      "Ġtest": 3119,
      "åĩ½": 3120,
      "å¸®åĬ©": 3121,
      "çº¯": 3122,
      "å·®å¼Ĥ": 3123,
      "è¿¹": 3124,
      "ç¥ŀç»ı": 3125,
      "è®°å½ķ": 3126,
      "çĽ¸åºĶ": 3127,
      "æ¶µ": 3128,
      "è¶ħè¿ĩ": 3129,
      "ä¹ı": 3130,
      "Ġcompared": 3131,
      "çĶŁåĳ½": 3132,
      "çļĦåİĨåı²": 3133,
      "Ġrese": 3134,
      "othe": 3135,
      "é©±": 3136,
      "æ·±åĮĸ": 3137,
      "èĩªæĪĳ": 3138,
      "Ġsyn": 3139,
      "ution": 3140,
      "è¯Ĭ": 3141,
      "æĺ¾ç¤º": 3142,
      "åĨħçļĦ": 3143,
      "ç¡®ä¿Ŀ": 3144,
      "ä¼ļè®¡": 3145,
      "æĬĺ": 3146,
      "Ġgener": 3147,
      "å«¡": 3148,
      "ç¥¨": 3149,
      "è½®": 3150,
      "å®ļä¹ī": 3151,
      "ulated": 3152,
      "å®Ŀ": 3153,
      "ature": 3154,
      "åº§": 3155,
      "åĪĨç±»": 3156,
      "æ£Ģæµĭ": 3157,
      "ram": 3158,
      "éĤ£ä¹Ī": 3159,
      "Ġonly": 3160,
      "å¤Ħäºİ": 3161,
      "ock": 3162,
      "ä¹ĥ": 3163,
      "æľĢå¤§": 3164,
      "åĮĹäº¬": 3165,
      "Ġmut": 3166,
      "ä¸ºä¸»": 3167,
      "33": 3168,
      "èµ¤": 3169,
      "ä½¿å¾Ĺ": 3170,
      "cc": 3171,
      "åĬª": 3172,
      "ç³»ç»ŁçļĦ": 3173,
      "Ġwell": 3174,
      "è¿Ľç¨ĭ": 3175,
      "æĬĢèĥ½": 3176,
      "è°¦ä¿¡": 3177,
      "rough": 3178,
      "è£Ĥ": 3179,
      "ears": 3180,
      "æĺŃ": 3181,
      "ä½ľèĢħ": 3182,
      "Ġpot": 3183,
      "æĳĦ": 3184,
      "Ġmeasure": 3185,
      "åĺ": 3186,
      "çī©çĲĨ": 3187,
      "ç´¯": 3188,
      "Ġdem": 3189,
      "å¥Ĺ": 3190,
      "Ġits": 3191,
      "ause": 3192,
      "çĺ¤": 3193,
      "è¿ĺæľī": 3194,
      "æĿ¾å¹³": 3195,
      "éģµ": 3196,
      "å°±ä¸ļ": 3197,
      "åĬ¨åĬĽ": 3198,
      "èĩªä¸»": 3199,
      "èĥĮæĻ¯": 3200,
      "Ġdeterm": 3201,
      "echan": 3202,
      "ability": 3203,
      "æĪĺæŃ»": 3204,
      "è½¯ä»¶": 3205,
      "Ġresear": 3206,
      "ency": 3207,
      "é¦Ļ": 3208,
      "ational": 3209,
      "åĢĴ": 3210,
      "45": 3211,
      "èŃ¦": 3212,
      "çľŁæŃ£": 3213,
      "iv": 3214,
      "å¤įåħ´": 3215,
      "ces": 3216,
      "Ġmethod": 3217,
      "ä¸ĢçĽ´": 3218,
      "urren": 3219,
      "ages": 3220,
      "ments": 3221,
      "ody": 3222,
      "çºł": 3223,
      "éĻĪ": 3224,
      "ential": 3225,
      "Ġeffect": 3226,
      "ä¸įè¶³": 3227,
      "ä¹Łæľī": 3228,
      "bib": 3229,
      "Ġblood": 3230,
      "Ġrem": 3231,
      "Ġmin": 3232,
      "Ġmost": 3233,
      "åĿı": 3234,
      "ral": 3235,
      "åī¯": 3236,
      "irst": 3237,
      "æĹ¶åĢĻ": 3238,
      "ite": 3239,
      "ited": 3240,
      "äº¤æµģ": 3241,
      "éĿĻ": 3242,
      "éĿ¢ä¸´": 3243,
      "åĶĲ": 3244,
      "Ġins": 3245,
      "ke": 3246,
      "ç¡¬": 3247,
      "çĪĨ": 3248,
      "li": 3249,
      "155": 3250,
      "Ġkn": 3251,
      "ough": 3252,
      "çĩ": 3253,
      "Ġpatient": 3254,
      "å±Ĭ": 3255,
      "å½ĵä¸»": 3256,
      "æĭĵ": 3257,
      "ç¯ĩ": 3258,
      "æĮĳæĪĺ": 3259,
      "æĶ¯ä»ĺ": 3260,
      "æ£ĢæŁ¥": 3261,
      "Ġimport": 3262,
      "èĤ¿": 3263,
      "36": 3264,
      "arget": 3265,
      "usion": 3266,
      "ä¸»å¼ł": 3267,
      "sy": 3268,
      "éĺ¶çº§": 3269,
      "ä¾ĽåºĶ": 3270,
      "å¾Īå¤ļ": 3271,
      "åĪ¤æĸŃ": 3272,
      "æ·±åĪ»": 3273,
      "oin": 3274,
      "æĴĳ": 3275,
      "Ġdiagn": 3276,
      "ä½Ľ": 3277,
      "ä¸»åĬ¨": 3278,
      "Ġnumber": 3279,
      "è½¬ç§»": 3280,
      "èĮ¶": 3281,
      "åĩºçīĪ": 3282,
      "ä¸´åºĬ": 3283,
      "ition": 3284,
      "æįŁå¤±": 3285,
      "æįŁå®³": 3286,
      "è¦": 3287,
      "ung": 3288,
      "reg": 3289,
      "Ġuse": 3290,
      "å°¤åħ¶": 3291,
      "æ³ķçļĦ": 3292,
      "çªģåĩº": 3293,
      "vers": 3294,
      "endent": 3295,
      "åįĸ": 3296,
      "æķ°åŃ¦": 3297,
      "å°¼åŃĲ": 3298,
      "Ġext": 3299,
      "çİ°åľ¨": 3300,
      "ç®Ģåįķ": 3301,
      "è½¬åıĺ": 3302,
      "åĪĢ": 3303,
      "æ°ĳäºĭ": 3304,
      "lic": 3305,
      "ä¿¡åı·": 3306,
      "æĺ¾èĳĹ": 3307,
      "éĽ¶": 3308,
      "Ġshown": 3309,
      "æĭĽ": 3310,
      "çĸ¾çĹħ": 3311,
      "åĵª": 3312,
      "Ġdist": 3313,
      "Ġprocess": 3314,
      "çļ®": 3315,
      "ä»²": 3316,
      "èĸ": 3317,
      "éħįç½®": 3318,
      "Ġwho": 3319,
      "çŃĸçķ¥": 3320,
      "çĤİ": 3321,
      "åıĽ": 3322,
      "Ġeffects": 3323,
      "ç¢į": 3324,
      "ä¸Ĭè¿°": 3325,
      "èµĭ": 3326,
      "uro": 3327,
      "ĠHowever": 3328,
      "éģ¿åħį": 3329,
      "æĸĩåŃ¦": 3330,
      "Ġassess": 3331,
      "ä¸Ģèĩ´": 3332,
      "è¾©": 3333,
      "è§¦": 3334,
      "æĪĲåĳĺ": 3335,
      "Ġmechan": 3336,
      "åŁ¹è®Ń": 3337,
      "æĺ¯ä¸Ģç§į": 3338,
      "38": 3339,
      "vious": 3340,
      "å©ļ": 3341,
      "éľ²": 3342,
      "å¼¹": 3343,
      "Ġbl": 3344,
      "è½¬åŀĭ": 3345,
      "min": 3346,
      "åŃ¦æľ¯": 3347,
      "ise": 3348,
      "åĨĽçļĦ": 3349,
      "åĬªåĬĽ": 3350,
      "äº§æĿĥ": 3351,
      "è¡°": 3352,
      "å¿«éĢŁ": 3353,
      "åĲĪæĪĺ": 3354,
      "æĶ¯æĴĳ": 3355,
      "è®¾ç½®": 3356,
      "åħ±äº«": 3357,
      "åįģä¹Ŀ": 3358,
      "ĠĠĠĠĠ": 3359,
      "æµĭè¯ķ": 3360,
      "åħ¨éĥ¨": 3361,
      "å¹ħ": 3362,
      "ä¹łè¿ĳå¹³æĢ»ä¹¦è®°": 3363,
      "è§Ĵåº¦": 3364,
      "è®¨è®º": 3365,
      "åĩĨå¤ĩ": 3366,
      "Ġfunction": 3367,
      "ä¹ĭåīį": 3368,
      "Ġcould": 3369,
      "CC": 3370,
      "åıĬæĹ¶": 3371,
      "Ġvir": 3372,
      "Ġneur": 3373,
      "åİŁçĲĨ": 3374,
      "å¹³è¡¡": 3375,
      "è¦Ĩ": 3376,
      "æŃ£å¼ı": 3377,
      "æĶ¹åĸĦ": 3378,
      "Ġrole": 3379,
      "Ġresponse": 3380,
      "éĢĲæŃ¥": 3381,
      "éĴ±": 3382,
      "çĽ¸åĲĮ": 3383,
      "åģ¥åħ¨": 3384,
      "å¯»": 3385,
      "çļĦåħ³ç³»": 3386,
      "Ġhig": 3387,
      "è®¡ç®Ĺæľº": 3388,
      "til": 3389,
      "éĻ¤äºĨ": 3390,
      "çħ": 3391,
      "åĪ¸": 3392,
      "34": 3393,
      "èµĶåģ¿": 3394,
      "åĦ¿ç«¥": 3395,
      "nal": 3396,
      "qui": 3397,
      "æĿ¥æºĲ": 3398,
      "è§Ĥå¿µ": 3399,
      "Ġthrough": 3400,
      "è¯ļ": 3401,
      "ä¸Ģæĺ¯": 3402,
      "å§ĭç»Ī": 3403,
      "éļ¾ä»¥": 3404,
      "çŃīäºº": 3405,
      "lamm": 3406,
      "æħ§": 3407,
      "Ġindi": 3408,
      "AP": 3409,
      "ä½ľåĵģ": 3410,
      "çļĦç¤¾ä¼ļ": 3411,
      "æľ¬è´¨": 3412,
      "å®¢è§Ĥ": 3413,
      "æļ´": 3414,
      "ç»ķ": 3415,
      "è´¤": 3416,
      "ob": 3417,
      "çĶ±æŃ¤": 3418,
      "ci": 3419,
      "ans": 3420,
      "çī¹åĪ«æĺ¯": 3421,
      "ust": 3422,
      "ç»Łè®¡": 3423,
      "åı¥": 3424,
      "sive": 3425,
      "Ġdevelopment": 3426,
      "æĭ¥æľī": 3427,
      "å¥ĩ": 3428,
      "Ġthere": 3429,
      "æľ¬èº«": 3430,
      "åı¦ä¸Ģæĸ¹éĿ¢": 3431,
      "Ġmem": 3432,
      "æĸ¹çļĦ": 3433,
      "ulti": 3434,
      "ma": 3435,
      "arly": 3436,
      "é«ĺæł¡": 3437,
      "è¶ĭåĬ¿": 3438,
      "å®ģ": 3439,
      "å¸Ń": 3440,
      "AT": 3441,
      "Ġperformed": 3442,
      "159": 3443,
      "éģ£": 3444,
      "æĻ®éģį": 3445,
      "å¥ĭæĸĹ": 3446,
      "Ġsel": 3447,
      "æī¬": 3448,
      "ective": 3449,
      "çıŃ": 3450,
      "Ġcyt": 3451,
      "æīĢè°ĵ": 3452,
      "æĢ»ä½ĵ": 3453,
      "Ġsignificantly": 3454,
      "ä¼Ĭè¾¾": 3455,
      "æķı": 3456,
      "37": 3457,
      "éĽĨä½ĵ": 3458,
      "onstr": 3459,
      "tig": 3460,
      "Ġwhen": 3461,
      "Ġdep": 3462,
      "Ġgenes": 3463,
      "åħģ": 3464,
      "å±Ĥæ¬¡": 3465,
      "å¾ªçİ¯": 3466,
      "ä¸¤ç§į": 3467,
      "èĵ": 3468,
      "å¤ļç§į": 3469,
      "å®ªæ³ķ": 3470,
      "æĥł": 3471,
      "ç¼ĺ": 3472,
      "å¤§ä¼ļ": 3473,
      "æĢĢ": 3474,
      "éĢŁåº¦": 3475,
      "æŃ¦å£«": 3476,
      "å®ı": 3477,
      "æī¶": 3478,
      "ä¼ģä¸ļçļĦ": 3479,
      "åŁİçļĦ": 3480,
      "Ġantib": 3481,
      "æ®ĭ": 3482,
      "roph": 3483,
      "view": 3484,
      "uct": 3485,
      "åľ¨æŃ¤": 3486,
      "å¤ļæķ°": 3487,
      "ort": 3488,
      "å¹²éĥ¨": 3489,
      "å¦ĤæŃ¤": 3490,
      "æ¨ª": 3491,
      "ä¹ĺ": 3492,
      "è·ĥ": 3493,
      "è´¡çĮ®": 3494,
      "èª": 3495,
      "Ġprim": 3496,
      "Ġpred": 3497,
      "çļĨ": 3498,
      "éŃ": 3499,
      "é½": 3500,
      "è¿ħ": 3501,
      "av": 3502,
      "æĬĬæı¡": 3503,
      "ä¸Ģèµ·": 3504,
      "Ġspecific": 3505,
      "è®¤å®ļ": 3506,
      "åĲĮæł·": 3507,
      "Ġconf": 3508,
      "è¿Ľè¡ĮäºĨ": 3509,
      "ive": 3510,
      "åįģåĽĽ": 3511,
      "æĺ¯ä¸Ģ": 3512,
      "åĴĮåıĳå±ķ": 3513,
      "æĢ§èĥ½": 3514,
      "çİ¯èĬĤ": 3515,
      "äººå·¥": 3516,
      "Ġop": 3517,
      "åĩ½æķ°": 3518,
      "ĠĠĠĠĠĠĠĠĠĠĠĠĠĠĠĠĠĠĠĠĠĠĠĠĠĠĠĠĠĠĠĠĠĠĠĠĠĠĠĠĠĠĠĠĠĠĠĠĠĠĠĠĠĠĠĠĠĠĠĠĠĠĠĠĠĠĠĠĠĠĠĠĠĠĠĠĠĠĠĠĠĠĠĠĠĠĠĠĠĠĠĠĠĠĠĠĠĠĠĠĠĠĠĠĠĠĠĠĠĠĠĠĠĠĠĠĠĠĠĠĠĠĠĠĠĠĠĠ": 3519,
      "31": 3520,
      "åĳ¼": 3521,
      "å¾Ģå¾Ģ": 3522,
      "01": 3523,
      "Ġsm": 3524,
      "ä½įç½®": 3525,
      "Ġgl": 3526,
      "æıĲåĩºäºĨ": 3527,
      "valu": 3528,
      "è½¬åĮĸ": 3529,
      "å¤ľ": 3530,
      "ination": 3531,
      "éļıåĲİ": 3532,
      "æĬĵ": 3533,
      "éĺħ": 3534,
      "éķ°": 3535,
      "Ġran": 3536,
      "æľŁçļĦ": 3537,
      "åħ°": 3538,
      "åŃ£": 3539,
      "æģ¢": 3540,
      "é«ĺè´¨éĩı": 3541,
      "Ġage": 3542,
      "vidual": 3543,
      "æľīéĻĲ": 3544,
      "aracter": 3545,
      "CD": 3546,
      "Ġbrain": 3547,
      "æ¯ıä¸ª": 3548,
      "æĸĹäºī": 3549,
      "ä»įçĦ¶": 3550,
      "les": 3551,
      "Ġinvol": 3552,
      "è§Ĥå¯Ł": 3553,
      "ities": 3554,
      "æĬ¼": 3555,
      "åħ¬å¹³": 3556,
      "ĠĠĠĠĠĠ": 3557,
      "èĩªåĬ¨": 3558,
      "åĽ½æľī": 3559,
      "æĿ¥çľĭ": 3560,
      "æ³ī": 3561,
      "è¯ķéªĮ": 3562,
      "ä¼ĳ": 3563,
      "itive": 3564,
      "ä¸°èĩ£ç§ĢåĲī": 3565,
      "åŃ¦èĢħ": 3566,
      "ä¹ĭä¹±": 3567,
      "éªı": 3568,
      "æĹħ": 3569,
      "åıĳå¸ĥ": 3570,
      "ä¼´": 3571,
      "Ġfactors": 3572,
      "äºĮæĺ¯": 3573,
      "32": 3574,
      "åįıåĲĮ": 3575,
      "åĿĢ": 3576,
      "èĢĹ": 3577,
      "æŃ¤åĲİ": 3578,
      "ä¸īæ²³": 3579,
      "ç¼ºä¹ı": 3580,
      "Ġobserved": 3581,
      "çģ¾": 3582,
      "åĨĮ": 3583,
      "erg": 3584,
      "å¯¹å¤ĸ": 3585,
      "æĬĳ": 3586,
      "Ġimp": 3587,
      "oma": 3588,
      "è§Ĩä¸º": 3589,
      "åıªæĺ¯": 3590,
      "æµ¦": 3591,
      "ind": 3592,
      "æ¯Ķå¦Ĥ": 3593,
      "é¾Ł": 3594,
      "ĠThese": 3595,
      "old": 3596,
      "Ġtarget": 3597,
      "oid": 3598,
      "ä¸ŃåĽ½çļĦ": 3599,
      "æĬķåħ¥": 3600,
      "Ġpop": 3601,
      "è¯ĳ": 3602,
      "æĿĥçĽĬ": 3603,
      "æĢ»ç»ĵ": 3604,
      "åĩĿ": 3605,
      "è§Ħå®ļçļĦ": 3606,
      "é©»": 3607,
      "Ġthey": 3608,
      "å®ĭ": 3609,
      "åį±æľº": 3610,
      "ç»ĺ": 3611,
      "Ġpol": 3612,
      "æľĿä»ĵ": 3613,
      "49": 3614,
      "its": 3615,
      "Ġloc": 3616,
      "æľīæľº": 3617,
      "Ġrecept": 3618,
      "æ¹ĸ": 3619,
      "åĩºåıĳ": 3620,
      "éĩįæĸ°": 3621,
      "asc": 3622,
      "åİļ": 3623,
      "äººçī©": 3624,
      "Ġmicro": 3625,
      "åĳ½ä»¤": 3626,
      "tics": 3627,
      "å¤©ä¸ĭ": 3628,
      "æģ¢å¤į": 3629,
      "Ġincluding": 3630,
      "crib": 3631,
      "unt": 3632,
      "æĻºæħ§": 3633,
      "éħĴ": 3634,
      "Ġra": 3635,
      "èĮĤ": 3636,
      "æĸĲ": 3637,
      "çķł": 3638,
      "è¯¾åłĤ": 3639,
      "ç²Ĵ": 3640,
      "çļĦæĸ¹å¼ı": 3641,
      "è¿ĽæŃ¥": 3642,
      "ä¸ĢåĲĮ": 3643,
      "Ġexperim": 3644,
      "Ġfirst": 3645,
      "tively": 3646,
      "æ±½": 3647,
      "raph": 3648,
      "æĶ¹éĿ©å¼ĢæĶ¾": 3649,
      "çĦ¶åĲİ": 3650,
      "ä»ĭç»į": 3651,
      "Ġchang": 3652,
      "æıĨ": 3653,
      "ä¸¥æł¼": 3654,
      "ale": 3655,
      "çļĦæĸ¹æ³ķ": 3656,
      "å±ĤéĿ¢": 3657,
      "Ġref": 3658,
      "Figure": 3659,
      "è±ª": 3660,
      "é¼ĵåĬ±": 3661,
      "Ġshowed": 3662,
      "ples": 3663,
      "Ġnormal": 3664,
      "åĩĨç¡®": 3665,
      "åĩºäºĨ": 3666,
      "æŃ£åľ¨": 3667,
      "åĢ¾": 3668,
      "çĻĮ": 3669,
      "ä¾Ľç»Ļ": 3670,
      "åīįå¾Ģ": 3671,
      "ä¿¡çĶ¨": 3672,
      "åĮħåĲ«": 3673,
      "ependent": 3674,
      "æ¡Ĩ": 3675,
      "åįģåĪĨ": 3676,
      "åĨĽéĺŁ": 3677,
      "ä¸Ģæł·": 3678,
      "ä¾į": 3679,
      "è®Ńç»ĥ": 3680,
      "åºĶå¯¹": 3681,
      "åĴĮåĽ½": 3682,
      "æģ©": 3683,
      "Ġdo": 3684,
      "ç»ıæµİåıĳå±ķ": 3685,
      "ä¼¯": 3686,
      "led": 3687,
      "reated": 3688,
      "II": 3689,
      "å°Ĩåħ¶": 3690,
      "åĴĮç¤¾ä¼ļ": 3691,
      "Ġaff": 3692,
      "ä¸įä¼ļ": 3693,
      "é«ĺçŃī": 3694,
      "48": 3695,
      "æ¡Īä¾ĭ": 3696,
      "å¿ħçĦ¶": 3697,
      "åį«çĶŁ": 3698,
      "39": 3699,
      "Ġindividual": 3700,
      "åĪº": 3701,
      "ĠIL": 3702,
      "ç¾İæµĵ": 3703,
      "ä¿Ĺ": 3704,
      "ize": 3705,
      "ery": 3706,
      "åıĤèĢĥ": 3707,
      "ä¸Ģæ¬¡": 3708,
      "Ġmedi": 3709,
      "çªģçł´": 3710,
      "åĩºçļĦ": 3711,
      "Ġes": 3712,
      "çĽ¸å½ĵ": 3713,
      "æĸĩçĮ®": 3714,
      "Ġwhere": 3715,
      "ä¸ĭéĻį": 3716,
      "ç³ĸ": 3717,
      "å±ķå¼Ģ": 3718,
      "ently": 3719,
      "Ġchild": 3720,
      "ĠĠĠĠĠĠĠ": 3721,
      "Î²": 3722,
      "åĨįæ¬¡": 3723,
      "äºĭåĬ¡": 3724,
      "åħĥå°±": 3725,
      "äºĶå¹´": 3726,
      "æĿ¥èĩª": 3727,
      "ç©¿": 3728,
      "åħ·å¤ĩ": 3729,
      "åŃ¦éĻ¢": 3730,
      "Ġevalu": 3731,
      "æĻļ": 3732,
      "åĽ½å®¶çļĦ": 3733,
      "åı¯è§ģ": 3734,
      "over": 3735,
      "æĶ¿æĿĥ": 3736,
      "ix": 3737,
      "å®¤çĶº": 3738,
      "ov": 3739,
      "estig": 3740,
      "Ġtissue": 3741,
      "Ġsignal": 3742,
      "å¸¦æĿ¥": 3743,
      "Ġgrow": 3744,
      "Ġimportant": 3745,
      "åĢį": 3746,
      "æµģåĬ¨": 3747,
      "Ġmechanism": 3748,
      "åħĪè¿Ľ": 3749,
      "éªĳ": 3750,
      "æľīåĪ©äºİ": 3751,
      "Ġhigher": 3752,
      "Ġreported": 3753,
      "éĩįèĩ£": 3754,
      "ucle": 3755,
      "å²¸": 3756,
      "å³°": 3757,
      "æ¶¦": 3758,
      "æĹ¶ä»£çļĦ": 3759,
      "com": 3760,
      "éķ°ä»ĵ": 3761,
      "Ġprevious": 3762,
      "ä¼¦": 3763,
      "åĽ½äºº": 3764,
      "å¤ļæł·": 3765,
      "éĢļä¿¡": 3766,
      "æĢİ": 3767,
      "é«ĺçļĦ": 3768,
      "éĿ¢å¯¹": 3769,
      "åĬłåħ¥": 3770,
      "ç§ĳçłĶ": 3771,
      "åĢºæĿĥ": 3772,
      "çĬ¶åĨµ": 3773,
      "éĩıçļĦ": 3774,
      "èĭ¦": 3775,
      "Ġinform": 3776,
      "åĲĪæ³ķ": 3777,
      "Ġcharacter": 3778,
      "Ġregion": 3779,
      "Âł": 3780,
      "çľŁå®ŀ": 3781,
      "å®ľ": 3782,
      "éĶĭ": 3783,
      "åİĤ": 3784,
      "è¿ĳæ±Ł": 3785,
      "Ġma": 3786,
      "å·¥ä½ľçļĦ": 3787,
      "æħ¢": 3788,
      "å±ħæ°ĳ": 3789,
      "åı¦å¤ĸ": 3790,
      "Ġdecre": 3791,
      "çĽĺ": 3792,
      "æľºåĻ¨": 3793,
      "ç®Ĺæ³ķ": 3794,
      "ç´łè´¨": 3795,
      "Ġstim": 3796,
      "åĩºçĶŁ": 3797,
      "è¯¢": 3798,
      "å²Ĳ": 3799,
      "ç¿»": 3800,
      "æ¯Ķä¾ĭ": 3801,
      "æĭĴ": 3802,
      "æµª": 3803,
      "æ¬²": 3804,
      "ÃĹ": 3805,
      "ä¸ĩçŁ³": 3806,
      "RI": 3807,
      "ĠCh": 3808,
      "Ġyears": 3809,
      "è¸": 3810,
      "ä¸ĢæıĨ": 3811,
      "è´¯å½»": 3812,
      "æŃ£å¸¸": 3813,
      "è¿ŀæİ¥": 3814,
      "æĬ½": 3815,
      "æł¼å±Ģ": 3816,
      "è¶£": 3817,
      "001": 3818,
      "æĢĿèĢĥ": 3819,
      "ä¸ĵåĪ©": 3820,
      "Ġresearch": 3821,
      "Ġwithin": 3822,
      "å°¾å¼ł": 3823,
      "lis": 3824,
      "Ġthree": 3825,
      "å®¡æŁ¥": 3826,
      "æľ¬æĸĩ": 3827,
      "æķĪåºĶ": 3828,
      "å°ıçĶ°": 3829,
      "å°½ç®¡": 3830,
      "è®¾ç«ĭ": 3831,
      "ç£ģ": 3832,
      "ST": 3833,
      "çĶ²æĸĲ": 3834,
      "åĽ¢éĺŁ": 3835,
      "Ġly": 3836,
      "åĪļ": 3837,
      "é¢Ħæµĭ": 3838,
      "æľĿé²ľ": 3839,
      "æŀª": 3840,
      "å¾Ĵ": 3841,
      "çĲĨæĥ³": 3842,
      "Ġnew": 3843,
      "ç¾½æŁ´": 3844,
      "ood": 3845,
      "å»·": 3846,
      "æĿ¥è¶Ĭ": 3847,
      "å®īæİĴ": 3848,
      "MP": 3849,
      "Ġsome": 3850,
      "ç¤¾åĮº": 3851,
      "å¸ĮæľĽ": 3852,
      "æĹ¨": 3853,
      "çļĦè§Ħå®ļ": 3854,
      "èŀįèµĦ": 3855,
      "åįģä¸ī": 3856,
      "å¤ļä¸ª": 3857,
      "è¶ĬæĿ¥è¶Ĭ": 3858,
      "atis": 3859,
      "rect": 3860,
      "åŃĺåĤ¨": 3861,
      "åĲĦä¸ª": 3862,
      "å®Įæķ´": 3863,
      "46": 3864,
      "çĽĳæµĭ": 3865,
      "çĻ»è®°": 3866,
      "Ġbec": 3867,
      "ption": 3868,
      "åıĺéĿ©": 3869,
      "urrent": 3870,
      "Ġwork": 3871,
      "åľ°çļĦ": 3872,
      "Ġinvestig": 3873,
      "ä¸Ĭæµ·": 3874,
      "ä¿¡æµĵ": 3875,
      "Ġpathw": 3876,
      "ai": 3877,
      "è´¹çĶ¨": 3878,
      "ç¡®ç«ĭ": 3879,
      "ä¼ĬåĬ¿": 3880,
      "åĨ·": 3881,
      "ses": 3882,
      "èį¯çī©": 3883,
      "å·¦åı³": 3884,
      "Ġcare": 3885,
      "åħįçĸ«": 3886,
      "Ġinj": 3887,
      "Ġdemonstr": 3888,
      "èĤ¡ä¸ľ": 3889,
      "çĪĨåıĳ": 3890,
      "èĥľåĪ©": 3891,
      "rug": 3892,
      "æ½®": 3893,
      "å¹³åĿĩ": 3894,
      "æ²Ł": 3895,
      "éĽª": 3896,
      "éĻ¶": 3897,
      "ï¼ģ": 3898,
      "Ġthose": 3899,
      "æĹłè®º": 3900,
      "åĩºåħµ": 3901,
      "rin": 3902,
      "èĤº": 3903,
      "æĽ´å¥½": 3904,
      "åıªèĥ½": 3905,
      "ĠAn": 3906,
      "åį¡": 3907,
      "é¾Ħ": 3908,
      "åħ¬æ°ĳ": 3909,
      "æ²ī": 3910,
      "Ġcorrel": 3911,
      "AR": 3912,
      "47": 3913,
      "ressed": 3914,
      "éĺĲ": 3915,
      "ç»ıæµİåŃ¦": 3916,
      "æļĹ": 3917,
      "çĽĲ": 3918,
      "è´¦": 3919,
      "ä¸Ģå®ļçļĦ": 3920,
      "IV": 3921,
      "ores": 3922,
      "çĻ¾å¹´": 3923,
      "Ġocc": 3924,
      "æĥħå½¢": 3925,
      "èµı": 3926,
      "è°Ĳ": 3927,
      "Ġç¬¬": 3928,
      "è¯ĨåĪ«": 3929,
      "åī²": 3930,
      "å®¹æĺĵ": 3931,
      "çļĦé«ĺ": 3932,
      "çī¢": 3933,
      "éĢĴ": 3934,
      "è®¤çŁ¥": 3935,
      "çĹħæ¯Ĵ": 3936,
      "å®īåľŁ": 3937,
      "æķĻæİĪ": 3938,
      "ä¸ĢåĪĩ": 3939,
      "å¹³çŃī": 3940,
      "Ġinhibit": 3941,
      "æµĭéĩı": 3942,
      "Ġmulti": 3943,
      "Ġfe": 3944,
      "Ġgroups": 3945,
      "ä¸Ģä½ĵ": 3946,
      "çĭŃ": 3947,
      "ç§ĺ": 3948,
      "ann": 3949,
      "ived": 3950,
      "æ³¨éĩį": 3951,
      "ç¤¾ä¼ļçļĦ": 3952,
      "Ġcal": 3953,
      "oph": 3954,
      "ä½ľæĪĺ": 3955,
      "æ²Ļ": 3956,
      "ç§©": 3957,
      "åŁºå±Ĥ": 3958,
      "çºµ": 3959,
      "åŁºéĩĳ": 3960,
      "åĽ°éļ¾": 3961,
      "åĽłèĢĮ": 3962,
      "åŃĶ": 3963,
      "table": 3964,
      "é¡µ": 3965,
      "éĥ¨éĺŁ": 3966,
      "Ġparticip": 3967,
      "Ġdisc": 3968,
      "Ġchanges": 3969,
      "requ": 3970,
      "AC": 3971,
      "çŁ¿": 3972,
      "çļĦä¸Ģä¸ª": 3973,
      "åĨ²çªģ": 3974,
      "è¡¨éĿ¢": 3975,
      "ensi": 3976,
      "çļĦä½ľçĶ¨": 3977,
      "åĬ¡éĻ¢": 3978,
      "éķľ": 3979,
      "è¿ĩåİ»": 3980,
      "æ³°": 3981,
      "å¼¥": 3982,
      "é½Ĳ": 3983,
      "åıįå¯¹": 3984,
      "the": 3985,
      "éĺ´": 3986,
      "æĪı": 3987,
      "Ġimpro": 3988,
      "åıĳåĬ¨": 3989,
      "å®ħ": 3990,
      "æııè¿°": 3991,
      "çº¦å®ļ": 3992,
      "ç»ŁçŃ¹": 3993,
      "ï½": 3994,
      "éĹŃ": 3995,
      "æ¯ķ": 3996,
      "è¿ħéĢŁ": 3997,
      "ha": 3998,
      "è¾ĸ": 3999,
      "çĳ": 4000,
      "95": 4001,
      "Ġinfection": 4002,
      "Ġlead": 4003,
      "åīįæıĲ": 4004,
      "upplement": 4005,
      "è´¢åĬ¡": 4006,
      "æłĩå¿Ĺ": 4007,
      "åĲĮå¿Ĺ": 4008,
      "ç»ĩçĶ°ä¿¡": 4009,
      "ä¼ĺç§Ģ": 4010,
      "æ¢°": 4011,
      "çĹĽ": 4012,
      "è°¢": 4013,
      "èĩªæ²»": 4014,
      "å¤§åĿĤ": 4015,
      "tivity": 4016,
      "Ġneed": 4017,
      "èĪŀ": 4018,
      "çļĦæķ°æį®": 4019,
      "åħīç§Ģ": 4020,
      "44": 4021,
      "æĹĭ": 4022,
      "çĩĥ": 4023,
      "çŁ¥éģĵ": 4024,
      "åĽ¢ç»ĵ": 4025,
      "Ġdescrib": 4026,
      "çİī": 4027,
      "åĲĦç±»": 4028,
      "ental": 4029,
      "å¸ĥå±Ģ": 4030,
      "Ġapp": 4031,
      "ä½įäºİ": 4032,
      "èĤ¿çĺ¤": 4033,
      "åħ¸åŀĭ": 4034,
      "åĪĺ": 4035,
      "æ·±åº¦": 4036,
      "æĥ¯": 4037,
      "å¤ĸéĥ¨": 4038,
      "æľºä¼ļ": 4039,
      "çĽ¸æ¯Ķ": 4040,
      "ä¹Ŀå·ŀ": 4041,
      "åĪĳäºĭ": 4042,
      "éĶĻè¯¯": 4043,
      "åħļä¸Ńå¤®": 4044,
      "Ġfinding": 4045,
      "æĸĩä¹¦": 4046,
      "åŁİä¹¡": 4047,
      "onal": 4048,
      "Ġrepres": 4049,
      "æĸ°åŀĭ": 4050,
      "åĬ¨æĢģ": 4051,
      "ice": 4052,
      "æµģç¨ĭ": 4053,
      "æ¡Ĩæŀ¶": 4054,
      "Ġconsid": 4055,
      "æµħäºķ": 4056,
      "å¯¹ç«ĭ": 4057,
      "Ġdel": 4058,
      "æ¡ĥ": 4059,
      "åħ¬å¼Ģ": 4060,
      "éļĶ": 4061,
      "æķ°åŃĹåĮĸ": 4062,
      "åİĭåĬĽ": 4063,
      "åħ»åŃĲ": 4064,
      "æĶ¶çĽĬ": 4065,
      "åħ³åİŁ": 4066,
      "ä¸Ńåħ±": 4067,
      "é¡¶": 4068,
      "ç»ıåİĨ": 4069,
      "çļĦä¸»": 4070,
      "ä¹ĭä¸Ń": 4071,
      "Ġpredic": 4072,
      "åĴĮå¹³": 4073,
      "è¯º": 4074,
      "tained": 4075,
      "å®ŀéĻħä¸Ĭ": 4076,
      "aining": 4077,
      "ytes": 4078,
      "ms": 4079,
      "Ġmain": 4080,
      "èĤĮ": 4081,
      "Ġprom": 4082,
      "æķ´åĲĪ": 4083,
      "42": 4084,
      "sible": 4085,
      "CI": 4086,
      "éĥ¨ç½²": 4087,
      "Ġcases": 4088,
      "æĳ©": 4089,
      "åŁºç¡Ģè®¾æĸ½": 4090,
      "å®¶æĹı": 4091,
      "Ġset": 4092,
      "ness": 4093,
      "Ġincrease": 4094,
      "Cs": 4095,
      "ĠĠĠĠĠĠĠĠĠĠĠĠĠĠĠĠĠĠĠĠĠĠĠĠ": 4096,
      "åįģå¹´": 4097,
      "ĠFor": 4098,
      "èĥģ": 4099,
      "éĢĶå¾Ħ": 4100,
      "Ġ200": 4101,
      "èĴĻ": 4102,
      "å®ĹæķĻ": 4103,
      "éķ¿å°¾": 4104,
      "åįģåħŃ": 4105,
      "ä»İäºĭ": 4106,
      "Ġbas": 4107,
      "è¿Ļæł·çļĦ": 4108,
      "çłĶåıĳ": 4109,
      "Sec": 4110,
      "åĽ½åĬ¡éĻ¢": 4111,
      "æ¹¾": 4112,
      "Ġmolec": 4113,
      "åħ¬ä¼Ĺ": 4114,
      "Ġsequ": 4115,
      "çī¹å®ļ": 4116,
      "ĠAs": 4117,
      "å¤ı": 4118,
      "åľĨ": 4119,
      "zed": 4120,
      "ç§©åºı": 4121,
      "eration": 4122,
      "æ¯Ľæ³½": 4123,
      "çļĦåŁºç¡Ģä¸Ĭ": 4124,
      "åŁİéķĩ": 4125,
      "åĩĢ": 4126,
      "æĬĢæľ¯çļĦ": 4127,
      "æīĢåľ¨": 4128,
      "æ¯Ľæ³½ä¸ľ": 4129,
      "è¿½æ±Ĥ": 4130,
      "çŀ": 4131,
      "è¡ĮçļĦ": 4132,
      "å½¢åĬ¿": 4133,
      "çĦ¦": 4134,
      "Ġsubj": 4135,
      "æĻ®éĢļ": 4136,
      "å¹¶éĿŀ": 4137,
      "æĸĭèĹ¤": 4138,
      "æķĻæĿĲ": 4139,
      "èħ¹": 4140,
      "ç¡®è®¤": 4141,
      "Ġtri": 4142,
      "æŃ£æĺ¯": 4143,
      "åĽ´ç»ķ": 4144,
      "75": 4145,
      "æ±½è½¦": 4146,
      "åĲĦåĽ½": 4147,
      "Ġpost": 4148,
      "ä¸ĵå®¶": 4149,
      "æ°§åĮĸ": 4150,
      "Ġfactor": 4151,
      "èİ·åıĸ": 4152,
      "Î±": 4153,
      "osph": 4154,
      "åħµåį«": 4155,
      "Ġinflamm": 4156,
      "éĽĨåĽ¢": 4157,
      "IP": 4158,
      "Ġlim": 4159,
      "è®ºæĸĩ": 4160,
      "å®¢æĪ·": 4161,
      "Ġrequi": 4162,
      "ER": 4163,
      "Ġtype": 4164,
      "Ġactivation": 4165,
      "Ġprot": 4166,
      "å°º": 4167,
      "ä¾Ŀèµĸ": 4168,
      "å¥ĸ": 4169,
      "ypes": 4170,
      "las": 4171,
      "ä¸ŃåĽ½äººæ°ĳ": 4172,
      "ving": 4173,
      "ilar": 4174,
      "AS": 4175,
      "éĶĢåĶ®": 4176,
      "Ġpotential": 4177,
      "ä¸Ńå°ı": 4178,
      "åĲĦçº§": 4179,
      "äº§çĶŁçļĦ": 4180,
      "åıĳè¡¨": 4181,
      "æĪĲå°±": 4182,
      "ek": 4183,
      "åľ°çĲĨ": 4184,
      "Ġmark": 4185,
      "è¿ĻéĩĮ": 4186,
      "æĦıåĳ³": 4187,
      "ä¸Ģå¸¦": 4188,
      "Ġj": 4189,
      "cin": 4190,
      "aterial": 4191,
      "2020": 4192,
      "åĦĴ": 4193,
      "Ġmean": 4194,
      "å¡ĳ": 4195,
      "eg": 4196,
      "å®ŀä½ĵ": 4197,
      "äºĮå¹´": 4198,
      "èµŀ": 4199,
      "åı¯æĮģç»Ń": 4200,
      "é¸Ł": 4201,
      "43": 4202,
      "ä¼ĺåħĪ": 4203,
      "æĺ¯å¯¹": 4204,
      "è·¯å¾Ħ": 4205,
      "çº³åħ¥": 4206,
      "198": 4207,
      "ĠçĶŁ": 4208,
      "é£Łåĵģ": 4209,
      "éľĩ": 4210,
      "å¼ķé¢Ĩ": 4211,
      "Ġdifferenti": 4212,
      "åĨħæ¶µ": 4213,
      "æ®ĸ": 4214,
      "ãĥ»": 4215,
      "åĦ¿åŃĲ": 4216,
      "ically": 4217,
      "æİĴæĶ¾": 4218,
      "ateg": 4219,
      "41": 4220,
      "Ġ12": 4221,
      "å½ĵçĦ¶": 4222,
      "æŃ¦çĶ°ä¿¡çİĦ": 4223,
      "Ġsamples": 4224,
      "æĪĺæĸĹ": 4225,
      "æī°": 4226,
      "åĳ¨æľŁ": 4227,
      "Ġfib": 4228,
      "èĤĿ": 4229,
      "çļĦè¡Įä¸º": 4230,
      "ascular": 4231,
      "upplementary": 4232,
      "Ġmor": 4233,
      "è¿Ĳè¾ĵ": 4234,
      "Ġresult": 4235,
      "å®ŀè´¨": 4236,
      "åĪĽä¸ļ": 4237,
      "æļĤ": 4238,
      "å®£ä¼ł": 4239,
      "æľīæīĢ": 4240,
      "eng": 4241,
      "65": 4242,
      "æĮĩæĮ¥": 4243,
      "Ġcult": 4244,
      "Ġsuggest": 4245,
      "åĹ": 4246,
      "åĲĮä¸Ģ": 4247,
      "åı«": 4248,
      "èģĮè´£": 4249,
      "Ġlong": 4250,
      "åĬłå·¥": 4251,
      "èħĲ": 4252,
      "çī§": 4253,
      "ç«ĭèĬ±": 4254,
      "éĤ¦": 4255,
      "ptom": 4256,
      "è½¨": 4257,
      "Ġevid": 4258,
      "PS": 4259,
      "ograph": 4260,
      "çīĮ": 4261,
      "Ġåľ¨": 4262,
      "tis": 4263,
      "Ġsever": 4264,
      "ç»ĻäºĪ": 4265,
      "è¯ĬæĸŃ": 4266,
      "ĠDNA": 4267,
      "åªĴä½ĵ": 4268,
      "ross": 4269,
      "ake": 4270,
      "ä¹Łä¸į": 4271,
      "Ġcontrib": 4272,
      "çľŁçĶ°": 4273,
      "Ġgrowth": 4274,
      "Ġev": 4275,
      "æº¶": 4276,
      "å½©": 4277,
      "è¶ĬåĲİ": 4278,
      "è§£æĶ¾": 4279,
      "æĹ¥çĽĬ": 4280,
      "åĮħåĽ´": 4281,
      "Ġav": 4282,
      "Ġneuro": 4283,
      "å¤§æķ°æį®": 4284,
      "åº¦çļĦ": 4285,
      "Ġdrug": 4286,
      "ä¸Ģæĸ¹": 4287,
      "åĬŀæ³ķ": 4288,
      "Ġ15": 4289,
      "ä½Ĩåľ¨": 4290,
      "ves": 4291,
      "Ġbased": 4292,
      "ä¸ªä½ĵ": 4293,
      "æĭħä¿Ŀ": 4294,
      "åĲĦåľ°": 4295,
      "çĶ¨çļĦ": 4296,
      "å®ŀè·µä¸Ń": 4297,
      "cle": 4298,
      "å·¦åį«éĹ¨": 4299,
      "ä¾µæĿĥ": 4300,
      "ä¹Łå°±æĺ¯": 4301,
      "æķĻèĤ²çļĦ": 4302,
      "Ġidentified": 4303,
      "åıĳè¾¾": 4304,
      "æ¬§æ´²": 4305,
      "èĶ": 4306,
      "æĽ´ä¸º": 4307,
      "è¯±": 4308,
      "çľĭåĪ°": 4309,
      "AD": 4310,
      "å®¡è®¡": 4311,
      "è¿Ŀæ³ķ": 4312,
      "çĽ¸åħ³çļĦ": 4313,
      "åĩłä¹İ": 4314,
      "xim": 4315,
      "éĢĨ": 4316,
      "éļľç¢į": 4317,
      "çºłçº·": 4318,
      "ĊĠĠĠĠĠĠĠĠĠĠĠĠĠĠĠĠ": 4319,
      "ä»²è£ģ": 4320,
      "ditional": 4321,
      "Ġfurther": 4322,
      "æģĴ": 4323,
      "çİĩé¢Ĩ": 4324,
      "åħģè®¸": 4325,
      "ural": 4326,
      "çĪ¶åŃĲ": 4327,
      "æ¯ģ": 4328,
      "ç»ĵæĿŁ": 4329,
      "å¤ļåħĥ": 4330,
      "èĭ±åĽ½": 4331,
      "æ¶¯": 4332,
      "çĽ¸ç»ĵåĲĪ": 4333,
      "å½¢æĪĲäºĨ": 4334,
      "å¤ĸäº¤": 4335,
      "çķłå±±": 4336,
      "åĳĪçİ°": 4337,
      "ç±»ä¼¼": 4338,
      "Ġconcent": 4339,
      "aging": 4340,
      "çĤ®": 4341,
      "ES": 4342,
      "ä¸ªäººä¿¡æģ¯": 4343,
      "iter": 4344,
      "è¿ĶåĽŀ": 4345,
      "å¹¶åľ¨": 4346,
      "ie": 4347,
      "çĥ§": 4348,
      "ont": 4349,
      "åįģäºĶ": 4350,
      "äº¤æį¢": 4351,
      "sis": 4352,
      "åħ³ç³»çļĦ": 4353,
      "è¦ĨçĽĸ": 4354,
      "äººæ°ĳåħ±": 4355,
      "å¾Ĺä»¥": 4356,
      "èģĮèĥ½": 4357,
      "Ġrat": 4358,
      "åŃ¦çļĦ": 4359,
      "Ġfrequ": 4360,
      "53": 4361,
      "åĪĽå»º": 4362,
      "ĠIt": 4363,
      "åĽĽä¸ª": 4364,
      "eth": 4365,
      "Ġcardi": 4366,
      "Ġrate": 4367,
      "çŃīæĸ¹éĿ¢": 4368,
      "ä»¿": 4369,
      "æĦŁæŁĵ": 4370,
      "æĮ¯åħ´": 4371,
      "åįĩçº§": 4372,
      "æ´ŀ": 4373,
      "è¿ŀç»Ń": 4374,
      "ä¿Ĭ": 4375,
      "çł´åĿı": 4376,
      "å¦Ĥä¸ĭ": 4377,
      "åĪ¶åº¦çļĦ": 4378,
      "ãĢĲ": 4379,
      "uce": 4380,
      "å£¤": 4381,
      "åĬ³åĬ¨èĢħ": 4382,
      "ç¾¤ä½ĵ": 4383,
      "ãĢĳ": 4384,
      "åıĤæķ°": 4385,
      "åĿļå®ļ": 4386,
      "erest": 4387,
      "åĴĮè°Ĳ": 4388,
      "78": 4389,
      "çī©æµģ": 4390,
      "åĬłå¤§": 4391,
      "å¥īè¡Į": 4392,
      "å·¥èīº": 4393,
      "ĠPro": 4394,
      "ording": 4395,
      "ä¿Ħ": 4396,
      "ĠRes": 4397,
      "é©±åĬ¨": 4398,
      "ç¿Į": 4399,
      "ulin": 4400,
      "ication": 4401,
      "Ġaddition": 4402,
      "å®ļä½į": 4403,
      "vir": 4404,
      "ç±į": 4405,
      "æĹ¥è¯Ń": 4406,
      "ä¹Łåı¯ä»¥": 4407,
      "though": 4408,
      "łéģĵ": 4409,
      "Ġtr": 4410,
      "Ġcaus": 4411,
      "ç£¨": 4412,
      "abol": 4413,
      "è¯´æ³ķ": 4414,
      "Ġrespec": 4415,
      "æī©å¼ł": 4416,
      "ä¸īæĪĲ": 4417,
      "æĬĳåĪ¶": 4418,
      "æıŃ": 4419,
      "è¶Ĭåīį": 4420,
      "æŃ»äº¡": 4421,
      "å¯¹æĬĹ": 4422,
      "å½ĵåľ°": 4423,
      "Ġinformation": 4424,
      "gan": 4425,
      "ä¿®æĶ¹": 4426,
      "ink": 4427,
      "Ġcent": 4428,
      "çļĦå·¥ä½ľ": 4429,
      "æ¡£": 4430,
      "äººå·¥æĻºèĥ½": 4431,
      "è´«åĽ°": 4432,
      "æĢģåº¦": 4433,
      "éħ¶": 4434,
      "ä¸Ńåįİäººæ°ĳåħ±": 4435,
      "Ġso": 4436,
      "æ³ķå®ļ": 4437,
      "çŁ¥è¯Ĩäº§æĿĥ": 4438,
      "Ġclass": 4439,
      "æĦıåĳ³çĿĢ": 4440,
      "éŁ³ä¹Ĳ": 4441,
      "è´·æ¬¾": 4442,
      "åħļåĴĮ": 4443,
      "æ¢ģ": 4444,
      "åĮºåĪ«": 4445,
      "çī¹æĢ§": 4446,
      "åķĨæłĩ": 4447,
      "éĥ½æľī": 4448,
      "åľ£": 4449,
      "Ġproteins": 4450,
      "å®¿": 4451,
      "Ġsym": 4452,
      "Ġrele": 4453,
      "ä¹ĭå¤ĸ": 4454,
      "OS": 4455,
      "ç¾İåħĥ": 4456,
      "æŁĲäºĽ": 4457,
      "èĲ¨": 4458,
      "oh": 4459,
      "åĨł": 4460,
      "æ¥ļ": 4461,
      "air": 4462,
      "Ġbre": 4463,
      "åĳ¢": 4464,
      "å°±ä¼ļ": 4465,
      "å®ıè§Ĥ": 4466,
      "æµ·æ´ĭ": 4467,
      "æĸĩç«ł": 4468,
      "åĿĲ": 4469,
      "çļĦèĥ½åĬĽ": 4470,
      "åĢ¡": 4471,
      "èľ": 4472,
      "æĺİæĻº": 4473,
      "Ġtherapy": 4474,
      "å»ºæĪĲ": 4475,
      "ä¼į": 4476,
      "æ¤įçī©": 4477,
      "è°ĥèĬĤ": 4478,
      "éĺ²æŃ¢": 4479,
      "Ġanaly": 4480,
      "é«ĺæķĪ": 4481,
      "åĪ¶éĢłä¸ļ": 4482,
      "äºīè®®": 4483,
      "çĶŁæĢģçİ¯å¢ĥ": 4484,
      "ä¸ĢæĹı": 4485,
      "âĢĻ": 4486,
      "åı¤ä»£": 4487,
      "æ¢¦": 4488,
      "å¡ŀ": 4489,
      "ç»´æĮģ": 4490,
      "Ġsurvi": 4491,
      "äºĪä»¥": 4492,
      "æĹ©æľŁ": 4493,
      "å½ĵä»£": 4494,
      "åĩºåı£": 4495,
      "æĶ¹éĢł": 4496,
      "å¼ºåĪ¶": 4497,
      "å¦ĩ": 4498,
      "ä¸ĵéĹ¨": 4499,
      "éĺħè¯»": 4500,
      "CP": 4501,
      "ç¬¬äºĶ": 4502,
      "æ±ŁæĪ·æĹ¶ä»£": 4503,
      "çļĦä¸į": 4504,
      "Ġpopulation": 4505,
      "çļĦè¿ĩç¨ĭ": 4506,
      "ins": 4507,
      "æ£Ģå¯Ł": 4508,
      "æ¿ĢåĬ±": 4509,
      "åħļåĳĺ": 4510,
      "æĶ¶éĽĨ": 4511,
      "æĺ¯ä»¥": 4512,
      "anti": 4513,
      "ĠÎ¼": 4514,
      "Ġstruct": 4515,
      "tex": 4516,
      "å·©": 4517,
      "ç¨»": 4518,
      "67": 4519,
      "æľºæ¢°": 4520,
      "è¢«ç§°ä¸º": 4521,
      "Ġthen": 4522,
      "Ġpub": 4523,
      "åįģä¸ĥ": 4524,
      "æĹ¶çļĦ": 4525,
      "åĬ©äºİ": 4526,
      "è¡Įä½¿": 4527,
      "havi": 4528,
      "çļĦåĨħå®¹": 4529,
      "ä¸Ĭåįĩ": 4530,
      "æŃ»åĲİ": 4531,
      "Ġtotal": 4532,
      "åį±éĻ©": 4533,
      "ified": 4534,
      "Ġtech": 4535,
      "åŁ¹èĤ²": 4536,
      "Ġmy": 4537,
      "ouse": 4538,
      "çĶŁæĪĲ": 4539,
      "Ġcommon": 4540,
      "èįĴ": 4541,
      "æ¾Ħ": 4542,
      "çļĦçĲĨè®º": 4543,
      "è·¯çº¿": 4544,
      "æ°ĶåĢĻ": 4545,
      "SD": 4546,
      "spec": 4547,
      "å²Ĺ": 4548,
      "ä»ĸäºº": 4549,
      "vere": 4550,
      "yn": 4551,
      "å¼ķåıĳ": 4552,
      "åĩłä¸ª": 4553,
      "Ġhist": 4554,
      "éĿĴå¹´": 4555,
      "éķ¿æĶ¿": 4556,
      "åįıåķĨ": 4557,
      "åı²æĸĻ": 4558,
      "éĽ¨": 4559,
      "Ġcomb": 4560,
      "Ġmi": 4561,
      "åħ¬æĸ¹": 4562,
      "è£ķ": 4563,
      "Ġpers": 4564,
      "åĽ¾åĥı": 4565,
      "èĬĤçĤ¹": 4566,
      "ĠY": 4567,
      "çļĦæ³ķå¾ĭ": 4568,
      "ator": 4569,
      "ackage": 4570,
      "èµĦæľ¬ä¸»ä¹ī": 4571,
      "hip": 4572,
      "æĩ": 4573,
      "ospit": 4574,
      "åĬ¨çī©": 4575,
      "èĻļæĭŁ": 4576,
      "Ġacid": 4577,
      "åħµåĬĽ": 4578,
      "çļĦåħ³éĶ®": 4579,
      "Ġshould": 4580,
      "Ġmemb": 4581,
      "ĠHe": 4582,
      "åģļå¥½": 4583,
      "55": 4584,
      "æĺ¯çĶ±": 4585,
      "Ġsimilar": 4586,
      "ï¼į": 4587,
      "çĶ°åŁİ": 4588,
      "åłĢ": 4589,
      "Ġcap": 4590,
      "çĸ«æĥħ": 4591,
      "å¹´éĹ´": 4592,
      "å§»": 4593,
      "mph": 4594,
      "lial": 4595,
      "å·©åĽº": 4596,
      "jor": 4597,
      "åħĦå¼Ł": 4598,
      "Ġamong": 4599,
      "å«¡åŃĲ": 4600,
      "ç¨İæĶ¶": 4601,
      "æ¯ĽåĪ©æ°ı": 4602,
      "åĪĬ": 4603,
      "vention": 4604,
      "å¹¡": 4605,
      "ences": 4606,
      "åĲįä¸º": 4607,
      "çļĦè¦ģæ±Ĥ": 4608,
      "å¤§å°Ĩ": 4609,
      "è¿ĽèĢĮ": 4610,
      "è¾ŀ": 4611,
      "to": 4612,
      "è¾¨": 4613,
      "ronic": 4614,
      "é¢Ħéĺ²": 4615,
      "Ġep": 4616,
      "Ġdid": 4617,
      "ested": 4618,
      "Ġabout": 4619,
      "ä¸ºæł¸å¿ĥ": 4620,
      "ä¸Ĭæ´Ľ": 4621,
      "å¤Ħç½ļ": 4622,
      "ãģ®": 4623,
      "è¢«åĳĬ": 4624,
      "å°¿": 4625,
      "refore": 4626,
      "åĺī": 4627,
      "æķĪçĽĬ": 4628,
      "æĸĩåĮĸçļĦ": 4629,
      "ç»ıæµİç¤¾ä¼ļ": 4630,
      "æ¸©åº¦": 4631,
      "NF": 4632,
      "çº¦æĿŁ": 4633,
      "Ġchildren": 4634,
      "èĥľèµĸ": 4635,
      "è´´": 4636,
      "ä¹ĭæĪĺä¸Ń": 4637,
      "PP": 4638,
      "éĤ»": 4639,
      "åħ¶å®ŀ": 4640,
      "ä¸ºä¸Ńå¿ĥ": 4641,
      "è½¬è®©": 4642,
      "è¾¾æĪĲ": 4643,
      "æľ±": 4644,
      "è®¯": 4645,
      "Ġprimary": 4646,
      "ä¸Ĭéĩİ": 4647,
      "ately": 4648,
      "69": 4649,
      "ä»»åĳ½": 4650,
      "Ġsmall": 4651,
      "ç§¦": 4652,
      "åĽºå®ļ": 4653,
      "ID": 4654,
      "cop": 4655,
      "çļĦæľĢ": 4656,
      "åĩŃ": 4657,
      "æĻ¶": 4658,
      "éªıæ²³": 4659,
      "Ġlower": 4660,
      "è®¸åı¯": 4661,
      "å°ĳæķ°": 4662,
      "è¿Ŀåıį": 4663,
      "æĶ¯éħį": 4664,
      "Ġreview": 4665,
      "è½¬æį¢": 4666,
      "å¯Ħ": 4667,
      "å°ıçĶ°åİŁ": 4668,
      "å£ģ": 4669,
      "åĮ»åŃ¦": 4670,
      "å®ĥçļĦ": 4671,
      "Ġprol": 4672,
      "å¯¿": 4673,
      "Ġdue": 4674,
      "Ġwhile": 4675,
      "amet": 4676,
      "uff": 4677,
      "EM": 4678,
      "éĽ·": 4679,
      "æĶ¿å®Ĺ": 4680,
      "ç»ĦåĲĪ": 4681,
      "åĲ¸æĶ¶": 4682,
      "ics": 4683,
      "å¿½": 4684,
      "Ġpat": 4685,
      "æĹ¦": 4686,
      "è¿ĲèĲ¥": 4687,
      "æľĿå»·": 4688,
      "ä¸ĬæĿīè°¦ä¿¡": 4689,
      "ision": 4690,
      "èªī": 4691,
      "æ´ģ": 4692,
      "éĿ¢åĲĳ": 4693,
      "Ġfollowing": 4694,
      "åıĻ": 4695,
      "Ġfindings": 4696,
      "æķ°æį®åºĵ": 4697,
      "æİĺ": 4698,
      "åį³ä½¿": 4699,
      "éĿ¢ç§¯": 4700,
      "Ġreceptor": 4701,
      "Ġimmune": 4702,
      "çļĦåĲĮæĹ¶": 4703,
      "çĶ¨äºº": 4704,
      "é¢Ĩä¸»": 4705,
      "çĽ¸åºĶçļĦ": 4706,
      "68": 4707,
      "åĩºæĿ¥": 4708,
      "ç«Ł": 4709,
      "å¯¼åĲĳ": 4710,
      "Ġevidence": 4711,
      "è®¨ä¼Ĳ": 4712,
      "omen": 4713,
      "åı³åį«éĹ¨": 4714,
      "Ġret": 4715,
      "cell": 4716,
      "æľīåĬĽ": 4717,
      "versity": 4718,
      "çļĦæĥħåĨµä¸ĭ": 4719,
      "Ġmat": 4720,
      "esis": 4721,
      "æ´¾éģ£": 4722,
      "å¾ģä¼Ĳ": 4723,
      "æĬķéĻį": 4724,
      "arge": 4725,
      "Ġrepresent": 4726,
      "Ġsame": 4727,
      "åĥ§": 4728,
      "ange": 4729,
      "å°¤åħ¶æĺ¯": 4730,
      "çħ¤": 4731,
      "æĶ¹è¿Ľ": 4732,
      "å»ºè®¾çļĦ": 4733,
      "å¹¿å¤§": 4734,
      "åĳ½è¿Ĳ": 4735,
      "ç»ıæµİçļĦ": 4736,
      "ä¸Ŀ": 4737,
      "Ġexpl": 4738,
      "ä¸ĢæĿ¡": 4739,
      "Ġâ": 4740,
      "äº®": 4741,
      "å£®": 4742,
      "DP": 4743,
      "Ġwould": 4744,
      "Ġvirus": 4745,
      "ä¼łç»ŁçļĦ": 4746,
      "åŁºåľ°": 4747,
      "åħ¶æ¬¡": 4748,
      "ä»£çĲĨ": 4749,
      "èĢķ": 4750,
      "æ£ĢéªĮ": 4751,
      "åŃĲçļĦ": 4752,
      "æĸĩåŃĹ": 4753,
      "è¾īåħĥ": 4754,
      "ä¸»è¦ģæĺ¯": 4755,
      "æĭĴç»Ŀ": 4756,
      "åĨ¬": 4757,
      "å¥ĳ": 4758,
      "Ġany": 4759,
      "é¢ĨåŁŁçļĦ": 4760,
      "é¢ģ": 4761,
      "Ġrespectively": 4762,
      "çº¸": 4763,
      "of": 4764,
      "Ġearly": 4765,
      "oint": 4766,
      "iod": 4767,
      "å¤§åĬĽ": 4768,
      "æķ¢": 4769,
      "ĠTo": 4770,
      "èĭĹ": 4771,
      "ĠĠĠĠĠĠĠĠĠĠĠĠĠ": 4772,
      "Ġexpos": 4773,
      "Ġline": 4774,
      "Ġlung": 4775,
      "Ġinflu": 4776,
      "Ġox": 4777,
      "çīĽ": 4778,
      "Ġinterac": 4779,
      "æľīçĿĢ": 4780,
      "Ġnucle": 4781,
      "Ġsecond": 4782,
      "Ġplas": 4783,
      "åĪ©çİĩ": 4784,
      "æ°ĳæ³ķ": 4785,
      "Ġtranscri": 4786,
      "æ¡ĥå±±": 4787,
      "DNA": 4788,
      "ç®¡é¢Ĩ": 4789,
      "åľ°åĮºçļĦ": 4790,
      "æ¿Ģåıĳ": 4791,
      "Ġmajor": 4792,
      "ĠMed": 4793,
      "âĢĺ": 4794,
      "åģļåĪ°": 4795,
      "çķª": 4796,
      "eu": 4797,
      "Ġcompar": 4798,
      "éĽĨæĪĲ": 4799,
      "Ġpositive": 4800,
      "medi": 4801,
      "Ġwithout": 4802,
      "èį·": 4803,
      "æģĲ": 4804,
      "çŃīçŃī": 4805,
      "inf": 4806,
      "Ġif": 4807,
      "æĭľ": 4808,
      "å·¨å¤§": 4809,
      "Ġpe": 4810,
      "Ġdescribed": 4811,
      "ä¸Ģç³»åĪĹ": 4812,
      "57": 4813,
      "ĠFig": 4814,
      "æľīæķĪçļĦ": 4815,
      "Ġiniti": 4816,
      "éķ¿çļĦ": 4817,
      "ç²®é£Ł": 4818,
      "ä½ĵèĤ²": 4819,
      "Ġregul": 4820,
      "Ġcurrent": 4821,
      "å¸¸è§ģ": 4822,
      "99": 4823,
      "çĶµæ±ł": 4824,
      "Ġ30": 4825,
      "æĪĲçĨŁ": 4826,
      "ä»°": 4827,
      "æİ¨å¹¿": 4828,
      "èµ°åĲĳ": 4829,
      "ocytes": 4830,
      "æī§æ³ķ": 4831,
      "æįķ": 4832,
      "å¯¹æŃ¤": 4833,
      "åī©": 4834,
      "usep": 4835,
      "å¤±åİ»": 4836,
      "Ġstand": 4837,
      "ç§»åĬ¨": 4838,
      "äººåľ¨": 4839,
      "sequ": 4840,
      "usepackage": 4841,
      "åħŃè§Ĵ": 4842,
      "ä¼Łå¤§å¤įåħ´": 4843,
      "å¯ĨåĪĩ": 4844,
      "ä»·åĢ¼è§Ĥ": 4845,
      "å®¡åĪ¤": 4846,
      "Ġauth": 4847,
      "Ġlymph": 4848,
      "é¦ĸæ¬¡": 4849,
      "ä¸įåĨį": 4850,
      "æĹ©å·Ŀ": 4851,
      "åĽĽå¹´": 4852,
      "Ġcomplex": 4853,
      "åħ³èģĶ": 4854,
      "äººä¸İ": 4855,
      "ET": 4856,
      "çļĦæĶ¿æ²»": 4857,
      "çĮĽ": 4858,
      "ests": 4859,
      "éĢļçŁ¥": 4860,
      "æī§æĶ¿": 4861,
      "induced": 4862,
      "æ¶Īè´¹èĢħ": 4863,
      "Ġbehavi": 4864,
      "è´Ńä¹°": 4865,
      "omp": 4866,
      "åŃ©": 4867,
      "æĪĺåĲİ": 4868,
      "çĶŁåŃĺ": 4869,
      "ä¹ĭä¸ĭ": 4870,
      "ä¿¡æģ¯åĮĸ": 4871,
      "æĪª": 4872,
      "ä¾ĿéĿł": 4873,
      "ä¼łè¾ĵ": 4874,
      "åĪĨç¦»": 4875,
      "åĬĿ": 4876,
      "è·Ŀç¦»": 4877,
      "èĸĦ": 4878,
      "é¥°": 4879,
      "åľŁå£¤": 4880,
      "dom": 4881,
      "äººæ°ĳç¾¤ä¼Ĺ": 4882,
      "è§Ĵèī²": 4883,
      "ä¸īæĺ¯": 4884,
      "æĿĥå¨ģ": 4885,
      "fer": 4886,
      "çļĦå°ı": 4887,
      "ety": 4888,
      "Ġmetabol": 4889,
      "éĴŁ": 4890,
      "çº¤": 4891,
      "å®ŀçİ°äºĨ": 4892,
      "erv": 4893,
      "Ġvit": 4894,
      "æľĪäºĮåįģ": 4895,
      "sych": 4896,
      "æĹħæ¸¸": 4897,
      "ane": 4898,
      "åįĴ": 4899,
      "åħĥç´ł": 4900,
      "Ġdifferences": 4901,
      "58": 4902,
      "äºĭé¡¹": 4903,
      "å¯¹åħ¶": 4904,
      "Ġwhether": 4905,
      "èĥ¤": 4906,
      "æ¯«": 4907,
      "èķ": 4908,
      "iel": 4909,
      "Ġflu": 4910,
      "ingle": 4911,
      "æľŁéĻĲ": 4912,
      "Ġoccur": 4913,
      "è¯ģåĪ¸": 4914,
      "ä¸»å¯¼": 4915,
      "åĨħåľ¨": 4916,
      "æ°¢": 4917,
      "å¯¹åºĶ": 4918,
      "ç´łåħ»": 4919,
      "éĺŁä¼į": 4920,
      "Ġelect": 4921,
      "ä¹Ļ": 4922,
      "å¤§å¤ļæķ°": 4923,
      "å¢ĵ": 4924,
      "Table": 4925,
      "å¤ļçļĦ": 4926,
      "ä¸Ńåįİäººæ°ĳåħ±åĴĮåĽ½": 4927,
      "Ġvol": 4928,
      "å®īåľŁæ¡ĥå±±": 4929,
      "åĬĽåº¦": 4930,
      "çłĶç©¶çļĦ": 4931,
      "å½¢è±¡": 4932,
      "mit": 4933,
      "é¡¿": 4934,
      "GA": 4935,
      "åĪĽä½ľ": 4936,
      "åĪĻæĺ¯": 4937,
      "åĬłä»¥": 4938,
      "æ»¨": 4939,
      "ä¸½": 4940,
      "åĳĺå·¥": 4941,
      "ains": 4942,
      "èĤī": 4943,
      "éĩĳå±ŀ": 4944,
      "é¥Ń": 4945,
      "çļĦä¸Ģç§į": 4946,
      "56": 4947,
      "ĠĠĠĠĠĠĠĠĠ": 4948,
      "ove": 4949,
      "èģĮä¸ļæķĻèĤ²": 4950,
      "ç»ĵè®º": 4951,
      "éģµå¾ª": 4952,
      "è¿Ľå±ķ": 4953,
      "æīĢå¾Ĺ": 4954,
      "å²³": 4955,
      "çģŃäº¡": 4956,
      "æĪĳä»¬åħļ": 4957,
      "å¤±è´¥": 4958,
      "Ġcy": 4959,
      "åīįçĶ°": 4960,
      "ä½³": 4961,
      "æĦ¿å¯º": 4962,
      "Ġdesign": 4963,
      "ardi": 4964,
      "çļĦæł¸å¿ĥ": 4965,
      "SP": 4966,
      "2021": 4967,
      "ä¸įä¹ħ": 4968,
      "reen": 4969,
      "Ġpromot": 4970,
      "çļĦæĹ¶åĢĻ": 4971,
      "ä»ĸä»¬çļĦ": 4972,
      "æĪĲå¹´": 4973,
      "Ġvis": 4974,
      "ä¸ľè¥¿": 4975,
      "è¿ĳå¹´æĿ¥": 4976,
      "æ°¸æŃ£": 4977,
      "èĢĮä¸į": 4978,
      "èĩªè§ī": 4979,
      "æ²¼": 4980,
      "äº¿åħĥ": 4981,
      "åįķåħĥ": 4982,
      "ditions": 4983,
      "éĢĿ": 4984,
      "gative": 4985,
      "å±ŀæĢ§": 4986,
      "ĠçļĦ": 4987,
      "ior": 4988,
      "LA": 4989,
      "åĤ¬": 4990,
      "åı¬å¼Ģ": 4991,
      "Ġsymptom": 4992,
      "å´ĩ": 4993,
      "æĥħæĦŁ": 4994,
      "Ġcir": 4995,
      "åı¯éĿł": 4996,
      "åĪ©æ¶¦": 4997,
      "Ġprof": 4998,
      "æĭĵå±ķ": 4999,
      "ax": 5000,
      "æ³¨åĨĮ": 5001,
      "CO": 5002,
      "Ġvalues": 5003,
      "è¡Ģç®¡": 5004,
      "Ġanim": 5005,
      "çīĻ": 5006,
      "è¡¥åģ¿": 5007,
      "æĸ¹éĴĪ": 5008,
      "ä½¿åĳ½": 5009,
      "æŃ¦çĶ°æ°ı": 5010,
      "å°Ĭéĩį": 5011,
      "éª¤": 5012,
      "å¨ģèĥģ": 5013,
      "Ġreduced": 5014,
      "02": 5015,
      "åĲĮæĦı": 5016,
      "è¯¾é¢ĺ": 5017,
      "inc": 5018,
      "åħĪåĲİ": 5019,
      "åıªè¦ģ": 5020,
      "åĮ¹": 5021,
      "çĶŁçļĦ": 5022,
      "æĿ¡æ¬¾": 5023,
      "ĠAd": 5024,
      "æ´»è·ĥ": 5025,
      "åħĥé¾Ł": 5026,
      "2018": 5027,
      "æĸ©": 5028,
      "æĻĭ": 5029,
      "Ġhyper": 5030,
      "èĭ¥å¹²": 5031,
      "Ġincluded": 5032,
      "æĪĲäºĨ": 5033,
      "ä½Ĳç«¹": 5034,
      "å¾·åĽ½": 5035,
      "io": 5036,
      "æĭĶ": 5037,
      "çļĦç»ıæµİ": 5038,
      "other": 5039,
      "äºĭæķħ": 5040,
      "set": 5041,
      "ĠĠĠĠĠĠĠĠĠĠĠĠĠĠ": 5042,
      "æ¨¡æĭŁ": 5043,
      "äºĴåĬ¨": 5044,
      "èī°": 5045,
      "å¹¼åĦ¿": 5046,
      "Ġcr": 5047,
      "MS": 5048,
      "è¾ĥä¸º": 5049,
      "Ġavail": 5050,
      "Ġmodels": 5051,
      "æ°ĳéĹ´": 5052,
      "ç»Ŀå¯¹": 5053,
      "è±Ĩ": 5054,
      "éĿ¢çļĦ": 5055,
      "ither": 5056,
      "ld": 5057,
      "åŃĺåľ¨çļĦ": 5058,
      "æĻ¯èĥľ": 5059,
      "row": 5060,
      "å¾Īå¤§": 5061,
      "ç¤¾ä¼ļä¸»ä¹īçİ°ä»£åĮĸ": 5062,
      "éģĹäº§": 5063,
      "å®ŀåĬĽ": 5064,
      "Ġunderst": 5065,
      "ä¼¸": 5066,
      "åĲįçļĦ": 5067,
      "éĿŀæ³ķ": 5068,
      "Ġsurvival": 5069,
      "ade": 5070,
      "åĲĦé¡¹": 5071,
      "æĹ¥å¸¸": 5072,
      "ä¸Ńåįİæ°ĳæĹıä¼Łå¤§å¤įåħ´": 5073,
      "é»ĳçĶ°": 5074,
      "é²ģ": 5075,
      "åīįçļĦ": 5076,
      "é¥®": 5077,
      "Ġconditions": 5078,
      "ification": 5079,
      "å§¬": 5080,
      "èĢĥæł¸": 5081,
      "lished": 5082,
      "ths": 5083,
      "Ġpresence": 5084,
      "è¾ĵåħ¥": 5085,
      "åħ´è¶£": 5086,
      "èĥ½éĩı": 5087,
      "åħ±åĲĮä½ĵ": 5088,
      "åīĬ": 5089,
      "åľ¨ä¸ŃåĽ½": 5090,
      "åıĺéĩı": 5091,
      "çļĦåıĺåĮĸ": 5092,
      "ä¸ºä»Ģä¹Ī": 5093,
      "å¦Ļ": 5094,
      "éªĮè¯ģ": 5095,
      "Ġknown": 5096,
      "å°ıæĹ©å·Ŀ": 5097,
      "å®īèīº": 5098,
      "ospital": 5099,
      "é©¾": 5100,
      "ife": 5101,
      "å¤ļæ¬¡": 5102,
      "çĲĨæĢ§": 5103,
      "ç§¯ç´¯": 5104,
      "ĠQ": 5105,
      "æ¨¡åĿĹ": 5106,
      "Ġ18": 5107,
      "Ġcollec": 5108,
      "Ġless": 5109,
      "æľ¬æĦ¿å¯º": 5110,
      "work": 5111,
      "ality": 5112,
      "èµ¢": 5113,
      "åĴĮåħ¶ä»ĸ": 5114,
      "å¼ºçļĦ": 5115,
      "æİ¢è®¨": 5116,
      "ç¬ł": 5117,
      "2017": 5118,
      "èĥ¡": 5119,
      "ä¸»é¢ĺ": 5120,
      "yd": 5121,
      "æīĵéĢł": 5122,
      "åĲĦèĩª": 5123,
      "PD": 5124,
      "æŁ³": 5125,
      "çĵ¦": 5126,
      "æī©å±ķ": 5127,
      "æĥŁ": 5128,
      "ained": 5129,
      "Ġobtained": 5130,
      "æĸĩç¦Ħ": 5131,
      "Ġsensi": 5132,
      "è¥¿åĨĽ": 5133,
      "äººå¤§": 5134,
      "Ġdiagnos": 5135,
      "ä¹īåħĥ": 5136,
      "och": 5137,
      "æĳĨ": 5138,
      "çĶĺ": 5139,
      "çŁ©": 5140,
      "Ġphosph": 5141,
      "ä¸§": 5142,
      "ç¼´": 5143,
      "æ¶Īæģ¯": 5144,
      "ç»ª": 5145,
      "éĴ¢": 5146,
      "ĠĠĠĠĠĠĠĠĠĠĠĠĠĠĠĠĠĠĠĠĠĠĠĠĠĠĠĠĠĠĠĠĠĠĠĠĠĠĠĠĠĠĠĠĠĠĠĠ": 5147,
      "Ġmus": 5148,
      "Ġradi": 5149,
      "éĻ·åħ¥": 5150,
      "è°ģ": 5151,
      "å¢¨": 5152,
      "æŁĲç§į": 5153,
      "åľºæĻ¯": 5154,
      "Ġsignaling": 5155,
      "ced": 5156,
      "æľīåĬ©äºİ": 5157,
      "ogni": 5158,
      "å¤§è§Ħæ¨¡": 5159,
      "è¡¥åħħ": 5160,
      "Ġrelated": 5161,
      "è¡£": 5162,
      "Ġ11": 5163,
      "è°ĥæİ§": 5164,
      "Ġdiab": 5165,
      "Ġestim": 5166,
      "Ġsk": 5167,
      "èĩªä¿¡": 5168,
      "ĠçĶŁæ¶¯": 5169,
      "çļĦéķ¿": 5170,
      "èĦı": 5171,
      "Ġfam": 5172,
      "è¿ĳä»£": 5173,
      "æĪĳéĥ¨": 5174,
      "Ġphen": 5175,
      "ä¹ĭå¥³": 5176,
      "ev": 5177,
      "åĩ¡": 5178,
      "ä¼łæĦŁ": 5179,
      "åħ¨ä¼ļ": 5180,
      "ç¬¬ä¸Ģæ¬¡": 5181,
      "Ġdays": 5182,
      "èµ´": 5183,
      "çīµ": 5184,
      "Ġisol": 5185,
      "éĢĤå½ĵ": 5186,
      "éĢ¼": 5187,
      "å¥ł": 5188,
      "oss": 5189,
      "å»ī": 5190,
      "ä¸ĩåħĥ": 5191,
      "äººæīįåŁ¹åħ»": 5192,
      "Ġcle": 5193,
      "å¹¶æľª": 5194,
      "els": 5195,
      "æī«": 5196,
      "Ġgenetic": 5197,
      "Ġatt": 5198,
      "03": 5199,
      "èĦļ": 5200,
      "åĪ¤åĨ³": 5201,
      "å¼ķåħ¥": 5202,
      "çĶŁéķ¿": 5203,
      "é±": 5204,
      "æºĥ": 5205,
      "2019": 5206,
      "å½¢æĪĲçļĦ": 5207,
      "ç¦ģæŃ¢": 5208,
      "Ġreac": 5209,
      "èĤ¯": 5210,
      "Ġchem": 5211,
      "å§Ķæīĺ": 5212,
      "å¼Ĥå¸¸": 5213,
      "èĦĤ": 5214,
      "Ġadd": 5215,
      "ĠĠĠĠĠĠĠĠĠĠĠĠĠĠĠ": 5216,
      "æī£": 5217,
      "MI": 5218,
      "èĮĥåĽ´åĨħ": 5219,
      "è§£éĻ¤": 5220,
      "æŁ±": 5221,
      "åĩºèº«": 5222,
      "é¢Ħç®Ĺ": 5223,
      "å®ŀéªĮå®¤": 5224,
      "ä»Ĭå¤©": 5225,
      "çļĦæ¦Ĥå¿µ": 5226,
      "St": 5227,
      "Ġdirect": 5228,
      "ĠĠĠĠĠĠĠĠĠĠ": 5229,
      "çĶµè·¯": 5230,
      "é±¼": 5231,
      "è¿Ł": 5232,
      "Ġagain": 5233,
      "ä½ĵçİ°äºĨ": 5234,
      "ield": 5235,
      "å¸Ĥåľºç»ıæµİ": 5236,
      "79": 5237,
      "We": 5238,
      "å®ĹæĪĳéĥ¨": 5239,
      "odies": 5240,
      "éĹ´çļĦ": 5241,
      "Ġbecause": 5242,
      "éĤ£äºĽ": 5243,
      "éĻĦè¿ĳ": 5244,
      "ç¾½æŁ´ç§ĢåĲī": 5245,
      "æĪĳä»¬çļĦ": 5246,
      "ä¸Ģè·¯": 5247,
      "uted": 5248,
      "åŀĦ": 5249,
      "æģ°": 5250,
      "Ġtreated": 5251,
      "è¡Įä¸ºçļĦ": 5252,
      "å¡Ķ": 5253,
      "66": 5254,
      "å¹¶æ²¡æľī": 5255,
      "æī¹åĩĨ": 5256,
      "ä¹ĭè·¯": 5257,
      "é«ĺè´¨éĩıåıĳå±ķ": 5258,
      "ward": 5259,
      "Ġdiagnosis": 5260,
      "Ġparticular": 5261,
      "ily": 5262,
      "ick": 5263,
      "Ġmal": 5264,
      "Ġpattern": 5265,
      "ĠUni": 5266,
      "èĢĥå¯Ł": 5267,
      "åħ»èĢģ": 5268,
      "æĸ°æĹ¶ä»£ä¸ŃåĽ½çī¹èī²ç¤¾ä¼ļä¸»ä¹ī": 5269,
      "ä¼ª": 5270,
      "æĶ»æīĵ": 5271,
      "Ġseveral": 5272,
      "Ġrece": 5273,
      "ç»ıå¸¸": 5274,
      "æĿ¡ä»¶ä¸ĭ": 5275,
      "Ġperiod": 5276,
      "ä¹ĭåıĺ": 5277,
      "Ġprovide": 5278,
      "æĸ°éĹ»": 5279,
      "çļĦæĢĿæĥ³": 5280,
      "ç¤ºèĮĥ": 5281,
      "Ġtra": 5282,
      "Ġsingle": 5283,
      "Ġlab": 5284,
      "è®¿éĹ®": 5285,
      "çļĦæĹ¶éĹ´": 5286,
      "ä¼łæī¿": 5287,
      "ä½ĵéªĮ": 5288,
      "08": 5289,
      "èµł": 5290,
      "éĶģ": 5291,
      "å¥ı": 5292,
      "Ġterm": 5293,
      "Ġsurg": 5294,
      "çģµæ´»": 5295,
      "çĶµåĬĽ": 5296,
      "ensity": 5297,
      "æŀ¶æŀĦ": 5298,
      "çļĦç»ĵæŀľ": 5299,
      "æĮĤ": 5300,
      "Ġmany": 5301,
      "å¯Įè£ķ": 5302,
      "ning": 5303,
      "Ġgra": 5304,
      "äººåĬĽ": 5305,
      "èµ¶": 5306,
      "æĪĺåľº": 5307,
      "fore": 5308,
      "åĵĪ": 5309,
      "Ġsupport": 5310,
      "ä¸Ģä»£": 5311,
      "Ġexpressed": 5312,
      "æľīäºĽ": 5313,
      "æĢĿè·¯": 5314,
      "Ġinvolved": 5315,
      "åŀĦæĸŃ": 5316,
      "æĿ¡ä¾ĭ": 5317,
      "çļĦä¿¡æģ¯": 5318,
      "Ġmechanisms": 5319,
      "èĥ¶": 5320,
      "Ġ100": 5321,
      "å¥Ī": 5322,
      "ty": 5323,
      "çĲĨçĶ±": 5324,
      "åĵªäºĽ": 5325,
      "acy": 5326,
      "ç¨ĭåº¦ä¸Ĭ": 5327,
      "æ¸łéģĵ": 5328,
      "based": 5329,
      "èĢĮä¸įæĺ¯": 5330,
      "èī¯å¥½çļĦ": 5331,
      "Ġculture": 5332,
      "Ġresist": 5333,
      "ites": 5334,
      "ä½ľä¸ļ": 5335,
      "å®¤çĶºå¹ķåºľ": 5336,
      "ç«ĭåľº": 5337,
      "etes": 5338,
      "å·¥èµĦ": 5339,
      "æĬµæĬ¼": 5340,
      "éĺª": 5341,
      "ä¾ĽåºĶéĵ¾": 5342,
      "æľīäºĨ": 5343,
      "ission": 5344,
      "è¾ĵåĩº": 5345,
      "æĥ©": 5346,
      "icient": 5347,
      "åŁºç¡Ģä¸Ĭ": 5348,
      "Ġsol": 5349,
      "åĬłéĢŁ": 5350,
      "èĳ£": 5351,
      "èµĽ": 5352,
      "Ġabs": 5353,
      "çĶ¨äººåįķä½į": 5354,
      "æĭ¿": 5355,
      "åįĹéĥ¨": 5356,
      "ä¹ĭéĻħ": 5357,
      "æĿĨ": 5358,
      "åĵįåºĶ": 5359,
      "åħ¨ä½ĵ": 5360,
      "çº¹": 5361,
      "Ġmeasured": 5362,
      "2016": 5363,
      "ument": 5364,
      "æķ°æį®çļĦ": 5365,
      "æķħäºĭ": 5366,
      "ĠX": 5367,
      "ĠRNA": 5368,
      "æĺ¯æĪĺåĽ½æĹ¶ä»£": 5369,
      "erc": 5370,
      "Ġ24": 5371,
      "Ġenh": 5372,
      "ä¸įå°ĳ": 5373,
      "Th": 5374,
      "ä¾Ŀçħ§": 5375,
      "æ´»åĬ¨çļĦ": 5376,
      "äº¤æĪĺ": 5377,
      "line": 5378,
      "ä»ķäºİ": 5379,
      "Ġdemonstrated": 5380,
      "Ġpart": 5381,
      "Ġmultiple": 5382,
      "sec": 5383,
      "è¾ĥå¤§": 5384,
      "64": 5385,
      "que": 5386,
      "ĠEx": 5387,
      "æľªèĥ½": 5388,
      "59": 5389,
      "Ġweek": 5390,
      "Ġdom": 5391,
      "Ġadv": 5392,
      "ĠAll": 5393,
      "ç»©æķĪ": 5394,
      "åħ¬åı¸çļĦ": 5395,
      "æĿ¡è§Ħå®ļ": 5396,
      "ä¹łæĥ¯": 5397,
      "åĪ°çļĦ": 5398,
      "èļ": 5399,
      "æ¬¢": 5400,
      "å¿Ĩ": 5401,
      "Ġstatis": 5402,
      "æķĪåĬĽ": 5403,
      "å¥¹": 5404,
      "âĳł": 5405,
      "æ¸Ĺ": 5406,
      "åįıåĬ©": 5407,
      "æīİ": 5408,
      "æ¹¿": 5409,
      "hes": 5410,
      "88": 5411,
      "å®ļäºĨ": 5412,
      "ç²¾åĩĨ": 5413,
      "æĪĲéķ¿": 5414,
      "2015": 5415,
      "Ġstress": 5416,
      "å°ģå»º": 5417,
      "æĦĪ": 5418,
      "åħĪéĶĭ": 5419,
      "ä¸įè¯¦": 5420,
      "rast": 5421,
      "éģĹä¼ł": 5422,
      "åľĪ": 5423,
      "èī¯å¥½": 5424,
      "å±ķç¤º": 5425,
      "Ġvalue": 5426,
      "åĬ³åĬ¨åĲĪåĲĮ": 5427,
      "ä¸ºåŁºç¡Ģ": 5428,
      "çĹĩçĬ¶": 5429,
      "ä¸¾è¡Į": 5430,
      "otype": 5431,
      "CS": 5432,
      "Ġphys": 5433,
      "éģŃåĪ°": 5434,
      "ç®¡çĲĨçļĦ": 5435,
      "é¦Ļæ¸¯": 5436,
      "å¿į": 5437,
      "åĢ¼å¾Ĺ": 5438,
      "ï½ŀ": 5439,
      "åĻ¨çļĦ": 5440,
      "Ġprolif": 5441,
      "äº«å¹´": 5442,
      "åĽ½å®¶å®īåħ¨": 5443,
      "åĩºçİ°äºĨ": 5444,
      "èħº": 5445,
      "ç«ĭåį³": 5446,
      "åĳ¨è¾¹": 5447,
      "è²": 5448,
      "èĥĢ": 5449,
      "èĤ¡æĿĥ": 5450,
      "è½´": 5451,
      "èĢĥè¯ķ": 5452,
      "Ġgreat": 5453,
      "çļĦä¸ī": 5454,
      "RA": 5455,
      "BS": 5456,
      "æľĢåĪĿ": 5457,
      "æĤī": 5458,
      "etwork": 5459,
      "åĮºåĿĹ": 5460,
      "çģĮ": 5461,
      "77": 5462,
      "åı¦ä¸Ģ": 5463,
      "NP": 5464,
      "ä»£è¡¨å¤§ä¼ļ": 5465,
      "æ··åĲĪ": 5466,
      "lob": 5467,
      "å±±åĲį": 5468,
      "Ġdiseases": 5469,
      "omet": 5470,
      "ä½ĵç³»çļĦ": 5471,
      "acc": 5472,
      "Ġpreviously": 5473,
      "CL": 5474,
      "åĮĸåĴĮ": 5475,
      "åį±å®³": 5476,
      "èĳĹä½ľ": 5477,
      "ysis": 5478,
      "åĲĮçĽŁ": 5479,
      "çĿĢåĬĽ": 5480,
      "TP": 5481,
      "åŃ¤": 5482,
      "æ¿ĳ": 5483,
      "èĢĮåľ¨": 5484,
      "å¤ĸçļĦ": 5485,
      "Ġbefore": 5486,
      "ç¦»åŃĲ": 5487,
      "ĠIm": 5488,
      "çĤ¼": 5489,
      "ä¼Ļ": 5490,
      "ĠĠĠĠĠĠĠĠĠĠĠ": 5491,
      "Ġä¸Ģ": 5492,
      "Ġ50": 5493,
      "æİ¢ç©¶": 5494,
      "Â°": 5495,
      "å¦¹": 5496,
      "ä»Ĭå·Ŀæ°ı": 5497,
      "çĶŁäº§åĬĽ": 5498,
      "å±ħä½ı": 5499,
      "åģļåĩº": 5500,
      "æĮĸ": 5501,
      "Ġinterest": 5502,
      "lation": 5503,
      "Ġcalc": 5504,
      "ç´§å¯Ĩ": 5505,
      "ä¸İåħ¶": 5506,
      "IS": 5507,
      "è¯ķåĽ¾": 5508,
      "Ġlik": 5509,
      "pir": 5510,
      "atus": 5511,
      "åĹ£": 5512,
      "Ġserum": 5513,
      "CM": 5514,
      "ties": 5515,
      "Ġcase": 5516,
      "æľīä¸Ģ": 5517,
      "éĺģ": 5518,
      "Ġstandard": 5519,
      "Ġidentify": 5520,
      "çĭ¬çī¹": 5521,
      "63": 5522,
      "æ¾³": 5523,
      "å®¶èĢģ": 5524,
      "Ġresponses": 5525,
      "å±ħåŁİ": 5526,
      "æī¿è®¤": 5527,
      "æľĢå¤§çļĦ": 5528,
      "Ġhem": 5529,
      "éĽħ": 5530,
      "ful": 5531,
      "Ġdeath": 5532,
      "ĠHealth": 5533,
      "Ġneurons": 5534,
      "Ġnec": 5535,
      "çļĦæĬĢæľ¯": 5536,
      "èĢ³": 5537,
      "ç»ıæµİå¢ŀéķ¿": 5538,
      "anced": 5539,
      "Ġsample": 5540,
      "ĠHIV": 5541,
      "âĳ¡": 5542,
      "æŃ£å½ĵ": 5543,
      "äº²èĩª": 5544,
      "æĶ¹éĿ©çļĦ": 5545,
      "æľ¬èĥ½": 5546,
      "ellular": 5547,
      "åĩºçīĪç¤¾": 5548,
      "ç»Ħç»ĩçļĦ": 5549,
      "æĽ¿ä»£": 5550,
      "åĪĳæ³ķ": 5551,
      "Ġpathway": 5552,
      "IT": 5553,
      "å½¼": 5554,
      "Ġtem": 5555,
      "åıĳèµ·": 5556,
      "çĳŀ": 5557,
      "Ġhow": 5558,
      "Ġexperiments": 5559,
      "ually": 5560,
      "æĢĴ": 5561,
      "Ġben": 5562,
      "äººä¸º": 5563,
      "Ġreve": 5564,
      "ogenesis": 5565,
      "51": 5566,
      "ste": 5567,
      "åħħåĪĨåıĳæĮ¥": 5568,
      "å½»åºķ": 5569,
      "é¹¿": 5570,
      "Ġliver": 5571,
      "åĬłä¸Ĭ": 5572,
      "Ġpo": 5573,
      "å¸¦æĿ¥çļĦ": 5574,
      "å¼Łå¼Ł": 5575,
      "åĪĩå®ŀ": 5576,
      "Ġcharacteris": 5577,
      "æĴ¤éĢĢ": 5578,
      "ocy": 5579,
      "Ġlarge": 5580,
      "âĢķ": 5581,
      "æĪ¿å±ĭ": 5582,
      "Ġavailable": 5583,
      "æıĲåĩºçļĦ": 5584,
      "rane": 5585,
      "æıŃç¤º": 5586,
      "related": 5587,
      "éķ¿å®ĹæĪĳéĥ¨": 5588,
      "round": 5589,
      "äº§åĵģçļĦ": 5590,
      "pression": 5591,
      "ä¸ĢåĲĳ": 5592,
      "ä¿®å¤į": 5593,
      "Ġprac": 5594,
      "Ġest": 5595,
      "ä¸ľåĮĹ": 5596,
      "ä¼¦çĲĨ": 5597,
      "æĶ»éĻ·": 5598,
      "å¥Ķ": 5599,
      "åĲ¯åĬ¨": 5600,
      "specific": 5601,
      "çŁ³çĶ°": 5602,
      "æŁ´çĶ°": 5603,
      "éº»": 5604,
      "åį«æĺŁ": 5605,
      "æĸ½å·¥": 5606,
      "æ²ŁéĢļ": 5607,
      "èĥ½åĬĽçļĦ": 5608,
      "è¯ķçĤ¹": 5609,
      "04": 5610,
      "viron": 5611,
      "åħļçļĦåįģåħ«": 5612,
      "ä¸ĢæĹ¦": 5613,
      "ä¹¡æĿĳæĮ¯åħ´": 5614,
      "term": 5615,
      "å±±åĨħ": 5616,
      "æŃ¦çĶ°åĨĽ": 5617,
      "Ġed": 5618,
      "Ġorgan": 5619,
      "æ¦": 5620,
      "ĠFurther": 5621,
      "teg": 5622,
      "åĬłè´º": 5623,
      "æĿ¨": 5624,
      "æľīäºº": 5625,
      "æĬµæĬĹ": 5626,
      "ury": 5627,
      "åľ¨è¿Ļ": 5628,
      "éľ¸": 5629,
      "èĤ¾": 5630,
      "sc": 5631,
      "åĲīå·Ŀ": 5632,
      "Ġprob": 5633,
      "Ġgluc": 5634,
      "åľ°çĲĥ": 5635,
      "å°ļæľª": 5636,
      "åı¯èĥ½ä¼ļ": 5637,
      "ĠUniversity": 5638,
      "æ»ŀ": 5639,
      "æĻ°": 5640,
      "éĻ¢æł¡": 5641,
      "ä¹³": 5642,
      "äºĭçī©": 5643,
      "åĪ¶ä½ľ": 5644,
      "Ġmight": 5645,
      "è¯¦ç»Ĩ": 5646,
      "Ġindependent": 5647,
      "ç§ĳæĬĢåĪĽæĸ°": 5648,
      "Ġsubjects": 5649,
      "Ġtumors": 5650,
      "åĲįä¹ī": 5651,
      "09": 5652,
      "åİŁæľ¬": 5653,
      "Ġeither": 5654,
      "Ġpossible": 5655,
      "54": 5656,
      "52": 5657,
      "æī¿åĮħ": 5658,
      "å¤§éĥ¨åĪĨ": 5659,
      "å°ĨåĨĽè¶³åĪ©ä¹ī": 5660,
      "RT": 5661,
      "Ġmethods": 5662,
      "ç§Ģå¿ł": 5663,
      "ç¬¬åħŃ": 5664,
      "è¢«è®¤ä¸º": 5665,
      "æŃ¦çĶ°å®¶": 5666,
      "æİ¥è§¦": 5667,
      "math": 5668,
      "Ġdistrib": 5669,
      "Ġbody": 5670,
      "ĠâĪĴ": 5671,
      "ä¸ģ": 5672,
      "åĪºæ¿Ģ": 5673,
      "åĪĿæŃ¥": 5674,
      "omy": 5675,
      "åīįè¿Ľ": 5676,
      "èģĮåĬ¡": 5677,
      "Ġvi": 5678,
      "ey": 5679,
      "èĴ²": 5680,
      "Ġmedical": 5681,
      "éħįåĲĪ": 5682,
      "Ġauthors": 5683,
      "Ġfunctional": 5684,
      "AL": 5685,
      "aren": 5686,
      "æĺ¯ä¸į": 5687,
      "å¤ªéĺ³": 5688,
      "èµĦæºĲçļĦ": 5689,
      "Ġimprove": 5690,
      "face": 5691,
      "ä»¥æŃ¤": 5692,
      "åıĳçĶŁçļĦ": 5693,
      "èµĦæł¼": 5694,
      "æĬ½è±¡": 5695,
      "ocial": 5696,
      "æ¬¡åŃĲ": 5697,
      "åĪ¶çļĦ": 5698,
      "è¯ŀ": 5699,
      "RP": 5700,
      "åĲĪæĪĲ": 5701,
      "æĦıæĢĿ": 5702,
      "ç®Ń": 5703,
      "62": 5704,
      "åĢ¾åĲĳ": 5705,
      "å®¡çĲĨ": 5706,
      "73": 5707,
      "æĥĬ": 5708,
      "å¼ºåº¦": 5709,
      "Ġred": 5710,
      "Ġagainst": 5711,
      "Ġchronic": 5712,
      "ä½¿åħ¶": 5713,
      "åĮºåĪĨ": 5714,
      "Ġcirc": 5715,
      "verse": 5716,
      "åĶ¯ä¸Ģ": 5717,
      "çĨĬ": 5718,
      "å¼ºåĽ½": 5719,
      "Ġsep": 5720,
      "è¡Ĺ": 5721,
      "minist": 5722,
      "ections": 5723,
      "Ġlocal": 5724,
      "Ġsus": 5725,
      "éĢĤåĲĪ": 5726,
      "åıĳè¡Į": 5727,
      "Ġbreast": 5728,
      "æķ¬": 5729,
      "åŃ¦å®¶": 5730,
      "è£ħå¤ĩ": 5731,
      "Ġpri": 5732,
      "æĽ´æĸ°": 5733,
      "ç¦»å¼Ģ": 5734,
      "ationship": 5735,
      "ä¸ĩäºº": 5736,
      "åĬŀçĲĨ": 5737,
      "Ġanalyzed": 5738,
      "æľįåĬ¡çļĦ": 5739,
      "èĦ±è´«": 5740,
      "æĦıå¿Ĺ": 5741,
      "ä¸ºæŃ¤": 5742,
      "par": 5743,
      "å·®è·Ŀ": 5744,
      "ount": 5745,
      "èģĮå·¥": 5746,
      "ules": 5747,
      "å¤§åĨĽ": 5748,
      "æĸ°åħ´": 5749,
      "èĢĲ": 5750,
      "Ġ14": 5751,
      "Ġapproach": 5752,
      "å¾ĹåĪ°äºĨ": 5753,
      "åĪ¶çº¦": 5754,
      "å»ºæŀĦ": 5755,
      "éªĹ": 5756,
      "ium": 5757,
      "Ġconsidered": 5758,
      "åĭĴ": 5759,
      "Ġdetermine": 5760,
      "åĪĿæľŁ": 5761,
      "æĹłæķĪ": 5762,
      "éŁ©": 5763,
      "Ġchange": 5764,
      "ised": 5765,
      "éħ¬": 5766,
      "è²Į": 5767,
      "Ġsize": 5768,
      "è®ºè¿°": 5769,
      "ä¹Łä¼ļ": 5770,
      "71": 5771,
      "Ġindividuals": 5772,
      "æ¯ķä¸ļ": 5773,
      "Ġfoc": 5774,
      "èĥľå®¶": 5775,
      "Ġrati": 5776,
      "ç²ī": 5777,
      "æŃ¥éª¤": 5778,
      "ç§ĺå¯Ĩ": 5779,
      "Ġwomen": 5780,
      "Ġgu": 5781,
      "Ġparticipants": 5782,
      "æłĳç«ĭ": 5783,
      "éĩıåŃĲ": 5784,
      "Ġvs": 5785,
      "å«ģ": 5786,
      "çļĦæĥħåĨµ": 5787,
      "Ġloss": 5788,
      "åĪĴåĪĨ": 5789,
      "Ġmg": 5790,
      "ä¸įåĪ°": 5791,
      "çŃ¾è®¢": 5792,
      "æĶ¾å¼ĥ": 5793,
      "å·§": 5794,
      "äºĨä¸Ģä¸ª": 5795,
      "rop": 5796,
      "æİ¥è¿ĳ": 5797,
      "æĢİæł·": 5798,
      "bl": 5799,
      "ä¸Ńåħ±ä¸Ńå¤®": 5800,
      "ince": 5801,
      "æ´»åĬĽ": 5802,
      "omic": 5803,
      "å°ıç»Ħ": 5804,
      "é¢ĦæľŁ": 5805,
      "ene": 5806,
      "Ġconduc": 5807,
      "æĲľ": 5808,
      "ĠUn": 5809,
      "ull": 5810,
      "å¤§éĺª": 5811,
      "Ġallow": 5812,
      "æ´Ĺ": 5813,
      "çļĦå½¢å¼ı": 5814,
      "éĩĳèŀįæľºæŀĦ": 5815,
      "å¼ºå¤§": 5816,
      "98": 5817,
      "èĪį": 5818,
      "éī´å®ļ": 5819,
      "ä¸Ģåº¦": 5820,
      "iven": 5821,
      "äº«æľī": 5822,
      "åīįåĲİ": 5823,
      "åĮ»éĻ¢": 5824,
      "ists": 5825,
      "Ġlip": 5826,
      "å±ĢéĿ¢": 5827,
      "å¤ĦåĪĨ": 5828,
      "æĤ¨": 5829,
      "esion": 5830,
      "å¹´é¾Ħ": 5831,
      "å¹²é¢Ħ": 5832,
      "äº§ä¸ļéĵ¾": 5833,
      "åħĥäº²": 5834,
      "Ġfac": 5835,
      "Ġ16": 5836,
      "æ¥¼": 5837,
      "åı°æ¹¾": 5838,
      "ner": 5839,
      "ç¼ºéĻ·": 5840,
      "ä¹Łåľ¨": 5841,
      "erence": 5842,
      "æŃ£ä¹ī": 5843,
      "è®¤åĲĮ": 5844,
      "åĲ¸å¼ķ": 5845,
      "åĽŀçŃĶ": 5846,
      "ĠmRNA": 5847,
      "èĻ«": 5848,
      "è¢«è§Ĩä¸º": 5849,
      "èĩ³ä»Ĭ": 5850,
      "è¡¨çİ°ä¸º": 5851,
      "è¾ħåĬ©": 5852,
      "DA": 5853,
      "å·¥äºº": 5854,
      "åĿļåĨ³": 5855,
      "èįĲ": 5856,
      "Ġmac": 5857,
      "é»ĺ": 5858,
      "NS": 5859,
      "å¥³åĦ¿": 5860,
      "ä¸Ģå¹´": 5861,
      "ä»£å½ĵä¸»": 5862,
      "åģ¶": 5863,
      "ä¿¡ä»°": 5864,
      "ç¬¬ä¸Ģä¸ª": 5865,
      "asing": 5866,
      "åĲ´": 5867,
      "éĢłå¯º": 5868,
      "è¿ĺè¦ģ": 5869,
      "æĶ¯åĩº": 5870,
      "Ġstimul": 5871,
      "asis": 5872,
      "Ġimaging": 5873,
      "è¿Ļå°±": 5874,
      "ysi": 5875,
      "Ġinduced": 5876,
      "è¡Ķ": 5877,
      "åĽłåŃĲ": 5878,
      "ä¸ľåĨĽ": 5879,
      "çĽ¸ä¼¼": 5880,
      "æİī": 5881,
      "å°ıåº·": 5882,
      "é¾ĻéĢłå¯º": 5883,
      "arm": 5884,
      "æ¸ħæ¥ļ": 5885,
      "æŃ¦çĶ°ä¿¡": 5886,
      "æĸ°åıĳå±ķ": 5887,
      "ams": 5888,
      "çķ¿": 5889,
      "çĸĨ": 5890,
      "ä¼Ĺå¤ļ": 5891,
      "æ½ľåľ¨": 5892,
      "af": 5893,
      "Ġbinding": 5894,
      "Ġdecreased": 5895,
      "FP": 5896,
      "vent": 5897,
      "uk": 5898,
      "1582": 5899,
      "ç»ĩçĶ°åĨĽ": 5900,
      "æ¢ħ": 5901,
      "åĲĥ": 5902,
      "åħ¶åŃĲ": 5903,
      "æĿĳä¸Ĭ": 5904,
      "éº¾": 5905,
      "Ġhel": 5906,
      "Ġcompon": 5907,
      "éļ¶": 5908,
      "Ġreveal": 5909,
      "çĥŁ": 5910,
      "æµģéĢļ": 5911,
      "2000": 5912,
      "åĽŀå½Ĵ": 5913,
      "æĪĺå½¹": 5914,
      "çĻ¾å§ĵ": 5915,
      "åĸľå¤ļ": 5916,
      "Ġheart": 5917,
      "ç¿Įå¹´": 5918,
      "éļĲå±ħ": 5919,
      "åİŁå§ĭ": 5920,
      "å¤©çĦ¶": 5921,
      "ĠäºĮ": 5922,
      "é«ĺçº§": 5923,
      "MA": 5924,
      "åĪĨè£Ĥ": 5925,
      "76": 5926,
      "ä»ĸåľ¨": 5927,
      "èµģ": 5928,
      "åĮºåĿĹéĵ¾": 5929,
      "æĺİæĻºåħīç§Ģ": 5930,
      "Ġdown": 5931,
      "ish": 5932,
      "Ġconfir": 5933,
      "æĸĩæľ¬": 5934,
      "èĥĨ": 5935,
      "æĸ°æĹ¶ä»£ä¸ŃåĽ½çī¹èī²ç¤¾ä¼ļä¸»ä¹īæĢĿæĥ³": 5936,
      "ä¸»ä¹īçļĦ": 5937,
      "LC": 5938,
      "äººæ°ĳæĶ¿åºľ": 5939,
      "åĩ»è´¥": 5940,
      "Ġpress": 5941,
      "æī¹åĪ¤": 5942,
      "æ²³åĨħ": 5943,
      "Ġdetected": 5944,
      "èĵĿ": 5945,
      "inu": 5946,
      "ä¿¡æģ¯æĬĢæľ¯": 5947,
      "ç§Łèµģ": 5948,
      "æľ¬èĥ½å¯º": 5949,
      "ä¸Ĭä¸ĭ": 5950,
      "Ġsymptoms": 5951,
      "çĽĳå¯Ł": 5952,
      "æµ®": 5953,
      "Al": 5954,
      "åķĨåĬ¡": 5955,
      "ä¸Ńæľī": 5956,
      "Ġå¹´": 5957,
      "å¼ºçĥĪ": 5958,
      "éĺĶ": 5959,
      "çŁ¢": 5960,
      "åħļåĨħ": 5961,
      "ä¸Ńåħ¨ä¼ļ": 5962,
      "plication": 5963,
      "æĳĦæ´¥": 5964,
      "Ġmouse": 5965,
      "ç»ĦæĪĲéĥ¨åĪĨ": 5966,
      "respon": 5967,
      "app": 5968,
      "èĤł": 5969,
      "Ġpur": 5970,
      "ä½¿çĶ¨çļĦ": 5971,
      "oles": 5972,
      "âĢ²": 5973,
      "èĩ³å°ĳ": 5974,
      "stit": 5975,
      "è¿ľæ±Ł": 5976,
      "å´©": 5977,
      "è¸ª": 5978,
      "Ġdetermined": 5979,
      "åıī": 5980,
      "ç¬ĶèĢħ": 5981,
      "åıĺæĽ´": 5982,
      "ru": 5983,
      "å¢Ļ": 5984,
      "è±ªæĹı": 5985,
      "çİ°æľī": 5986,
      "500": 5987,
      "Ġmutations": 5988,
      "ä»¥åīį": 5989,
      "ĠZ": 5990,
      "read": 5991,
      "Ġcommun": 5992,
      "åģĩè®¾": 5993,
      "72": 5994,
      "éĩĬæĶ¾": 5995,
      "Ġaccording": 5996,
      "vironment": 5997,
      "å¤Ħç½®": 5998,
      "åīĳ": 5999,
      "åı¯ä»¥éĢļè¿ĩ": 6000,
      "atal": 6001,
      "éĵģçĤ®": 6002,
      "èĳ¬": 6003,
      "æĽ´å¥½åľ°": 6004,
      "é¢ĳçİĩ": 6005,
      "æĸ¯æ³¢": 6006,
      "æ¶ĪéĻ¤": 6007,
      "Ġmonths": 6008,
      "çİ°çĬ¶": 6009,
      "Ġinsulin": 6010,
      "ä¸įåĪ©": 6011,
      "è¶ģ": 6012,
      "Ġparamet": 6013,
      "æŃ¦èĹı": 6014,
      "åįĹåĮĹ": 6015,
      "ç¹ģèį£": 6016,
      "amin": 6017,
      "Ġantibody": 6018,
      "Ġrelationship": 6019,
      "Ġmetast": 6020,
      "verage": 6021,
      "Ġnegative": 6022,
      "æı´åĨĽ": 6023,
      "å¡«": 6024,
      "æ¼ı": 6025,
      "æ¯ĽåĪ©åħĥå°±": 6026,
      "å¤§å°ı": 6027,
      "ç¬łåİŁ": 6028,
      "åĲįç§°": 6029,
      "Ġepit": 6030,
      "Ġbeing": 6031,
      "ĠmiR": 6032,
      "ä¿¡ä»»": 6033,
      "Ġproduction": 6034,
      "è½¬åĲĳ": 6035,
      "ä¸İæŃ¤": 6036,
      "Ġlesion": 6037,
      "pha": 6038,
      "äºĭæĥħ": 6039,
      "éŀ": 6040,
      "Ġapop": 6041,
      "ç¼Ķ": 6042,
      "åį¿": 6043,
      "ĠCT": 6044,
      "PA": 6045,
      "å¼ĵ": 6046,
      "çļĦçī¹çĤ¹": 6047,
      "åįļå£«": 6048,
      "è¯Ī": 6049,
      "Ġviv": 6050,
      "è¯¸å¤ļ": 6051,
      "é¬": 6052,
      "éĢ¸": 6053,
      "ä¼łéĢĴ": 6054,
      "è§Ĩè§Ĵ": 6055,
      "éĩįå¤į": 6056,
      "è¿Ī": 6057,
      "éĤĵ": 6058,
      "å¤§å®¶": 6059,
      "ables": 6060,
      "Ġcontrols": 6061,
      "æ·¡": 6062,
      "åħ³åİŁä¹ĭæĪĺ": 6063,
      "è¾Ĳ": 6064,
      "Ġextrac": 6065,
      "éĵľ": 6066,
      "ä¾ĿçĦ¶": 6067,
      "amp": 6068,
      "ä¹Į": 6069,
      "IL": 6070,
      "erative": 6071,
      "è¿Ŀçº¦": 6072,
      "idence": 6073,
      "æµĻ": 6074,
      "ç¦ħ": 6075,
      "çļĦçĽ®æłĩ": 6076,
      "çļĦåİŁåĽł": 6077,
      "earch": 6078,
      "OR": 6079,
      "æİ¥æĶ¶": 6080,
      "éķ¿åºĨ": 6081,
      "èį¡": 6082,
      "çļĦæķĻåŃ¦": 6083,
      "èĹ©ä¸»": 6084,
      "Ġmm": 6085,
      "éĢīä¸¾": 6086,
      "èģĶåĨĽ": 6087,
      "06": 6088,
      "åħ¨å±Ģ": 6089,
      "é¢Ĺ": 6090,
      "çº¤ç»´": 6091,
      "Ġassociation": 6092,
      "åıĸå¾ĹäºĨ": 6093,
      "æĹ¥æľ¬æĪĺåĽ½æĹ¶ä»£": 6094,
      "Ġmolecular": 6095,
      "ä»£çłģ": 6096,
      "äººæ°ĳå¸ģ": 6097,
      "ä¸Ĭå¸Ĥ": 6098,
      "Ġbone": 6099,
      "å°Ŀ": 6100,
      "ä¿ĿçķĻ": 6101,
      "è´Ŀ": 6102,
      "ĠCI": 6103,
      "åºĶæĢ¥": 6104,
      "èŀįåħ¥": 6105,
      "æĶ¯æı´": 6106,
      "çŃīçº§": 6107,
      "åĭĺ": 6108,
      "ç¥Ĳ": 6109,
      "Ġexample": 6110,
      "ç»ĩçĶ°å®¶": 6111,
      "ject": 6112,
      "ç¨¿": 6113,
      "ĠAm": 6114,
      "DL": 6115,
      "åĲİæľŁ": 6116,
      "å®ĩåĸľå¤ļ": 6117,
      "ian": 6118,
      "å¹¶ä¸įæĺ¯": 6119,
      "å¤§å¹ħ": 6120,
      "äººæ°ĳçļĦ": 6121,
      "ç¥ŀç¤¾": 6122,
      "ä¸ĬæĿīå®¶": 6123,
      "ogenic": 6124,
      "æī¹è¯Ħ": 6125,
      "å¹³å®ļ": 6126,
      "è¥¿éĥ¨": 6127,
      "ä¼łæĦŁåĻ¨": 6128,
      "ç»Īäºİ": 6129,
      "Ġrecom": 6130,
      "07": 6131,
      "Ġlo": 6132,
      "çªģçĦ¶": 6133,
      "åĿĩè¡¡": 6134,
      "å¸ĤåľºçļĦ": 6135,
      "åĬ£": 6136,
      "è®©åŃ¦çĶŁ": 6137,
      "Ġdys": 6138,
      "Ġcontrast": 6139,
      "ä¸īäºº": 6140,
      "åıĳåĩº": 6141,
      "åħ¥ä¾µ": 6142,
      "å²Ĺä½į": 6143,
      "come": 6144,
      "å¤§åĴĮ": 6145,
      "otherap": 6146,
      "æİĪæĿĥ": 6147,
      "æĹ¶æľŁçļĦ": 6148,
      "Ġi": 6149,
      "drom": 6150,
      "äº§çĶŁäºĨ": 6151,
      "Ġver": 6152,
      "åħ¬æŃ£": 6153,
      "åĨ°": 6154,
      "å¤ºåıĸ": 6155,
      "Ġblock": 6156,
      "Ġdifference": 6157,
      "Ġstrateg": 6158,
      "ç¼ĸåĪ¶": 6159,
      "æľĢä¸Ĭ": 6160,
      "çļĦä»·åĢ¼": 6161,
      "åĭ¤": 6162,
      "å®ĩéĥ½": 6163,
      "Ġvivo": 6164,
      "Ġassay": 6165,
      "Ġdeg": 6166,
      "ç¥Ń": 6167,
      "çļĦæĿĥåĪ©": 6168,
      "Ġexc": 6169,
      "å±Ģéĥ¨": 6170,
      "æ§": 6171,
      "Ġfour": 6172,
      "åı¯ä»¥åľ¨": 6173,
      "eline": 6174,
      "èĭ±è¯Ń": 6175,
      "é©¶": 6176,
      "åŃ©åŃĲ": 6177,
      "èĬ¦": 6178,
      "ret": 6179,
      "æĶ¿åĬ¡": 6180,
      "ä¼łç»ŁæĸĩåĮĸ": 6181,
      "è¯¹": 6182,
      "å¤§å¤§": 6183,
      "ä¸»ç®¡": 6184,
      "åĬ³åĬ¨åĬĽ": 6185,
      "æ»ĳ": 6186,
      "éĩĩè´Ń": 6187,
      "comes": 6188,
      "å®ĩéĥ½å®«": 6189,
      "åºıåĪĹ": 6190,
      "åľ°äº§": 6191,
      "æĺİçļĦ": 6192,
      "Ġconsist": 6193,
      "åĢŁéī´": 6194,
      "ml": 6195,
      "çĶŁæ´»çļĦ": 6196,
      "åĲİæŀľ": 6197,
      "æĽ´å¤ļçļĦ": 6198,
      "æĺ¯ä¸ŃåĽ½": 6199,
      "ä¸ŃéĹ´": 6200,
      "åħ¨åħļ": 6201,
      "éĨĴ": 6202,
      "ask": 6203,
      "æ¯įäº²": 6204,
      "Ġlikely": 6205,
      "åıĳçĶŁäºĨ": 6206,
      "Ġpsych": 6207,
      "åħļçļĦé¢Ĩå¯¼": 6208,
      "åİŁåŃĲ": 6209,
      "anding": 6210,
      "ä»Ļ": 6211,
      "åµ": 6212,
      "ocument": 6213,
      "çļĦåİŁåĪĻ": 6214,
      "åĩºåı°": 6215,
      "åĩĨåĪĻ": 6216,
      "Ġstrong": 6217,
      "ume": 6218,
      "Ġques": 6219,
      "èİ«": 6220,
      "ä¸ªæĢ§": 6221,
      "åİĨåı²ä¸Ĭ": 6222,
      "ä¹ĭéĺµ": 6223,
      "eric": 6224,
      "2014": 6225,
      "å¤įåĲĪ": 6226,
      "æ³ķäºº": 6227,
      "IF": 6228,
      "ä¸ªæľĪ": 6229,
      "Cl": 6230,
      "ean": 6231,
      "å¿ĺ": 6232,
      "Ġanalyses": 6233,
      "çļĦåºĶçĶ¨": 6234,
      "åĵ¥": 6235,
      "æľ¬å¤ļ": 6236,
      "çļĦç§ĳåŃ¦": 6237,
      "RS": 6238,
      "çºªå¾ĭ": 6239,
      "èĭıèģĶ": 6240,
      "ĠAD": 6241,
      "ä¸ºæł¸å¿ĥçļĦ": 6242,
      "éĺ²å¾¡": 6243,
      "æĳĩ": 6244,
      "æıĴ": 6245,
      "èµĭäºĪ": 6246,
      "åįķä¸Ģ": 6247,
      "BP": 6248,
      "å¯¹æ¯Ķ": 6249,
      "atively": 6250,
      "ators": 6251,
      "ç»§æī¿å®¶çĿ£": 6252,
      "æĪĺåĬŁ": 6253,
      "æĮĩæķ°": 6254,
      "Ġnetwork": 6255,
      "åĩºéĺµ": 6256,
      "æĲŀ": 6257,
      "ule": 6258,
      "ç»ıåħ¸": 6259,
      "è¾¹çķĮ": 6260,
      "ä¸»åĲĽ": 6261,
      "åĿĬ": 6262,
      "çļĦåħ·ä½ĵ": 6263,
      "æľīåºı": 6264,
      "æİĴéĻ¤": 6265,
      "åĲĮæŃ¥": 6266,
      "æĪĺåĽ½å¤§åĲį": 6267,
      "Ġtypes": 6268,
      "æĶ¾åľ¨": 6269,
      "itor": 6270,
      "ä¸įåĬ¨": 6271,
      "æĶ»åĿļ": 6272,
      "Ġarter": 6273,
      "æ°¨": 6274,
      "Ġ13": 6275,
      "æĢİä¹Ī": 6276,
      "61": 6277,
      "é¼ł": 6278,
      "åĨ³è®®": 6279,
      "æĽ°": 6280,
      "æ¯ıå¹´": 6281,
      "åı¯èĥ½æĺ¯": 6282,
      "æīĩ": 6283,
      "çĶŁæĢģæĸĩæĺİ": 6284,
      "æ±łçĶ°": 6285,
      "con": 6286,
      "å±ķçİ°": 6287,
      "Ġvarious": 6288,
      "Ġfail": 6289,
      "å©ļå§»": 6290,
      "ored": 6291,
      "ä¸¾æİª": 6292,
      "uration": 6293,
      "ä¸»è§Ĥ": 6294,
      "èĲ¥åħ»": 6295,
      "epti": 6296,
      "err": 6297,
      "åĨ²åĩ»": 6298,
      "Ġantibodies": 6299,
      "åħ±è¯Ĩ": 6300,
      "è´¢å¯Į": 6301,
      "Ġadj": 6302,
      "ode": 6303,
      "1600": 6304,
      "æ±¤": 6305,
      "bility": 6306,
      "é«ĺäºİ": 6307,
      "æł·æľ¬": 6308,
      "åħ¬åħ±æľįåĬ¡": 6309,
      "ä½¿èĢħ": 6310,
      "EC": 6311,
      "ç§Ģæ¬¡": 6312,
      "Ġmit": 6313,
      "roup": 6314,
      "ulations": 6315,
      "ĠCl": 6316,
      "tically": 6317,
      "atin": 6318,
      "å¸¦é¢Ĩ": 6319,
      "ç»§æī¿äºº": 6320,
      "æĻ¯èĻİ": 6321,
      "ç®¡è¾ĸ": 6322,
      "Ġtissues": 6323,
      "æįŁä¼¤": 6324,
      "æıĲäº¤": 6325,
      "æī¶è´«": 6326,
      "åıĶ": 6327,
      "ä¸Ģæī¹": 6328,
      "cep": 6329,
      "Ġdiabetes": 6330,
      "atures": 6331,
      "ä¹łè¿ĳå¹³æĸ°æĹ¶ä»£ä¸ŃåĽ½çī¹èī²ç¤¾ä¼ļä¸»ä¹īæĢĿæĥ³": 6332,
      "æ¦Ĥæĭ¬": 6333,
      "å®ĪæĬ¤ä»£": 6334,
      "å±ı": 6335,
      "ĠÃĹ": 6336,
      "è´Łæĭħ": 6337,
      "Ġday": 6338,
      "æ°ıå®¶èĩ£": 6339,
      "æ·Ģ": 6340,
      "éĺ²æ²»": 6341,
      "æľīæĿĥ": 6342,
      "Ġexposure": 6343,
      "æ°ĳä¼Ĺ": 6344,
      "éķ¿åŃĲ": 6345,
      "åħļçļĦåįģåħ«å¤§": 6346,
      "å¤·": 6347,
      "ä¸»å¸Ń": 6348,
      "è¯Ŀè¯Ń": 6349,
      "ç®Ģç§°": 6350,
      "IC": 6351,
      "mission": 6352,
      "æ·»": 6353,
      "Ġproliferation": 6354,
      "orders": 6355,
      "çĽ´åĪ°": 6356,
      "ĠPD": 6357,
      "éĢļéģĵ": 6358,
      "æľªæĪĲå¹´": 6359,
      "æĬ¢": 6360,
      "æĻ´ä¿¡": 6361,
      "85": 6362,
      "Ġinclude": 6363,
      "èº«ä½ĵ": 6364,
      "ç©·": 6365,
      "åıĳå±ķåĴĮ": 6366,
      "æ³ķåĽ½": 6367,
      "èµ¤æĿ¾": 6368,
      "ds": 6369,
      "å¿§": 6370,
      "GT": 6371,
      "åıł": 6372,
      "æĪĲåĪĨ": 6373,
      "æľĢä¸º": 6374,
      "åŀĤ": 6375,
      "äºĭå®ŀä¸Ĭ": 6376,
      "é¬¼": 6377,
      "æľ¬äºº": 6378,
      "è°ĥè§£": 6379,
      "è½¬åĮĸä¸º": 6380,
      "æ¶¨": 6381,
      "Ġhep": 6382,
      "å°ĳå¹´": 6383,
      "æ°ĳçĶŁ": 6384,
      "Ġadminist": 6385,
      "çĤ¹çļĦ": 6386,
      "å®Ļ": 6387,
      "Ġflow": 6388,
      "2022": 6389,
      "Ġhelp": 6390,
      "éĺ²èĮĥ": 6391,
      "å¤ļå¹´": 6392,
      "ĠNo": 6393,
      "åº¶": 6394,
      "Ġindicated": 6395,
      "å¼ıçļĦ": 6396,
      "éļĨæĻ¯": 6397,
      "æ´»æĢ§": 6398,
      "pone": 6399,
      "åħ¶åĲİ": 6400,
      "æ´ª": 6401,
      "Ġcytok": 6402,
      "è¿Ľåı£": 6403,
      "ä¸ĭæĿ¥": 6404,
      "Ġresistance": 6405,
      "æĤ¬": 6406,
      "Ġstrain": 6407,
      "ina": 6408,
      "åĳ¨åĽ´": 6409,
      "åĴ¨": 6410,
      "ä¸ĭåĪĹ": 6411,
      "è¿Ļæ¬¡": 6412,
      "æĲº": 6413,
      "å»¶ç»Ń": 6414,
      "æ²»çĲĨä½ĵç³»": 6415,
      "Ġdeveloped": 6416,
      "çļĦåĽ½å®¶": 6417,
      "åĲĪå¹¶": 6418,
      "çļĦçĽ®çļĦ": 6419,
      "Ġä¸ī": 6420,
      "åı¤æ²³": 6421,
      "Ġproble": 6422,
      "Ġproced": 6423,
      "very": 6424,
      "gi": 6425,
      "ĠPh": 6426,
      "èĥĮæĻ¯ä¸ĭ": 6427,
      "posed": 6428,
      "å¤§åŀĭ": 6429,
      "89": 6430,
      "è¾Ł": 6431,
      "Ġcount": 6432,
      "eutic": 6433,
      "åĮºçļĦ": 6434,
      "æīĢéľĢ": 6435,
      "Ġhypothe": 6436,
      "Ġstatus": 6437,
      "Ġpul": 6438,
      "è¾©è¯ģ": 6439,
      "rial": 6440,
      "åħ±åĲĮå¯Įè£ķ": 6441,
      "æħİ": 6442,
      "è®³": 6443,
      "Ġcri": 6444,
      "å½°": 6445,
      "è¾Ĳå°Ħ": 6446,
      "MO": 6447,
      "Ġcause": 6448,
      "ä¸²": 6449,
      "ĠII": 6450,
      "ä¸Ģä½ĵåĮĸ": 6451,
      "clusion": 6452,
      "çļĦä¸ŃåĽ½": 6453,
      "æĢķ": 6454,
      "Ġpercent": 6455,
      "éĢļç§°": 6456,
      "çļĦç²¾ç¥ŀ": 6457,
      "Ġfocus": 6458,
      "è®¤è¯ģ": 6459,
      "æĺ¾çĦ¶": 6460,
      "Ġexperi": 6461,
      "ä¸įåı¯èĥ½": 6462,
      "è¶ħè¶Ĭ": 6463,
      "åįĪ": 6464,
      "Ġinjury": 6465,
      "Ġleast": 6466,
      "å¹¶å°Ĩ": 6467,
      "åģļæ³ķ": 6468,
      "ä¾Ŀæ³ķæ²»": 6469,
      "ä¸Ģå¸¦ä¸Ģè·¯": 6470,
      "Ġvitro": 6471,
      "Ġlife": 6472,
      "åĲĹ": 6473,
      "å¸¦åĬ¨": 6474,
      "ople": 6475,
      "Ġoutcomes": 6476,
      "é£İæł¼": 6477,
      "çĶ°æ°ı": 6478,
      "Ġglucose": 6479,
      "Ġbel": 6480,
      "ä¸īéĥİ": 6481,
      "å·¨å¤§çļĦ": 6482,
      "çĪ±åĽ½": 6483,
      "Ġtrain": 6484,
      "2013": 6485,
      "è®¤çľŁ": 6486,
      "ended": 6487,
      "ä¾µå®³": 6488,
      "å§Ķä¼ļ": 6489,
      "æ¸ħæĻ°": 6490,
      "æĮĩå®ļ": 6491,
      "dependent": 6492,
      "74": 6493,
      "åıĳçĶµ": 6494,
      "ĠMore": 6495,
      "æĴŃç£¨": 6496,
      "plications": 6497,
      "æľįåĬ¡åĻ¨": 6498,
      "Ġyo": 6499,
      "ogene": 6500,
      "è§Ī": 6501,
      "è®¤åı¯": 6502,
      "93": 6503,
      "å®ĩå®Ļ": 6504,
      "æĸ°ä¸ŃåĽ½": 6505,
      "Ġpressure": 6506,
      "ĠĊ": 6507,
      "çļĦå®¶èĩ£": 6508,
      "Ġinteg": 6509,
      "ä¿¡æģ¯çļĦ": 6510,
      "ably": 6511,
      "Ġestab": 6512,
      "æ³·": 6513,
      "æĭį": 6514,
      "çĸı": 6515,
      "é«ĺçŃīæķĻèĤ²": 6516,
      "æĥħå¢ĥ": 6517,
      "åĪĨå·¥": 6518,
      "æĽ¾ç»ı": 6519,
      "Ġlines": 6520,
      "æ°¸ä¹ħ": 6521,
      "éļıæľº": 6522,
      "åĬ¨åĳĺ": 6523,
      "æī¾åĪ°": 6524,
      "Ġregions": 6525,
      "ters": 6526,
      "æĦıè¯Ĩå½¢æĢģ": 6527,
      "æĥħèĬĤ": 6528,
      "ç»ĵæŀĦçļĦ": 6529,
      "EP": 6530,
      "è¯Ńæĸĩ": 6531,
      "æĽ´æĺ¯": 6532,
      "è°ĪåĪ¤": 6533,
      "åıĺå¾Ĺ": 6534,
      "Ġarea": 6535,
      "roc": 6536,
      "æ¡£æ¡Ī": 6537,
      "è¾Ĩ": 6538,
      "Ġtechni": 6539,
      "Ġstate": 6540,
      "åĬłèĹ¤": 6541,
      "æ¶ĪçģŃ": 6542,
      "å¾Īéļ¾": 6543,
      "å¦ĩå¥³": 6544,
      "è¯¹è®¿": 6545,
      "çĶ¨æĿ¥": 6546,
      "è¹": 6547,
      "æ¼Ķåıĺ": 6548,
      "åĢºæĿĥäºº": 6549,
      "tosis": 6550,
      "æ°´åĨĽ": 6551,
      "ĠRe": 6552,
      "MT": 6553,
      "åħļåĴĮåĽ½å®¶": 6554,
      "ĠOn": 6555,
      "Ġvia": 6556,
      "æīĢç¤º": 6557,
      "èĥİ": 6558,
      "ĠEn": 6559,
      "Ġvery": 6560,
      "åľ°åĿĢ": 6561,
      "æĪĴ": 6562,
      "æĲŃ": 6563,
      "Ġrequired": 6564,
      "ices": 6565,
      "æŃ¦è£ħ": 6566,
      "å®½æ°¸": 6567,
      "å»ºç«ĭäºĨ": 6568,
      "æľºéģĩ": 6569,
      "åıĳèĤ²": 6570,
      "Ġinflammatory": 6571,
      "åĴĮå®ŀè·µ": 6572,
      "èħĶ": 6573,
      "éĢĤçĶ¨äºİ": 6574,
      "Ġrange": 6575,
      "é¦Ī": 6576,
      "çķ´": 6577,
      "æĭĨ": 6578,
      "åĨľäº§åĵģ": 6579,
      "vant": 6580,
      "å¾ģæĶ¶": 6581,
      "èĢģå¸Ī": 6582,
      "Ġmuscle": 6583,
      "è£ģåĪ¤": 6584,
      "éº¦": 6585,
      "æĴ¤éĶĢ": 6586,
      "ç»Łä¸ĢçļĦ": 6587,
      "Ġcellular": 6588,
      "ength": 6589,
      "åĩĿèģļ": 6590,
      "owled": 6591,
      "å¤§åĽ½": 6592,
      "äººæĸĩ": 6593,
      "ç«ĭè¶³": 6594,
      "åħ¬çĽĬ": 6595,
      "aneous": 6596,
      "Ġthem": 6597,
      "åģľæŃ¢": 6598,
      "æīĵåĩ»": 6599,
      "Ġformation": 6600,
      "ä¹īå¼ĺ": 6601,
      "æ¼«": 6602,
      "Ġsevere": 6603,
      "Ġgeneral": 6604,
      "é¡ºåĪ©": 6605,
      "åħŃå¹´": 6606,
      "å¹¸ç¦ı": 6607,
      "cript": 6608,
      "æľĢæĹ©": 6609,
      "åĲ«ä¹ī": 6610,
      "ä»ħä»ħ": 6611,
      "æ³¥": 6612,
      "çķĻä¸ĭ": 6613,
      "éĵ¸": 6614,
      "etal": 6615,
      "ä½İäºİ": 6616,
      "å¤įæĿĤçļĦ": 6617,
      "Ġorder": 6618,
      "æķıæĦŁ": 6619,
      "éĺ¿æ³¢": 6620,
      "çİ¯ä¿Ŀ": 6621,
      "åĽ½å¤ĸ": 6622,
      "çº¿æĢ§": 6623,
      "çļĦæŃ¦å°Ĩ": 6624,
      "zym": 6625,
      "text": 6626,
      "åĿ¦": 6627,
      "æĮĸæİĺ": 6628,
      "è®²è¯Ŀ": 6629,
      "Ġmembrane": 6630,
      "çŁ³çĶ°ä¸īæĪĲ": 6631,
      "çĽ¸åıį": 6632,
      "Â±": 6633,
      "è®°å¿Ĩ": 6634,
      "ç½ĳç»ľå®īåħ¨": 6635,
      "Ġhowever": 6636,
      "Ġpain": 6637,
      "ä¹īæĺŃ": 6638,
      "Ġbenef": 6639,
      "çļĦé£İéĻ©": 6640,
      "Ġ25": 6641,
      "æĤŁ": 6642,
      "æĬķèµĦèĢħ": 6643,
      "æĶ¿åħļ": 6644,
      "å¸ĿåĽ½": 6645,
      "Ġsyndrom": 6646,
      "Ġequ": 6647,
      "éĺĲè¿°": 6648,
      "åľ°åŁŁ": 6649,
      "ä¸ĵé¡¹": 6650,
      "åľ°æĸ¹æĶ¿åºľ": 6651,
      "more": 6652,
      "åĪ°è¾¾": 6653,
      "ä»£è°¢": 6654,
      "Ġbacter": 6655,
      "æĽ´é«ĺ": 6656,
      "çļĦæĸĩåĮĸ": 6657,
      "æŀģå¤§": 6658,
      "åŀ£": 6659,
      "æ¸ĹéĢı": 6660,
      "mic": 6661,
      "åĴ¨è¯¢": 6662,
      "ç¤¾ä¼ļç§ĳåŃ¦": 6663,
      "ç¬¬äºĮæ¬¡": 6664,
      "ä¸įæ»¡": 6665,
      "ç¬¦åı·": 6666,
      "æ°ĳæ³ķåħ¸": 6667,
      "æĮĩåįĹ": 6668,
      "Ch": 6669,
      "opath": 6670,
      "Ġacross": 6671,
      "èĬ¯": 6672,
      "ĠIg": 6673,
      "åħ«æľĪ": 6674,
      "å¯¸": 6675,
      "Ġpathways": 6676,
      "çİ°åľº": 6677,
      "æĬĹæĹ¥": 6678,
      "Ġratio": 6679,
      "ä¿ĿåŃĺ": 6680,
      "è¢«è¿«": 6681,
      "è¿ĽåĨĽ": 6682,
      "å°ıç¬łåİŁ": 6683,
      "æĪ¿åľ°äº§": 6684,
      "åĢºåĪ¸": 6685,
      "çĴ": 6686,
      "ç¿»è¯ĳ": 6687,
      "fn": 6688,
      "éĹ²": 6689,
      "ãģ«": 6690,
      "ç¿¼": 6691,
      "é«ĵ": 6692,
      "æī¿è¯º": 6693,
      "å®ŀæĹ¶": 6694,
      "åĪĨåī²": 6695,
      "åİħ": 6696,
      "ĠCA": 6697,
      "Ġlink": 6698,
      "Ġdam": 6699,
      "çİĩåĨĽ": 6700,
      "æĪ´": 6701,
      "Ġplasma": 6702,
      "åĳ¼åĲ¸": 6703,
      "agement": 6704,
      "ä¹Łå°±": 6705,
      "å¹²æī°": 6706,
      "tality": 6707,
      "ä¸įèī¯": 6708,
      "åĵģè´¨": 6709,
      "è½½ä½ĵ": 6710,
      "æĸĩèīº": 6711,
      "æĪĲæķĪ": 6712,
      "æĺ¯ä»Ģä¹Ī": 6713,
      "èµµ": 6714,
      "ison": 6715,
      "çļĦæķĻèĤ²": 6716,
      "æĿ°": 6717,
      "åłĨ": 6718,
      "ç©ºæ°Ķ": 6719,
      "PCR": 6720,
      "ä¸ĭä»¤": 6721,
      "ĠBi": 6722,
      "è¾ĥä½İ": 6723,
      "2012": 6724,
      "èĩ³äºİ": 6725,
      "ç«ŀäºīåĬĽ": 6726,
      "ray": 6727,
      "DS": 6728,
      "ä¾¯": 6729,
      "ä¼¼ä¹İ": 6730,
      "é¢ģå¸ĥ": 6731,
      "normal": 6732,
      "æľ¬ä¹¦": 6733,
      "ĠCom": 6734,
      "èĽĭçĻ½è´¨": 6735,
      "èģĶçĽŁ": 6736,
      "300": 6737,
      "èĤĥ": 6738,
      "ä½İç¢³": 6739,
      "ä½Ĳä¹ħ": 6740,
      "çĽĳæİ§": 6741,
      "è§Ĥæµĭ": 6742,
      "ä¸Ģé¡¹": 6743,
      "ä¼°è®¡": 6744,
      "ç¡¬ä»¶": 6745,
      "æĺİæ²»": 6746,
      "èĮĥçķ´": 6747,
      "like": 6748,
      "çº³ç¨İ": 6749,
      "å¾¡æīĢ": 6750,
      "âĳ¢": 6751,
      "æĶ¿çļĦ": 6752,
      "Ġacute": 6753,
      "è¯´æĺ¯": 6754,
      "åħĦéķ¿": 6755,
      "ä¸İåħ¶ä»ĸ": 6756,
      "ognitive": 6757,
      "åī¥": 6758,
      "å¯Ĵ": 6759,
      "èĥ¸": 6760,
      "æĿ¡ä»¶çļĦ": 6761,
      "åĿ¡": 6762,
      "ä¸»ä»»": 6763,
      "åįłæľī": 6764,
      "æŃ£å®¤": 6765,
      "Ġfamily": 6766,
      "Ġproduc": 6767,
      "Ġbehavior": 6768,
      "åĽ¾ä¹¦": 6769,
      "å¯Ĩåº¦": 6770,
      "An": 6771,
      "æĢĿæĥ³æĶ¿æ²»": 6772,
      "plant": 6773,
      "çłĶç©¶æīĢ": 6774,
      "åıįæĺłäºĨ": 6775,
      "struc": 6776,
      "åıĸä»£": 6777,
      "æ¸¸æĪı": 6778,
      "æĹģ": 6779,
      "åľ¨ä¸Ģèµ·": 6780,
      "çĽ¸ç»§": 6781,
      "Ġdose": 6782,
      "åłµ": 6783,
      "æ³ķå®ĺ": 6784,
      "Ġ95": 6785,
      "åı¦ä¸Ģä¸ª": 6786,
      "otherapy": 6787,
      "è·ĳ": 6788,
      "ç¬¼": 6789,
      "Ġhealthy": 6790,
      "è¡ĮæĶ¿æľºåħ³": 6791,
      "unction": 6792,
      "äº§çī©": 6793,
      "Ġeven": 6794,
      "åŃ¦ä¼ļ": 6795,
      "æīĢæľīæĿĥ": 6796,
      "å±ĢéĻĲ": 6797,
      "96": 6798,
      "ç®±": 6799,
      "rogen": 6800,
      "ä¿¡å¿µ": 6801,
      "ä¾µçĬ¯": 6802,
      "æĬļ": 6803,
      "æ±ĩçİĩ": 6804,
      "ç¼ĸè¾ĳ": 6805,
      "æīĢæľīçļĦ": 6806,
      "å¨¶": 6807,
      "åĬŀåħ¬": 6808,
      "Ġoften": 6809,
      "æĶ¿çŃĸçļĦ": 6810,
      "æ¯Ķéĩį": 6811,
      "æĹłäºº": 6812,
      "èĪĨ": 6813,
      "ĠThus": 6814,
      "Ġsurface": 6815,
      "Ġrandom": 6816,
      "BM": 6817,
      "ä¹ĿæľĪ": 6818,
      "inant": 6819,
      "ç¦ıå²Ľ": 6820,
      "Ġquality": 6821,
      "ours": 6822,
      "ĠThere": 6823,
      "ä¾Ŀæīĺ": 6824,
      "æĳĺ": 6825,
      "ä¸īç§į": 6826,
      "æĹ¥èµ·": 6827,
      "ĠResearch": 6828,
      "oy": 6829,
      "äººè´¨": 6830,
      "çļĦè¿ĩç¨ĭä¸Ń": 6831,
      "æŃ¦åĻ¨": 6832,
      "æŃ§": 6833,
      "ç¨³å®ļçļĦ": 6834,
      "aps": 6835,
      "è¯´çļĦ": 6836,
      "trans": 6837,
      "åĶ¯çī©": 6838,
      "Ġbar": 6839,
      "è¿Ľè¡ĮçļĦ": 6840,
      "Ġmen": 6841,
      "åĪ©å®¶": 6842,
      "ä»¥ä¸ĬçļĦ": 6843,
      "æĦıåĽ¾": 6844,
      "èĦ±ç¦»": 6845,
      "ĠCO": 6846,
      "é¡ºåºı": 6847,
      "æĸ¹ä½į": 6848,
      "è¯ŀçĶŁ": 6849,
      "èĢģå¹´": 6850,
      "æīĭæľ¯": 6851,
      "GDP": 6852,
      "Ġscore": 6853,
      "çī©èģĶç½ĳ": 6854,
      "Ġconcentr": 6855,
      "åħ¶å®ĥ": 6856,
      "ä¹ĭæīĢä»¥": 6857,
      "Ġill": 6858,
      "çł´äº§": 6859,
      "ta": 6860,
      "æį·": 6861,
      "1000": 6862,
      "åıĺåĬ¨": 6863,
      "èķ´": 6864,
      "é«ĺéĢŁ": 6865,
      "æıĲèµ·": 6866,
      "å®ĥæĺ¯": 6867,
      "è¿Ĳä½ľ": 6868,
      "å¾·å·Ŀå®¶": 6869,
      "åĵģçīĮ": 6870,
      "åıĤæĪĺ": 6871,
      "è£ħç½®": 6872,
      "Ġaim": 6873,
      "enter": 6874,
      "Ġepithe": 6875,
      "å¯¹æĸ¹": 6876,
      "ography": 6877,
      "Ĉą": 6878,
      "cence": 6879,
      "äºĶæľĪ": 6880,
      "Ġprogression": 6881,
      "å¾®çĶŁçī©": 6882,
      "ä¾¿æĺ¯": 6883,
      "çł¦": 6884,
      "åĩºèµĦ": 6885,
      "æĴ°": 6886,
      "mm": 6887,
      "åĪĨæķ£": 6888,
      "PC": 6889,
      "éĹ´æİ¥": 6890,
      "Ġincub": 6891,
      "Ġleft": 6892,
      "çķħ": 6893,
      "Ġfrequency": 6894,
      "Ġprovided": 6895,
      "å°ī": 6896,
      "ware": 6897,
      "Ġinflammation": 6898,
      "Ġdisorders": 6899,
      "äºĴçĽ¸": 6900,
      "IN": 6901,
      "æķĮåĨĽ": 6902,
      "åĲĪçĲĨçļĦ": 6903,
      "æľīåı¯èĥ½": 6904,
      "åĩºäºĳ": 6905,
      "å¿ħè¦ģçļĦ": 6906,
      "Ġrevealed": 6907,
      "æĦŁçŁ¥": 6908,
      "Ġprior": 6909,
      "æĻ´åħĥ": 6910,
      "åĲİèĢħ": 6911,
      "ä¸īæľĪ": 6912,
      "ç§įç±»": 6913,
      "æµĵåº¦": 6914,
      "åĽŀåĪ°": 6915,
      "Ġç¬¬äºĮ": 6916,
      "Ġol": 6917,
      "Ġcharacteristics": 6918,
      "ä¸ĬæĿīæ°ı": 6919,
      "ä¸¤èĢħ": 6920,
      "Ġstage": 6921,
      "Ġenc": 6922,
      "éĩĩéĽĨ": 6923,
      "åı¯èĥ½æĢ§": 6924,
      "Ġcarcin": 6925,
      "Ġcorrelation": 6926,
      "çŃīéĹ®é¢ĺ": 6927,
      "äº¤åıī": 6928,
      "åıĳæĺİ": 6929,
      "çŃĴ": 6930,
      "ances": 6931,
      "é¢Ī": 6932,
      "æĽ²çº¿": 6933,
      "87": 6934,
      "è¾Ľ": 6935,
      "å¾ĭå¸Ī": 6936,
      "éĩĮè§ģ": 6937,
      "ä¹ĭå½¹": 6938,
      "æİ¥åı£": 6939,
      "ring": 6940,
      "è¡į": 6941,
      "èµ·è¯ī": 6942,
      "å¤§åŃ¦çĶŁ": 6943,
      "æĤ²": 6944,
      "put": 6945,
      "äººæł¼": 6946,
      "86": 6947,
      "éºŁ": 6948,
      "çļĦåŃ¦ä¹ł": 6949,
      "åĩ»éĢĢ": 6950,
      "ç¾İå¥½": 6951,
      "è¿Ļå°±æĺ¯": 6952,
      "åĲ¨": 6953,
      "Ġdifferentiation": 6954,
      "DM": 6955,
      "ä¹Łè¦ģ": 6956,
      "ä»¥ä¸º": 6957,
      "æ³¡": 6958,
      "2010": 6959,
      "æºĲäºİ": 6960,
      "ä¸ĥæľĪ": 6961,
      "Ġweight": 6962,
      "Ġinhibition": 6963,
      "éŃı": 6964,
      "å±¡": 6965,
      "æĸ°æĬĢæľ¯": 6966,
      "èĳ£äºĭ": 6967,
      "éĢļè¿ĩå¯¹": 6968,
      "å¦¥": 6969,
      "åĢŁåĬ©": 6970,
      "Ġreport": 6971,
      "æĢĿæĶ¿": 6972,
      "é¢ĩ": 6973,
      "éĥ½ä¼ļ": 6974,
      "åĨįåº¦": 6975,
      "Ġeffective": 6976,
      "åĨįçĶŁ": 6977,
      "Ġadditional": 6978,
      "Ġphase": 6979,
      "å®¶ä¸Ń": 6980,
      "åħŃæľĪ": 6981,
      "Ġvalid": 6982,
      "å¤¹": 6983,
      "åĽ¢ä½ĵ": 6984,
      "ä¿¡éķ¿çļĦ": 6985,
      "âĢ¢": 6986,
      "ä¸ĢéĹ¨": 6987,
      "åĲİä¸ĸ": 6988,
      "èģĺ": 6989,
      "ĠAc": 6990,
      "Ġpublic": 6991,
      "èĥ½åĬĽåĴĮ": 6992,
      "ä¿®è®¢": 6993,
      "Ġconcentration": 6994,
      "å°ĸ": 6995,
      "ä»Ĭå·Ŀä¹īåħĥ": 6996,
      "éģµå®Ī": 6997,
      "ochem": 6998,
      "ä¸įå¾Ĺä¸į": 6999,
      "ç§Ģèµĸ": 7000,
      "æİ¨è¡Į": 7001,
      "Ġmortality": 7002,
      "äºĨå¯¹": 7003,
      "Ġpresented": 7004,
      "è¡Ķæİ¥": 7005,
      "utes": 7006,
      "Ġscreen": 7007,
      "åľºæīĢ": 7008,
      "èħĲè´¥": 7009,
      "çªģåıĺ": 7010,
      "çłĶç©¶äººåĳĺ": 7011,
      "Ġimpact": 7012,
      "æİ¨èįĲ": 7013,
      "éĤĢ": 7014,
      "Ġdefined": 7015,
      "Ġability": 7016,
      "æ©": 7017,
      "ä¹ĭå¤Ħ": 7018,
      "æīĢè¿°": 7019,
      "idem": 7020,
      "çľĭæĿ¥": 7021,
      "ç¨Ļ": 7022,
      "åľ¨åħ¶": 7023,
      "çļĦéĩįå¤§": 7024,
      "ĠSci": 7025,
      "Ġdat": 7026,
      "iat": 7027,
      "Ġapoptosis": 7028,
      "94": 7029,
      "owledge": 7030,
      "æĸ¥": 7031,
      "ç²Ĺ": 7032,
      "tice": 7033,
      "èĤ¡ç¥¨": 7034,
      "æľįåĬ¡ä¸ļ": 7035,
      "çļĦè®¤è¯Ĩ": 7036,
      "æ¯ıä¸Ģä¸ª": 7037,
      "ä¹īéļĨ": 7038,
      "çº¢èī²": 7039,
      "Ġwhereas": 7040,
      "æĢ»éĩı": 7041,
      "æĬ¥éģĵ": 7042,
      "æĻ®åıĬ": 7043,
      "æĢ§ä¸İ": 7044,
      "roscop": 7045,
      "92": 7046,
      "éĤ£æł·": 7047,
      "èį¯åĵģ": 7048,
      "èģĶåĲĪåĽ½": 7049,
      "åįłæį®": 7050,
      "çº³ç±³": 7051,
      "As": 7052,
      "Ġz": 7053,
      "å°ıå¹³": 7054,
      "Ġder": 7055,
      "ä¸ĥå¹´": 7056,
      "çļĦåĪ¶åº¦": 7057,
      "å¾Īå¿«": 7058,
      "åŁİä¹ĭæĪĺ": 7059,
      "å·¡": 7060,
      "åħ¬éĩĮ": 7061,
      "åİĨç¨ĭ": 7062,
      "AB": 7063,
      "æ»¤": 7064,
      "åįıä½ľ": 7065,
      "aking": 7066,
      "Ġassessed": 7067,
      "çİ°ä»£åĮĸçļĦ": 7068,
      "çļĦä¸Ń": 7069,
      "è¯ł": 7070,
      "Ġâī": 7071,
      "æ³ķåŃ¦": 7072,
      "Ġpeople": 7073,
      "æŁĲä¸Ģ": 7074,
      "ä¸įæĺİ": 7075,
      "ä¸§å¤±": 7076,
      "æĬ«": 7077,
      "Ġu": 7078,
      "äºĶéĥİ": 7079,
      "æĭħå½ĵ": 7080,
      "åºĹ": 7081,
      "SCs": 7082,
      "Ġrates": 7083,
      "æµĻæ±Ł": 7084,
      "æľĢé«ĺäººæ°ĳæ³ķéĻ¢": 7085,
      "itation": 7086,
      "éĺ¶å±Ĥ": 7087,
      "æķ´çĲĨ": 7088,
      "Ġimages": 7089,
      "æľĹ": 7090,
      "å°±åı¯ä»¥": 7091,
      "æĻĵ": 7092,
      "å°§": 7093,
      "åħ¨çĲĥåĮĸ": 7094,
      "åıĳå°Ħ": 7095,
      "des": 7096,
      "ocol": 7097,
      "material": 7098,
      "SS": 7099,
      "supplementary": 7100,
      "çľŁçĲĨ": 7101,
      "ĠAlthough": 7102,
      "Ġtherapeutic": 7103,
      "ä¹ĭå¼Ł": 7104,
      "æį®çĤ¹": 7105,
      "èĵĦ": 7106,
      "çĶ¨åľ°": 7107,
      "çļĦç®¡çĲĨ": 7108,
      "Ġx": 7109,
      "ether": 7110,
      "ç¬¬ä¸ĥ": 7111,
      "è¶Ĭä¸Ń": 7112,
      "âĨ": 7113,
      "æĮĩä»¤": 7114,
      "Ġrelative": 7115,
      "ij": 7116,
      "åħ¨è¿ĩç¨ĭ": 7117,
      "çº½": 7118,
      "æĿľ": 7119,
      "Ġcriter": 7120,
      "åĽ½éĺ²": 7121,
      "é¦ĸçº§": 7122,
      "ä¸ºä¾ĭ": 7123,
      "èĲ¥éĢł": 7124,
      "å·²æľī": 7125,
      "To": 7126,
      "plied": 7127,
      "çļĦåĬŁèĥ½": 7128,
      "å¤«å¦»": 7129,
      "Ġdetect": 7130,
      "é¢ľ": 7131,
      "å½ĵæĹ¶çļĦ": 7132,
      "éº¾ä¸ĭ": 7133,
      "çĽĪ": 7134,
      "HC": 7135,
      "cher": 7136,
      "åŃĺåľ¨çĿĢ": 7137,
      "åıįå¤į": 7138,
      "ä¹łè¿ĳå¹³åĲĮå¿Ĺ": 7139,
      "å¤§æ°Ķ": 7140,
      "Ġcoh": 7141,
      "å«Į": 7142,
      "è§Ĩè§ī": 7143,
      "æľīæĹ¶": 7144,
      "çļĦæł¹æľ¬": 7145,
      "Ġexamined": 7146,
      "çº·çº·": 7147,
      "å®¡ç¾İ": 7148,
      "å¼ĢåĪĽ": 7149,
      "ĠCon": 7150,
      "å°Ŀè¯ķ": 7151,
      "è´§çī©": 7152,
      "Ġfollowed": 7153,
      "æķĮäºº": 7154,
      "èľĤ": 7155,
      "ML": 7156,
      "ä¸īå¤§": 7157,
      "å¤§éĩıçļĦ": 7158,
      "ession": 7159,
      "ressing": 7160,
      "éĵģè·¯": 7161,
      "Ġweeks": 7162,
      "Ġaffect": 7163,
      "äº¤å¾Ģ": 7164,
      "çĻ¾åĪĨ": 7165,
      "æ··ä¹±": 7166,
      "åħļçļĦåįģåħ«å¤§ä»¥æĿ¥": 7167,
      "ä¸įåıĺ": 7168,
      "åĨħåŃĺ": 7169,
      "Ġgiven": 7170,
      "çŁŃæľŁ": 7171,
      "èĩªèº«çļĦ": 7172,
      "ĠInstit": 7173,
      "ler": 7174,
      "Ġlarg": 7175,
      "ä½ĽæķĻ": 7176,
      "ocyte": 7177,
      "åĬĽåĴĮ": 7178,
      "æ¬¡éĥİ": 7179,
      "å®£å¸ĥ": 7180,
      "è¿·": 7181,
      "order": 7182,
      "æłĩåĩĨåĮĸ": 7183,
      "æ£®æŀĹ": 7184,
      "ç»³": 7185,
      "Ġvacc": 7186,
      "å¤ĸåĽ½": 7187,
      "å¥´": 7188,
      "è¾ĥé«ĺ": 7189,
      "èµĸæľĿ": 7190,
      "äººæķ°": 7191,
      "èĢĮéĿŀ": 7192,
      "äºĨä¸ŃåĽ½": 7193,
      "å¼ºå¤§çļĦ": 7194,
      "èĢĥåı¤": 7195,
      "èģļçĦ¦": 7196,
      "åħ¬å¸ĥ": 7197,
      "ateral": 7198,
      "éĩįå»º": 7199,
      "ç¬¬ä¸ĢèĬĤ": 7200,
      "æŃ£ç¡®çļĦ": 7201,
      "å°ıæĹ¶": 7202,
      "åı¯æĮģç»Ńåıĳå±ķ": 7203,
      "æ¬º": 7204,
      "ĠUSA": 7205,
      "Ġcur": 7206,
      "ĠTherefore": 7207,
      "åĮ¹éħį": 7208,
      "ĠOur": 7209,
      "æŃ¦çĶ°èĥľèµĸ": 7210,
      "ereb": 7211,
      "å¹´è½»": 7212,
      "å¦Ĥä»Ĭ": 7213,
      "æĥħç»ª": 7214,
      "äººç¾¤": 7215,
      "èĥ½åĲ¦": 7216,
      "æĪĳä»¬è¦ģ": 7217,
      "äººæ°ĳä»£è¡¨å¤§ä¼ļ": 7218,
      "å¤§èĩ£": 7219,
      "åĩºä»ķ": 7220,
      "åĴĮå®ĮåĸĦ": 7221,
      "ä½Ĳä½Ĳ": 7222,
      "ä»·åĢ¼çļĦ": 7223,
      "è½¨éģĵ": 7224,
      "ĠCell": 7225,
      "èĤ¡ä»½": 7226,
      "äº¦æľī": 7227,
      "åıĪç§°": 7228,
      "ä¿®æŃ£": 7229,
      "Ġax": 7230,
      "ĠInt": 7231,
      "èµĲè±«": 7232,
      "èĪªå¤©": 7233,
      "åįģæľĪ": 7234,
      "ä¸¹æ³¢": 7235,
      "itis": 7236,
      "èĲ¥éĶĢ": 7237,
      "é¢Ĩæľī": 7238,
      "pri": 7239,
      "Ġpreval": 7240,
      "ç´«": 7241,
      "éĩįçļĦ": 7242,
      "ä½ıæĪ¿": 7243,
      "Ġsocial": 7244,
      "Ġrecent": 7245,
      "arc": 7246,
      "Ġviral": 7247,
      "Ġindicate": 7248,
      "gl": 7249,
      "Ġsuc": 7250,
      "Ġgreater": 7251,
      "æķ°é¢Ŀ": 7252,
      "çĽĹ": 7253,
      "æĹ¶ä»£çļĦæŃ¦å°Ĩ": 7254,
      "éĿ¶": 7255,
      "ç§ĳåŃ¦å®¶": 7256,
      "æīĵçł´": 7257,
      "æĽ¼": 7258,
      "ç¨³å®ļæĢ§": 7259,
      "97": 7260,
      "éĤ¸": 7261,
      "è§Ĩé¢ĳ": 7262,
      "å¤§å¤ļ": 7263,
      "ĈĆ": 7264,
      "æĥ¨": 7265,
      "åĨĻä½ľ": 7266,
      "åħĥåĴĮ": 7267,
      "åŁĭ": 7268,
      "ç»ĵåŁİ": 7269,
      "åįķçĭ¬": 7270,
      "éĽĩ": 7271,
      "äº¤äºĴ": 7272,
      "å±Ī": 7273,
      "å¯»æī¾": 7274,
      "Ġvolume": 7275,
      "æľ¬éĺµ": 7276,
      "è¾¹ç¼ĺ": 7277,
      "Ġkey": 7278,
      "Ġfem": 7279,
      "Ġhospital": 7280,
      "iciency": 7281,
      "åĴĮè§£": 7282,
      "çģ°": 7283,
      "æĺ¯ä»İ": 7284,
      "çĽ®çļĦæĺ¯": 7285,
      "çļĦä¸įåĲĮ": 7286,
      "ool": 7287,
      "å¾Ĳ": 7288,
      "ĠÎ²": 7289,
      "Ġdistribution": 7290,
      "åıįé¦Ī": 7291,
      "Ġlack": 7292,
      "å¤ļæł·æĢ§": 7293,
      "NO": 7294,
      "æľīæķĪåľ°": 7295,
      "æĹ¨åľ¨": 7296,
      "æº¯": 7297,
      "ç¢ĳ": 7298,
      "åŃĲå¥³": 7299,
      "ç¨Ģ": 7300,
      "å®ŀçİ°ä¸Ńåįİæ°ĳæĹıä¼Łå¤§å¤įåħ´": 7301,
      "ä¸°åĲİ": 7302,
      "äººåĴĮ": 7303,
      "æ¡Ĥ": 7304,
      "ressive": 7305,
      "å»¶ä¼¸": 7306,
      "çĶµæµģ": 7307,
      "åľŁä½Ĳ": 7308,
      "Ġproper": 7309,
      "Î³": 7310,
      "æ¿Ģæ´»": 7311,
      "Ġsensitivity": 7312,
      "Ġbetter": 7313,
      "Ġsyndrome": 7314,
      "ç½Ĺæĸ¯": 7315,
      "è¶³å¤Ł": 7316,
      "åĽ½æĥħ": 7317,
      "åĲ¦åĪĻ": 7318,
      "Ġconducted": 7319,
      "æ°Ķä½ĵ": 7320,
      "æ¬§çĽŁ": 7321,
      "æ¡¶": 7322,
      "Ġreceptors": 7323,
      "åĬ¨ä½ľ": 7324,
      "éĶĲ": 7325,
      "åŃĲåŃĻ": 7326,
      "çļĦå®īåħ¨": 7327,
      "åĬłå¼ºå¯¹": 7328,
      "åį°åº¦": 7329,
      "Ġanimals": 7330,
      "ä¹ĥèĩ³": 7331,
      "aff": 7332,
      "Ġincreasing": 7333,
      "å¹¶äºİ": 7334,
      "çĶµåİĭ": 7335,
      "ä¼ıè§ģ": 7336,
      "ä¹Łåı¯": 7337,
      "æķħæĦı": 7338,
      "Ġaccur": 7339,
      "Ġ17": 7340,
      "èĬ³": 7341,
      "Ġact": 7342,
      "Ġreduction": 7343,
      "çļĦè¯Ŀ": 7344,
      "æŃ¤æ¬¡": 7345,
      "éĻ·èĲ½": 7346,
      "æĪĲç»©": 7347,
      "è´ŁåĢº": 7348,
      "bi": 7349,
      "ancer": 7350,
      "Ġmig": 7351,
      "ç¢İ": 7352,
      "Ġmacroph": 7353,
      "Ġprogram": 7354,
      "Ġparameters": 7355,
      "åľ¨è¿Ļä¸ª": 7356,
      "éĥŃ": 7357,
      "Ġfeatures": 7358,
      "æľīä¸Ģä¸ª": 7359,
      "Ġsupp": 7360,
      "å°Ĩä¼ļ": 7361,
      "çļĦåīį": 7362,
      "èĬĤèĥ½": 7363,
      "ç¦ıåĪ©": 7364,
      "æ¦Ĥçİĩ": 7365,
      "æĮĩç¤º": 7366,
      "çī©æĿĥ": 7367,
      "ĠFurthermore": 7368,
      "utions": 7369,
      "ä»Ĭå¹´": 7370,
      "ä¸ĢåĽ½": 7371,
      "åŁĥ": 7372,
      "éħįå¥Ĺ": 7373,
      "84": 7374,
      "Ġprevent": 7375,
      "ĠAt": 7376,
      "éļ¾é¢ĺ": 7377,
      "ä¼łè¯´": 7378,
      "oplas": 7379,
      "man": 7380,
      "åĩºæĿ¥çļĦ": 7381,
      "èªĵ": 7382,
      "ä¸īè§Ĵ": 7383,
      "æİ¨æµĭ": 7384,
      "åįĥçŁ³": 7385,
      "æı´åĬ©": 7386,
      "right": 7387,
      "å°ıçļĦ": 7388,
      "ĠWh": 7389,
      "Ġhighly": 7390,
      "lying": 7391,
      "é«ĺä¸Ń": 7392,
      "åĨ³äºİ": 7393,
      "urn": 7394,
      "ãģĹ": 7395,
      "åĶ±": 7396,
      "Ġtub": 7397,
      "çŁ¥è¯ĨçļĦ": 7398,
      "çĽ¸äºĴä½ľçĶ¨": 7399,
      "èĹ¤åİŁ": 7400,
      "inase": 7401,
      "ç«ĭä¸ĭ": 7402,
      "itud": 7403,
      "åŁİæ±ł": 7404,
      "å£«åħµ": 7405,
      "è§£åĨ³æĸ¹æ¡Ī": 7406,
      "Ġstimulation": 7407,
      "Ġthus": 7408,
      "æĹłçĸĳ": 7409,
      "è®°èĢħ": 7410,
      "eta": 7411,
      "éģĵéĽª": 7412,
      "ç»´åº¦": 7413,
      "ä¿±": 7414,
      "91": 7415,
      "ç£·": 7416,
      "Ġstructure": 7417,
      "ä¼ĺè´¨": 7418,
      "Ġdetection": 7419,
      "æĪĲçļĦ": 7420,
      "Ġemb": 7421,
      "ĠST": 7422,
      "sp": 7423,
      "åĪĽéĢłæĢ§": 7424,
      "Ġabove": 7425,
      "hold": 7426,
      "æ»ĭ": 7427,
      "ible": 7428,
      "Ġplay": 7429,
      "åıĳè¾¾åĽ½å®¶": 7430,
      "äºĶä½į": 7431,
      "ä¸ĸçķĮä¸Ĭ": 7432,
      "åħļçļĦåįģä¹Ŀ": 7433,
      "ension": 7434,
      "Ġte": 7435,
      "encing": 7436,
      "åĢºåĬ¡äºº": 7437,
      "rid": 7438,
      "Ġgo": 7439,
      "Ġneut": 7440,
      "åĽĽæľĪ": 7441,
      "83": 7442,
      "åıĸåĨ³äºİ": 7443,
      "Ġoutcome": 7444,
      "Ġcondition": 7445,
      "icine": 7446,
      "ä¹°åįĸ": 7447,
      "Ġsystems": 7448,
      "æĪĳåĽ½çļĦ": 7449,
      "Ġunc": 7450,
      "ially": 7451,
      "eff": 7452,
      "Ġcoun": 7453,
      "ochond": 7454,
      "kn": 7455,
      "çĽ®å½ķ": 7456,
      "æ¿ĢçĥĪ": 7457,
      "Ġinvas": 7458,
      "éĺ²æİ§": 7459,
      "osom": 7460,
      "åįĥä»£": 7461,
      "Ġnovel": 7462,
      "ä½ĵçİ°åľ¨": 7463,
      "antit": 7464,
      "æķ°åŃĹç»ıæµİ": 7465,
      "å¥³æĢ§": 7466,
      "æıĲåıĸ": 7467,
      "æķ¦": 7468,
      "ä¹ĭä½į": 7469,
      "ancy": 7470,
      "ologic": 7471,
      "åıĳçĹħ": 7472,
      "æľ¬èĥ½å¯ºä¹ĭåıĺ": 7473,
      "å¤§ä¼Ĺ": 7474,
      "æĪĺä¸Ń": 7475,
      "åĪĥ": 7476,
      "åĲĪçī©": 7477,
      "æķħéļľ": 7478,
      "æŀĦéĢł": 7479,
      "Ġconcentrations": 7480,
      "å¸ľ": 7481,
      "åĪĨè§£": 7482,
      "æĿĢå®³": 7483,
      "Ġcorrespon": 7484,
      "Ġenvironment": 7485,
      "æĶ»çķ¥": 7486,
      "Ġassessment": 7487,
      "Ġdoes": 7488,
      "GFR": 7489,
      "ä½Ļäºº": 7490,
      "æķĳæı´": 7491,
      "å¢ŀåĢ¼": 7492,
      "æ°´å¹³çļĦ": 7493,
      "AA": 7494,
      "å¸ĤåľºåĮĸ": 7495,
      "ä¸ĸçķĮçļĦ": 7496,
      "åĽ½åĨħå¤ĸ": 7497,
      "æĸ¹ä¾¿": 7498,
      "éĢłæĪĲçļĦ": 7499,
      "æİ¢æµĭ": 7500,
      "æ¡ĳ": 7501,
      "ĠAfter": 7502,
      "å¾ħéģĩ": 7503,
      "ï¼ı": 7504,
      "çī¹å®ļçļĦ": 7505,
      "åĲ«éĩı": 7506,
      "æµģåŁŁ": 7507,
      "çŁ¥è¡Į": 7508,
      "ä¾¦": 7509,
      "çĬ¹": 7510,
      "èıľ": 7511,
      "ä¸İæŃ¤åĲĮæĹ¶": 7512,
      "çŃĳåīį": 7513,
      "ture": 7514,
      "éĩİæ°ı": 7515,
      "åĴĮç®¡çĲĨ": 7516,
      "åĪ©çĽĬçļĦ": 7517,
      "ixed": 7518,
      "ä¸¾åĬŀ": 7519,
      "çªĹ": 7520,
      "Ġsite": 7521,
      "82": 7522,
      "ylation": 7523,
      "Ġprogn": 7524,
      "åıĽä¹±": 7525,
      "Ġcardiac": 7526,
      "Ġinteraction": 7527,
      "ower": 7528,
      "èĩªåĬ¨åĮĸ": 7529,
      "ç»ıè´¹": 7530,
      "å°ıåŃ¦": 7531,
      "ä¸įè¦ģ": 7532,
      "ling": 7533,
      "å¤ªå¹³": 7534,
      "æŃ¦å®¶": 7535,
      "EN": 7536,
      "Ġorig": 7537,
      "å¯»æ±Ĥ": 7538,
      "ä¸ĢåĲĳä¸ĢæıĨ": 7539,
      "Ġpap": 7540,
      "çĽ®æłĩçļĦ": 7541,
      "è·³": 7542,
      "Ġself": 7543,
      "ç½ĳç«Ļ": 7544,
      "éŃĤ": 7545,
      "isc": 7546,
      "Ġfield": 7547,
      "Ġtrials": 7548,
      "æĦŁè§ī": 7549,
      "ä¸įå¤Ł": 7550,
      "å¿½è§Ĩ": 7551,
      "ç»ĵæŀĦæĢ§": 7552,
      "ç¾İæľ¯": 7553,
      "ä¸¥éĩįçļĦ": 7554,
      "Ġconn": 7555,
      "å®ļæľŁ": 7556,
      "æ³¢åĬ¨": 7557,
      "Ġright": 7558,
      "ä¹Ŀå¹´": 7559,
      "ä»ĭåħ¥": 7560,
      "ising": 7561,
      "way": 7562,
      "çĪ¶æ¯į": 7563,
      "Ġheter": 7564,
      "Ġstaining": 7565,
      "vement": 7566,
      "oints": 7567,
      "åĢŁæ¬¾": 7568,
      "ç¡®å®ŀ": 7569,
      "ä¿ĥä½¿": 7570,
      "å»ºéĢł": 7571,
      "åħ¨éĿ¢å»ºæĪĲ": 7572,
      "çĤŃ": 7573,
      "åĽĽéĥİ": 7574,
      "ĠTable": 7575,
      "æĵħ": 7576,
      "ćą": 7577,
      "å®¡æī¹": 7578,
      "Ġir": 7579,
      "æį®è¯´": 7580,
      "ä¹ĭåĲį": 7581,
      "å¤ļå°ĳ": 7582,
      "åŁİä¸ĭ": 7583,
      "2008": 7584,
      "è¿½åĩ»": 7585,
      "éĤĵå°ıå¹³": 7586,
      "uture": 7587,
      "åł¡": 7588,
      "ä¸´æĹ¶": 7589,
      "åıįæĢĿ": 7590,
      "ED": 7591,
      "Ġatten": 7592,
      "æ¶ĪèĢĹ": 7593,
      "Ġcoll": 7594,
      "çĲĨè®ºçļĦ": 7595,
      "olar": 7596,
      "ands": 7597,
      "Ġregulation": 7598,
      "FN": 7599,
      "å°Ĭæ°ı": 7600,
      "æĶ¿åºľçļĦ": 7601,
      "æĭ¥ç«ĭ": 7602,
      "ĠStud": 7603,
      "åĬŀåŃ¦": 7604,
      "æĻºèĥ½åĮĸ": 7605,
      "æŃ¤äºĭ": 7606,
      "ä»»åĳ½ä¸º": 7607,
      "Ġevents": 7608,
      "Ġcognitive": 7609,
      "æŀ¢": 7610,
      "æĸ¹ç¨ĭ": 7611,
      "æ¶Į": 7612,
      "ontrol": 7613,
      "Ġtransf": 7614,
      "æ³Ħ": 7615,
      "ĠCa": 7616,
      "åºĶçĶ¨äºİ": 7617,
      "Ľèµ·": 7618,
      "Ġgly": 7619,
      "åħ¬å®ī": 7620,
      "åıĳå±ķä¸ŃåĽ½": 7621,
      "ä¹¦éĿ¢": 7622,
      "åºĶä»ģ": 7623,
      "Ġpepti": 7624,
      "Ġguid": 7625,
      "åµĮ": 7626,
      "æĹłè®ºæĺ¯": 7627,
      "éĥĳ": 7628,
      "åĿĽ": 7629,
      "ç«Ļåľ¨": 7630,
      "Ġ40": 7631,
      "Ġevaluated": 7632,
      "åĩ¸": 7633,
      "å·¥ä¸ļåĮĸ": 7634,
      "Ġchrom": 7635,
      "çŁ³å·Ŀ": 7636,
      "æ»¥": 7637,
      "åľ¨çº¿": 7638,
      "èĪªç©º": 7639,
      "æľ¬ç§ĳ": 7640,
      "ç¼ĸçłģ": 7641,
      "é©¾é©¶": 7642,
      "çľĭåĩº": 7643,
      "olution": 7644,
      "è§Ĩéĩİ": 7645,
      "åħ·ä½ĵçļĦ": 7646,
      "å¼ĺæī¬": 7647,
      "Supplementary": 7648,
      "åİĨåı²çļĦ": 7649,
      "treated": 7650,
      "æ¸ħæŃ£": 7651,
      "Ġcritical": 7652,
      "ense": 7653,
      "RF": 7654,
      "Ġsynthe": 7655,
      "Ġread": 7656,
      "âĶ": 7657,
      "åıĳéĢģ": 7658,
      "èµ«": 7659,
      "éģ¥": 7660,
      "Ġoverall": 7661,
      "è¿Ļç±»": 7662,
      "ĠSc": 7663,
      "åĽ½æľīä¼ģä¸ļ": 7664,
      "çĶŁçĲĨ": 7665,
      "çļĦçĽ¸åħ³": 7666,
      "ä¸¹ç¾½": 7667,
      "æĹĹæľ¬": 7668,
      "æ¸Ĭ": 7669,
      "å¤ªçĶ°": 7670,
      "çļĦæľīæķĪ": 7671,
      "ä¸İç¤¾ä¼ļ": 7672,
      "å¤įåĪ¶": 7673,
      "å¤§å¤«": 7674,
      "åįıä¼ļ": 7675,
      "è®ºè¯ģ": 7676,
      "æľ¬æ³ķ": 7677,
      "çıł": 7678,
      "ç§ĢåĲīçļĦ": 7679,
      "æ¸ħæ´ģ": 7680,
      "åĵģç§į": 7681,
      "fact": 7682,
      "Ġsuper": 7683,
      "æĬµè¾¾": 7684,
      "èĴĻåı¤": 7685,
      "åĴĮæĸ¹æ³ķ": 7686,
      "æ³ķå¾ĭæ³ķè§Ħ": 7687,
      "Ġendothe": 7688,
      "åİŁåĳĬ": 7689,
      "çķĮå®ļ": 7690,
      "è¦ģåľ¨": 7691,
      "æµģè¡Į": 7692,
      "ä¸»åĬĽ": 7693,
      "å®ŀçĶ¨": 7694,
      "æ·ĭ": 7695,
      "ä¸»ä½ĵçļĦ": 7696,
      "ç»ıæµİç¤¾ä¼ļåıĳå±ķ": 7697,
      "å®ĹèĮĤ": 7698,
      "till": 7699,
      "81": 7700,
      "å¢ŀåĬłäºĨ": 7701,
      "ĊĊĠ": 7702,
      "ç½Ĺé©¬": 7703,
      "éķ¿ä¹ħ": 7704,
      "å½¦": 7705,
      "èĴ²çĶŁ": 7706,
      "Ġrats": 7707,
      "å¯¹ç§°": 7708,
      "Ġenzym": 7709,
      "æľºåĻ¨äºº": 7710,
      "å¾ģç¨ĭ": 7711,
      "çĬ¬": 7712,
      "è§£è¯»": 7713,
      "Ġprec": 7714,
      "åĲĪæ³ķæĿĥçĽĬ": 7715,
      "åħļå§Ķ": 7716,
      "åĪĨäº«": 7717,
      "éģĵä¸ī": 7718,
      "oxic": 7719,
      "åħ«å¹´": 7720,
      "ä¹īåħī": 7721,
      "æ¦Ĥè¿°": 7722,
      "çıį": 7723,
      "èĩ´åĬĽ": 7724,
      "ä½ĵåĪ¶æĶ¹éĿ©": 7725,
      "Ġartic": 7726,
      "äº§éĩı": 7727,
      "Ġvisual": 7728,
      "åĲ¦å®ļ": 7729,
      "AI": 7730,
      "go": 7731,
      "å·²æĪĲä¸º": 7732,
      "ç°": 7733,
      "äººèº«": 7734,
      "This": 7735,
      "ãģ¨": 7736,
      "çĽ¸æ¨¡": 7737,
      "RC": 7738,
      "åĬ¨èĦī": 7739,
      "èĨ¨": 7740,
      "çļĦæĹ¶ä»£": 7741,
      "Ġmarkers": 7742,
      "Ġobserv": 7743,
      "æ°®": 7744,
      "Ġdecrease": 7745,
      "ç«Ń": 7746,
      "æıĲä¾ĽçļĦ": 7747,
      "Ġcriteria": 7748,
      "Ġhom": 7749,
      "åŃ¦ä¹łçļĦ": 7750,
      "Ġdiet": 7751,
      "æ°Ľ": 7752,
      "ä¸»è¦ģæľī": 7753,
      "Ġsubst": 7754,
      "Ġalter": 7755,
      "åªĴä»ĭ": 7756,
      "éĢĶä¸Ń": 7757,
      "emia": 7758,
      "Ġresid": 7759,
      "ney": 7760,
      "æ¢¯": 7761,
      "åĪĩèħ¹": 7762,
      "å®ŀä¾ĭ": 7763,
      "pose": 7764,
      "æĸĩçī©": 7765,
      "Ġsites": 7766,
      "Ġareas": 7767,
      "aw": 7768,
      "iting": 7769,
      "Ġdamage": 7770,
      "èī²å½©": 7771,
      "Ġdiffic": 7772,
      "å²ģçļĦ": 7773,
      "éĢĥå¾Ģ": 7774,
      "Ġfil": 7775,
      "Ġsecre": 7776,
      "æĥ³è±¡": 7777,
      "ä»¥å¾Ģ": 7778,
      "Ġur": 7779,
      "ä¹ĭåľ°": 7780,
      "åĨħèĹ¤": 7781,
      "Ġmeasures": 7782,
      "Ġabnormal": 7783,
      "èĳ¡": 7784,
      "rosis": 7785,
      "éķĩåİĭ": 7786,
      "èĩ³æ±ŁæĪ·æĹ¶ä»£": 7787,
      "å¾ĹçŁ¥": 7788,
      "Ġunderstanding": 7789,
      "çģ¾å®³": 7790,
      "åĲ¾": 7791,
      "éķ¿æ±Ł": 7792,
      "Ġsurgery": 7793,
      "Ġtranscription": 7794,
      "å°ıå±±": 7795,
      "mediated": 7796,
      "åįłé¢Ĩ": 7797,
      "Ġtherefore": 7798,
      "åĤ¨å¤ĩ": 7799,
      "å´Ľèµ·": 7800,
      "å·¥åİĤ": 7801,
      "uscript": 7802,
      "ç¡®å®ļçļĦ": 7803,
      "æŁ´çĶ°èĥľå®¶": 7804,
      "Ġcollected": 7805,
      "EG": 7806,
      "Ġç¬¬ä¸ī": 7807,
      "æĸľ": 7808,
      "å®īè£ħ": 7809,
      "åĩıè½»": 7810,
      "è¶³åĪ©ä¹īæĺŃ": 7811,
      "æłĩçļĦ": 7812,
      "åıįèĢĮ": 7813,
      "åŁİéķĩåĮĸ": 7814,
      "å¹³éĿ¢": 7815,
      "ç»ĻäºĨ": 7816,
      "çļĦæĪĺçķ¥": 7817,
      "Ġpoint": 7818,
      "Ġdiscus": 7819,
      "Ġvascular": 7820,
      "ä»¥ä¾¿": 7821,
      "izing": 7822,
      "é«ĺåĽ½": 7823,
      "åľ¨å¤§": 7824,
      "ä¸¤å¤§": 7825,
      "ä¸ŃæīĢ": 7826,
      "Ġfat": 7827,
      "è¿ĻæĹ¶": 7828,
      "å±±ä¸ľ": 7829,
      "æŀģä¸º": 7830,
      "æĪĺçº¿": 7831,
      "è¯¾åłĤæķĻåŃ¦": 7832,
      "äººä½ĵ": 7833,
      "regulated": 7834,
      "åĬ¨æľº": 7835,
      "åĤ¬åĮĸ": 7836,
      "ole": 7837,
      "è®¤è¯ĨåĪ°": 7838,
      "Ġlimited": 7839,
      "ä»£è¡¨çļĦ": 7840,
      "åħ¬åħĥ": 7841,
      "è¢Ńåĩ»": 7842,
      "istic": 7843,
      "çķĻå®Ī": 7844,
      "æĦŁåĪ°": 7845,
      "çİ°éĩĳ": 7846,
      "èĤ¯å®ļ": 7847,
      "è£Ķ": 7848,
      "èĬ¯çīĩ": 7849,
      "èİ·å¾ĹäºĨ": 7850,
      "çŃĽ": 7851,
      "LR": 7852,
      "ä¾įå¥ī": 7853,
      "åĨĪå´İ": 7854,
      "ract": 7855,
      "åŀĴ": 7856,
      "å¸ĥéĺµ": 7857,
      "åį³åı¯": 7858,
      "ä»ĩ": 7859,
      "umm": 7860,
      "ä¸Ģéĥ¨åĪĨ": 7861,
      "åĲįåŃĹ": 7862,
      "æŃ£å¦Ĥ": 7863,
      "æľīéĻĲåħ¬åı¸": 7864,
      "Ġampl": 7865,
      "åĽ½æ°ĳåħļ": 7866,
      "éĥ½è¦ģ": 7867,
      "ç¼ĸåĨĻ": 7868,
      "èĩªæĿĢ": 7869,
      "å¢ŀéĢŁ": 7870,
      "å¼ķè¿Ľ": 7871,
      "çĽ´èĩ³": 7872,
      "éļĲç§ģ": 7873,
      "æĿĥéĻĲ": 7874,
      "èİ·èµĲ": 7875,
      "åħĪçĶŁ": 7876,
      "ering": 7877,
      "äººåĿĩ": 7878,
      "è®¢ç«ĭ": 7879,
      "æ³ķåĪ¶": 7880,
      "æĤ£èĢħçļĦ": 7881,
      "Ġcalculated": 7882,
      "åĮ»èį¯": 7883,
      "äºīå¤º": 7884,
      "æĿ¡çº¦": 7885,
      "å°Ĩé¢Ĩ": 7886,
      "aken": 7887,
      "Ġsepar": 7888,
      "ç§ĳåŃ¦æĬĢæľ¯": 7889,
      "Ġprocesses": 7890,
      "ipher": 7891,
      "åĨĴ": 7892,
      "sing": 7893,
      "ä¸»æĮģ": 7894,
      "lex": 7895,
      "è´§å¸ģæĶ¿çŃĸ": 7896,
      "çģ¯": 7897,
      "åĻª": 7898,
      "ä¹īä¹ħ": 7899,
      "åı¦æľī": 7900,
      "çĸ«èĭĹ": 7901,
      "Ġprotocol": 7902,
      "æĹ¥åĲĳ": 7903,
      "Ġdev": 7904,
      "è°¨": 7905,
      "Ġintervention": 7906,
      "Ġtraining": 7907,
      "Ġmanuscript": 7908,
      "åĽĽåĽ½": 7909,
      "è½¦è¾Ĩ": 7910,
      "ä¹Łå°±æĺ¯è¯´": 7911,
      "è¿ĩåº¦": 7912,
      "åħļç»Ħç»ĩ": 7913,
      "éĶħ": 7914,
      "å·®åĪ«": 7915,
      "æµģéĩı": 7916,
      "Ġmutation": 7917,
      "Ġdrugs": 7918,
      "åĩºå®¶": 7919,
      "çļĦè§Ĵåº¦": 7920,
      "Ġantigen": 7921,
      "å®¹éĩı": 7922,
      "åĲĮæĹ¶ä¹Ł": 7923,
      "ç³Ĭ": 7924,
      "ç¢±": 7925,
      "ä¹ĭåĳ½": 7926,
      "çŃīçļĦ": 7927,
      "Ġaverage": 7928,
      "ä¼Ĭä¸ľ": 7929,
      "äººå¯¹": 7930,
      "åĽ½å®¶åĴĮ": 7931,
      "Ġbaseline": 7932,
      "æ¶Ĥ": 7933,
      "åĪĨåĮĸ": 7934,
      "ĠåĴĮ": 7935,
      "å¼ĢåĲ¯": 7936,
      "å®īåľŁæ¡ĥå±±æĹ¶ä»£çļĦæŃ¦å°Ĩ": 7937,
      "ä¹īåħ´": 7938,
      "æĩĤ": 7939,
      "ital": 7940,
      "ç¥ĸçĪ¶": 7941,
      "èģĶéĤ¦": 7942,
      "åħ¶åľ¨": 7943,
      "çļĦåľ°æĸ¹": 7944,
      "å¤§äºİ": 7945,
      "Ġtests": 7946,
      "ä¹ĭéĹ´çļĦåħ³ç³»": 7947,
      "è´¯ç©¿": 7948,
      "æĪĺè´¥": 7949,
      "Ġimage": 7950,
      "ç±»åŀĭçļĦ": 7951,
      "å¼Ĭ": 7952,
      "å½ĵä»Ĭ": 7953,
      "æ´¾åĩº": 7954,
      "åĦĴå®¶": 7955,
      "æ¯ĽåĪ©å®¶": 7956,
      "ç§¯æŀģæĢ§": 7957,
      "Ġbiom": 7958,
      "éĩįè¦ģä½ľçĶ¨": 7959,
      "çļĦçĶŁäº§": 7960,
      "è¿ĩæ¸¡": 7961,
      "ulate": 7962,
      "Ġcarri": 7963,
      "Ġcontaining": 7964,
      "èĳĽ": 7965,
      "åŃķ": 7966,
      "Ġcolon": 7967,
      "èĦĬ": 7968,
      "æ³·å·Ŀ": 7969,
      "Ġpolym": 7970,
      "åıĺæĪĲ": 7971,
      "èĢħåĴĮ": 7972,
      "Ġtesting": 7973,
      "çļĦåīįæıĲ": 7974,
      "ç½¢": 7975,
      "åľ°éľĩ": 7976,
      "Ġshows": 7977,
      "æĺİæĺ¾çļĦ": 7978,
      "å©¿": 7979,
      "any": 7980,
      "åĲİæĿ¥çļĦ": 7981,
      "çĶµå½±": 7982,
      "çļĦä¸ĢäºĽ": 7983,
      "ç¨İåĬ¡": 7984,
      "ques": 7985,
      "Ġsequence": 7986,
      "2011": 7987,
      "antif": 7988,
      "ĠData": 7989,
      "çļĦéľĢæ±Ĥ": 7990,
      "çĶŁæķĪ": 7991,
      "Ġcombination": 7992,
      "Ġrecord": 7993,
      "Ġsex": 7994,
      "kg": 7995,
      "åĩºä»»": 7996,
      "HD": 7997,
      "Ġinvestigated": 7998,
      "çļĦåĲİ": 7999,
      "å¼ĺæ²»": 8000,
      "Ġphysical": 8001,
      "åľ¨ä¸Ģå®ļ": 8002,
      "monary": 8003,
      "Ġchall": 8004,
      "åħĭæľį": 8005,
      "èĬ¦åĲį": 8006,
      "é²ľæĺİ": 8007,
      "æĺ¯æľĢ": 8008,
      "Ġintra": 8009,
      "Ġactive": 8010,
      "æ¿Ģåħī": 8011,
      "Ġfunctions": 8012,
      "Ġstem": 8013,
      "æł¸ç®Ĺ": 8014,
      "piratory": 8015,
      "è®¡éĩı": 8016,
      "åħ¶çĪ¶": 8017,
      "åĲīçĶ°": 8018,
      "ource": 8019,
      "ä¾ĭåŃĲ": 8020,
      "åĿļæĮģä»¥": 8021,
      "èĸª": 8022,
      "aired": 8023,
      "1590": 8024,
      "åįļçī©": 8025,
      "åŃŁ": 8026,
      "Ġperformance": 8027,
      "olic": 8028,
      "çĹħéĢĿ": 8029,
      "éĺľ": 8030,
      "Ġvariables": 8031,
      "èĤ¥åĲİ": 8032,
      "MD": 8033,
      "çĮª": 8034,
      "åĪĨæĶ¯": 8035,
      "æĽ´å¤§": 8036,
      "ĠPCR": 8037,
      "æ¯ĽåĪ©è¾īåħĥ": 8038,
      "ä¸»è¦ģåĮħæĭ¬": 8039,
      "Ġach": 8040,
      "äº¤ä»ĺ": 8041,
      "Ġoff": 8042,
      "Ġelev": 8043,
      "estern": 8044,
      "iatric": 8045,
      "Ġpoor": 8046,
      "åĭĥ": 8047,
      "èĩªè¡Į": 8048,
      "äººåĬĽèµĦæºĲ": 8049,
      "éĻµ": 8050,
      "TT": 8051,
      "åĽĬ": 8052,
      "Ġtested": 8053,
      "æ²¡æĶ¶": 8054,
      "ç¼ĸç¨ĭ": 8055,
      "æ¯ĽåĪ©åĨĽ": 8056,
      "éĤ®": 8057,
      "ä¸ĬæĿīæĻ¯èĥľ": 8058,
      "éĽĨåĲĪ": 8059,
      "æł¹æį®åľ°": 8060,
      "ave": 8061,
      "ports": 8062,
      "Ġmade": 8063,
      "åľŁå²Ĳ": 8064,
      "ç©´": 8065,
      "å°ıè¯´": 8066,
      "å½ĵå¹´": 8067,
      "å¹¿ä¸ľ": 8068,
      "æĶ¿åħĥ": 8069,
      "éģĹåĿĢ": 8070,
      "ras": 8071,
      "æĺ¯æľī": 8072,
      "ä¸īåįģ": 8073,
      "æĪĲä¸ºäºĨ": 8074,
      "ćĆ": 8075,
      "otor": 8076,
      "rh": 8077,
      "çĭ¬ç«ĭçļĦ": 8078,
      "æ½ľåĬĽ": 8079,
      "ç¥¥": 8080,
      "ä¼Ĭè±Ĩ": 8081,
      "æĿĳæ°ĳ": 8082,
      "inally": 8083,
      "RO": 8084,
      "pp": 8085,
      "æĹĹå¸ľ": 8086,
      "åĨħå®¹çļĦ": 8087,
      "æıĲé«ĺäºĨ": 8088,
      "æ¬ł": 8089,
      "ç®¡çĲĨåĴĮ": 8090,
      "Ġreflec": 8091,
      "ä¸ŃæľŁ": 8092,
      "ä¸İåıĳå±ķ": 8093,
      "GC": 8094,
      "çķĻåľ¨": 8095,
      "åįĵ": 8096,
      "Ġsuggesting": 8097,
      "ä¸ĭéĩİ": 8098,
      "é¡¹çĽ®çļĦ": 8099,
      "Ġtool": 8100,
      "çĶŁåĬ¨": 8101,
      "ç®Ģä»ĭ": 8102,
      "ertain": 8103,
      "æł·çļĦ": 8104,
      "éĢļçĶ¨": 8105,
      "åĢ¡å¯¼": 8106,
      "ãģĦ": 8107,
      "not": 8108,
      "Ġmitochond": 8109,
      "less": 8110,
      "çĩĥæĸĻ": 8111,
      "è¡¨è¿°": 8112,
      "äº¿ç¾İåħĥ": 8113,
      "ä¸İä¹ĭ": 8114,
      "åŃĺæ¬¾": 8115,
      "raction": 8116,
      "ygen": 8117,
      "chers": 8118,
      "çļĦä½¿çĶ¨": 8119,
      "åĨħå¤ĸ": 8120,
      "Ġachie": 8121,
      "èĨ¨èĥĢ": 8122,
      "abil": 8123,
      "æĺ¯æĪĳåĽ½": 8124,
      "å®¡æł¸": 8125,
      "Ġcentral": 8126,
      "ä½ĵåĪ¶æľºåĪ¶": 8127,
      "amine": 8128,
      "ides": 8129,
      "Ġclus": 8130,
      "Ġrap": 8131,
      "ç¬¬ä¸ĢçĻ¾": 8132,
      "ä¾µæĶ»": 8133,
      "ä¸ºåħ¶": 8134,
      "ä»¥å¤ĸ": 8135,
      "ãģŁ": 8136,
      "çİ¯å¢ĥçļĦ": 8137,
      "ç¡«": 8138,
      "çĿ¦": 8139,
      "ç»ĨèĥŀçļĦ": 8140,
      "æĦ¿æĦı": 8141,
      "Ad": 8142,
      "åĮĸè§£": 8143,
      "Ġexperimental": 8144,
      "Ġstill": 8145,
      "Ġtechn": 8146,
      "Ġdiagnostic": 8147,
      "king": 8148,
      "Ġcross": 8149,
      "Ġ60": 8150,
      "ç¬ĳ": 8151,
      "oratory": 8152,
      "æºĲæ°ı": 8153,
      "åĩºèĩª": 8154,
      "åħ±æľī": 8155,
      "SM": 8156,
      "åĲ§": 8157,
      "æķ°çļĦ": 8158,
      "åĲĪè§Ħ": 8159,
      "è¡¡éĩı": 8160,
      "ovascular": 8161,
      "æĬ±": 8162,
      "âħ": 8163,
      "Ġrecomm": 8164,
      "åħħæ»¡": 8165,
      "æŀĿ": 8166,
      "æ²»åħļ": 8167,
      "è¿ĩç¨ĭä¸ŃçļĦ": 8168,
      "rad": 8169,
      "ĠDi": 8170,
      "ä¾¿åĪ©": 8171,
      "å¤§éĻĨ": 8172,
      "åįĥäºº": 8173,
      "ä½ľçī©": 8174,
      "âĦ": 8175,
      "ulating": 8176,
      "ĠĠĠĠĠĠĠĠĠĠĠĠĠĠĠĠĠ": 8177,
      "åĬŁçİĩ": 8178,
      "ä¸įç¡®å®ļ": 8179,
      "å®ĹéºŁ": 8180,
      "Ġcereb": 8181,
      "éļıä¹ĭ": 8182,
      "è¿Ĳç®Ĺ": 8183,
      "Ġrenal": 8184,
      "è¿ģç§»": 8185,
      "åĩºçİ°çļĦ": 8186,
      "ç§ĳåŃ¦çļĦ": 8187,
      "é¸£": 8188,
      "inary": 8189,
      "æĶ¶åĪ°": 8190,
      "ä¸Ńå²Ľ": 8191,
      "Ġlesions": 8192,
      "äºķä¼Ĭ": 8193,
      "Ġspect": 8194,
      "æľĢä½İ": 8195,
      "ä¸ŃåĽ½å¼ı": 8196,
      "ergy": 8197,
      "ä»¤äºº": 8198,
      "ä»İä¸¥": 8199,
      "çļĦå¤ļ": 8200,
      "Ġparen": 8201,
      "VA": 8202,
      "rix": 8203,
      "è´£ä»»çļĦ": 8204,
      "æµ·å¤ĸ": 8205,
      "ä¹ĭæĹ¶": 8206,
      "oun": 8207,
      "å»ºè®¾åĴĮ": 8208,
      "Ġcaused": 8209,
      "Ġphosphory": 8210,
      "ä¹ĭä¸º": 8211,
      "Ġindex": 8212,
      "å¯¹è¯Ŀ": 8213,
      "åħĥæĺ¥": 8214,
      "æµģæĶ¾": 8215,
      "ä¸¾åħµ": 8216,
      "åīįæ²¿": 8217,
      "å°±è¦ģ": 8218,
      "æŁ¥è¯¢": 8219,
      "çºªå¿µ": 8220,
      "amic": 8221,
      "ä¸ĢçĽĬ": 8222,
      "ä¹ĭä¸Ĭ": 8223,
      "èĤ²äºº": 8224,
      "åĽ°å¢ĥ": 8225,
      "çĨŁæĤī": 8226,
      "Ġwor": 8227,
      "Ġsubsequ": 8228,
      "å®³äºº": 8229,
      "æĺ¯åĽłä¸º": 8230,
      "çĶµç½ĳ": 8231,
      "åŃ¦çķĮ": 8232,
      "gment": 8233,
      "Ġinfected": 8234,
      "äºīåıĸ": 8235,
      "è¾½": 8236,
      "activ": 8237,
      "ç¼ĵè§£": 8238,
      "åĥļ": 8239,
      "ĠMoreover": 8240,
      "è¿Ļä¸ĢçĤ¹": 8241,
      "ä¸¤åĽ½": 8242,
      "å®ĺåĳĺ": 8243,
      "ï¼ħ": 8244,
      "åħ¬çº¦": 8245,
      "é¹¤": 8246,
      "çİ¯å¢ĥä¿ĿæĬ¤": 8247,
      "å¥łå®ļäºĨ": 8248,
      "Ġrepe": 8249,
      "gn": 8250,
      "Ġproposed": 8251,
      "æĸ°åĨł": 8252,
      "åľ¨è¿Ļç§į": 8253,
      "ä¿¡è´·": 8254,
      "åľ¨æĪĳåĽ½": 8255,
      "Ġrest": 8256,
      "Ġseen": 8257,
      "Ġdepend": 8258,
      "äººå£«": 8259,
      "ä¸°å¯ĮçļĦ": 8260,
      "Ġtimes": 8261,
      "åºµ": 8262,
      "å²Ń": 8263,
      "itu": 8264,
      "çĶµè§Ĩ": 8265,
      "è°ĥåĬ¨": 8266,
      "æľĢè¿ĳ": 8267,
      "ç»ĨèıĮ": 8268,
      "ä¸ĢæĹ¥": 8269,
      "Ġcat": 8270,
      "æİ¥çĿĢ": 8271,
      "åĲĦæĸ¹": 8272,
      "Ġstep": 8273,
      "å¼Ĺ": 8274,
      "æĹ¶åĪ»": 8275,
      "Ġshort": 8276,
      "çĽ¸åĲĮçļĦ": 8277,
      "Ġnecess": 8278,
      "åı¯ä»¥è¯´": 8279,
      "rob": 8280,
      "éĥ¨çļĦ": 8281,
      "åīĸ": 8282,
      "çī²": 8283,
      "ier": 8284,
      "åĴĮæĬĢæľ¯": 8285,
      "è®¾å®ļ": 8286,
      "æĹ¢æĺ¯": 8287,
      "Ġselected": 8288,
      "ç§įæ¤į": 8289,
      "åĽ½ä¼Ĺ": 8290,
      "Ġmass": 8291,
      "Ġcontinu": 8292,
      "çĽĳæĬ¤": 8293,
      "å°ıåº·ç¤¾ä¼ļ": 8294,
      "æ³Į": 8295,
      "è¿ĺåı¯ä»¥": 8296,
      "Ġmedium": 8297,
      "å¾Īå¤§çļĦ": 8298,
      "å¹´åº¦": 8299,
      "Ġlear": 8300,
      "ĠmM": 8301,
      "Ġäººçī©": 8302,
      "ä¼Ĭè´º": 8303,
      "éĽĨç¾¤": 8304,
      "çļĦåĽ½éĻħ": 8305,
      "Res": 8306,
      "å»ºç«ĭåģ¥åħ¨": 8307,
      "åľ°ä¸ĭ": 8308,
      "è´µæĹı": 8309,
      "çĻ¾å¹´å¥ĭæĸĹ": 8310,
      "å¸¸éĻĨ": 8311,
      "æĬĵä½ı": 8312,
      "2009": 8313,
      "Ġeth": 8314,
      "é¢ĨåĽ½": 8315,
      "åĪĨå¸ĥå¼ı": 8316,
      "Ġisolated": 8317,
      "ãĢİ": 8318,
      "å¸ĪèĮĥ": 8319,
      "èĳĹåĲį": 8320,
      "äº¬æŀģ": 8321,
      "éĩĳé¢Ŀ": 8322,
      "éĩįç»Ħ": 8323,
      "æĬĢæľ¯åĴĮ": 8324,
      "ä¼Ĭè¾¾æĶ¿å®Ĺ": 8325,
      "æ¤İ": 8326,
      "åŁİåĨħ": 8327,
      "ociated": 8328,
      "çļĦçī¹å¾ģ": 8329,
      "int": 8330,
      "ãĢı": 8331,
      "Ġvers": 8332,
      "çļĦåıĳçĶŁ": 8333,
      "çļĦè®¾è®¡": 8334,
      "çŃīäºİ": 8335,
      "ector": 8336,
      "ä¸ºçĶ±": 8337,
      "å¾®è§Ĥ": 8338,
      "ining": 8339,
      "odes": 8340,
      "éĥ½åľ¨": 8341,
      "Ġoxid": 8342,
      "Ġ21": 8343,
      "ä¸»æµģ": 8344,
      "çļĦçŁ¥è¯Ĩ": 8345,
      "ps": 8346,
      "Ġprevalence": 8347,
      "ä¸Ģæ®µ": 8348,
      "Ġquestion": 8349,
      "æħĪ": 8350,
      "Ġpublished": 8351,
      "æŁĶ": 8352,
      "BI": 8353,
      "å¼ķèµ·çļĦ": 8354,
      "Ġserv": 8355,
      "ä¸»æĿĥ": 8356,
      "atients": 8357,
      "å§¿": 8358,
      "ĠRec": 8359,
      "ä¼ļæ´¥": 8360,
      "ransi": 8361,
      "å¼Ģè¾Ł": 8362,
      "ç»ĪæŃ¢": 8363,
      "æĮĩå¼ķ": 8364,
      "å°±åľ¨": 8365,
      "å¯¹å¾ħ": 8366,
      "æŃ»åİ»": 8367,
      "Ex": 8368,
      "ducing": 8369,
      "åħ«å¹¡": 8370,
      "å½ĵä¸Ń": 8371,
      "coh": 8372,
      "èļĢ": 8373,
      "Ġyear": 8374,
      "Ġinfluence": 8375,
      "¤Ĳ": 8376,
      "æ´¾çļĦ": 8377,
      "ç¢³æİĴæĶ¾": 8378,
      "åľ¨åĨħçļĦ": 8379,
      "Ġinhibitor": 8380,
      "CV": 8381,
      "éĻķ": 8382,
      "Ġsuggested": 8383,
      "è¥¿åĮĹ": 8384,
      "åįķçº¯": 8385,
      "ç¬¬åħ«": 8386,
      "éĨĩ": 8387,
      "æ²»åĽ½": 8388,
      "åĪł": 8389,
      "èĩ´åĬĽäºİ": 8390,
      "Ġpredict": 8391,
      "çİĩåħĪ": 8392,
      "å®Īå¤ĩ": 8393,
      "æĦŁåıĹ": 8394,
      "èµ·æĿ¥çļĦ": 8395,
      "Ġsetting": 8396,
      "å½±åĵįåĬĽ": 8397,
      "ĠNational": 8398,
      "ç²¾åº¦": 8399,
      "ä¸»ç®¡éĥ¨éĹ¨": 8400,
      "å®°": 8401,
      "äºĮèĢħ": 8402,
      "ä¸Ģä½į": 8403,
      "Ġtask": 8404,
      "HR": 8405,
      "ze": 8406,
      "çļĦæĦıä¹ī": 8407,
      "ç»§ä»»": 8408,
      "å¤ªéĥİ": 8409,
      "å¸¸æĢģ": 8410,
      "æ¬£": 8411,
      "æĬĽ": 8412,
      "èµĦäº§éĺ¶çº§": 8413,
      "document": 8414,
      "åħ¬å¼ı": 8415,
      "ä¿Ħç½Ĺæĸ¯": 8416,
      "ones": 8417,
      "ä¾µåħ¥": 8418,
      "èıĬ": 8419,
      "èµ·çĤ¹": 8420,
      "ç¤¾ä¼ļä¸»ä¹īæł¸å¿ĥ": 8421,
      "PI": 8422,
      "HO": 8423,
      "orph": 8424,
      "äº§ä¸ļåıĳå±ķ": 8425,
      "ä¿¡å¿ĥ": 8426,
      "åīįæĿ¥": 8427,
      "agen": 8428,
      "ocardi": 8429,
      "é¥±": 8430,
      "Ġknowledge": 8431,
      "ä¸įä½Ĩ": 8432,
      "æĹ¢æľī": 8433,
      "BV": 8434,
      "äºĶåįģ": 8435,
      "æľ¬åľ°": 8436,
      "çļĦç»ĵæŀĦ": 8437,
      "æĶ¹åĲį": 8438,
      "ç»ĥä¹ł": 8439,
      "åĮĹæĿ¡æ°ıåº·": 8440,
      "Ġalthough": 8441,
      "æļĸ": 8442,
      "Ġscores": 8443,
      "Ġpractice": 8444,
      "åĽ½æ°ĳç»ıæµİ": 8445,
      "çłĶç©¶éĻ¢": 8446,
      "çĦļ": 8447,
      "æłĭ": 8448,
      "Ġback": 8449,
      "æĺİåºĶ": 8450,
      "èĬĤçº¦": 8451,
      "urse": 8452,
      "Ġtyp": 8453,
      "äººæĿĥ": 8454,
      "å¿Ļ": 8455,
      "ä¸ĬæĿīå®ª": 8456,
      "Ġtrial": 8457,
      "å¸Ĳ": 8458,
      "çī©åĵģ": 8459,
      "å®ĺä½į": 8460,
      "me": 8461,
      "è¾Ī": 8462,
      "è¶³è½»": 8463,
      "èĤ¥åīį": 8464,
      "åĨľä¸ļçĶŁäº§": 8465,
      "åŃ¦çĶŁåľ¨": 8466,
      "ns": 8467,
      "å¹¶æĹł": 8468,
      "æĺĮå¹¸": 8469,
      "arch": 8470,
      "Ġrelease": 8471,
      "èĢĥèĻĳåĪ°": 8472,
      "1570": 8473,
      "è¯¸å°Ĩ": 8474,
      "ä¸ŃçŃī": 8475,
      "å¤ĸæ±ĩ": 8476,
      "èĲ¨æĳ©": 8477,
      "çº¿ç¨ĭ": 8478,
      "åħ³çĻ½": 8479,
      "åĬĽåŃ¦": 8480,
      "ç²¾ç¡®": 8481,
      "Ġfew": 8482,
      "çĶŁæĢģç³»ç»Ł": 8483,
      "åºĻ": 8484,
      "è¯ģå®ŀ": 8485,
      "Ġcohort": 8486,
      "åī©ä½Ļ": 8487,
      "æĺ¯ä¸º": 8488,
      "è£ģå®ļ": 8489,
      "Ġinitial": 8490,
      "å¤§æĬ¥åĳĬ": 8491,
      "å½¢å¼ıçļĦ": 8492,
      "Ġutil": 8493,
      "ries": 8494,
      "å¸¦çĿĢ": 8495,
      "ä¸ĵé¢ĺ": 8496,
      "ots": 8497,
      "èĪŁ": 8498,
      "åıĪæľī": 8499,
      "æłĩåĩĨçļĦ": 8500,
      "Ġadhe": 8501,
      "ä¸īäººä¼Ĺ": 8502,
      "äºĮäºº": 8503,
      "æ´»åĬ¨ä¸Ń": 8504,
      "ä»£æĽ¿": 8505,
      "åħĥæľį": 8506,
      "tif": 8507,
      "Ġfl": 8508,
      "Ġclear": 8509,
      "ä¾µçķ¥": 8510,
      "çļĦçĶŁæ´»": 8511,
      "âĨĴ": 8512,
      "çŃīæĸ¹éĿ¢çļĦ": 8513,
      "Ġinfections": 8514,
      "éĺµèĲ¥": 8515,
      "Ġsuff": 8516,
      "éķ¿ç§Ģ": 8517,
      "è¯ģä¹¦": 8518,
      "Ġintrac": 8519,
      "Ġmemory": 8520,
      "ä¹ĭäºĭ": 8521,
      "åĸĦäºİ": 8522,
      "åĨ³å®ļäºĨ": 8523,
      "ä¸įåıĹ": 8524,
      "åħļåı²": 8525,
      "å¤ºåĽŀ": 8526,
      "terior": 8527,
      "bo": 8528,
      "æľ¨æĿĳ": 8529,
      "tension": 8530,
      "uble": 8531,
      "åĲĪåĲĮçļĦ": 8532,
      "å¥ĭæĪĺ": 8533,
      "åŁºçĿ£": 8534,
      "RE": 8535,
      "tial": 8536,
      "ä½Ĳä¹ħéĹ´": 8537,
      "æĶ¹ä¸º": 8538,
      "ä¸ĢçĻ¾": 8539,
      "èµ·äºĨ": 8540,
      "Ġabsence": 8541,
      "çĵ¶": 8542,
      "ĠĠĠĠĠĠĠĠĠĠĠĠĠĠĠĠĠĠ": 8543,
      "BC": 8544,
      "ç²ĺ": 8545,
      "ä¾Ŀæ³ķæ²»åĽ½": 8546,
      "å°±èĥ½": 8547,
      "çĽ¸å½ĵäºİ": 8548,
      "æĪĪ": 8549,
      "åŃ¦è¯´": 8550,
      "è¢ĸ": 8551,
      "äººåĳĺçļĦ": 8552,
      "èİ²": 8553,
      "sh": 8554,
      "enced": 8555,
      "çİ°è¡Į": 8556,
      "Ġbiological": 8557,
      "âĹ": 8558,
      "çŃīæĸ¹å¼ı": 8559,
      "å®īåľŁæ¡ĥå±±æĹ¶ä»£": 8560,
      "ç¬¬äºĮä¸ª": 8561,
      "è¿½ç©¶": 8562,
      "å±±åı£": 8563,
      "ocal": 8564,
      "åºŀ": 8565,
      "è¿ĩç¨ĭçļĦ": 8566,
      "ystem": 8567,
      "å¯¹æİ¥": 8568,
      "Ġminim": 8569,
      "æľªæĿ¥çļĦ": 8570,
      "åħ±å»º": 8571,
      "LI": 8572,
      "æŁĲä¸ª": 8573,
      "ĠÎ±": 8574,
      "ç®ĢåįķçļĦ": 8575,
      "Ġsl": 8576,
      "åĩºäºİ": 8577,
      "ç¡ķ": 8578,
      "æĬĹä½ĵ": 8579,
      "æ¢³": 8580,
      "éģŃåıĹ": 8581,
      "èĲĦ": 8582,
      "ç¤¾ä¼ļä¿Ŀéļľ": 8583,
      "TA": 8584,
      "æ·»åĬł": 8585,
      "ets": 8586,
      "åĳ¨éĺ²": 8587,
      "åıĪæĺ¯": 8588,
      "Ġdispl": 8589,
      "åı¤åħ¸": 8590,
      "ä¸Ģè¯´": 8591,
      "è¾ĥå¤§çļĦ": 8592,
      "PV": 8593,
      "æľªæĪĲå¹´äºº": 8594,
      "ĠFigure": 8595,
      "Ġfailure": 8596,
      "å¾Ĺåĩº": 8597,
      "Ġpropor": 8598,
      "æ°ıä¸İ": 8599,
      "å½Ĵçº³": 8600,
      "Ġdeli": 8601,
      "function": 8602,
      "æ°ĶåĢĻåıĺåĮĸ": 8603,
      "Ġperipher": 8604,
      "çļĦä¸Ģéĥ¨åĪĨ": 8605,
      "çĽ²": 8606,
      "ipp": 8607,
      "ä¹Łè¢«": 8608,
      "è´¦æĪ·": 8609,
      "æħ¢æĢ§": 8610,
      "åĪĿå¿ĥ": 8611,
      "ä¹ĭä¸ĢçļĦ": 8612,
      "æ»´": 8613,
      "ysiological": 8614,
      "éĶ»": 8615,
      "æ¶Īå¤±": 8616,
      "çĹħäºº": 8617,
      "çļĦæĶ¿çŃĸ": 8618,
      "åĲĦæĹı": 8619,
      "å¡ĳéĢł": 8620,
      "èĳ¡èĲĦ": 8621,
      "Ġreceived": 8622,
      "åĪĿå§ĭ": 8623,
      "æŁĵèī²": 8624,
      "åįĹäº¬": 8625,
      "åĪ¶åº¦åĴĮ": 8626,
      "æ°ĳèĲ¥": 8627,
      "ä¸ŃåĴĮ": 8628,
      "SO": 8629,
      "ç³»æķ°": 8630,
      "å¹´ä¸įè¯¦": 8631,
      "æµĭå®ļ": 8632,
      "çļĦå½¢æĪĲ": 8633,
      "aged": 8634,
      "å¸¸è§Ħ": 8635,
      "Ġcateg": 8636,
      "æĭ¨": 8637,
      "é»İ": 8638,
      "ä¹ħä¿Ŀ": 8639,
      "Ab": 8640,
      "å½Ĵå±ŀ": 8641,
      "Con": 8642,
      "omas": 8643,
      "å®¤çĶºæĹ¶ä»£": 8644,
      "é¢ĨåľŁ": 8645,
      "Ġpotenti": 8646,
      "Ġexhib": 8647,
      "Ġable": 8648,
      "çŁ³è§ģ": 8649,
      "Ġclin": 8650,
      "çŃīåľ°": 8651,
      "rm": 8652,
      "è°ĭåıį": 8653,
      "ç¬¬ä¸īäºº": 8654,
      "DR": 8655,
      "åħ³ä¸ľç®¡é¢Ĩ": 8656,
      "èĩªå°½": 8657,
      "åįļçī©é¦Ĩ": 8658,
      "èģĮæĿĥ": 8659,
      "Ġincreases": 8660,
      "Ġsoft": 8661,
      "Ġmanagement": 8662,
      "Ġstudied": 8663,
      "äº²çİĭ": 8664,
      "ploy": 8665,
      "è¯īè®¼æ³ķ": 8666,
      "è¡¥è´´": 8667,
      "æĸ°èĥ½æºĲ": 8668,
      "åĲŀ": 8669,
      "è¡Ģæ¶²": 8670,
      "æł¼å¼ı": 8671,
      "çļĦæĢ»": 8672,
      "å¿ĥçĲĨåŃ¦": 8673,
      "Ġconfirmed": 8674,
      "èĩªç§°": 8675,
      "Ġsch": 8676,
      "å¦ĤåĽ¾": 8677,
      "åįĹæľĿ": 8678,
      "ĠER": 8679,
      "æµ·ä¸Ĭ": 8680,
      "æľŁçļĦæŃ¦å°Ĩ": 8681,
      "åıĶçĪ¶": 8682,
      "åįģæĿ¡": 8683,
      "æĴŀ": 8684,
      "Ġfacil": 8685,
      "Ġepithelial": 8686,
      "rate": 8687,
      "å«¡çĶ·": 8688,
      "Ġresulting": 8689,
      "çļĦå¤§åĲį": 8690,
      "ä¸Ģçº§": 8691,
      "Ġobes": 8692,
      "çļĦåĪĨæŀĲ": 8693,
      "èģļéĽĨ": 8694,
      "Ġliter": 8695,
      "åħ´èµ·": 8696,
      "Ġpopulations": 8697,
      "ä¼¤å®³": 8698,
      "Ġcorrelated": 8699,
      "æĹłçº¿": 8700,
      "æĢ¥æĢ§": 8701,
      "å±±åİ¿": 8702,
      "adi": 8703,
      "éļ¾åº¦": 8704,
      "rotein": 8705,
      "çī¹å¼Ĥ": 8706,
      "æķ·": 8707,
      "åĴĮæľįåĬ¡": 8708,
      "Ġsuggests": 8709,
      "åĻ¨ä»¶": 8710,
      "ä¸Ĭæĺ¯": 8711,
      "è¦ģä»¶": 8712,
      "èĤ©": 8713,
      "ä»İæŃ¤": 8714,
      "éĢıæĺİ": 8715,
      "ç¥Ŀ": 8716,
      "Ġdirectly": 8717,
      "æĭ¼": 8718,
      "roid": 8719,
      "æīĩè°·": 8720,
      "å¾½": 8721,
      "Ġvent": 8722,
      "çłĶç©¶èĢħ": 8723,
      "å¯¹ä¸ŃåĽ½": 8724,
      "Ġsal": 8725,
      "Ġadult": 8726,
      "æīįæĺ¯": 8727,
      "éĢĢåĩº": 8728,
      "çĭŃéĹ´": 8729,
      "æī®": 8730,
      "åĲİç»Ń": 8731,
      "Ġinterp": 8732,
      "LP": 8733,
      "åħ³èĬĤ": 8734,
      "èĥĥ": 8735,
      "æīŃ": 8736,
      "çºªä¼Ĭ": 8737,
      "çļĦéľĢè¦ģ": 8738,
      "åĩºå¾ģ": 8739,
      "å¤§åĪ©": 8740,
      "æĥ§": 8741,
      "CF": 8742,
      "çŁ³æ²¹": 8743,
      "è¿ĩéĶĻ": 8744,
      "Ġpatterns": 8745,
      "å®ĪçļĦ": 8746,
      "Ġeduc": 8747,
      "åįģäºĮå¹´": 8748,
      "Ġtox": 8749,
      "å®¾": 8750,
      "æ¸ħåįķ": 8751,
      "ä¿¡æīĺ": 8752,
      "æĬĢæľ¯åĪĽæĸ°": 8753,
      "å¼ķçĶ¨": 8754,
      "é¼»": 8755,
      "æ°ıçŃī": 8756,
      "æīĳ": 8757,
      "Ġiss": 8758,
      "æľīåħ³éĥ¨éĹ¨": 8759,
      "åĪ©æģ¯": 8760,
      "å®Įæķ´çļĦ": 8761,
      "Ġfive": 8762,
      "regulation": 8763,
      "çİĭæľĿ": 8764,
      "Ġfund": 8765,
      "å½°æĺ¾": 8766,
      "Ġdomain": 8767,
      "çĶµåŃĲåķĨåĬ¡": 8768,
      "åĲ¹": 8769,
      "äºĮæ°§åĮĸ": 8770,
      "åłº": 8771,
      "Ġapplied": 8772,
      "è±¡å¾ģ": 8773,
      "åĳĬçŁ¥": 8774,
      "æ¸Ķ": 8775,
      "az": 8776,
      "ä¹¦ä¿¡": 8777,
      "çłĶç©¶çĶŁ": 8778,
      "Ġrapid": 8779,
      "åİĨåı²æĢ§": 8780,
      "ĠTNF": 8781,
      "ä¹Łæ²¡æľī": 8782,
      "è¡¨çİ°åĩº": 8783,
      "ãģ¯": 8784,
      "rs": 8785,
      "çļĦä¼ģä¸ļ": 8786,
      "æĪĺäºĭ": 8787,
      "çļĦåı¯": 8788,
      "æĹ©åľ¨": 8789,
      "äºĮæĿ¡": 8790,
      "Ġhand": 8791,
      "Ġhistory": 8792,
      "åıĺè¿ģ": 8793,
      "Ġmetabolic": 8794,
      "åıĹçĲĨ": 8795,
      "åĪ°åºķ": 8796,
      "åħ¨åĽ½äººå¤§": 8797,
      "Ġess": 8798,
      "åıĤçħ§": 8799,
      "å¸¦æľī": 8800,
      "åį³ä¾¿": 8801,
      "Ġaffected": 8802,
      "çĽ¸ä¼ł": 8803,
      "PT": 8804,
      "è§Ħç«ł": 8805,
      "Ġmorph": 8806,
      "æļĤæĹ¶": 8807,
      "åįłæ¯Ķ": 8808,
      "Ġgast": 8809,
      "èµ·åĪ°": 8810,
      "ogn": 8811,
      "aid": 8812,
      "Ġevaluation": 8813,
      "ä¸Ńå°ıä¼ģä¸ļ": 8814,
      "ä¸ĭäºĨ": 8815,
      "æĬ«éľ²": 8816,
      "æĿ¾æ°¸ä¹ħ": 8817,
      "åīįæĻ¯": 8818,
      "æŁı": 8819,
      "Ġleading": 8820,
      "æĺ¯éĢļè¿ĩ": 8821,
      "ä½ľäºĨ": 8822,
      "è°ĥçłĶ": 8823,
      "åĲĦæĸ¹éĿ¢": 8824,
      "ĠĠĠĠĠĠĠĠĠĠĠĠĠĠĠĠĠĠĠ": 8825,
      "éĿ¢ä¸´çļĦ": 8826,
      "Ġlight": 8827,
      "æĹ¥æľ¬çļĦ": 8828,
      "ç§ģäºº": 8829,
      "æĬ¥éħ¬": 8830,
      "å£°æĺİ": 8831,
      "RNAs": 8832,
      "1573": 8833,
      "å²Ĳéĺľ": 8834,
      "ĠĠĠĠĠĠĠĠĠĠĠĠĠĠĠĠĠĠĠĠĠĠĠĠĠĠĠĠĠĠĠĠĠĠĠĠĠĠĠĠĠĠĠĠĠĠĠĠĠĠĠĠĠĠĠĠĠĠĠĠĠĠĠĠĠĠĠĠĠĠĠĠĠĠĠĠĠĠĠĠĠĠĠĠĠĠĠĠĠĠĠĠĠĠĠĠĠĠĠĠĠĠĠĠĠĠĠĠĠĠĠĠĠĠĠĠĠĠĠĠĠĠĠĠĠĠĠĠĠĠĠĠĠĠĠĠĠĠĠĠĠĠĠĠĠĠĠĠĠĠĠĠĠĠĠĠĠĠĠĠĠĠĠĠĠĠĠĠĠĠĠĠĠĠĠĠĠĠĠĠĠĠĠĠĠĠĠĠĠĠĠĠĠĠĠĠĠĠĠĠĠĠĠĠĠĠĠĠĠĠĠĠĠĠĠĠĠĠĠĠĠĠĠĠĠĠĠĠĠĠĠĠĠĠĠĠĠĠĠĠĠĠĠĠĠĠĠĠĠĠĠĠĠĠĠĠ": 8835,
      "arrow": 8836,
      "åĬłå¯Ĩ": 8837,
      "éĨį": 8838,
      "Ġconsistent": 8839,
      "Ġchann": 8840,
      "Ġinterval": 8841,
      "Î¼": 8842,
      "LS": 8843,
      "èµ·ä¹ī": 8844,
      "ä¸Ģä¸ĭ": 8845,
      "èĢĮè¢«": 8846,
      "Ġpan": 8847,
      "ä¸¾è¯ģ": 8848,
      "çļĦç»Ħç»ĩ": 8849,
      "åĨĽåľ¨": 8850,
      "åĩ¯": 8851,
      "éĻĨå¥¥": 8852,
      "åºĶçĶ¨ç¨ĭåºı": 8853,
      "Ġcomponents": 8854,
      "Ġagg": 8855,
      "Ġoper": 8856,
      "åĽ¾å½¢": 8857,
      "ĠSp": 8858,
      "å¤§çº¦": 8859,
      "Ġversus": 8860,
      "æĬ¤çĲĨ": 8861,
      "ify": 8862,
      "éĻĲäºİ": 8863,
      "BD": 8864,
      "æ®ĸæ°ĳ": 8865,
      "è¯¯å·®": 8866,
      "ele": 8867,
      "å¸¸å§Ķä¼ļ": 8868,
      "èĲ½åĲİ": 8869,
      "è¾ħä½Ĳ": 8870,
      "ä¼Ĭè±«": 8871,
      "tt": 8872,
      "overy": 8873,
      "è¡Įä¸ºäºº": 8874,
      "Ġsince": 8875,
      "è·Łéļı": 8876,
      "æŃ£åĪĻ": 8877,
      "èĪĨè®º": 8878,
      "Ġendothelial": 8879,
      "å¸¸è§ģçļĦ": 8880,
      "åīįèĢħ": 8881,
      "äººç±»ç¤¾ä¼ļ": 8882,
      "è¿ĩäºİ": 8883,
      "åĪĽéĢłäºĨ": 8884,
      "bers": 8885,
      "åĽŀåºĶ": 8886,
      "çļĦåŃĺåľ¨": 8887,
      "time": 8888,
      "NT": 8889,
      "çłĶç©¶ä¸Ń": 8890,
      "è¯»èĢħ": 8891,
      "Ġsens": 8892,
      "çī©ä½ĵ": 8893,
      "Ġuni": 8894,
      "ä¸ºä¸»è¦ģ": 8895,
      "çļĦæłĩåĩĨ": 8896,
      "æ£Ģå¯ŁéĻ¢": 8897,
      "éļĨä¿¡": 8898,
      "æĪĳä»¬åı¯ä»¥": 8899,
      "Ġlig": 8900,
      "Ġhere": 8901,
      "æĢĿæĥ³çļĦ": 8902,
      "Ġparticularly": 8903,
      "utri": 8904,
      "åħ¬æľī": 8905,
      "priate": 8906,
      "å¤§æ°¸": 8907,
      "æ¶µçĽĸ": 8908,
      "ä¸įåºĶ": 8909,
      "äºĮæľĪ": 8910,
      "éĨĲ": 8911,
      "çŃĴäºķ": 8912,
      "éĨįéĨĲ": 8913,
      "æģ¨": 8914,
      "æī©æķ£": 8915,
      "2007": 8916,
      "Ġsurve": 8917,
      "Ġcomparison": 8918,
      "å®ŀä¹ł": 8919,
      "orb": 8920,
      "MR": 8921,
      "Ġskin": 8922,
      "åŃ¦ä½į": 8923,
      "å¹¶ä»¥": 8924,
      "å°½åı¯èĥ½": 8925,
      "åħ¨éĿ¢å»ºè®¾": 8926,
      "ç³»ç»Łä¸Ń": 8927,
      "å®¶åľ¨": 8928,
      "orescence": 8929,
      "Ġreduce": 8930,
      "åŁºåĽłç»Ħ": 8931,
      "ä¹īæĻ¯": 8932,
      "positive": 8933,
      "å¹»": 8934,
      "å¿ĥèĦı": 8935,
      "èĢķåľ°": 8936,
      "ä¸įå¼Ģ": 8937,
      "å¿łè¯ļ": 8938,
      "ä¸ºé¦ĸ": 8939,
      "èĤ¤": 8940,
      "Ġkinase": 8941,
      "èµĦæºĲéħįç½®": 8942,
      "by": 8943,
      "Ġlipid": 8944,
      "å¤ĩä¸Ń": 8945,
      "æıĲç¤º": 8946,
      "æŃ£æľĪ": 8947,
      "Ġinterven": 8948,
      "ä¿ĥè¿ĽäºĨ": 8949,
      "åĭŁ": 8950,
      "Ġremains": 8951,
      "å¤ĩåīį": 8952,
      "Ġtransi": 8953,
      "ĠCol": 8954,
      "æłĩè®°": 8955,
      "éªļ": 8956,
      "åŀĥ": 8957,
      "åĨ¢": 8958,
      "ä¹ĭå¤§": 8959,
      "åĿļå®ŀ": 8960,
      "è´±": 8961,
      "é¢Ĩå¯¼å¹²éĥ¨": 8962,
      "å¿Į": 8963,
      "ä»ªå¼ı": 8964,
      "éģĩåĪ°": 8965,
      "Ġsuccess": 8966,
      "Ġfile": 8967,
      "æľ¬æ¡Ī": 8968,
      "æĪĺæľ¯": 8969,
      "è¿Ļé¡¹": 8970,
      "æ²»çĲĨèĥ½åĬĽ": 8971,
      "åľ¾": 8972,
      "éĿ¢åīį": 8973,
      "Ġdetail": 8974,
      "èµ·æºĲ": 8975,
      "èĦ±è´«æĶ»åĿļ": 8976,
      "åĽŀæĶ¶": 8977,
      "èĥĮåĲİ": 8978,
      "ä»ªåĻ¨": 8979,
      "ä¸Ģäºº": 8980,
      "åŀĥåľ¾": 8981,
      "äº§éĺ¶çº§": 8982,
      "ä¸įæĸŃæıĲé«ĺ": 8983,
      "å¸¸å¸¸": 8984,
      "ographic": 8985,
      "æ·ĭå·´": 8986,
      "Ġincidence": 8987,
      "ĠCo": 8988,
      "GG": 8989,
      "LD": 8990,
      "Ġkid": 8991,
      "å·¥åķĨ": 8992,
      "åįıå®ļ": 8993,
      "left": 8994,
      "çļĩå¸Ŀ": 8995,
      "æł·åĵģ": 8996,
      "éļĻ": 8997,
      "eful": 8998,
      "æİ©": 8999,
      "ä¸Ĭçº§": 9000,
      "Ġanimal": 9001,
      "Ġadap": 9002,
      "ä¸ªåĪ«": 9003,
      "åĲĪæł¼": 9004,
      "åĩłä½ķ": 9005,
      "120": 9006,
      "mi": 9007,
      "äººå¿ĥ": 9008,
      "çļĦå¤ĸ": 9009,
      "çłĶç©¶åĳĺ": 9010,
      "åħ¬åĽŃ": 9011,
      "åĽĽæĺ¯": 9012,
      "erve": 9013,
      "é¢ĦèŃ¦": 9014,
      "å¤§åĨħæ°ı": 9015,
      "ethod": 9016,
      "å°±æĺ¯è¦ģ": 9017,
      "å¸¦æĿ¥äºĨ": 9018,
      "æ·±è¿ľ": 9019,
      "è°±ä»£": 9020,
      "å®£åĳĬ": 9021,
      "ino": 9022,
      "è¯±å¯¼": 9023,
      "å°ĳæķ°æ°ĳæĹı": 9024,
      "èĨ³": 9025,
      "å¤ĦçļĦ": 9026,
      "formation": 9027,
      "hest": 9028,
      "éĩĮçļĦ": 9029,
      "åįģäºĮæĿ¡": 9030,
      "inflamm": 9031,
      "ä¸¢": 9032,
      "vari": 9033,
      "åĳ½é¢ĺ": 9034,
      "çĤ¸": 9035,
      "çĹħåıĺ": 9036,
      "åį³å°Ĩ": 9037,
      "æĦıä¹īä¸Ĭ": 9038,
      "ream": 9039,
      "Ġevaluate": 9040,
      "å¥ĳçº¦": 9041,
      "æł¡åĽŃ": 9042,
      "åįģä¸Ģå¹´": 9043,
      "çĶŁçī©åŃ¦": 9044,
      "å®¶éķ¿": 9045,
      "åħ¶ä¸ŃçļĦ": 9046,
      "ä¸Ńä»ĭ": 9047,
      "éĽķ": 9048,
      "èĩ³åħ³": 9049,
      "Ġsupplement": 9050,
      "åĻ¨å®ĺ": 9051,
      "equ": 9052,
      "çīº": 9053,
      "Ġmacrophages": 9054,
      "æ®ĭçĸ¾": 9055,
      "è´Łè´£äºº": 9056,
      "é¢Ĺç²Ĵ": 9057,
      "åħ³å¿ĥ": 9058,
      "æŃ¤åīį": 9059,
      "Ġrequire": 9060,
      "çĶŁæ´»ä¸Ń": 9061,
      "èĥ½çĻ»": 9062,
      "Ġrelevant": 9063,
      "åıĳæĢ§": 9064,
      "ä¸ľåįĹ": 9065,
      "éĺĲéĩĬ": 9066,
      "åĩĮ": 9067,
      "ems": 9068,
      "æľªç»ı": 9069,
      "åıĳçĶŁåľ¨": 9070,
      "èĴĭ": 9071,
      "åħ¨æĸ¹ä½į": 9072,
      "æĭĺ": 9073,
      "associated": 9074,
      "lish": 9075,
      "Ġquantif": 9076,
      "çº¿çļĦ": 9077,
      "Ġoptim": 9078,
      "åı¯æĺ¯": 9079,
      "çĽ´æĶ¿": 9080,
      "æĢģåĬ¿": 9081,
      "Ġstatistical": 9082,
      "leep": 9083,
      "otypes": 9084,
      "ä¼łæŁĵ": 9085,
      "ĠGen": 9086,
      "âĸ": 9087,
      "ç»ĦæĪĲçļĦ": 9088,
      "SI": 9089,
      "ä¹¦ä¸Ń": 9090,
      "è¾ĥé«ĺçļĦ": 9091,
      "é»Ħæ²³": 9092,
      "Ġplace": 9093,
      "Ġaccum": 9094,
      "Ġfuture": 9095,
      "Ġleuk": 9096,
      "æĲ¬": 9097,
      "èİ±": 9098,
      "Ġmaterial": 9099,
      "pecially": 9100,
      "å¢ĥåĨħ": 9101,
      "ä»¥ä¹łè¿ĳå¹³åĲĮå¿Ĺ": 9102,
      "åħĨ": 9103,
      "Ġoste": 9104,
      "Ġimplement": 9105,
      "äºļæ´²": 9106,
      "Ġpregn": 9107,
      "Ġinteractions": 9108,
      "ä¸ºæł¸å¿ĥçļĦåħļä¸Ńå¤®": 9109,
      "æ¡¶çĭŃéĹ´": 9110,
      "ä¸Ńåįİä¼ĺç§Ģ": 9111,
      "å¥¥å·ŀ": 9112,
      "Ġspecies": 9113,
      "éĿ©åĳ½çļĦ": 9114,
      "æ¢³çĲĨ": 9115,
      "çĽ¸èī¯": 9116,
      "åĨ»": 9117,
      "åħ¶ä½Ļ": 9118,
      "éĥ¨ä½į": 9119,
      "ä»ĬåĲİ": 9120,
      "éĢļè®¯": 9121,
      "å¸¸çĶ¨": 9122,
      "æĺ¯ä¸ºäºĨ": 9123,
      "èĴ¸": 9124,
      "çİ©": 9125,
      "æĺİæľĿ": 9126,
      "éľĢè¦ģçļĦ": 9127,
      "lobal": 9128,
      "å±ĢåĬ¿": 9129,
      "Ġdisorder": 9130,
      "å³Ļ": 9131,
      "å½¼æŃ¤": 9132,
      "é¡»è´º": 9133,
      "ame": 9134,
      "å§Ĩ": 9135,
      "ç³»ç»ŁæĢ§": 9136,
      "æłĩå¿ĹçĿĢ": 9137,
      "é£Łçī©": 9138,
      "æĶ»åħ¥": 9139,
      "Ġlike": 9140,
      "Ġangi": 9141,
      "Ġgenerated": 9142,
      "Ġdistinc": 9143,
      "çļĦéĩįè¦ģæĢ§": 9144,
      "Ġ37": 9145,
      "Ġreas": 9146,
      "Ġfinal": 9147,
      "Ġhost": 9148,
      "erate": 9149,
      "ä¼ĺçĤ¹": 9150,
      "æŀģç«¯": 9151,
      "å£°éŁ³": 9152,
      "å¹¶ä¸İ": 9153,
      "ä¸ĬäºĨ": 9154,
      "æĥľ": 9155,
      "åŃĶåŃĲ": 9156,
      "Ġcontribute": 9157,
      "å°ıæĹ©å·ĿéļĨæĻ¯": 9158,
      "åįģåĽĽæĿ¡": 9159,
      "2005": 9160,
      "åįģä¸ĢæĿ¡": 9161,
      "Co": 9162,
      "Ġanother": 9163,
      "ä»¿çľŁ": 9164,
      "ä½ĨçĶ±äºİ": 9165,
      "Ġair": 9166,
      "å¯¹çħ§": 9167,
      "Ġmolecules": 9168,
      "äº«åıĹ": 9169,
      "å¤§èĦĳ": 9170,
      "verex": 9171,
      "éģŃéģĩ": 9172,
      "Ġmicroscop": 9173,
      "æĹ¥è®°": 9174,
      "estinal": 9175,
      "åĲĪéĢĤ": 9176,
      "å¹½": 9177,
      "Ġregression": 9178,
      "è¾°": 9179,
      "æķĻåŃ¦ä¸Ń": 9180,
      "ä½ĵç³»å»ºè®¾": 9181,
      "å¦»åŃĲ": 9182,
      "åįģä¸īæĿ¡": 9183,
      "ç³ĸå°¿": 9184,
      "æĿĢæŃ»": 9185,
      "Ġmalign": 9186,
      "å¤©çİĭ": 9187,
      "Ġthough": 9188,
      "æĥħæĬ¥": 9189,
      "éĵº": 9190,
      "å¤§èĩ´": 9191,
      "è°ĥçĶ¨": 9192,
      "é¢ĳç¹ģ": 9193,
      "æŃ¤ç±»": 9194,
      "åŁºåĩĨ": 9195,
      "åı¯çĶ¨": 9196,
      "Ġcall": 9197,
      "æĶ¹æĺĵ": 9198,
      "çīºçī²": 9199,
      "ä»Ģä¹Īæĺ¯": 9200,
      "ç»ĺçĶ»": 9201,
      "è£ģåĨ³": 9202,
      "å¹¿åĳĬ": 9203,
      "SE": 9204,
      "ĠIFN": 9205,
      "æīĭä¸Ń": 9206,
      "äºĳè®¡ç®Ĺ": 9207,
      "äºĶä¸ª": 9208,
      "å¹´åºķ": 9209,
      "äººçĶŁ": 9210,
      "æıĲåīį": 9211,
      "ç¬¬ä¸īæĸ¹": 9212,
      "åľ°è´¨": 9213,
      "eding": 9214,
      "èµ°åĩº": 9215,
      "HA": 9216,
      "åĨ³å¿ĥ": 9217,
      "æľºæŀĦçļĦ": 9218,
      "æĹ¢è¦ģ": 9219,
      "pite": 9220,
      "æĸ¹æ³ķçļĦ": 9221,
      "rog": 9222,
      "ãģ¦": 9223,
      "å°ºåº¦": 9224,
      "å²Ľæ´¥å®¶": 9225,
      "åľ°çĤ¹": 9226,
      "åľ¨ä¸Ģä¸ª": 9227,
      "è®¾è®¡çļĦ": 9228,
      "ĠSD": 9229,
      "è¿Ļåľº": 9230,
      "è·µè¡Į": 9231,
      "ç»ĵåĲĪèµ·æĿ¥": 9232,
      "çĶ¨éĢĶ": 9233,
      "èĢ¶": 9234,
      "Ġinvestigate": 9235,
      "åĪĹå®ģ": 9236,
      "èĤºçĤİ": 9237,
      "ãĤĭ": 9238,
      "åķĨäºº": 9239,
      "å¹¶å¯¹": 9240,
      "Ġexist": 9241,
      "ç»Īç«¯": 9242,
      "åİ¿çº§": 9243,
      "èĿ": 9244,
      "ç¡ħ": 9245,
      "Ġcycle": 9246,
      "çĻĮçĹĩ": 9247,
      "è¿Ļä¸¤": 9248,
      "mL": 9249,
      "æĿ¾æ°¸ä¹ħç§Ģ": 9250,
      "rated": 9251,
      "åĪĽç«ĭ": 9252,
      "åķĨä¸ļéĵ¶è¡Į": 9253,
      "ä¸ºæŃ¢": 9254,
      "Ġ22": 9255,
      "å¸ĪçĶŁ": 9256,
      "åĪĨæŀĲåĴĮ": 9257,
      "Ġscreening": 9258,
      "åĬłåī§": 9259,
      "è§Ħå®ļäºĨ": 9260,
      "æĢ»ä¹ĭ": 9261,
      "èĳĹåĲįçļĦ": 9262,
      "çĶµæºĲ": 9263,
      "Ġactivated": 9264,
      "çīĪæľ¬": 9265,
      "ĠOne": 9266,
      "çªĦ": 9267,
      "Ġprost": 9268,
      "è¢«ä»»åĳ½ä¸º": 9269,
      "ä¸įçŁ¥": 9270,
      "åĽŃåĮº": 9271,
      "é¤Ĳ": 9272,
      "çĽ¸ä¿¡": 9273,
      "å³»": 9274,
      "å¹³å®ī": 9275,
      "åľ¨å¯¹": 9276,
      "è¯ļä¿¡": 9277,
      "çİ¯å¢ĥä¸Ń": 9278,
      "æĶ¿åįı": 9279,
      "Ġneu": 9280,
      "è¢«è®¤ä¸ºæĺ¯": 9281,
      "cohol": 9282,
      "ç¬¬ä¹Ŀ": 9283,
      "Ġerr": 9284,
      "care": 9285,
      "æķĻèĤ²éĥ¨": 9286,
      "æĦıæĦ¿": 9287,
      "è¢«åĳĬäºº": 9288,
      "åĮ»çĶŁ": 9289,
      "for": 9290,
      "ç³ĸå°¿çĹħ": 9291,
      "Ġsupported": 9292,
      "ĠInc": 9293,
      "Ġneeded": 9294,
      "Ġrespiratory": 9295,
      "æĪĸèĢħåħ¶ä»ĸ": 9296,
      "Ġdyn": 9297,
      "è¿Ļä¹Łæĺ¯": 9298,
      "çĭĤ": 9299,
      "1578": 9300,
      "Ġpref": 9301,
      "Ġsci": 9302,
      "ources": 9303,
      "tered": 9304,
      "åĲİåĮĹæĿ¡æ°ı": 9305,
      "Ġemerg": 9306,
      "å¹´èĩ³": 9307,
      "ä¸ŃåĽ½ç»ıæµİ": 9308,
      "LT": 9309,
      "é«ĺæ¡¥": 9310,
      "Ġupon": 9311,
      "éªıåºľ": 9312,
      "istry": 9313,
      "GE": 9314,
      "æļ´åĬĽ": 9315,
      "çļĦæĶ¯æĮģ": 9316,
      "æĸĳ": 9317,
      "1585": 9318,
      "è¯ĪéªĹ": 9319,
      "èĭ±éĽĦ": 9320,
      "2006": 9321,
      "éĿĴå°ĳå¹´": 9322,
      "onic": 9323,
      "Ġsynap": 9324,
      "Ġquantit": 9325,
      "çļĦåĪ©çĽĬ": 9326,
      "Ġapproxim": 9327,
      "bor": 9328,
      "Ġperipheral": 9329,
      "Ġtransfer": 9330,
      "å±±ä¸Ń": 9331,
      "å¼Ĥè®®": 9332,
      "å§Ĳ": 9333,
      "æ»¡æĦı": 9334,
      "æĽ¹": 9335,
      "Ġcharacterized": 9336,
      "ä½ľé£İ": 9337,
      "åħ¹": 9338,
      "å¾·å·ĿåĨĽ": 9339,
      "äºĶçĻ¾": 9340,
      "æľ¬åĽ½": 9341,
      "ç«łç¨ĭ": 9342,
      "åĸ»": 9343,
      "Ġmid": 9344,
      "çļĦé¢Ĩåľ°": 9345,
      "å®ŀè®Ń": 9346,
      "chem": 9347,
      "aches": 9348,
      "Ġreal": 9349,
      "Ġdim": 9350,
      "Ġphenotype": 9351,
      "å¼ĢåŁİ": 9352,
      "Ġbiomark": 9353,
      "ogenous": 9354,
      "æµģä¼ł": 9355,
      "åĩºç¾½": 9356,
      "Ġresearchers": 9357,
      "ifically": 9358,
      "operative": 9359,
      "å¼ķå¯¼åŃ¦çĶŁ": 9360,
      "Ġmaxim": 9361,
      "æ±Łèĭı": 9362,
      "æĹ¶æķĪ": 9363,
      "rolog": 9364,
      "äºĭä¸ļåįķä½į": 9365,
      "Ġsecondary": 9366,
      "å®ŀåľ¨": 9367,
      "æĩĪ": 9368,
      "Ġdecision": 9369,
      "Ġadults": 9370,
      "æĹ¥æľŁ": 9371,
      "çĪµ": 9372,
      "Ġdon": 9373,
      "çŃĶæ¡Ī": 9374,
      "éĻĲåº¦": 9375,
      "Ġpossi": 9376,
      "å·¥ä½ľäººåĳĺ": 9377,
      "æľĢä½³": 9378,
      "æŀĦæĪĲäºĨ": 9379,
      "å¯¹å¤ĸå¼ĢæĶ¾": 9380,
      "Ġfluid": 9381,
      "ä½ľä¸ºä¸Ģç§į": 9382,
      "ĠMedical": 9383,
      "åģļäºĨ": 9384,
      "rich": 9385,
      "ä¸Ģæµģ": 9386,
      "çº¦å®ļçļĦ": 9387,
      "æĮĩåĲĳ": 9388,
      "çº¿ä¸Ĭ": 9389,
      "ä¸ªäººçļĦ": 9390,
      "Ġespecially": 9391,
      "æĸĩåĮĸéģĹäº§": 9392,
      "Ġderived": 9393,
      "åįģäºĮæľĪ": 9394,
      "Ġpulmonary": 9395,
      "1584": 9396,
      "æĿĤå¿Ĺ": 9397,
      "æĪĲåĥı": 9398,
      "åĪ·": 9399,
      "Ġestablished": 9400,
      "åĳĬè¯ī": 9401,
      "æĺİäºĨ": 9402,
      "èĥº": 9403,
      "Ġtoward": 9404,
      "åı¯åĪĨä¸º": 9405,
      "åĲ«æľī": 9406,
      "Ġliterature": 9407,
      "0001": 9408,
      "Ġstrategies": 9409,
      "rup": 9410,
      "ä¸Ńå±±": 9411,
      "ç§Ĵ": 9412,
      "Ġrecru": 9413,
      "irus": 9414,
      "æĪĺçļĦ": 9415,
      "è¿ĺåİŁ": 9416,
      "åıĳå±ķä¸ŃåĽ½å®¶": 9417,
      "æĿł": 9418,
      "Ġä»İ": 9419,
      "Ġvess": 9420,
      "ä¹¦åĨĻ": 9421,
      "éĴ¥": 9422,
      "here": 9423,
      "ç¨į": 9424,
      "åĴĮæ³ī": 9425,
      "Ġwhole": 9426,
      "æľĢéĩįè¦ģçļĦ": 9427,
[...]
